<unk>	0
<s>	0
</s>	0
,	-2.91002
।	-2.91344
.	-3.93804
ং	-3.97962
তি	-4.01585
▁‘‘	-4.2496
▁	-4.37644
’’	-4.50186
▁চ	-4.55285
া	-4.57789
▁ন	-4.59372
ো	-4.62317
ে	-4.9295
ন্তি	-4.96495
▁ৰা	-4.98622
স্স	-5.02688
॥	-5.06406
▁–	-5.24574
েন	-5.37859
▁হোতি	-5.51696
▁পন	-5.52689
▁তং	-5.66104
পে	-5.66302
?	-5.6757
॰	-5.7416
▁তত্থ	-5.77823
▁সো	-5.89361
▁এৰং	-5.91476
তো	-5.95245
পি	-5.95276
▁নাম	-5.97381
▁খো	-5.98809
-	-6.02053
ঞ্চ	-6.04022
▁অ	-6.08282
▁ভিক্খৰে	-6.111
ানং	-6.13305
’	-6.1433
▁তস্স	-6.14415
▁তে	-6.15499
ন	-6.19053
▁হি	-6.25706
াতি	-6.25948
ানি	-6.26777
েহি	-6.34397
▁ৰুত্তং	-6.36694
ৰ	-6.40007
▁অত্থো	-6.46086
েসু	-6.48337
ায	-6.51224
▁‘	-6.55135
;	-6.55187
ি	-6.58061
▁ধম্মা	-6.59277
▁ধম্মো	-6.61162
▁মে	-6.61794
▁তেসং	-6.62495
ৰসেন	-6.62589
নং	-6.62969
▁ধম্মং	-6.64763
▁উপ্পজ্জতি	-6.66501
▁অযং	-6.67859
▁পচ্চযো	-6.68264
▁তেন	-6.68437
▁যথা	-6.72282
▁ৰিয	-6.72285
▁পটিচ্চ	-6.73866
▁যং	-6.78549
▁ভিক্খু	-6.80009
ী	-6.80894
▁একং	-6.8444
▁দ্ৰে	-6.84566
▁যো	-6.84901
▁কত্ৰা	-6.84962
▁অথ	-6.85675
ত্তা	-6.86276
▁এত্থ	-6.86702
▁নো	-6.87747
তা	-6.88176
▁তস্মা	-6.90879
▁তথা	-6.9089
▁স	-6.92186
▁ভগৰা	-6.9231
▁আহ	-6.9232
▁ভন্তে	-6.93162
ম্পি	-6.93499
▁ইদং	-6.94264
াদি	-6.94919
▁ততো	-6.95522
য	-7.01632
▁তীণি	-7.01752
ক	-7.04432
মেৰ	-7.06954
▁অত্তনো	-7.07981
যেৰ	-7.09977
▁ৰুচ্চতি	-7.15692
কো	-7.15747
▁পঞ্চ	-7.17462
▁ইধ	-7.18579
▁যস্স	-7.19632
▁চিত্তং	-7.20615
সু	-7.21074
▁অত্থি	-7.21142
▁সা	-7.23307
ম	-7.23894
▁নত্থি	-7.24039
▁নৰ	-7.2489
▁যে	-7.25401
োতি	-7.26902
যো	-7.28101
▁তস্মিং	-7.28144
▁হোন্তি	-7.28705
তীতি	-7.29208
না	-7.30448
▁এৰ	-7.3149
▁ইতি	-7.31631
▁সত্ত	-7.32494
যা	-7.33068
তায	-7.35806
▁ভিক্খূ	-7.35983
▁নিট্ঠিতা	-7.36008
যং	-7.38418
অ	-7.38733
িত্ৰা	-7.38829
হি	-7.42276
▁কিং	-7.42416
েতি	-7.42527
কং	-7.43105
ম্হি	-7.45152
▁চেৰ	-7.45197
ড্	-7.46164
তিআদি	-7.46178
সি	-7.46758
েয্য	-7.4719
▁মহা	-7.47858
▁হেতুপচ্চযা	-7.48126
▁ভগৰতো	-7.48881
তং	-7.49266
▁ধম্মস্স	-7.49723
▁রূপং	-7.52934
▁আপত্তি	-7.5302
▁হুত্ৰা	-7.54217
▁সব্ব	-7.55372
ন্তো	-7.56344
কা	-7.59622
▁ইমিনা	-7.59739
▁যত্থ	-7.60018
▁খন্ধা	-7.60274
▁এক	-7.6052
▁আমন্তা	-7.61453
স	-7.62102
▁ইমে	-7.63812
▁ধম্ম	-7.64745
▁যা	-7.65157
▁ইমং	-7.67327
▁প	-7.68186
▁ৰ	-7.69047
▁দিস্ৰা	-7.69374
▁সু	-7.69402
▁অহোসি	-7.69558
▁যেন	-7.70215
▁সদ্ধিং	-7.70319
▁অহং	-7.71948
▁হোতীতি	-7.72035
▁কথং	-7.72071
▁রাজা	-7.72078
▁ত্ৰং	-7.73383
▁হেতু	-7.74472
▁তদা	-7.75406
▁পুন	-7.75703
▁সিযা	-7.7601
▁আৰুসো	-7.76274
▁তযো	-7.76792
▁মং	-7.77518
▁নু	-7.77663
▁মম	-7.7938
নি	-7.80543
▁সচে	-7.80568
▁ছ	-7.80946
▁গহেত্ৰা	-7.81496
▁একো	-7.82927
সুত্তং	-7.83455
▁১	-7.83821
▁সতি	-7.84275
▁ভগৰতা	-7.84426
াদীসু	-7.84582
নো	-7.84649
▁ইদানি	-7.85367
তী	-7.85386
▁পঞ্ঞা	-7.85752
▁সত্থা	-7.87722
▁মা	-7.89186
সুত্তৰণ্ণনা	-7.90037
▁অনু	-7.9016
▁পুগ্গলো	-7.9045
▁সহ	-7.91057
াদীনং	-7.91454
▁ৰিহরতি	-7.93434
▁সুত্ৰা	-7.93826
প	-7.93831
াপি	-7.94082
▁সব্বং	-7.94629
▁পচ্চযা	-7.94634
▁ৰি	-7.94678
সো	-7.94746
▁কতং	-7.94797
▁মহারাজ	-7.94862
তে	-7.96118
▁উপ	-7.962
▁যস্মা	-7.96237
েত্ৰা	-7.96672
ত্থ	-7.97594
ু	-7.9788
▁তাৰ	-7.97905
▁চত্তারো	-7.97963
িকা	-7.98022
াদযো	-7.99031
ভাৰং	-8.01067
▁তেনাহ	-8.01132
▁দস্সেতি	-8.0244
▁নহেতু	-8.02472
▁ৰত্ৰা	-8.03329
▁লোকে	-8.03332
সদ্দো	-8.03339
ভাৰেন	-8.03502
▁সব্বে	-8.0352
▁আরব্ভ	-8.03755
তিআদিনা	-8.04863
কথা	-8.05867
▁চত্তারি	-8.05873
▁পঠমং	-8.0588
▁খন্ধে	-8.06611
▁যোজনা	-8.06689
▁ৰট্টতি	-8.06793
▁পুব্বে	-8.06909
▁অট্ঠ	-8.07242
▁সমযে	-8.07506
▁ৰেদনা	-8.08054
▁এতং	-8.08082
▁কির	-8.08821
▁করোতি	-8.08822
িত	-8.08892
▁গন্ত্ৰা	-8.0909
ীতি	-8.09758
ভাৰো	-8.0978
াদীহি	-8.10277
▁ৰত্তব্বে	-8.1031
▁ৰেদিতব্বো	-8.10828
▁ভিক্খুনো	-8.11126
▁নেৰ	-8.11408
▁চিত্ত	-8.11668
▁ৰুত্তা	-8.11674
▁চে	-8.11691
▁কম্ম	-8.11694
▁দস	-8.12324
নে	-8.1246
▁নযো	-8.12615
কালে	-8.1302
▁ঠপেত্ৰা	-8.13298
▁মযা	-8.13586
ত	-8.13821
▁কম্মং	-8.15084
▁ইমস্মিং	-8.15308
স্মিং	-8.15347
থ	-8.16644
▁২	-8.16832
▁সন্ধায	-8.16947
▁কো	-8.17195
চ	-8.17231
ানীতি	-8.1733
▁অস্স	-8.17443
▁পরং	-8.17743
▁কিঞ্চি	-8.17911
৭	-8.18545
▁আযস্মা	-8.1883
িতা	-8.18884
▁দুক্খং	-8.19318
কে	-8.1967
▁ময্হং	-8.2031
▁ভো	-8.20997
ন্তীতি	-8.2105
▁তু	-8.21662
াদীনি	-8.21792
ৰা	-8.2191
মা	-8.21928
ৰি	-8.22046
▁ভগৰন্তং	-8.2226
▁ধম্মে	-8.22381
▁যাৰ	-8.22535
▁রূপ	-8.22735
▁অত্থ	-8.22985
িংসু	-8.2312
তু	-8.2315
▁ৰত	-8.23283
▁চাতি	-8.23473
▁সমন্নাগতো	-8.2352
▁অঞ্ঞং	-8.24112
িং	-8.24275
িযা	-8.24563
৬	-8.24699
িয	-8.25598
িতুং	-8.25785
ত্থায	-8.26156
▁দুক্খ	-8.26166
▁গচ্ছতি	-8.26228
▁তণ্হা	-8.2652
েনাতি	-8.26583
▁সম্বন্ধো	-8.2672
িতো	-8.26746
ধম্ম	-8.26822
▁দস্সেতুং	-8.26956
▁ইতো	-8.27333
েপি	-8.27439
▁ৰত্থু	-8.2744
▁পটি	-8.27861
৯	-8.28243
▁ৰুত্তো	-8.2828
▁থেরো	-8.29111
িতং	-8.2965
▁দিট্ঠি	-8.29868
▁উপ্পজ্জিস্সতি	-8.30539
ত্থং	-8.30601
৪	-8.31071
▁ৰদন্তি	-8.31099
৫	-8.31279
▁বুদ্ধ	-8.31769
▁সম	-8.31913
▁সম্মা	-8.31932
▁পঠম	-8.31951
▁উপ্পজ্জন্তি	-8.32067
▁ৰেদিতব্বং	-8.32347
িক	-8.32437
৩	-8.32588
ট্ঠেন	-8.32596
১	-8.33264
ৰণ্ণনা	-8.33427
ৰগ্গো	-8.33645
▁যদি	-8.33689
ামি	-8.34099
মানো	-8.34139
▁জানাতি	-8.34211
▁অন	-8.34251
৮	-8.34573
▁দস্সেন্তো	-8.35242
▁ৰচনং	-8.35688
▁খন্ধানং	-8.36551
২	-8.3687
▁ঝানং	-8.37059
▁তেসু	-8.37231
▁ফলং	-8.37236
যে	-8.37628
▁ভৰ	-8.37656
▁ঞাণং	-8.38021
েৰ	-8.3826
▁তস্সা	-8.38439
▁কেচি	-8.38857
▁রঞ্ঞো	-8.39031
▁চিত্তস্স	-8.39032
▁হেতুযা	-8.39294
▁ৰসেন	-8.39371
▁আ	-8.39374
ভাৰ	-8.39547
ভাৰতো	-8.39688
▁ব্রাহ্মণ	-8.4002
▁দেৰ	-8.40386
েনেৰ	-8.40722
▁ৰেদিতব্বা	-8.4127
▁রাজ	-8.41776
▁৩	-8.42086
▁অন্তো	-8.42248
▁হেট্ঠা	-8.42412
▁কস্মা	-8.42929
ন্তস্স	-8.42953
ল	-8.43273
ন্তা	-8.43291
হং	-8.43348
ত্ত	-8.43368
▁পট্ঠায	-8.43486
▁ফল	-8.43638
▁সঙ্ঘো	-8.443
▁ৰুত্ত	-8.44378
হেতু	-8.44473
▁এস	-8.44616
▁সুখং	-8.44837
▁কুসলা	-8.44868
রূপ	-8.45187
▁পর	-8.45537
▁ভিক্খূনং	-8.45613
▁জাতি	-8.45666
▁কাম	-8.46379
েসি	-8.46493
▁ভৰিস্সতি	-8.46826
▁হেৰং	-8.46855
▁অধিপ্পাযো	-8.47096
▁সব্বত্থ	-8.47878
▁বুদ্ধো	-8.48083
▁তত্র	-8.486
▁দুতিয	-8.4863
▁তানি	-8.48909
▁ৰো	-8.49008
▁পচ্ছা	-8.49385
▁সমযেন	-8.49397
▁কতমে	-8.49499
▁মগ্গ	-8.49752
সং	-8.50081
▁তেহি	-8.50674
ঞ্চেৰ	-8.51028
কম্ম	-8.51114
▁পুরিসো	-8.51148
▁সত্তা	-8.51556
▁সঞ্ঞা	-8.51674
▁৪	-8.52003
াৰ	-8.52413
▁পুচ্ছা	-8.52511
কথাৰণ্ণনা	-8.52563
▁দুক্কটং	-8.52826
▁উপসঙ্কমিত্ৰা	-8.52947
▁এতদৰোচ	-8.53412
▁কত	-8.53431
ত্তং	-8.53443
সিক্খাপদৰণ্ণনা	-8.53477
▁নিস্সায	-8.53481
▁৭	-8.53725
▁এৰমেৰ	-8.54216
জ্জ	-8.54415
▁ৰেদনায	-8.54974
▁অনাপত্তি	-8.55256
▁ঞাণ	-8.55265
▁ইমস্স	-8.55501
▁হোতী	-8.55699
হ	-8.56024
সা	-8.56114
অযং	-8.56115
▁তৰ	-8.56441
▁সন্তিকে	-8.56861
▁কুসলং	-8.56916
▁অতি	-8.57086
▁ত	-8.57101
▁দত্ৰা	-8.57391
▁সেসং	-8.57435
▁সুখ	-8.57491
▁ক	-8.575
ন্তী	-8.5758
▁এসেৰ	-8.579
▁দানং	-8.58037
▁ৰুত্তে	-8.58116
▁অভি	-8.58447
▁বুদ্ধস্স	-8.58627
▁পরি	-8.58926
▁ইমা	-8.59017
▁তথাগতো	-8.59083
▁‘‘‘	-8.59145
▁পস্সতি	-8.59501
▁৫	-8.59635
▁অত্তনা	-8.59729
▁একমন্তং	-8.59881
▁ও	-8.60321
▁মগ্গো	-8.60636
ত্থো	-8.61128
▁কোচি	-8.61289
ট্ঠানে	-8.62785
▁আনন্দ	-8.6288
এৰং	-8.63065
▁অত্থং	-8.63466
তিআদীসু	-8.63547
▁সমাধি	-8.63706
পচ্চযা	-8.63918
▁পঞ্ঞায	-8.64157
স্সাতি	-8.642
▁আরম্মণে	-8.6425
▁সক্কা	-8.6464
▁৬	-8.64671
জ	-8.64675
র	-8.6475
▁পত্ত	-8.64787
▁ৰদতি	-8.64969
▁সযং	-8.64998
▁উপরি	-8.65053
▁ব্রাহ্মণো	-8.65059
সদ্দেন	-8.65108
ৰত্থু	-8.65459
ভি	-8.65685
▁অত্তানং	-8.65766
কিং	-8.65793
▁নিব্বানং	-8.66385
ম্হা	-8.66671
▁অকুসলা	-8.66722
▁আদি	-8.66897
▁ধম্মেহি	-8.66998
▁৮	-8.67218
▁অপ্প	-8.67309
▁যতো	-8.67344
▁ধম্মানং	-8.67435
োপি	-8.67871
স্সেৰ	-8.67923
▁তা	-8.682
▁উ	-8.68353
তিআদিমাহ	-8.68738
প্প	-8.68762
িনো	-8.6897
▁গাথা	-8.68972
▁উপ্পজ্জিত্থ	-8.68996
ঞ্হি	-8.69294
▁৯	-8.69615
▁সীল	-8.69745
▁মযং	-8.69964
েতীতি	-8.70374
▁অৰ	-8.70444
▁চীৰরং	-8.70563
নতো	-8.70998
ঙ্গ	-8.71019
▁কায	-8.71189
▁দেতি	-8.71198
▁১০	-8.71357
▁মগ্গং	-8.71631
সী	-8.71668
▁ৰিঞ্ঞাণং	-8.71676
▁পাপ	-8.71926
▁ঞত্ৰা	-8.72328
ট্ঠ	-8.72394
দি	-8.72426
েতুং	-8.72552
▁নযেন	-8.72567
▁পদ	-8.72772
▁ভিক্খুনা	-8.72878
▁ধম্মেসু	-8.73004
▁নি	-8.73142
চিত্ত	-8.73416
▁ইমানি	-8.73446
ণ	-8.73679
▁নানা	-8.73744
▁দট্ঠব্বং	-8.74597
▁ইমেহি	-8.74761
▁সাধু	-8.74935
▁পঞ্ঞত্তং	-8.75408
▁এতে	-8.75658
▁ৰিনা	-8.76244
▁পুব্ব	-8.76701
সুত্ত	-8.76845
োৰ	-8.77065
▁ঠানং	-8.77346
▁পজানাতি	-8.77699
ট্ঠানং	-8.78035
▁পহায	-8.78111
▁ঠিতো	-8.78325
▁চেতনা	-8.78505
▁তায	-8.78656
ৰণ্ণ	-8.78748
ন্তং	-8.79034
▁পটিসন্ধিক্খণে	-8.79159
▁সঙ্ঘস্স	-8.7934
▁কালে	-8.79479
▁দুতিযং	-8.79544
▁বহু	-8.80142
াযং	-8.80177
▁ৰত্তব্বং	-8.80316
▁কিলেস	-8.80395
ন্তে	-8.80486
▁ধাতু	-8.80819
ধাতু	-8.8084
▁কাযস্স	-8.80986
ট্ঠো	-8.81182
▁যথাভূতং	-8.81263
ূ	-8.81274
▁সাসনং	-8.81536
▁যস্মিং	-8.81908
অত্থি	-8.81932
িতব্বং	-8.81981
ফল	-8.82148
▁পুরিম	-8.8217
পীতি	-8.8231
▁চতূহি	-8.82441
মহা	-8.82653
▁উদক	-8.82732
▁গাথমাহ	-8.82891
▁একা	-8.82962
▁ভাসিতং	-8.83058
▁গতো	-8.83102
িকো	-8.83184
পদ	-8.83287
▁ৰত্থুং	-8.83362
▁পচ্চয	-8.83366
▁দ্ৰিন্নং	-8.83414
▁বুদ্ধং	-8.83444
▁সাৰত্থিযং	-8.83483
িকং	-8.83542
▁তিস্সো	-8.83592
▁দস্সেত্ৰা	-8.83959
সঞ্ঞা	-8.84098
▁আপজ্জতি	-8.84105
▁সত্থু	-8.84216
▁উপসম্পজ্জ	-8.84336
▁সব্বেসং	-8.84384
েন্তো	-8.84498
▁ৰে	-8.84514
▁ভৰে	-8.84931
▁সদ্ধা	-8.85062
▁কতমো	-8.85209
▁চক্খু	-8.85894
▁কাতুং	-8.86058
কস্স	-8.86097
▁এতমত্থং	-8.86422
াদিৰসেন	-8.86583
▁আরম্মণপচ্চযেন	-8.86747
মানা	-8.8681
▁মনো	-8.86824
▁উপপজ্জন্তানং	-8.8706
স্সু	-8.87512
ন্ত	-8.87696
▁যদা	-8.87728
▁সঙ্খারা	-8.87832
▁কতমং	-8.87843
কম্মং	-8.87904
’’॥	-8.88139
০	-8.88157
▁তুম্হে	-8.88228
▁সীলং	-8.88279
ঞাণ	-8.88532
▁কারণং	-8.88591
▁তেনেৰ	-8.88881
▁গহপতি	-8.88882
▁পনেত্থ	-8.88926
▁পৰত্ত	-8.89294
ত্থে	-8.89393
ানঞ্চ	-8.89514
অহং	-8.89613
▁পাচিত্তিযং	-8.90434
িস্সতি	-8.90518
আ	-8.90635
যথা	-8.90821
▁এতেন	-8.9112
▁নিরুজ্ঝতি	-8.91548
▁তথেৰ	-8.9162
▁অম্হাকং	-8.91644
▁অৰিগতে	-8.91738
▁দুক্কটস্স	-8.91991
▁অপি	-8.92045
▁নিসিন্নো	-8.92057
িযং	-8.92365
▁ম	-8.92373
▁ৰত্থুস্মিং	-8.92385
▁অত্ত	-8.92688
দ	-8.9314
▁কেনচি	-8.93432
▁চতু	-8.93482
▁ঝান	-8.93504
▁কুসলো	-8.93507
াপেত্ৰা	-8.93713
▁আপত্তিযো	-8.93764
পুন	-8.93796
ানী	-8.93868
মগ্গ	-8.94121
ধ	-8.94162
▁তীহি	-8.94174
▁অৰিজ্জা	-8.9428
▁দেৰতা	-8.94314
▁ৰণ্ণ	-8.94429
াহি	-8.94453
কেন	-8.9459
সত্ত	-8.94648
▁দেসনা	-8.94759
▁মূল	-8.94844
▁উপনিস্সযপচ্চযেন	-8.949
▁তিট্ঠতি	-8.95206
▁করোন্তি	-8.9525
▁চতস্সো	-8.95583
মত্তং	-8.95904
▁রূপানং	-8.95939
মান	-8.96081
▁ননু	-8.96391
করণ	-8.96525
▁বহিদ্ধা	-8.96607
▁তঞ্চ	-8.96623
▁অত্তা	-8.96783
▁সুত্ত	-8.97044
▁তীসু	-8.97192
▁চতুন্নং	-8.9724
▁মনুস্সা	-8.97345
▁কতি	-8.97505
ান	-8.97546
▁পত্তো	-8.9759
ন্তিআদি	-8.97774
▁পুরিস	-8.97811
▁লোকো	-8.97962
ূপ	-8.981
▁তত্থেৰ	-8.98119
▁নিরুজ্ঝিস্সতি	-8.98183
তেন	-8.98234
▁অরহত্তং	-8.98265
▁সত্তানং	-8.98312
▁ভাৰেতি	-8.98622
▁গো	-8.98721
▁সচ্চ	-8.98763
ট্ঠান	-8.98772
▁কাযেন	-8.98819
▁পঞ্চহি	-8.98906
▁নিব্বান	-8.99132
▁ঠানে	-8.99146
▁পত্ৰা	-8.99186
▁ভিক্খুনী	-8.99196
▁ততিযং	-8.99202
▁কত্থ	-8.99309
স্সা	-8.99412
নাম	-8.99659
লক্খণং	-8.99963
▁সেস	-9.00066
▁লভতি	-9.00091
▁ৰত্ত	-9.00133
কায	-9.00199
দান	-9.00262
▁অত্থীতি	-9.00373
▁লোক	-9.00461
▁সব্বসো	-9.00645
▁কাল	-9.00701
▁কপ্পে	-9.00854
▁দট্ঠব্বো	-9.00922
▁উদকং	-9.00969
▁ৰুত্তনযেনেৰ	-9.01158
▁চীৰর	-9.01472
▁দান	-9.01664
▁ৰাচায	-9.01783
ইদং	-9.01828
▁ৰিস্সজ্জনা	-9.01999
▁পটিপদা	-9.02016
▁চতুত্থং	-9.02084
▁চতূসু	-9.0237
▁নিসীদি	-9.02406
▁ঠত্ৰা	-9.02657
নী	-9.02751
▁দ	-9.02769
মত্ত	-9.02773
▁দেৰা	-9.02882
ন্তু	-9.03042
ানু	-9.03054
▁যথাৰুত্ত	-9.03065
▁পস্স	-9.03159
▁একেন	-9.03436
কথং	-9.03474
▁নিট্ঠিতং	-9.03526
▁দস্সনেন	-9.03643
▁কেৰলং	-9.03903
ক্খ	-9.04188
▁সুৰণ্ণ	-9.0419
▁ৰিসুং	-9.04191
▁সারিপুত্ত	-9.04678
ানন্তি	-9.04754
▁নামং	-9.05012
রে	-9.05037
▁একতো	-9.05053
▁গুণ	-9.05059
ৰচনং	-9.05127
▁নত্থীতি	-9.05175
যতি	-9.05194
িযো	-9.05387
▁ভিক্খুং	-9.05422
▁কেন	-9.05474
▁পাঠো	-9.05628
সে	-9.05798
▁চপরং	-9.05853
▁খন্ধ	-9.05857
▁অগ্গ	-9.05903
পরি	-9.05964
▁উপেক্খা	-9.05998
▁কথেসি	-9.06158
▁তস্সেৰ	-9.06327
▁অঞ্ঞত্র	-9.06339
▁ৰুত্তন্তি	-9.06513
যি	-9.06624
▁কতমা	-9.06743
সম	-9.06902
ধম্মা	-9.06939
পটি	-9.07085
▁ভাৰনায	-9.07104
ধম্মো	-9.07227
▁যথাহ	-9.07327
কারো	-9.07553
▁আরম্মণ	-9.07703
কার	-9.07706
▁ইমেসং	-9.07787
▁উপ্পন্নং	-9.07819
যন্তি	-9.08563
▁রাগো	-9.08673
▁ফস্সো	-9.08834
ীনং	-9.08871
▁অঞ্ঞ	-9.08927
সদ্দ	-9.08927
নু	-9.09118
▁মনসি	-9.09236
▁দোসো	-9.09291
▁অঞ্ঞো	-9.09337
▁অব্যাকতো	-9.09567
েহীতি	-9.09677
▁ৰিনয	-9.10098
▁ৰুত্তত্তা	-9.10118
▁আগন্ত্ৰা	-9.10199
ীযতি	-9.10246
▁বহূ	-9.10424
▁কালং	-9.1043
▁বহি	-9.10535
▁করোন্তো	-9.10589
▁চক্খাযতনং	-9.10861
▁পরস্স	-9.10863
সঙ্খাতং	-9.10957
নন্তি	-9.1107
▁সুতং	-9.11103
▁চক্খুন্দ্রিযং	-9.11131
▁পুপ্ফ	-9.11472
▁অব্যাকতা	-9.11534
▁দ্ৰীহি	-9.11739
▁ইচ্চাদি	-9.11969
▁অকুসলং	-9.12083
▁অত্থিপচ্চয	-9.12123
সঞ্ঞী	-9.12126
▁অজ্ঝত্তং	-9.1216
▁ৰদামি	-9.12409
দুক্খ	-9.12434
সদ্দস্স	-9.12571
▁তিণ্ণং	-9.12764
রাজ	-9.12847
▁পাল়িযং	-9.12851
▁ভৰন্তি	-9.13013
▁পুঞ্ঞ	-9.13031
িনী	-9.13245
▁গোতম	-9.13286
▁অত্থে	-9.13437
ৰিপাক	-9.1354
▁অরহতো	-9.13572
সুখ	-9.13678
▁সেয্যথাপি	-9.13791
▁চেত্থ	-9.13832
▁যদিদং	-9.13896
▁গচ্ছন্তি	-9.13986
▁ব্রহ্ম	-9.14155
▁অদাসি	-9.14181
সীল	-9.1437
▁দিট্ঠ	-9.14487
রো	-9.14501
▁উপ্পজ্জতীতি	-9.14535
▁ৰিপস্সনা	-9.14629
▁কপ্প	-9.14648
▁খন্ধং	-9.14815
পচ্চয	-9.14934
াসি	-9.15161
তস্স	-9.15241
▁অহেসুং	-9.15417
রূপং	-9.15429
মি	-9.15486
ল়	-9.15523
ভূতো	-9.15558
গ্গ	-9.15606
▁অযম্পি	-9.16129
▁কা	-9.16235
▁য	-9.16315
▁মরণা	-9.16673
িস্সন্তি	-9.16976
াহং	-9.16981
▁দোস	-9.17132
▁পুরে	-9.17153
▁ৰচন	-9.17244
সিক্খাপদং	-9.1726
▁অভিঞ্ঞা	-9.17532
▁ছন্দ	-9.17606
▁দ্ৰীসু	-9.17796
▁দীঘ	-9.17887
▁ৰেদনাক্খন্ধো	-9.17979
▁সুত্তং	-9.18047
▁কাযো	-9.18156
▁লক্খণ	-9.18166
▁তযা	-9.18193
▁গোতমো	-9.18289
▁কারণ	-9.18309
পত্ত	-9.18392
▁কস্সচি	-9.18424
▁ইন্দ্রিযা	-9.18529
▁বোধিসত্তো	-9.18561
গুণ	-9.18562
▁সুট্ঠু	-9.18592
মে	-9.18596
▁দিসা	-9.18611
▁সক্কো	-9.18657
েত্থ	-9.18752
▁কম্মে	-9.19003
▁মোহো	-9.19015
▁পঞ্ঞত্তি	-9.19063
▁মজ্ঝে	-9.19128
▁সদা	-9.19302
▁সদ্দ	-9.19322
▁দ্ৰাদস	-9.19494
’’’	-9.1951
পঞ্ঞা	-9.19552
▁তাসং	-9.19573
▁ৰিপাকো	-9.19645
ৰসেনেৰ	-9.19833
▁লোকং	-9.19899
▁ৰিজ্জতি	-9.20026
▁পুত্তো	-9.2004
▁পাল়ি	-9.20041
▁পদং	-9.20078
▁হেতুপচ্চযেন	-9.20239
▁মাতা	-9.20325
জাতকং	-9.20375
▁নহেতুপচ্চযা	-9.20408
াভি	-9.20534
ভৰ	-9.2067
▁অত্থতো	-9.2071
▁সম্বহুলা	-9.20821
▁দুক্খা	-9.20833
মাহ	-9.20969
▁ৰুচ্চন্তি	-9.20971
ৰত্ত	-9.20987
কপ্প	-9.21325
▁উপ্পন্ন	-9.21358
▁সতো	-9.2145
▁কুসল	-9.21755
▁সঙ্ঘ	-9.21948
ন্তর	-9.21972
▁উপাদায	-9.21974
▁পণমাম্যহং	-9.22026
▁সমান	-9.22071
েয্যুং	-9.2223
▁পণ্ডিতো	-9.22236
▁আপত্তিং	-9.22603
ুং	-9.22726
বল	-9.22741
▁অৰসেসা	-9.22765
স্মা	-9.22824
ইধ	-9.22834
▁নিব্বত্ত	-9.22877
▁তেনুপসঙ্কমি	-9.22955
▁আদায	-9.22982
▁অজ্জ	-9.23191
▁গরুং	-9.23562
াম	-9.23725
▁অভাসি	-9.23762
দেৰ	-9.23786
▁আসি	-9.2379
চ্ছ	-9.23806
▁সরীর	-9.23961
এক	-9.2397
▁সরণং	-9.24059
▁পতি	-9.24121
▁তথাগতস্স	-9.24169
▁এতস্স	-9.24236
নিস্সয	-9.24238
▁যেসং	-9.24278
▁সর	-9.2436
▁করেয্য	-9.24402
▁পৰত্তি	-9.2454
▁সম্মাদিট্ঠি	-9.24563
▁কং	-9.24584
▁সব্বা	-9.24591
▁পুচ্ছি	-9.24714
▁ধন	-9.24734
▁কারণেন	-9.24846
▁জাতো	-9.24872
তিপি	-9.249
ভূতা	-9.24917
▁পুগ্গলস্স	-9.2516
▁অঞ্ঞে	-9.25221
▁নেসং	-9.25284
▁ধম্মদেসনং	-9.253
নেন	-9.25508
▁দস্সন	-9.25557
▁গচ্ছ	-9.25683
কাল	-9.25689
▁ৰিজ্জা	-9.25707
েয্যাতি	-9.25712
▁লদ্ধ	-9.25762
▁সচ্চং	-9.25865
ভূতং	-9.25926
▁আগত	-9.25927
▁ঠিত	-9.2599
▁বল	-9.25998
▁কুল	-9.26076
চ্চ	-9.26092
সব্ব	-9.26275
▁সন্ত	-9.26316
▁ই	-9.26409
াদিনা	-9.26426
▁ভেদা	-9.26582
▁নিচ্চ	-9.26655
▁চিত্তেন	-9.26675
▁অকাসি	-9.26718
▁মনুস্স	-9.26726
▁সঙ্ঘং	-9.27069
▁ৰিঞ্ঞাণ	-9.27093
▁ভৰং	-9.27178
▁সাসনে	-9.2722
▁সোল়স	-9.27358
▁সমণো	-9.27534
আদি	-9.27637
▁লব্ভতি	-9.27679
▁তদ	-9.27692
কিচ্চ	-9.27831
▁অঞ্ঞমঞ্ঞং	-9.28034
সচে	-9.28058
▁সাসন	-9.28152
▁সং	-9.28195
▁গণ	-9.28222
▁পরেসং	-9.28313
▁পুনপ্পুনং	-9.28342
▁পাদ	-9.28367
▁অঙ্গ	-9.28368
ভাৰে	-9.28467
▁পুগ্গলা	-9.28566
▁হত্থি	-9.28595
▁একস্মিং	-9.28642
▁পীতি	-9.28708
▁অনন্তরপচ্চযেন	-9.28913
▁মান	-9.28983
▁ঠিতা	-9.2908
▁ৰর	-9.29124
▁ভৰেয্য	-9.29441
নিদ্দেসো	-9.29486
▁সন্তি	-9.29526
▁সকল	-9.29548
▁চিত্তসমুট্ঠানং	-9.2958
লোক	-9.29827
কর	-9.29918
▁ৰিসেসো	-9.30162
▁দানি	-9.30532
▁ৰিপাক	-9.30623
▁পিতা	-9.30652
▁ততিয	-9.30732
▁গাম	-9.30874
েতং	-9.31127
▁নাগ	-9.31207
▁দিস্সতি	-9.31225
▁সক	-9.31304
▁আযস্মতো	-9.31384
▁পঞ্চন্নং	-9.31738
▁এত্থাতি	-9.31767
রাজা	-9.31835
পদং	-9.3189
▁দ্ৰি	-9.31985
ইতি	-9.32156
ঞ্ঞ	-9.32195
▁রজ্জং	-9.32355
▁আগতো	-9.32405
▁আযস্মন্তং	-9.32522
▁অপিচ	-9.32562
▁উদপাদি	-9.32694
▁হোন্তীতি	-9.32735
ভূত	-9.32821
তোতি	-9.32837
▁হত্থ	-9.32966
▁মুখ	-9.33019
▁সন্তিকং	-9.33081
▁অনুপ	-9.33211
ক্খণে	-9.33276
▁ৰীরিযং	-9.33285
▁আরম্মণং	-9.33344
▁অড্	-9.33418
বুদ্ধ	-9.33491
চিত্তো	-9.33515
জাতকৰণ্ণনা	-9.33518
▁কত্থচি	-9.33614
▁সমানো	-9.33633
▁আরোচেসুং	-9.33699
▁ৰিসেস	-9.33942
▁গণ্হাতি	-9.33985
সীতি	-9.34101
আরম্মণে	-9.34161
▁সক্কোতি	-9.34194
▁ইন্দ্রিয	-9.34256
ুপ	-9.34283
▁পরে	-9.34295
পঞ্চ	-9.34371
▁ভাৰনা	-9.34424
▁অত্থায	-9.345
▁অরহা	-9.3455
▁সন্তো	-9.34664
▁১১	-9.35208
▁মার	-9.35307
মো	-9.35444
▁পুত্ত	-9.35461
▁দিব্ব	-9.35468
তত্থ	-9.35538
উপ	-9.35561
িতে	-9.35782
▁উদ্ধং	-9.35965
▁পাচিত্তিযস্স	-9.35972
▁চেতসা	-9.36028
▁অগ্গি	-9.36108
▁মনসা	-9.36109
▁থেরস্স	-9.36259
▁জীৰিতং	-9.36266
▁দুগ্গতিং	-9.36281
▁চিত্তসমুট্ঠানান	-9.36285
▁অকুসলো	-9.36379
▁ব্রহ্মচরিযং	-9.36421
▁পিয	-9.36509
▁এৰমাহ	-9.36558
▁পত্তং	-9.36905
▁ৰস্স	-9.36907
রি	-9.36997
▁উপ্পাদক্খণে	-9.37033
▁ভৰতি	-9.37055
▁সার	-9.37187
িস্সামি	-9.37203
ন্তেন	-9.37419
নৰসেন	-9.37501
▁নিচ্চং	-9.37522
▁কিস্মিং	-9.379
িকায	-9.37956
কুল	-9.38078
▁সমণ	-9.38278
▁যঞ্চ	-9.38386
▁আনন্দো	-9.38603
▁আহরিত্ৰা	-9.38751
সার	-9.38752
▁একাদস	-9.38786
▁পচ্ছিম	-9.38793
▁জীৰ	-9.38854
▁এসো	-9.38872
▁সত	-9.38915
▁সিক্খা	-9.3895
নঞ্চ	-9.38965
▁জ	-9.3904
লক্খণ	-9.39115
▁পঞ্হং	-9.39181
▁ভিক্খুনিযো	-9.39254
▁নভাৰনায	-9.39289
▁এসা	-9.39309
ৰস্স	-9.3934
উ	-9.39356
▁সুদ্ধ	-9.39381
▁সহজাতপচ্চয	-9.39481
▁পরম	-9.39503
▁অন্তরা	-9.39543
▁ৰট্ট	-9.39706
ধম্মং	-9.39744
▁জেতৰনে	-9.39843
▁কু	-9.39887
েথ	-9.39915
তর	-9.39922
▁পরিজানাতি	-9.40164
▁গহেতব্বং	-9.40339
▁দুক্খস্স	-9.40374
েসূতি	-9.40509
▁দ্ৰযং	-9.40517
মূল	-9.40659
▁চতুত্থ	-9.40695
▁সব্বেপি	-9.40751
▁ৰচনতো	-9.40797
গতং	-9.41008
▁গন্ধ	-9.41493
▁পুরিমা	-9.415
▁তেরস	-9.415
▁একচ্চো	-9.41513
▁পুরতো	-9.41572
▁ৰট্টতীতি	-9.41707
চিত্তং	-9.41905
▁এৰরূপং	-9.41906
▁মরণ	-9.41923
ানম্পি	-9.41996
▁ব্রাহ্মণা	-9.42047
▁তন্তি	-9.42063
▁ৰুত্তনযেন	-9.42077
▁কথা	-9.4211
▁সঙ্খার	-9.42143
মেতং	-9.42171
যেৰাতি	-9.42485
▁অপ	-9.42488
▁অহু	-9.42501
▁তদেৰ	-9.42502
▁মনিন্দ্রিযং	-9.42505
▁গতি	-9.42619
কাম	-9.42663
সমনন্তরে	-9.42665
দিট্ঠি	-9.42733
▁ৰিহরন্তো	-9.42841
মন	-9.42949
▁ৰন	-9.42992
▁অঞ্ঞতরো	-9.43002
মুখ	-9.43008
▁অস	-9.43033
▁ভত্ত	-9.43075
▁পচ্চ	-9.43173
▁কাযে	-9.43195
▁উত্তর	-9.43332
সম্পযুত্ত	-9.43343
▁তুম্হাকং	-9.43473
▁সোমনস্সিন্দ্রিয	-9.43646
ৰচন	-9.43659
▁এত্তাৰতা	-9.4374
▁পটিঘানুসয	-9.43876
স্সাপি	-9.43918
▁দীপেতি	-9.44003
▁কিস্স	-9.44019
গ	-9.44021
▁পকতি	-9.4404
▁গতা	-9.44054
▁আসৰা	-9.44086
▁হোতু	-9.44157
▁রাগ	-9.44304
মং	-9.44562
▁তম্পি	-9.44604
▁উভো	-9.44649
▁দিন্নং	-9.44717
▁দীপ	-9.44795
▁উত্তম	-9.44829
▁রুক্খ	-9.4487
▁পিণ্ডায	-9.45023
▁অধিপতিপচ্চযেন	-9.45174
▁পথৰী	-9.45194
▁ভাৰো	-9.45219
▁মুনি	-9.45221
▁উভয	-9.45311
রস	-9.45312
মস্স	-9.45324
স্মি	-9.45338
▁অনেক	-9.45361
▁অতীত	-9.45647
▁রূপাযতনং	-9.45854
▁কম্মস্স	-9.45959
▁পচ্চুপ্পন্ন	-9.46118
ারম্মণ	-9.46184
িতব্ব	-9.46195
▁খ	-9.46324
▁আপত্তিযা	-9.46387
ব্ব	-9.4639
▁পঞ্চমং	-9.46458
রু	-9.46561
▁সম্ম	-9.46589
▁সোপি	-9.46909
▁ধাতূহি	-9.46987
▁কাযং	-9.47035
▁পহাতব্বো	-9.47057
▁নুপ্পজ্জতি	-9.47168
▁ভয	-9.47212
▁নঅধিপতিযা	-9.47228
পচ্চযো	-9.47359
নয	-9.47393
▁দুতিযো	-9.47442
ত্থেরো	-9.47614
মিৰ	-9.47653
ন্তিআদিনা	-9.47657
▁ইদ্ধি	-9.47659
▁গহিত	-9.4775
▁পুঞ্ঞং	-9.47759
কিচ্চং	-9.47821
▁সমযং	-9.4783
▁দ্ৰার	-9.47842
▁মহন্তং	-9.47896
▁ৰিপ্পযুত্তপচ্চয	-9.47922
পটিসম্ভিদা	-9.47958
▁মোহ	-9.48013
▁অঞ্ঞথা	-9.48036
ট	-9.48136
▁ৰাচা	-9.48161
▁পৰিসিত্ৰা	-9.48258
▁অট্ঠকথাযং	-9.48258
▁অথস্স	-9.48328
মযং	-9.48433
▁অস্সাতি	-9.48607
▁ৰদেয্য	-9.48715
▁তমেৰ	-9.48803
চীৰর	-9.48811
ৰিসেস	-9.48879
▁জাতা	-9.4893
▁ধম্মেন	-9.4893
▁ফস্স	-9.48971
সম্পন্নো	-9.48973
▁সুখায	-9.48973
▁জীৰিত	-9.48988
▁ভৰিস্সতী	-9.49086
▁পুট্ঠো	-9.49216
মগ্গে	-9.49228
ত্ৰা	-9.49248
▁ৰন্দিত্ৰা	-9.49359
▁বোধি	-9.49467
ঞ্চাতি	-9.4947
▁ৰিহার	-9.49518
▁চৰন্তানং	-9.49567
▁ভঙ্গক্খণে	-9.49569
▁পজহতি	-9.49633
▁হেতূ	-9.4964
▁বহুং	-9.4975
▁ৰুত্তঞ্হেতং	-9.49785
▁নিসীদিত্ৰা	-9.4986
▁অতীতং	-9.50051
কালো	-9.50097
▁দু	-9.5017
▁ভিক্খুনিযা	-9.50247
পাদ	-9.50264
▁পধান	-9.50281
▁১২	-9.50558
জ্ঝ	-9.50725
গত	-9.50752
▁করোতীতি	-9.50791
সম্পত্তি	-9.50859
▁জন	-9.50922
▁উপ্পত্তি	-9.50987
▁অঞ্ঞতরং	-9.51081
▁মিগ	-9.51083
▁সুত্তে	-9.51151
▁একস্স	-9.51153
ৰারো	-9.51177
▁ধনং	-9.51181
▁ইত্থী	-9.51241
▁হ	-9.51491
▁সম্পযুত্তকানং	-9.51526
নিদ্দেসৰণ্ণনা	-9.51652
মানং	-9.51697
▁কুতো	-9.51703
▁সহস্স	-9.51749
ভিক্খু	-9.51761
করো	-9.51771
▁বন্ধ	-9.51781
▁ৰিস	-9.51824
▁উপ্পাদ	-9.51875
▁কতা	-9.51899
িস্সামী	-9.51908
▁মহাভূতে	-9.51945
ৰিপ্পযুত্ত	-9.51996
অৰিগত	-9.52009
কুসলং	-9.52132
▁অকুসল	-9.52171
▁সুত	-9.52427
হার	-9.52444
সহজাত	-9.52459
গতো	-9.52466
▁ভযং	-9.52501
▁কম্মপচ্চযেন	-9.52553
▁এৰঞ্চ	-9.52569
িতত্তা	-9.52604
পুপ্ফ	-9.5262
▁ৰীরিয	-9.52681
ছ	-9.52688
▁আগতা	-9.52754
▁ভিক্খূহি	-9.52766
▁নামাতি	-9.528
▁নিরুজ্ঝিত্থ	-9.52855
সহস্স	-9.52903
▁ৰস	-9.52943
▁অঞ্ঞেন	-9.52956
ভেদ	-9.5296
ৰাদ	-9.52995
দোস	-9.53046
▁এৰম্পি	-9.53062
গচ্ছ	-9.53209
েয্যং	-9.53218
▁ধাতুযো	-9.53334
ভূমি	-9.53381
ধম্মে	-9.53505
মু	-9.53505
▁ৰজ্জ	-9.53615
▁দিন্ন	-9.53648
▁খন্ধো	-9.53658
▁ঠিতং	-9.53746
▁সঙ্ঘেন	-9.53749
▁চিত্তে	-9.53994
▁এতরহি	-9.54112
▁পসাদ	-9.54183
▁নোৰিগতে	-9.54184
▁জীৰিতিন্দ্রিযং	-9.54224
▁রস	-9.54367
াযাতি	-9.54609
▁নগরং	-9.54658
পুচ্ছা	-9.5477
▁ৰিহারং	-9.54782
▁অরিযসাৰকো	-9.54805
▁পনস্স	-9.54808
▁কতো	-9.54905
▁অসঞ্ঞসত্তানং	-9.54907
▁পাচিত্তিয	-9.54922
▁চর	-9.54966
▁এতেসং	-9.55001
▁পাদে	-9.55025
করণং	-9.55034
▁যানি	-9.5519
▁ৰণ্ণো	-9.55237
দস্সনং	-9.55244
গ্গহণেন	-9.55245
াকার	-9.55267
ত্ৰেৰ	-9.55291
অথ	-9.554
্য	-9.55583
থা	-9.55649
▁কিঞ্চাপি	-9.55683
ীহি	-9.557
নযো	-9.55742
▁ছন্নং	-9.55797
▁গাথাযো	-9.56072
▁ভূমি	-9.56151
▁সেনাসনং	-9.56182
▁অভিৰাদেত্ৰা	-9.56241
দস্সন	-9.56252
▁ভাৰ	-9.56344
▁নৰিপ্পযুত্তে	-9.56583
▁অঞ্ঞা	-9.56883
▁চূল়	-9.56888
▁পব্বজিত্ৰা	-9.56923
▁সমুট্ঠাতি	-9.57038
▁কাতব্বং	-9.57056
পর	-9.57204
▁নিমিত্ত	-9.57298
জাতি	-9.57471
ৰগ্গ	-9.57497
▁সমত্তা	-9.57498
মেৰাতি	-9.57539
ঞাণং	-9.57589
নিমিত্ত	-9.57641
▁রূপক্খন্ধো	-9.57774
পী	-9.57779
যতো	-9.57819
▁পনেতং	-9.57973
দ্ৰার	-9.58204
▁ছিন্ন	-9.58212
▁জানন্তি	-9.58262
▁সারিপুত্তো	-9.58263
▁অরিয	-9.58327
▁খুদ্দক	-9.58346
▁জনা	-9.58462
▁সুদং	-9.58478
▁তিণ	-9.58515
ীয	-9.58575
কানং	-9.58649
যস্স	-9.58673
দেস	-9.58677
▁ৰিহারে	-9.58684
পুব্ব	-9.58768
▁পটিৰিরতো	-9.58791
▁গ	-9.58937
েসুপি	-9.59061
▁কর	-9.59081
▁লোকিয	-9.59254
▁নীল	-9.5928
▁অঞ্ঞস্স	-9.59308
▁জাত	-9.59479
▁চাপি	-9.59527
▁ৰিচিকিচ্ছানুসয	-9.5956
▁কস্স	-9.596
▁ভূত	-9.59696
▁দুক্খায	-9.59812
▁ভিয্যো	-9.59889
▁পৰত্ততি	-9.59944
ময	-9.59983
▁সগ্গ	-9.6004
▁আযতিং	-9.60053
▁নিরোধ	-9.60128
হত্থ	-9.60276
▁অব্যাকতং	-9.60289
▁মগ্গস্স	-9.60289
ৰার	-9.6031
▁কামরাগানুসযো	-9.60394
দানং	-9.60572
ভ	-9.6059
▁ব্যঞ্জন	-9.60626
▁ৰিনিচ্ছযো	-9.60776
ৰট্ট	-9.60798
ভয	-9.60859
▁দেৰানং	-9.60948
▁আহারে	-9.61019
▁অট্ঠারস	-9.61039
▁পৰত্তে	-9.6106
ৰিহার	-9.61171
▁কালেন	-9.61212
তাতি	-9.61254
ুপ্পত্তি	-9.61293
▁গাথায	-9.6157
▁কতে	-9.61655
পচ্ছাজাতে	-9.61774
▁অৰি	-9.61862
▁সম্পজানো	-9.61867
▁মণি	-9.61884
ত্তয	-9.61927
▁তুয্হং	-9.61974
নীয	-9.61977
▁লোকস্স	-9.62
▁অভাৰতো	-9.62088
গো	-9.621
▁তত্থাতি	-9.62179
▁ৰেদনং	-9.62216
▁ৰিপাকং	-9.62421
▁নাগসেন	-9.62442
পঞ্ঞত্তি	-9.62581
▁পুরিসস্স	-9.62617
িত্থ	-9.62623
▁র	-9.62648
ৰর	-9.6271
▁অনা	-9.62894
▁অসতি	-9.62931
▁রূপস্স	-9.62941
▁ৰীসতি	-9.63096
▁চিন্তেত্ৰা	-9.63139
সমাধি	-9.63245
▁হেতুং	-9.63273
▁চোর	-9.63311
▁কথ	-9.63472
▁ল	-9.63509
দ্ধ	-9.63535
▁১৩	-9.63547
ামী	-9.6357
মিদং	-9.63605
▁আহার	-9.63629
েতব্বং	-9.63638
▁রাজানং	-9.63639
▁নেৰদস্সনেন	-9.63688
▁ইত্থি	-9.63704
▁পটিসন্ধি	-9.6372
সূতি	-9.63863
▁ৰিতক্কো	-9.6397
সাধু	-9.64114
কারণ	-9.64262
▁উপ্পন্না	-9.64294
▁পিতু	-9.64331
▁কামরাগানুসয	-9.64339
ধি	-9.64358
াপেতি	-9.64488
▁কামে	-9.64497
▁দিৰসে	-9.64502
ত্থা	-9.64507
▁এ	-9.64528
গমন	-9.64577
সুখং	-9.646
▁দিৰা	-9.64725
▁খাদ	-9.64777
▁ৰিতক্ক	-9.64963
▁সীহ	-9.64968
মত্তমেৰ	-9.64979
▁উপ্পজ্জিস্সতীতি	-9.65095
নত্থায	-9.65226
আদযো	-9.65237
▁ঠানেসু	-9.65287
▁খন্ধেহি	-9.65345
▁সেয্যথিদং	-9.65366
▁বাল	-9.65392
▁দুতিযে	-9.65411
▁অট্ঠাসি	-9.65421
▁অরিযা	-9.65444
▁পঠমো	-9.65488
সন্তি	-9.65504
▁পটিপন্নো	-9.65532
রতন	-9.65594
▁ধম্মাযতনং	-9.65664
▁বলৰ	-9.65705
▁যক্খ	-9.65767
▁উত্তরি	-9.65842
▁পটিঘানুসযো	-9.65892
▁আকাসে	-9.65905
ল্ল	-9.65926
▁চন্দ	-9.65973
▁ৰট্টতী	-9.66018
▁লোভ	-9.66061
কিরিযা	-9.66084
ভত্ত	-9.66278
▁পুচ্ছতি	-9.66408
▁ঞাণেন	-9.66434
▁পৰত্তা	-9.66482
▁অধি	-9.66489
▁পুথু	-9.66615
▁যুত্ত	-9.66773
▁গরু	-9.6699
▁নআসেৰনে	-9.67015
▁অয	-9.67087
▁অঙ্গানি	-9.67103
ৰসেনাতি	-9.67116
হেতুযা	-9.67117
▁খণ	-9.67128
▁এতদহোসি	-9.67144
যিত্ৰা	-9.67168
▁সুভ	-9.67208
পুত্ত	-9.67355
▁নিস্সগ্গিযং	-9.67366
▁১৪	-9.67404
▁সভাৰ	-9.67586
▁দণ্ড	-9.67624
▁মগ্গে	-9.67645
▁নপুরেজাতে	-9.6766
▁ইত্থং	-9.67715
▁পাপং	-9.67774
▁পণ্ডিতা	-9.67784
▁রে	-9.68064
▁জিন	-9.68107
▁অধিৰচনং	-9.68135
▁আসৰানং	-9.68166
চিত্তস্স	-9.68168
গ্গহণ	-9.68199
তরো	-9.68271
সদিস	-9.68324
ৰুত্তি	-9.68348
▁ৰিচিকিচ্ছা	-9.68548
েহী	-9.6858
▁নকম্মে	-9.68609
ভন্তে	-9.68635
ন্দ	-9.68674
▁নিব্বত্তি	-9.68688
▁পদুম	-9.687
▁ঘট	-9.68746
▁মহ	-9.68756
▁অকত্ৰা	-9.68772
ৰারে	-9.68782
সুত্তাদিৰণ্ণনা	-9.68825
▁পহীনা	-9.68995
▁অধিপতিযা	-9.69002
▁ভিন্ন	-9.69018
▁চক্খুং	-9.69063
▁বোজ্ঝঙ্গা	-9.69065
▁সচ্চানি	-9.69095
▁সঙ্ঘে	-9.69183
কুসলো	-9.6926
▁গণ্হ	-9.69287
পুঞ্ঞ	-9.69316
▁কেস	-9.69509
▁কাল়	-9.69524
রং	-9.69525
▁কিচ্চ	-9.6954
সর	-9.69588
▁দিট্ঠিযা	-9.69664
▁সতং	-9.69699
কন্তি	-9.69835
▁পুরিসিন্দ্রিযং	-9.69872
▁বালো	-9.69957
▁অনিদস্সনঅপ্পটিঘ	-9.70218
▁কিলেসা	-9.70242
মন্ত	-9.70248
▁সেট্ঠ	-9.70271
▁পাপুণাতি	-9.70362
▁সঙ্গহিতা	-9.70386
▁পকতূপনিস্সযো	-9.704
▁উপনিস্সায	-9.70401
তদা	-9.70422
▁সম্পযুত্তা	-9.70499
কত	-9.70566
▁সত্তমং	-9.70609
▁করিত্ৰা	-9.70617
▁তম	-9.70726
▁অযমেৰ	-9.7074
▁ৰেদ	-9.70768
ভো	-9.70835
াদিতো	-9.70908
▁চেতসো	-9.70927
▁নৰিপাকে	-9.70943
▁তণ্হায	-9.70949
▁পহানায	-9.7096
▁অসঙ্গহিতা	-9.70971
তোপি	-9.71002
▁অলং	-9.71043
নিদ্দেসে	-9.71113
▁জাতিযা	-9.71127
▁অনুলোম	-9.71141
নিমিত্তং	-9.71154
▁রতন	-9.71164
▁পঞ্ঞাযতি	-9.71226
▁আচরিয	-9.71271
সদিসং	-9.71283
▁নিক্খমিত্ৰা	-9.71305
▁ছট্ঠং	-9.71373
▁আমন্তেসি	-9.71468
জ্ঝান	-9.71468
পচ্চ	-9.71503
নত্থং	-9.71503
▁যোজেতব্বং	-9.71522
▁পুচ্ছ	-9.71528
▁ৰত্তুং	-9.71547
▁গমন	-9.71565
কথঞ্চ	-9.71576
▁লোকুত্তর	-9.71592
▁পঞ্চসু	-9.71605
▁জিনো	-9.71623
▁পুগ্গল	-9.71691
জা	-9.71768
▁কদাচি	-9.71791
কিলেস	-9.7184
▁হী	-9.72091
বন্ধ	-9.72142
ত্তে	-9.7217
▁অধিট্ঠান	-9.72292
▁তাত	-9.72307
▁অনিচ্চতো	-9.72329
▁মিচ্ছা	-9.72365
▁রথ	-9.72382
রা	-9.72508
▁তস্সত্থো	-9.72546
ইমে	-9.72628
▁অগমাসি	-9.72687
িতব্বো	-9.72774
▁উপালি	-9.7284
হীতি	-9.72858
ৰগ্গৰণ্ণনা	-9.72936
মত্তে	-9.7298
▁তমত্থং	-9.72981
সহস্সানি	-9.7301
▁চরতি	-9.73017
েনপি	-9.73027
গন্ধ	-9.73073
▁ততিযো	-9.73142
▁সম্মাসম্বুদ্ধ	-9.73188
▁উপ্পন্নো	-9.73226
▁নাভিজানামি	-9.73359
▁সমন্ততো	-9.73374
▁হেতুস্স	-9.7339
পস্স	-9.73558
▁উপেক্খিন্দ্রিযং	-9.73576
দস	-9.73581
▁চক্কৰত্তী	-9.73628
▁লিঙ্গ	-9.73774
▁সি	-9.73908
ততো	-9.73912
াদিকে	-9.73921
▁পরো	-9.73956
▁পৰিস	-9.73957
▁জাতং	-9.73973
ৰে	-9.73993
অত্থ	-9.73995
▁গচ্ছতীতি	-9.74034
▁অৰোচ	-9.74204
অনুজানামি	-9.74289
ন্ন	-9.74307
▁পুচ্ছিত্ৰা	-9.74393
▁নিট্ঠিতো	-9.74465
▁ইমায	-9.74472
▁সব্বো	-9.7452
▁চিন্তেসি	-9.746
▁নিমিত্তং	-9.74686
▁অনুসযা	-9.74773
▁অতিৰিয	-9.74874
▁পচ্ছিমানং	-9.74941
▁পহান	-9.75054
▁১৫	-9.75105
▁থ	-9.75118
▁চেতং	-9.75187
▁পচ	-9.75218
▁অট্ঠমং	-9.7522
মল	-9.7524
▁ৰত্থ	-9.75241
▁বুদ্ধানং	-9.7526
▁পরিপুণ্ণ	-9.7537
ঞ্ঞেৰ	-9.75497
ৰত্থ	-9.75549
▁খণে	-9.75566
চ্চাদি	-9.75577
গাম	-9.75673
▁ভাসতি	-9.75703
▁সীত	-9.7572
▁গত	-9.75785
▁সযমেৰ	-9.75941
▁এত্থাপি	-9.75964
▁যোনিসো	-9.7599
▁গহিতা	-9.7599
তূ	-9.76011
গ্গহণং	-9.76012
ণং	-9.76055
▁অযমেত্থ	-9.76125
▁ঠান	-9.76171
দং	-9.76297
▁আযু	-9.76303
▁নিস্সয	-9.76362
▁সহজাত	-9.76376
▁মহন্ত	-9.76456
ৰন	-9.76513
লক্খণা	-9.76593
ব্য	-9.76649
ম্হ	-9.76677
▁কামাৰচর	-9.76684
াপন	-9.76712
▁সঞ্ঞাক্খন্ধো	-9.76727
▁মন্ত	-9.76751
▁অতিরেক	-9.76868
সঙ্ঘ	-9.76921
▁দেসেতি	-9.77057
খ	-9.77082
ৰাদী	-9.77143
▁৫৯	-9.77174
দা	-9.77231
ত্থি	-9.77296
▁দুস্স	-9.77346
ও	-9.77376
াদিকং	-9.77514
▁ৰাচং	-9.77526
ত্য	-9.77559
▁কথঞ্চ	-9.77594
▁পঞ্ঞিন্দ্রিযং	-9.77649
▁সমং	-9.77658
▁সরীরং	-9.77678
▁ৰুত্তানি	-9.77682
ৰিঞ্ঞাণ	-9.77702
▁গামং	-9.77721
▁পব্বজিতো	-9.77736
▁২২	-9.77789
াহ	-9.77834
▁মহাসত্তো	-9.77836
▁ইধেকচ্চো	-9.77873
মত্তেন	-9.77939
▁কিলেসে	-9.7799
▁১৬	-9.78021
▁মনাযতনং	-9.78052
লা	-9.78063
▁ভুঞ্জ	-9.78142
▁লভিত্ৰা	-9.78214
▁ঘানিন্দ্রিযং	-9.78244
সূ	-9.78342
▁উপলব্ভতি	-9.78369
▁সীস	-9.78377
ভাৰনা	-9.7849
নট্ঠেন	-9.78517
ক্খন্ধ	-9.78602
▁সত্থারং	-9.78606
ানেৰ	-9.7862
কু	-9.78633
নত্থিযা	-9.78636
▁মিচ্ছাদিট্ঠি	-9.7872
▁কাযসঙ্খারো	-9.78767
▁ঞাতি	-9.78771
▁নদী	-9.7891
▁অনাগত	-9.7892
লিঙ্গ	-9.78941
ৰাতি	-9.7897
ক্ক	-9.79015
▁ভোজনং	-9.79023
▁নন্দ	-9.79027
▁পহীনো	-9.79044
প্পত্তো	-9.79064
▁মরণং	-9.79113
▁তিংস	-9.79134
যোগ	-9.79204
▁অক্খ	-9.7921
▁সত্তরস	-9.79237
েযেৰ	-9.7927
▁ইদম্পি	-9.79291
▁মজ্ঝিম	-9.79336
▁ৰিত্থারেন	-9.79405
▁তঞ্হি	-9.79453
প্	-9.79458
▁পরতো	-9.79565
াপত্তি	-9.79589
▁মধুর	-9.79677
▁দোমনস্সং	-9.79686
▁তস্সুদ্দানং	-9.79714
▁ৰণ্ণং	-9.79754
▁অরঞ্ঞে	-9.79778
▁অম্ব	-9.79822
▁পহাতব্বহেতুকো	-9.79865
▁ছন্দো	-9.79939
▁ইত্থিন্দ্রিযং	-9.79974
ন্তিআদীসু	-9.80076
▁ভরিযা	-9.80084
▁আৰি	-9.80135
▁জাতকং	-9.80196
▁সংৰত্ততি	-9.80217
ারম্মণং	-9.80367
▁দিট্ঠেৰ	-9.80399
▁তথ	-9.8043
▁মনুস্সানং	-9.80439
▁রোগ	-9.80439
সতি	-9.8044
সেয্যথাপি	-9.8047
েতব্ব	-9.80475
▁উতু	-9.80475
▁পুঞ্ঞানি	-9.80495
মনো	-9.80545
দুকং	-9.80722
▁হীন	-9.80775
▁আহারো	-9.80791
▁এতস্মিং	-9.80792
▁দট্ঠব্বা	-9.80815
সম্পত্তিযা	-9.80835
▁সদ্ধিন্দ্রিযং	-9.80838
▁দসমং	-9.80882
▁এতেনাতি	-9.80964
▁চক্খুনা	-9.80979
▁গম	-9.81041
▁হর	-9.81049
েমি	-9.81058
▁পব্বত	-9.81091
▁ক্ৰচি	-9.81108
কারণং	-9.81109
াভাৰতো	-9.81146
সঙ্খাত	-9.81214
▁অত্তনি	-9.81256
▁সদ্দং	-9.81328
▁কস্সপ	-9.81394
▁অৰিজ্জানুসয	-9.81444
▁রূপানি	-9.81461
▁গহণ	-9.81602
▁রত্তি	-9.81622
ঘাত	-9.81653
▁কামা	-9.81654
য্য	-9.8167
নত্থি	-9.81727
▁ভত্তং	-9.81744
▁ৰিগত	-9.81753
▁যায	-9.81768
নাতি	-9.8192
▁নিরোধো	-9.8194
সচ্চ	-9.81941
▁উপ্পজ্জিত্থাতি	-9.81944
▁ৰু	-9.81954
▁ৰত্তব্বো	-9.8203
▁সমুদযো	-9.82063
ঘ	-9.82102
▁অপ্পটি	-9.82114
গণ	-9.82131
▁মেত্তা	-9.82176
▁দস্স	-9.82242
▁রক্খ	-9.82266
মংস	-9.8244
▁ইমেসু	-9.82465
▁কামেহি	-9.82646
▁ইতরেসং	-9.82696
াদীসুপি	-9.82728
▁রম	-9.82733
▁সুচি	-9.82762
▁ৰস্সানি	-9.82872
জন	-9.8292
তরং	-9.82929
▁অমত	-9.82957
াসু	-9.82988
▁অঞ্ঞত্থ	-9.82991
▁সহজাতং	-9.83013
ীযতীতি	-9.83027
কুসল	-9.83037
▁ৰেদনাসু	-9.83166
▁১৭	-9.83167
▁বীজ	-9.83234
ন্তানং	-9.83256
▁ওভাস	-9.83273
▁অঞ্ঞমঞ্ঞ	-9.83276
▁অন্ত	-9.83351
াপেসি	-9.83375
▁বুদ্ধা	-9.83436
▁অহমেৰ	-9.83495
পণ্ণ	-9.83508
▁তহিং	-9.83545
সমুট্ঠান	-9.83575
ৰিস	-9.83668
▁গন্থ	-9.83689
▁দাতব্বং	-9.837
▁ব্রাহ্মণস্স	-9.83721
রত্ত	-9.83737
কারস্স	-9.83761
নেৰ	-9.83763
▁পঠমে	-9.8377
▁অসংকিলিট্ঠ	-9.83832
▁সম্মাসম্বুদ্ধো	-9.83887
▁কতিহি	-9.83917
▁ভাস	-9.83967
যুত্ত	-9.84036
কতমেহি	-9.84053
ট্ঠং	-9.84162
▁ৰিত্থারতো	-9.84209
▁ৰিদিত্ৰা	-9.84283
েতী	-9.84289
▁পরিত্ত	-9.84301
▁৬৭	-9.84326
সত	-9.84402
▁সিক্খাপদং	-9.84413
▁গাথং	-9.84429
অনু	-9.84536
▁ভৰো	-9.84538
চিত্তসমুট্ঠানঞ্চ	-9.8455
ৰজ্জ	-9.84553
▁পারাজিক	-9.84655
▁ৰত্তব্বা	-9.84737
মহ	-9.84777
সহ	-9.84791
▁নৰমং	-9.84804
▁যাচ	-9.84849
▁কম্মেন	-9.84853
মুখেন	-9.84906
▁কোধ	-9.84912
▁রূপে	-9.84987
বন্ধন	-9.84998
▁কালো	-9.85144
▁পুগ্গলং	-9.8516
▁তুৰং	-9.852
▁এৰমাদিনা	-9.85283
কারী	-9.85293
▁সেসা	-9.85303
▁রত্তিং	-9.85322
সঞ্ঞায	-9.8538
িস্স	-9.85402
▁পকাসেন্তো	-9.85452
▁মুখং	-9.85521
▁অপরভাগে	-9.85528
▁পযোগে	-9.85533
▁পকাস	-9.85569
দ্ৰযং	-9.85575
মগ্গো	-9.85604
▁কতমানি	-9.8562
▁অনন্তরে	-9.85627
▁মানানুসযো	-9.85671
▁সচ্চিকট্ঠপরমত্থ	-9.85671
▁হিত	-9.85749
রাগ	-9.85763
▁সমণব্রাহ্মণা	-9.85763
▁দুক্কট	-9.85796
ামীতি	-9.85798
▁মংস	-9.85861
▁পাণ	-9.85876
▁ৰচীসঙ্খারো	-9.85966
▁যথারহং	-9.85981
▁কামধাতুযা	-9.86009
▁ৰিৰেক	-9.86017
▁অরিযো	-9.86088
ত্থেরস্স	-9.8618
▁আগম	-9.86206
▁উদাহু	-9.86291
▁জল	-9.86297
মাস	-9.86357
▁রাজগহে	-9.8637
ইমং	-9.86385
াকারেন	-9.86445
▁নিব্বত্তো	-9.86455
▁অনুসাস	-9.86523
▁ৰিপাকে	-9.86581
▁আরম্মণাধিপতি	-9.86611
▁নসম্পযুত্তে	-9.86612
▁দেস	-9.8665
▁ৰিপস্সনং	-9.86688
▁আগম্ম	-9.86764
▁সঞ্ঞোজন	-9.86778
▁পাসাণ	-9.86797
▁এৰঞ্হি	-9.86816
▁সম্মুখা	-9.86871
▁ৰিযাতি	-9.86897
▁মাতু	-9.86968
▁কম্মট্ঠান	-9.86973
▁দেৰো	-9.87074
মী	-9.87115
▁কপ্পিয	-9.87215
▁দিস্ৰান	-9.87454
▁তিস্স	-9.87495
সতানি	-9.87542
▁সুখা	-9.87561
▁অরঞ্ঞ	-9.87602
▁এৰাতি	-9.87684
▁যেভুয্যেন	-9.87686
▁পরিদেৰ	-9.87771
চক্খু	-9.87799
▁সেসমেত্থ	-9.8786
▁পারাজিকং	-9.87881
ৰেদনা	-9.87914
▁নির	-9.88009
▁গরহ	-9.88056
▁রত্ত	-9.88097
▁সোমনস্স	-9.8813
▁১৮	-9.88253
▁দূরে	-9.88304
▁আযতন	-9.88382
ভাস	-9.88389
▁৭০	-9.88389
▁কম্মট্ঠানং	-9.88409
ৰণ্ণং	-9.88423
েনা	-9.88447
▁মুত্ত	-9.88522
১০	-9.88587
লোপো	-9.88689
▁সমথ	-9.88703
নক	-9.88705
▁তুণ্হী	-9.88721
ৰো	-9.88746
▁আহর	-9.88751
কিলেসা	-9.88815
▁পন্নরস	-9.88893
▁করুণা	-9.88941
▁সমা	-9.89008
▁কে	-9.89049
▁একায	-9.89062
সভাৰ	-9.89073
চি	-9.89125
▁কুসলস্স	-9.89156
▁অপর	-9.89206
▁সংৰর	-9.89218
▁সেত	-9.8923
▁অকপ্পিয	-9.89239
▁অভাসিত্থাতি	-9.89284
▁যথাক্কমং	-9.89284
▁মুসা	-9.8929
▁সদ্ধায	-9.89356
স্সিদং	-9.89367
▁কিরিযা	-9.89395
াযতন	-9.89417
সুণাতু	-9.89444
▁এতেসু	-9.89471
▁ৰদ	-9.89481
▁১৯	-9.89496
ভোগ	-9.89507
লোম	-9.89552
▁মঙ্গল	-9.8961
▁নগর	-9.89627
▁লোহিত	-9.89636
সীস	-9.89665
রতো	-9.89702
ধম্মানং	-9.89703
ব্ভ	-9.89775
▁অনন্তর	-9.89828
▁৬৯	-9.89845
▁৮০	-9.89886
▁সঞ্ঞায	-9.89985
▁গহণং	-9.90018
▁যুজ্জতি	-9.90053
▁উদ	-9.90117
ক্কম	-9.90122
▁গিহি	-9.90162
▁লোকস্মিং	-9.9019
▁একন্ত	-9.90205
▁পুত্তং	-9.90265
▁কথিতং	-9.90272
▁ভণ	-9.90316
মঞ্ঞ	-9.90365
▁পুরেজাতপচ্চযেন	-9.90458
▁অনৰজ্জ	-9.90547
▁অতীতে	-9.90618
▁এৰমেতং	-9.90653
▁ভিক্খুস্স	-9.90683
রাসি	-9.90692
▁৫৭	-9.90699
▁সঙ্গণ্হাতি	-9.90786
সতং	-9.90927
▁ৰত্ততি	-9.90951
▁সম্পযুত্তো	-9.90951
▁দুক্খসচ্চং	-9.91046
▁জরা	-9.91049
▁২০	-9.91124
▁অন্তমসো	-9.91126
▁লোভো	-9.91128
▁সাৰক	-9.91156
কানি	-9.91161
▁দল়্হ	-9.91202
▁গচ্ছেয্য	-9.91213
▁কেহিচি	-9.91219
েয্যা	-9.91407
ধা	-9.91441
▁কুলে	-9.91447
▁গচ্ছন্তো	-9.91453
▁অজ	-9.91589
▁ঠপিত	-9.91617
▁উপাদান	-9.91668
াধিপতি	-9.91701
▁ঘানাযতনং	-9.9171
▁নিরযং	-9.91724
▁নরো	-9.91725
▁সরণ	-9.91779
পুগ্গল	-9.91784
▁সাধারণ	-9.9185
▁নয	-9.91857
▁ৰাপি	-9.91887
▁উপোসথ	-9.91994
▁ৰচ্ছ	-9.92161
সঙ্খাতা	-9.92196
দুক	-9.92211
▁সম্প	-9.92229
▁ইন্দ্রিযং	-9.92236
ৰিসয	-9.92293
▁সদ্দো	-9.92302
িনা	-9.92303
▁অরূপ	-9.92314
▁পূরেত্ৰা	-9.92404
▁রূপধাতুযা	-9.92406
▁৫৬	-9.92451
▁মন	-9.92458
ভেদো	-9.92459
দেসনা	-9.9254
▁মগ্গেন	-9.92543
হা	-9.92562
▁ততিযে	-9.92596
গ্গাহ	-9.92714
▁২১	-9.9278
▁সহজাতা	-9.92817
▁একচ্চে	-9.92839
▁মধু	-9.92839
সম্পদা	-9.92862
দ্ৰয	-9.92864
িতুকামো	-9.93015
▁কথিতা	-9.93094
▁পব্বজ্জা	-9.93158
▁ৰিঞ্ঞাণক্খন্ধো	-9.93169
গতি	-9.93189
অৰিতক্কৰিচারমত্ত	-9.93223
িস্সতী	-9.93238
▁নুপ্পজ্জিস্সতি	-9.93362
▁দ্ৰিধা	-9.93375
▁সম্মাসমাধি	-9.9354
দো	-9.9356
▁নামরূপ	-9.93585
▁যেহি	-9.93671
▁হন	-9.93683
▁জাযতি	-9.93688
▁অকত	-9.93699
▁দন্ত	-9.93752
আদীনং	-9.93767
দু	-9.93862
▁নিসীদ	-9.93905
▁হত্থে	-9.93908
▁সমন্তা	-9.93925
▁পটিজানাতি	-9.93954
▁৬৮	-9.94028
মযা	-9.94137
▁সেয্যো	-9.94171
▁অরহং	-9.9419
▁অক্কোস	-9.94191
▁পরিচ্ছেদো	-9.94225
▁ৰিপ্পযুত্তা	-9.94228
ম্ম	-9.94292
▁৭৪	-9.94304
ৰিধ	-9.94324
▁ভ	-9.94337
▁ৰিহরামি	-9.94399
▁হেতুপচ্চযো	-9.94423
▁ৰন্দ	-9.94472
জান	-9.94571
▁অঞ্ঞেসং	-9.94576
▁ভজ	-9.94584
▁মুঞ্চ	-9.94591
▁ইমিস্সা	-9.94612
গতা	-9.94654
▁নউপনিস্সযে	-9.94704
▁অধো	-9.94734
▁উদকে	-9.94784
▁উদ্দেস	-9.94798
▁মিত্ত	-9.94816
▁ইরিযাপথ	-9.94843
ণ্ড	-9.94856
▁২৩	-9.94896
জাত	-9.9498
▁সঙ্খারক্খন্ধো	-9.95046
▁সামঞ্ঞ	-9.95088
▁ভাৰিতা	-9.95176
▁হঞ্চি	-9.9521
▁উপনিস্সযে	-9.95273
▁পূর	-9.95275
রী	-9.95296
▁ৰিমুত্তি	-9.95324
পক্খ	-9.95326
▁৬৫	-9.95329
▁অনন্ত	-9.9533
▁জানামি	-9.9542
পুরিস	-9.95509
▁চুদ্দস	-9.95596
▁নিৰত্ত	-9.95597
▁ৰিকপ্প	-9.95641
ৰণ্ণো	-9.95652
▁পটিপক্খ	-9.9581
▁তেনেৰাহ	-9.95814
▁পচ্ছিমভৰিকানং	-9.95901
▁সন্তে	-9.95966
▁কসিণ	-9.96017
ৰিসেসো	-9.96036
▁অনিচ্চং	-9.96071
▁পরিযাযেন	-9.96072
▁খত্তিয	-9.96076
তণ্হা	-9.96296
▁বাহিরং	-9.96307
ভাগ	-9.96433
কেহি	-9.96437
▁করণ	-9.96443
▁মঞ্ঞে	-9.96467
▁৭৫	-9.9649
▁সহজাতে	-9.9649
▁একে	-9.96495
▁অধিপ্পেতো	-9.9651
▁তেপি	-9.96527
নঝানে	-9.96551
▁ঝানে	-9.96575
▁মাতাপিতরো	-9.96576
▁নিরয	-9.966
▁সব্বানি	-9.96605
▁তর	-9.9664
▁সঙ্গহো	-9.96682
▁৮৩	-9.96703
▁৯০	-9.96714
▁গহিতং	-9.96734
▁২৪	-9.96773
লক্খণো	-9.96791
▁অনত্থ	-9.96903
▁কাতব্বো	-9.96936
▁অপায	-9.96957
রুক্খ	-9.97012
▁এতস্সাতি	-9.97023
▁সীসং	-9.97084
হী	-9.97095
কোটি	-9.97182
জাল	-9.97196
▁মন্দ	-9.97267
▁লভ	-9.97268
▁জাল	-9.97299
▁নেক্খম্ম	-9.97344
পা	-9.97346
▁তিট্ঠন্তি	-9.97354
▁সমন্নাগতা	-9.9737
▁একেক	-9.97399
▁সঙ্খারে	-9.97417
▁৫৫	-9.97436
▁নিস্সযে	-9.97437
▁দাতুং	-9.97448
ম্পীতি	-9.97461
ফলং	-9.97472
▁অনুত্তরং	-9.97478
▁ছব্বগ্গিযা	-9.97619
সদিসো	-9.97632
▁এৰরূপো	-9.97715
পঞ্হো	-9.97744
ৰীরিয	-9.9775
▁সংসার	-9.97781
▁লাভ	-9.97868
▁ৰিচিকিচ্ছানুসযো	-9.97873
▁সত্তো	-9.97916
▁অরূপধাতুযা	-9.97972
প্পৰত্তি	-9.98002
▁ভোগ	-9.98003
▁অভিঞ্ঞায	-9.98003
মনুস্স	-9.98029
সমযে	-9.9806
▁পিৰ	-9.98079
▁আরম্মণপচ্চযা	-9.98082
▁কামেসু	-9.98084
ভণ্ড	-9.98111
▁অধিকরণং	-9.98143
নযেন	-9.98265
▁অস্সাদ	-9.98315
▁দস্সনং	-9.98343
▁ইত্থন্নাম	-9.98388
ত্তো	-9.98399
▁৮৬	-9.98465
▁সমুদযসচ্চং	-9.98479
▁পণ্ডিত	-9.98484
তন্তি	-9.98632
তিআদীনি	-9.98633
সেস	-9.98773
▁সিযাতি	-9.98797
▁ৰচনেন	-9.98819
▁ৰিহরন্তি	-9.98905
▁সুগতো	-9.98956
▁ইদঞ্চ	-9.98959
▁কি	-9.99015
▁নেতং	-9.99028
▁অত্থস্স	-9.99029
▁নিরযে	-9.99089
▁২৫	-9.991
হিত	-9.99127
▁দিট্ঠং	-9.99197
▁নাস	-9.99233
▁এৰমেত্থ	-9.99235
দস্সনত্থং	-9.9944
অনন্তরে	-9.99441
▁সত্তে	-9.99508
▁অভিনন্দতি	-9.99606
▁এৰমস্স	-9.99608
ুড্	-9.99636
▁চিত্তসঙ্খারো	-9.99766
▁পহাতব্বং	-9.9977
মুপ	-9.99786
▁দাতব্বো	-9.99877
▁ছসু	-9.99905
▁পনাৰুসো	-9.99907
▁ভৰিস্সন্তি	-9.99932
▁মুদু	-9.99942
▁খয	-9.99973
মণি	-10
সঞ্ঞ	-10
অভি	-10.0001
▁পদানি	-10.0002
▁২৬	-10.0003
▁উদ্দিস্স	-10.001
▁অদ্ধা	-10.002
েক	-10.0021
▁নূন	-10.0031
▁ৰগ্গ	-10.0033
▁বাহির	-10.0033
▁পুরেজাতং	-10.0054
ভোজন	-10.0054
▁সঙ্গহ	-10.0072
সুত্তে	-10.0081
▁পুথুজ্জনো	-10.0081
েতব্বা	-10.0083
▁করোন্তস্স	-10.0083
▁ৰিভজিত্ৰা	-10.0084
চেতনা	-10.0085
▁সাল	-10.0091
▁পরিসা	-10.0094
▁সহেতুক	-10.0095
তুং	-10.0099
ার	-10.0105
▁মনুস্সেসু	-10.0105
▁অধিপতি	-10.0111
▁পমাণং	-10.0115
ৰুত্ত	-10.0119
▁সন্ধাযাহ	-10.012
▁৮৪	-10.0123
ন্তিপি	-10.0125
মজ্ঝ	-10.0131
▁আগতং	-10.0148
▁৬১	-10.0149
অহো	-10.015
▁ইসি	-10.0151
▁১০০	-10.0152
▁আরামে	-10.0154
▁ৰীমংস	-10.0158
▁সত্তমে	-10.016
পাপ	-10.0161
▁দেৰদত্তো	-10.0166
চিত্তা	-10.0173
কথ	-10.0174
▁অনুপাদিন্ন	-10.0175
▁আপন্নো	-10.0177
কতং	-10.0181
ন্তিযা	-10.0184
▁অজ্ঝত্ত	-10.0192
▁ৰত্থুঞ্চ	-10.0194
▁ব্রাহ্মণং	-10.0198
▁বোধিসত্তস্স	-10.02
ত্র	-10.0201
▁ৰনে	-10.0202
▁ব্রহ্মা	-10.0206
▁এৰমেৰং	-10.0207
চার	-10.0215
ীসু	-10.0219
অন	-10.0221
▁৭১	-10.0223
▁২৭	-10.0226
▁গিলান	-10.0227
▁চতুত্থে	-10.0227
▁৮৯	-10.0235
▁অধিপ্পেতা	-10.0238
▁সুন্দর	-10.024
▁২৮	-10.0242
▁কারেত্ৰা	-10.0245
▁ভণ্ড	-10.0252
▁৭২	-10.0256
▁নেৰৰিপাক	-10.0262
▁উত্তানমেৰ	-10.0262
▁পুণ্ণ	-10.0264
▁পঠমজ্ঝান	-10.0264
▁সদ্ধম্ম	-10.0269
গাথা	-10.0271
জাতো	-10.0277
▁অহ	-10.0291
▁বলং	-10.0295
▁সকং	-10.0296
গা	-10.031
▁খত্তিযো	-10.0311
ত্তাতি	-10.0322
▁৭৮	-10.0328
▁সমণা	-10.033
▁ইচ্ছ	-10.0333
▁সচ্ছিকত্ৰা	-10.0333
সঙ্খাতো	-10.0336
▁৭৬	-10.0345
▁সক্ক	-10.0346
মজ্ঝে	-10.035
মম	-10.035
কাযো	-10.0352
▁তক্ক	-10.0353
▁গামে	-10.0358
সদিসা	-10.0362
▁হিত্ৰা	-10.0365
▁দেন্তি	-10.0368
▁৬৬	-10.037
▁সম্	-10.0372
িদং	-10.0381
মনু	-10.039
▁২৯	-10.0395
▁দিট্ঠিং	-10.04
▁৩১	-10.0417
▁আচিক্খ	-10.0417
▁অনাগতে	-10.0418
নম	-10.0421
জং	-10.0426
▁ছিন্দিত্ৰা	-10.0434
▁পৰ	-10.0438
▁ৰুত্তনযমেৰ	-10.0443
েতু	-10.0445
▁ভিক্খুনীনং	-10.0447
ৰগ্গে	-10.045
পুত্তো	-10.0453
▁৭৯	-10.0457
▁হদয	-10.0457
▁৫৮	-10.0459
▁আসনে	-10.046
▁পস্সামি	-10.0461
▁মারো	-10.0466
▁পমাণ	-10.0472
▁অঞ্ঞতর	-10.0474
▁ৰস্সং	-10.0478
▁দোমনস্স	-10.0479
▁অরূপে	-10.0481
▁পগেৰ	-10.0482
▁সহজাতাধিপতি	-10.0482
িস্সং	-10.0484
▁ছিন্দ	-10.049
▁ভোজন	-10.0491
ট্ঠা	-10.0492
▁৩০	-10.0502
▁রহো	-10.0502
▁মহাভূতং	-10.0503
▁কত্তু	-10.0513
▁রত্তিযা	-10.0514
▁নপ্পজহতি	-10.0519
▁অনিচ্চা	-10.0522
▁৮৮	-10.0528
সল্ল	-10.0532
▁নিদান	-10.0534
▁অৰিজ্জানুসযো	-10.0538
মত্তম্পি	-10.0542
▁৭৩	-10.0543
▁ইচ্ছতি	-10.0554
ৰতী	-10.0562
▁৮২	-10.0562
▁জানিত্ৰা	-10.0563
নিদান	-10.0564
▁মূলং	-10.0566
▁ঝানস্স	-10.0566
▁ৰত্ততে	-10.0572
সঙ্খ	-10.0573
▁অম্হেহি	-10.0575
▁পাৰিসি	-10.0576
▁এতানি	-10.0576
▁আনেত্ৰা	-10.0578
উপাদিন্নুপাদানিয	-10.0582
গাহ	-10.0583
▁রঞ্ঞা	-10.0584
▁ইধাপি	-10.0586
▁অজ্ঝ	-10.0587
▁ৰধ	-10.0591
▁৮১	-10.0591
▁পরিনিব্বাযিস্স	-10.0591
▁ৰিজ্জমান	-10.0594
ইন্দ্রিয	-10.0599
▁তংতং	-10.0602
গ্ঘ	-10.0613
▁অমতং	-10.0614
▁আদিতো	-10.0615
▁৬০	-10.0622
▁নত্থী	-10.0623
▁ছহি	-10.0629
ৰাস	-10.0633
▁সদিস	-10.064
ৰিনয	-10.0645
▁যু	-10.0646
কি	-10.0646
▁অৰসেস	-10.0648
াদিং	-10.0654
▁অচ্ছ	-10.0659
▁থেরা	-10.0661
▁অক্খর	-10.0668
▁পেস	-10.0669
▁পরমত্থ	-10.0674
▁সন্দ	-10.0678
▁উপ্পাদেতি	-10.0683
▁ৰরং	-10.0686
▁অনুকম্প	-10.0687
▁যজ	-10.0687
▁নমো	-10.0688
পযোগ	-10.0689
▁যুত্তং	-10.069
ুত্তর	-10.0694
▁মাণৰ	-10.0695
▁সতিমা	-10.0699
সম্বন্ধ	-10.07
ভাৰস্স	-10.0703
▁ওৰাদ	-10.0711
▁তেল	-10.0713
▁পরিৰার	-10.0717
ত্থেরগাথাৰণ্ণনা	-10.072
জৰন	-10.0724
পন	-10.0725
▁৮৭	-10.0732
▁সট্ঠি	-10.0734
▁সহেতুকো	-10.0742
▁ইট্ঠ	-10.0745
▁সমোধানেসি	-10.0747
▁দক্খিণ	-10.0748
কারণা	-10.0748
ৰংস	-10.075
▁সেনাসন	-10.0753
মণ্ডল	-10.0757
▁অঞ্ঞমঞ্ঞে	-10.0757
দীপ	-10.0758
▁বন্ধিত্ৰা	-10.0759
চতু	-10.0762
▁পৰত্তং	-10.0764
▁ইধেৰ	-10.0767
▁চতুত্থো	-10.0775
মুত্ত	-10.0776
▁দম	-10.0777
সমা	-10.0778
সঞ্ঞিনো	-10.0778
▁সতিযা	-10.078
▁সন্তং	-10.0782
▁অতিক্কম	-10.0785
পব্বত	-10.0785
▁৭৭	-10.0803
▁মঞ্ঞতি	-10.0807
▁কুক্কুচ্চং	-10.081
▁গব্ভ	-10.0812
ঞ্জ	-10.0813
▁ঠিতস্স	-10.0814
▁গেহ	-10.0824
িতব্বা	-10.0828
▁কথায	-10.0828
তঞ্চ	-10.084
▁পটিলদ্ধ	-10.0841
ীযন্তি	-10.0843
▁উণ্হ	-10.0844
▁ঘর	-10.0844
▁পুগ্গলানং	-10.0844
▁চক্ক	-10.0846
▁লোপো	-10.0851
▁নকুসলো	-10.0859
▁সুণাতি	-10.0861
াৰুসো	-10.0862
▁অহো	-10.0866
ৰচনেন	-10.0873
এৰ	-10.0875
দুক্খং	-10.0876
▁পস্সন্তো	-10.0878
▁এৰরূপা	-10.0885
▁ইন্দ্রিযে	-10.0885
▁চেতসিক	-10.09
▁ঝাপিতা	-10.0902
▁অসুভ	-10.0903
▁সংকিলিট্ঠ	-10.0909
▁পসংস	-10.0924
▁দুতিযা	-10.0924
ৰিতক্ক	-10.0929
পুর	-10.0933
▁ৰুচ্চতীতি	-10.0933
▁সব্বথা	-10.0938
▁ৰিসেসতো	-10.0941
আদীসু	-10.0942
▁কুসলেসু	-10.0942
▁আৰজ্জন	-10.0944
▁পণ্ণ	-10.0945
▁ইচ্ছা	-10.0952
▁মচ্ছ	-10.0954
▁পমাদ	-10.0955
▁উপ্পজ্জি	-10.0958
▁তাদিসং	-10.096
▁কল্যাণ	-10.096
িত্ৰান	-10.0965
▁গন্তুং	-10.0965
▁পরিসায	-10.0979
▁ৰিৰর	-10.098
চরিযা	-10.0984
সঙ্খার	-10.0988
বীজ	-10.099
▁অযঞ্চ	-10.0993
▁পহাতব্বা	-10.0996
▁কুস	-10.0998
▁ভণতি	-10.1002
▁ভেসজ্জ	-10.1002
▁গহেতব্বো	-10.1002
▁নিপাতো	-10.1008
▁৩২	-10.1008
সঙ্খাতেন	-10.1012
▁ইতর	-10.1014
▁অঞ্ঞেহি	-10.1014
▁সপ্পি	-10.1023
ুপ্পাদ	-10.1024
▁সব্বম্পি	-10.1024
▁অল	-10.1028
▁ৰিসয	-10.1033
▁পথৰিং	-10.1033
▁দাস	-10.1034
কুলে	-10.1037
▁তিক	-10.1037
ভেদতো	-10.1051
▁পু	-10.1054
▁অনিচ্চ	-10.1056
▁অপ্পনা	-10.1061
েসীতি	-10.1069
ারাম	-10.1073
দস্সনেন	-10.1074
▁মগ্গসচ্চং	-10.1074
মূলক	-10.1082
▁সব্বেসু	-10.1086
▁৩৩	-10.109
▁দস্সিতো	-10.1093
ধী	-10.1094
▁ফুস	-10.1095
নায	-10.1096
▁সংযোজন	-10.1101
▁অৰত্ৰা	-10.1102
▁অট্ঠি	-10.1102
▁কাক	-10.1102
▁৩৫	-10.1107
▁৮৫	-10.1111
ইমিনা	-10.1111
▁অনাগতং	-10.1113
▁গাহ	-10.1116
জো	-10.1117
ব	-10.112
▁পরিভোগ	-10.1125
কতা	-10.113
▁মগ্গা	-10.1131
ৰূপসম	-10.1132
▁সত্তাহং	-10.1137
▁নানুসেতি	-10.1138
▁থেরং	-10.1151
▁মঞ্ঞ	-10.1162
োপ	-10.1164
ধার	-10.1165
▁যংকিঞ্চি	-10.1169
▁অনাসৰো	-10.1171
যমানো	-10.1171
রসো	-10.1172
▁কণ্ণ	-10.1176
কারং	-10.1176
▁পব্বজিত	-10.1182
▁কুসলানং	-10.1183
দন্ত	-10.1186
▁অনিট্ঠ	-10.1186
সব্বে	-10.1186
▁হেতং	-10.1188
▁মানো	-10.1191
▁এতেহি	-10.1195
▁অনুসেতি	-10.1199
▁কিচ্চং	-10.1203
েতা	-10.1206
▁বন্ধন	-10.1214
▁জিণ্ণ	-10.1215
ব্যঞ্জন	-10.1219
▁খম	-10.122
▁পক্কামি	-10.122
▁নাগো	-10.122
▁মতা	-10.1221
▁ৰিৰট্ট	-10.1226
▁অৰিজ্জায	-10.1226
▁লাভী	-10.1227
ম্ব	-10.1233
▁একদিৰসং	-10.1237
▁সিক্খ	-10.124
▁উপোসথং	-10.1241
▁সঞ্ঞ	-10.1246
▁উপমা	-10.1247
প্পটি	-10.1248
▁জনো	-10.1253
▁সোতং	-10.1255
▁পহানং	-10.1259
সম্	-10.1263
▁সুণাথ	-10.1266
▁ণো	-10.1267
▁সোভ	-10.1273
▁পরিযায	-10.1275
▁আচরিযো	-10.1283
নম্পি	-10.1286
▁দারু	-10.1289
াপ	-10.1289
সচ্চং	-10.1289
ঝান	-10.1291
কতমো	-10.1297
▁মাস	-10.1304
▁অহোসীতি	-10.1305
▁ধাতুযা	-10.1308
কোতি	-10.1309
ভেদেন	-10.1312
কোট্ঠাস	-10.1314
দণ্ড	-10.1316
▁আকার	-10.1321
▁চরিত্ৰা	-10.1324
▁কম্মানি	-10.1324
▁অতিক্কমিত্ৰা	-10.1326
নাগ	-10.1331
তম	-10.1337
▁অনুলোমং	-10.1337
▁দুৰে	-10.1339
▁ৰিৰিচ্চেৰ	-10.134
সমুট্ঠানং	-10.1341
▁নগরে	-10.1342
▁৩৪	-10.135
মত্তা	-10.135
অঞ্ঞমঞ্ঞে	-10.1353
রূপো	-10.1356
▁সাধুকং	-10.1364
▁চিরং	-10.1366
রথ	-10.137
▁পরিপূর	-10.1371
▁অরিযমগ্গ	-10.1371
▁দুক	-10.1372
চক্ক	-10.1372
▁সঞ্জাত	-10.1379
▁কঞ্চি	-10.138
▁পুরিসা	-10.1384
▁পক্খিপিত্ৰা	-10.1385
ীযতে	-10.1387
▁ৰোহার	-10.1388
লো	-10.1392
ন্তিআদিমাহ	-10.1393
▁রূপাৰচর	-10.1396
▁ভৰঙ্গ	-10.1399
িন্দ	-10.1401
▁ঠিতি	-10.1408
▁পদস্স	-10.1413
▁৩৭	-10.1413
ধন	-10.1414
▁কণ্হ	-10.1418
▁ভগৰতি	-10.1421
মার	-10.1423
নীতি	-10.1425
▁অনুজানামি	-10.1427
▁উপাসকো	-10.1427
▁দেসেসি	-10.1429
হন	-10.143
দ্দ	-10.1432
▁কাযকম্মং	-10.1433
াপেতুং	-10.1437
সঞ্ঞং	-10.1439
▁অঙ্গেহি	-10.1442
▁ৰিহর	-10.1442
▁অচ্চন্ত	-10.1444
ংসু	-10.1445
▁নিরুজ্ঝন্তি	-10.1447
▁ভিন্দিত্ৰা	-10.1448
▁লদ্ধা	-10.1449
▁উভতো	-10.1449
▁সতিপট্ঠান	-10.1451
▁যমক	-10.1451
▁ধঞ্ঞ	-10.1453
▁আমিস	-10.1455
বলং	-10.1456
▁পাকটং	-10.1458
▁সরীরে	-10.1466
▁হেট্ঠিম	-10.1466
▁ছট্ঠ	-10.1467
▁ইতিপি	-10.148
▁ধীরো	-10.1481
রঞ্ঞো	-10.1486
▁দদেয্য	-10.1496
▁সে	-10.1496
▁রজ্জ	-10.1496
▁অধিকরণ	-10.1499
প্পমাণ	-10.15
▁পজহ	-10.1505
▁পণীত	-10.1507
▁আতাপী	-10.151
▁কোটি	-10.1512
▁অনন্তরা	-10.1513
▁পিণ্ড	-10.1513
েন্তীতি	-10.1513
▁দস্সিতা	-10.1514
▁সোক	-10.1514
▁৯৪	-10.1516
▁সত্থ	-10.1517
ন্তরে	-10.1519
▁উভিন্নং	-10.1524
▁খিপ্পং	-10.1527
▁অসি	-10.1528
▁ঝায	-10.1536
▁৩৬	-10.1536
▁অঞ্ঞেপি	-10.1537
কড্	-10.1541
▁চরে	-10.1543
▁পাপুণি	-10.1544
যুত্তো	-10.1546
▁এৰমাদি	-10.1546
▁খীর	-10.1547
ত্তিক	-10.156
▁ৰিনযে	-10.1562
▁অৰিক্খেপো	-10.1564
▁অব্ভ	-10.1571
▁অঞ্ঞাণ	-10.1575
▁কত্তব্ব	-10.1581
▁ৰাদ	-10.1582
চীৰরং	-10.1583
▁পস্সতো	-10.1588
▁রস্স	-10.1588
▁অসুচি	-10.1589
▁পযোগ	-10.1591
চিত্তেন	-10.1597
▁দেসনং	-10.1601
▁৯২	-10.1603
ালঙ্কার	-10.161
▁ইন্দ	-10.1615
নাহং	-10.1616
▁অগ্গমগ্গ	-10.1618
ূতি	-10.1622
▁সৰন	-10.1623
▁সুখুম	-10.1629
▁অসাধারণ	-10.1632
▁খীণাসৰ	-10.1636
গ্গি	-10.1638
মকাসি	-10.1639
পুগ্গলো	-10.1641
যতীতি	-10.1642
▁সম্পযুত্তে	-10.1645
যাতি	-10.1648
▁আগচ্ছতি	-10.1648
▁নিক্খিপ	-10.165
সমং	-10.1652
▁অট্ঠঙ্গিকো	-10.1652
কালতো	-10.1656
▁ভৰিতব্বং	-10.1664
পরিক্খার	-10.1666
▁অনত্তা	-10.1667
ভূতে	-10.1668
▁খমতি	-10.1669
ারহ	-10.1674
িস্সতীতি	-10.1676
▁কারণেহি	-10.1677
▁অস্সাদেতি	-10.1679
▁৩৯	-10.1682
▁উদানং	-10.1683
▁দুক্খতো	-10.1683
▁হত্থেন	-10.1686
▁সম্মুতি	-10.1689
ানম	-10.1696
▁অন্তর	-10.1702
▁৯১	-10.1705
▁পুচ্ছামি	-10.1708
▁ইন্দ্রিযানি	-10.171
▁পূজ	-10.1713
▁সম্মদেৰ	-10.1714
উদক	-10.1714
▁বদ্ধ	-10.1718
সঙ্গহ	-10.1719
াহার	-10.1723
▁পরিত্তং	-10.173
▁মহাভূতা	-10.1739
পরিযায	-10.1741
▁গহিতো	-10.1746
▁ৰসি	-10.1755
▁অকংসু	-10.1755
ঞ্ঞূ	-10.1756
▁ওকাসং	-10.1756
▁৫৪	-10.1757
▁সত্তন্নং	-10.1761
পতি	-10.1761
▁মর	-10.1762
▁পঞ্চম	-10.1762
▁চেতিয	-10.1771
▁ৰুদ্ধি	-10.1774
▁ৰয	-10.1774
েস্সামী	-10.1776
প্পকার	-10.1779
সমাপত্তি	-10.178
আহারে	-10.1781
▁অগ্ঘ	-10.1786
▁উস্স	-10.1792
▁সমাদায	-10.1795
▁ৰাত	-10.1802
রসং	-10.1804
জীৰ	-10.1805
▁৪১	-10.1807
▁ছন্দং	-10.1811
▁ৰিনেয্য	-10.1812
▁৩৮	-10.1813
▁থের	-10.1814
▁আহরি	-10.1815
েতব্বো	-10.1815
▁পটিসম্ভিদা	-10.1816
▁জনেতি	-10.182
▁কাচি	-10.1823
▁খেম	-10.1828
িতু	-10.1829
▁সীলৰা	-10.183
▁সাৰকা	-10.183
▁থেরেন	-10.183
▁এত্তকং	-10.1835
▁তপ	-10.1835
▁খণ্ড	-10.1844
▁অন্তরে	-10.1845
▁চিত্তানি	-10.1847
▁পৰত্ততীতি	-10.1848
▁পচ্চযে	-10.1848
▁উপপজ্জতি	-10.1851
যন্তো	-10.1856
▁সগ্গং	-10.1859
যিং	-10.1869
মগ্গং	-10.1869
েনাপি	-10.187
▁তত্রাযং	-10.1871
▁পটিপত্তি	-10.1875
▁ণ	-10.1876
▁ইত্থিযো	-10.1876
স্সেতং	-10.1876
▁অল্ল	-10.1877
সত্থ	-10.1877
▁অকুসলানং	-10.1884
▁সন্তকং	-10.1887
হো	-10.1891
ভূ	-10.1896
▁ত্ৰ	-10.1897
▁সম্পযুত্তং	-10.1904
▁জান	-10.1907
▁পাকটো	-10.1908
পুচ্ছ	-10.1908
▁সভাগ	-10.1909
ত্তি	-10.1913
প্পত্ত	-10.1913
▁আসেৰনে	-10.1915
▁জরামরণং	-10.1923
▁সমুদ্দ	-10.1928
▁অনগারিযং	-10.193
রূপা	-10.1932
পরিচ্ছেদ	-10.1934
▁৪০	-10.1939
আম	-10.1939
▁কাযিকং	-10.1939
▁ইত্থিযা	-10.1942
▁অনাথপিণ্ডিকস্স	-10.1948
ত্থঞ্চ	-10.1949
ণী	-10.195
▁মতো	-10.1955
▁ভৰিস্সতীতি	-10.1956
▁সেট্ঠো	-10.196
▁পাতিমোক্খং	-10.1963
▁কত্তা	-10.1965
▁খেত্ত	-10.1967
ণা	-10.1969
▁পৰারণা	-10.1972
▁তিৰিধ	-10.1975
▁পাণাতিপাত	-10.1978
▁দোসং	-10.1983
▁রাজানো	-10.1985
▁ভেদ	-10.1985
▁মহগ্গত	-10.1986
াধিক	-10.1986
▁চরন্তি	-10.1987
▁জনে	-10.199
চর	-10.199
▁বহুলীকতা	-10.1991
চন্দ	-10.1993
▁সমাপত্তি	-10.1994
▁অস্সু	-10.1999
▁দিসং	-10.2001
▁তথাপি	-10.2005
কিরিয	-10.2012
▁সিক্খাপদ	-10.2033
▁পতিট্ঠা	-10.2035
ভূমিযং	-10.2035
প্পহান	-10.2042
▁অট্ঠঙ্গিক	-10.2045
▁পটিসেৰ	-10.2047
▁সন্ধি	-10.205
▁খীণ	-10.2052
▁৯৫	-10.2053
▁আকারেহি	-10.2053
▁পোস	-10.2055
▁নর	-10.2063
▁সামং	-10.2065
▁৪৪	-10.2067
▁ইদমেৰ	-10.2074
োযেৰ	-10.2077
▁আলোক	-10.2079
▁গহেতুং	-10.2079
ন্নং	-10.2087
▁৯৮	-10.209
▁সম্পযুত্তকা	-10.209
▁৪৩	-10.2092
সঙ্খাতে	-10.2095
সোত	-10.2097
▁আরোচ	-10.2104
▁কারেসি	-10.2104
কিরিযায	-10.2115
প্পৰত্ত	-10.2116
▁ৰিসম	-10.2116
▁পাপকা	-10.2118
▁কতত্তা	-10.2119
▁পরিস	-10.212
রক্খ	-10.2123
▁চক্খুৰিঞ্ঞাণং	-10.2124
দিৰসে	-10.2124
▁৫০	-10.2125
নিদ্দেস	-10.2133
▁পরিৰত্ত	-10.2135
▁দিট্ঠো	-10.2136
▁ৰিসুদ্ধ	-10.2138
▁কিলেসানং	-10.2147
লি	-10.2149
▁ৰুচ্চতে	-10.215
পাল়ি	-10.2151
পুরিসো	-10.2151
▁পরিভাস	-10.2152
▁রজ	-10.2153
▁ভাসিতা	-10.2154
সিক্খাপদ	-10.2154
▁মঞ্ঞসি	-10.2154
▁যোজেত্ৰা	-10.2155
অট্ঠ	-10.2157
▁ৰিপস্সনায	-10.2158
▁৪৫	-10.2159
াদেসো	-10.2162
▁লক্খণং	-10.2166
সয	-10.2166
▁দীঘরত্তং	-10.2167
▁দিব্বচক্খু	-10.2169
▁ৰুত্তাতি	-10.2172
ৰস	-10.2175
▁৪২	-10.2177
▁৫৩	-10.2179
িমে	-10.2181
নৰ	-10.2186
ানিপি	-10.219
▁অযঞ্হি	-10.219
▁পকাসিতা	-10.2192
▁৪৬	-10.2201
▁সত্থুনো	-10.2205
▁ৰিহারো	-10.2207
▁৫২	-10.2209
▁পণীতং	-10.2209
▁অনুসেন্তি	-10.221
পটিচ্চৰারাদি	-10.2212
▁হিতায	-10.2222
▁কথেতি	-10.2225
▁দার	-10.2228
▁যঞ্ঞ	-10.2237
▁সম্পযুত্ত	-10.2237
▁আকাস	-10.2241
▁৯৩	-10.2242
▁৪৭	-10.2246
▁৪৯	-10.2247
মানে	-10.2251
▁জীৰিতা	-10.2263
▁মজ্ঝ	-10.2271
▁সৰিতক্কসৰিচার	-10.2272
▁যসো	-10.2274
সদ্দা	-10.2275
▁সাৰত্থিনিদানং	-10.2277
▁মত	-10.2277
▁অঙ্গং	-10.2283
▁অন্ধ	-10.2288
যোজন	-10.2292
ভযং	-10.2293
পত্তো	-10.2298
সম্পত্তিং	-10.2299
▁ইত্থন্নামস্স	-10.23
▁পুরিসং	-10.23
ম্ভ	-10.23
▁মহানাম	-10.2301
▁ভণ্ডং	-10.2302
ণ্ণ	-10.2303
▁ৰুট্ঠহিত্ৰা	-10.2304
রিয	-10.2305
লী	-10.2315
▁ধ	-10.2317
▁সস্স	-10.2319
▁মজ্জ	-10.2319
▁সুণ	-10.2328
▁ৰেমতিকো	-10.233
▁সপ্প	-10.2331
▁ভুঞ্জতি	-10.2333
▁দক্খ	-10.2335
▁কারণা	-10.2337
▁সঙ্খং	-10.2339
▁এতেসন্তি	-10.2339
▁সিক্খতি	-10.2341
▁আপত্তিসমুট্ঠান	-10.2346
▁সত্তহি	-10.2349
▁দব্ব	-10.235
▁ভেদো	-10.2354
▁অতীতানাগত	-10.2359
পদানি	-10.2362
ব্রহ্ম	-10.2364
▁দুব্বল	-10.2364
▁তদত্থ	-10.2366
▁কামং	-10.2369
েতে	-10.2372
▁দেৰপুত্তো	-10.2379
▁নিব্বত্তিত্ৰা	-10.2385
▁সুৰিঞ্ঞেয্যমেৰ	-10.2385
হর	-10.2385
▁পত্তে	-10.2389
▁ত্ৰেৰ	-10.2396
▁পঞ্চমে	-10.2397
▁পক্খ	-10.2402
▁সঙ্খেপতো	-10.2405
েস	-10.2406
▁যস	-10.2407
ট্ট	-10.2409
▁পুত্তা	-10.2411
ঘট	-10.2415
▁ৰিন	-10.2418
সুৰণ্ণ	-10.2419
▁অরহত্ত	-10.2419
▁ভূমিযং	-10.242
▁সেৰ	-10.2421
▁ৰুচ্চতী	-10.2421
▁ছত্ত	-10.2422
▁তাদিসো	-10.2427
▁পরিনিব্বান	-10.2429
▁নিসিন্নং	-10.2429
▁ঞত্তি	-10.2431
▁সম্পত্ত	-10.2431
▁পীত	-10.2436
▁তদারম্মণ	-10.2438
▁ৰদেসি	-10.244
প্পত্তা	-10.2441
▁যাৰতা	-10.2442
▁জহ	-10.2446
▁কাতব্বা	-10.2448
▁উচ্চ	-10.2448
▁যুত্তো	-10.2452
▁পরিযত্তি	-10.2455
িস্সসি	-10.2456
▁তাদিস	-10.2457
কুসলা	-10.2457
▁পচ্ছতো	-10.2457
▁নিক্ক	-10.2462
▁ৰিত্থার	-10.2464
ম্প	-10.2466
▁আপত্তীনং	-10.2467
সমযো	-10.2471
▁ৰসং	-10.2474
▁পক্ক	-10.2475
▁ভিক্খুসঙ্ঘস্স	-10.2476
▁১০৩	-10.2479
ৰণ্ণা	-10.2482
সঙ্ক	-10.2483
▁সক্কচ্চং	-10.249
▁দেসনায	-10.2491
ত্ৰ	-10.2494
ৰদ	-10.2499
দ্ৰারে	-10.2505
সন্ত	-10.2506
▁আসৰ	-10.2506
▁নিৰাসেত্ৰা	-10.2507
দ্ৰে	-10.251
▁নামেন	-10.2512
করণীয	-10.2513
▁পিট্ঠি	-10.2521
▁সুগত	-10.2525
▁তমহং	-10.2531
▁যম্পি	-10.2536
জানন	-10.2536
ৰনে	-10.2537
ক্	-10.2538
নিরোধ	-10.2538
▁গন্তব্বং	-10.2542
ঙ্ক	-10.2545
▁তিট্ঠ	-10.2549
▁ৰিপ্পযুত্তে	-10.2553
গাথায	-10.2554
▁দসহি	-10.2554
▁চক্খুৰিঞ্ঞাণ	-10.2557
▁দল়্হং	-10.2558
োসি	-10.2559
▁সংৰত্তন্তি	-10.2563
▁পাণাতিপাতা	-10.2563
দিস	-10.2567
▁জিৰ্হা	-10.2567
▁নাপি	-10.2567
▁সঙ্ঘাদিসেসস্স	-10.257
▁যন্তি	-10.2571
সম্পযুত্তা	-10.2574
▁গম্ভীর	-10.2577
▁ভৰা	-10.2579
▁সুর	-10.258
▁ৰূপসম	-10.2582
▁ৰত্তমান	-10.2585
▁দ্ৰেপি	-10.2586
িংসূতি	-10.2586
কী	-10.2588
▁অৰিদূরে	-10.2595
▁নদস্সনেন	-10.2597
সাসন	-10.2602
▁পচ্চক্খ	-10.2602
▁পটিপজ্জ	-10.2603
▁ততিযা	-10.2604
▁দিব্বেন	-10.261
কত্তা	-10.2611
▁ওকাস	-10.2612
▁গমনং	-10.2614
যেন	-10.2617
▁পচ্চযানুলোমং	-10.2618
▁রোদ	-10.2623
াল	-10.2623
করণে	-10.2635
▁সাৰকানং	-10.2643
মঙ্গল	-10.2644
▁এতা	-10.265
স্সপি	-10.2652
▁ৰিনাস	-10.266
▁অপরে	-10.2661
▁আগচ্ছ	-10.2662
▁আরোচেসি	-10.2667
▁রক্খতি	-10.2668
▁অহম্পি	-10.2668
▁দেৰলোকে	-10.2672
▁লহু	-10.2672
▁ছন্ন	-10.2675
▁পৰিট্ঠ	-10.2683
িযমানো	-10.2684
াপদানং	-10.2685
▁সহায	-10.2687
▁অদ	-10.2696
▁তম্হা	-10.2697
▁অট্ঠকথা	-10.2698
▁কন্ত	-10.2701
▁কীল়	-10.2702
▁৪৮	-10.2704
▁অনি	-10.2713
▁পহাতব্বহেতুকং	-10.2715
▁যান	-10.2716
পাক	-10.2717
▁৯৬	-10.2725
▁সংসট্ঠো	-10.2728
▁দস্সনায	-10.2729
▁অপ্পমাদ	-10.2731
ভত্তং	-10.2734
▁নিরুজ্ঝিস্সতীতি	-10.2734
▁অব্যাকতস্স	-10.2736
▁আরাম	-10.2736
▁নিব্ব	-10.2739
▁পার	-10.274
▁কচ্চি	-10.2747
▁কঙ্খা	-10.2748
▁৬৩	-10.2749
▁চারিকং	-10.2749
▁চতুসচ্চ	-10.2752
▁সম্বুদ্ধো	-10.2754
ম্হীতি	-10.2754
ই	-10.2755
হেতুক	-10.2757
▁আরদ্ধং	-10.2761
▁থির	-10.2763
▁নিরনুসযো	-10.2764
▁ৰেদিতব্বানি	-10.2765
▁পা	-10.2775
▁ইমমত্থং	-10.2781
ণি	-10.2784
▁কটত্তারূপং	-10.2792
সরীর	-10.2794
▁সদ্দহ	-10.2801
সীলং	-10.2801
▁কবল়ীকারো	-10.2805
▁পচ্চযচতুক্কং	-10.2805
নিপাত	-10.2812
▁জরামরণ	-10.2814
▁পরেহি	-10.2815
গামি	-10.2816
তাদি	-10.282
▁পাকট	-10.2822
▁লদ্ধং	-10.2827
▁বহুলং	-10.2835
▁সদ্দা	-10.2853
▁ৰাচ	-10.2854
িতত্তং	-10.2856
▁মুসাৰাদ	-10.2859
িন্দ্রিয	-10.286
▁সামণেরো	-10.2866
▁গেহে	-10.2868
▁পাত	-10.287
▁জিগুচ্ছ	-10.2871
▁ৰত্তং	-10.2874
▁দস্সেতুমাহ	-10.2876
স্মিন্তি	-10.2877
▁অপরো	-10.2878
মিচ্ছ	-10.2882
▁অমু	-10.2882
▁পারাজিকস্স	-10.2883
▁নাভি	-10.2883
▁সয	-10.2888
▁পহীন	-10.2888
▁৫১	-10.2889
ৰাদা	-10.2889
▁লামক	-10.2889
▁সূচি	-10.2891
মাল	-10.2893
▁পটিগ্গহেত্ৰা	-10.2893
▁১০২	-10.2896
▁ওলোকেন্তো	-10.2896
পথ	-10.2897
মিগ	-10.2897
▁বুজ্ঝ	-10.29
▁মংসং	-10.2902
▁চেত	-10.2913
▁নীহর	-10.2914
▁পঞ্চমো	-10.2916
▁কট্ঠ	-10.2921
সম্পন্ন	-10.2923
▁কাযতো	-10.2926
সনিদস্সনসপ্পটিঘং	-10.2926
▁পচ্ছাজাতপচ্চযেন	-10.2927
▁ফলস্স	-10.2938
নিস্সিত	-10.2941
▁১১০	-10.2943
সমণ	-10.2943
▁তিণ্ণন্নং	-10.2947
▁আম	-10.2949
▁পত্তা	-10.2952
▁পুব্বভাগ	-10.2955
▁ইতরো	-10.2956
▁ওদাত	-10.2959
▁পুরাণ	-10.2967
▁থূপ	-10.2969
▁পিযা	-10.2971
▁ৰিগ্গহো	-10.2973
▁পাণি	-10.2977
াথ	-10.2978
▁ব্য	-10.298
▁কথিতো	-10.2982
▁সোতাপন্নো	-10.2989
▁সঞ্ঞং	-10.2991
▁অব্যাকত	-10.2992
▁পাতিমোক্খ	-10.2993
▁ৰক্খতি	-10.2993
যদি	-10.2995
▁আহারং	-10.2995
▁জয	-10.2999
▁ৰার	-10.3
▁তথাগতং	-10.3
▁চতুরো	-10.3001
পক্খে	-10.3004
▁সুতন্তি	-10.3006
ম্হী	-10.301
▁মু	-10.3011
▁অধিগত	-10.3016
▁ননহেতু	-10.302
▁দুগ্গতি	-10.3023
▁মোগ্গল্লান	-10.3024
কঙ্খ	-10.3024
াপেয্য	-10.3026
▁তাল	-10.3027
দিসং	-10.3029
সন্ধি	-10.3031
▁উপকার	-10.3031
▁ৰিজ্ঝ	-10.3036
▁চির	-10.3039
গন্থ	-10.3039
▁ৰিনযো	-10.3039
ভার	-10.3042
মিতি	-10.3042
▁সুদ্ধং	-10.3049
▁লব্ভন্তি	-10.305
▁১০৪	-10.3055
▁নাহং	-10.3055
▁অভিভুয্য	-10.3056
▁নিসিন্ন	-10.3056
▁জানাতীতি	-10.3058
▁ৰত্তব্ব	-10.3061
▁ইতরে	-10.3063
▁খীণাসৰো	-10.3063
▁পটিপ্পস্সম্ভ	-10.3064
▁ৰেল়ু	-10.3065
▁নিস্সগ্গিয	-10.3066
▁পৰুচ্চতি	-10.3067
▁তমেনং	-10.307
▁অধম্ম	-10.3075
▁সেসেসুপি	-10.3084
▁নামা	-10.3085
▁আদীনৰং	-10.3085
▁দূর	-10.3086
▁পটিঘ	-10.3088
▁১০১	-10.3088
▁পিণ্ডপাত	-10.3089
▁কূট	-10.3089
▁গেহং	-10.3091
ট্ঠি	-10.3093
▁পনাযং	-10.3094
▁কত্তরি	-10.3102
▁উল়ার	-10.3103
▁ঘ	-10.3105
সীলো	-10.3106
▁পিযো	-10.3107
পঞ্ঞো	-10.3108
▁পনাতি	-10.311
▁ৰিসিট্ঠ	-10.3111
▁দুট্ঠ	-10.3115
নগরে	-10.3115
কুম্ভ	-10.3116
ভা	-10.3117
ৰের	-10.312
▁কিত্তি	-10.3121
▁সিপ্প	-10.3126
▁অদুক্খমসুখায	-10.3127
সঙ্খাতস্স	-10.3132
▁অনুস্সর	-10.3138
▁করণীযং	-10.3138
▁ব্যাকাসি	-10.314
কূট	-10.3142
▁তিক্খত্তুং	-10.3142
▁৯৭	-10.3143
▁সঙ্খ	-10.315
▁ৰণ্ণেন	-10.3152
কণ্ণ	-10.3156
ঠ	-10.3157
ৰোহার	-10.3158
তেৰ	-10.316
জাতা	-10.3161
▁মহাৰীর	-10.3165
▁পুর	-10.3167
▁অদ্দস	-10.3168
▁একত্ত	-10.3168
▁পরিনিব্বন্তান	-10.3169
▁আস	-10.3173
▁বুদ্ধে	-10.3173
রোগ	-10.3174
▁নীহরিত্ৰা	-10.3176
পেক্খ	-10.3177
▁সৰিতক্কসৰিচারো	-10.3181
্যা	-10.3183
▁সোত	-10.3185
▁অহেতুক	-10.3189
▁সস	-10.3192
▁চক্খুমা	-10.3203
▁মুত্তো	-10.321
▁কন্দ	-10.3211
▁পচ্চেকং	-10.3211
ৰন্ত	-10.3213
▁একেনাযতনেন	-10.3213
▁অহেতুকং	-10.3214
▁সত্থরি	-10.3214
▁সম্বন্ধ	-10.3215
সংযোজন	-10.3217
▁ধুৰ	-10.3217
▁পব্বাজ	-10.3221
▁চাগ	-10.3222
▁সমাস	-10.3225
ৰিভত্তি	-10.3226
পরিভোগ	-10.3228
▁১০৮	-10.3228
▁লব্ভমান	-10.3231
▁জৰন	-10.3232
▁পরিক্খার	-10.3236
▁দেৰে	-10.3236
▁অধিক	-10.3237
▁কস	-10.3238
নইন্দ্রিযে	-10.324
▁ঠপেসি	-10.324
▁মাণৰো	-10.324
ভিন্ন	-10.3242
পক্ক	-10.3242
▁উপেতি	-10.3247
ৰত্থুস্মিং	-10.3255
▁ৰিভত্তি	-10.3258
▁অথো	-10.3259
▁পরিহাযতি	-10.3259
▁সচেপি	-10.3269
দযো	-10.3273
▁সীমা	-10.3275
▁সতিপট্ঠানা	-10.3278
প্পসাদ	-10.3278
মানস্স	-10.3279
▁অরহন্তো	-10.3279
লম্ব	-10.328
দত্ত	-10.3282
সাধন	-10.3282
▁কুমার	-10.3287
সম্মাসম্বুদ্ধস্স	-10.3291
▁মহেসিনো	-10.3291
▁চম্ম	-10.3292
▁নমস্স	-10.3298
যদা	-10.3301
▁জানং	-10.3308
▁সুখেন	-10.3308
▁৬২	-10.3309
বোধি	-10.3309
▁ওলোকেত্ৰা	-10.3316
▁মচ্চু	-10.3318
▁যাৰজীৰং	-10.3321
মিস্সক	-10.3323
▁উক্কট্ঠ	-10.3327
চরিত	-10.3331
▁দেসে	-10.3332
▁ৰিমোক্খ	-10.3333
▁চাযং	-10.3336
▁তস্মিংযেৰ	-10.3336
▁পসন্নো	-10.3337
ৰারৰণ্ণনা	-10.3338
ইতো	-10.3339
▁দ্ৰত্তিংস	-10.334
▁অনুপুব্ব	-10.3342
ৰিপস্সনা	-10.3342
কালং	-10.335
▁সত্তাহ	-10.335
▁ৰিঞ্ঞাত	-10.3353
▁কেৰল	-10.3354
ারম্মণা	-10.3359
▁১১৮	-10.336
▁১০৭	-10.3362
কারক	-10.3363
▁ইন্দ্রিযানং	-10.3364
▁নঅধিপতিপচ্চযা	-10.3368
নিরোধো	-10.3371
▁দসৰিধ	-10.3371
▁১১২	-10.3372
পটিৰেধ	-10.3373
▁যক্খো	-10.3374
▁যদ	-10.3374
নীল	-10.3375
▁আদীনৰো	-10.3378
যিংসু	-10.3379
▁পাস	-10.338
▁১১৬	-10.338
▁গোতমস্স	-10.3382
▁লোকা	-10.3385
▁ক্রিযা	-10.3385
পজ্জ	-10.3389
▁পরিসুদ্ধ	-10.3391
▁ধম্মদেসনা	-10.3392
▁ভিন্দ	-10.3392
▁উদ্ধর	-10.3394
▁ধম্মৰিনযে	-10.3395
▁ৰিঞ্ঞত্তি	-10.3398
▁চিত্তঞ্চ	-10.3398
▁নিক্খন্ত	-10.3398
▁১১৫	-10.3402
পাল	-10.3402
▁নিযত	-10.3405
▁গোত্রভু	-10.3408
পূর	-10.341
সভাৰো	-10.3413
▁নিরুত্তি	-10.3415
▁কুমারো	-10.3416
▁সদ্ধ	-10.3416
▁অস্সা	-10.3417
▁অট্ঠমে	-10.3417
নগর	-10.3419
কামা	-10.342
▁ওঘ	-10.3422
কাতি	-10.3428
▁কামরাগানুসযেন	-10.3429
কতো	-10.3429
▁পট	-10.3435
▁কত্ৰান	-10.3436
▁হরিত	-10.344
▁ৰিজান	-10.3442
▁কথেত্ৰা	-10.3444
▁ৰিচারো	-10.3453
্	-10.3455
▁নআরম্মণপচ্চযা	-10.3455
ৰসানে	-10.3456
তথা	-10.346
▁কাযাযতনং	-10.3463
▁নিৰাস	-10.3464
▁আরোপেত্ৰা	-10.3464
▁সুগতিং	-10.3466
▁বালা	-10.3467
▁পৰত্তিং	-10.3469
▁নীৰরণ	-10.347
▁লদ্ধি	-10.3472
▁ভাৰিত	-10.3479
▁ফাসু	-10.3481
▁সব্বদা	-10.3483
▁উপাসক	-10.3483
পঠম	-10.3487
▁অসুক	-10.3492
▁ৰিগতে	-10.3493
ধনং	-10.3498
▁চক্খুন্দ্রিযঞ্চ	-10.35
পহান	-10.35
▁সমযো	-10.3505
▁অভিধম্ম	-10.3508
পট্ট	-10.3508
এৰমেৰ	-10.3516
িতুন্তি	-10.352
▁নোউপাদা	-10.3527
▁আহারপচ্চযেন	-10.3529
▁থোকং	-10.3531
পরিৰার	-10.3534
▁পুরেজাতে	-10.3535
▁ভদ্দ	-10.3539
▁সরে	-10.3544
▁সমন্নাগতস্স	-10.3546
▁দুৰিধ	-10.3546
▁তিকং	-10.3548
▁উভোপি	-10.3552
▁তনু	-10.3554
ৰাদো	-10.3556
▁ঘন	-10.3558
▁সকিং	-10.3559
▁পঠমা	-10.3561
ত্তিকং	-10.3562
▁হারো	-10.3564
▁১০৬	-10.3564
ভূতেন	-10.3565
▁উদ্ধচ্চ	-10.3568
নাদি	-10.3569
▁বারাণসিযং	-10.3571
▁নঅব্যাকত	-10.3585
পিণ্ড	-10.3586
িতব্বন্তি	-10.3589
▁আগচ্ছন্তি	-10.3594
▁কুম্ভ	-10.3594
▁ৰসতি	-10.3597
মিস্স	-10.3601
কামো	-10.3603
▁সমথৰিপস্সনা	-10.3603
সামি	-10.3604
▁অনত্ততো	-10.3606
▁পকতিযা	-10.3606
▁মানসং	-10.3607
ত্তযং	-10.3607
▁তরুণ	-10.3609
▁ৰিভজ	-10.3611
বহুলো	-10.3611
▁অৰুত্ত	-10.3611
▁সুমনো	-10.3611
▁হদযং	-10.3615
পাত	-10.3616
▁পঞ্চহঙ্গেহি	-10.3619
▁কিম	-10.3623
▁অঞ্জলিং	-10.3624
▁আয	-10.3629
▁পব্বজ্জং	-10.3631
▁ৰুট্ঠায	-10.3631
যাম	-10.3632
▁ৰিপুল	-10.3633
মদ	-10.3634
▁মাসে	-10.3636
▁আগমন	-10.364
▁নিসিন্না	-10.3641
▁ৰিরাগ	-10.3645
▁সিযুং	-10.3654
▁জেট্ঠ	-10.3656
▁সঙ্খারানং	-10.3656
াধি	-10.3658
▁উগ্গণ্হ	-10.3663
▁কামরাগ	-10.3664
সম্বোজ্ঝঙ্গো	-10.3664
সিদ্ধ	-10.3667
▁অযমত্থো	-10.367
▁ৰিমোক্খো	-10.3671
▁পত্থয	-10.3673
▁কিমত্থং	-10.3674
▁হংস	-10.3674
▁পস্সিত্ৰা	-10.3681
ব্রাহ্মণ	-10.3684
▁অরিযং	-10.3685
▁অনঞ্ঞ	-10.3685
▁সংখিত্তেন	-10.3687
▁সঙ্খ্যাৰারো	-10.3691
▁ৰচীকম্মং	-10.3692
পদে	-10.3693
▁ৰুত্তোতি	-10.3693
▁ফরিত্ৰা	-10.3697
▁ছট্ঠে	-10.3708
▁৯৯	-10.3709
▁পটিচ্ছন্ন	-10.371
পঞ্ঞাস	-10.3712
▁গুণে	-10.3714
▁ইতরস্স	-10.3716
▁অঞ্ঞতরস্মিং	-10.3721
▁অগ্গো	-10.3721
▁চুতো	-10.3724
▁উপ্পাদো	-10.3727
▁অনুপুব্বেন	-10.3729
▁দ্ৰারং	-10.3733
▁সাৰকো	-10.3734
▁১১১	-10.3739
তরা	-10.3742
▁অন্তরঘরে	-10.3743
▁চুন্দ	-10.3743
খন্ধ	-10.3746
▁মাতিকা	-10.3746
▁নিগ্গহ	-10.3747
▁এত	-10.3747
▁সমুদয	-10.3755
মহারাজ	-10.3756
ন্তরং	-10.3758
পটিলাভ	-10.3762
▁চেপি	-10.3763
▁মতং	-10.3765
▁সিব্ব	-10.3768
সরণ	-10.377
▁সম্মোহ	-10.3771
▁দস্সিতং	-10.3774
▁পপঞ্চ	-10.3774
ৰাহ	-10.3775
▁উপাদা	-10.3778
▁নচ্চ	-10.379
▁অৰিতক্কঅৰিচার	-10.379
▁অসঙ্খত	-10.3792
▁ৰুত্তপ্পকার	-10.3794
রাগো	-10.3798
▁জোতি	-10.38
▁ব	-10.3808
▁ছেত্ৰা	-10.381
▁আহংসু	-10.3811
▁আসেৰনপচ্চয	-10.3813
▁অকুসলস্স	-10.3815
▁চত্তালীস	-10.3815
▁অনুসয	-10.3816
▁গৰেস	-10.3817
যী	-10.3818
▁মযি	-10.3818
▁কামাৰচরং	-10.3819
▁অনঞ্ঞাতঞ্ঞ	-10.382
▁উট্ঠাযাসনা	-10.382
যঞ্চ	-10.3821
▁দসমে	-10.3821
▁ধোৰ	-10.3821
▁সমগ্গ	-10.3822
কট্ঠ	-10.3824
▁রূপা	-10.3825
▁সমুট্ঠান	-10.3827
রণ	-10.3829
▁লোকিযলোকুত্তর	-10.3837
▁নামরূপং	-10.3838
▁ফোট্ঠব্ব	-10.3839
মিত্ত	-10.3844
▁গতে	-10.3847
▁অধিপ্পেতং	-10.3848
▁মগ্গাধিপতি	-10.385
যুং	-10.385
▁উপপত্তি	-10.3851
▁কথেন্তো	-10.3853
▁ইত্থীনং	-10.3854
▁পুথুজ্জন	-10.3855
▁ৰিস্সজ্জ	-10.3857
▁১১৭	-10.3859
▁১০৫	-10.386
▁পটিভান	-10.386
স্সাদ	-10.386
▁পদেহি	-10.3861
▁ব্যাধি	-10.3861
ভাৰা	-10.3862
মনা	-10.3865
▁পটিক্কম	-10.3868
▁নিস্সরণ	-10.3877
▁১১৪	-10.388
সদ্দং	-10.388
▁১১৩	-10.3883
▁সুক্খ	-10.389
▁উপট্ঠান	-10.3895
▁খন্তি	-10.3895
হরণ	-10.3896
▁ৰিৰিধ	-10.3902
ত্তেন	-10.3905
দুতিয	-10.391
▁ভৰরাগানুসযো	-10.3913
▁ওৰদ	-10.3914
▁খর	-10.3915
▁পঞ্ঞৰা	-10.3916
▁পিতরং	-10.3918
▁মাতরং	-10.3921
▁লোকুত্তরং	-10.3924
▁পত্তকল্লং	-10.3925
▁ৰিসেসন	-10.3929
দীঘ	-10.3929
▁হোমি	-10.393
▁পকারেন	-10.3932
▁গাথাহি	-10.3932
মুত্তমং	-10.3933
গমনং	-10.3933
গ্গং	-10.3934
▁নিন্ন	-10.3941
▁অনুক্কমেন	-10.3942
মোহ	-10.3944
▁সীলেন	-10.3947
▁মেধাৰী	-10.3952
▁ইত্থিলিঙ্গ	-10.3957
নিব্বান	-10.3963
▁পতিট্ঠায	-10.3965
▁ৰসন্তি	-10.3965
▁সুখস্স	-10.3969
▁পচ্ছাজাতং	-10.3972
▁সাৰ	-10.3974
এত	-10.3976
▁মানানুসযঞ্চ	-10.3978
▁ঞায	-10.3979
▁হে	-10.3986
▁পুগ্গলে	-10.3986
▁ৰঙ্ক	-10.3992
▁আপোধাতু	-10.3992
▁হিরী	-10.3994
▁দিস্সন্তি	-10.3997
▁চতুক্ক	-10.4004
▁বহুৰচন	-10.4004
▁খিপ	-10.4008
▁থূল	-10.4009
▁অগ্গিং	-10.4012
িস্সামীতি	-10.4013
▁ৰিহরতো	-10.4015
▁অলঙ্কার	-10.4015
▁উপ্পল	-10.4015
েন্তস্স	-10.4018
▁চুতি	-10.402
▁সঙ্গ	-10.4021
▁সূরিয	-10.4022
▁লগ্গ	-10.4024
▁অন্তে	-10.4025
ভৰে	-10.4025
ঙ্গং	-10.4025
▁ভূ	-10.4027
ন্ধ	-10.4028
▁আযস্মতা	-10.4031
▁ৰেরমণী	-10.4042
তল	-10.4042
াদো	-10.4048
▁অচ্চযেন	-10.4048
▁৬৪	-10.4049
▁দুক্কটস্সা	-10.405
োদক	-10.4054
▁ঠিতে	-10.4058
▁ইদানেৰ	-10.4058
▁সতসহস্স	-10.4061
▁লভন্তি	-10.4065
যেৰা	-10.4066
▁ভাসেয্য	-10.4067
▁গহেত্ৰান	-10.4068
▁চক্খাযতনঞ্চ	-10.4069
পঞ্ঞায	-10.4073
▁পটিপদং	-10.4075
▁ৰারে	-10.4076
▁পেত	-10.4079
▁মল	-10.4087
▁মানত্তং	-10.409
▁যাগু	-10.4093
▁গন্ধো	-10.4094
▁কোধো	-10.4095
▁কল	-10.4095
▁গামো	-10.4096
▁চক্কৰাল়	-10.4097
সম্ভার	-10.4098
▁পরঞ্চ	-10.4099
▁পৰত্তো	-10.4099
ধাতুযা	-10.4107
▁সিরি	-10.4107
▁সামণের	-10.411
▁সব্বেৰ	-10.4111
▁অভিঞ্ঞেয্যং	-10.4112
▁পগ্গয্হ	-10.4113
▁গণ্হন্তি	-10.4117
ৰিভঙ্গ	-10.4118
পঞ্ঞ	-10.412
মভি	-10.4123
ফস্স	-10.4123
▁নিসীদতি	-10.4132
▁সম্বুদ্ধং	-10.4132
পান	-10.4133
▁পটিক্খিপতি	-10.4135
▁উপ্পন্নে	-10.4136
ৰত্তং	-10.4139
তত্র	-10.414
ৰিসযে	-10.4142
▁থুল্লচ্চয	-10.4147
▁সযন	-10.4148
মানসো	-10.4151
যমক	-10.4151
▁ইতরা	-10.4154
▁সপ্পুরিস	-10.4155
দিসা	-10.4167
▁পদে	-10.4169
▁সীহো	-10.417
▁জনপদ	-10.4171
ধম্মেসু	-10.4173
ানুভাৰেন	-10.4178
▁কিঞ্চ	-10.418
▁তস্সাতি	-10.4183
▁পিণ্ডপাতং	-10.4186
▁পচ্চৰেক্খতি	-10.4186
▁পজা	-10.4189
▁জানন্তো	-10.4191
▁নেৰসেক্খনাসেক্খ	-10.4192
▁নুপ্পজ্জিত্থ	-10.4198
▁পটিঞ্ঞা	-10.4199
▁১১৯	-10.4201
▁উপসম্পদা	-10.4203
▁পচ্ছাজাতা	-10.4204
ূপমা	-10.4204
▁ইতরং	-10.4205
▁সমাদপেতি	-10.4205
▁চেতসিকং	-10.4206
▁দেৰেসু	-10.4207
▁উপসঙ্কম	-10.4208
▁পদক্খিণং	-10.4208
▁গূথ	-10.4211
▁পচ্চুপ্পন্নং	-10.4212
▁পরিচ্ছেদ	-10.4213
▁সোমনস্সং	-10.4214
▁ভূমীসু	-10.4217
নিরোধা	-10.4221
▁উপ্পন্নস্স	-10.4222
▁অরহন্ত	-10.4225
কুমার	-10.4226
▁অৰযৰ	-10.4229
▁এহি	-10.4231
▁পরিজানাতীতি	-10.4231
▁গহ	-10.4233
মালা	-10.4237
▁বোধ	-10.424
▁রট্ঠ	-10.4241
▁কটত্তা	-10.4241
▁তপ্প	-10.4245
নেয্য	-10.4246
আদীনি	-10.425
▁উপপজ্জিত্ৰা	-10.4252
▁ৰেদযিতং	-10.4254
▁ধম্মঞ্চ	-10.4255
▁ৰুত্তমেৰ	-10.4255
মনসিকার	-10.4255
▁উদ্ধচ্চং	-10.4256
▁সুগতি	-10.4256
▁তাসু	-10.4256
▁অসেক্খ	-10.4259
▁সস্সত	-10.4259
▁য্ৰাযং	-10.4259
▁তিৰিধং	-10.4261
মত্থ	-10.4263
▁ঝ	-10.4268
▁পুত্তে	-10.427
▁পস্সন্তি	-10.4274
▁ব্যাপাদ	-10.4276
▁মনাপ	-10.4281
▁তেসংযেৰ	-10.4286
ভঙ্গ	-10.4287
▁অনৰসেস	-10.4288
▁পক্কমতি	-10.4289
▁সঙ্ক	-10.4291
▁দেহি	-10.4291
▁সমেতি	-10.4293
সঙ্গহো	-10.4293
রসা	-10.4294
▁ওৰাদং	-10.4295
নগরং	-10.4297
অট্ঠকথায	-10.4299
গামে	-10.4304
▁ৰাচতো	-10.4306
িতানি	-10.4307
ব্যা	-10.4307
সেন	-10.4315
▁মেত্তায	-10.4316
▁সব্বাপি	-10.4318
▁সত্তম	-10.432
▁পহানা	-10.432
▁সব্বস্স	-10.4322
▁ময	-10.4323
▁ইদ্ধিযা	-10.4327
সঙ্গ	-10.4334
সন	-10.4335
▁দা	-10.4338
আৰুসো	-10.434
▁খযা	-10.4343
ত্থস্স	-10.4343
▁মোদ	-10.4347
▁উপায	-10.4349
▁আৰাসে	-10.4351
▁পব্বজিতা	-10.4353
▁পীতিযা	-10.4354
প্পমাণং	-10.4355
▁ব্রূমি	-10.4356
▁অপনেত্ৰা	-10.4358
▁ভাৰেতব্বা	-10.4359
ক্খত্তুং	-10.436
▁উদ্ধ	-10.4362
▁নিসীদিংসু	-10.4362
▁অভয	-10.4367
▁ৰহ	-10.4369
▁ব্যা	-10.4372
▁নানপ্পকার	-10.4375
▁অভাৰেন	-10.4378
▁দিসায	-10.4379
▁উপজ্ঝায	-10.4381
▁মুচ্চতি	-10.4381
▁সদ্দে	-10.4383
▁পাকটা	-10.4386
▁হার	-10.4387
▁গঙ্গা	-10.4391
নানত্ত	-10.4393
িনি	-10.4398
▁মানং	-10.4399
▁পটিগ্গণ্হ	-10.44
চরণ	-10.4408
ণো	-10.441
▁পতিট্ঠিত	-10.4411
▁ৰিহরেয্য	-10.4412
▁কিন্তি	-10.4414
িস্সাম	-10.4415
▁দেসিতং	-10.4416
▁ঝাযী	-10.4417
েস্সামি	-10.4422
▁আসনং	-10.4423
▁অম্হে	-10.4425
▁মদ	-10.4425
▁সঙ্গহং	-10.4426
▁আৰজ্জ	-10.4426
▁তাপস	-10.4427
▁পঞ্হা	-10.4428
▁আন	-10.4432
ৰিভাগ	-10.4432
▁ৰিঞ্ঞাণস্স	-10.4434
▁পাপুণ	-10.4435
▁পাক	-10.4436
▁পুরিমনযেনেৰ	-10.4439
▁নৰমে	-10.444
লাভ	-10.4446
▁ৰিচিকিচ্ছাসহগত	-10.4451
সহগত	-10.4454
াচার	-10.4463
▁কম	-10.4465
▁অনন্তরূপনিস্সযো	-10.4467
▁অযম	-10.4471
▁উপ্পাদায	-10.4472
সুং	-10.4473
াপীতি	-10.4479
তাযাতি	-10.4482
চী	-10.4484
▁অপ্পমত্তো	-10.4484
▁সেসো	-10.4485
▁দহর	-10.4485
–-	-10.4489
পাস	-10.4493
▁সুত্ৰান	-10.4495
▁চিত্ততো	-10.4496
সুপি	-10.4497
▁অট্ঠহি	-10.4498
▁কট	-10.45
▁দক্খিণা	-10.4501
সন্নিস্সিত	-10.4505
▁ৰিসুদ্ধিমগ্গে	-10.4505
▁কোসিয	-10.4505
▁সহধম্মিক	-10.4505
দাযক	-10.4506
ভু	-10.4508
▁পটিচ্চসমুপ্পাদ	-10.4509
▁ওল়ারিক	-10.4509
▁আসৰৰিপ্পযুত্ত	-10.451
▁বহূনি	-10.451
▁চরণ	-10.4511
▁দেৰমনুস্সানং	-10.4516
সাল	-10.4518
যিত্ৰান	-10.452
ধুর	-10.4521
▁অনাগামী	-10.4523
▁১২০	-10.4529
▁উগ্গত	-10.4529
▁অরহত্তমগ্গ	-10.4533
মেত্থ	-10.4533
পরিযাপন্ন	-10.4534
রতি	-10.4534
বলেন	-10.4535
ানন্দ	-10.4536
প্পভেদ	-10.4542
▁নিপাত	-10.4548
▁ৰসিত্ৰা	-10.4551
লং	-10.4551
▁ৰদন্তো	-10.4552
▁সম্পত্তি	-10.4552
▁ইম	-10.4554
▁ৰীর	-10.4554
▁আৰাসিকা	-10.4556
▁মহামুনি	-10.4556
▁থম্ভ	-10.4557
▁ভিক্খুনিং	-10.4559
▁খীণাসৰস্স	-10.456
ক্খর	-10.4561
▁পত	-10.4561
▁অনুরূপ	-10.4564
▁পত্থ	-10.4567
▁সানুসযো	-10.4568
কাসি	-10.4569
ৰেদ	-10.4571
ৰিতক্কৰিচারমত্তো	-10.4573
িতন্তি	-10.4578
অপ্প	-10.4582
মত্তনো	-10.4583
▁সম্মাসতি	-10.4584
▁উপনিস্সয	-10.4588
▁পেক্খ	-10.4596
ভূতস্স	-10.4598
▁ৰুদ্ধ	-10.4601
মুত্তো	-10.4602
▁নিগ্রোধ	-10.4604
মুখং	-10.4606
▁আসিং	-10.4609
ঞ্ঞাতাৰিন্দ্রিযং	-10.4615
▁অভব্বো	-10.4617
অঞ্ঞমঞ্ঞ	-10.4621
ৰত্থূনি	-10.4621
▁আরব্ভাতি	-10.4623
▁দুক্খে	-10.4624
করণেন	-10.4624
ৰিহারে	-10.4627
করা	-10.4633
▁স্ৰেৰ	-10.4634
োদকং	-10.4635
কতমে	-10.4636
মত	-10.4637
ত্থেন	-10.4641
▁তুম্হেহি	-10.4641
▁উট্ঠায	-10.4642
▁ৰনং	-10.4642
বহু	-10.4643
কলাপ	-10.4644
ঞ্ঞা	-10.4646
পটিপক্খ	-10.4646
▁খজ্জ	-10.4649
▁এতেনেৰ	-10.4653
▁সময	-10.4654
▁চন্দো	-10.4656
▁পঞ্ঞ	-10.4656
▁ভার	-10.4664
▁উক্খিপ	-10.4665
▁পাপকম্মং	-10.4665
১১	-10.4668
▁ৰিসেসেন	-10.4671
▁নঅকুসলো	-10.4671
▁মনোধাতু	-10.4679
▁অভিনন্দ	-10.468
▁পরক্কম	-10.4681
াধিগম	-10.4681
থাতি	-10.4682
▁অপ্পহীনো	-10.4686
▁অপরেন	-10.4689
▁থুল্লচ্চযং	-10.4689
▁পটিৰেধ	-10.469
▁পিযং	-10.4691
▁ভোগে	-10.4691
▁অত্তমনো	-10.4694
▁অর	-10.4696
▁সত্থারা	-10.4698
▁মক্খ	-10.4698
▁অত্থী	-10.4704
সক্ক	-10.4704
গম্ভীর	-10.4705
▁উপাসিকা	-10.4708
▁মল্ল	-10.4711
▁পস্সদ্ধি	-10.4712
সায	-10.4715
কারা	-10.4716
▁পটিপাটিযা	-10.4717
▁কম্মানং	-10.4722
▁মহতো	-10.4723
▁তিরিযং	-10.4726
▁দিৰসং	-10.4728
ৰাসি	-10.4728
পাদক	-10.473
লভ	-10.4733
ৰিধান	-10.4735
ধরা	-10.4742
▁সম্পন্ন	-10.4742
▁সোহং	-10.4743
▁সমত্থো	-10.4743
▁অনো	-10.4743
▁চিত্তসংসট্ঠ	-10.4746
মত্তো	-10.4747
▁মনসিকারো	-10.4748
▁অসীতি	-10.4748
বুদ্ধো	-10.4751
জ্ঝাসয	-10.4751
ত্থের	-10.4753
▁ওলোক	-10.4753
▁অভিৰ	-10.4755
▁চেতো	-10.4756
দেৰতা	-10.4759
▁জাযন্তি	-10.4764
▁দুক্খন্তি	-10.4765
▁রহ	-10.4767
▁গোচর	-10.4768
▁কামাৰচরা	-10.4776
ৰস্সং	-10.4777
▁উপ্পজ্জেয্য	-10.4782
সেৰন	-10.4783
▁দোমনস্সিন্দ্রিয	-10.4784
যুত্তং	-10.4785
▁পদেসে	-10.4786
▁পঞ্হো	-10.4786
▁সদ্ধং	-10.4786
ৰিকপ্প	-10.4787
মেক	-10.4789
রজ্জ	-10.479
▁পত্তিযা	-10.4797
▁সুত্তন্ত	-10.4797
▁গণ্হি	-10.4799
ত্ৰং	-10.4804
▁সেয্য	-10.4807
▁পটিলভিস্সন্তি	-10.4807
হীন	-10.4811
ম্	-10.4813
▁পাপকং	-10.4813
▁উক্খিপিত্ৰা	-10.4814
▁গিরি	-10.4816
সাখ	-10.4818
দিট্ঠ	-10.4819
▁আলোকো	-10.4823
অজ্জ	-10.4827
▁অৰিতক্কঅৰিচারো	-10.4829
চ্ছেদ	-10.4832
▁রুক্খো	-10.4832
কথায	-10.4833
নিস্সিতং	-10.4833
▁পহীযতি	-10.4836
▁চতুব্বিধং	-10.4836
ৰাত	-10.4836
▁বলৰা	-10.4836
▁সঙ্খ্যা	-10.4838
▁অরিযানং	-10.4843
ুপ্পন্ন	-10.4844
▁বাধ	-10.4844
▁দুৰিধো	-10.4845
োপম	-10.4847
▁সতিপি	-10.485
ৰিজ্জা	-10.4853
▁পুব্বেৰ	-10.4855
▁সুখদুক্খ	-10.4856
▁উপাযেন	-10.4856
▁সমূহ	-10.486
▁মত্ত	-10.4861
▁নসরণ	-10.4862
▁১০৯	-10.4866
▁সব্বদিসা	-10.4868
▁উপগন্ত্ৰা	-10.4869
▁কুচ্ছি	-10.4869
▁পহর	-10.4871
▁সমীপে	-10.4871
▁সব্বঞ্ঞুতঞ্ঞাণ	-10.4871
▁ৰীত	-10.4873
▁সম্পত্তে	-10.4875
▁ৰুট্ঠান	-10.4876
▁মগ্গফল	-10.488
▁সংসট্ঠা	-10.4882
▁যাচতি	-10.4886
ৰন্তং	-10.4886
▁ৰিমান	-10.489
▁কত্তব্বং	-10.4891
▁জঞ্ঞা	-10.4895
▁অচ্চ	-10.4897
কম্মস্স	-10.4898
স্ৰাগতং	-10.4902
▁নিব্বানস্স	-10.4904
কল্যাণ	-10.4909
▁দদ	-10.491
▁সোতাযতনং	-10.4912
▁আকাসানঞ্চাযতন	-10.4921
▁উজু	-10.4924
মূলকং	-10.4926
▁সদ্ধো	-10.4932
▁ভণন্তস্স	-10.4935
▁পদট্ঠানং	-10.4936
▁ৰিরোচ	-10.4937
▁যম	-10.4939
গোত্ত	-10.4939
▁ৰত্থং	-10.4941
▁ইৰ	-10.4942
সেয্য	-10.4943
▁সব্বলোক	-10.4943
▁উপাদানং	-10.4944
▁কার	-10.4947
গণনায	-10.4947
▁১২৩	-10.4952
▁ততিযম্পি	-10.4954
▁দস্সেসি	-10.4955
▁সল্ল	-10.4957
তূতি	-10.496
গহণ	-10.4964
▁ইন্দ্রিযপচ্চযেন	-10.4968
িট্ঠ	-10.4972
▁ৰোহর	-10.4987
▁সমণস্স	-10.4994
▁সঙ্খত	-10.4995
সামঞ্ঞ	-10.5001
▁নিদ্দেসো	-10.5002
পরিযাযো	-10.5002
▁ৰসী	-10.5004
▁সহস্সং	-10.5004
▁কহাপণ	-10.5006
▁অনুঞ্ঞাতং	-10.5007
▁সেট্ঠি	-10.5007
ানন্তর	-10.5009
▁হত্থতো	-10.5009
পৰত্ত	-10.5013
▁কথিন	-10.5014
▁হত্থপাদ	-10.5016
▁জানেয্য	-10.5019
▁সমন্নাগতং	-10.502
▁দিট্ঠে	-10.5021
▁পসন্ন	-10.5021
▁উপোসথো	-10.5023
করং	-10.5023
▁নিব্বুতো	-10.5023
▁ৰচী	-10.5024
▁মিস্সক	-10.5027
ৰিপল্লাস	-10.5029
▁নত্থিযা	-10.503
▁অদ্ধ	-10.5031
সঞ্চ	-10.5032
অনাপত্তি	-10.5032
যু	-10.5034
▁১২৪	-10.5036
▁আহু	-10.5042
▁একিস্সা	-10.5044
ৰাসিনো	-10.5046
মধুর	-10.5046
▁তিত্থিয	-10.5047
▁১২২	-10.5048
▁সোতাপত্তিফলে	-10.505
▁অত্ততো	-10.5052
▁সমু	-10.5055
▁খন্ধেন	-10.5055
চম্ম	-10.5055
▁দেসিতা	-10.5058
▁সমুট্ঠানেহি	-10.5059
নন্দ	-10.5061
▁ৰাদো	-10.5062
▁বোজ্ঝঙ্গ	-10.5062
কুটি	-10.5064
▁ভোন্তো	-10.5065
▁গিহী	-10.5067
▁পথৰি	-10.5067
▁অগারস্মা	-10.5069
▁সমাপত্তিং	-10.507
িকে	-10.5071
সম্মা	-10.5076
িম্হ	-10.5077
▁চন্দন	-10.5082
সট্ঠি	-10.5085
▁পারং	-10.5085
▁ৰুত্তম্পি	-10.5086
▁অত্তভাৰে	-10.5087
▁তপো	-10.5097
▁ৰিভঙ্গৰারো	-10.5099
লোপ	-10.51
মুখো	-10.5101
▁জোত	-10.5102
সদ্ধা	-10.5102
▁ছড্ডেত্ৰা	-10.5102
▁মমং	-10.5105
▁পযিরুপাস	-10.5105
▁গুণা	-10.5106
পদুম	-10.5108
▁অভাৰা	-10.511
▁সাম	-10.5112
▁থাম	-10.5119
▁সীঘং	-10.5119
ানুরূপং	-10.5119
▁পহাতব্ব	-10.512
েসা	-10.512
▁হীতি	-10.5123
▁সকট	-10.5125
▁আগন্তুক	-10.5129
▁এৰমাহংসু	-10.5129
▁ইমিনাৰ	-10.513
▁মহতা	-10.5132
েসূ	-10.5133
▁সূকর	-10.5133
▁উপচার	-10.514
সতসহস্স	-10.514
ঞ্ছ	-10.5141
িমং	-10.5145
কথঞ্হি	-10.5146
▁যোগ	-10.5147
পটিপত্তি	-10.5148
▁অসক্কোন্তো	-10.5148
মতি	-10.5153
রিৰ	-10.5155
▁মনসিকরোতো	-10.5157
▁করোথ	-10.5158
▁ৰিনিচ্ছয	-10.5158
▁ব্রূহি	-10.5163
অস্স	-10.5166
▁কুসলত্তিক	-10.5166
গম	-10.5166
সিক্খ	-10.5167
▁মনোৰিঞ্ঞাণধাতু	-10.5169
▁কিরিয	-10.517
▁ৰিনযং	-10.5174
▁অভিজ্ঝা	-10.5176
ঙ্গুল	-10.5176
পসাদ	-10.5178
▁মারিস	-10.5182
াহী	-10.5185
সন্তান	-10.5185
▁মনং	-10.5187
▁সম্মপ্পধান	-10.5191
▁এৰমাদীসু	-10.5192
▁নিস্সরণং	-10.5193
▁দুৰিধং	-10.5196
▁অপ্পমাণ	-10.5199
▁ব্রহ্মচরিয	-10.5199
▁ফোট্ঠব্বাযতনং	-10.5207
ট্ঠে	-10.5219
মাদায	-10.5219
▁রাহুল	-10.522
▁সংৰরো	-10.5222
▁পরিভুঞ্জ	-10.5222
▁একমেৰ	-10.5222
▁ঠপ	-10.5225
▁নিরুজ্ঝতীতি	-10.5228
পঞ্হ	-10.5234
▁পরিযোসান	-10.5235
সামণের	-10.5241
▁উচ্ছু	-10.5242
▁সূরিযো	-10.5242
▁চক্কৰত্তি	-10.5243
▁সক্কোন্তি	-10.5244
সমো	-10.5248
কম্মট্ঠান	-10.5248
▁অনুজান	-10.5249
▁অধিগম	-10.5254
▁গুণং	-10.5255
▁ভিক্খূতি	-10.5255
▁পাচিত্তি	-10.5257
রহ	-10.5258
লোহিত	-10.5264
▁হিমৰন্ত	-10.5264
▁পহাতব্বহেতুক	-10.5265
হত্থি	-10.5273
▁সপ্পীতিক	-10.5278
সম্মুতি	-10.5279
▁মঞ্চ	-10.5285
▁উপ্পাদেত্ৰা	-10.5288
▁সচ্চা	-10.5289
রূপানি	-10.529
▁পরিচ্ছিন্ন	-10.5293
▁সংকিলেস	-10.5294
সম্ম	-10.5299
▁ৰিঞ্ঞূ	-10.53
রট্ঠ	-10.5303
▁সোণ	-10.5303
▁ৰীতিক্কম	-10.5304
▁করিস্সতি	-10.5312
ধর	-10.5312
ৰীথি	-10.5317
▁দাতব্ব	-10.5318
মেত	-10.5318
▁পতিত	-10.5321
▁পগ্গহ	-10.5324
সিযা	-10.5325
▁পুরিমং	-10.5326
মণ্ডলং	-10.5329
▁কিরিযং	-10.5334
▁অমোহো	-10.5337
▁কারক	-10.5337
▁গয্হ	-10.5338
▁ৰুট্ঠাতি	-10.5339
▁১২১	-10.5339
গতে	-10.5339
িস্সামা	-10.534
▁মোহস্স	-10.5346
▁পস্সতীতি	-10.5346
▁পৰত্তন্তি	-10.5347
পায	-10.5348
ভদ্দ	-10.5348
▁ৰিসং	-10.5351
▁আকিঞ্চঞ্ঞাযতন	-10.5353
▁অৰিপরীত	-10.5354
▁সহসা	-10.5358
রুহ	-10.536
ঠান	-10.5363
সভাৰা	-10.5364
▁ভর	-10.5369
▁নিক্খম	-10.5371
▁ৰত্থুস্মিন্তি	-10.5372
▁খিত্ত	-10.5373
পদেস	-10.5378
▁ভাৰে	-10.5379
অরিয	-10.5387
▁অস্সাস	-10.5388
ধারণ	-10.5389
▁দক্খিণং	-10.5392
▁পংসু	-10.5392
▁কুলং	-10.5394
▁চক্খুৰিঞ্ঞাণস্স	-10.5395
▁অব্ভন্তর	-10.5395
▁দেসিতো	-10.54
সিদ্ধি	-10.5405
সমূহ	-10.5405
াদী	-10.5411
িনং	-10.5416
▁পুব্বেপি	-10.542
রোধ	-10.5421
▁কাতব্ব	-10.5423
▁আচার	-10.5424
সমঙ্গী	-10.5429
▁১২৫	-10.5429
▁আসন্ন	-10.5433
চোর	-10.5433
▁নিপন্ন	-10.5434
▁ফুস্স	-10.5435
েতুকামো	-10.5436
কত্থ	-10.5439
▁ৰসন্তো	-10.5443
▁তণ্হং	-10.5446
রুক্খো	-10.5447
▁দহ	-10.5452
দায	-10.5455
▁ভূমিযা	-10.5455
গ্গাহো	-10.5455
▁ৰিৰাদ	-10.5456
▁উত্তান	-10.5461
▁বুদ্ধি	-10.5462
▁অরহ	-10.5463
▁গহেতব্ব	-10.5469
▁অচ্ছরা	-10.5473
▁দস্সনত্থং	-10.5476
▁অনরিয	-10.5477
▁পটিপদায	-10.5477
▁ৰিসেসং	-10.5477
▁ধুৰং	-10.5478
▁ৰীস	-10.5478
ৰেদন	-10.548
সীমা	-10.548
▁কস্সপো	-10.548
▁সুমেধ	-10.5487
ভাৰনায	-10.5492
সুদ্ধি	-10.5493
▁ঠানেহি	-10.5496
াসন	-10.5498
সমুদ্দ	-10.5505
▁সজ্ঝায	-10.5506
পারমি	-10.5508
▁চতুব্বিধ	-10.5508
▁ৰিত্থারো	-10.551
দুক্খনিরোধগামিনী	-10.5511
▁অৰচ	-10.5512
মত্থং	-10.5513
▁ৰিস্সট্ঠ	-10.5515
▁গৰ	-10.5517
ৰিগ্গহ	-10.5518
▁মুত্তা	-10.5519
▁ভোতো	-10.5522
গু	-10.5524
▁কথিত	-10.5525
স্ৰ	-10.5534
রতনং	-10.5534
▁নোআসৰ	-10.554
সম্পন্নং	-10.5541
▁সুঞ্ঞত	-10.5545
চুণ্ণ	-10.5547
▁ৰিসভাগ	-10.5548
▁নিসিন্নস্স	-10.5554
তিআদিকং	-10.5555
ৰিধং	-10.5557
▁পাল়িযা	-10.5559
▁রু	-10.556
যম্পি	-10.5564
▁পরিগ্গহ	-10.5566
▁দক্খিণেয্য	-10.5572
তপ্প	-10.5573
ুদ্দেস	-10.5574
▁দিট্ঠানুসযো	-10.5575
▁পুব্বভাগে	-10.5579
▁ভায	-10.5583
▁ৰিনস্স	-10.5584
ৰন্তো	-10.5591
ুপ্পাদন	-10.5596
▁পরিঞ্ঞায	-10.5601
পটিমণ্ডিত	-10.5602
▁অয্যে	-10.5604
▁দীঘো	-10.5605
▁পুচ্ছিতো	-10.5606
▁দুৰিধেন	-10.5609
পারমী	-10.5613
ভেদং	-10.5617
▁উপপরিক্খ	-10.5617
’॥	-10.5618
▁পীল়	-10.562
▁ইস্সা	-10.562
▁গমনে	-10.5622
ৰিকার	-10.5629
▁সকুণ	-10.563
▁নিব্বিন্দতি	-10.5635
▁গচ্ছামি	-10.5637
কাল়	-10.5637
ঞ	-10.564
▁ৰাক্যং	-10.5645
▁কতন্তি	-10.565
▁খত্তিযা	-10.5651
ট্ঠিত	-10.5651
▁ৰিপরীত	-10.5652
▁ৰসে	-10.5652
▁করিস্সামি	-10.5654
পাণ	-10.5655
▁পঞ্ঞত্তন্তি	-10.566
▁১২৮	-10.5662
ৰিভঙ্গে	-10.5663
▁১২৬	-10.5664
রহিতা	-10.5666
েয্যাসি	-10.5666
কণ্টক	-10.5668
▁সরণগমন	-10.567
▁সম্মাসম্বুদ্ধেন	-10.5674
খণ্ড	-10.5675
▁দুক্খক্খন্ধস্স	-10.5678
সেনাসন	-10.5678
ছন্দ	-10.5679
▁ঞাত	-10.5679
▁রাগস্স	-10.568
▁নাৰা	-10.5684
দীনং	-10.5687
ানন্তরং	-10.569
▁অস্সাসপস্সাস	-10.5691
সিক্খাপদে	-10.5692
▁উদকেন	-10.5695
মাহু	-10.5697
▁অনাপুচ্ছা	-10.5697
▁অনুৰত্ত	-10.5699
▁ৰিরতি	-10.57
▁রক্খিত	-10.5701
▁নদিযা	-10.5703
▁উভযত্থ	-10.5703
▁মহাজনস্স	-10.5707
ণে	-10.5707
ৰরং	-10.5708
▁ঘরে	-10.5709
▁পান	-10.5709
▁হৰে	-10.5711
▁অরিযসচ্চং	-10.5711
যাৰ	-10.5715
ট্ঠানতো	-10.5716
▁পত্থনা	-10.5722
▁হত্থং	-10.5723
▁অট্ঠসু	-10.5727
▁পরিযেস	-10.5729
অঞ্ঞ	-10.573
▁সরূপতো	-10.5731
দোসো	-10.5733
এতং	-10.5734
▁আদিং	-10.5736
▁তেনাতি	-10.5737
▁নক্খত্ত	-10.5738
▁মদ্দ	-10.5739
▁পটিসেধ	-10.5739
▁সকলং	-10.574
সক	-10.5743
▁ঘরং	-10.5745
▁জৰ	-10.5746
▁সঙ্ঘিক	-10.5747
▁ইদমৰোচ	-10.575
▁পচ্চযেহি	-10.5751
▁জানন	-10.5752
▁পুথুজ্জনা	-10.5752
▁রস্সো	-10.5752
পরম	-10.5753
▁পচ্চযপচ্চনীযং	-10.5753
▁অঞ্ঞস্মিং	-10.5754
▁দুচ্চরিতং	-10.5758
▁১২৭	-10.5763
▁ৰাক্য	-10.5768
▁দধি	-10.5772
▁ৰাসেট্ঠ	-10.5775
▁বুদ্ধুপ্পাদে	-10.5775
▁ফলসমাপত্তি	-10.5778
পিট্ঠি	-10.578
ামহং	-10.5785
পত্তি	-10.5787
▁গামণি	-10.5788
▁সমত্থ	-10.579
▁ৰংস	-10.5797
সম্পন্না	-10.5798
গুণং	-10.5803
▁অগ্গহেত্ৰা	-10.5804
▁নচিরস্সেৰ	-10.5804
▁দুক্খেন	-10.5806
▁পুরিসানং	-10.5806
▁সন্নিপাত	-10.581
▁সহব্যতং	-10.5823
পণ্ডিতো	-10.5832
ৰাচক	-10.5836
িমা	-10.5839
▁ৰিমতি	-10.5842
▁উত্তমং	-10.5842
ক্কন্ত	-10.5846
▁গুত্ত	-10.5847
▁উপট্ঠানং	-10.5849
▁কদা	-10.585
▁পথৰীধাতু	-10.585
▁সমনুপস্সতি	-10.585
▁তণ্ডুল	-10.5855
পদানং	-10.586
▁মানানুসযেন	-10.5868
যোনি	-10.587
সিপ্প	-10.587
▁লূখ	-10.5872
▁পঞ্ঞাৰিমুত্তি	-10.5872
▁পক্কম	-10.5873
▁সদিসো	-10.5873
সঞ্ঞানাসঞ্ঞাযতন	-10.5874
▁আসন	-10.5875
▁ধাতূ	-10.5876
▁গণন	-10.5877
▁তদুভয	-10.5879
▁উপসগ্গ	-10.5879
েসী	-10.5883
▁সত্তসু	-10.5884
▁অনুত্তরো	-10.5884
▁সক্কাযদিট্ঠি	-10.5887
পকার	-10.5893
ানঞ্হি	-10.5894
পাদিন্নুপাদানিযো	-10.5895
▁পুত্তদার	-10.5896
জাতিকো	-10.5896
▁পকার	-10.5898
▁সুমন	-10.5898
াধিপ্পায	-10.5898
▁পরিকম্ম	-10.5905
▁রূপারূপ	-10.5905
▁কারাপেত্ৰা	-10.5906
▁মোক্খ	-10.5906
▁সম্ভৰ	-10.5911
াচরিয	-10.5913
েহিপি	-10.5914
▁অপরিযাপন্নে	-10.5915
জনক	-10.5918
▁ঠপিতা	-10.5923
িকাতি	-10.5923
▁ঘাত	-10.5925
▁পচ্চা	-10.5926
▁মোচ	-10.5928
ত্থেরঅপদানৰণ্ণনা	-10.5929
পটিবদ্ধ	-10.5933
▁দসন্নং	-10.5936
▁যোজন	-10.5936
গরু	-10.594
▁যাচিতো	-10.5941
▁হোতূ	-10.5946
▁রাগাদি	-10.5946
▁পঞ্হে	-10.5947
▁তদঞ্ঞ	-10.5951
▁ধীতা	-10.5951
দ্ৰারং	-10.5954
জিন	-10.5955
কম্মে	-10.5957
▁ৰিৰট	-10.5957
প্য	-10.5959
▁আদীনৰ	-10.5961
▁খগ্গৰিসাণকপ্পো	-10.5964
▁সল্লক্খেত্ৰা	-10.5966
▁উপোসথকম্মং	-10.597
চরিয	-10.5972
পরিচ্চাগ	-10.5973
▁অনেকৰিহিত	-10.5976
▁অত্থেৰ	-10.5976
▁কোপ	-10.5977
▁ৰারি	-10.5979
▁সম্বুদ্ধ	-10.5984
পঞ্চম	-10.5985
▁ধুর	-10.5985
▁ভিক্খুসঙ্ঘং	-10.5987
সাধারণ	-10.5988
তস্মা	-10.5988
▁পটিগ্গণ্হাতি	-10.5989
▁ত্য	-10.5993
▁দুৰিধা	-10.5993
পরিসা	-10.5995
▁ঠানানি	-10.5995
▁যুত্তা	-10.5997
▁করোহি	-10.5998
চারী	-10.5999
▁মহারাজা	-10.6003
▁নানত্ত	-10.6007
▁কম্প	-10.6009
▁পটিলভ	-10.6012
▁পঞ্হ	-10.6013
▁ভোজ	-10.6014
পচ্চযে	-10.6014
▁নাস্স	-10.6015
সোক	-10.6015
▁সারথি	-10.6016
▁ভুঞ্জিত্ৰা	-10.6016
ময্হং	-10.6017
▁আহারা	-10.6017
চিত্তানি	-10.6018
পুব্বো	-10.6018
▁পণ্ণত্তি	-10.6018
কারে	-10.602
সাৰক	-10.6021
নিস্সিতা	-10.6021
▁সংৰেগ	-10.6026
▁অৰিজ্জমান	-10.6028
▁পলায	-10.6029
▁গিলানো	-10.6029
▁অরূপিনো	-10.6033
▁ভিত্তি	-10.6035
ত্তঞ্চ	-10.6037
▁লোহ	-10.6037
পট	-10.6042
▁পব্বজ	-10.6043
িকানং	-10.6044
▁তীরে	-10.6052
▁কঞ্ঞা	-10.6052
মর	-10.6053
▁পব্বতো	-10.6059
▁অভিক্কম	-10.6061
▁পদট্ঠান	-10.6064
▁উপপজ্জ	-10.6066
▁সাপি	-10.6068
ভগৰা	-10.6069
▁সম্ভাৰ	-10.6072
▁সাগর	-10.6075
▁মেথুনং	-10.6076
▁উর	-10.6081
▁একৰচন	-10.6082
িযমানে	-10.6084
সহগতা	-10.6085
পণ্ডিত	-10.6086
▁ইস্সর	-10.6086
▁অনুবন্ধ	-10.6086
ৰাসী	-10.6087
▁হিংস	-10.6089
▁পূরণ	-10.609
ভোজনং	-10.609
▁কঞ্চন	-10.6091
হত	-10.6091
▁মেত্ত	-10.6094
▁পথ	-10.6094
▁নানাক্খণিকা	-10.6094
▁অত্তমনা	-10.6096
▁পেসেসি	-10.6098
▁ফুসিত্ৰা	-10.6107
▁সিনেরু	-10.6108
▁পঞ্ঞাস	-10.6109
▁মহাবোধি	-10.611
▁ৰিচর	-10.6122
▁অতুল	-10.6123
মাতিকা	-10.6124
▁সেল	-10.6126
যোগেন	-10.6127
লোকো	-10.6132
রূপে	-10.6139
াসীতি	-10.6141
▁গোণ	-10.615
পু	-10.6152
▁দিট্ঠধম্মিক	-10.6153
যমানা	-10.6154
▁পচ্চৰেক্খণ	-10.6154
▁তথারূপ	-10.6155
▁পটিচ্চসমুপ্পন্ন	-10.6156
▁পানীযং	-10.616
▁পঞ্ঞপেন্তি	-10.6161
এহি	-10.617
ঞ্চাপি	-10.6177
হোতি	-10.6179
▁উদ্ধরিত্ৰা	-10.6181
▁ময্হ	-10.6181
পচ্চুপ্পন্ন	-10.6181
পৰত্তি	-10.6185
মচ্ছ	-10.6187
▁গোতমং	-10.6188
ৰিপত্তি	-10.6189
▁বহুস্সুতো	-10.619
▁চুণ্ণ	-10.6191
▁ভোগা	-10.6193
সংৰর	-10.6196
▁তাদিনো	-10.6197
▁আচরিযেন	-10.6197
চত্তারো	-10.6198
পন্ন	-10.6201
▁উপেক্খিন্দ্রিয	-10.6206
▁পুপ্ফং	-10.6206
দ্ৰযে	-10.6207
▁কেৰলস্স	-10.6211
▁অরণ	-10.6211
কুলং	-10.6213
ক্রিযা	-10.6218
▁পদেন	-10.6223
▁হীনং	-10.6225
▁অভাৰ	-10.6225
▁অঞ্ঞাণং	-10.6226
▁অপরি	-10.6227
▁দেসেস্সামি	-10.6227
▁পত্তি	-10.6228
গূ	-10.6229
▁করণীযা	-10.623
▁অস্মিং	-10.6231
▁সীলেসু	-10.6232
▁রতনং	-10.6233
লদ্ধ	-10.6233
▁ৰিপুলং	-10.6233
▁এতদৰোচুং	-10.6235
▁সিৰ	-10.6236
▁ধনু	-10.6236
▁রট্ঠং	-10.6237
▁পব্বজ্জ	-10.6238
ঙ	-10.6241
▁অরহত্তফল	-10.6242
▁হোন্তু	-10.6245
▁আরম্মণপুরেজাতং	-10.6246
মত্থকে	-10.6249
▁সপ্পায	-10.6251
স্সাম	-10.6253
▁লব্ভতীতি	-10.6253
▁গণ্হন্তো	-10.6253
ক্খন্ধো	-10.6254
চতুত্থ	-10.6259
সেট্ঠি	-10.6259
▁সমতিক্কম্ম	-10.626
▁হেৰ	-10.6261
ভিক্খূ	-10.6263
▁পুব্বাপর	-10.6267
▁ৰিজহ	-10.6268
ৰিধি	-10.6268
▁তিক্খ	-10.6269
▁ৰিমল	-10.627
▁চণ্ড	-10.627
সির	-10.627
পুণ্ণ	-10.6278
পরিমাণ	-10.6279
তব্ব	-10.628
▁আপ	-10.6283
পথং	-10.6284
সুদ্ধ	-10.6284
নস্স	-10.6284
▁ভোজনে	-10.6286
▁চিন্ত	-10.6288
দানেন	-10.6288
▁অরঞ্ঞং	-10.6289
চ্ছন্ন	-10.6292
▁পরিব্বাজকো	-10.6293
▁উপাদিন্ন	-10.6293
উত্তরিমনুস্সধম্ম	-10.6293
▁পচ্চৰেক্খন্তি	-10.6295
▁অরতি	-10.6295
সীসেন	-10.6301
▁অদিন্নং	-10.6314
িযমান	-10.6315
▁পরিপুচ্ছ	-10.6318
হন্তি	-10.6319
▁আনিসংস	-10.6322
▁গুণৰন্ত	-10.6325
▁নিক্খিপিত্ৰা	-10.6326
▁আরম্মণূপনিস্সযো	-10.6326
▁পুব্বেনিৰাস	-10.6327
▁সম্পরাযিক	-10.6328
সীলা	-10.633
▁সব্বেন	-10.6333
▁সুতেন	-10.6335
দীপন	-10.6336
পত্তং	-10.6337
▁সমথো	-10.634
হত্থো	-10.634
▁পরমত্থতো	-10.6341
▁সংস	-10.6344
সোভ	-10.6345
ৰিসিট্ঠ	-10.6346
দস্স	-10.6353
▁করিস্সামী	-10.6353
থের	-10.6353
▁পক্খিত্ত	-10.6356
▁জনং	-10.6359
▁পূতি	-10.6369
▁অত্থা	-10.637
▁সিস্স	-10.637
ানুভাৰ	-10.6371
▁করণং	-10.6372
▁সরিত্ৰা	-10.6372
▁সামি	-10.6373
▁মহাজনো	-10.6377
▁পচ্চনীক	-10.6379
পদান	-10.6379
▁সিঞ্চ	-10.638
কিণ্ণ	-10.638
ল়ি	-10.638
▁অনুভৰ	-10.6382
▁এয্য	-10.6382
অত্ত	-10.6384
▁চুতা	-10.6386
▁তাৰদে	-10.6387
প্পহানং	-10.6392
কারকো	-10.6393
▁নিপজ্জ	-10.6393
▁ইদ	-10.6394
▁উপ্পজ্জিত্ৰা	-10.6399
▁ঘোস	-10.6401
কাস	-10.6402
▁ভৰেসু	-10.6406
সহিত	-10.6407
▁পরিচ্চজ	-10.6407
▁মহাদানং	-10.6408
▁ৰিপাকপচ্চয	-10.6409
▁উপেক্খায	-10.6412
▁সেনা	-10.6412
▁ভাৰেন্তো	-10.6414
▁তুম্হ	-10.6416
▁সনিদস্সনসপ্পটিঘ	-10.6417
ভাগে	-10.6418
বদ্ধ	-10.6419
▁নখ	-10.6421
সজ্জ	-10.6427
▁দুক্কর	-10.6429
▁একদেস	-10.6432
▁ছন্দরাগ	-10.6432
▁অমচ্চ	-10.6433
েকদেস	-10.6436
ভেসজ্জ	-10.6436
▁পরিনিব্বুতো	-10.6437
▁ইস্সরো	-10.6442
আদীহি	-10.6446
▁ঠানা	-10.6452
কতমা	-10.6452
▁সম্বহুলে	-10.6453
ত্থন্তি	-10.6453
▁ভিক্খৰো	-10.6455
▁দেৰলোক	-10.6458
▁মহেসি	-10.646
▁একম্পি	-10.646
কারেন	-10.6461
▁কল্যাণমিত্ত	-10.6464
▁সোতাপত্তিফল	-10.6466
▁নরা	-10.6469
▁যোনি	-10.6469
▁আপো	-10.647
দুস্স	-10.6475
▁ভাৰেত্ৰা	-10.6476
▁তণ্হ	-10.6478
▁উপগত	-10.6478
▁দিৰস	-10.6491
▁নিদানং	-10.6492
▁মেত্তং	-10.6493
লোচন	-10.6495
▁সিরসা	-10.6497
▁গাৰো	-10.6498
নত্থ	-10.6499
▁ধম্মচক্কং	-10.65
▁পটিবাহ	-10.6504
▁কাযিক	-10.6504
▁কুজ্ঝ	-10.6505
▁পুত্তস্স	-10.6507
▁একচ্চ	-10.6508
▁পুথুজ্জনস্স	-10.6508
পূরণ	-10.651
▁পটিলভতি	-10.6511
ৰাচ	-10.6511
▁দেৰপুত্ত	-10.6515
▁করোন্তা	-10.6516
▁হত্থী	-10.6519
মজ্ঝিম	-10.652
দাস	-10.6524
▁হোন্তী	-10.6525
েন্তী	-10.6526
ৰী	-10.6528
▁পহূত	-10.6529
▁খ্ৰাহং	-10.6529
▁অদত্ৰা	-10.6531
ধরো	-10.6532
জাতং	-10.6533
সমাদান	-10.6534
▁অনিমিত্ত	-10.6536
▁নিদ্দেস	-10.6537
▁মনাপা	-10.6537
▁পস্সং	-10.6538
▁সদেৰকে	-10.6541
▁অন্তেৰাসিক	-10.6542
▁ৰিমুত্ত	-10.6546
▁ৰত্তমানে	-10.6551
▁অযুত্ত	-10.6553
তলে	-10.6554
▁ৰিপল্লাস	-10.6555
য্হ	-10.6559
দসহাযতনেহি	-10.6559
সংযুত্তং	-10.656
▁পচ্চযুপ্পন্ন	-10.6563
যুত্তা	-10.6565
▁অভিঞ্ঞেয্যো	-10.6566
▁চীৰরে	-10.6566
▁পঞ্চিন্দ্রিযানি	-10.6568
ঞাণেন	-10.6568
▁লোকুত্তরধম্ম	-10.6568
ইচ্চেত	-10.6568
▁সম্মাৰাচা	-10.657
▁পকাসিতো	-10.6571
েস্সতি	-10.6573
▁ৰিপরিণাম	-10.6573
সেট্ঠ	-10.6574
চতুক্ক	-10.6576
িযতি	-10.6576
▁হস	-10.6577
দস্সী	-10.6578
▁থুল্লচ্চযস্স	-10.6578
▁সমুদায	-10.6579
▁উস্সাহ	-10.658
▁সূপ	-10.6581
▁মেথুন	-10.6581
▁সাখা	-10.6582
যত্থ	-10.6587
▁উজ্ঝাযন্তি	-10.6588
▁অধিপ্পাযেন	-10.6588
▁আরাধ	-10.6588
▁সত্তি	-10.6592
▁উপক্কম	-10.6593
▁পৰত্তনতো	-10.6594
▁এৰন্তি	-10.6594
▁পসত্থ	-10.6598
▁সঙ্ঘাদিসেসো	-10.6599
▁ৰিহাসি	-10.6599
▁আর	-10.6602
▁অমনুস্স	-10.6602
তিস্সো	-10.6602
পদস্স	-10.6604
▁পদানং	-10.6604
▁অধম্মো	-10.661
▁দেসেন্তো	-10.6611
নৰিপাকধম্মধম্মো	-10.6612
াযপি	-10.6613
▁কুটি	-10.6614
▁ধম্মিক	-10.6615
▁বোধিসত্ত	-10.6616
দ্ৰি	-10.6621
▁সন্তক	-10.6627
▁চোরা	-10.6629
▁অধম্মেন	-10.6631
রৰ	-10.6632
▁ৰত্থুপুরেজাতং	-10.6632
▁অপচযগামি	-10.6632
▁ধূম	-10.6634
জাতকে	-10.6634
▁১৩০	-10.6638
▁সক্খি	-10.6642
দন	-10.6643
▁ফলসমাপত্তিযা	-10.6644
স্মিঞ্হি	-10.6646
▁অন্তিম	-10.6647
▁তিধা	-10.6649
াৰহ	-10.6649
▁সালি	-10.6649
▁নাগরাজা	-10.665
তেসং	-10.6651
মোদ	-10.6656
িনিং	-10.666
সঙ্খত	-10.6662
চেতিয	-10.6663
দাযকো	-10.6664
▁পথৰিযং	-10.6666
▁যোগো	-10.6666
▁সমাগতা	-10.667
▁গায	-10.6672
ৰিত্থার	-10.6672
▁ঠপেতি	-10.6676
▁ৰিদ্ধংস	-10.6681
▁ৰুত্তঞ্হি	-10.6682
▁রূপকায	-10.6682
ালয	-10.6684
যস্মিং	-10.6685
▁জীৰিতিন্দ্রিয	-10.6689
পদেন	-10.6689
▁খেত্তং	-10.6691
ঞ্ঞায	-10.6691
ন্ধকার	-10.6691
াকারং	-10.6693
▁দুতিযজ্ঝান	-10.6694
েহেৰ	-10.6694
▁উপট্ঠ	-10.6695
কণ্ড	-10.6696
অধি	-10.6699
▁সম্মাৰাযামো	-10.67
▁পোরাণ	-10.6701
▁পঞ্চৰোকারে	-10.6702
▁সোচ	-10.6703
খন্ধঞ্চ	-10.6705
▁সমথেহি	-10.6706
▁ফর	-10.6707
▁পটিৰিদ্ধ	-10.671
যান	-10.6714
▁খাদনীযং	-10.6715
▁অনাপত্তীতি	-10.6715
▁সমাপন্নস্স	-10.6718
▁পক্খিপ	-10.6718
▁কুলানি	-10.6719
▁সুদ্ধাৰাস	-10.672
▁উট্ঠিত	-10.6721
▁ইত্থন্নামো	-10.6721
▁ধাতূনং	-10.6721
িস্সা	-10.6722
▁তচ	-10.6724
▁নিদ্দিট্ঠ	-10.6727
মদ্দ	-10.6727
▁দুতিযম্পি	-10.6728
ত্থু	-10.6728
▁মগ্গারম্মণ	-10.6729
▁অনাসৰা	-10.6729
ংযেৰ	-10.673
▁সুরা	-10.6734
▁অজ্ঝুপেক্খ	-10.6737
ৰনং	-10.6737
▁পাসাদ	-10.6738
১২	-10.6742
▁সুদ্ধি	-10.6742
সম্বোজ্ঝঙ্গস্স	-10.6745
▁তাপসো	-10.6746
▁রুক্খং	-10.6746
সভাগ	-10.6749
লোকে	-10.6749
▁পনেস	-10.675
▁রাগং	-10.675
▁উত্তানত্থমেৰ	-10.675
ভাসিত	-10.6751
প্পধান	-10.6753
▁সঙ্ঘাটি	-10.6753
গব্ভ	-10.6758
ট্ঠিতি	-10.6762
▁রতি	-10.6768
▁মজ্ঝত্ত	-10.6768
▁নিরুজ্ঝিস্সন্তি	-10.6772
▁ভাৰিতো	-10.6773
সময	-10.6774
▁অহেতুকপটিসন্ধি	-10.6774
▁সেয্যং	-10.6775
পব্ব	-10.6776
▁মঞ্ঞমানো	-10.6776
▁তিল	-10.6777
সপ্প	-10.6779
▁দুক্কটন্তি	-10.6779
ঞ্চেত্থ	-10.678
ৰিনাস	-10.678
ঞ্ঞো	-10.678
▁হন্দ	-10.6783
▁এতাযাতি	-10.6788
▁কযিরা	-10.6791
কালিক	-10.6793
▁অনাগতা	-10.6798
ঞ্ঞং	-10.6801
ত্যাদি	-10.6803
▁অহোসিং	-10.6804
কসিণ	-10.6806
মূলং	-10.6806
▁মত্থকে	-10.6809
▁কথেতুং	-10.6811
গামী	-10.6813
সম্পাদ	-10.6814
▁অনিয্যানিক	-10.6814
লাপ	-10.6815
পূজ	-10.6815
▁তথাগতেন	-10.6816
নতা	-10.6818
▁স্ৰা	-10.6819
▁অব্ভন্তরে	-10.6822
▁কাযকম্ম	-10.6822
▁আক	-10.6823
▁পমোদ	-10.6825
▁ৰাযমতি	-10.6827
▁পরিঞ্ঞা	-10.6832
▁আরভতি	-10.6834
▁১২৯	-10.6835
▁গারৰ	-10.6835
▁সমন্নাগতেন	-10.6841
▁যাচি	-10.6841
▁গহিতত্তা	-10.6845
▁ৰিমুচ্চ	-10.6846
▁পজ্জ	-10.6848
হু	-10.6849
কম্পি	-10.6849
▁বলানি	-10.685
▁সীসে	-10.6851
বোধ	-10.6851
▁অপ্পহীন	-10.6852
▁ভেসজ্জং	-10.6861
সঙ্খেপ	-10.6862
ক্খা	-10.6862
▁অভিভৰ	-10.6863
▁সম্ভৰতি	-10.6865
▁সম্পটিচ্ছ	-10.6866
▁জরায	-10.6868
সভাৰং	-10.6869
▁দেৰী	-10.6869
▁কুক্কুট	-10.687
▁চতুত্থজ্ঝান	-10.6873
পটিচ্ছন্ন	-10.6874
▁পাকার	-10.6874
▁ৰিকালে	-10.6878
▁পভুতি	-10.6878
▁পচ্চেকবুদ্ধ	-10.6879
▁রূপাৰচরং	-10.6879
▁আচরিযস্স	-10.6879
▁ধনেন	-10.6879
▁পুরিসেন	-10.6879
▁হাস	-10.6883
▁অযো	-10.6884
▁পসাদো	-10.6884
রজ	-10.689
▁সত্তমো	-10.6891
ইচ্চাদি	-10.6891
ভাজন	-10.6893
▁ব্যাপাদো	-10.6894
কঞ্চ	-10.6899
▁সমাধিস্মিং	-10.6899
▁পঞ্ঞপ	-10.6901
সণ্ঠান	-10.6906
▁ৰেদন	-10.6907
▁লজ্জ	-10.6907
▁উপসম	-10.691
▁পূরিত	-10.691
ৰত্থুকা	-10.691
▁নিরামিস	-10.6913
▁অরণো	-10.6913
▁হোহি	-10.6915
ৰরো	-10.6917
▁১৪০	-10.6919
▁নিক্খমি	-10.692
▁পচ্ছিমং	-10.6922
▁কতর	-10.6927
▁নিযম	-10.6931
হারো	-10.6931
দী	-10.6932
▁পল্লঙ্ক	-10.6932
▁ৰযো	-10.6932
▁ভিক্খুনি	-10.6937
▁রজো	-10.6938
পথে	-10.6939
দিন্ন	-10.6939
▁অৰণ্ণং	-10.6943
▁সত্তু	-10.6944
▁দেথা	-10.6945
▁অদুক্খমসুখং	-10.6945
▁ছব্বিধ	-10.6948
▁করোথা	-10.6948
▁ভূতং	-10.6951
▁অনুযুঞ্জ	-10.6953
াসী	-10.6953
▁ৰিপত্তি	-10.6955
▁উপট্ঠহ	-10.6955
▁গোত্তেন	-10.6961
াৰসেস	-10.6961
▁কামভৰ	-10.6962
▁রাসি	-10.6963
মট্ঠ	-10.6963
পত্থ	-10.6964
ভযেন	-10.6964
▁পাঠ	-10.6964
াভাৰেন	-10.6965
▁সঞ্চিচ্চ	-10.6967
▁আরক্খ	-10.6968
▁অপচ্চ	-10.6968
▁ঞ	-10.6968
তেল	-10.6969
▁ৰত্তন্তি	-10.6972
াপয	-10.6973
▁১৩৫	-10.6974
ণ্হ	-10.6975
▁উপাদানসম্পযুত্ত	-10.6977
▁ৰজ	-10.6978
▁সম্মতি	-10.6979
চু	-10.6982
ঘর	-10.6983
▁ইমানেত্থ	-10.6984
▁ভাৰিতত্তা	-10.6985
▁মানুসং	-10.6985
▁নিরোধা	-10.6986
▁উদানেসি	-10.6986
▁ৰিচিন	-10.6986
▁পব্বতে	-10.6987
ৰচ্ছ	-10.6989
▁সুন্দরং	-10.6992
▁করোমি	-10.6993
▁অতীতা	-10.6993
▁ৰসা	-10.6999
ক্খণ	-10.7
গন্তব্ব	-10.7
▁অঞ্জন	-10.7002
▁উদ্দিস	-10.7005
▁পাল	-10.7006
পরিত্ত	-10.7006
▁কারাপ	-10.7008
ক্কমো	-10.7012
▁উপ্পজ্জনক	-10.7014
▁অনাসৰং	-10.7016
▁অট্ঠম	-10.7019
▁পত্তচীৰরমাদায	-10.702
▁নিপাতমত্তং	-10.7021
▁পদেস	-10.7023
▁আৰট্ট	-10.7024
▁নিব্বত্তা	-10.7026
▁কুব্ব	-10.7028
▁জম্বুদীপ	-10.7031
▁গণ্ড	-10.7033
নর	-10.7033
▁পরমং	-10.7034
▁১৩৩	-10.7035
▁পহীনত্তা	-10.7038
▁অহি	-10.7041
▁সুক্ক	-10.7042
সম্ভৰতো	-10.7042
▁সংযোগ	-10.7043
ৰুট্ঠ	-10.7044
মরণ	-10.7045
▁নেত্ত	-10.7049
▁মনুস্সলোকে	-10.705
▁কোৰিদো	-10.7051
▁উপরিম	-10.7052
▁উপাদারূপং	-10.7055
ক্খয	-10.7055
অত্থিযা	-10.706
পার	-10.7064
▁অসম	-10.7065
▁১৩৭	-10.7068
▁অহেতুকো	-10.707
▁অধিপ্পায	-10.7074
এস	-10.7074
▁মিস্স	-10.7077
▁বন্ধু	-10.7078
▁আসৰো	-10.708
যোগে	-10.7082
▁সাযং	-10.7083
▁ৰেস্সন্তর	-10.7086
ইদানি	-10.7087
িধ	-10.7088
▁তথাগত	-10.7091
▁ঞাণস্স	-10.7096
▁কেসা	-10.7097
▁বাহু	-10.7098
▁ৰাস	-10.7098
▁ধীরা	-10.7099
▁অনুরুদ্ধ	-10.7101
▁অনুপ্পত্তো	-10.7101
দিৰস	-10.7102
ক্খী	-10.7102
▁সৰিতক্কসৰিচারা	-10.7103
▁অক্খি	-10.7106
পঞ্চিমে	-10.7107
▁সমানা	-10.711
▁তেজো	-10.7113
▁তাৰদেৰ	-10.7118
চত্তারোমে	-10.7119
মূলে	-10.7119
▁কারিতে	-10.7121
াতীতি	-10.7121
▁পৰিট্ঠো	-10.7128
▁মুখেন	-10.7129
▁সামিৰচনং	-10.7135
সন্	-10.7135
সৰন	-10.7138
▁পাটিদেসনীয	-10.7138
▁সমাপন্নো	-10.7142
▁উদ্ধচ্চসহগতো	-10.7143
▁পটিজগ্গ	-10.7145
▁কোট্ঠাস	-10.7145
▁কুচ্ছিত	-10.7147
রূপেন	-10.7148
সযন	-10.715
কাযা	-10.7151
▁ধম্মধাতু	-10.7151
ৰিস্সজ্জন	-10.7152
▁সখা	-10.7155
▁পুঞ্ঞকম্ম	-10.7156
▁সক্য	-10.7157
▁যদিপি	-10.7157
চক্কং	-10.7157
▁তাহি	-10.7159
▁ৰিপস্সিস্স	-10.7159
ৰিমোক্খ	-10.7159
▁সমাধিন্দ্রিযং	-10.7161
ানুলোম	-10.7161
▁সব্বেহি	-10.7163
▁গচ্ছন্তে	-10.7166
▁অপ্পমাণং	-10.7166
▁পক্খে	-10.7167
▁সীহনাদং	-10.7168
▁সরো	-10.7169
▁অত্তভাৰ	-10.717
পাণি	-10.717
▁কম্মুনা	-10.717
▁সেসানি	-10.7176
▁ছড্ড	-10.7177
▁ৰিমানং	-10.7178
▁মোহং	-10.7179
▁মনুস্সে	-10.7184
▁ছাদ	-10.7187
াদিভেদং	-10.719
▁তস্সাপি	-10.7191
▁সাদিয	-10.7193
▁অনাদরিযং	-10.7194
▁আসয	-10.7196
হে	-10.7197
পুরে	-10.7197
ব্রহ্মচরিয	-10.7199
▁পাণং	-10.7199
পঞ্চহি	-10.7202
▁খিয্যন্তি	-10.7206
▁১৩২	-10.7207
িত্ৰাতি	-10.7209
▁মারস্স	-10.7211
▁নিদস্সন	-10.7211
▁আদিয	-10.7212
▁দেহং	-10.7214
ৰিনিচ্ছযো	-10.7215
পটিসন্ধি	-10.7216
ট্ঠক	-10.7218
▁সক্কায	-10.7219
▁অগম	-10.7221
▁থেয্য	-10.7226
িযমানা	-10.7226
▁ধম্মকথং	-10.7227
▁একন্তেন	-10.7227
▁সম্ভৰো	-10.7228
▁জন্তু	-10.7236
▁দেৰতানং	-10.7238
াদিকা	-10.7238
▁অনভি	-10.7243
▁দিস	-10.7244
ভূমিং	-10.7245
▁হেত্থ	-10.7247
▁পকাসেত্ৰা	-10.7248
▁তেসম্পি	-10.7248
▁মুচ্চ	-10.725
তিণ	-10.725
▁ফলানি	-10.725
▁অদ্দসং	-10.7251
▁দস্সামী	-10.7252
▁গতং	-10.7254
▁অরিযসচ্চ	-10.7256
কন্ত	-10.7257
নিদানং	-10.7257
▁পতিট্ঠিতা	-10.7257
▁ৰেধ	-10.7259
▁ভূতা	-10.7259
নিযম	-10.7261
▁ঠপিতং	-10.7264
▁নীচ	-10.7266
ইমস্মিং	-10.7267
সাধূ	-10.7268
▁অনুমোদ	-10.7268
▁সিক্খাপদানি	-10.7268
সঞ্ঞানাসঞ্ঞাযতনং	-10.7269
▁পুনপি	-10.7272
▁১৩৮	-10.7274
▁ধুতঙ্গ	-10.7275
ীৰ	-10.7275
▁সংযোজনানি	-10.7275
▁ৰিমুত্তো	-10.7275
▁ছত্তিংস	-10.7276
▁চেতি	-10.7277
▁মাতুগামো	-10.7278
ঙ্গণ	-10.7278
▁পুম	-10.7279
▁পরিত্তো	-10.728
▁চণ্ডাল	-10.7282
পমাণ	-10.7286
▁পস্সেয্য	-10.7288
▁কুসলাকুসল	-10.7288
ৰাচা	-10.7292
▁সভাৰতো	-10.7292
▁অগারং	-10.73
▁ভিক্খুসঙ্ঘো	-10.7302
কেসু	-10.7302
▁চরন্তো	-10.7302
সীহ	-10.7303
▁উপ্পজ্জন্তীতি	-10.7303
▁দেহী	-10.7305
▁মনসিকার	-10.7306
▁অযমস্স	-10.7306
▁তেসন্তি	-10.7308
▁কুহিং	-10.731
▁পণাম	-10.731
তাপ	-10.7314
গারৰ	-10.7314
রূ	-10.7318
চ্ছিন্ন	-10.7318
▁সব্বঞ্ঞু	-10.732
▁সংযোজনানং	-10.7321
▁রসো	-10.7327
▁১৩১	-10.7331
▁নীৰরণা	-10.7332
▁চিত্তসমুট্ঠান	-10.7334
▁উপট্ঠাতি	-10.7334
▁আলয	-10.7336
▁সুখুমা	-10.7336
▁ইমঞ্চ	-10.7337
▁পযোজ	-10.7337
▁সগ্গে	-10.734
▁ফস্সপচ্চযা	-10.734
▁অৰসেসং	-10.7341
ভেদে	-10.7341
▁গচ্ছন্তং	-10.7341
▁যুগ	-10.7342
▁ওত্তপ্প	-10.7347
▁ভিজ্জ	-10.7348
▁উদান	-10.7349
▁আপজ্জ	-10.7349
▁পটিসন্ধিং	-10.7352
▁সোত্থি	-10.7352
▁ছত্তং	-10.7358
▁১৩৪	-10.7359
▁তেজোধাতু	-10.7361
▁পুচ্ছন্তো	-10.7364
▁নানাৰিধ	-10.7366
▁পভা	-10.737
▁অপ্পত্ত	-10.7371
▁ব্রহ্মলোকে	-10.7372
পণ্ণাস	-10.7372
▁ইচ্ছিত	-10.7374
সম্পযুত্তং	-10.7376
▁সাসনস্স	-10.7378
▁সোতাপত্তিমগ্গ	-10.7383
▁অতিক্কম্ম	-10.7384
▁সন্ততি	-10.7385
কীল়	-10.7385
▁পুরেজাতস্স	-10.7385
ৰিনিচ্ছয	-10.7386
▁হেম	-10.7389
▁খলু	-10.7389
পটিপদা	-10.739
▁নারী	-10.739
পত্তিযা	-10.7392
▁ওতরিত্ৰা	-10.7392
▁ধারেতি	-10.7393
▁অনুঞ্ঞাত	-10.7393
▁ঠ	-10.7395
ক্কমেন	-10.7396
▁উদয	-10.7398
▁উদাযি	-10.7398
▁ৰিকার	-10.7401
▁সমো	-10.7403
▁পভৰ	-10.7404
▁দেসিত	-10.7405
▁ৰত্থূনি	-10.7405
▁মহল্লক	-10.7406
▁সণ্হ	-10.7409
সব্বং	-10.741
▁অচল	-10.7411
▁১৩৬	-10.7412
▁সন্তা	-10.7413
▁লোহিতং	-10.7414
▁জম্বু	-10.7415
▁ৰিভৰ	-10.7416
▁অভিজ্ঝাদোমনস্সং	-10.7416
পুত্তা	-10.7417
খিল	-10.7418
ক্খি	-10.7419
গেহ	-10.7421
▁ৰক্খমান	-10.7421
▁তিরচ্ছানগত	-10.7423
▁একেকং	-10.7423
▁ৰিঞ্ঞাণঞ্চাযতন	-10.7424
▁অদা	-10.7426
যোগো	-10.7428
▁সিনেহ	-10.7429
▁অধম্মিক	-10.7429
▁মেঘ	-10.7431
সানং	-10.7432
াতীত	-10.7435
ভিক্খ	-10.7436
▁ৰণ্ণে	-10.7437
কস্মা	-10.744
দণ্ডক	-10.7443
নযে	-10.7444
▁সমাদিন্ন	-10.7447
াদিকো	-10.7451
▁সূর	-10.7453
▁নামানি	-10.7461
▁ৰিনিপাতং	-10.7462
▁এৰমেতস্স	-10.7464
▁মহন্তো	-10.7467
▁ভদ্র	-10.747
▁তিট্ঠতীতি	-10.7473
▁সকে	-10.7473
▁পহরিত্ৰা	-10.7474
▁তিৰিধা	-10.7476
সমুদযো	-10.7478
▁আদিত্ত	-10.7479
▁রাধ	-10.7479
▁মহামোগ্গল্লানো	-10.748
ানুসারেন	-10.7481
▁ভঙ্গ	-10.7484
▁ৰেয্যাকরণ	-10.7491
▁ৰিপাকা	-10.7491
গিলান	-10.7492
▁পানীয	-10.7496
▁মহাজন	-10.7496
▁ইস্সরিয	-10.7497
▁ধারেয্য	-10.7497
▁অযোনিসো	-10.7497
▁অন্তরামগ্গে	-10.7501
▁সংযম	-10.7501
▁পটিচ্ছাদ	-10.7501
পরিযন্ত	-10.7504
▁উত্তানমেৰাতি	-10.7504
সভ	-10.7504
▁অভিভৰিত্ৰা	-10.7505
▁অজ্ঝত্তিকং	-10.7511
▁ভুত্ত	-10.7511
ৰাদিনো	-10.7513
▁পজায	-10.7515
সঞ্ঞোজনসম্পযুত্ত	-10.7517
▁গোত্ত	-10.7519
▁লিখিতং	-10.7519
▁তযিদং	-10.7522
সুখুম	-10.7522
গোচর	-10.7523
িস্সন্তী	-10.7525
▁চেতেতি	-10.7525
▁জর	-10.7528
▁সন্তানে	-10.7529
▁দিৰ	-10.753
▁ব্যগ্ঘ	-10.753
▁আরভ	-10.7531
▁কিলম	-10.7536
▁সব্বেসম্পি	-10.7537
▁পহ	-10.7538
▁সেতি	-10.7538
▁সল়াযতন	-10.754
▁ৰিপাচেন্তি	-10.754
নীৰরণ	-10.7542
▁অজ্ঝাসয	-10.7543
পরিযোসান	-10.7545
▁পরিৰারেত্ৰা	-10.7545
ানুযোগ	-10.7547
মাণৰ	-10.7548
▁মুঞ্চিত্ৰা	-10.7551
▁ৰুত্তি	-10.7551
▁সাৰজ্জ	-10.7552
▁পায	-10.7553
▁ওল়ারিকা	-10.7555
▁কামাৰচরে	-10.7557
▁ঘানং	-10.756
▁সুখী	-10.7564
▁তিৰিধো	-10.7567
▁নাগা	-10.7568
▁অলোভো	-10.7573
▁সুগন্ধ	-10.7574
▁পাদং	-10.7574
সমান	-10.7576
▁ৰিঞ্ঞাপেত্ৰা	-10.7576
▁আজান	-10.7579
▁দেৰানমিন্দ	-10.7585
▁সোচতি	-10.7587
▁আপন্ন	-10.7588
▁যাথাৰতো	-10.7588
▁পৰিৰেক	-10.759
ত্থেরগাথা	-10.759
▁মুখে	-10.759
ৰুত্থ	-10.7596
নীযং	-10.7598
ব্যাকত	-10.76
▁পঞ্ঞত্তো	-10.7602
–	-10.7603
▁এতন্তি	-10.7603
▁ৰিধ	-10.7604
▁চেতিযং	-10.7606
পচ্চৰেক্খণ	-10.7611
▁কুলগেহে	-10.7612
▁কারেতব্বো	-10.7612
▁জাতিং	-10.7612
▁নিব্বানঞ্চ	-10.7613
▁আপদাসু	-10.7613
▁ৰিঞ্ঞাযতি	-10.7613
▁ৰিঘাত	-10.7614
▁পটিক্খিত্ত	-10.7614
▁ৰণ	-10.7615
▁পুচ্ছিতব্বত্তা	-10.7616
নসনিদস্সনসপ্পটিঘ	-10.7617
▁কত্ৰাতি	-10.7617
▁আবাধ	-10.7617
▁কারিত	-10.7619
▁সঙ্খেপো	-10.7623
▁সম্মাসঙ্কপ্পো	-10.7624
▁তম্হি	-10.7629
সুভ	-10.763
গুত্ত	-10.7632
▁হত	-10.7634
▁পঠন্তি	-10.7639
হঙ্গেহি	-10.764
ৰিমুত্ত	-10.764
সহগতং	-10.7641
ুপাদান	-10.7641
▁রূপাৰচরে	-10.7641
ত্থেরং	-10.7641
▁সেক্খ	-10.7643
▁ভিজ্জতি	-10.7644
▁দেৰানমিন্দো	-10.7647
সন্ততি	-10.7649
প্পচ্চযো	-10.765
ইমস্স	-10.765
▁আকিঞ্চঞ্ঞাযতনং	-10.7654
▁সমাপজ্জিত্ৰা	-10.7656
পঞ্চক	-10.7656
ারম্মণে	-10.7659
তস্সা	-10.7661
▁ৰজ্জেত্ৰা	-10.7663
▁অট্ঠকথায	-10.7663
▁নিস্সযো	-10.7665
গুণা	-10.7666
▁ৰুট্ঠ	-10.7676
▁গুণেহি	-10.7676
▁অসন্ত	-10.7676
▁অঞ্ঞতরস্স	-10.7678
▁ফুট্ঠ	-10.7679
ন্তোপি	-10.768
▁বহূনং	-10.7684
▁সরূপ	-10.7685
▁ভাসিতস্স	-10.7687
পো	-10.7689
▁উত্তমো	-10.7689
▁কাযানুপস্সী	-10.7689
▁চঙ্কম	-10.769
ুর	-10.7691
▁গহেতব্বা	-10.7694
▁উগ্গহ	-10.7695
▁চেতোৰিমুত্তিং	-10.7697
েয্যাম	-10.7698
ৰিপ্পযুত্তো	-10.7699
▁পজহতীতি	-10.7701
▁সমেন্তি	-10.7701
▁সেট্ঠং	-10.7702
▁যুদ্ধ	-10.7707
নিন্ন	-10.7707
▁১৩৯	-10.7707
▁পটিসংৰেদ	-10.7707
▁পতিট্ঠিতো	-10.7707
▁সমণং	-10.7711
সংকিলেসিকো	-10.7712
▁ৰেৰচনং	-10.7713
▁সিক্খিতব্বং	-10.7715
▁দেৰরাজা	-10.7715
▁পটিগ্গহ	-10.7715
রতা	-10.772
▁গরুক	-10.7721
▁মালা	-10.7722
▁অপাযং	-10.7726
▁সকৰাদিস্স	-10.7726
▁রসা	-10.7727
সঙ্ঘাট	-10.7731
াতিক্কম	-10.7731
▁পহার	-10.7734
▁অত্তনাৰ	-10.7734
▁সকদাগামী	-10.7739
ৰত্থুং	-10.7739
▁রূপাযতনঞ্চ	-10.774
▁মাযা	-10.7743
পুব্বে	-10.7745
দীসু	-10.7746
▁সত্তেসু	-10.7746
▁মহপ্ফল	-10.775
পাসাণ	-10.7754
▁গোপ	-10.7759
▁জিত	-10.776
▁মত্থকং	-10.776
▁নিরুজ্ঝিত্থাতি	-10.7761
েসো	-10.7761
▁যুত্তি	-10.7762
অদ্ধা	-10.7765
ৰত্তন	-10.7766
▁সিলা	-10.7767
▁নিরোধং	-10.7768
▁তেনুপসঙ্কমিংসু	-10.7768
ধম্মস্স	-10.7769
কথাযং	-10.7771
▁গচ্ছন্তস্স	-10.7776
▁যোগাৰচর	-10.7778
▁নিরত্থক	-10.778
মহন্ত	-10.7784
▁অপগত	-10.7785
পরিৰারো	-10.7785
▁সুপ্প	-10.7786
▁পভেদ	-10.7786
▁আসৰসম্পযুত্ত	-10.7791
▁ভিক্খং	-10.7791
▁অপরাপরং	-10.7795
ন্ত্য	-10.7795
স্মীতি	-10.7795
ৰিনোদন	-10.7796
▁আলপতি	-10.78
▁পঞ্চসত	-10.78
▁গুল়	-10.7801
এত্থ	-10.7803
▁রূপিয	-10.781
▁ভাসিত	-10.7813
▁পসন্নচিত্তো	-10.7813
▁অলাভ	-10.7819
অম্হাকং	-10.7819
ভেদা	-10.7824
▁ছট্ঠো	-10.7827
াদিম্হি	-10.7828
▁ৰীরিযিন্দ্রিযং	-10.7828
সম্ভৰ	-10.783
▁ভগিনী	-10.7831
▁উগ্গ	-10.7832
েতুন্তি	-10.7832
ট্ঠিক	-10.7833
খীণাসৰ	-10.7834
▁লোকিযা	-10.7841
▁কণ্টক	-10.7842
▁পসন্না	-10.7843
▁সঙ্ঘাদিসেস	-10.785
▁পনাহং	-10.7853
▁পুপ্ফানি	-10.7855
▁ফ	-10.7863
▁তিব্ব	-10.7864
▁অরূপাৰচর	-10.7865
▁অলোভ	-10.7867
নখ	-10.7868
▁সক্কস্স	-10.787
▁কামেসুমিচ্ছাচার	-10.7871
▁পরিব্বাজক	-10.7871
▁পাপকম্ম	-10.7872
তপ	-10.7873
▁রূপক্খন্ধ	-10.7881
▁পচ্চস্সোসুং	-10.7881
▁পসেনদি	-10.7882
পকতি	-10.7882
▁পেচ্চ	-10.7884
▁সজ্জ	-10.7885
▁ঘরাৰাস	-10.7886
▁পঠমেন	-10.7888
তাত	-10.7892
ৰিয	-10.7892
▁রূপাৰচরানং	-10.7896
▁ৰিহরতীতি	-10.7896
ৰ্হয	-10.7898
▁পাটিকঙ্খা	-10.7899
▁ছট্ঠী	-10.7906
াৰচর	-10.7907
▁মহানুভাৰ	-10.7907
▁সমুচ্ছেদ	-10.7908
▁ৰিচার	-10.7909
ৰাহন	-10.7909
নিযো	-10.791
▁ওকাসো	-10.7911
▁মন্তে	-10.7911
তণ্হ	-10.7912
▁পরা	-10.7912
▁কাযৰিঞ্ঞাণস্স	-10.7913
আহার	-10.7915
▁ধুরং	-10.7915
▁পচ্ছাভত্তং	-10.7915
▁পুনব্ভৰো	-10.7916
▁ৰিহরতী	-10.7918
যথাপি	-10.792
▁ইন্দ্রিযেসু	-10.7923
▁হা	-10.7926
▁অভৰিস্স	-10.7927
▁লোকুত্তরা	-10.7928
▁দেৰমনুস্সেসু	-10.7929
▁ভাজন	-10.793
▁অভিধম্মে	-10.793
▁ইস্স	-10.7932
▁ৰেগেন	-10.7933
▁মহব্বলো	-10.7935
▁পহোতি	-10.7935
▁গচ্ছতী	-10.7936
▁অস্সাদো	-10.7938
২০	-10.7938
ানুবন্ধ	-10.7939
▁আৰাসো	-10.7939
▁ঘান	-10.794
প্পযোগ	-10.7941
▁সায	-10.7941
▁আচরিযা	-10.7942
▁ঝানা	-10.7944
ৰিরোধ	-10.7945
রুচি	-10.7947
তীহি	-10.7947
লু	-10.7948
▁সংসয	-10.7949
▁অতিক্কন্ত	-10.795
▁অৰিসেসেন	-10.795
▁সঙ্খারো	-10.7952
▁ঘোর	-10.7953
▁আনন্দং	-10.7954
▁পূজা	-10.7954
▁করণে	-10.7955
পরিচ্ছেদো	-10.7958
ৰাদি	-10.7959
▁পৰিসতি	-10.7959
াকারো	-10.796
▁সঙ্ঘমজ্ঝে	-10.7962
▁যত্র	-10.7963
▁লোণ	-10.7963
কুসলত্তিকং	-10.7969
ধাতূতি	-10.7971
▁কথিনং	-10.7974
▁কামানং	-10.7977
▁দুর	-10.7978
▁খেপ	-10.7978
▁নিগ্গণ্হ	-10.7978
মন্তো	-10.798
ন্তেসু	-10.7983
▁বহুজন	-10.7988
মক্খিত	-10.799
কুমারো	-10.7994
▁অঘ	-10.7996
▁ধার	-10.7996
অপি	-10.7997
▁চতুৰীসতি	-10.7999
▁অনুপ্পন্না	-10.7999
▁পরিভুঞ্জতি	-10.8
▁পরিযাযো	-10.8004
▁ধারয	-10.8005
কত্ৰা	-10.8007
মজ্জ	-10.8011
▁পভাসতী	-10.8011
▁ৰিভঙ্গ	-10.8012
▁জাগর	-10.8018
জল	-10.8021
লক্খণেন	-10.8023
▁ধম্মস্সৰন	-10.8025
▁নিট্ঠা	-10.8026
▁চল	-10.8028
▁সমঞ্ঞা	-10.8029
▁নিযতো	-10.8031
▁ওতার	-10.8037
▁মাতাপিতূনং	-10.8039
▁বহুতরা	-10.804
▁পরিযাদায	-10.8041
▁সংসন্দন্তি	-10.8042
সত্থা	-10.8042
ৰচনস্স	-10.8046
▁মনিন্দ্রিযঞ্চ	-10.8049
▁লাভো	-10.805
িতস্স	-10.8052
▁চিতো	-10.8055
▁ৰিরুদ্ধ	-10.8058
মংসং	-10.8058
ৰিসেসং	-10.8058
▁ৰিসযে	-10.8063
ৰেস	-10.8063
▁মহী	-10.8069
▁পটিজান	-10.8069
▁যৰ	-10.807
▁ব্রাহ্মণানং	-10.8071
▁কোসল	-10.8074
▁অঞ্ঞিন্দ্রিযং	-10.8076
পটিপদং	-10.8076
▁যঞ্হি	-10.8078
ূপপত্তি	-10.8078
▁নপুরেজাতপচ্চযা	-10.8079
মতো	-10.8084
জাতিকা	-10.8092
▁সেখ	-10.8092
▁পরিপূরেতি	-10.8093
▁ভাতা	-10.8093
িস্সর	-10.8094
ৰসা	-10.8095
▁খণং	-10.8097
মাদি	-10.8097
▁নাযং	-10.8098
ঘোস	-10.8098
▁অহঞ্চ	-10.8099
▁অন্তং	-10.81
▁পরিসং	-10.8101
▁ছন্দরাগো	-10.8101
▁সন্তুট্ঠো	-10.8104
মাতা	-10.8104
েয্যাথ	-10.8105
অঞ্ঞাতাৰিন্দ্রিয	-10.8108
▁পরিকম্মং	-10.8108
▁মতি	-10.811
রোপ	-10.8115
▁অমিত্ত	-10.812
▁ওলম্ব	-10.8122
▁মূলে	-10.8126
▁কলাপ	-10.8127
েথা	-10.8128
▁কপ্পতি	-10.8129
▁ঞাণানি	-10.8132
▁ধম	-10.8132
▁সংসারে	-10.8132
নানা	-10.8133
▁রূপঞ্চ	-10.8135
▁আকাসানঞ্চাযতনং	-10.8135
▁বহুধা	-10.8136
▁১৫৬	-10.8136
▁নিসজ্জ	-10.8138
▁আপুচ্ছ	-10.8138
▁লীন	-10.8139
সুত	-10.8139
াযুক	-10.8142
িতাতি	-10.8144
পূজায	-10.8144
▁সম্পত্তিং	-10.8146
ন্তোতি	-10.8147
পলিবোধ	-10.8153
পাঠ	-10.8159
পরিসুদ্ধ	-10.8162
অত্তনো	-10.8162
▁ভুস	-10.8162
েভি	-10.8163
এতে	-10.8164
াৰরণ	-10.8165
জীৰিত	-10.8166
▁ৰস্সসত	-10.8166
▁উট্ঠহ	-10.8167
দহ	-10.8172
ত্তভাৰ	-10.8172
▁লুদ্দ	-10.8174
▁সিক্খিতব্ব	-10.8175
অতীত	-10.8177
▁সেক্খা	-10.8181
▁আহচ্চ	-10.8182
▁উত্তানত্থমেৰাতি	-10.8183
▁ভিক্খ	-10.8183
▁পাতুভৰন্তি	-10.8185
▁ৰিজ্জতী	-10.8185
▁অধিৰচন	-10.8191
▁ৰগ্গো	-10.8192
▁ৰিদ	-10.8192
ুট্ঠ	-10.8193
▁কম্মপথ	-10.8194
রহিত	-10.8194
▁বহুক	-10.8195
▁পরামস	-10.8197
▁পযোজনং	-10.82
▁যোজেতব্বো	-10.8201
▁পগ্গণ্হ	-10.8203
▁অচক্খুকান	-10.8207
ৰিমুত্তি	-10.8207
তিআদীহি	-10.8207
▁ৰাযম	-10.8207
উদ্ধচ্চকুক্কুচ্চ	-10.8211
▁ৰুচ্চমানো	-10.8212
সণ্ঠানং	-10.8214
▁ফাল	-10.822
▁সীঘ	-10.8221
ৰিঞ্ঞেয্য	-10.8225
াভিমুখ	-10.8227
▁অরহতি	-10.8228
▁আরোহ	-10.8231
ৰিজ্জ	-10.8233
উপোসথ	-10.8233
▁অব্ভুতং	-10.8238
দেৰো	-10.8238
▁ঘানিন্দ্রিযঞ্চ	-10.824
▁যাচন	-10.824
সাটক	-10.8241
▁নাপরং	-10.8241
পেয্যাল	-10.8241
লাভী	-10.8242
▁ইত্থত্তাযা	-10.8244
▁যথ	-10.8244
▁পযোজন	-10.8245
▁১৫০	-10.8246
▁পাতু	-10.8248
▁ইচ্ছন্তি	-10.8249
▁ৰিসুদ্ধি	-10.8249
▁১৪৮	-10.8253
ানিসংস	-10.8258
▁অৰিতথ	-10.8259
▁কিলেসো	-10.8259
▁অপেক্খ	-10.826
▁১৪১	-10.8261
সেৰ	-10.8265
▁নিক্খন্তো	-10.8268
▁থেরে	-10.8269
সংকিলেস	-10.827
খণ	-10.8273
▁অরূপানং	-10.8273
পদত্থ	-10.8277
▁অগ	-10.8277
▁সঙ্খারপচ্চযা	-10.8278
▁পরিহাযন্তি	-10.8279
নিযাম	-10.828
▁অজাতসত্তু	-10.8281
▁ৰেল়ুৰনে	-10.8281
▁নিদ্দোস	-10.8283
▁অজানন্তো	-10.8285
গৰ	-10.8288
▁নিক্খিত্ত	-10.8288
▁করণীযো	-10.829
▁যেৰ	-10.829
▁রুক্খা	-10.8292
সুত্তন্ত	-10.8293
ভাগিয	-10.8293
▁উজুং	-10.8296
▁রাজগহং	-10.8299
▁কপ্পেতি	-10.83
পাদিন্নুপাদানিয	-10.8302
▁রমণীয	-10.8302
▁অসঙ্খতা	-10.8303
▁ৰিতক্কৰিচারানং	-10.8306
▁নিযাম	-10.8307
▁চিত্তুপ্পাদ	-10.831
▁সংৰিজ্জমানা	-10.8311
▁সংসরন্তো	-10.8319
▁ঠিতিযা	-10.832
পোরিস	-10.8321
▁একজ্ঝং	-10.8322
দেসে	-10.8325
▁পকিণ্ণক	-10.8326
ট্ঠেনাতি	-10.8326
▁ট	-10.8328
▁অনুপ্পাদ	-10.8328
কুলা	-10.833
▁ভৰিস্সসি	-10.833
াভাৰা	-10.8334
▁ৰিস্সজ্জন	-10.8335
▁যাৰদেৰ	-10.8336
▁ভৰিস্সামি	-10.834
▁ধম্মাযতনঞ্চ	-10.834
িম	-10.834
▁নোচিত্ত	-10.834
মহং	-10.8344
দক্খিণ	-10.8344
▁করোহী	-10.8345
▁ৰিরাগা	-10.8347
▁আকাসো	-10.8347
াদিঅ	-10.835
▁আরভি	-10.8352
▁অসঙ্খ্যেয্য	-10.8357
▁অত্র	-10.836
▁ৰিভত্তা	-10.8363
▁পরিভুঞ্জিতুং	-10.8365
▁ৰিমুচ্চতি	-10.8366
▁পটিগ্গহিত	-10.8372
▁কঙ্খ	-10.8373
▁ৰূপসমা	-10.8373
▁ধোৰিত্ৰা	-10.8374
সত্তো	-10.8375
মঞ্চ	-10.8375
▁অদ্দসা	-10.8377
▁সামী	-10.8377
▁দুচ্চরিত	-10.8377
অসুক	-10.8381
▁মনুঞ্ঞ	-10.8382
াসনে	-10.8382
▁মহগ্ঘ	-10.8383
▁উপ্পজ্জমানা	-10.8384
▁লা	-10.8384
নিব্বত্ত	-10.8388
▁একৰীস	-10.8389
সমুদযা	-10.8389
▁দূত	-10.839
াদযোপি	-10.839
▁নঅহেতুক	-10.8393
নিচ্চ	-10.8393
ামসে	-10.8393
▁চতুৰোকার	-10.8394
▁অধিমত্ত	-10.8397
রট্ঠে	-10.8398
▁সমতিক্কম	-10.8398
▁পহীনং	-10.8399
▁অনন্তরং	-10.8403
ন্তেহি	-10.8403
▁কপ্পিযং	-10.8409
▁অমচ্চা	-10.8411
▁পাসাদিক	-10.8412
▁ধীর	-10.8412
▁উত্তরা	-10.8413
▁তজ্জ	-10.8414
▁সনিদস্সন	-10.8414
▁রজন	-10.8416
▁আরকা	-10.8417
ুদ্ধ	-10.842
▁অতীতারম্মণ	-10.8423
▁ডংস	-10.8425
▁সংসগ্গ	-10.8426
▁লক্খণানি	-10.8427
▁মুনিন্দ	-10.8428
িযন্তি	-10.8428
▁নেত্ৰা	-10.8433
▁১৪২	-10.8434
▁সন্ধ	-10.8437
াবাধ	-10.8438
▁ৰুত্তেপি	-10.8438
▁ৰিন্দতি	-10.8438
▁পদীপ	-10.8439
▁নিপত	-10.844
সিত	-10.844
▁অৰিগত	-10.8442
গ্গে	-10.8445
▁সম্মপ্পঞ্ঞায	-10.8445
▁নপ্পজানাতি	-10.8445
▁লোহিতক	-10.8445
▁বুদ্ধপূজাযি	-10.8447
সন্থত	-10.8449
▁কুপ্প	-10.8451
▁পেসেত্ৰা	-10.8453
যস্মা	-10.8453
▁দীঘং	-10.8454
ৰিরাগ	-10.8454
▁উপসম্পন্নো	-10.8454
ৰিৰেক	-10.8458
▁জানতো	-10.8461
▁সাধ	-10.8462
▁ছৰি	-10.8464
▁জেট্ঠক	-10.8465
▁অকাল	-10.8465
ত্তু	-10.8467
ীর	-10.8468
▁বন্ধনং	-10.847
প্পমাণো	-10.847
▁কোসজ্জ	-10.8472
▁সুদ্ধিং	-10.8475
ৰঙ্ক	-10.8475
▁থেরানং	-10.8476
▁সঙ্গহিত	-10.8476
তদ	-10.8477
▁রূপাদি	-10.8477
রোচ	-10.8478
▁রসং	-10.8478
াৰযৰ	-10.8481
▁সুৰ	-10.8482
▁তার	-10.8483
▁সুপ	-10.8483
▁নান	-10.8484
▁পাৰ	-10.8484
▁উপরূপরি	-10.8486
▁সম্পজানকারী	-10.8487
▁ৰিভত্ত	-10.8488
ৰিহারং	-10.8488
▁উপ্পজ্জিস্সন্তি	-10.8488
▁সদ্ধিৰিহারিক	-10.8491
▁কারেতি	-10.8491
▁আঘাত	-10.8492
▁দিন্নো	-10.8492
▁ৰদমানো	-10.8493
▁সমাসো	-10.8493
▁১৪৭	-10.8496
ৰচনে	-10.8498
পীঠ	-10.8499
▁আণা	-10.8501
▁ওর	-10.8507
ত্থম্ভ	-10.8508
দুক্কট	-10.8508
▁মোর	-10.8513
▁পহাতব্বস্স	-10.8517
ণিক	-10.8517
▁সমাপজ্জ	-10.8519
সমুট্ঠানা	-10.8519
▁কিলেসেহি	-10.8519
▁১৪৪	-10.852
▁১৪৩	-10.8521
নিকায	-10.8523
সচ্ছিকিরিযায	-10.8528
▁মাতলি	-10.8528
▁যোগিনা	-10.8529
▁পক্কোসাপেত্ৰা	-10.8529
▁দন্ধ	-10.853
বন্ধনং	-10.8531
পুরিসিন্দ্রিযঞ্চ	-10.8531
▁নিব্বানে	-10.8533
▁পুরিমবুদ্ধ	-10.8535
▁পটিলোম	-10.8537
▁সেনাপতি	-10.8537
▁অসেখ	-10.8542
▁চতুক্কং	-10.8544
▁ভিক্খূসু	-10.8545
▁ইমাহি	-10.8547
মায	-10.8547
দে	-10.8549
▁পরিসুদ্ধং	-10.8549
▁পাদা	-10.855
কপ্পো	-10.8553
▁ৰেরং	-10.8555
▁দসবল	-10.8557
▁কক্খল়	-10.8558
▁ৰিপস্স	-10.8558
▁দম্মী	-10.8559
কাতব্ব	-10.8561
পারাজিক	-10.8563
▁ৰুট্ঠিতো	-10.8564
▁পরিহানি	-10.8565
▁পুমে	-10.8565
▁সমগ্গা	-10.8567
▁অকুসলমূল	-10.8568
▁পরিহর	-10.857
বুদ্ধি	-10.857
িদ্ধি	-10.857
▁তেসঞ্চ	-10.8571
▁কাতু	-10.8571
▁অধিগতো	-10.8571
নীযো	-10.8571
▁দিসাসু	-10.8571
▁সুকত	-10.8572
▁ৰিস্সজ্জেত্ৰা	-10.8577
▁ৰিহারস্স	-10.8577
▁তেলং	-10.8578
▁মনোময	-10.8578
▁পুগ্গলিক	-10.8579
▁একত্থ	-10.858
প্পত্তং	-10.8581
অপরেহিপি	-10.8583
▁উপাসকা	-10.8585
সমীপে	-10.8587
▁অৰেচ্চপ্পসাদেন	-10.8589
জে	-10.8589
▁ৰের	-10.859
▁পকতত্ত	-10.859
▁খল	-10.8592
মন্দ	-10.8594
▁রিত্ত	-10.8594
কপ্পে	-10.8595
রুদ্ধ	-10.8596
▁অভিজান	-10.8599
তিট্ঠ	-10.86
ুপ্পত্তিযা	-10.86
▁মঞ্চপীঠ	-10.8602
▁সততং	-10.8604
▁পটিৰিজ্ঝ	-10.8604
▁উসভ	-10.8605
▁অৰহর	-10.8609
▁নদিং	-10.8609
লতা	-10.8609
▁ৰিভাৰ	-10.8612
পাচিত্তিয	-10.8612
▁যস্সা	-10.8613
▁চতুরাসীতি	-10.8615
▁নাৰং	-10.8621
চিণ্ণ	-10.8623
পুব্বা	-10.8624
▁উপট্ঠাক	-10.8625
▁অগ্গং	-10.8625
▁পঞ্চমী	-10.8626
সন্তুট্ঠ	-10.863
▁ধম্মদেসনায	-10.8633
▁তেজ	-10.8634
▁ৰেনেয্য	-10.8634
▁উদ্ধট	-10.8636
▁দসসু	-10.8636
▁ৰীথি	-10.8637
কাদি	-10.8637
▁ৰেৰচন	-10.8639
▁অদিন্নাদান	-10.864
▁পরিৰজ্জ	-10.8641
ত্থাযাতি	-10.8644
▁অহোসী	-10.8645
স্সামীতিন্দ্রিযং	-10.8647
ড	-10.8648
▁আসৰক্খয	-10.865
ৰিঞ্ঞত্তি	-10.8653
পরিসায	-10.8653
▁ভিয্যোভাৰায	-10.8655
▁আমসতি	-10.8655
ঞ্ঞাত	-10.8657
▁জাযতে	-10.8658
চিত্তেসু	-10.866
পুপ্ফং	-10.8662
▁ভৰতীতি	-10.8662
ক্খিত্ত	-10.8663
সহস্সং	-10.8664
▁ভিন্দতি	-10.8665
ব্রাহ্মণো	-10.8666
▁পদুমং	-10.8666
সমাস	-10.8669
▁পচ্চন্ত	-10.8669
▁দীপে	-10.867
▁সঙ্গীতি	-10.8673
িযাতি	-10.8673
▁সহস্সানি	-10.8676
সম্পদং	-10.8677
ৰাক্য	-10.8678
তিআদিকা	-10.8678
▁পংসুকূল	-10.8678
ূপগ	-10.8678
▁১৪৬	-10.8679
সংযুত্ত	-10.8679
▁পরিযেসতি	-10.8684
লোকুত্তর	-10.8684
▁ছেদন	-10.8686
ুদ	-10.8687
▁জহিত্ৰা	-10.869
▁ভুত্ৰা	-10.869
▁তিরো	-10.8692
▁পৰেস	-10.8694
▁অঞ্ঞতরেন	-10.8696
তব্বং	-10.8696
ঞ্জন	-10.8697
সহায	-10.8698
▁সমনুপস্সামি	-10.8699
▁গণ্হথা	-10.87
▁করণীয	-10.87
▁সুঞ্ঞ	-10.8701
▁অৰস্সং	-10.8702
▁একংস	-10.8703
▁বহুস্সুত	-10.8703
▁ধারযামী	-10.8704
▁কটত্তারূপানং	-10.8704
▁মি	-10.8704
▁ইচ্চেৰ	-10.8705
াযতনং	-10.8708
▁উপধি	-10.8709
▁সব্বকালং	-10.8709
িতায	-10.871
▁সন্নিসিন্না	-10.8713
ৰিনিমুত্ত	-10.8716
▁ৰিৰরিত্ৰা	-10.8718
▁মহামোগ্গল্লান	-10.8721
▁অৰিজ্জাপচ্চযা	-10.8728
ানুপস্সনা	-10.8729
▁আপজ্জতীতি	-10.8732
পরিগ্গহ	-10.8733
▁অধিমোক্খ	-10.8734
▁ৰিজ্জ	-10.8734
▁পতিট্ঠহি	-10.8734
▁সীলানি	-10.8735
▁অন্ন	-10.8735
▁কতাধিকারো	-10.8737
মনোৰিঞ্ঞাণধাতু	-10.8738
সোমনস্স	-10.874
▁গন্থা	-10.874
▁সারণীযং	-10.874
▁রূপী	-10.8741
▁জানাসি	-10.8741
পুঞ্জ	-10.8742
কম্মট্ঠানং	-10.8742
▁তথাগতে	-10.8743
▁লক্খ	-10.8743
▁লোল	-10.8746
▁ৰিপস্সতি	-10.8747
ঞ্ঞু	-10.8748
▁সিক্খায	-10.875
▁তাদিসে	-10.8751
▁মেতং	-10.8752
হেতূ	-10.8752
িত্থাতি	-10.8754
সঙ্গহিত	-10.8754
▁অদ্ধানং	-10.8757
▁অদোসো	-10.8757
ৰ্হো	-10.8757
▁উপযোগৰচনং	-10.8758
▁হিদং	-10.876
ানুপস্সী	-10.8762
▁অসুর	-10.8764
▁সমাপত্তিযো	-10.8765
▁গাৰ	-10.8768
▁ইধাতি	-10.8769
েস্সন্তি	-10.877
মানেন	-10.8771
▁উব্ব	-10.8771
▁সহত্থা	-10.8771
▁ৰিৰিত্ত	-10.8772
কিত্তন	-10.8773
১৩	-10.8774
▁তিহেতুক	-10.8774
তাদিসো	-10.8775
াদীনঞ্চ	-10.878
▁সম্মোদনীযং	-10.8782
▁নকম্মপচ্চযা	-10.8782
▁অৰসিট্ঠ	-10.8782
▁মগ্গপচ্চয	-10.8785
▁পেত্তিৰিসয	-10.8786
▁পটিক্খিপিত্ৰা	-10.8788
▁থোম	-10.8789
মগ্গেন	-10.8794
▁তুট্ঠ	-10.8794
ৰিসযো	-10.8795
ুক্ক	-10.8796
▁চক্কং	-10.8797
▁পুথূ	-10.8797
▁সক্কচ্চ	-10.8798
প্পচ্চয	-10.8799
▁অকার	-10.88
রজ্জু	-10.8801
▁পথৰিযা	-10.8806
▁ঞাতী	-10.8811
▁অলঙ্কত	-10.8811
▁ৰচ	-10.8811
▁অরহন্তানং	-10.8817
▁সুখসহগত	-10.8817
▁রৰ	-10.8819
▁নযন	-10.882
▁যোজেতব্বা	-10.8822
▁নাৰায	-10.8822
▁সাদিযতি	-10.8823
▁সহজাতো	-10.8823
▁গিলানস্স	-10.8825
ৰুট্ঠান	-10.8825
▁ছারত্তং	-10.8825
▁নাসক্খি	-10.8825
▁দহরো	-10.883
▁সুত্তস্স	-10.8831
▁১৬০	-10.8831
তানি	-10.8832
▁জিৰ্হায	-10.8833
▁১৪৯	-10.8834
নিয	-10.884
▁ভস্স	-10.8841
▁ৰিরূপ	-10.8843
মানসা	-10.8844
▁রাজপুত্ত	-10.8844
▁ব্রহ্মৰিহার	-10.8847
▁ওক্কম	-10.8848
▁সহেতুকং	-10.8849
ূপচার	-10.8852
▁যেনাযস্ম	-10.8855
▁মহপ্ফলং	-10.8858
▁আজীৰ	-10.8858
▁তদুভযং	-10.886
▁অনুপ্পন্নস্স	-10.8861
▁দোসা	-10.8861
▁নিধ	-10.8862
সঙ্খ্য	-10.8865
▁পারি	-10.8865
▁সচক্খুকান	-10.8865
▁এদিস	-10.8867
▁পক্খন্দ	-10.8868
▁দুতিযেন	-10.8868
ধান	-10.8869
▁আসুং	-10.8875
▁নিরন্তরং	-10.8876
▁সাসৰ	-10.888
▁করোতী	-10.8881
তার	-10.8883
রহিতং	-10.8884
▁অৰণ্ণ	-10.8885
▁ধারণ	-10.8889
সীমায	-10.8889
পধান	-10.889
▁মগ্গঞাণ	-10.8892
▁ৰিপস্সী	-10.8892
▁ভারো	-10.8893
পচ্চুপট্ঠানা	-10.8895
কোটিযো	-10.8897
পরিহার	-10.8898
▁ভৰিতুং	-10.89
▁দিয	-10.8901
▁মুনী	-10.8902
▁তঞ্চে	-10.8904
▁ওকাসে	-10.8905
▁ৰিচিকিচ্ছাসহগতে	-10.8906
▁নিহীন	-10.8908
▁জনস্স	-10.8909
▁বীজং	-10.891
সঞ্ঞাৰেদযিতনিরোধ	-10.8911
▁রাজকুমার	-10.8911
▁পৰারণায	-10.8913
▁নঅকুসল	-10.8915
সঙ্খাতায	-10.8915
ৰিভাৰন	-10.8915
▁পোসো	-10.8915
▁স্ৰাযং	-10.892
ধো	-10.8921
সিরি	-10.8922
▁পারমিযো	-10.8922
সত্তি	-10.8925
▁সত্তমী	-10.8928
▁অনিযতো	-10.8929
▁সোভন	-10.893
▁করে	-10.8931
▁পঞ্চধা	-10.8936
েসিং	-10.8936
পরিস	-10.8938
▁রতো	-10.8939
▁উপসম্পন্ন	-10.8939
▁অরিট্ঠ	-10.894
▁পিটক	-10.894
▁সমনন্তরপচ্চয	-10.8942
ৰিৰট্ট	-10.8949
সালা	-10.8949
▁মনুস্সো	-10.8951
▁পিট্ঠ	-10.8952
▁মানানুসযং	-10.8955
▁লোকনাযকং	-10.8955
রূল়্হ	-10.8958
▁সহেতুকা	-10.896
▁সল্লেখ	-10.896
্ৰ	-10.8963
▁পরলোক	-10.8964
▁চক্খুসম্ফস্স	-10.8965
▁গরুকং	-10.8966
জি	-10.8969
▁পুল্লিঙ্গ	-10.8972
▁ওক্কন্ত	-10.8978
যক্খ	-10.898
▁উত্তরিং	-10.898
▁উপেক্খাসহগতং	-10.898
ম্বু	-10.898
▁উপট্ঠিত	-10.8987
▁ব্রহ্মলোক	-10.8991
▁অরিযমগ্গো	-10.8993
নির	-10.8993
ৰাসো	-10.8995
▁যুজ্জ	-10.8997
▁রতনত্তয	-10.8997
▁ৰী	-10.9001
▁অজ্ঝত্তিক	-10.9002
▁উপসঙ্কমি	-10.9005
থূপ	-10.9006
▁ভাজ	-10.9008
▁পরিৰত্তেত্ৰা	-10.9008
▁১৪৫	-10.901
▁উট্ঠহিত্ৰা	-10.9012
সম্ফস্স	-10.9014
▁দিট্ঠিগতং	-10.9014
▁আদিসদ্দেন	-10.9015
▁উপসম্পদ	-10.9016
সমাপত্তিযা	-10.9018
▁সেক্খো	-10.902
▁কুক্কুচ্চ	-10.9021
▁সঙ্খারক্খন্ধ	-10.9024
▁পঞ্ঞং	-10.9025
কাযং	-10.9027
▁অপ্পণিহিত	-10.9027
▁ৰিদূ	-10.9029
▁আকাসেন	-10.903
দিসো	-10.903
▁থিনমিদ্ধ	-10.9031
▁পরত্থ	-10.9031
▁সন্থত	-10.9032
স্মিঞ্চ	-10.9032
লোভ	-10.9035
চিত্তে	-10.9037
▁খগ্গ	-10.9037
▁জাতক	-10.9039
▁সীলৰন্ত	-10.9041
▁তত্রাপি	-10.9041
▁ৰিঞ্ঞাণঞ্চাযতনং	-10.9041
▁মুট্ঠি	-10.9042
▁জীৰং	-10.9044
▁নুপ্পজ্জতীতি	-10.9045
▁রজত	-10.9046
এত্তক	-10.9048
▁অট্ট	-10.9048
▁গজ	-10.9048
▁চতুধা	-10.905
মাসে	-10.9052
ানংযেৰ	-10.9056
▁ভব্বো	-10.9056
▁মহাসমুদ্দে	-10.9056
▁গঙ্গায	-10.9057
জপ্প	-10.9059
▁১৫৭	-10.906
▁একোৰ	-10.906
ঘাতক	-10.906
▁চেতোৰিমুত্তি	-10.9066
▁১৫৩	-10.9067
▁অঞ্ঞম্পি	-10.907
▁উপজ্ঝাযো	-10.9072
সস্স	-10.9072
▁পুনদিৰসে	-10.9073
▁রথং	-10.9073
▁মিত্তো	-10.9075
▁ৰিস্সাস	-10.9077
▁সুপ্পতিট্ঠিত	-10.9079
বুজ্ঝ	-10.9083
▁সন্থৰ	-10.9083
ুত্তম	-10.9084
▁তিট্ঠেয্য	-10.9086
▁কালমকাসি	-10.9089
▁সুঞ্ঞং	-10.909
ৰিরহিত	-10.9091
▁সমাগমো	-10.9091
হদয	-10.9092
নিসিন্ন	-10.9093
▁সিদ্ধং	-10.9093
টো	-10.9094
▁পটিসংৰেদেতি	-10.9094
সমোধান	-10.9095
▁একচ্চস্স	-10.9095
্ৰা	-10.9096
▁অপ্পহায	-10.9096
ফরণ	-10.9096
▁পরিঞ্ঞ	-10.9102
চ্ছেদন	-10.9103
▁বহুল	-10.9104
▁অভিৰাদ	-10.9106
দেসনায	-10.9107
▁করুণায	-10.9108
ৰীসতি	-10.9109
ূপগা	-10.911
▁চোদনা	-10.911
লোহ	-10.9113
▁দূস	-10.9113
▁ভাৰয	-10.9114
▁ভুসং	-10.9114
ৰাপি	-10.9114
িতোতি	-10.9116
সপ্পায	-10.9118
প্পকাসন	-10.9118
▁অনুত্তর	-10.912
▁পল	-10.9121
▁সমাদিয	-10.9122
লিক	-10.9122
ৰিনযো	-10.9123
নামকো	-10.9124
▁গচ্ছতো	-10.9125
▁ভুজ	-10.9125
▁রুক্খস্স	-10.9126
▁মত্তিকা	-10.9126
▁কমেন	-10.9129
▁পুব্বণ্হসমযং	-10.9131
নামেন	-10.9133
▁মক্কট	-10.9134
▁তদুপ	-10.9135
▁দেথ	-10.9138
▁নেক	-10.914
সতেহি	-10.9141
▁কলহ	-10.9142
ল়া	-10.9142
▁ৰেমতিকা	-10.9145
▁১৫৯	-10.9145
▁সুপণ্ণ	-10.9147
▁সাসৰা	-10.9147
সংযোজনং	-10.9148
সদ্দে	-10.9148
লেপ	-10.9148
গ্গহিত	-10.9149
▁জীৰতি	-10.9153
পাদে	-10.9154
▁অত্থেন	-10.9154
ৰেগ	-10.9157
▁কেৰলঞ্চ	-10.9158
▁অসপ্পুরিস	-10.9161
▁কেনট্ঠেন	-10.9161
সুর	-10.9161
ভাগো	-10.9162
▁পরিসুদ্ধা	-10.9162
▁সরতি	-10.9167
চ্ছা	-10.9168
ুপচ্ছেদ	-10.9169
▁সীমং	-10.917
▁১৫৫	-10.917
▁দুগ্গন্ধ	-10.9175
▁ধম্মাভিসমযো	-10.9175
যোগতো	-10.9175
▁তীর	-10.9178
▁সোতাপন্ন	-10.9178
▁সম্মসন	-10.9183
▁যাৰকালিক	-10.9183
▁সম্পযুত্তপচ্চয	-10.9184
▁অরহত্তমগ্গেন	-10.9184
▁এৰরূপে	-10.9188
▁ৰিৰাদো	-10.919
▁পৰত্তিত	-10.9192
নীযা	-10.9193
▁ৰিঞ্ঞায	-10.9195
▁পততি	-10.9197
সোতং	-10.9198
গণো	-10.92
▁পৰত্তমান	-10.9201
ৰাচকো	-10.9202
▁কচ্চান	-10.9204
▁ৰিঞ্ঞাণপচ্চযা	-10.9208
▁পারিসুদ্ধি	-10.9209
▁কন্তা	-10.921
ভী	-10.9213
▁সুপিন	-10.9213
▁সঙ্খারেসু	-10.9213
▁তাদী	-10.9214
পরিল়াহ	-10.9215
▁করোন্তীতি	-10.9216
নযন	-10.9217
▁খীরং	-10.9219
▁সূ	-10.9219
▁যথাভতং	-10.922
▁১৫৪	-10.922
▁আরদ্ধৰীরিযো	-10.922
▁অগমংসু	-10.922
▁সুত্তেন	-10.922
▁আদিকম্মিকস্সাতি	-10.9221
কারি	-10.9221
ানুগত	-10.9221
▁সভাৰো	-10.9222
▁অচেলক	-10.9225
যতে	-10.9226
▁ৰিভঙ্গে	-10.9227
পটিপাটিযা	-10.9228
দীহি	-10.9229
▁পাকতিক	-10.923
▁পরিপুণ্ণং	-10.9234
▁সেদ	-10.9236
▁গচ্ছাম	-10.9239
▁যেপি	-10.9241
তযো	-10.9243
জনপদ	-10.9244
▁পস্সতী	-10.9244
▁অম্ম	-10.9245
▁চৰিত্ৰা	-10.9246
▁অমর	-10.9247
▁আণত্তি	-10.9248
▁কিস	-10.9248
কচ্চি	-10.925
▁উপগতো	-10.9251
▁চক্খুধাতু	-10.9258
▁নিপ্ফন্ন	-10.9258
▁নিব্বিদা	-10.9261
▁পরিনিব্বুতে	-10.9263
সমত্থ	-10.9268
▁তিতিক্খ	-10.9268
নিৰারণ	-10.927
▁সদ্ধম্মং	-10.9272
▁উম্মত্তকস্স	-10.9272
ভণ্ডং	-10.9274
েন্তা	-10.9275
▁নপ্প	-10.9277
যন্তা	-10.9278
সাম	-10.9278
▁১৫৮	-10.9278
পরিযোসানে	-10.9279
▁কুরু	-10.9279
▁পরিযন্ত	-10.928
ভুত্ত	-10.928
মযো	-10.9281
গণন	-10.9282
▁অনত্ত	-10.9283
▁১৫১	-10.9283
নীত	-10.9284
▁লু	-10.9284
কোটিযা	-10.9284
▁নৰুতি	-10.9287
বহুল	-10.9287
▁আরদ্ধ	-10.9287
▁উপ্পজ্জমান	-10.9287
অৰ	-10.9294
নামং	-10.9295
▁সত্থং	-10.9296
▁পরিযোসানং	-10.93
▁ৰিসাখ	-10.93
▁ৰিতক্কৰিচার	-10.9302
সুখায	-10.9303
▁সন্তেপি	-10.9303
▁ৰিনস্সতি	-10.9303
▁পগুণ	-10.9303
িন্দ্রিযা	-10.9304
▁১৬৫	-10.9304
▁পরিজানন্তি	-10.9304
▁কাল়ক	-10.9305
পদেহি	-10.9307
▁ইদ্ধিপাদ	-10.9308
মহত্ত	-10.9308
▁পটিক্কূল	-10.9308
▁দুস্সীলো	-10.9309
▁পরিযাপুণ	-10.9309
▁লীনত্থপ্পকাসনা	-10.9309
▁বহুস্সুতা	-10.9312
▁অরিযস্স	-10.9314
িযমানং	-10.9314
▁আযস্মন্তো	-10.9316
সন্তোসো	-10.9318
পাতুভাৰ	-10.9321
▁পেম	-10.9325
মোক্খ	-10.9325
চত্তালীস	-10.9325
াযা	-10.9326
লক	-10.9327
▁পঞ্চাল	-10.9327
▁সন্তাপ	-10.9329
▁সমাপজ্জতি	-10.9331
▁নগ্গ	-10.9331
▁সন্নি	-10.9331
▁ৰিচিত্ত	-10.9331
▁মহানুভাৰো	-10.9332
▁দন্ধাভিঞ্ঞং	-10.9333
গোচরো	-10.9335
▁সতিন্দ্রিযং	-10.9336
▁ব্যাকর	-10.9341
▁মঞ্ঞথ	-10.9343
▁পূজয	-10.9345
াধিট্ঠান	-10.9346
তস্মিং	-10.9347
▁অট্ঠমো	-10.9347
দদ	-10.9348
▁সুনখ	-10.9348
▁মাতুল	-10.9348
▁তুল্য	-10.935
ৰতো	-10.9351
▁পুরং	-10.9352
থো	-10.9353
▁লদ্ধো	-10.9354
▁আরম্মণপচ্চযো	-10.9356
▁লোকোতি	-10.9356
▁অপ্পং	-10.9356
▁নল়	-10.9356
▁মহাভূতানং	-10.9357
▁পৰত্তিযা	-10.9357
▁পরিনিব্বায	-10.9357
▁কুলপুত্তো	-10.9358
▁ইত্থিং	-10.936
চয	-10.936
▁উপ্পজ্জমানং	-10.9361
সমণো	-10.9361
েকৰচন	-10.9362
যিত্থ	-10.9364
▁সমাধিং	-10.9364
▁নৰৰিধ	-10.9365
ভেসজ্জপরিক্খার	-10.9366
সন্তাপ	-10.9367
▁অকা	-10.9368
তত্তা	-10.937
▁আপজ্জিত্ৰা	-10.937
▁ভঞ্জ	-10.9371
▁ৰাসং	-10.9372
গন্ধো	-10.9378
▁কোট্ঠাসে	-10.9379
▁নিয্যান	-10.9379
পরিয	-10.938
▁সরা	-10.938
▁পরিমাণ	-10.9381
ুল	-10.9381
▁যুৰ	-10.9382
পট্ঠান	-10.9382
▁সঙ্ঘাদিসেসা	-10.9383
▁পরিণাম	-10.9384
অনিচ্চ	-10.9385
সাগর	-10.9385
ারহো	-10.9385
▁আৰট্টনা	-10.9387
ব্বি	-10.939
নাল়ি	-10.9392
▁দিট্ঠিগত	-10.9393
▁তদনন্তরং	-10.9394
ৰত্থুক	-10.9394
▁তেভূমক	-10.9399
▁সুঞ্ঞো	-10.9401
▁ৰিসোধ	-10.9404
ূর	-10.9406
ানুসয	-10.9408
▁ঞাণৰিপ্পযুত্ত	-10.941
ত্থেরৰত্থু	-10.941
▁নাযকো	-10.9411
▁ঞাতো	-10.9415
▁পঞ্ঞত্ত	-10.9415
▁সঙ্খা	-10.9417
▁সচ্ছিকতা	-10.9417
▁ঠা	-10.9419
▁ভিক্খুনীতি	-10.9421
▁অপ্পৰত্তি	-10.9422
▁অসপ্পায	-10.9424
▁ৰেদিতব্বোতি	-10.9425
▁ঠিতত্তা	-10.9426
▁সিদ্ধ	-10.9427
▁অৰিতক্ক	-10.943
ূপম	-10.9432
▁ৰিনিপাত	-10.9433
▁সিঙ্গাল	-10.9434
▁বোধিযা	-10.9435
▁দুক্খো	-10.9439
▁ৰাদং	-10.9439
▁পটিনিস্সজ্জ	-10.9439
▁সেসেসু	-10.9439
▁ৰিমোক্খা	-10.9439
▁অপ্পমত্তক	-10.9441
▁পরিনিব্বুত	-10.9442
▁নিক্খিত্তো	-10.9444
▁ছব্বগ্গিযে	-10.9446
মাগম্ম	-10.945
▁সিক্খাপদে	-10.9452
▁এৰম	-10.9453
▁অম	-10.9455
▁অকুপ্প	-10.9456
জীৰিতিন্দ্রিযঞ্চ	-10.946
▁কথেন্তি	-10.9461
▁আদর	-10.9463
▁পণ্ডক	-10.9464
মুনি	-10.9464
▁পূৰ	-10.9465
সন্নিপাত	-10.9472
▁ৰসন	-10.9473
▁খেমং	-10.9474
উপাদানৰিপ্পযুত্ত	-10.9474
▁ৰসনট্ঠানং	-10.9475
▁ভক্খ	-10.9477
▁লোকিযং	-10.948
▁ভিক্খুসঙ্ঘেন	-10.9482
▁ঞাণন্তি	-10.9484
প্পহার	-10.9485
িকস্স	-10.9486
সভাৰত্তা	-10.9487
কদা	-10.9489
▁ণ্ৰু	-10.9492
▁দসবলস্স	-10.9492
▁নক্খমতি	-10.9493
▁বুদ্ধপ্পমুখ	-10.9493
ৰিধানং	-10.9493
▁অন্তোগধ	-10.9494
ৰিধিং	-10.9495
▁দুক্খপটিপদং	-10.9495
ভূতায	-10.9495
▁সীদ	-10.9496
▁পুচ্ছন্তি	-10.9496
▁সিক্খং	-10.9497
▁রূপাৰচরা	-10.9497
মিমং	-10.9498
▁আকঙ্খ	-10.9499
হংস	-10.9501
▁কাযৰিঞ্ঞাণং	-10.9503
সন্তানে	-10.9504
ত্থেরঅপদানং	-10.9508
▁পাতিমোক্খুদ্দেস	-10.9508
▁পরিকপ্প	-10.951
মুদ	-10.9511
পটিগ্গহণ	-10.9512
▁পঞ্চঙ্গিক	-10.9514
▁চোদিতো	-10.9518
▁হিস্স	-10.9518
গিরি	-10.952
▁পরিৰুতো	-10.952
▁আগতে	-10.9521
▁দস্সিত	-10.9521
▁পটিপজ্জতি	-10.9522
▁ইদন্তি	-10.9523
▁অঙ্গার	-10.9525
▁পরামাস	-10.9527
▁সাৰত্থিং	-10.9527
▁পটিপজ্জিতব্ব	-10.9528
▁অজ্ঝোহারে	-10.9529
▁অত্থৰণ্ণনা	-10.9532
মুখে	-10.9533
▁অচিত্তক	-10.9534
▁জঙ্ঘ	-10.9534
ুস	-10.9537
▁মাণৰক	-10.9538
▁জায	-10.9539
অঙ্গ	-10.9539
াধিকরণ	-10.954
এ	-10.954
▁অনিদস্সনসপ্পটিঘ	-10.954
▁পটিলাভ	-10.9541
▁অভাৰো	-10.9541
▁সন্নিপতিত্ৰা	-10.9542
▁সুভাৰিত	-10.9543
▁সুধা	-10.9544
▁ৰিধুর	-10.9544
গণা	-10.9545
▁লভেথ	-10.9549
▁ভগিনি	-10.955
সঞ্ছন্ন	-10.955
▁মেথুনধম্ম	-10.9551
▁জনক	-10.9553
▁উক্কংস	-10.9555
▁ৰধিত্ৰা	-10.9556
আরম্মণ	-10.9557
▁পটিকূল	-10.9558
▁পরিচর	-10.956
রস্স	-10.956
▁উক্খিত্ত	-10.956
▁ৰল্লি	-10.956
পরাধ	-10.9562
▁পোরাণা	-10.9564
▁মণ্ড	-10.9564
▁ৰিতক্কস্স	-10.9565
▁মানুস	-10.9566
কারন্ত	-10.9568
েত্ৰাতি	-10.957
সত্তানং	-10.957
▁লব্ভা	-10.957
▁পচ্চযং	-10.9572
▁নিযোজ	-10.9574
ভাৰোতি	-10.9578
▁উদ্ধচ্চসহগতে	-10.9578
রক্খিত	-10.9579
ৰিভাগো	-10.9583
▁তোস	-10.9585
▁পুরত্থিম	-10.9585
▁অধিকার	-10.9585
▁১৬১	-10.9586
চ্ছিন্দ	-10.9587
ৰিধা	-10.959
তাল	-10.9591
▁পৰত্তেতি	-10.9595
▁পিট্ঠিতো	-10.9595
▁খিপ্প	-10.9597
▁নাথো	-10.96
▁দুখ	-10.9601
▁পারগূ	-10.9602
▁মুণ্ড	-10.9602
▁আরঞ্ঞিক	-10.9603
ফ	-10.9604
▁একচ্চং	-10.9604
▁নিবদ্ধ	-10.9606
▁পীতিসুখং	-10.9609
▁লহুক	-10.9612
▁লভি	-10.9612
▁ভৰন্ত	-10.9612
ন্	-10.9613
▁ওল়ারিকং	-10.9615
দীপক	-10.9617
▁ব্রাহ্মণে	-10.9617
▁মেত্তচিত্ত	-10.9618
▁পঞ্হাৰারো	-10.9619
▁ৰুট্ঠহ	-10.9619
▁ৰজির	-10.9619
▁তিণ্ণ	-10.9621
ৰীস	-10.9623
সম্প	-10.9626
তব্বা	-10.9627
▁মিত্তা	-10.9628
▁দি	-10.9628
▁কাযগতাসতি	-10.9631
▁সরণো	-10.9631
▁থাৰর	-10.9631
মাপজ্জ	-10.9635
▁মুদিতা	-10.9635
নুগ্গহ	-10.9636
▁অয্য	-10.9636
▁অনুগ্গহ	-10.9636
▁পূজেসি	-10.9637
ৰগ্গস্স	-10.9638
▁পমজ্জ	-10.9638
▁জাতিযো	-10.9638
▁যোনং	-10.9638
▁সামিস	-10.9643
কতমঞ্চ	-10.9645
সংসগ্গ	-10.9646
▁গতোতি	-10.9648
▁অপ্	-10.9649
▁সত্তস্স	-10.9649
▁সঙ্কপ্প	-10.9649
▁অনুস্সরতি	-10.965
▁পরিব্বাজকা	-10.9651
▁উপেক্খ	-10.9656
▁গল	-10.9657
▁আপজ্জি	-10.9659
সম্পদায	-10.9662
▁পটিক্খিপ	-10.9664
▁নিসিন্নে	-10.9664
মেস	-10.9665
পুট	-10.9666
োকাস	-10.967
▁ধুত	-10.967
▁সম্মন্তি	-10.9672
▁অধিগমায	-10.9673
▁১৬৭	-10.9673
▁সত্তৰিধ	-10.9674
▁ইধাধিপ্পেত	-10.9677
▁অনুচ্ছৰিক	-10.9678
▁যুজ্ঝ	-10.9679
হত্থা	-10.968
▁ৰিঞ্ঞুতং	-10.9681
▁নিকন্তি	-10.9681
▁অসঙ্খতং	-10.9685
▁পোক্খর	-10.9685
▁অপ্পহীনা	-10.9689
চ্চাদিনা	-10.9691
▁দিজ	-10.9692
▁সম্পজান	-10.9693
▁রুক্খে	-10.9693
মেঘ	-10.9696
▁সংযোজনং	-10.9697
ৰীর	-10.9697
পিটক	-10.9697
▁দুগ্গত	-10.9699
▁নিগম	-10.9701
▁ৰেপুল্লায	-10.9701
অৰিজ্জা	-10.9703
দিৰসতো	-10.9705
▁অনৰ	-10.9706
▁কামগুণা	-10.9706
▁অযন্তি	-10.9706
▁মচ্ছরিয	-10.9711
▁অনাগামিমগ্গ	-10.9713
▁পঞ্ঞত্তা	-10.9716
▁অনুঞ্ঞাতা	-10.9718
▁সঙ্খেপ	-10.9722
▁পাচীন	-10.9724
▁চরমানো	-10.9724
নযং	-10.9725
▁ৰচনীযো	-10.9726
পটিসংযুত্ত	-10.9726
াধিপ্পাযো	-10.9728
▁পদভাজনে	-10.9728
পটিপন্ন	-10.9729
মক্খ	-10.9729
কালেপি	-10.9729
▁সতিং	-10.9731
▁খীণাসৰা	-10.9731
▁ৰেদনাপচ্চযা	-10.9734
পত	-10.9735
ত্থোতি	-10.9736
দস্সনৰসেন	-10.9736
কপ্পিয	-10.9737
▁উপেক্খকো	-10.9737
▁লাভং	-10.9739
যন্তীতি	-10.9742
ৰিহারো	-10.9742
চ্ছি	-10.9744
▁রুক্খমূলে	-10.9745
▁দুক্খসমুদযো	-10.9745
পীত	-10.9747
▁কঙ্খতি	-10.9747
▁ঘট্ট	-10.9748
▁কূটাগার	-10.9751
▁অনুপ্পন্ন	-10.9752
▁পভস্সর	-10.9753
▁দিট্ঠিযো	-10.9753
যোজনা	-10.9754
▁পচ্চত্ত	-10.9758
সুঞ্ঞ	-10.9762
নামো	-10.9763
সমঙ্গিনো	-10.9763
▁পকত	-10.9764
▁মনসো	-10.9764
▁ভোজনীযং	-10.9766
▁সপ্পুরিসো	-10.9767
▁নিযতা	-10.9769
▁পামোজ্জং	-10.9769
ৰীতিক্কম	-10.977
▁রোচ	-10.9771
▁মহাথের	-10.9771
▁ৰিভাৰনিযং	-10.9772
▁চক্খুন্দ্রিয	-10.9774
▁ৰিরজং	-10.9776
াদীন	-10.9777
▁অভিঞ্ঞেয্যা	-10.9779
ননু	-10.978
দাম	-10.9781
▁ৰন্দন	-10.9781
▁পল্লঙ্কং	-10.9782
সিতা	-10.9783
পল্লঙ্ক	-10.9786
▁দায	-10.9787
▁দেসেত্ৰা	-10.9788
নমেৰ	-10.9788
▁অঞ্ঞাত	-10.9789
▁১৫২	-10.9789
স্ম	-10.979
▁ৰত্থুনা	-10.979
াপনং	-10.9793
▁অরিযসচ্চানি	-10.9796
▁ৰিনি	-10.9797
▁অকিরিয	-10.9797
পরিযাযেন	-10.9798
▁পহাতব্বহেতুকা	-10.9798
▁সমাহিতো	-10.9801
▁নিৰেস	-10.9801
▁ৰিদিতা	-10.9803
গীত	-10.9804
▁পৰত্তন	-10.9804
▁যোধ	-10.9807
▁গতিযং	-10.9807
ৰু	-10.9808
পজ্জোত	-10.9808
▁নসহেতুক	-10.9811
▁ভৰরাগানুসযং	-10.9817
▁অঞ্ঞতরা	-10.9818
▁ইচ্চ	-10.9819
▁ব্যাকরেয্য	-10.9819
▁জটিল	-10.9821
▁ইদঞ্হি	-10.9821
▁পরিগ্গহিত	-10.9821
▁ভাৰনাপারিপূরি	-10.9822
মুট্ঠ	-10.9822
▁পরিচ্ছিন্দিত্ৰা	-10.9823
▁১৭৬	-10.9823
িনিযা	-10.9823
▁সুতৰা	-10.9824
▁তিকিচ্ছ	-10.9825
সঞ্ঞিতা	-10.9826
▁অভূত	-10.9828
▁গন্ত্ৰান	-10.9828
▁অনুস্সাৰন	-10.9829
▁দুস্সীল	-10.9829
▁অচ্ছরিয	-10.9832
▁আৰুধ	-10.9833
▁নিসীদন	-10.9835
▁রূপধাতু	-10.9835
▁কলি	-10.9837
▁দুক্করং	-10.984
▁নপুংসকে	-10.9843
ৰাদং	-10.9844
▁১৬২	-10.9845
▁ৰিপাকস্স	-10.9846
▁দুম	-10.9847
▁রূপেন	-10.9848
ৰিপ্পযুত্তপচ্চযা	-10.9848
▁গচ্ছন্তীতি	-10.9849
▁ছল়ভিঞ্ঞা	-10.9849
▁উট্ঠান	-10.985
▁পরিঞ্ঞাত	-10.985
মূলকা	-10.9851
▁সোধ	-10.9854
▁সম্মুখাৰিনযেন	-10.9855
▁পাপকানং	-10.9855
▁বহল	-10.9856
▁পৰারিত	-10.9859
মুট্ঠি	-10.9861
▁তুচ্ছ	-10.9861
▁ৰীতিৰত্ত	-10.9862
সলাক	-10.9862
ঘন	-10.9864
থম্ভ	-10.9865
▁পচ্চেক	-10.9866
▁খার	-10.9866
▁লোকৰিদূ	-10.987
চিত্তুপ্পাদ	-10.987
▁ধম্মানুপস্সী	-10.9872
▁পাতুভাৰো	-10.9873
▁যস্সাতি	-10.9875
সমঙ্গি	-10.9876
কম্মেন	-10.9877
▁লতা	-10.9878
ত্থেরেন	-10.988
রহিতো	-10.988
▁গীত	-10.9882
▁ছিদ্দ	-10.9882
স্মিম্পি	-10.9885
▁পীঠ	-10.9886
পুরেজাত	-10.9888
▁ৰিন্দ	-10.9889
▁ৰিরজ্জ	-10.9891
াভিনিৰেস	-10.9892
▁অদুক্খমসুখা	-10.9894
▁ইত্থিযং	-10.9894
▁নিদ্দিট্ঠা	-10.9895
▁সদ্ধিন্দ্রিয	-10.9896
▁ধী	-10.9901
▁কিচ্ছ	-10.9904
▁গজ্জ	-10.9905
▁ইদমস্স	-10.9906
▁অদ্ধান	-10.9909
োভাস	-10.9909
▁পিৰিত্ৰা	-10.9909
▁১৬৯	-10.9911
▁অচ্ছরিযং	-10.9912
▁লোম	-10.9912
েস্ৰ	-10.9912
▁পাতোৰ	-10.9912
▁১৭৪	-10.9912
▁সোমনস্সেন	-10.9913
▁১৭৯	-10.9914
▁মমায	-10.9914
ুপেক্খা	-10.9914
▁ৰীতিসারেত্ৰা	-10.9914
▁কেসঞ্চি	-10.9914
▁নিক্খম্ম	-10.9915
▁অঞ্ঞমঞ্ঞপচ্চয	-10.9915
▁খুর	-10.9915
▁১৭০	-10.9916
▁তাস	-10.9918
▁কামাৰচরানং	-10.9918
সুত্তৰণ্ণনায	-10.9918
▁ৰপ	-10.9919
▁তম্ব	-10.9921
ত্থেরস্সাপদান	-10.9921
দিব্ব	-10.9922
▁ৰত্থানি	-10.9924
সঞ্চেতন	-10.9925
ত্থরণ	-10.9926
▁সুৰিঞ্ঞেয্য	-10.9929
▁ৰিসযো	-10.9929
পদট্ঠান	-10.993
াগম	-10.9932
▁পত্তচীৰরং	-10.9932
পঞ্ঞত্ত	-10.9933
▁পরিচার	-10.9933
▁হত্থেহি	-10.9934
▁ৰদেতি	-10.9936
ণ্ণৰ	-10.9937
▁সোতাপত্তিফলং	-10.9938
▁সতানি	-10.9938
দুব্বল	-10.9938
টক	-10.994
মত্তক	-10.994
▁পট্ঠান	-10.9941
▁পমাদো	-10.9943
▁নিব্বত্ততি	-10.9943
গুণে	-10.9945
▁পন্থ	-10.9945
ৰিচিত্ত	-10.9947
▁পঞ্চক্খন্ধা	-10.9949
▁ফুসে	-10.9949
১৮	-10.9949
▁সযম্পি	-10.995
▁ভাগ	-10.995
▁বদ্ধো	-10.995
াযস্মা	-10.995
মত্থি	-10.9951
মুত্তম	-10.9953
দন্তো	-10.9955
সদ্ধম্ম	-10.9957
▁পাতো	-10.9958
▁সুখুমং	-10.996
াচযগামিনাপচযগামি	-10.9962
ৰিচার	-10.9963
▁তুল	-10.9965
▁কামচ্ছন্দো	-10.9966
▁চোদেতি	-10.9967
▁কণ্ড	-10.9968
▁ইত্থিন্দ্রিযঞ্চ	-10.9968
ল়্হ	-10.997
▁নপুংসক	-10.997
▁পটিপাদ	-10.9971
▁উস্সন্ন	-10.9973
▁ৰিধি	-10.9974
▁সুভদ্দ	-10.9975
▁যথারুচি	-10.9977
▁পরিৰত্তন	-10.9978
তীর	-10.9978
▁বোধিসত্তং	-10.9979
সুন্দর	-10.9981
▁তজ্জা	-10.9982
▁পচ্ছিমা	-10.9982
▁ধম্মকথিক	-10.9982
সিনেহ	-10.9983
▁নিব্বত্তেত্ৰা	-10.9983
▁নট্ঠ	-10.9985
▁পত্থনং	-10.9986
▁ৰীতরাগ	-10.9987
▁নাঞ্ঞ	-10.9988
▁বিল	-10.9989
▁ভৰন্তং	-10.9989
তেয্য	-10.9989
▁অনিচ্চতা	-10.999
▁গন্তব্বো	-10.999
▁নন্দি	-10.9992
▁পুরিসে	-10.9996
▁পঞ্ঞত্তে	-10.9997
▁অভিনি	-10.9998
▁গন্ধা	-10.9999
▁সীলস্স	-11
▁পতিট্ঠিতং	-11
▁অসক্কুণেয্য	-11.0001
ূহি	-11.0002
▁সমন্নাগতোতি	-11.0005
নকালে	-11.0007
▁ফরণ	-11.0008
▁গহট্ঠ	-11.0009
▁তদেকট্ঠ	-11.0011
▁মনোৰিঞ্ঞাণং	-11.0011
▁ভীতো	-11.0013
▁ঠপেতুং	-11.0013
গহিত	-11.0015
রাধ	-11.0016
▁উপেক্খাসহগতা	-11.0016
▁অস্মা	-11.0017
▁ব্যত্ত	-11.0017
িমানি	-11.0019
▁উপলব্ভতীতি	-11.002
▁কামাৰচরকুসল	-11.002
▁যোপি	-11.0021
ব্বং	-11.0022
▁অগ্গসাৰকা	-11.0022
▁মহাপুরিসো	-11.0022
▁ধম্মসেনাপতি	-11.0025
▁উদ্দিসিত্ৰা	-11.0025
▁বুদ্ধেন	-11.0027
সংসট্ঠ	-11.0031
▁ইরিয	-11.0031
▁ইচ্চেৰং	-11.0031
দাযকত্থেরঅপদান	-11.0033
ভুঞ্জ	-11.0033
▁আধার	-11.0036
▁সুঞ্ঞতো	-11.0038
▁পঞ্চৰীসতি	-11.0039
▁মাল	-11.004
▁কারে	-11.0043
ৰির	-11.0043
ৰাসং	-11.0043
াৰুধ	-11.0044
▁পরিচ্চত্ত	-11.0045
গ্ঘনক	-11.0047
▁পিদহ	-11.0048
▁আরম্মণেসু	-11.0049
▁পপত	-11.005
▁ধা	-11.0053
▁ফলক	-11.0054
▁সাত	-11.0054
▁নিরোধধম্ম	-11.0054
▁উয্যানং	-11.0055
চারিক	-11.0056
▁সৰ	-11.0059
▁সযম্ভূ	-11.0059
ক্খিপ	-11.006
▁অব্যাকতঞ্চ	-11.0061
▁নিধি	-11.0061
▁অনিদস্সন	-11.0064
▁পচ্চৰেক্খিত্ৰা	-11.0064
▁রজ্জু	-11.0065
▁বুজ্ঝন্তীতি	-11.0065
▁যথাভূত	-11.0065
▁সেনং	-11.0065
▁একোপি	-11.0065
▁সমন্নাগতত্তা	-11.0066
▁উগ্গহেত্ৰা	-11.0067
▁দ্ৰারেসু	-11.0067
▁অননু	-11.0068
জ্জা	-11.0069
যানি	-11.0069
ৰিভঙ্গো	-11.0071
▁পটিপত্তিযা	-11.0071
ৰচ	-11.0071
▁ঠপিতো	-11.0072
▁সুভাসিত	-11.0072
▁নিন্দ	-11.0073
▁১৬৪	-11.0074
▁ৰিক্ক	-11.0075
পুব্বক	-11.0079
▁গম্ভীরো	-11.0079
▁চিত্তৰিপ্পযুত্ত	-11.008
▁আরম্মণতো	-11.0081
▁চরেয্য	-11.0081
▁পতিট্ঠহ	-11.0084
অকুসল	-11.0087
▁করোন্তী	-11.0087
ভাণৰার	-11.0087
▁একংসেন	-11.0087
▁অসং	-11.009
কেস	-11.0091
▁মণ্ডল	-11.0093
প্পৰত্তিযা	-11.0093
মধু	-11.0096
▁সন্তান	-11.0097
ৰত্থা	-11.0098
▁কাসি	-11.0098
▁কম্মনি	-11.0098
▁যাপন	-11.0099
ৰুদ্ধি	-11.0099
সন্ন	-11.0099
▁দুক্খসচ্চ	-11.0102
সংসার	-11.0102
▁নিদ্দিসিতব্ব	-11.0103
▁ৰিরাগো	-11.0105
▁অপস্স	-11.0106
সদ্দানং	-11.0106
সম্মাদিট্ঠি	-11.0108
▁গহপতযো	-11.0108
▁যোনিসোমনসিকার	-11.0109
▁পস্সি	-11.0109
▁সতিসম্পজঞ্ঞ	-11.011
কস্সপ	-11.0113
মিত্তো	-11.0113
গমনে	-11.0114
গণ্হ	-11.0114
সঙ্ঘাদিসেস	-11.0116
▁পযোগো	-11.0117
তুর	-11.0119
▁একেকস্মিং	-11.0121
▁পটিঘানুসযং	-11.0123
▁পক্খী	-11.0124
ীধ	-11.0125
▁সুত্তন্তোতি	-11.0125
▁১৬৬	-11.0126
▁ৰিহেঠ	-11.0128
▁ৰেদনাক্খন্ধ	-11.0131
▁যংনূনাহ	-11.0131
▁কলল	-11.0133
▁পজানাতী	-11.0135
▁খুদ্দ	-11.0138
দিট্ঠী	-11.0141
▁উয্যান	-11.0143
▁অকুসলেহি	-11.0143
▁১৭৩	-11.0144
▁জাতে	-11.0145
িস্সন্তীতি	-11.0146
ন্তরায	-11.0146
▁পধানং	-11.0146
▁ৰগ্গা	-11.0148
মকংসু	-11.0148
ৰিদূ	-11.0148
▁ৰেল়ুরিয	-11.0149
▁সিরী	-11.0149
▁ব্রহ্মে	-11.015
▁দিব্বং	-11.0151
▁উচ্চার	-11.0153
ৰিরহিতো	-11.0154
▁কামৰিতক্ক	-11.0155
ৰিপ্ফার	-11.0156
▁অম্বট্ঠ	-11.0156
▁কতম	-11.0157
▁ঘানাযতনঞ্চ	-11.0157
▁জন্তাঘর	-11.0157
পণীত	-11.0157
▁এত্থেৰ	-11.0157
জৰ	-11.0158
▁সাতং	-11.0158
▁চিত্তন্তি	-11.0158
▁আতুর	-11.016
▁কালঙ্কতো	-11.0166
েৰাতি	-11.0169
▁অনুপাদায	-11.0171
▁ফুট্ঠো	-11.0172
করণতো	-11.0173
▁আগতত্তা	-11.0173
নিযা	-11.0176
▁দুতিযস্স	-11.0176
▁পারিপূরিযা	-11.018
াদীনম	-11.0181
▁অদিট্ঠ	-11.0182
▁সঙ্ঘভেদ	-11.0184
▁পোত্থক	-11.0185
▁পোরাণক	-11.0186
▁১৭৫	-11.0187
▁আপত্তীতি	-11.0189
▁১৭২	-11.019
িস্সসী	-11.0192
ৰিসুদ্ধি	-11.0193
নোতি	-11.0193
▁মনোদ্ৰারে	-11.0193
বাহু	-11.0195
▁সকায	-11.0197
পঞ্চকং	-11.02
▁যাচিত্ৰা	-11.02
▁আযূহন	-11.02
▁সক্কারং	-11.0203
▁উপ্পজ্জ	-11.0204
▁অরণং	-11.0205
অপ	-11.0206
▁সোকপরিদেৰদুক্খ	-11.0207
▁দানে	-11.0208
▁অসিত	-11.021
▁গন্থো	-11.021
▁ফুসতি	-11.0212
▁অট্ঠন্নং	-11.0214
ধম্মেন	-11.0214
▁অধিট্ঠানং	-11.0215
▁পটিসঞ্চিক্খতি	-11.0215
কিত্তি	-11.0215
পক	-11.0217
▁তব্ব	-11.0219
ৰোহারো	-11.0222
ৰিমানং	-11.0223
ুপগ	-11.0227
▁ইট্ঠা	-11.0227
মোচন	-11.0228
▁সম্পহংস	-11.0229
▁ত্ৰম্পি	-11.0229
সংসন্দন	-11.023
▁পরামসতি	-11.023
করণৰসেন	-11.023
▁পাপিকা	-11.023
▁অঞ্ঞমঞ্ঞস্স	-11.023
▁সক্কার	-11.0235
▁ওসধ	-11.0236
একনৰুতি	-11.0236
▁১৭৮	-11.0236
পল	-11.0236
িস্সথ	-11.0237
▁কিলেসকাম	-11.0238
সতে	-11.0238
▁অঞ্ঞাসি	-11.0239
▁আযত	-11.0239
▁অভিণ্হং	-11.0239
চারো	-11.0243
▁নিক্খমন্ত	-11.0244
▁আচযগামি	-11.0246
▁সীম	-11.0251
▁তচ্ছ	-11.0252
▁হেতুনা	-11.0253
▁হনতি	-11.0254
▁সাৰত্থি	-11.0255
▁একূনৰীসতি	-11.0257
▁কুসলমূল	-11.0257
যাচ	-11.0258
▁তুট্ঠো	-11.026
লস	-11.0261
▁পূজিতো	-11.0264
▁সুচরিতং	-11.0264
প্পকরণ	-11.0264
পানং	-11.0265
▁ফস্সং	-11.0266
▁অস্সোসি	-11.0267
পরিযোসানং	-11.0268
▁নিসেধ	-11.027
▁উদ্দিট্ঠ	-11.0271
▁ৰিরাগায	-11.0273
▁আসীৰিস	-11.0274
▁ওট্ঠ	-11.0276
▁ৰোদান	-11.0277
▁ৰট্টন্তি	-11.0277
▁উক্ক	-11.028
▁নিব্বিন্দ	-11.0281
হেতুকং	-11.0282
সদিসে	-11.0283
▁অঙ্গুলি	-11.0283
পরাযণ	-11.0284
হচ্চ	-11.0285
▁পট্ঠপ	-11.0285
▁ৰিজিত	-11.0286
▁১৬৮	-11.0286
কণ্ডং	-11.0286
সমুট্ঠিত	-11.0286
অপর	-11.0287
▁তী	-11.0288
▁মুসাৰাদা	-11.029
▁পোক্খরণী	-11.0292
▁সকলসরীর	-11.0292
▁দেৰতায	-11.0292
ভাৰায	-11.0293
▁গণ্হিত্ৰা	-11.0295
▁পঠমমগ্গ	-11.0295
কূল	-11.0299
বীজং	-11.0301
▁পাণা	-11.0301
▁সম্পযোগ	-11.0303
▁দেৰদত্ত	-11.0305
ন্তরা	-11.0305
ভূতানং	-11.0305
লে	-11.0306
▁ন্হায	-11.0306
ূনং	-11.0306
▁সোভতি	-11.0308
▁মরিযাদ	-11.0308
▁খন্ধেসু	-11.0309
ীকত	-11.031
▁সোতধাতুযা	-11.0311
খেত্ত	-11.0314
▁সরাগ	-11.0316
▁সেৰিতব্বো	-11.0316
▁সব্বাকারেন	-11.0317
▁অরূপং	-11.0318
▁আরঞ্ঞক	-11.032
▁চন্দিমা	-11.0321
▁অপস্সন্তো	-11.0322
▁চেতনায	-11.0323
▁অস্সমং	-11.0324
▁পদত্থ	-11.0329
▁পাপুণন্তি	-11.0331
ততিয	-11.0331
ুনো	-11.0334
দারক	-11.0334
হিত্ৰা	-11.0334
▁ৰিরম	-11.0335
স্সসি	-11.0338
▁চুতস্স	-11.0338
▁আনুভাৰেন	-11.0339
▁দিট্ঠা	-11.0343
▁সূল	-11.0344
▁অনিযত	-11.0346
▁খযং	-11.0349
টা	-11.035
ৰিভৰ	-11.0352
▁গচ্ছন্ত	-11.0352
ইমায	-11.0352
▁সম্মাআজীৰো	-11.0354
▁তুণ্হস্স	-11.0356
▁১৮৪	-11.0357
▁পটিগ্গহণ	-11.0358
▁সঙ্খ্যং	-11.0358
▁অত্থপটিসম্ভিদা	-11.0361
▁হীনা	-11.0363
▁দোমনস্সসহগত	-11.0363
▁দুল্লভ	-11.0365
ব্ভন্তরে	-11.0365
টীকা	-11.0366
প্পসঙ্গ	-11.0368
ৰীরিযং	-11.0369
িত্থী	-11.0373
▁ৰিসজ্জ	-11.0374
▁অকুসলে	-11.0374
▁সমাদান	-11.0374
পাকার	-11.0376
▁পগ্গণ্হাতি	-11.0382
▁পূজং	-11.0384
▁অচ্ছিন্ন	-11.0386
দানি	-11.0386
▁অরহত্তে	-11.0387
▁সোল়সহি	-11.0391
১৬	-11.0394
▁আৰাস	-11.0397
▁আযতনং	-11.0397
▁পস্সে	-11.0399
▁মনাপং	-11.0399
সংহিত	-11.04
তক্ক	-11.0402
▁সীলসম্পন্নো	-11.0403
▁সমুচ্ছিন্দ	-11.0406
ঙ্গুলি	-11.0407
▁১৮১	-11.0409
▁দ্ৰিন্নম্পি	-11.041
▁গন্থসম্পযুত্ত	-11.0412
ব্যত্ত	-11.0412
সহস্সেহি	-11.0412
কট	-11.0413
▁রূপন্তি	-11.0414
▁অত্তভাৰো	-11.0414
▁ভুঞ্জিতুং	-11.0415
চিত	-11.0416
▁ছাদেতি	-11.0416
▁১৬৩	-11.0417
রুল়্হ	-11.0419
▁সম্পজানমুসা	-11.0419
▁মাতুকুচ্ছি	-11.042
▁নন্দী	-11.0421
▁নিয্যানিকং	-11.0422
▁খীণা	-11.0422
▁পঞ্চৰিধ	-11.0423
▁পব্বতং	-11.0423
▁গমিস্স	-11.0423
▁স্নেহ	-11.0425
▁নিৰাসে	-11.0425
কথন	-11.0429
কোস	-11.0429
▁উপাহনা	-11.043
েথাতি	-11.0431
▁সীতল	-11.0432
▁তপ্	-11.0433
▁গহিতে	-11.0436
সমাচার	-11.0438
▁পণ	-11.0439
সমথ	-11.0441
▁সঙ্গহিতং	-11.0441
▁সপত্ত	-11.0443
▁উপপন্নো	-11.0443
▁তমো	-11.0445
যমান	-11.0446
▁ৰন্ত	-11.0446
ূপায	-11.0447
ৰিমান	-11.0449
কত্ত	-11.0451
ারম্মণো	-11.0451
▁ৰিৰিচ্চ	-11.0453
ানুরূপ	-11.0454
গ্গণ্হ	-11.0457
ৰিসম	-11.0457
▁পটিসল্লান	-11.0458
পরিসং	-11.046
ৰস্সিক	-11.046
▁লভতীতি	-11.0462
াধিপ্পাযেন	-11.0462
▁তীসুপি	-11.0463
পুরেক্খার	-11.0463
▁অগার	-11.0465
▁ছাযা	-11.0467
▁মহাৰীরো	-11.0468
▁থদ্ধ	-11.0468
▁ক্রিয	-11.0468
▁তীরং	-11.0469
▁অব্যাপজ্জ	-11.047
▁পটিলভিত্ৰা	-11.047
মোগ্গল্লান	-11.0472
▁পসৰ	-11.0473
▁সম্ভৰন্তি	-11.0474
চির	-11.0474
▁ঞাতীনং	-11.0474
▁কুপ্পতি	-11.0475
▁গোচরো	-11.0475
▁তুলা	-11.0475
চা	-11.0479
▁অপ্পক	-11.048
▁পারিৰাসিক	-11.0481
▁মজ্ঝিমো	-11.0481
▁আসৰৰিপ্পযুত্তো	-11.0481
াপযতি	-11.0483
▁ব্যঞ্জনং	-11.0483
তুম্হে	-11.0484
▁তত্থাপি	-11.0485
▁দত্ৰান	-11.0486
▁দারকা	-11.0487
▁করোন্তেন	-11.0487
▁থেরী	-11.0488
কম	-11.0488
▁মিগা	-11.0491
▁এতায	-11.0492
▁ভৰন্তো	-11.0496
▁সপ্পচ্চয	-11.0497
পরিকম্ম	-11.0498
ন্দি	-11.0498
পথৰী	-11.0498
▁উদ্দেসং	-11.0498
▁বুদ্ধৰচনং	-11.05
নিস্সযপচ্চযেন	-11.0501
▁আদিনা	-11.0501
▁দুক্খস্সন্ত	-11.0503
▁লোকনাযকো	-11.0507
▁যথযিদং	-11.0507
▁আরুয্হ	-11.0508
▁অন্তরন্তরা	-11.0508
▁নুপলব্ভতি	-11.0508
▁উতুসমুট্ঠানং	-11.0508
ট্ঠকথাযং	-11.051
▁সমাধিস্স	-11.0511
▁গহপতিপুত্ত	-11.0512
▁১৮০	-11.0514
▁সুলভ	-11.0515
▁পজানন্তি	-11.0515
▁সাধেতি	-11.0516
▁আচযগামী	-11.0516
ইচ্চেতে	-11.0516
▁লভেয্য	-11.0517
▁উভযং	-11.0518
▁পক্খি	-11.0519
▁অকতং	-11.0521
াদীনম্পি	-11.0524
▁তিৰিধেন	-11.0524
সন্নিভ	-11.0526
▁জনপদে	-11.0526
▁এতম্পি	-11.0527
▁তুয্হ	-11.0527
দাসি	-11.0527
▁ইণ	-11.0527
▁নিমন্ত	-11.0528
▁নালং	-11.0528
গতস্স	-11.0529
▁ৰিঞ্ঞূনং	-11.053
▁মনাযতনঞ্চ	-11.0532
▁ৰিপ্প	-11.0532
▁অভাৰিত	-11.0533
▁যথেৰ	-11.0536
মোচ	-11.0537
অগ্গি	-11.0538
লিত্ত	-11.0539
িচ্চ	-11.054
▁পচ্চত্থিক	-11.054
াদ	-11.0541
▁বাহিরা	-11.0544
▁নিরোধায	-11.0546
পটিভান	-11.0548
সীত	-11.0551
সংসয	-11.0551
ট্ঠানেসু	-11.0551
একং	-11.0555
▁নকামাৰচর	-11.0555
মরণং	-11.0557
▁অনভাৰং	-11.0558
▁নানত্তং	-11.0558
▁ৰেসালিযং	-11.0558
▁মহাসত্তস্স	-11.0558
▁খযো	-11.0559
▁নিপন্নো	-11.0564
গল়	-11.0565
▁সংৰট্ট	-11.0566
কিচ্ছ	-11.0567
▁সত্তধা	-11.0567
▁ৰিঞ্ঞাপে	-11.0568
▁হোন্ত	-11.0569
▁আনিসংসো	-11.057
ৰিঘাত	-11.0571
▁গন্তব্ব	-11.0571
▁থিনমিদ্ধং	-11.0571
▁ৰেদিয	-11.0571
▁অদিন্নাদানা	-11.0572
ম্পী	-11.0572
▁সমনুপস্স	-11.0573
▁সীলক্খন্ধ	-11.0573
সূরিয	-11.0574
▁নরূপাৰচর	-11.0575
▁পতিট্ঠাতি	-11.0575
▁পুট্ঠা	-11.0576
▁অকুসলঞ্চ	-11.0577
হমস্মি	-11.0577
ারম্ভ	-11.058
▁ৰত্তব্বত্তা	-11.0581
চ্ছন্দ	-11.0581
▁ৰিনিচ্ছযং	-11.0581
▁গিহীনং	-11.0582
▁সব্বত্থাতি	-11.0582
▁হন্ত্ৰা	-11.0583
াসন্ন	-11.0585
গঞ্ছি	-11.0586
ুপট্ঠান	-11.059
▁দুক্কটমেৰ	-11.059
▁দুস্সীল্য	-11.059
সমুদায	-11.059
▁দিন্না	-11.0593
▁১৭৭	-11.0595
ঘরং	-11.0596
▁সিপ্পং	-11.0603
▁দেতীতি	-11.0609
গমা	-11.0609
▁পুব্বচরিতাপদান	-11.0609
▁অথেকদিৰসং	-11.0609
▁আমন্তেত্ৰা	-11.0612
▁আকঙ্খমানো	-11.0612
▁পরিগ্গহেত্ৰা	-11.0616
▁অৰস্সুত	-11.0617
▁বদ্ধা	-11.0618
▁১৮৩	-11.0618
▁একক্খণে	-11.062
▁অসুদ্ধ	-11.0621
িঞ্চ	-11.0621
ৰসী	-11.0622
মতং	-11.0623
রত	-11.0624
▁ৰাতা	-11.0624
কোপ	-11.0626
উপাদান	-11.0626
দ্দি	-11.0627
▁দাসি	-11.0631
▁উত্তরাসঙ্গং	-11.0631
▁অঞ্ঞেসু	-11.0634
পাতিমোক্খ	-11.0636
▁অয্যা	-11.0637
মণ্ডিত	-11.064
ৰিহিত	-11.0644
▁পটিসঙ্খা	-11.0644
▁আরম্ভ	-11.0645
▁অত্তভাৰং	-11.0645
ৰত্থূসু	-11.0647
হট	-11.0649
▁ভৰিস্সন্তী	-11.0651
▁রম্ম	-11.0655
▁সন্নিধি	-11.0656
▁হিতং	-11.0656
প্ফল	-11.0657
রংসি	-11.0658
▁তিণ্ণো	-11.0658
পেতং	-11.0659
ৰিহারী	-11.0659
▁এতি	-11.0661
রাজস্স	-11.0664
▁ইদ্ধিপাদা	-11.0664
ূপসম	-11.0666
▁অচ্ছিন্দ	-11.0669
▁সুঞ্ঞতং	-11.067
▁অপদানং	-11.067
▁উপগচ্ছ	-11.067
ক্লেস	-11.0671
▁ৰিসুজ্ঝতি	-11.0672
ূপনিস্সয	-11.0673
কম্মা	-11.0673
ৰেধ	-11.0675
▁পুব্বকম্মং	-11.0677
▁নিমিত্তে	-11.0678
▁মনোরমং	-11.0679
▁নাথ	-11.0682
সাধক	-11.0684
▁পক্কোস	-11.0685
▁পাপেত্ৰা	-11.0685
▁এল়কলোম	-11.0686
ট্ঠপন	-11.0686
১৭	-11.0689
▁অন্ধকার	-11.069
▁কপ্পতী	-11.0691
▁নহেতুঞ্চ	-11.0691
▁কাযিকস্স	-11.0694
অহ	-11.0695
পটিক্খেপ	-11.0697
▁আরামো	-11.0697
▁অপ্পমাণো	-11.0698
▁লোকুত্তরো	-11.0698
াৰসানে	-11.0698
▁সাখ	-11.0698
▁ৰাযাম	-11.0699
সুঞ্ঞত	-11.07
▁গন্ধব্ব	-11.07
কম্পন	-11.0701
▁ৰুত্তেসু	-11.0701
▁চেতসিকো	-11.0703
▁সব্বঞ্ঞুতং	-11.0704
▁কংস	-11.0705
▁সামিকো	-11.0706
যানং	-11.0708
▁কাযানুপস্সনা	-11.0709
▁অভিক্কন্ত	-11.071
▁সযম্ভু	-11.0712
▁কাতব্বন্তি	-11.0713
▁ইট্ঠানিট্ঠ	-11.0713
▁ৰিৰট্টূপনিস্সয	-11.0713
▁ইসযো	-11.0715
▁ৰত্থব্বং	-11.0715
▁পস্সাৰ	-11.0716
▁ৰিস্সজ্জনং	-11.0717
▁অসঞ্চিচ্চ	-11.0718
▁পগ্ঘর	-11.0721
াদিন্নঅনুপাদানিয	-11.0724
▁যাদিসো	-11.0725
▁অদস্সনে	-11.0725
▁পলিবোধ	-11.0725
েয্যো	-11.0725
▁আলপন	-11.0728
▁রোগো	-11.0729
দানে	-11.073
পরিচ্ছিন্ন	-11.073
▁সোতিন্দ্রিযং	-11.0732
▁ইত্তর	-11.0736
▁ৰট্টতিযেৰ	-11.0739
▁পটিপ্পস্সদ্ধি	-11.0742
াপেসুং	-11.0745
▁রূপাদীসু	-11.0746
▁নিব্বানন্তি	-11.0747
সাখা	-11.075
▁অট্ঠান	-11.075
▁রুচ্চতি	-11.075
▁১৮২	-11.0751
▁সঙ্গায	-11.0752
▁ভিক্খা	-11.0753
▁উপ্পন্নানং	-11.0754
▁দেৰিযা	-11.0755
ৰত	-11.0757
▁মুখতো	-11.0762
▁রুচির	-11.0764
▁গয্হতি	-11.0765
ানমেৰ	-11.0765
▁ৰিসারদো	-11.0766
▁বজ্ঝ	-11.0766
▁অক্খীনি	-11.0767
▁অপুচ্ছি	-11.0768
▁হেস্সতি	-11.0768
সন্তক	-11.077
▁১৯০	-11.0772
নিৰাস	-11.0773
▁অৰীচি	-11.0777
নিদস্সন	-11.0779
▁ভঙ্গা	-11.0779
▁সমুদ্দো	-11.078
▁দিন্নে	-11.0782
▁আকারেন	-11.0782
▁পরেসু	-11.0784
সতিপট্ঠান	-11.0785
ধিক	-11.0786
▁করণৰচনং	-11.0787
দরথ	-11.0787
ৰাদে	-11.0789
▁ব্রহ্মুনা	-11.0791
▁পটিসন্ধিযং	-11.0792
▁ইমমেৰ	-11.0793
পোস	-11.0794
▁সঙ্গাম	-11.0796
▁নোচিত্তসমুট্ঠান	-11.0796
▁সুদ্ধাৰাসানং	-11.0798
▁ৰচো	-11.0798
▁অপেত	-11.0802
১৯	-11.0804
কুচ্ছি	-11.0805
▁কতস্স	-11.0807
▁সারিপুত্তস্স	-11.0807
▁উদকস্স	-11.0808
▁বহূহি	-11.0809
সঙ্ঘো	-11.081
▁মহাকস্সপ	-11.0813
হিংস	-11.0813
▁যুঞ্জ	-11.0819
▁গহণে	-11.082
▁উপেক্খাসহগত	-11.0821
▁কেৰট্ট	-11.0821
▁উপপজ্জন্তস্স	-11.0822
▁পাতুভূত	-11.0823
▁ইহ	-11.0824
কামাৰচর	-11.0826
সদিসমেৰ	-11.0828
▁ৰত্ৰান	-11.083
সাসনং	-11.0831
ত্যা	-11.0832
▁রত্তো	-11.0832
▁পচ্চক্খতো	-11.0833
চক্খূ	-11.0835
দার	-11.0836
দূর	-11.0837
▁মনাপো	-11.0838
▁সোকো	-11.0838
▁ৰেদেতি	-11.0839
সস্সত	-11.0842
▁চেতিযে	-11.0844
▁আৰহ	-11.0844
ত্তক	-11.0846
দারু	-11.0848
সত্তা	-11.0849
▁অহেতুকা	-11.0852
▁অনোম	-11.0853
▁১৭১	-11.0853
▁অঞ্ঞায	-11.0854
▁অরূপাৰচরে	-11.0854
▁ছড্ডিত	-11.0856
অত্তা	-11.0859
মাতু	-11.0859
▁পত্তস্স	-11.0859
অট্ঠকথা	-11.0863
ৰসন	-11.0868
ৰিন্দ	-11.0868
▁সম্পন্নো	-11.0868
▁ৰিনিধায	-11.087
▁অজ্ঝভাসি	-11.087
▁পহীযন্তি	-11.087
▁ব্রহ্মুনো	-11.0871
▁পরামট্ঠ	-11.0871
▁দন্তা	-11.0873
▁সঞ্জান	-11.0874
যুগ	-11.0874
▁কারেন্তে	-11.0878
▁সতিসম্বোজ্ঝঙ্গো	-11.0879
▁সুখিতো	-11.0879
▁ভৰঙ্গং	-11.088
▁সঙ্কেত	-11.0882
▁অধিপতিপচ্চযা	-11.0882
▁ব্রহ্মদত্তে	-11.0884
▁কুসলে	-11.0885
▁কুলেসু	-11.0886
▁তত্তক	-11.0887
▁সেনায	-11.0887
▁ঞেয্যং	-11.0889
মত্তিকা	-11.0891
▁সন্তপ্প	-11.0892
▁সঙ্গহিতো	-11.0892
▁পুব্বেনিৰাসং	-11.0894
▁করোতো	-11.0894
▁মহানাগ	-11.0896
▁তিখিণ	-11.0899
িকন্তি	-11.0901
প্পটিপন্ন	-11.0902
ক্খো	-11.0902
অলং	-11.0904
▁সমানং	-11.0905
পন্নো	-11.0909
▁সুখঞ্চ	-11.0912
ধম্মেহি	-11.0913
পাসাদ	-11.0914
ত্থিকো	-11.0916
▁কুঞ্জর	-11.0917
ভাৰেনেৰ	-11.0919
▁সম্মাকম্মন্তো	-11.0919
▁১৮৫	-11.092
আচরিয	-11.0921
▁লাভসক্কার	-11.0922
▁আনাপানস্সতি	-11.0922
সণ্ঠিত	-11.0922
রূপূপপত্তিযা	-11.0923
▁পকরণ	-11.0923
▁নোঅৰিগত	-11.0925
▁সঙ্খেপত্থো	-11.0925
▁দন্তো	-11.0925
▁আপত্তাধিকরণং	-11.0926
ভাগেন	-11.0928
▁সুখন্তি	-11.0929
▁অভিসম্বুদ্ধো	-11.093
▁মগ্গক্খণে	-11.0931
▁পূজেত্ৰা	-11.0932
সন্নিস্সয	-11.0933
পব্বজিত	-11.0933
▁পরিপক্ক	-11.0934
▁অট্ঠংসু	-11.0934
▁সমুট্ঠানেন	-11.0935
▁আযতনানি	-11.0936
ৰিরুদ্ধ	-11.0936
▁লভামি	-11.0936
টি	-11.0937
▁নোকিলেস	-11.0938
লক্খণে	-11.0938
▁সুণোহি	-11.0939
পঞ্হে	-11.0941
দস্সনতো	-11.0941
পিয	-11.0942
গ্গহ	-11.0942
▁অনভিরতি	-11.0943
ট্ঠানানি	-11.0944
▁সেৰতো	-11.0945
▁পনেসা	-11.0946
িতব্বতো	-11.0946
▁পঙ্ক	-11.0948
▁যসং	-11.0948
▁ৰদতীতি	-11.0948
▁পচ্চত্তং	-11.0949
▁পজাননা	-11.0949
▁মুহুত্ত	-11.0949
ছত্ত	-11.095
লগ্গ	-11.095
ভিক্খূনং	-11.0953
▁নিরুদ্ধ	-11.0954
▁বালস্স	-11.0958
▁সংৰণ্ণনা	-11.0958
▁ভৰরাগানুসযেন	-11.0962
▁ধম্মতো	-11.0962
গ্গা	-11.0964
সকং	-11.0965
নাৰ	-11.0967
েৰং	-11.0969
▁জগ্গ	-11.0971
▁পুরা	-11.0973
▁পোট্ঠপাদ	-11.0976
▁ৰাল়	-11.0977
গামং	-11.0977
রামো	-11.0978
পরিৰাস	-11.0981
▁তত্রিদং	-11.0982
মচ্চ	-11.0982
▁যানং	-11.0984
▁পটিচ্ছন্নং	-11.0985
▁ৰত্ততীতি	-11.0988
▁মাতুগাম	-11.0988
▁মহেসিনা	-11.0989
▁আসঙ্ক	-11.099
মপ্প	-11.0991
▁গিল	-11.0992
▁গাৰী	-11.0993
তাপি	-11.0993
▁ভাৰন	-11.0994
▁কারকো	-11.0996
▁পিণ্ডপাতিক	-11.0997
▁যোজে	-11.0997
▁নোগন্থ	-11.1001
মঙ্গ	-11.1004
▁সরস	-11.1004
ৰেল	-11.1004
জনন	-11.1005
▁ৰত্থুস্স	-11.1005
▁আদিম্হি	-11.1005
দস্সাৰী	-11.1006
পতিত	-11.1012
▁ৰীতরাগো	-11.1015
গতানং	-11.1015
▁একক	-11.1016
অনিচ্চং	-11.1017
▁আনুভাৰ	-11.1018
▁অপরা	-11.1018
অঞ্ঞং	-11.1019
সিখ	-11.1019
▁উপত্থম্ভ	-11.102
চেত	-11.102
▁আৰস	-11.1021
▁ৰচীভেদ	-11.1021
▁তেনেতং	-11.1021
▁ৰুত্তস্স	-11.1022
▁ৰুচ্চমান	-11.1023
▁কারিয	-11.1023
▁ভেরি	-11.1026
▁১৮৯	-11.1027
▁দিব্বা	-11.1028
▁পরিহীন	-11.1028
▁তত্ত	-11.1029
▁সুদ্ধিক	-11.103
▁ভু	-11.1031
▁পুঞ্ঞক্খেত্তং	-11.1032
সাৰকো	-11.1033
ারহং	-11.1036
মুখা	-11.1036
▁পচ্চযেসু	-11.1036
▁উপপজ্জন্তি	-11.1037
ট্ঠকথা	-11.1039
▁সঞ্চেতনিকা	-11.104
▁অধিট্ঠিত	-11.1041
▁অসুরা	-11.1041
ারোহ	-11.1043
▁কুসলেন	-11.1043
▁অনুস্সৰ	-11.1043
▁ৰঞ্চ	-11.1044
▁ৰাযোধাতু	-11.1045
▁যোব্বন	-11.1045
দল	-11.1045
▁চারু	-11.1045
▁সৰিতক্কসৰিচারং	-11.1047
চেতসিক	-11.1048
▁লিখ	-11.1049
▁কনিট্ঠ	-11.1049
▁অপ্পচ্চয	-11.1052
ত্থর	-11.1054
পরিযাপন্না	-11.1054
ৰিপাকা	-11.1056
▁অনপেক্খ	-11.1056
▁রাজিনো	-11.1058
▁দিব্বায	-11.106
▁গরুভণ্ড	-11.1061
▁অনেকে	-11.1061
মলং	-11.1061
▁উপেতো	-11.1061
▁ৰিপ্পসন্ন	-11.1062
▁হীনো	-11.1063
▁ৰিধা	-11.1064
সকুণ	-11.1066
▁গচ্ছন্তী	-11.1066
সূল	-11.1067
মানোতি	-11.1071
চারি	-11.1071
▁ৰোহারো	-11.1071
▁হেতুদুক	-11.1072
▁১৮৬	-11.1073
পরো	-11.1075
▁সিক্খাপদেসু	-11.1077
মধি	-11.1079
ভযা	-11.1079
▁১৯৬	-11.108
খীণা	-11.1081
▁ভৰতণ্হা	-11.1082
▁অনেকপরিযাযেন	-11.1084
াদিভেদ	-11.1084
▁ৰিস্সজ্জিত	-11.1085
▁দেৰদূত	-11.1085
▁তিরচ্ছান	-11.1087
▁মযম্পি	-11.1088
▁যসস্সিনো	-11.1088
▁পসীদতি	-11.1088
▁নিদ্দেসে	-11.1088
▁আনীত	-11.1089
▁কুসীত	-11.1091
▁গিজ্ঝ	-11.1093
▁ৰত্তু	-11.1093
▁উপলক্খণ	-11.1094
▁অনুপস্সনা	-11.1095
পুব্বঙ্গম	-11.1095
▁দ্ৰন্দ	-11.1099
▁সম্মত	-11.1099
▁ধজ	-11.1102
▁অনিযম	-11.1103
▁জটা	-11.1103
াযেৰ	-11.1103
▁হিরোত্তপ্প	-11.1104
াভাৰো	-11.1106
▁সঙ্কম	-11.1106
▁অমনাপ	-11.1107
সোধন	-11.1107
▁নিদস্সনং	-11.1108
▁নিচ্ছ	-11.1112
▁আনিসংসং	-11.1112
াগত	-11.1113
▁সৰিতক্কং	-11.1114
▁হোথ	-11.1117
▁উপসংহর	-11.112
▁পরিক্খিত্ত	-11.1122
▁পযুত্ত	-11.1122
▁অচ্চয	-11.1123
▁নিরোধসমাপত্তি	-11.1123
▁যেসু	-11.1123
▁আপজ্জেয্য	-11.1123
▁এতাদিস	-11.1125
সদিসত্তা	-11.1125
সত্তাহ	-11.1125
▁ইদমেত	-11.1131
নামরূপ	-11.1131
▁নিদ্দিস	-11.1132
▁ৰোদানং	-11.1134
ঝ	-11.1135
▁অরহতা	-11.1135
▁ভদ্দিয	-11.1137
▁নানুসেন্তি	-11.1137
ধঞ্ঞ	-11.1138
দস্সনো	-11.1138
▁খাদন্তি	-11.114
▁গাহাপেত্ৰা	-11.1141
▁রাজগহ	-11.1142
াদীনৰ	-11.1142
▁ইচ্ছিতব্ব	-11.1143
▁অগচ্ছ	-11.1143
▁নহায	-11.1146
সেতি	-11.1147
কোধ	-11.1147
▁সঙ্ঘিকং	-11.1147
▁পারুপিত্ৰা	-11.1149
▁ততোপি	-11.115
▁সুৰিসুদ্ধ	-11.1151
▁সম্পদান	-11.1151
▁ৰুট্ঠানং	-11.1153
▁পাদেন	-11.1155
▁উক্খেপনীযকম্মং	-11.1158
▁উপ্পজ্জমানো	-11.1159
▁সমুপ্পন্ন	-11.1159
▁কামগুণ	-11.116
▁আপন্না	-11.1163
ঠিত	-11.1164
▁বোজ্ঝঙ্গে	-11.1164
▁বোধিং	-11.1166
যঞ্ঞ	-11.1168
▁১৯১	-11.1172
▁এত্তকা	-11.1172
▁ভিসি	-11.1173
▁উপপজ্জন্তী	-11.1174
তস্মাতিহ	-11.1174
▁পাপিমা	-11.1176
▁কম্মন্তি	-11.1177
▁ঠপেন্ত	-11.1177
সদ্ধ	-11.1178
সঙ্ঘস্স	-11.1179
▁আপজ্জিং	-11.118
▁পটিক্খেপ	-11.1183
▁লজ্জী	-11.1183
▁ভূমিং	-11.1184
▁পরিক্খযা	-11.1185
ুচ্চ	-11.1188
সম্ভৰো	-11.1189
ৰণ্ণনায	-11.119
▁অনৰসেসতো	-11.1191
▁২০৭	-11.1192
▁সত্ততিংস	-11.1193
▁নঅরণ	-11.1193
▁সখ	-11.1193
▁লভতে	-11.1194
▁ৰট্টং	-11.1194
▁উপ্পজ্জেয্যুং	-11.1195
োপমা	-11.1195
▁নিরুজ্ঝ	-11.1196
▁ৰিপ্পটিসার	-11.1196
▁পৰেসেত্ৰা	-11.1198
▁মিচ্ছত্তনিযত	-11.1199
▁উপট্ঠহন্তি	-11.1199
গল	-11.1202
ৰাসিক	-11.1202
▁সতীতি	-11.1202
▁পঞ্ঞপেতি	-11.1204
▁তথাগতা	-11.1205
াৰবোধ	-11.1207
▁ভাৰেতীতি	-11.1207
▁পঠমস্স	-11.1209
▁নিৰেসনং	-11.1209
রুণ	-11.1213
▁অনুসেতীতি	-11.1213
▁মুসাৰাদো	-11.1214
৪০	-11.1215
াদীতি	-11.1216
▁হেতুফল	-11.1219
▁পঞ্চৰিঞ্ঞাণ	-11.1219
▁সমাদহ	-11.122
▁চোদন	-11.122
▁আরদ্ধো	-11.1221
সীহো	-11.1224
প্ফ	-11.1225
▁এত্তক	-11.1225
রম	-11.1226
পণ	-11.1226
▁অনুপসম্পন্নস্স	-11.1227
▁পঠমায	-11.1228
▁দদাতি	-11.1228
▁সণ্ঠান	-11.1229
িয্যতি	-11.1229
▁লব্ভ	-11.123
▁গন্তু	-11.1231
▁লপ	-11.1232
▁তুসিত	-11.1233
▁মহাব্রহ্মা	-11.1234
▁ছৰ	-11.1238
▁অনেন	-11.1238
▁গণস্স	-11.1238
অতি	-11.1239
ৰজ্জিত	-11.1239
হিতং	-11.1239
▁তব্বি	-11.1242
▁দুব্বচ	-11.1245
▁অসমাহিত	-11.1246
▁পণিধায	-11.1246
▁মোঘমঞ্ঞ	-11.1247
▁সোমনস্সজাতো	-11.1248
▁সচ্চেন	-11.1248
▁দারকে	-11.1249
অনুপাদানিযো	-11.1249
স্সামি	-11.1249
তব্বো	-11.1249
▁অৰিক্খেপ	-11.125
▁গচ্ছথ	-11.1251
▁অক্খাহি	-11.1251
▁অত্থঙ্গমা	-11.1252
▁অনত্থায	-11.1254
▁দদামি	-11.1255
নাদ	-11.1255
▁অধিমুত্ত	-11.126
▁সব্বমেতং	-11.1261
তিআদীসুপি	-11.1263
▁পাণাতিপাতো	-11.1263
াগার	-11.1264
পিণ্ডপাত	-11.1266
▁উদর	-11.1267
▁অভিসঙ্খার	-11.1267
▁অপন	-11.1267
▁ধীতরং	-11.1268
তথেৰ	-11.1269
▁পাকটমেৰ	-11.1269
▁দজ্জ	-11.127
▁অকুসলমূলং	-11.1272
▁পারুপ	-11.1273
কটাহ	-11.1274
▁জনতং	-11.1275
▁একদেসং	-11.1276
▁উদ্ধত	-11.1276
▁পসৰতি	-11.1278
▁আৰাসা	-11.1279
▁মুনিনো	-11.128
নিস্সরণ	-11.1281
▁দুক্খিতো	-11.1282
▁চতুরস্স	-11.1283
চোল়	-11.1285
▁অরিযসাৰকস্স	-11.1286
তেসু	-11.1286
▁ভুঞ্জেয্য	-11.1287
থাম	-11.1287
▁দণ্ডং	-11.1289
▁ৰেঠ	-11.1289
১৪	-11.129
▁পরিক্খেপ	-11.129
▁তিযোজন	-11.129
াহু	-11.129
▁অনুপঞ্ঞত্তি	-11.1291
ট্ঠকথায	-11.1292
হন্দ	-11.1292
মতী	-11.1294
▁পণ্ডু	-11.1295
ঞ্ঞে	-11.1296
▁ভূতগাম	-11.1296
▁লজ্জি	-11.1296
সংযোগ	-11.1297
▁অনুরুদ্ধো	-11.1297
▁উভযম্পি	-11.1298
▁অত্থঙ্গমো	-11.13
▁ভাসতো	-11.1301
ফলা	-11.1302
▁ভম	-11.1303
পরিৰত্ত	-11.1305
▁পতিট্ঠ	-11.1305
পরিপুণ্ণ	-11.1305
▁একৰিধ	-11.1306
▁অলজ্জি	-11.1306
▁বহিদ্ধারম্মণ	-11.1311
▁সম্পটিচ্ছিত্ৰা	-11.1314
▁১৮৭	-11.1314
▁পঠমজ্ঝানং	-11.1314
▁পাসাদং	-11.1316
▁দুব্বণ্ণ	-11.1317
হেৰ	-11.1317
াপেন্তো	-11.1321
▁তিদস	-11.1321
▁কুসুম	-11.1322
▁সমন্তপাসাদিকায	-11.1323
▁পরাভৰ	-11.1323
▁ভণিত	-11.1324
▁দেন্তো	-11.1326
▁দূরতোৰ	-11.1327
▁কুসলধম্ম	-11.1327
দসক	-11.1328
▁সন্নিপতিত	-11.1328
ত্তিকে	-11.1329
▁নৰম	-11.1331
▁ছেক	-11.1334
▁রজনীয	-11.1334
▁মো	-11.1335
▁ঞাণসম্পযুত্ত	-11.1335
▁আসীস	-11.1336
▁সব্বঞ্ঞূ	-11.1341
▁১৯৫	-11.1342
▁অণ্ড	-11.1342
ৰীমংস	-11.1343
▁যাতি	-11.1343
মানায	-11.1343
▁সম্ভূত	-11.1345
▁অরূপাৰচরা	-11.1346
নামকা	-11.1348
▁অনেকৰিধ	-11.1349
▁কিলিট্ঠ	-11.135
▁পব্বজি	-11.135
মূ	-11.1351
তলং	-11.1354
▁কিলন্ত	-11.1354
ভাৰদস্সনত্থং	-11.1354
▁করিত্ৰান	-11.1355
▁নিরুদ্ধা	-11.1356
▁ৰিপাকধম্মধম্মো	-11.1356
ধোৰন	-11.1358
▁মহাজনং	-11.1358
▁ৰিভাৰেতুং	-11.1359
▁এত্তকেন	-11.1359
ন্তরাযো	-11.1361
▁তদঙ্গ	-11.1361
▁মন্তা	-11.1362
▁কটি	-11.1364
▁আনন্তরিয	-11.1364
▁সব্রহ্মচারীনং	-11.1366
পঞ্ঞত্তিযা	-11.1367
▁১৯৩	-11.1367
রণং	-11.1368
▁রঞ্জ	-11.1369
▁তণ্হাদিট্ঠি	-11.137
মনুস্সা	-11.137
▁যোজনং	-11.1371
ৰস্সানি	-11.1372
ঙ্গো	-11.1373
▁অংস	-11.1373
▁সকত্থে	-11.1374
▁অজান	-11.1374
ন্তিআদীনি	-11.1374
নেক	-11.1374
দেহ	-11.1374
পরিক্খিত্ত	-11.138
▁অনুকম্পায	-11.1381
▁অট্ঠকথাসু	-11.1382
▁অত্থকাম	-11.1382
▁১৯৮	-11.1383
▁ৰিভূত	-11.1386
▁হিরি	-11.1386
▁ধম্মতা	-11.1387
▁অপচ	-11.1387
▁পরিযেসিত্ৰা	-11.1388
▁আহট	-11.1389
▁গণ্হন্তস্স	-11.139
পচ্চুপট্ঠানং	-11.1391
▁ঠানেন	-11.1395
▁দেৰদত্তস্স	-11.1396
▁এতদেৰ	-11.1396
ৰিগত	-11.1396
▁মিন	-11.1396
▁ঝানানি	-11.1399
িনোতি	-11.1401
সম্পযুত্তো	-11.1401
▁চতুর	-11.1402
▁নৰমো	-11.1402
বন্ধনেন	-11.1403
▁সম্বোধি	-11.1403
▁বুদ্ধসাসনে	-11.1405
গামো	-11.1405
সম্বোজ্ঝঙ্গং	-11.1408
▁পসু	-11.1411
▁উপচিনন্তো	-11.1412
াচযগামিনাপচযগামী	-11.1412
▁তিকপাচিত্তিযং	-11.1412
▁অঘানকান	-11.1412
▁সুত্তন্তভাজনীয	-11.1412
▁নাহোসি	-11.1413
▁ওসার	-11.1413
▁ৰেদেহ	-11.1414
▁পসয্হ	-11.1415
▁উপাস	-11.1415
▁সঙ্খতা	-11.1415
▁সম্মোদি	-11.1415
▁আগচ্ছন্তং	-11.1416
দর	-11.1416
▁কতপুঞ্ঞ	-11.142
▁হেতুপচ্চয	-11.1422
▁মীয	-11.1422
▁অসমত্থ	-11.1423
▁সহাযক	-11.1424
প্পভৰ	-11.1424
পরিযাপন্নং	-11.1425
▁সংসারো	-11.1427
ত্ৰান	-11.1427
▁মাতুগামস্স	-11.1428
▁পরিচ্চাগ	-11.1428
▁জীর	-11.1431
▁পুগ্গলেন	-11.1434
▁পটিপ্পস্সদ্ধ	-11.1434
▁রাজূনং	-11.1436
সমণব্রাহ্মণ	-11.1439
▁পরিল়াহ	-11.1439
ৰণ্ণেন	-11.1443
▁অঞ্ঞাতক	-11.1443
▁ৰিসেসনং	-11.1444
▁অদিস্ৰা	-11.1445
ভাগং	-11.1445
▁ৰিভত্তো	-11.1445
▁দেহ	-11.1446
ূন	-11.1448
রাম	-11.1448
▁তিত্থ	-11.1449
▁যত	-11.145
▁ৰিচরন্তি	-11.145
ুন্তি	-11.1452
দোমনস্স	-11.1452
কুসুম	-11.1453
▁চিত্তসম্পযুত্ত	-11.1455
▁সংৰাস	-11.1457
অরূপ	-11.1458
▁ওপ	-11.1458
▁অদস্সনং	-11.1459
▁ভিক্খুসঙ্ঘে	-11.1462
▁পব্বজিং	-11.1462
▁অনাগামিফল	-11.1463
▁সিদ্ধা	-11.1466
তৰ	-11.1467
▁তিত্থিযা	-11.1467
▁তীহাকারেহি	-11.1468
▁রসাযতনং	-11.1469
▁উদাযী	-11.1469
▁চাল	-11.1472
▁পতিট্ঠাপেসি	-11.1474
▁খাদনীয	-11.1474
▁জনিন্দ	-11.1474
▁ঞেয্য	-11.1474
চিন্ত	-11.1475
▁পস্সথ	-11.1476
▁ৰিসদ	-11.1477
▁২২০	-11.1477
▁খিপ্পমেৰ	-11.1478
াপেতীতি	-11.148
▁ৰাযামো	-11.148
পত্থনা	-11.148
▁ভদ্দে	-11.1481
ৰাদিত	-11.1483
▁সংৰ	-11.1483
▁পেতং	-11.1483
▁কামো	-11.1484
▁অভিক্কন্তং	-11.1485
▁পসাদেত্ৰা	-11.1486
সম্ভ	-11.1487
নিক্খেপ	-11.1488
▁দাতব্বা	-11.1489
পাদো	-11.149
▁লো	-11.1491
▁হত্থপাসে	-11.1493
▁নিযুত্তো	-11.1493
▁আকাসং	-11.1496
▁২১৫	-11.1497
▁ৰেদিতব্বন্তি	-11.1499
▁কুপিতো	-11.15
▁পটিপন্ন	-11.1502
মুদু	-11.1503
মিধ	-11.1504
কুসলতা	-11.1506
▁মহাযসো	-11.1506
▁সিদ্ধো	-11.1507
ৰচনীয	-11.1508
▁অপ্পিয	-11.1508
ঙ্কুর	-11.1511
▁আহারসমুট্ঠানং	-11.1513
▁গণ্হেয্য	-11.1513
▁করি	-11.1513
সগ্গ	-11.1514
▁আৰজ্জনায	-11.1515
▁অব্ভা	-11.1516
ঞ্হেতং	-11.1516
দ্ধো	-11.1517
▁পুনব্ভৰ	-11.1517
দেসো	-11.1518
▁নস্সতি	-11.1518
▁সুঞ্ঞতা	-11.1519
▁উপট্ঠিতা	-11.152
▁দিব্বেহি	-11.1521
▁চরিযা	-11.1521
১৫	-11.1521
▁ফস্সা	-11.1522
▁দাযকো	-11.1527
▁কসি	-11.1527
▁এতস্মা	-11.1527
পেত	-11.1529
▁তেনস্স	-11.1529
▁সক্কোমি	-11.1532
▁১৮৮	-11.1534
সমাগম	-11.1536
▁অন্ৰ	-11.1538
রাজানো	-11.1538
▁তিলোক	-11.1538
▁আবাধো	-11.1538
ুজ্জন	-11.1539
▁খাদতি	-11.1539
▁সত্তমা	-11.1542
নীযে	-11.1543
▁আরদ্ধৰীরিয	-11.1545
গাথাৰণ্ণনা	-11.1545
▁অনেকেহি	-11.1547
▁১৯৪	-11.155
▁অরূপী	-11.155
ুপায	-11.155
▁পেসিত	-11.155
নাযক	-11.155
▁সমন্ত	-11.1551
দুগ্গ	-11.1551
▁ৰিমুত্তং	-11.1552
সঞ্ঞোজন	-11.1552
▁কণ	-11.1552
▁ৰিপ্পমুত্তো	-11.1553
▁নিপ্	-11.1557
পাহং	-11.1558
▁পচ্ছিমে	-11.1558
ৰিসেসেন	-11.1558
▁আরুপ্প	-11.1558
ছন্ন	-11.156
েত	-11.156
▁সঞ্ঞী	-11.156
▁ৰিজ্জতীতি	-11.1561
গুণো	-11.1562
▁সংৰরং	-11.1563
পদৰণ্ণনা	-11.1566
▁আলোপ	-11.1566
নিৰিট্ঠ	-11.1567
▁ৰদামী	-11.1568
িত্থিযো	-11.1568
চরিযং	-11.1568
াভিসময	-11.157
▁পেসল	-11.157
ৰিমুত্তিঞাণদস্সন	-11.1571
▁মুত্তং	-11.1575
▁ৰেজ্জ	-11.1576
▁গন্ধং	-11.1577
▁অপ্পটিঘ	-11.158
▁নিস্স	-11.158
ৰিনিচ্ছযকথা	-11.158
▁মহতিযা	-11.1581
▁পচ্চযানং	-11.1581
কূজ	-11.1582
▁এৰমত্থো	-11.1583
▁সমণধম্মং	-11.1583
▁পুরেভত্তং	-11.1583
ানুকম্প	-11.1583
▁ঠানমেতং	-11.1584
▁জলং	-11.1585
▁দীপং	-11.1587
▁ৰিহিংসা	-11.1587
▁থলে	-11.1588
▁নুপ্পজ্জিস্সতী	-11.159
▁অৰিতক্কঅৰিচারং	-11.159
নিযত	-11.1591
▁তিরচ্ছানযোনি	-11.1595
▁মাগধ	-11.1597
▁মুতং	-11.1598
ৰাসে	-11.1599
▁দট্ঠব্ব	-11.1599
▁তেত্তিংস	-11.1599
▁পাপকে	-11.1601
▁ভৰিতব্ব	-11.1601
মুচ্চ	-11.1602
▁ৰিত্থারিত	-11.1603
▁কামতণ্হা	-11.1605
ভাণক	-11.1605
সঙ্কপ্প	-11.1607
▁ঞাতকা	-11.161
ির	-11.1611
ণ্ঠ	-11.1611
▁১৯২	-11.1612
▁স্ৰে	-11.1612
▁২০৫	-11.1616
▁চোরো	-11.1617
তৰে	-11.162
▁ৰত্থুকাম	-11.162
▁কেসে	-11.1621
▁রোস	-11.1622
▁সারম্ভ	-11.1623
▁আৰাসং	-11.1624
রজ্জং	-11.1627
পুগ্গলোকাসা	-11.163
▁ৰেপুল্লং	-11.163
রাজি	-11.163
▁পাসাদে	-11.1631
▁ৰাণিজা	-11.1633
▁ভিক্খুনীহি	-11.1634
সারো	-11.1634
▁অক্কম	-11.1635
▁যথাসুখং	-11.1637
▁নিৰত্থ	-11.1637
▁রুন্ধ	-11.1637
▁অত্থেসু	-11.1638
▁নচ্চগীত	-11.1638
▁তথাগতবলং	-11.1638
▁পিতরা	-11.1638
▁তাতা	-11.1638
▁সমুট্ঠিতং	-11.164
▁গুণো	-11.1643
▁সন্তিকা	-11.1644
▁গমিস্সামি	-11.1647
পুরং	-11.1649
▁আরোচেত্ৰা	-11.1649
পরামাসৰিপ্পযুত্ত	-11.1651
▁ওদন	-11.1652
ম্বর	-11.1654
▁উপসম্পদং	-11.1657
সপ্পি	-11.1657
▁উভোসু	-11.1659
সাধ	-11.166
গমো	-11.1661
▁অসদ্ধম্ম	-11.1662
▁ৰদামীতি	-11.1662
▁নিয্যানিক	-11.1664
▁কল্যাণং	-11.1664
▁দ্ৰাসট্ঠি	-11.1664
▁সম্বোধ	-11.1664
▁দৰ	-11.1666
▁কুম্ভকার	-11.1667
▁মহাসাৰজ্জ	-11.1669
▁পত্তচীৰর	-11.167
▁ওতিণ্ণ	-11.167
▁অজ্ঝত্তিকা	-11.1672
▁জানিতব্বং	-11.1672
▁পঞ্চসতা	-11.1672
িণ	-11.1672
▁ভিস	-11.1674
▁অধিমুচ্চ	-11.1674
▁গামন্তর	-11.1676
▁আগচ্ছেয্য	-11.168
▁সেনাসনানি	-11.168
▁করোন্ত	-11.168
ুপট্ঠ	-11.1681
▁কথেতব্ব	-11.1681
▁২০৯	-11.1681
যোজনং	-11.1682
মণ্ডলে	-11.1682
ুপোসথ	-11.1684
▁চিত্তো	-11.1687
▁২০৬	-11.1688
▁রসে	-11.1688
খাদনীয	-11.1691
▁সক্যপুত্ত	-11.1692
▁উপজ্ঝাযস্স	-11.1692
▁দণ্ডক	-11.1693
▁ধম্মাযতন	-11.1693
▁বিম্বিসার	-11.1694
▁পঞ্চক	-11.1695
অগ্গ	-11.1696
▁সরদ	-11.1698
▁দ্ৰারে	-11.17
▁পদহতি	-11.1701
▁চেতসিকা	-11.1701
▁অধিপ্পেতত্তা	-11.1702
মারুয্হ	-11.1703
▁অজানিত্ৰা	-11.1704
▁চতুপ্পদ	-11.1704
▁অনুযুত্তো	-11.1705
▁ভুম্মং	-11.1707
▁দুক্খিত	-11.1708
ধাতুং	-11.1708
চিত্তানং	-11.1708
▁কস্সপস্স	-11.1711
থি	-11.1716
▁কম্মার	-11.1716
পরক্কম	-11.1719
লাভো	-11.1721
▁অভিমুখ	-11.1725
াগমো	-11.1725
ঘং	-11.1727
▁পাদেহি	-11.1727
▁তদনুরূপ	-11.1727
▁ৰীণা	-11.1728
সুণ	-11.1731
তুল	-11.1732
▁অদাসিং	-11.1733
▁ফুল্ল	-11.1733
যোগা	-11.1734
োকাসো	-11.1734
▁ৰস্সসতং	-11.1734
▁পটিপন্না	-11.1735
▁চিন্তয	-11.1736
▁অপ্পেকচ্চ	-11.1736
▁গচ্ছন্তা	-11.1736
▁সস্সতো	-11.1737
▁সদেৰক	-11.1737
▁সারজ্জ	-11.1738
জাতিক	-11.1744
▁লোকিযো	-11.1744
▁চক্খাযতন	-11.1746
▁সকদাগামিফল	-11.1749
অধম্ম	-11.175
▁কপ্পো	-11.175
▁ছেদ	-11.175
▁সপ্পাণক	-11.1752
▁ওরুয্হ	-11.1752
▁অভৰ	-11.1754
▁ৰূপসন্ত	-11.1755
▁২০০	-11.1757
▁পীণ	-11.1758
িতুকামা	-11.1759
▁অভিনিৰেস	-11.1761
রূপজীৰিতিন্দ্রিয	-11.1761
▁গুণৰ	-11.1761
যাৰতা	-11.1762
▁ৰুসিতং	-11.1764
▁দিট্ঠানুসয	-11.1767
নানত্তং	-11.177
▁ঞত্তিযা	-11.1773
▁ন্হারু	-11.1775
▁দন্তকট্ঠ	-11.1776
যোপি	-11.1779
▁পমুদিত	-11.1779
▁জাতিপচ্চযা	-11.1779
দম	-11.178
▁নিরৰসেস	-11.1781
নাস	-11.1784
▁সমাপজ্জি	-11.1785
▁অসদিস	-11.1785
দাযকত্থেরস্স	-11.1787
▁সাণ	-11.1787
▁ভগ্গ	-11.1788
▁পটিগ্গহিতং	-11.1788
▁উল়ারং	-11.1791
▁কুমুদ	-11.1792
▁ৰচনত্থো	-11.1793
▁অপরিমাণ	-11.1794
কম্মন্ত	-11.1794
▁অদ্দ	-11.1794
▁অচির	-11.1795
মত্তেনেৰ	-11.1795
▁নিদ্দিট্ঠো	-11.1796
▁দিট্ঠিগতিক	-11.1797
▁অহন্তি	-11.1798
িংসূ	-11.1799
ইরিযাপথ	-11.1799
ৰেদনং	-11.1799
দ্ৰাদস	-11.1801
▁নিগণ্ঠ	-11.1805
▁দুম্ম	-11.1807
▁লোকস্মি	-11.1807
▁নিৰাসন	-11.1809
▁উচ্চাৰচ	-11.181
▁ৰিহঞ্ঞ	-11.1811
প্পভা	-11.1811
▁জানাথ	-11.1811
েমীতি	-11.1812
পচ্চযস্স	-11.1814
ৰিপাকং	-11.1814
▁ৰিদিতো	-11.1815
পকরণ	-11.1816
▁ৰীরিযারম্ভ	-11.1816
উদ্ধ	-11.1817
▁আভুজিত্ৰা	-11.1817
▁হদযে	-11.1818
▁বিন্দু	-11.1819
▁যোজিত	-11.1819
▁চেতোসম্ফস্সজ	-11.1819
▁উপসন্ত	-11.1822
▁অদু	-11.1823
নিদস্সনং	-11.1825
▁চতুব্বিধো	-11.1825
▁অঙ্গজাতং	-11.1827
গুম্ব	-11.1828
▁ইমিনাপি	-11.1829
▁ন্হান	-11.1829
▁নৰহি	-11.1833
▁দুক্খনিরোধো	-11.1834
ঘটনা	-11.1834
পুরিম	-11.1835
সচ্চপরিযোসানে	-11.1836
▁উপদ্দৰ	-11.1837
▁গণনা	-11.1839
▁মরতি	-11.1841
▁চেতিযস্স	-11.1841
▁রতনানি	-11.1841
▁উপ্পজ্জতী	-11.1842
▁আচিক্খি	-11.1842
অন্তর	-11.1842
▁অভিসময	-11.1845
▁অপরিসুদ্ধ	-11.1847
রত্তং	-11.1848
▁ভত্তু	-11.1849
▁ভণন্তি	-11.1849
▁বাহা	-11.185
▁ভুম্ম	-11.185
▁মনোরমা	-11.1851
▁অসম্মোহ	-11.1852
▁ধম্মিযা	-11.1852
সিলা	-11.1852
যাচন	-11.1853
▁২১৩	-11.1854
▁২২৮	-11.1861
সঙ্গীতি	-11.1862
াদিঅত্থ	-11.1862
▁ৰিজয	-11.1864
▁২১৬	-11.1864
▁২৩৮	-11.1865
ৰিপ্পযুত্তচিত্ত	-11.1867
▁ধর	-11.1868
▁ৰস্সিকসাটিক	-11.1868
গ্গো	-11.1868
▁অভিধম্মভাজনীয	-11.1868
▁২১৮	-11.1868
যুগং	-11.1869
▁চীৰরপিণ্ডপাত	-11.1869
েয্যুন্তি	-11.1869
▁পরিভুত্ত	-11.187
মুত্তা	-11.1871
▁অনঞ্ঞসাধারণ	-11.1873
▁২৩৬	-11.1874
▁সপ্পটিঘ	-11.1875
▁বলৰতর	-11.1877
▁ৰদেয্যুং	-11.1877
▁অভিনীহার	-11.1878
▁সমুট্ঠানাদীনি	-11.188
▁কপি	-11.1882
নিগ্গহ	-11.1882
ৰত্থুকথাৰণ্ণনা	-11.1883
▁নদতি	-11.1884
▁সারাগো	-11.1885
▁কম্বল	-11.1887
▁সব্বথাপি	-11.1888
▁অপুব্বং	-11.1888
▁আগমনং	-11.1888
ব্যাকরণ	-11.189
▁পদহ	-11.189
▁ধারেন্তি	-11.1893
▁সন্তীরণ	-11.1893
▁নেত্তি	-11.1896
▁নদি	-11.1897
▁কচ্ছ	-11.1901
▁যতি	-11.1902
িন্দ্রিযো	-11.1902
▁অস্সং	-11.1902
মিচ্চাদি	-11.1903
▁সীলাদি	-11.1904
▁নিরোধে	-11.1906
▁ভৰেয্যাতি	-11.1909
▁কপ্পং	-11.191
▁পাতিমোক্খসংৰর	-11.1911
▁পসীদ	-11.1912
বিন্দু	-11.1915
প্পমাণা	-11.1916
▁ৰিপাকানং	-11.1917
▁সম্পজ্জতি	-11.1922
মথ	-11.1922
▁চঞ্ঞে	-11.1922
▁উপমায	-11.1922
▁সল্লপ	-11.1924
▁যসস্সি	-11.1924
▁ভিন্না	-11.1924
ফলো	-11.1924
▁অধিকং	-11.1925
▁পদচ্ছেদো	-11.1926
▁২১০	-11.1926
▁নিরোধসমাপন্ন	-11.1927
▁কামূপসংহিতা	-11.1928
▁উপ্পাদিত	-11.1928
▁ক্রিযত্থা	-11.1931
হাস	-11.1932
▁পঠমতরং	-11.1936
▁১৯৭	-11.1937
▁নেরযিক	-11.1938
▁ৰিরতো	-11.194
▁থন	-11.194
দিনা	-11.1941
▁আদাস	-11.1941
▁কুণ্ডল	-11.1942
▁রুক্খমূল	-11.1943
▁চিণ্ণ	-11.1944
সোতাপত্তিফলাদীনি	-11.1945
▁২৩৪	-11.1947
সমুট্ঠানো	-11.1947
চে	-11.1948
▁সব্বধি	-11.1951
ৰিসযং	-11.1951
▁অন্নপান	-11.1957
ানুপস্স	-11.1957
▁ভজতি	-11.1961
▁উপচযো	-11.1962
▁তাৰতিংস	-11.1962
▁পঞ্চদস	-11.1963
▁ভা	-11.1963
দুট্ঠ	-11.1964
াদিনো	-11.1965
▁সিক্খেয্য	-11.1965
ন্তস্সাতি	-11.1965
▁সব্বকিলেস	-11.1968
▁২০৩	-11.197
▁সম্পযুত্তস্স	-11.197
সব্ভাৰতো	-11.1971
▁কামধাতু	-11.1974
পল্লৰ	-11.1974
▁কাযদুচ্চরিত	-11.1977
▁২৪৩	-11.1981
▁মজ্ঝিমং	-11.1982
▁২০৮	-11.1983
▁পমুখ	-11.1984
▁তাদি	-11.1984
ব্রূহ	-11.1985
▁কযৰিক্কয	-11.1985
▁অগ্গহেসি	-11.1985
▁মহিদ্ধিকো	-11.1986
সিখর	-11.1986
▁তথারূপং	-11.1986
▁২৩৭	-11.1987
▁পাদমূলে	-11.1987
▁অপ্পীতিক	-11.1987
▁নিরন্তর	-11.1988
▁আগতোতি	-11.1988
▁মহন্তেন	-11.1989
▁পংসুকূলিক	-11.1989
▁যোগিনো	-11.1989
▁ৰিচিকিচ্ছায	-11.199
▁পরিগ্গণ্হ	-11.199
▁আদ	-11.1992
▁মোহা	-11.1992
▁মহি	-11.1992
চতুক্কং	-11.1993
▁সুভং	-11.1994
▁মচ্চুনো	-11.1997
পরিগ্গহো	-11.1997
ৰচনো	-11.1998
▁ফলে	-11.1998
▁মন্দো	-11.1998
▁অঞ্ঞতিত্থিযা	-11.1999
▁সুরামেরয	-11.1999
▁উস্সুক্কং	-11.2
▁কিংকারণা	-11.2004
চন্দন	-11.2005
▁পিপাস	-11.2006
▁ভৰিস্স	-11.2007
▁নপ্পজহন্তি	-11.2007
রিযা	-11.2009
▁মূলানি	-11.2009
▁ব্যসন	-11.201
ূপমো	-11.201
▁চীৰরানি	-11.201
▁অধিট্ঠাতব্ব	-11.2012
▁পট্ট	-11.2013
▁অনেকানি	-11.2014
▁রম্মে	-11.2014
সংকিলেসিক	-11.2016
▁পরিমণ্ডল	-11.2016
নিপাতো	-11.2018
ভাজ	-11.2019
▁ছুপ	-11.202
▁অনোত্তপ্পং	-11.2022
▁উপক্কিলেস	-11.2022
▁সমথা	-11.2024
▁দীপেন্তি	-11.2026
▁নিস্সরণঞ্চ	-11.2026
▁অপদানে	-11.2028
▁পচ্চেকসম্বুদ্ধো	-11.2032
ৰচনতো	-11.2032
▁দজ্জা	-11.2033
াগন্ত্ৰা	-11.2034
▁২১৯	-11.2034
▁আভতং	-11.2035
▁পহারং	-11.2036
সেচন	-11.2037
▁ঠিতেন	-11.2038
▁তুৰ	-11.2041
স্	-11.2041
▁২৩৩	-11.2042
ত্তেপি	-11.2043
▁জলিত	-11.2044
▁অব্যাপাদ	-11.2044
হেতুদুকং	-11.2044
▁উভিন্নম্পি	-11.2044
▁মহীপতি	-11.2045
▁ৰিঞ্ঞাণে	-11.2045
উদ	-11.2047
ভাৰঞ্চ	-11.2047
▁ইত্থ	-11.2048
▁পুঞ্ঞকম্মেন	-11.2048
▁অতীতো	-11.2049
▁নিব্বানায	-11.205
▁নারিযো	-11.205
▁পরিক্খিপিত্ৰা	-11.205
▁অৰিতক্কং	-11.205
ভৰঙ্গ	-11.2051
▁ভযানক	-11.2051
ভাৰতোতি	-11.2052
অত্থে	-11.2052
▁দীপিতা	-11.2053
▁পঞ্চৰোকারানং	-11.2053
▁দণ্ডেন	-11.2053
▁ৰিভাৰেতি	-11.2055
সন্তো	-11.2056
▁অনুভৰিত্ৰা	-11.2056
▁ধোত	-11.2057
াপযি	-11.2058
▁গতিং	-11.2058
গাল়্হ	-11.206
অজ্ঝ	-11.206
▁সুচরিত	-11.206
▁ঘটেত্ৰা	-11.2063
▁পাযাসি	-11.2063
পত্তা	-11.2065
▁কুসলচিত্ত	-11.2067
লঙ্কার	-11.2068
ৰুট্ঠি	-11.2068
ৰিক্খেপ	-11.2076
সাত	-11.2077
▁অযোনিসোমনসিকার	-11.2081
▁অজানন্ত	-11.2082
প্পত্তি	-11.2083
পণিহিত	-11.2083
▁চীৰরেন	-11.2085
াদীনন্তি	-11.2085
▁পণিধীতি	-11.2087
▁নিরোধসচ্চং	-11.2087
▁সোতৰিঞ্ঞাণ	-11.2088
ক্কম্ম	-11.2088
▁পোথ	-11.2092
গুহ	-11.2093
▁অরূপাৰচরানং	-11.2094
াদিক	-11.2094
▁অনুপাদা	-11.2095
▁দানেন	-11.2096
▁উপকারক	-11.2096
▁নিগ্	-11.2096
▁ৰচ্চ	-11.2099
▁ভাৰনাময	-11.2099
▁সল়াযতনং	-11.21
▁ৰিমুত্তিযা	-11.21
য্যা	-11.2102
সম্মত	-11.2102
▁উপসন্তো	-11.2103
▁অগ্গিৰেস্সন	-11.2104
▁ধম্মসভাযং	-11.2104
▁যথাৰুত্তং	-11.2105
▁সমূহতা	-11.2106
▁পসারেত্ৰা	-11.2107
▁ধম্মৰিচযো	-11.2108
▁ৰিপচ্চ	-11.2109
▁সমিদ্ধ	-11.211
▁নিমন্তেত্ৰা	-11.211
জ্ঝায	-11.2112
দ্ধজ	-11.2112
েস্সামীতি	-11.2112
ক্খন্ধা	-11.2112
▁সেনাসনে	-11.2114
▁হন্তি	-11.2114
▁নিকায	-11.2114
▁সব্বনাম	-11.2119
▁অপরাধ	-11.2119
চেতনায	-11.212
▁১৯৯	-11.212
▁কীদিসং	-11.212
ভুজ	-11.2121
▁দক	-11.2121
মিচ্ছা	-11.2122
▁সব্বসত্তানং	-11.2126
▁দট্ঠুং	-11.213
▁সিযন্তি	-11.2132
▁তস	-11.2133
▁মঞ্ঞেয্য	-11.2134
▁খাদিত্ৰা	-11.2134
সালায	-11.2135
▁পটিক্খেপো	-11.2136
কমেৰ	-11.2136
▁উপাহন	-11.2137
▁হিতসুখ	-11.2139
▁আদান	-11.2139
▁আচর	-11.2141
কূটং	-11.2142
পরিযাদান	-11.2142
▁নোউপাদান	-11.2143
িতানং	-11.2143
পটল	-11.2147
ৰিনিচ্ছযং	-11.2147
থু	-11.2148
সংৰাস	-11.2148
গত্ত	-11.2148
▁ৰিভাগ	-11.2148
▁অনূন	-11.2149
েয্যাসী	-11.2149
িস্সরো	-11.2152
ধিকার	-11.2152
▁হায	-11.2152
▁সমণব্রাহ্মণানং	-11.2157
ঙ্করো	-11.2159
ামিস	-11.216
▁২০৪	-11.2162
াচরিযো	-11.2164
▁কুট	-11.2164
চ্চেৰ	-11.2164
▁বাহিয	-11.2165
▁২০১	-11.2165
▁ঘম্ম	-11.2165
▁আরোপে	-11.2165
▁অরোগো	-11.2165
ৰিসারদ	-11.2165
▁উপ্পতিত্ৰা	-11.2167
সদ	-11.2169
▁সারম্মণ	-11.2169
গমনেন	-11.217
▁২৩০	-11.2171
▁সংৰত্তন্তী	-11.2173
▁চাপ	-11.2179
▁ৰরো	-11.218
▁ধম্মরাজা	-11.218
উচ্চ	-11.218
▁অন্তরাযো	-11.2181
▁মাতঙ্গ	-11.2181
ৰিভত্ত	-11.2182
▁সামঞ্ঞতো	-11.2183
▁অৰেক্খ	-11.2183
▁সাৰকে	-11.2184
▁গন্ধকুটি	-11.2186
▁কারুঞ্ঞ	-11.2187
▁কাকো	-11.219
▁এত্তকমেৰ	-11.219
নকং	-11.219
ধাতুযো	-11.2192
ৰিৰিত্ত	-11.2192
▁পরেন	-11.2194
▁অপ্পৰত্ত	-11.2194
▁ৰিব্ভম	-11.2196
যতী	-11.2196
প্পদেসে	-11.2196
▁ৰিনোদ	-11.2197
▁ৰিকির	-11.2198
▁সব্বসঙ্খার	-11.2198
কির	-11.2199
▁অপরম্পি	-11.2201
▁জীয	-11.2201
▁২১২	-11.2202
▁ফুট্ঠস্স	-11.2204
পদা	-11.2204
িন্দ্রিযানি	-11.2205
▁সিঙ্গ	-11.2205
লব্ভ	-11.2206
সমন্নাগতো	-11.2206
নেতং	-11.2208
▁অজ্ঝাৰস	-11.2209
▁সীহনাদ	-11.221
▁দোসস্স	-11.221
▁একৰীসতি	-11.2212
▁কম্মৰাচায	-11.2214
▁ৰিজানাতি	-11.2216
▁২১১	-11.2217
উম্ম	-11.2218
▁২২৫	-11.2219
▁পুচ্ছিতা	-11.222
▁পৰত্তত্তা	-11.222
▁কারণন্তি	-11.2222
▁চোল়	-11.2222
▁কুটিং	-11.2223
▁২১৪	-11.2223
পথো	-11.2224
▁আরামং	-11.2224
▁যাৰততিযং	-11.2224
▁ৰিঞ্ঞাতব্বো	-11.2224
▁গুন্নং	-11.2224
▁সুত্তানি	-11.2225
নিস্সিতো	-11.2225
▁আরুল়্হ	-11.2227
▁ৰস্সে	-11.2227
মদো	-11.2228
চত্তারিমানি	-11.2228
▁ৰৰত্থপেতি	-11.2229
▁অত্তহিতায	-11.223
▁পিত্ত	-11.223
▁ৰক্ক	-11.2231
ৰোহারেন	-11.2232
▁উদাহরণ	-11.2232
াচ	-11.2233
▁২২৯	-11.2233
▁ব্যসনং	-11.2236
▁মগ্গসচ্চঞ্চ	-11.2237
▁পতিরূপ	-11.2238
▁২২৪	-11.2239
▁চাহং	-11.2241
পরিযাপন্নো	-11.2243
▁২২৬	-11.2244
▁২০২	-11.2244
▁এতিস্সা	-11.2246
▁কুসলঞ্চ	-11.2247
▁সচিত্তক	-11.2251
▁দস্সনীয	-11.2251
▁সব্বঞ্ঞুতঞ্ঞাণং	-11.2251
প্পচ্চযা	-11.2251
▁২৩২	-11.2252
ল়ার	-11.2252
▁ৰক্খামি	-11.2253
▁অহিতায	-11.2254
▁নাল়ি	-11.2255
▁ৰিচরতি	-11.2255
িতেন	-11.2256
মদ্দন	-11.2256
ুণ	-11.2257
▁গণ্হতো	-11.2259
▁অপরিপুণ্ণ	-11.2259
▁ৰদে	-11.226
▁আতপ	-11.2261
▁ধুন	-11.2261
▁তদনু	-11.2261
▁পাদেসু	-11.2262
▁অন্ধকারে	-11.2262
▁পরামাসো	-11.2262
ভাৰেনাতি	-11.2264
▁অধিমোক্খো	-11.2266
কম্মন্তি	-11.2266
▁ফলদান	-11.2267
▁অপ্পমত্তা	-11.2268
▁অন্তরং	-11.2269
নিদ্দিট্ঠ	-11.2269
▁অরূপাৰচরং	-11.227
▁আজীৰক	-11.2271
▁ফোট্ঠব্বা	-11.2272
▁পীতিসম্বোজ্ঝঙ্গ	-11.2272
যোগ্গ	-11.2272
তাৰ	-11.2272
বদ্ধো	-11.2273
▁ইতীতি	-11.2273
▁ৰলাহক	-11.2273
▁২১৭	-11.2278
স্সরো	-11.2279
হতো	-11.228
▁ভরিযায	-11.228
াদিৰণ্ণনা	-11.2283
দ্ধা	-11.2283
▁সম্পটিচ্ছন	-11.2283
িসু	-11.2283
একো	-11.2285
▁পরিভুঞ্জিতব্ব	-11.2286
▁সমিদ্ধি	-11.2288
▁হঞ্ঞ	-11.2288
▁নিম্ম	-11.2289
▁নিসীদাপেত্ৰা	-11.2289
▁অযমাযস্মা	-11.2291
▁মহাপথৰী	-11.2291
▁কুট্ঠ	-11.2292
▁ৰিসাখে	-11.2293
▁তূরিয	-11.2294
▁সমাদিযিত্ৰা	-11.2294
▁ৰিৰদ	-11.2294
▁দসাতি	-11.2297
উতু	-11.2299
▁দ্ৰিত্তং	-11.2299
▁পভাস	-11.2305
▁অনুসন্ধি	-11.2305
▁সীলে	-11.2306
▁পিহিত	-11.2307
▁ড	-11.2307
অত্থো	-11.2308
▁সম্মাসম্বোধিং	-11.231
▁নযিদং	-11.231
▁সঞ্চরিত্ত	-11.2314
▁উক্খিত্তক	-11.2314
ন্তেৰ	-11.2314
▁উত্ত	-11.2315
▁মজ্ঝিমা	-11.2315
▁লেণ	-11.2315
হতং	-11.2318
ৰত্থূ	-11.2318
▁পাতি	-11.2318
▁সঙ্গণ্হ	-11.2319
▁নিদ্দা	-11.2319
▁সুদিন্ন	-11.2319
▁দেসেতব্ব	-11.2322
▁মহন্তে	-11.2322
▁সম্মস	-11.2322
▁দাসো	-11.2325
সঙ্কেত	-11.2325
▁কোটিসতসহস্স	-11.2326
▁অভিন্ন	-11.2327
পাদা	-11.2327
▁২২২	-11.2332
▁সপরিৰার	-11.2333
সূর	-11.2334
ুস্সদ	-11.2337
▁নিক্খমতি	-11.2338
▁কিত্তাৰতা	-11.234
▁ভগ	-11.234
উপ্পন্ন	-11.2341
▁সোযেৰ	-11.2341
▁পপঞ্চসূদনিযা	-11.2346
কিলেসো	-11.2347
▁পটিলাভো	-11.2347
▁সদিসা	-11.2347
▁অহিত	-11.2348
▁পঞ্চকামগুণ	-11.2349
▁আৰসথ	-11.2351
▁ৰণ্ণৰাদী	-11.2351
▁বোধিপক্খিয	-11.2352
▁ভাসিস্সামী	-11.2353
▁নোপরামাস	-11.2353
▁পেক্খমানো	-11.2353
▁২৪০	-11.2354
▁উপপজ্জেয্য	-11.2357
▁ইদ্ধ	-11.2358
▁২২৩	-11.2358
▁তাৰকালিক	-11.2358
▁পুচ্ছিংসু	-11.2361
▁করণীযেন	-11.2361
▁সঙ্গহেত্ৰা	-11.2361
▁ৰিজ্ঝিত্ৰা	-11.2362
পারুত	-11.2362
▁২২১	-11.2364
▁যত্তক	-11.2366
ৰিলাস	-11.2367
মহাপুরিসলক্খণ	-11.2369
▁অগ্গসাৰক	-11.237
▁পহিতত্তো	-11.237
▁পরিসাসু	-11.237
▁২৩৫	-11.237
গং	-11.2371
▁ৰত্তমানা	-11.2371
▁কপিল	-11.2371
ৰতিযা	-11.2371
তরে	-11.2372
▁পরিৰেণ	-11.2373
▁ধুরনিক্খেপ	-11.2377
▁পতিত্ৰা	-11.2377
ৰিল	-11.2378
▁ভোতি	-11.2378
চ্ছাদন	-11.2379
মত্তন্তি	-11.2379
▁অপ্পসদ্দ	-11.2381
▁দুট্ঠুল্ল	-11.2382
▁এৰরূপ	-11.2383
পযোগে	-11.2385
মুগ্গ	-11.2385
▁আভা	-11.2386
নিৰেসন	-11.2387
▁অহুং	-11.2387
▁উগ্গহিত	-11.2388
ডি	-11.239
ব্ভন্তর	-11.2393
▁পটিচ্চসমুপ্পাদো	-11.2393
▁পাপকো	-11.2394
▁ঠপেতব্ব	-11.2399
গরুক	-11.2399
▁অগ্গিক্খন্ধ	-11.24
▁জীৰিকং	-11.2405
▁লিচ্ছৰি	-11.2407
পচ্চনীযানুলোমং	-11.2407
▁পাতুরহোসি	-11.2407
▁গু	-11.2408
▁জাতিজরামরণ	-11.2408
▁নপ্পজহতীতি	-11.2409
▁যত্তকং	-11.2409
চক্কৰাল়	-11.241
েন্তেন	-11.2412
▁মোঘ	-11.2414
পভেদ	-11.2414
▁উপট্ঠাকো	-11.2416
ুম	-11.2416
▁কিল	-11.2417
ল্য	-11.2419
▁সুণন্তি	-11.2419
পচ্চযেন	-11.2419
▁আনেঞ্জ	-11.2419
▁এসনা	-11.2419
▁নপ্পটি	-11.242
▁২২৭	-11.2421
সেৰিত	-11.2423
▁অত্তাতি	-11.2423
প্পযোজন	-11.2423
ত্থিকা	-11.2424
সদ্দতো	-11.2425
▁নোনীৰরণ	-11.2426
ুব্ভ	-11.2427
▁ৰিদিত	-11.2428
▁ৰিঞ্ঞেয্যং	-11.2429
▁অজানন্তস্স	-11.2432
ইত্থি	-11.2433
▁মুত	-11.2433
ধজ	-11.2433
সনং	-11.2434
সমুদয	-11.2435
নত্থো	-11.2437
▁অনাথ	-11.2437
ধিপ্পেত	-11.2437
রিত	-11.2438
▁ইমাসং	-11.2438
▁আসৰসম্পযুত্তো	-11.2439
▁পব্বজিতস্স	-11.244
▁অগ্গে	-11.2441
মযে	-11.2441
▁অপ্পেৰ	-11.2441
লোকং	-11.2442
▁সাধন	-11.2443
▁মিত	-11.2443
▁অগ্গিনা	-11.2443
রিত্ৰা	-11.2444
নুলোমপচ্চনীযং	-11.2446
▁নিট্ঠং	-11.2448
ৰন্দন	-11.2449
▁ৰিসাল	-11.2449
▁কোট্ঠাসো	-11.2454
▁২৩৯	-11.2455
▁ৰুট্ঠানস্স	-11.2457
▁রি	-11.2458
োকাসং	-11.2458
▁নিসীদিতব্বং	-11.2458
▁মদ্দি	-11.2459
▁জীৰিতে	-11.2459
▁পরিক্খীণ	-11.246
▁পৰারণং	-11.2462
মিচ্চেৰ	-11.2462
ন্থ	-11.2463
▁পতিট্ঠাপে	-11.2466
বাহির	-11.2466
▁কুণপ	-11.2466
▁আচরিযুপজ্ঝায	-11.2469
▁সুখৰিপাক	-11.2469
▁ৰিধম	-11.247
▁পুরিসপুগ্গলো	-11.2472
▁জানাহি	-11.2472
▁ভৰিস্সামী	-11.2473
▁সমে	-11.2473
বন্ধু	-11.2474
সূপ	-11.2475
সমুদযং	-11.2476
▁রাজকুল	-11.2476
▁চিত্তচেতসিকা	-11.2477
ব্যসন	-11.2478
▁পদা	-11.2478
মণ্ড	-11.2479
▁দাতু	-11.2479
গম্ম	-11.248
▁সরং	-11.248
▁সঠ	-11.2481
▁অরিযপুগ্গল	-11.2482
সেক্খ	-11.2483
▁সহসেয্য	-11.2484
▁একৰিধেন	-11.2485
▁ৰত্তব্বমেৰ	-11.2485
▁আপুচ্ছিত্ৰা	-11.2486
▁আৰরণ	-11.2487
▁পুঞ্ঞেন	-11.2488
▁আরোচেতি	-11.2489
▁কুদাস্সু	-11.2492
▁সঞ্জানাতি	-11.2493
▁অনুপসম্পন্ন	-11.2493
▁দুহেতুক	-11.2493
ৰিতান	-11.2498
▁গণো	-11.2501
▁নিয্যাত	-11.2501
াদিভাৰেন	-11.2504
মরিযাদ	-11.2504
▁মহতী	-11.2508
বহূ	-11.2508
ৰসং	-11.2513
▁সারিপুত্তত্থের	-11.2513
▁ৰিহেস	-11.2513
▁গোত্রভুস্স	-11.2514
▁ৰিঞ্ঞেয্যো	-11.2515
▁পুনপ্পুন	-11.2517
▁অচ্চি	-11.2518
▁ভাৰেন	-11.2519
িকোতি	-11.2519
তাদীহি	-11.2521
হেতুতো	-11.2521
▁সম্বোধায	-11.2522
পচ্ছিমচিত্তস্স	-11.2524
ভুয্য	-11.2524
▁সতিপট্ঠানে	-11.2526
▁ৰুদ্ধিং	-11.2527
▁সম্পদা	-11.2528
▁পচিত্ৰা	-11.2528
সমুগ্ঘাত	-11.2528
ইচ্চেৰ	-11.253
▁ৰিক্খেপ	-11.253
▁পৰত্তিযং	-11.2531
মিত	-11.2532
▁বাল়্হ	-11.2532
▁পরিগ্গহো	-11.2533
▁উপাগমি	-11.2533
ৰিপস্সনায	-11.2534
▁কোট্ঠ	-11.2534
▁পব্বজিস্সামি	-11.2536
▁ইদ্ধিৰিধ	-11.2536
▁নিৰেসন	-11.2536
ৰিসুদ্ধ	-11.2536
▁ধিতি	-11.2536
পতী	-11.2537
▁উক্কণ্ঠ	-11.2537
▁অগ্গমগ্গসমঙ্গী	-11.2537
▁পাসাদো	-11.2537
▁তণ্হক্খয	-11.2538
▁করোমী	-11.2538
ৰিসযত্তা	-11.2538
▁অকুসলৰিপাক	-11.2539
নিপ্ফাদন	-11.2541
ভরিত	-11.2543
াসৰ	-11.2543
ৰিসেসা	-11.2543
পটিঞ্ঞং	-11.2545
পব্বতে	-11.2545
▁দাসী	-11.2548
পরং	-11.255
▁ৰিৰাদাধিকরণং	-11.2551
▁গীৰা	-11.2552
▁মরণেন	-11.2553
খীর	-11.2554
তীরে	-11.2556
▁২৩১	-11.2556
▁লদ্ধনাম	-11.2559
▁চতুরঙ্গ	-11.256
িদ	-11.2564
রঞ্ঞ	-11.2564
▁অচেতসিক	-11.2564
▁পস্সসি	-11.2564
▁যথাপি	-11.2566
▁দ্ৰেধা	-11.2568
▁মনোৰিঞ্ঞাণ	-11.257
▁মহগ্গতো	-11.2571
েস্সতী	-11.2573
জ্ঝা	-11.2576
▁অট্ঠিক	-11.2576
▁পটিপত্তিং	-11.2577
ভিন্দ	-11.2577
▁সব্বতো	-11.258
▁কাসাৰ	-11.258
▁নগরস্স	-11.258
অস	-11.2581
পরিদীপন	-11.2581
▁হতো	-11.2584
পুরিসা	-11.2585
গব্ভো	-11.2589
▁কুসলাব্যাকত	-11.2591
▁পটিভানপটিসম্ভিদ	-11.2591
গ্গহণে	-11.2592
▁পব্বাজেতব্বো	-11.2595
▁পঠমপারাজিক	-11.2597
াহারো	-11.2597
▁ৰুত্তনযত্তা	-11.2599
▁দম্মি	-11.2599
▁তেযেৰ	-11.2599
▁পচ্চুপ্পন্না	-11.2601
▁চিন্তা	-11.2602
▁সউত্তর	-11.2602
▁রথেসভ	-11.2604
সত্থু	-11.2605
▁পুট	-11.2605
▁তাদিসস্স	-11.2606
▁ৰিরোচতি	-11.2607
▁পাদো	-11.2607
▁দুল্লভো	-11.2608
▁কারণে	-11.2609
▁সমুদযসচ্চঞ্চ	-11.2609
▁ৰিসাখা	-11.2609
▁পরিহার	-11.261
মজ্ঝত্ত	-11.2611
▁কম্মফল	-11.2611
▁সংৰচ্ছর	-11.2615
▁পাণিনো	-11.2615
▁অনুস্সতি	-11.2616
▁মনুস্সভূতা	-11.2618
▁সমাসে	-11.2619
▁মাতুগামেন	-11.2619
▁অক	-11.262
ইচ্চ	-11.262
▁অস্সদ্ধিয	-11.2621
▁নদাদি	-11.2622
▁উদ্দ	-11.2623
ৰিসযা	-11.2624
▁জেতৰনং	-11.2626
▁পরিক্খারো	-11.2626
▁দিট্ঠিগতানং	-11.2626
িহ	-11.2627
▁মহাসমুদ্দো	-11.2628
▁পারাজিকা	-11.2629
▁মগ্গহেতুক	-11.263
▁ৰত্তা	-11.2633
▁মোক্খো	-11.2634
‘‘	-11.2634
▁সম্মাসম্বুদ্ধা	-11.2634
াৰি	-11.2634
াভিসঙ্খার	-11.2637
▁দেয্যধম্ম	-11.2639
▁খীযতি	-11.2639
পরিব্বাজক	-11.264
অচ্ছরিযং	-11.2641
▁ভৰরাগানুসয	-11.2641
▁খণিক	-11.2641
▁সমুট্ঠাপ	-11.2641
▁অখণ্ড	-11.2644
▁সরীরস্স	-11.2645
▁সচ্চানং	-11.2646
▁জিনং	-11.2648
▁পৰেদ	-11.2648
▁লচ্ছ	-11.265
▁কুলপুত্তা	-11.265
▁অনুরক্খ	-11.265
পূতি	-11.2651
▁উপ্পজ্জন	-11.2653
এসো	-11.2653
▁অৰস্স	-11.2653
▁সচ্ছিকিরিযা	-11.2655
▁পণিধি	-11.2655
▁ব্যত্তেন	-11.2655
▁কিস্মিঞ্চি	-11.2655
▁সন্তিট্ঠতি	-11.2656
▁অযঞ্হেত্থ	-11.2656
▁ঝানঙ্গ	-11.2659
নমো	-11.2659
▁উপৰস	-11.2659
প্পযোগো	-11.266
▁পট্ঠপেত্ৰা	-11.2661
গামিনী	-11.2663
▁সুত্তেসু	-11.2663
▁ধারেন্ত	-11.2664
▁সাসৰো	-11.2665
▁সারত্তো	-11.2665
▁পকাসেসি	-11.2665
যামি	-11.2666
▁নিরা	-11.2667
▁ৰাতেন	-11.2667
▁পেমং	-11.2667
▁কারণভূত	-11.2668
▁রোহণ	-11.2668
▁গব্ভং	-11.2669
ভাৰিত	-11.2669
▁খন্তিং	-11.2669
▁অরহতীতি	-11.267
▁সীতং	-11.2671
▁সমাপত্তিযা	-11.2674
▁পত্থনায	-11.2676
▁পীতিসহগতো	-11.2677
▁সিথিল	-11.2677
ব্রহ্মা	-11.2677
▁সম্মজ্জ	-11.268
▁দুব্ভিক্খ	-11.268
▁সানুসযোতি	-11.268
▁ধম্মিকং	-11.268
▁ৰিসেসেত্ৰা	-11.2682
▁রুচি	-11.2686
▁মহগ্গতং	-11.2686
▁সম্পজ্জ	-11.2687
▁সীমায	-11.2687
▁দুক্খসচ্চঞ্চ	-11.2687
▁গন্থৰিপ্পযুত্ত	-11.2688
▁সূরিযে	-11.2689
▁যকার	-11.2689
সম্মতো	-11.2689
▁মঞ্ঞন্তি	-11.269
▁অভিরম	-11.269
অনন্তর	-11.2693
াসনং	-11.2693
▁অথোপি	-11.2693
▁নিসজ্জায	-11.2693
েকো	-11.2694
▁পদেসং	-11.2696
▁ৰম্মিক	-11.2698
ৰাসীনং	-11.2699
ৰিরতি	-11.2699
▁সদিসং	-11.27
▁উপসম্পাদে	-11.2703
দোসা	-11.2704
▁সম্মত্ত	-11.2705
তাল়	-11.2706
▁সমুদাচর	-11.2708
দেৰী	-11.2708
চম্মং	-11.2708
ক্খম	-11.2709
ৰ্হে	-11.2709
▁তদহু	-11.2711
▁নামিকপদমালা	-11.2712
কহাপণ	-11.2713
▁ৰযপ্পত্তো	-11.2713
▁ভাৰনং	-11.2715
▁২৪২	-11.2717
চতুন্নৰুতি	-11.2719
▁পটিস্সুত্ৰা	-11.2719
▁অন্তলিক্খে	-11.2721
▁পরদার	-11.2723
সরিক্খ	-11.2723
▁পামোজ্জ	-11.2724
▁থু	-11.2728
▁হেস	-11.2733
ব্ভৰ	-11.2733
▁গণ্হিতুং	-11.2733
▁ৰিৰিধা	-11.2733
▁ইধাৰুসো	-11.2734
সুক্ক	-11.2735
▁ভগৰন্ত	-11.2741
▁নানাকরণং	-11.2741
▁নিচ্চল	-11.2743
▁উপাসকং	-11.2743
নিরুত্তি	-11.2745
▁মহাৰিহার	-11.2746
▁সস্সতদিট্ঠি	-11.2747
ভক্খো	-11.2752
▁পতিট্ঠান	-11.2753
▁পমত্ত	-11.2754
▁অভ	-11.2754
▁পব্বজ্জায	-11.2755
▁চতুব্বিধা	-11.2755
দন্তি	-11.2756
▁নারদ	-11.2756
কামং	-11.2764
▁গমিস্সতি	-11.2765
▁পরলোকে	-11.2766
মনোরথ	-11.2766
▁উপাদারূপ	-11.2766
▁ইন্দ্রিযসংৰর	-11.277
▁ৰুত্তলক্খণ	-11.2777
▁মুদ্ধ	-11.2778
ৰিৰাদ	-11.2778
▁অনাগতারম্মণ	-11.278
লাবু	-11.2781
ন্তূতি	-11.2781
▁নপ্পজানন্তি	-11.2783
পাৰুরণ	-11.2783
▁ৰিচক্খণো	-11.2784
ঞ্জলি	-11.2784
▁দ্ৰিক্খত্তুং	-11.2785
▁তিচীৰর	-11.2786
▁তস্মিঞ্চ	-11.2786
ব্যাধি	-11.2786
▁নিৰার	-11.2786
▁সংসযো	-11.2787
▁দুগ্গ	-11.2787
▁কী	-11.2788
▁মানত্ত	-11.2788
▁ৰিহিত	-11.2789
▁ফোট্ঠব্বং	-11.2789
▁একেকস্স	-11.2789
সূচি	-11.2789
▁২৪১	-11.2789
চল	-11.2791
▁ৰিপ্পমুত্ত	-11.2792
▁কতকিচ্চ	-11.2794
সীম	-11.2795
সঙ্খাতানং	-11.2795
ৰাচায	-11.2797
সঙ্গহং	-11.2798
▁পজহন্তো	-11.2803
ক্খেপ	-11.2804
▁অনুপ্পত্তা	-11.2808
সমত্থতা	-11.2808
▁অসাত	-11.2808
▁বারাণসি	-11.2809
চরিযায	-11.2809
▁লাভসক্কারসিলোক	-11.281
▁যদেৰ	-11.281
▁দেন্ত	-11.281
ভাজনং	-11.2811
▁দ্ৰয	-11.2811
কিরিযং	-11.2813
নিব্ব	-11.2814
▁ভৰনং	-11.2814
▁সেতু	-11.2816
▁ৰিঞ্ঞাপেতি	-11.2817
▁মলং	-11.2819
মূলা	-11.2821
সারং	-11.2822
▁হোতূতি	-11.2822
▁উণ্হং	-11.2823
▁সঙ্খতং	-11.2825
▁ইন্দ্রিযন্তি	-11.2828
ৰিঞ্ঞাণং	-11.2829
▁সমাধিনা	-11.283
▁অপরিযাপন্না	-11.283
মযি	-11.283
বলৰ	-11.2832
▁পচ্চৰেক্খ	-11.2833
▁পরিযোসানে	-11.2833
▁হরন্তি	-11.2834
▁কথিনুদ্ধারো	-11.2835
▁রূপধম্ম	-11.284
মেৰা	-11.2842
লোল	-11.2845
▁মরণস্স	-11.2845
▁দর	-11.2845
▁অনাসৰ	-11.2845
দস্সনা	-11.2846
ইতিপি	-11.2846
স্সামীতি	-11.2847
▁ইস্সরিযং	-11.2847
▁সদ্দাযতনং	-11.2847
▁সণ্ঠাতি	-11.2847
▁ৰিযাকাসি	-11.2848
ৰাণিজ	-11.2849
▁দলিদ্দ	-11.2849
▁উপট্ঠপেত্ৰা	-11.285
▁পাপে	-11.285
সাসনে	-11.2851
মূলকে	-11.2852
▁সঙ্খারুপেক্খা	-11.2852
▁হু	-11.2852
▁পৰিৰিত্ত	-11.2852
ৰিপাকো	-11.2853
▁তূল	-11.2853
▁আসা	-11.2854
▁ব্রহ্মচরিযৰাসো	-11.2854
▁পথৰীকসিণ	-11.2855
▁জানিতুং	-11.2855
▁যথাসম্ভৰং	-11.2857
ৰসেনপি	-11.2859
ক্খেত্ত	-11.2859
মনুসাস	-11.286
াহরণ	-11.2863
▁ৰন্দে	-11.2863
▁রোপ	-11.2863
▁পচ্চুপ্পন্নে	-11.2866
▁ইত্থিপুরিস	-11.2866
▁এৰরূপস্স	-11.2867
▁সত্থুসাসন	-11.2867
অনিদস্সনসপ্পটিঘো	-11.2867
▁পিণ্ডপাতো	-11.2868
▁মাসো	-11.2869
▁পচ্ছাজাতে	-11.2869
▁জপ্প	-11.2872
▁কথন্তি	-11.2873
▁হরি	-11.2873
▁অচ্ছাদ	-11.2874
রত্তি	-11.2874
দ্ৰেমে	-11.2875
ৰিমানৰণ্ণনা	-11.2877
▁অজ্জেৰ	-11.2877
▁ছেকো	-11.2877
▁মিগো	-11.2881
পৰারণা	-11.2881
▁বুদ্ধোতি	-11.2881
পরিঞ্ঞা	-11.2882
▁ফুট	-11.2885
▁ৰচনত্থং	-11.2887
▁পরামাসসম্পযুত্ত	-11.2888
▁দুপ্পঞ্ঞো	-11.2898
ৰস্সো	-11.2898
উপনিস্সয	-11.2902
াধিট্ঠানং	-11.2902
▁ৰিক্খম্ভন	-11.2907
ৰিনীত	-11.2908
▁তপ্পচ্চযা	-11.2909
নিট্ঠ	-11.291
▁রুপ্পন	-11.2911
▁রূপারম্মণং	-11.2911
▁অনৰকাসো	-11.2912
▁নঅরূপাৰচর	-11.2912
▁পসন্নমানসো	-11.2912
সনে	-11.2913
▁কথন	-11.2913
▁সমাপন্ন	-11.2913
▁অঞ্ঞাতিকায	-11.2913
▁গন্ধাযতনং	-11.2913
ধাতূ	-11.2914
▁অরুণুগ্গমন	-11.2915
▁মচ্ছরিযং	-11.2916
▁পতিতং	-11.2917
▁ইতরথা	-11.2917
▁পটিবলেন	-11.2918
▁পৰার	-11.292
মক	-11.2921
▁মনোকম্মং	-11.2921
▁সব্বকাম	-11.2921
▁যক্খা	-11.2921
মানত্ত	-11.2922
সন্ধ	-11.2922
▁অপ্পত্ৰা	-11.2922
▁আরা	-11.2923
াতিআদীসু	-11.2923
নৰক	-11.2924
রিতং	-11.2927
▁নুত্থ	-11.2927
াভিমুখো	-11.2928
▁ৰিনাপি	-11.293
▁কম্মজ	-11.293
▁দিট্ঠধম্ম	-11.2934
▁সংসন্দ	-11.2935
সংৰণ্ণনায	-11.2937
ুত	-11.2937
আদেসো	-11.294
ভাসা	-11.2941
▁আকাসধাতু	-11.2941
ানো	-11.2942
▁অনোকাস	-11.2945
▁সাসপ	-11.2946
মারো	-11.2946
▁কলহং	-11.2946
অট্ঠানমেতং	-11.2948
▁দুব্ভ	-11.2948
▁বহুৰিধ	-11.2948
াধিপ	-11.2948
▁ছন্নো	-11.2949
▁মত্থক	-11.295
স্মী	-11.295
▁অস্সমে	-11.2952
েয্যু	-11.2954
▁সমত্তং	-11.2955
ভগ্গ	-11.2957
▁চিত্তেকগ্গতা	-11.2957
▁ধোৰন	-11.2959
মত্তানং	-11.2963
▁সংৰিদহ	-11.2964
▁ৰিক্খম্ভিত	-11.2964
▁সপ্পুরিসা	-11.2964
▁লিঙ্গং	-11.2967
সক্কো	-11.2971
▁অরুণ	-11.2973
▁নিব্বুত	-11.2973
▁ৰগ্গু	-11.2975
সরূপ	-11.2977
▁অসম্ভিন্ন	-11.2977
▁মুয্হ	-11.2977
▁অনাৰিল	-11.2977
▁কাযসুচরিত	-11.2978
▁পুচ্ছায	-11.2978
▁পঞ্চৰোকারং	-11.2978
▁ভোজনানি	-11.2979
তুম্হাকং	-11.2982
কুলপুত্ত	-11.2984
ঞাত	-11.2985
▁অনত্থং	-11.2986
ক্রিয	-11.2987
▁কপ্পেসি	-11.2988
▁অরহতং	-11.2989
জনো	-11.2992
▁ভৰন্তীতি	-11.2992
▁ভাগো	-11.2994
▁ঞাণদস্সন	-11.2994
▁ওদনং	-11.2995
নিৰত্তি	-11.2995
▁পৰত্তিতং	-11.2995
▁গদ্রভ	-11.2996
▁ত্ৰঞ্চ	-11.2997
▁সংৰত্ততী	-11.2997
করোতি	-11.2997
ত্তম	-11.2997
▁সচ্ছিকরোতি	-11.2998
ূপমং	-11.2998
▁পঠমমেৰ	-11.2998
ণ্ণো	-11.2999
▁বন্ধনা	-11.2999
মিচ্চ	-11.3003
▁অভিসমযো	-11.3006
▁কপণ	-11.3006
▁কুমারং	-11.3007
▁পব্বতা	-11.3011
জয	-11.3011
▁সমযা	-11.3012
▁ৰেপুল্ল	-11.3012
▁কদ্দম	-11.3013
▁ভাযি	-11.3013
▁কিত	-11.3014
▁পজান	-11.3014
▁পৰারণ	-11.3015
▁উভোহি	-11.3015
▁গণং	-11.3016
ঞাণস্স	-11.3016
▁অভিভূ	-11.3017
▁ভযতো	-11.3017
▁যাথাৰ	-11.3017
▁কঙ্খং	-11.3018
▁অন্তরাযা	-11.3019
পরিযোসানা	-11.3019
▁সেয্যা	-11.3019
▁অভূতং	-11.3021
▁নযা	-11.3021
দব্ব	-11.3022
▁দেসয	-11.3023
গ্গহণেনেৰ	-11.3024
পরিৰত্তন	-11.3025
▁চজ	-11.3028
▁দোণ	-11.3029
▁অঞ্ঞতো	-11.3029
▁ওভাসো	-11.303
▁যম্হি	-11.3031
▁ঞা	-11.3039
▁খুজ্জ	-11.3042
▁পচ্চনীযুদ্ধারো	-11.3042
▁সমোধানপরিৰাস	-11.3042
▁অলজ্জী	-11.3042
▁নেসাদ	-11.3043
াৰহং	-11.3046
▁পীতিসহগতা	-11.3047
কৰাট	-11.3048
▁স্মা	-11.3048
▁ভজন্তি	-11.305
পুত্তং	-11.3051
▁তস্মাতিহ	-11.3055
▁অসোক	-11.3056
যন্ত	-11.3057
▁করিংসু	-11.3057
▁পরিত্তা	-11.3057
▁ক্য	-11.3059
খল	-11.3059
ুপ্পল	-11.3059
▁দীপেন্তো	-11.306
▁দযা	-11.3061
▁সমাধিযতি	-11.3062
▁দিট্ঠেন	-11.3063
▁সব্বাৰ	-11.3064
▁নিমন্তিতো	-11.3065
গণনা	-11.3065
সূকর	-11.3066
▁তুট্ঠি	-11.307
▁তিট্ঠন্ত	-11.3072
▁সুদস্সন	-11.3073
মিদ	-11.3073
ৰসি	-11.3075
▁একদিৰস	-11.3076
▁দীপয	-11.3076
রণে	-11.3076
▁নৰত্তব্ব	-11.3076
▁মহাকস্সপো	-11.3077
▁দুক্খৰিপাক	-11.3077
▁নিদ্দায	-11.3078
পূজা	-11.3078
ৰিনিবন্ধ	-11.308
▁সম্মুখাৰিনযো	-11.3081
োদয	-11.3082
সমাযোগ	-11.3082
নন্ত	-11.3082
▁রম্মং	-11.3082
▁সল	-11.3084
▁অধিগচ্ছ	-11.3084
▁ৰিনযকম্ম	-11.3084
অঞ্ঞমঞ্ঞপচ্চযেন	-11.3085
চাল	-11.3086
▁যাযং	-11.3086
ৰিক্খম্ভ	-11.3088
▁ছিন্দতি	-11.3088
▁সুদ্ধো	-11.3088
মনুযুত্তো	-11.309
আপত্তি	-11.3091
▁ৰিরজ্জতি	-11.3091
▁সব্বঞ্চ	-11.3092
▁পাটিহারিযং	-11.3092
দ্দু	-11.3093
ঙ্গানি	-11.3093
পিতা	-11.3093
▁গাথাসু	-11.3095
▁নাগরাজ	-11.3096
▁সুভা	-11.3098
লক্খ	-11.3099
▁পোসে	-11.31
▁পচ্ছিমস্স	-11.31
▁অজ্ঝোহর	-11.3101
▁সামণেরস্স	-11.3102
▁কারযি	-11.3103
খো	-11.3103
▁অনুপ্প	-11.3103
▁মধুরং	-11.3104
▁মত্তা	-11.3105
▁কাযসংসগ্গ	-11.3105
▁অরিযায	-11.3105
▁মহেসক্খ	-11.3108
▁দিয্যমান	-11.3108
▁নঅনাসৰ	-11.3108
▁মহাসুদস্সন	-11.3108
▁পাপুণিংসূতি	-11.3109
▁দাঠ	-11.3109
প্পসন্ন	-11.3109
অল	-11.311
▁ৰুত্তোযেৰ	-11.311
▁উপগতা	-11.3111
▁দেৰতে	-11.3111
▁অরূপসঞ্ঞী	-11.3112
পুথুজ্জন	-11.3112
▁যমহং	-11.3115
ৰিজয	-11.3118
ক্কোস	-11.312
▁সক্কং	-11.312
ত্তন্তি	-11.3121
▁একধম্ম	-11.3122
▁পতিরূপং	-11.3123
▁নিব্বত্তং	-11.3123
টং	-11.3123
▁ৰিস্সজ্জেতি	-11.3126
▁মাপেত্ৰা	-11.3127
কণ্হ	-11.3127
▁কচ্চাযন	-11.3128
াযু	-11.3128
▁পুচ্ছিত	-11.3129
▁দস্সামি	-11.313
ৰধ	-11.313
▁দ্ৰীহ	-11.3132
▁অগ্গী	-11.3134
▁দ্ৰ	-11.3137
▁সুখিতা	-11.3137
জ্ঝো	-11.3137
লপ	-11.3137
দ্ৰ	-11.3138
নিযামেন	-11.3139
▁কোসলো	-11.3139
▁উরগ	-11.3139
▁মগ্গঙ্গং	-11.3141
▁নিয্যাতি	-11.3141
দীপনা	-11.3142
▁ঝানপচ্চয	-11.3143
▁আঘাতো	-11.3143
ৰিসেসে	-11.3147
▁অহূ	-11.3149
খ্য	-11.3149
▁পগ্গহেত্ৰা	-11.3154
ৰেলায	-11.3154
▁কীল়া	-11.3154
ামা	-11.3155
ভাৰদস্সন	-11.3155
সুক্কৰিস্সট্ঠিযা	-11.3157
▁আণাপ	-11.3157
প্পত্তিযা	-11.316
▁নিব্বিদায	-11.316
ৰিভাৰ	-11.3162
▁পুব্বন্ত	-11.3162
▁গিলানা	-11.3163
▁ৰিঞ্ঞাণন্তি	-11.3164
▁জাতরূপ	-11.3165
▁অতিসয	-11.317
▁অনুমোদনং	-11.3171
▁যুৰা	-11.3172
▁সামঞ্ঞফল	-11.3174
▁কামভোগী	-11.3174
ৰাদেন	-11.3175
খত্তিয	-11.3176
▁অদংসু	-11.3176
▁চিত্তস্সেকগ্গতা	-11.3176
▁ওত্তপ্পং	-11.3176
▁আণাপেসি	-11.3176
▁অননুস্সুতেসু	-11.3177
▁পচ্চৰেক্খমানো	-11.3177
▁পিযরূপং	-11.3179
মহগ্গত	-11.3179
যায	-11.3179
▁সংহর	-11.3179
▁গত্ত	-11.318
▁করিস্সন্তি	-11.318
▁কাযা	-11.3181
াহীতি	-11.3181
▁ভে	-11.3182
▁সক্কুণেয্য	-11.3184
সঙ্গাহক	-11.3185
▁ধুত্ত	-11.3186
▁ঞাতক	-11.3186
▁রুচ্চ	-11.3187
▁অসার	-11.3187
সঞ্হি	-11.3187
▁গেহসিত	-11.3188
▁সন্থর	-11.3191
▁রূপারম্মণ	-11.3192
▁ৰেস্সন্তরো	-11.3192
▁গোচরং	-11.3194
▁সোতেন	-11.3194
▁সক্কর	-11.3196
▁বাহ	-11.3196
▁নন্দো	-11.3197
▁সত্থার	-11.32
▁মূলায	-11.32
ত্তিংস	-11.32
▁উপমং	-11.3201
▁ৰণ্ণা	-11.3202
▁তাদিসা	-11.3202
ুত্তমং	-11.3203
▁রতা	-11.3203
▁ৰচনে	-11.3206
গোচরা	-11.3207
অয্য	-11.3207
▁আৰাট	-11.3208
দাযিকা	-11.3212
▁ভৰাভৰ	-11.3212
▁সম্পতি	-11.3213
ন্ৰ	-11.3213
▁অনুমান	-11.3214
ন্তূ	-11.3215
জঞ্ঞ	-11.3217
নদী	-11.3218
▁আভত	-11.3218
▁অজ্ঝত্তবহিদ্ধা	-11.3219
▁একাবদ্ধ	-11.3219
গঙ্গ	-11.3219
▁পচ্চৰেক্খণা	-11.3219
▁ৰতাযং	-11.322
▁চক্খাদি	-11.322
▁সুজাতো	-11.3221
▁সীহস্স	-11.3225
▁উদ্ধচ্চসহগতং	-11.3225
▁দসম	-11.3228
▁অয্যো	-11.3229
▁হেতুসম্পযুত্ত	-11.3229
জ্জু	-11.3229
▁সংযুত্ত	-11.323
▁ৰিভূতং	-11.323
▁পরিৰারিতো	-11.3232
নলক্খণা	-11.3233
ৰিরহিতং	-11.3235
▁উণ্ণ	-11.3237
▁তেৰীসতি	-11.3238
▁জেগুচ্ছ	-11.3238
▁ভযা	-11.3238
পঞ্হা	-11.3239
▁যাগুং	-11.3241
বোজ্ঝঙ্গ	-11.3241
▁ইদম	-11.3241
▁অঞ্ঞথত্তং	-11.3241
▁অলভিত্ৰা	-11.3242
ুগ্গত	-11.3244
ট্ঠীনি	-11.3245
▁একগ্গতা	-11.3245
কিস্স	-11.3247
▁করিস্সামা	-11.3248
▁কামাৰচরো	-11.3248
পযোগো	-11.3248
ম্হসে	-11.3249
▁লঙ্ঘ	-11.325
▁অজিন	-11.325
ৰিকল	-11.3251
যস	-11.3251
▁কামচ্ছন্দ	-11.3253
▁সদেৰকস্স	-11.3256
▁নিসীদিতুং	-11.3256
পক্খিক	-11.3258
▁অমূল়্হৰিনয	-11.326
ভীত	-11.326
▁লোকধাতু	-11.3263
▁কম্মৰিপাক	-11.3263
▁নিব্বত্তন্তি	-11.3266
▁জানাতী	-11.3267
নিসজ্জ	-11.327
াভিধান	-11.3276
▁মুহুত্তং	-11.3276
▁জানতা	-11.3277
▁রত্তিযো	-11.3279
▁অক্খাতা	-11.3279
▁কতোতি	-11.3279
▁খীয	-11.328
▁ৰিতক্কং	-11.3281
সঞ্ঞিস্স	-11.3281
▁নিস্সজ্জ	-11.3282
সমন্নাগতং	-11.3283
▁অসঞ্ঞ	-11.3285
পরাযণো	-11.3285
▁গব্ভো	-11.3288
▁খাযতি	-11.3288
পারিপূরি	-11.3288
▁যাদিসা	-11.3288
নৰিপাকধম্মধম্মং	-11.3289
কম্মানি	-11.3289
▁অগ্গফল	-11.3289
নিরয	-11.329
▁অধিগতং	-11.329
▁গামস্স	-11.3291
সিক্খা	-11.3291
▁উপাদানা	-11.3294
▁জনপদেসু	-11.3295
▁আদীনৰঞ্চ	-11.3295
▁ভি	-11.3295
পোতক	-11.3295
িযে	-11.3295
সমন্নাগত	-11.3296
▁সমোধান	-11.3297
▁ধারেতু	-11.3297
▁মুদুক	-11.3298
▁পারমী	-11.3299
যম	-11.33
▁সম্মাদিট্ঠিযা	-11.33
▁ব্রাহ্মণেন	-11.33
▁যাচক	-11.3302
▁সকুণো	-11.3304
▁ধম্মিকো	-11.3304
▁কোধং	-11.3304
▁সুতো	-11.3305
▁ৰিক্কিণ	-11.3305
করুণা	-11.3306
▁তদহুপোসথে	-11.3308
▁অলভন্তো	-11.3308
▁উপদ্দুত	-11.3308
কিলমথ	-11.3308
▁চিত্তসহভু	-11.3309
▁ৰুত্থ	-11.3311
কুতো	-11.3311
▁মানুসক	-11.3312
কিণ্ণং	-11.3314
▁অমোহ	-11.3316
▁বলেন	-11.3317
▁গৰং	-11.3317
▁মহন্তা	-11.332
সংযুত্তে	-11.3321
▁পটিগ্গাহক	-11.3322
কিঞ্চ	-11.3322
ত্থী	-11.3322
▁মনুস্সেহি	-11.3324
জায	-11.3325
কিলিট্ঠ	-11.3325
▁নিস্সযপচ্চয	-11.3325
গুণেন	-11.3326
▁দারুণ	-11.3326
পচ্ছা	-11.3326
▁ছদন	-11.3328
পটিলাভো	-11.3329
ত্তর	-11.333
চ্ছায	-11.3332
▁দসাহ	-11.3332
▁ৰক্খাম	-11.3335
▁পিতামহ	-11.3336
▁ৰুট্ঠি	-11.3337
িত্থি	-11.3338
▁পাসংসো	-11.3338
▁ৰিপ্পসন্নেন	-11.3339
▁উচ্ছেদদিট্ঠি	-11.3339
যট্ঠি	-11.3339
▁উদযব্বয	-11.3341
▁ভৰপচ্চযা	-11.3342
▁পস্সামী	-11.3343
▁সুণন্তো	-11.3344
▁অসক্কোন্তা	-11.3346
▁অকারণ	-11.3347
▁মগধ	-11.3347
▁মারিসা	-11.3347
▁অৰিপ্পটিসার	-11.335
▁পরাজযো	-11.335
রোগো	-11.3352
▁যোগাৰচরো	-11.3352
বলা	-11.3354
তন	-11.3354
▁রূপাযতন	-11.3355
▁থী	-11.3355
▁ভূতানি	-11.3356
▁অক্খাত	-11.3359
ৰিজানন	-11.3359
▁আরোপ	-11.3364
ীযমান	-11.3367
▁মনোসম্ফস্স	-11.3367
▁ৰিজায	-11.3367
দাহ	-11.3368
▁ৰেহাসং	-11.3372
▁একরস	-11.3375
▁অপচযগামী	-11.3375
▁ভাগিনেয্য	-11.3375
▁কানিচি	-11.3375
▁পটিৰিরতা	-11.3376
▁ভারং	-11.3377
দোমনস্সুপাযাসা	-11.3377
ত্থমেৰ	-11.3377
▁ভুম্মত্থে	-11.3377
▁অনাদর	-11.3377
▁সমুগ্ঘাত	-11.3378
▁পণ্ডিতেহি	-11.3379
▁নসহজাতে	-11.338
▁ৰুত্তমত্থং	-11.338
▁পচ্চনীযং	-11.3381
ইম	-11.3381
▁আদীনৰা	-11.3381
▁পরিক্খযং	-11.3383
গচ্ছতি	-11.3384
▁মনুস্সভূতো	-11.3384
▁অধিট্ঠহ	-11.3386
▁অগারৰো	-11.3386
▁সঙ্ঘকম্ম	-11.3388
পক্খন্দ	-11.3388
▁পরিপাক	-11.3389
▁পচ্চযাকার	-11.339
▁অজানন	-11.339
▁ৰত্তব্বতং	-11.3391
পলাস	-11.3391
কোৰিদো	-11.3392
বুদ্ধস্স	-11.3392
▁ওপম্ম	-11.3393
▁রুহ	-11.3393
▁চতুত্থস্স	-11.3394
▁নহান	-11.3396
▁নরক	-11.3396
গামিনো	-11.3397
ামাতি	-11.3399
যাগু	-11.3399
▁অনিযতা	-11.3401
তচ্ছ	-11.3404
▁ৰেরি	-11.3404
পঠমং	-11.3405
▁গেধ	-11.3406
তুন্ন	-11.3407
▁নিৰত্তিত্ৰা	-11.3412
▁রুদ	-11.3414
▁পসংসন্তি	-11.3415
▁অকালে	-11.3417
▁ৰসন্ত	-11.3419
ৰৰত্থান	-11.3419
▁পরিতো	-11.342
গণ্ড	-11.342
▁পত্তব্ব	-11.342
▁খযে	-11.3421
▁অলত্থ	-11.3423
সেখ	-11.3423
অনন্ত	-11.3428
মণ্ডপ	-11.3431
▁নপুংসকলিঙ্গ	-11.3434
বহুলা	-11.3436
লাভা	-11.3436
▁পাটিহারিয	-11.3437
াভিরত	-11.3439
▁অন্তরধায	-11.3439
▁সচ্ছিকিরিযায	-11.3441
▁লোমা	-11.3442
▁মহাপঞ্ঞো	-11.3442
নসীলো	-11.3443
পঞ্ঞং	-11.3443
▁মনসিকরোন্তো	-11.3443
▁মিথিল	-11.3443
▁মুট্ঠস্সতি	-11.3443
▁যুগনদ্ধ	-11.3444
▁দ্ৰাৰীসতি	-11.3444
▁আহিণ্ড	-11.3444
উত্তর	-11.3444
▁দেসনাপরিযোসানে	-11.3445
হেতূতি	-11.3446
▁আভস্সর	-11.3446
সেল	-11.3447
▁ছড্ডে	-11.3447
▁পাপিম	-11.3447
▁ৰত্তব্বন্তি	-11.3448
▁পরিৰেণং	-11.3448
▁থুতি	-11.3449
▁কল্ল	-11.3449
▁আপজ্জন্তি	-11.345
▁রস্সত্তং	-11.345
▁সুগ্গহিত	-11.3451
▁পসীদিত্ৰা	-11.3451
সম্মতা	-11.3451
▁পরিপূরেন্তি	-11.3452
▁মহত্ত	-11.3452
▁কাস	-11.3453
এতদগ্গং	-11.3453
▁রুচিযা	-11.3455
ধিট্ঠান	-11.3455
▁উপনিধায	-11.3456
াপী	-11.3456
অট্ঠারস	-11.3457
▁কাযিন্দ্রিযং	-11.3458
ন্তরেন	-11.3458
ৰিতক্কো	-11.3459
▁এল়ক	-11.346
▁সেসানং	-11.346
▁পিযরূপা	-11.3461
পুব্বং	-11.3462
▁ৰস্সূপনাযিক	-11.3464
▁সকদাগামিমগ্গ	-11.3464
▁ৰিব্ভন্ত	-11.3465
▁আৰ	-11.3469
▁উপাদানিয	-11.3469
দেয্য	-11.347
আকাস	-11.3471
▁ভৰেয্যুং	-11.3471
▁ব্রাহ্মণী	-11.3471
▁মারং	-11.3471
▁অপরিক্খিত্ত	-11.3472
অব্ভ	-11.3474
▁অদস্সন	-11.3474
▁ৰিসুদ্ধিযা	-11.3475
▁সুখিনো	-11.3475
▁ধম্মপটিসম্ভিদা	-11.3475
▁মহাৰুত্তি	-11.3475
▁ৰিনাসং	-11.3476
হরণং	-11.3478
ীযং	-11.3478
▁পজহথ	-11.3479
▁সংৰস	-11.3479
▁জট	-11.348
▁পচ্চেকবুদ্ধা	-11.348
▁সঘানকান	-11.3481
▁মূসিক	-11.3482
▁সুখদুক্খং	-11.3483
ৰিত্ত	-11.3486
সেনো	-11.3486
▁চঙ্কমন্ত	-11.3487
পচ্চুপ্পন্নং	-11.349
কসাৰ	-11.3493
▁সন্তীতি	-11.3494
▁সভিক্খুকা	-11.3495
ভৰো	-11.3495
▁নিস্সার	-11.3496
▁সংসট্ঠ	-11.3497
সমাসো	-11.3497
নিদানা	-11.35
তাপন	-11.35
ন্তস্সাপি	-11.3503
▁জি	-11.3504
▁পীতিং	-11.3506
সমঞ্ঞা	-11.3507
▁অমিত	-11.3512
▁অকাম	-11.3512
▁নআসেৰনপচ্চযা	-11.3512
▁নিরনুসযা	-11.3512
▁ৰূপসম্মতি	-11.3512
▁দেৰতাহি	-11.3512
▁ভেরৰ	-11.3512
▁কিমি	-11.3514
▁বুদ্ধগুণ	-11.3516
▁ভিক্খাচার	-11.3516
্পযুত্তলোভসহগত	-11.3516
▁সুনক্খত্ত	-11.3517
তেতি	-11.3517
সীসং	-11.3517
▁সন্নদ্ধ	-11.3519
▁ৰিদিতং	-11.3519
▁উপনীত	-11.3519
▁সমুট্ঠাপেতি	-11.352
যন্তং	-11.3521
▁কপ্পসতসহস্স	-11.3522
নক্খত্ত	-11.3522
রোপন	-11.3522
▁আযতনেহি	-11.3522
নৰিপাকধম্মধম্ম	-11.3522
▁তপ্পটিপক্খ	-11.3523
▁অট্ঠারসহি	-11.3524
ভৰন	-11.3524
▁অভিসঙ্খত	-11.3525
▁এথ	-11.3526
চতূহি	-11.3527
▁রজ্জে	-11.3527
▁পিটকত্তয	-11.3528
চেতসো	-11.3528
িযোতি	-11.353
▁গুহ	-11.353
▁উপহত	-11.3531
▁অনধি	-11.3532
নকো	-11.3533
▁ঞাপেতব্বো	-11.3533
▁অনুগত	-11.3534
▁সম্মপ্পধানা	-11.3535
্যং	-11.3535
▁তল়াক	-11.3536
মানসং	-11.3537
▁অৰধারণ	-11.3538
▁পটিসন্থার	-11.3538
▁অভিভূত	-11.3539
▁পস্সিতুং	-11.354
ৰিভাৰনা	-11.354
▁পণ্ণাস	-11.3542
▁উপনিস্সযো	-11.3543
▁মাতর	-11.3544
ইচ্চাদিনা	-11.3544
▁পুব্বা	-11.3545
▁গরুভণ্ডং	-11.3545
তুকামো	-11.3546
প্পকারং	-11.3546
তেজ	-11.3548
▁অহিরিক	-11.3548
রানং	-11.3549
লোকিয	-11.355
▁পজাপতি	-11.3553
▁অভিভূতো	-11.3553
েতব্বন্তি	-11.3559
ঞ্চেতং	-11.3559
▁চম্মং	-11.3559
▁ৰিচিকিচ্ছাসহগতং	-11.3562
পুব্বভাগ	-11.3562
ত্তী	-11.3563
মপি	-11.3563
স্সরা	-11.3564
ভূতানি	-11.3564
▁আনিসংসা	-11.3566
▁সব্বানিপি	-11.3567
▁গণ্হাতীতি	-11.3569
ফাণিত	-11.357
▁সব্বলোকে	-11.3571
▁অনাগামিস্স	-11.3573
▁যাৰদত্থং	-11.3576
▁পুণ্ডরীক	-11.3576
▁নিপ্ফাদে	-11.3576
▁অনাপত্তী	-11.3578
▁পরিণত	-11.3578
▁ভেসজ্জানি	-11.3579
▁উপপন্না	-11.3579
▁অগ্গসাৰিকা	-11.3581
▁মাগণ্ডিয	-11.3581
▁অব্ভাচিক্খ	-11.3581
▁সত্তরতনসম্পন্নো	-11.3581
পদট্ঠানা	-11.3582
▁ৰিত্থত	-11.3583
▁হন্দাহং	-11.3583
▁মহাপচ্চরিযং	-11.3583
▁অভিত্থৰ	-11.3584
▁করোসি	-11.3584
িযত্থেরঅপদান	-11.3585
▁অরিযৰংস	-11.3585
পেতৰত্থু	-11.3586
▁মহেসী	-11.3586
▁সমুদাচরন্তি	-11.3588
▁নিব্বানধাতুযা	-11.3588
▁একদেসেন	-11.3589
াভরণ	-11.3591
সঞ্ঞি	-11.3593
▁অভিসম্বুদ্ধ	-11.3593
▁অসম্পত্ত	-11.3593
ভগৰতো	-11.3593
জনা	-11.3594
▁সাধূতি	-11.3595
▁স্ৰ	-11.3596
ালি	-11.3596
▁আণত্ত	-11.3598
▁নিক্খেপ	-11.3598
▁দমিল়	-11.3599
▁পচ্চেস্স	-11.36
▁তেমাসং	-11.3601
▁দেসেয্য	-11.3601
▁কুসলেহি	-11.3601
▁অনারম্মণ	-11.3602
ৰস্সসহস্সানি	-11.3603
▁পচ্চৰেক্খণঞাণ	-11.3603
▁নিমন্তন	-11.3605
▁পাদকজ্ঝান	-11.361
▁অজ্জতগ্গে	-11.361
াদিভাৰো	-11.361
য্যো	-11.3611
▁পসিদ্ধ	-11.3611
▁আসেৰন	-11.3612
▁থোক	-11.3615
▁মযূর	-11.3617
নন্দী	-11.3617
▁পাচ	-11.3618
▁তল	-11.362
অনাগত	-11.3621
▁অট্ঠঙ্গুল	-11.3621
▁মহাকরুণা	-11.3624
ৰিকতি	-11.3625
▁ভণে	-11.3625
▁লোকনাথ	-11.3626
▁গহেতব্বানি	-11.3631
ঘরে	-11.3633
দস্সি	-11.3633
সম্পত্ত	-11.3633
▁অনত্তমনো	-11.3637
▁রংসি	-11.3637
কতিচি	-11.3637
▁ৰিজ্জমানে	-11.3639
▁দোসেন	-11.364
তেজো	-11.3642
তরি	-11.3645
▁আকঙ্খতি	-11.3645
▁ব্রহ্মচারী	-11.3645
▁ৰেদনানং	-11.3646
▁ৰিরাজ	-11.3647
নাকারো	-11.3649
রেতি	-11.3649
▁নিক্খমন	-11.365
▁অত্থতকথিন	-11.365
▁গারয্হো	-11.3651
▁সিখী	-11.3651
▁পরিপূরকারী	-11.3652
▁কাযৰিঞ্ঞত্তি	-11.3653
▁জহন্তি	-11.3653
▁লহুং	-11.3654
▁পরিঞ্ঞেয্য	-11.3656
▁দুম্মনো	-11.3656
প্পহানেন	-11.3656
▁পটিচ্ছাদেত্ৰা	-11.3657
▁অভিসেক	-11.3657
▁নামরূপস্স	-11.3657
▁ইদ্ধিপাদং	-11.3658
▁অৰিপাক	-11.3658
▁ৰাহ	-11.3658
▁ওসক্ক	-11.3659
▁কপিলৰত্থু	-11.366
▁অপাকট	-11.3661
▁করোন্তে	-11.3663
ৰলাহক	-11.3663
▁পটিচ্ছ	-11.3663
ভিক্খৰো	-11.3665
▁ৰিতক্কে	-11.3665
▁অব্যাকতমূল	-11.3667
▁সংৰিজ্জতি	-11.3668
▁পত্থেতি	-11.3669
পচ্চুপট্ঠানো	-11.3672
▁পরমত্থো	-11.3674
▁খণো	-11.3674
রূপানং	-11.3675
মনসিকারো	-11.3675
▁অপ্পমঞ্ঞা	-11.3676
▁পিসাচ	-11.3677
ইট্ঠ	-11.3677
কোট্ঠাসে	-11.3678
▁ৰীমংসা	-11.3678
সযং	-11.3679
▁ৰুত্তেন	-11.368
▁ৰিজম্ভ	-11.368
ৰাল	-11.3681
▁পরিযুট্ঠান	-11.3682
ৰতং	-11.3683
▁অনিচ্চানুপস্সনা	-11.3685
দুক্খস্স	-11.3687
▁ভিন্নো	-11.3687
নামকং	-11.3687
▁আযতনানং	-11.3688
▁অকপ্পিযং	-11.369
▁নন্দিয	-11.369
▁অত্থঙ্গত	-11.3691
রূপস্স	-11.3691
মিঞ্জ	-11.3693
▁কুসলৰিপাক	-11.3693
ভত	-11.3694
▁পাতুভৰতি	-11.3694
মদাসি	-11.3695
▁আমন্ত	-11.3696
▁অপ্পমাদো	-11.3696
াদিভাৰ	-11.3696
রূপক	-11.3701
▁সম্বন্ধিতব্বং	-11.3703
▁সাগরো	-11.3703
াদিভেদে	-11.3703
▁তন্	-11.3704
করে	-11.3704
▁সমাপজ্জন	-11.3706
মেতন্তি	-11.3708
সমুদাচার	-11.3709
▁আসৰেহি	-11.3709
▁ইট্ঠক	-11.3709
▁হদযৰত্থু	-11.371
▁পটিনিস্সগ্গ	-11.3711
▁২৪৪	-11.3712
▁দানানি	-11.3712
মঞ্ঞায	-11.3713
▁মুগ্গ	-11.3714
▁অতিমান	-11.3714
▁রাহু	-11.3716
▁রূপসঞ্ঞা	-11.3716
▁ৰিহারা	-11.372
▁সম্পস্সমানো	-11.372
▁মেসো	-11.372
▁সেসপদেসুপি	-11.3721
▁উম্মত্তিকায	-11.3721
▁পটিবলো	-11.3722
▁দিট্ঠিগতৰিপ	-11.3723
▁সদ্ধম্মস্স	-11.3723
▁ধারেতীতি	-11.3723
▁অরোগ	-11.3724
কত্তু	-11.3724
দূত	-11.3726
▁সংৰণ্ণ	-11.3726
▁গির	-11.3726
মচ্ছরিয	-11.3727
▁ধঞ্ঞং	-11.3728
পরে	-11.3728
▁চতুসচ্চধম্ম	-11.3728
▁পরিসুদ্ধো	-11.3729
ভরণ	-11.3729
২২	-11.3729
▁সদেৰমনুস্সায	-11.373
▁অসন্তং	-11.373
▁তঞ্ঞেৰ	-11.373
৩০	-11.3732
▁পো	-11.3733
▁ধম্মরাজ	-11.3733
উপাসক	-11.3733
পব্ভার	-11.3734
▁পরিযোদাত	-11.3737
ছক্ক	-11.3738
ৰেকল্ল	-11.3739
▁অগা	-11.3739
৫০	-11.3741
▁জহতীতি	-11.3741
▁উপাযো	-11.3742
▁পরিহরতি	-11.3743
মানাতি	-11.3743
▁অৰসানে	-11.3743
▁নিদ্দিট্ঠং	-11.3746
▁২৪৮	-11.3748
▁নাৰ	-11.3749
▁সমনুভাসন	-11.375
▁পসাদং	-11.375
▁অব্ভুতো	-11.3751
চেতিযং	-11.3752
মচ্ছর	-11.3753
▁পকাসেতি	-11.3753
সঙ্খাতেহি	-11.3754
াভিমুখং	-11.3754
▁দূতং	-11.3754
▁পজানাতীতি	-11.3754
▁একপদ	-11.3755
▁ৰিঞ্ঞাণক্খন্ধ	-11.3759
▁চন্দিমসূরিযা	-11.3759
▁নিপকো	-11.376
▁ব্যাপার	-11.3761
▁নাল়িকের	-11.3761
▁পকারেহি	-11.3762
▁কম্মৰাচা	-11.3763
েয্যাথা	-11.3763
▁সিম্হি	-11.3764
▁ৰিহত	-11.3764
▁যস্সাযস্ম	-11.3766
▁ৰত্থূহি	-11.3767
▁পরিযা	-11.3768
দণ্ডো	-11.3769
▁পরিপুণ্ণো	-11.3769
ধায	-11.377
▁অগ্গট্ঠান	-11.377
িকেন	-11.3771
▁সন্দিট্ঠিকং	-11.3772
যন্তী	-11.3773
গতেন	-11.3773
▁হেমন্ত	-11.3774
▁অসেক্খো	-11.3775
▁ফলেন	-11.3775
▁সুকরং	-11.3775
▁সভাৰেন	-11.3776
▁থূপং	-11.3779
▁অস্সুতৰা	-11.378
সল্লক্খণ	-11.3784
▁অসেস	-11.3785
▁সির	-11.3786
▁জানি	-11.3787
ৰণ্ণনাযং	-11.3787
▁ব্যঞ্জনে	-11.3787
ফলক	-11.3788
▁সমেন	-11.379
▁অট্ঠৰিধ	-11.379
▁লিচ্ছৰী	-11.3791
▁উম্মাদ	-11.3791
▁অরিযসাৰক	-11.3792
▁ৰিৰেকনিস্সিতং	-11.3793
▁মন্দা	-11.3793
▁ৰিচরন্ত	-11.3794
▁সব্বদুক্খ	-11.3795
▁রা	-11.3795
▁ৰদন্তীতি	-11.3797
▁অনিচ্চাদি	-11.3798
ৰীথিযং	-11.38
▁অধিপ্পাযং	-11.3802
▁ধম্মারম্মণ	-11.3803
▁পুরোহিত	-11.3804
▁ওক্কমতি	-11.3804
পরমং	-11.3805
ভং	-11.3806
▁মেদ	-11.3808
যমানং	-11.3809
▁জেট্ঠো	-11.381
▁পতিট্ঠাসি	-11.3811
▁রাগেন	-11.3811
্ত	-11.3812
নিব্বত্তক	-11.3812
▁ধি	-11.3813
▁সীলাদিগুণ	-11.3813
গুণেহি	-11.3814
▁সুসমাহিত	-11.3815
▁মন্তি	-11.3816
পরিস্সয	-11.3816
▁অপচ্চং	-11.3816
▁পটিসাম	-11.3816
▁পণ্ডর	-11.3818
▁অধম্মং	-11.382
▁ণি	-11.382
▁আরোচিত	-11.382
▁অৰধি	-11.3821
▁যাপেতি	-11.3824
অয	-11.3824
ূনি	-11.3825
ইমানি	-11.3829
জাতিযা	-11.3829
▁পাপুণিত্ৰা	-11.3829
▁গমিস্সামী	-11.383
▁অমূ	-11.3831
ধিগত	-11.3832
▁সহাযো	-11.3832
▁তাল়	-11.3833
▁পুরক্খতো	-11.3835
▁সতিৰিনয	-11.3838
▁ঠপেন্তো	-11.3839
পটিগ্গাহক	-11.3841
▁ঘংস	-11.3841
▁পস্সতা	-11.3843
▁একাদসমং	-11.3843
▁ঝানেন	-11.3844
াতিআদি	-11.3844
▁সম্মতা	-11.3847
▁করোম	-11.3849
▁ৰিঞ্ঞাপন	-11.3849
▁পাপানি	-11.385
▁অকরোন্ত	-11.3851
▁পকাসন	-11.3854
চরিতো	-11.3854
ইদ	-11.3854
হুত	-11.3854
▁চাতুমহারাজিক	-11.3856
িন্দো	-11.3856
▁গিম্হ	-11.3857
পরিৰুত	-11.3858
▁২৬৫	-11.3858
▁পরিস্সয	-11.3862
▁জচ্চন্ধ	-11.3862
▁ৰুত্তানং	-11.3862
▁নৰিপাকপচ্চযা	-11.3862
▁ৰিস্সুতো	-11.3862
▁অঙ্কুর	-11.3863
▁উপপত্তিক্খণে	-11.3864
▁কুদ্ধো	-11.3864
▁সন্ধাযেত	-11.3868
িম্হি	-11.3868
▁২৬৩	-11.3871
▁অনুপস্সতি	-11.3871
সম্বন্ধো	-11.3872
▁ৰচসা	-11.3873
▁অনোত্তপ্প	-11.3873
▁ৰস্সসহস্সানি	-11.3873
▁যেভুয্য	-11.3874
▁বাহিরক	-11.3875
▁মচ্ছো	-11.3875
▁অনেকসত	-11.3876
চ্ছাদ	-11.3876
▁অম্হ	-11.3876
অভিক্কন্তং	-11.3877
▁সহজাতপচ্চযা	-11.3877
▁পসংসা	-11.3877
▁ৰীরো	-11.3878
▁সক্কাতি	-11.388
▁নীৰরণৰিপ্পযুত্ত	-11.388
পটিপত্তিযা	-11.3881
ৰহ	-11.3881
ধূম	-11.3881
▁ভাগং	-11.3881
▁আরামিক	-11.3882
ৰিভূসিত	-11.3882
ক্খন্ধং	-11.3883
▁পটিসল্লানা	-11.3884
পচ্ছিম	-11.3884
▁সন্থরিত্ৰা	-11.3884
▁ৰেলাযং	-11.3884
ৰযৰ	-11.3885
সিঙ্গ	-11.3885
▁এদিসো	-11.3885
▁পাণিনা	-11.3885
▁সংখিত্ত	-11.3886
▁ৰিৰেকজং	-11.3888
দেৰা	-11.3888
▁ঠিতোতি	-11.3889
▁সমূহো	-11.3889
কোসল্ল	-11.389
▁নরাসভো	-11.3891
২৩	-11.3894
▁ভিক্খুসঙ্ঘ	-11.3894
▁অন্নং	-11.3895
▁মেঘো	-11.3896
▁মহাযস	-11.39
▁সাতিসয	-11.3901
ট্ঠিতো	-11.3902
কম্প	-11.3903
▁মতে	-11.3903
▁মেঘিয	-11.3903
▁পীঠং	-11.3908
▁নিরনুসযোতি	-11.3913
▁চেতোপরিযঞাণস্স	-11.3914
▁ৰিধান	-11.3914
▁সোৰণ্ণ	-11.3914
ৰতা	-11.3916
▁সীলঞ্চ	-11.3916
লাভিনো	-11.3918
▁ভণ্ডাগারিক	-11.3918
▁কাণ	-11.3919
সৰো	-11.3919
▁ৰিহিংস	-11.392
সেনাসনং	-11.392
▁নিচ্ছয	-11.3921
ট্ঠানন্তি	-11.3922
▁তত্তকং	-11.3923
▁মহাথেরো	-11.3923
মাসি	-11.3924
ইচ্ছ	-11.3925
▁পথৰীকসিণং	-11.3926
▁তথাৰিধ	-11.3926
▁সেখিয	-11.3928
▁ঠানন্তি	-11.3929
▁বহুতরং	-11.393
সম্পযোগ	-11.3932
▁ৰাদিত	-11.3932
ৰিচারো	-11.3933
▁চেতনাপণিধীহি	-11.3933
▁সুখো	-11.3933
▁নেসোহমস্মি	-11.3933
▁ততুত্তরি	-11.3933
▁কতিপয	-11.3934
▁দুক্খস্সন্তকরো	-11.3934
▁অনিদস্সনো	-11.3935
▁সাতরূপং	-11.3935
▁নোচিত্তসংসট্ঠ	-11.3935
▁অহঞ্হি	-11.3936
▁পতিট্ঠাপেত্ৰা	-11.3936
ানঞ্চেৰ	-11.3936
▁কৰি	-11.3936
▁কুতোচি	-11.3936
▁আদীসু	-11.3937
▁মুদিত	-11.3938
▁ধারেতব্ব	-11.3939
▁মাতিকং	-11.3939
ৰিদ্ধংসন	-11.3939
পরিসঙ্কিত	-11.3939
জরা	-11.394
▁অসক্কোন্ত	-11.3941
দিট্ঠিযা	-11.3942
▁গোতমী	-11.3943
▁সুৰিভত্ত	-11.3945
রুক্খে	-11.3945
▁ইচ্ছামি	-11.3946
▁অনঞ্ঞথা	-11.3947
বিম্ব	-11.3948
▁খেত্তে	-11.3948
▁সুঞ্ঞা	-11.395
▁পাপস্স	-11.395
▁মাতুযা	-11.3952
▁সভিক্খুকো	-11.3952
িচ্ছা	-11.3954
সমাধী	-11.3955
▁পুট্ঠ	-11.3955
ণেয্য	-11.3959
▁অপক্কম	-11.3959
▁পরিহায	-11.396
▁পচ্চযভূত	-11.396
▁পটিচ্ছন্না	-11.396
দিসায	-11.3961
▁মারে	-11.3962
▁ৰুত্তপ্পকারেন	-11.3962
সোল়স	-11.3962
সম্ভৰা	-11.3963
াদীসূতি	-11.3965
▁পরিৰাস	-11.3967
▁ভুঞ্জন্তস্স	-11.3967
মেয্য	-11.3968
অন্ত	-11.3968
াতিআদিমাহ	-11.3968
হানি	-11.397
▁ৰাচসিক	-11.397
▁ঝাযতি	-11.3972
▁পরিভৰ	-11.3974
▁অচরি	-11.3974
সট	-11.3975
াৰহার	-11.3975
▁ছক্ক	-11.3977
ুভ	-11.3978
কতে	-11.3978
▁ভগৰন্তো	-11.3981
ুদ্ধার	-11.3981
▁দীপঙ্কর	-11.3983
▁২৪৬	-11.3983
নাসিক	-11.3984
▁সাধূ	-11.3985
করণত্থং	-11.3986
▁গতী	-11.3987
▁অপ্পিযো	-11.3988
মত্তিক	-11.3988
▁অরক্খিত	-11.399
ৰিরহিতা	-11.399
▁অনুপ্পন্নানং	-11.3991
াদায	-11.3993
▁জাতোতি	-11.3994
▁উপচিত	-11.3994
ক্খণেযেৰ	-11.3995
▁২৪৫	-11.3996
▁সঞ্জানন	-11.3998
▁সুখাৰহ	-11.3998
ক্খন্ধে	-11.4002
▁লহুতা	-11.4002
▁ৰিসেসাধিগম	-11.4003
▁ভুঞ্জিতব্বং	-11.4004
▁অপ্পমাণা	-11.4004
▁গাথাদ্ৰযমাহ	-11.4005
▁অঞ্ঞাতাৰী	-11.4005
▁তিৰেদনন্তি	-11.4005
▁গামা	-11.4005
▁কোধনো	-11.4006
▁সোতাপন্না	-11.4006
▁উচ্ছিজ্জ	-11.4006
▁নিলীয	-11.4007
▁পস্সসিস্সামী	-11.4008
▁কোস	-11.4008
▁সমোধানেত্ৰা	-11.4009
াপেক্খ	-11.4009
▁কতমেসং	-11.401
▁পঞ্চহাকারেহি	-11.4013
▁দণ্ডো	-11.4013
▁সন্তোস	-11.4013
▁অপ্পিচ্ছ	-11.4013
▁তিট্ঠতু	-11.4013
▁সাত্থিকা	-11.4014
▁মোঘপুরিস	-11.4016
তোৰ	-11.4017
ফলানি	-11.4017
ইচ্চাযস্মা	-11.4017
চতুর	-11.4018
▁মচ্ছের	-11.4019
▁সমাদপে	-11.4019
ফরুস	-11.4019
াধীন	-11.4022
▁গৰেসন্তো	-11.4023
▁কদলি	-11.4023
▁ঠানসো	-11.4024
সামত্থিয	-11.4024
ৰিতক্কৰিচারমত্তা	-11.4024
ভিক্খৰে	-11.4025
ৰারি	-11.4027
ধারা	-11.4029
মুদ্দিক	-11.403
ভেরি	-11.403
▁মহব্বলা	-11.4032
পিতু	-11.4033
▁অধম্মকম্ম	-11.4034
▁আরোগ্য	-11.4035
▁২৫৬	-11.4035
▁পরিত্তারম্মণং	-11.4036
পতন	-11.4036
▁তুম্হাক	-11.4036
▁মারণ	-11.4038
দীপনত্থং	-11.4042
পূজং	-11.4043
কথিন	-11.4046
▁অনুমোদন	-11.4047
▁পিহ	-11.4048
▁সূচ	-11.4048
প্যত্র	-11.4049
▁তথূপম	-11.4049
▁পস	-11.4049
▁কাযসঙ্খার	-11.405
যাপি	-11.405
সদিসানি	-11.4051
▁তেনাৰুসো	-11.4052
▁আযাচ	-11.4057
▁বহূসু	-11.4058
▁নিদ্দ	-11.4058
▁রুহতি	-11.4059
▁দুব্ভাসিত	-11.4063
▁জীৰক	-11.4063
াৰজ্জন	-11.4064
▁গণভোজন	-11.4065
▁ৰল়ঞ্জ	-11.4066
▁কথিনে	-11.4068
▁কাযচিত্ত	-11.4071
▁চলন	-11.4072
ভাণী	-11.4072
▁অরিযমগ্গেন	-11.4072
▁আরোপিত	-11.4073
▁ৰট্টদুক্খ	-11.4073
সক্কার	-11.4074
কারিনো	-11.4077
▁ব্রাহ্মণমহাসাল	-11.4077
▁অভিৰাদন	-11.4078
▁অনাগতংসঞাণস্স	-11.4078
▁তব্ভাৰ	-11.4078
▁ভযেন	-11.4078
মঞ্জ	-11.4078
▁দুম্মেধ	-11.408
▁ভদ্দন্তে	-11.4082
▁ওসারণ	-11.4082
ৰরে	-11.4082
▁সারিপুত্তং	-11.4083
▁অনুসন্ধিং	-11.4083
▁পরিচারক	-11.4083
চ্চা	-11.4083
ধম	-11.4084
ঙ্কো	-11.4086
▁নিচ্ছর	-11.4087
▁ৰিঞ্ঞাযতীতি	-11.4089
দাযকং	-11.4089
কুক্কুচ্চ	-11.409
▁অন্তরধান	-11.4091
▁সপ্পটিঘং	-11.4092
▁সুপিনং	-11.4092
ঞাণানি	-11.4095
▁দ্ৰিপদ	-11.4095
সঙ্ঘাত	-11.4096
▁ৰসনট্ঠান	-11.4096
নাসন	-11.4096
▁সলক্খণ	-11.4099
▁সৰিতক্ক	-11.4099
▁সাৰসেস	-11.4099
▁সুত্তপদ	-11.41
▁তাৰতা	-11.41
▁আযূ	-11.41
▁ৰিসত্তিকা	-11.4101
▁নহেতুপচ্চযো	-11.4101
▁আপাযিক	-11.4101
রত্তিং	-11.4101
পরিক্খেপ	-11.4102
▁উপসংহরতি	-11.4103
▁কামগুণেসু	-11.4105
▁পহিণ	-11.4107
অজ্ঝত্ত	-11.4107
▁সুখসহগতা	-11.4108
ৰ্হ	-11.4109
▁রত্তিন্দিৰ	-11.411
▁ফুসন	-11.411
▁উট্ঠা	-11.4111
▁ৰোট্ঠব্বন	-11.4112
কুণপ	-11.4114
▁ব্যাকরণ	-11.4115
▁ইচ্ছায	-11.4115
▁মানস	-11.4115
▁তহং	-11.4116
ুপ্পন্নং	-11.4117
▁কমল	-11.4119
▁পরিৰারে	-11.412
ানাগত	-11.4121
৬০	-11.4121
▁ৰিকপ্পন	-11.4122
▁দণ্ডি	-11.4122
ানিসংসা	-11.4123
▁নীৰরণে	-11.4123
▁ৰৰত্থিত	-11.4125
▁২৬৪	-11.4126
▁পক্কন্ত	-11.4126
▁ৰিহ	-11.4127
▁উব্ভ	-11.4129
অম্ভো	-11.4129
মচ্চু	-11.4129
▁রজনীযা	-11.4129
সম্মতং	-11.4131
ভূমক	-11.4132
▁অদোস	-11.4134
▁সামত্থিয	-11.4134
কোসল্লং	-11.4135
▁পুচ্ছাম	-11.4135
পতিরূপক	-11.4136
সরা	-11.4136
▁ৰিজ্জু	-11.4137
▁তযোপি	-11.4137
▁অসম্ভৰতো	-11.4138
▁অপণ্ণক	-11.4138
ভতো	-11.4139
▁অপরিযাপন্ন	-11.4139
▁অধিৰাসন	-11.414
▁পতন্তি	-11.4142
নৰুতি	-11.4143
যঞ্হি	-11.4145
হতা	-11.4146
ুক	-11.4147
▁চেস	-11.4149
▁অগ্গমক্খাযতি	-11.415
▁পরিদীপিত	-11.4151
মস্সাতি	-11.4151
▁পৰারেতব্বং	-11.4151
অনাথপিণ্ডিক	-11.4151
▁অনাৰাসো	-11.4152
▁ৰিকালভোজন	-11.4152
▁২৬৯	-11.4152
▁সমানসংৰাসক	-11.4152
▁বুদ্ধানুস্সতি	-11.4153
ত্থানং	-11.4154
▁পমুঞ্চ	-11.4154
▁ফরুসা	-11.4155
▁কিঞ্চন	-11.4155
▁দেৰমনুস্স	-11.4155
নিগ্ঘোস	-11.4156
▁আগমিস্সতি	-11.4157
▁নিস্সট্ঠ	-11.4158
▁অল্লীয	-11.4158
▁একাহপ্পটিচ্ছন্ন	-11.4158
▁২৮০	-11.4158
▁মহগ্গতা	-11.416
গোচরং	-11.4161
▁মিচ্ছত্ত	-11.4162
▁কেনচিদেৰ	-11.4162
▁জনানং	-11.4162
▁দুপ্	-11.4163
▁যথাসকং	-11.4165
▁নিব্বায	-11.4165
▁নারি	-11.4166
পরাজিত	-11.4166
লোপে	-11.4167
পৰিট্ঠ	-11.4167
▁মদ্দিত্ৰা	-11.4167
▁পৰরো	-11.4167
দহন	-11.4169
▁অনিদস্সনং	-11.417
চূল়	-11.4171
▁দেৰেহি	-11.4172
পুপ্ফানি	-11.4173
দুক্খা	-11.4173
াদীনীতি	-11.4173
▁সলাক	-11.4174
▁দারকো	-11.4174
▁ৰঞ্চন	-11.4176
▁সারম্মণো	-11.4177
িম্হা	-11.4179
▁ৰিস্স	-11.4181
▁ৰিনট্ঠ	-11.4181
▁ওতরতি	-11.4181
ৰণিজ্জ	-11.4183
হাকারেহি	-11.4185
▁জানিতব্ব	-11.4187
▁সমন্তচক্খু	-11.4187
▁অস্সাদঞ্চ	-11.4187
▁কুহক	-11.4187
সম্ফস্সো	-11.4188
▁তাণ	-11.4192
ইচ্চেৰমাদী	-11.4193
▁তণ্হাপচ্চযা	-11.4193
▁সন্নিপতন্তি	-11.4193
▁২৫৮	-11.4194
▁গণ্ঠি	-11.4195
▁অস্সদ্ধ	-11.4195
▁সুকতং	-11.4196
▁একাদসহি	-11.4197
বোধিসত্ত	-11.4198
▁পারমিং	-11.42
কহং	-11.4201
▁পূরেন্ত	-11.4203
সত্তম	-11.4204
▁ৰাল	-11.4205
াতিক্কমে	-11.4206
▁সৰিচারং	-11.4206
▁সুমনা	-11.4206
পদেসে	-11.4207
▁জেতৰন	-11.4207
▁ৰস্সিক	-11.4209
▁ঠপন	-11.4211
নিজ্ঝান	-11.4212
কারকা	-11.4213
ভূতত্তা	-11.4215
▁ৰচীদুচ্চরিত	-11.4216
ভাৰেপি	-11.4218
পপঞ্চ	-11.4219
ৰেক্খ	-11.4219
▁মাসা	-11.4219
▁সংৰেজ	-11.422
তিস্সত্থেরো	-11.4221
▁পঞ্ঞাবলং	-11.4223
▁ধতরট্ঠ	-11.4224
▁অভাসথ	-11.4224
▁ৰচনমব্রৰি	-11.4224
▁উত্তরো	-11.4225
▁২৬৭	-11.4226
▁সামঞ্ঞং	-11.4226
▁নিদ্ধারেত্ৰা	-11.4226
▁অনুগ্গণ্হ	-11.4226
নাথ	-11.4226
▁পলাস	-11.4229
▁সচিত্তকং	-11.423
▁পুমা	-11.4231
▁ৰুত্তেহি	-11.4231
▁দসমো	-11.4231
▁এতদগ্গে	-11.4232
▁অভিনিৰেসো	-11.4232
▁নিট্ঠ	-11.4233
▁আদিকম্মিক	-11.4233
ীযিত্থাতি	-11.4234
াভিভূ	-11.4234
বাল	-11.4237
জনং	-11.4237
▁নিযমেত্ৰা	-11.4238
▁সুণন্ত	-11.4238
▁ৰিঞ্ঞূহি	-11.4239
উপেক্খা	-11.4239
▁দসধা	-11.4239
▁নমে	-11.424
▁ফরতি	-11.424
▁অধিট্ঠাতি	-11.424
▁পিসুণ	-11.4243
▁নিপজ্জি	-11.4244
▁ভৰিতব্বন্তি	-11.4248
গোচরে	-11.4248
মেৰেতং	-11.4249
▁মানে	-11.4249
▁ৰোদানস্স	-11.425
▁পটিপজ্জি	-11.4251
▁ৰণ্ণিত	-11.4251
ৰীতি	-11.4252
পুগ্গলস্স	-11.4253
▁ব্রূ	-11.4253
▁ৰস্সসহস্স	-11.4254
▁হিম	-11.4256
▁ওপপাতিক	-11.4256
▁খমাপ	-11.4256
গুল়	-11.4257
▁পটিঞ্ঞায	-11.4259
সম্পদ	-11.426
▁পুরেজাত	-11.426
▁উপ্পজ্জনতো	-11.426
▁রাগাদযো	-11.426
▁তেৰিজ্জ	-11.4262
াপেন্তস্স	-11.4262
▁নেক্খম্মং	-11.4265
▁উদপাদীতি	-11.4266
পুগ্গলং	-11.4266
▁তম্	-11.4268
▁ৰিজ	-11.4268
▁কারয	-11.4273
পিট্ঠে	-11.4273
▁ৰম	-11.4273
▁২৪৭	-11.4273
পরেত	-11.4275
ট্ঠানেযেৰ	-11.4275
▁২৬৬	-11.4275
▁পুথ	-11.4276
▁একত্তং	-11.4278
▁ৰিভত্তং	-11.4279
▁সক্খর	-11.428
বদ্ধা	-11.4281
▁তচো	-11.4282
▁সিস্সা	-11.4283
▁ফণ	-11.4283
▁কথয	-11.4287
▁সব্বস্মিং	-11.4288
▁ওৰদতি	-11.4288
▁ৰন্দি	-11.4289
সরীরো	-11.4289
▁জনতা	-11.429
▁সভা	-11.4291
ভূতপুব্বং	-11.4291
▁রট্ঠা	-11.4291
▁উম্মুজ্জ	-11.4292
▁চৰতি	-11.4294
সম্পি	-11.4296
▁পনেতে	-11.4296
▁ফোট্ঠব্বে	-11.4296
▁রথো	-11.4297
নিকাযট্ঠকথায	-11.4297
▁ভিক্খুনুপস্সয	-11.4298
▁যাৰতাযুকং	-11.4298
▁সাযন্হসমযং	-11.4298
▁মহব্ভয	-11.4298
▁নানুসেতীতি	-11.4298
▁সণিকং	-11.4299
পাল়িযা	-11.4299
▁অরিযকন্ত	-11.43
সহাযো	-11.4301
▁মঙ্কু	-11.4302
▁পীতিসহগত	-11.4303
▁ধম্মকম্মে	-11.4303
তাৰসেন	-11.4303
ভাজনীয	-11.4303
▁ৰুত্তমেৰত্থং	-11.4305
▁সোধেত্ৰা	-11.4305
মারব্ভ	-11.4306
জু	-11.4306
▁গহিতানি	-11.4306
▁পরিমজ্জ	-11.4306
▁অরহত্তা	-11.4307
াদীনিপি	-11.4308
▁উপট্ঠাপে	-11.431
▁অরিযমগ্গং	-11.431
দোসং	-11.4311
▁পুরিমানি	-11.4311
▁সল্লক্খে	-11.4313
▁সিজ্ঝতি	-11.4313
▁অপাযেসু	-11.4316
সিনা	-11.4316
▁মদ্দী	-11.4317
▁সম্মুখীভাৰ	-11.4318
▁সমুচ্চয	-11.4319
▁২৬২	-11.4319
কুসলস্স	-11.4319
▁অন্ৰা	-11.4319
▁সংৰরায	-11.4319
▁মহাভোগ	-11.432
উপ্পাদ	-11.432
সম্ভূত	-11.432
▁সতা	-11.4321
সঙ্খারা	-11.4321
মাগতং	-11.4326
দসকং	-11.4326
▁জরামরণস্স	-11.4328
সমুজ্জল	-11.4329
▁পৰিসন্তি	-11.4332
▁অরিযেন	-11.4332
▁ওৰাদো	-11.4333
▁তেপিটক	-11.4333
▁দুপ্পঞ্ঞ	-11.4335
সভাৰতো	-11.4337
▁অপ্পিচ্ছা	-11.4338
▁ভাৰিতং	-11.4338
▁চিত্তা	-11.4338
▁ৰিপস্সি	-11.4338
▁ধেনু	-11.4339
▁সব্বধম্ম	-11.4339
▁দুতিযদিৰসে	-11.4341
▁সীহল়	-11.4342
▁গন্থনিয	-11.4342
অনা	-11.4343
▁আচিণ্ণ	-11.4344
ৰিভাগেন	-11.4344
সরীরং	-11.4345
সস্সতো	-11.4345
পীঠং	-11.4346
পিট্ঠ	-11.4347
▁কপ্পাস	-11.4347
াযতনানি	-11.4347
▁পণ্ড	-11.4347
▁পঞ্হস্স	-11.435
পঞ্চিমানি	-11.4351
▁আনাপান	-11.4352
দিত্ত	-11.4356
সিখা	-11.4356
▁নুপ্পজ্জিত্থাতি	-11.4356
▁২৫৩	-11.4356
সদ্ধো	-11.4357
দয	-11.4358
লট্ঠি	-11.4361
▁ওতর	-11.4363
▁গণ্হথ	-11.4363
▁ৰিতক্কঞ্চ	-11.4364
সংযুত্তৰণ্ণনা	-11.4364
▁অৰিজ্জাসৰো	-11.4365
▁আল	-11.4365
পস্সে	-11.4366
▁সদ্দেন	-11.4367
াদিকথা	-11.4368
▁পরিৰিতক্কো	-11.4371
▁কবল়	-11.4371
▁ইদ্ধী	-11.4372
▁সণ্ঠপ	-11.4372
▁ৰিলুম্প	-11.4373
ূপসংহিত	-11.4373
▁বহৰো	-11.4373
▁পুরক্খত্ৰা	-11.4374
▁অননুঞ্ঞাত	-11.4374
▁কটুক	-11.4375
▁সমিঞ্জিত	-11.4375
▁অত্থুদ্ধার	-11.4375
▁সুরাপান	-11.4376
▁জাতী	-11.4379
▁চিন্তিত	-11.4379
▁ইচ্চেতং	-11.4379
▁মোচেত্ৰা	-11.4381
▁অব্যাবজ্ঝ	-11.4382
সহিতং	-11.4382
▁সঞ্ঞত	-11.4384
▁তস্সেৰং	-11.4386
রজন	-11.4387
াযস্মতো	-11.4387
াদিগুণ	-11.4388
▁সূদ	-11.4388
▁ৰুত্তত্থমেৰ	-11.4388
মাগতো	-11.4389
▁সারম্ভং	-11.439
▁নিব্বত্তিত	-11.439
▁রূপেসু	-11.4391
ফুল্ল	-11.4393
▁আল়ৰক	-11.4393
▁ছদ্দন্ত	-11.4395
▁পণ্ডিতানং	-11.4397
▁পটিগ্গহো	-11.44
অন্তো	-11.44
সদিসতা	-11.4401
কুটিক	-11.4402
গেহে	-11.4405
▁কামসুখ	-11.4406
▁নিগ্গত	-11.4407
▁ভারদ্ৰাজ	-11.4407
পচ্চযং	-11.4409
▁ৰিঞ্ঞাতং	-11.441
▁বন্ধতি	-11.441
গয্হ	-11.4411
▁সমানত্থ	-11.4413
পচ্চনীক	-11.4414
দস্সিত	-11.4414
▁বহূপকার	-11.4416
▁ততিযজ্ঝান	-11.4416
▁নিদ্দং	-11.4416
গন্ত্ৰা	-11.4418
▁আগতানি	-11.4419
▁ৰিপ্পকত	-11.4419
▁কম্পতি	-11.4419
▁জনেতীতি	-11.442
▁ব্রহ্মানং	-11.4421
▁আকিণ্ণ	-11.4422
দস্সনত্থ	-11.4422
▁ৰাদে	-11.4424
নুগ	-11.4425
অড্	-11.4425
চ্ছিদ্দ	-11.4425
▁নিৰারণ	-11.4426
▁ৰরে	-11.4426
▁অগ্গহিত	-11.443
লেস	-11.4431
াতিক্কন্ত	-11.4432
▁কামভৰে	-11.4434
▁চরিত	-11.4435
▁অনাগামি	-11.4436
কাযে	-11.4436
▁মোহঞ্চ	-11.4437
▁পটিবদ্ধ	-11.4438
▁বারাণসিং	-11.4438
▁সঞ্	-11.4438
▁সমাহিতে	-11.4439
▁দহরা	-11.444
পাটিহারিয	-11.444
▁মরণধম্ম	-11.444
▁সারো	-11.4441
▁ঝানানং	-11.4442
▁ঞাতকে	-11.4442
ঙ্গার	-11.4443
▁সমন্নাগত	-11.4443
▁ভাৰিত্থ	-11.4445
গ্গেন	-11.4445
সঙ্খ্যা	-11.4445
▁অম্ভো	-11.4446
▁দস্সয	-11.4446
স্ৰাক্খাত	-11.4447
▁চক্খুস্স	-11.4447
▁ৰুচ্চন্তে	-11.4448
▁পোরিসাদ	-11.4448
মরিয	-11.4449
▁অপরিসেস	-11.4449
▁কাসিরাজ	-11.4449
▁অনাথপিণ্ডিকো	-11.4449
▁দাযাদো	-11.445
▁ৰিনিচ্ছিন	-11.4451
পলিবুদ্ধ	-11.4451
▁কল্যাণমিত্ততা	-11.4451
িযত্থেরস্স	-11.4452
▁সতসহস্সং	-11.4452
▁অধিচিত্ত	-11.4452
▁কোসম্বিযং	-11.4452
▁ব্রহ্মঞ্ঞ	-11.4452
▁অধম্মকম্মে	-11.4454
▁সলাকভত্ত	-11.4455
▁২৫১	-11.4455
▁ৰদন্তস্স	-11.4455
▁ভাজনং	-11.4455
▁অভাৰং	-11.4456
▁অঙ্গপচ্চঙ্গ	-11.4456
ৰত্তব্বে	-11.4457
▁উদপান	-11.4457
▁পুচ্ছেয্য	-11.446
▁বন্ধনে	-11.4462
▁চক্খুসোত	-11.4462
▁চরিম	-11.4464
▁আরক্খং	-11.4465
▁ছিজ্জ	-11.4466
ত্থীতি	-11.4467
▁ধম্মপদ	-11.4468
▁অনুমোদিত্ৰা	-11.4468
▁সচ্ছিকতং	-11.447
▁ইচ্ছসি	-11.4472
সিক্খাপদঞ্চ	-11.4474
▁ধংস	-11.4474
▁নিস্সিত	-11.4475
ধোত	-11.4475
▁২৫৯	-11.4477
ন্ধর	-11.4477
▁পতিস্স	-11.4477
ন্তন্তি	-11.4477
▁পদেসু	-11.4477
দ্দস	-11.4479
সারিপুত্ত	-11.4479
▁সিত	-11.4482
পরিযন্তং	-11.4482
গমে	-11.4483
▁গমিস্সন্তি	-11.4484
▁কুট্ট	-11.4484
সুখেন	-11.4485
▁ভণেয্য	-11.4488
▁সেনক	-11.4488
▁রট্ঠৰ	-11.4489
▁ৰযং	-11.4489
▁ভাসিতম্পেতং	-11.4489
▁থৰ	-11.449
▁রক্খণ	-11.449
▁জাতিজর	-11.4491
▁সুখসহগতো	-11.4491
প্পটিসংৰেদী	-11.4492
▁হানি	-11.4493
▁পটিহঞ্ঞ	-11.4494
▁সুতা	-11.4494
▁২৪৯	-11.4498
▁মহাকস্সপত্থের	-11.4498
▁২৫৭	-11.4498
▁গণে	-11.4499
▁অন্তরধাযতি	-11.45
ভাণি	-11.4501
▁সম্মত্তনিযত	-11.4502
▁দেমা	-11.4503
ঙ্গপঞ্হো	-11.4503
▁গিলানপচ্চয	-11.4505
ৰসেনাপি	-11.4506
▁সুৰিমুত্ত	-11.4506
▁পহাতব্বহেতুকঞ্চ	-11.4508
▁এৰমেত	-11.451
▁নিদ্ধারিত	-11.451
▁সুপুপ্ফিত	-11.4511
▁দীপিতো	-11.4511
▁আযুপ্পমাণং	-11.4516
সুমন	-11.4517
▁জহাতি	-11.4517
▁ৰীরিযবলং	-11.4519
▁অপরন্ত	-11.4523
▁চিত্তসহভূ	-11.4524
▁অৰিপরিণামধম্ম	-11.4524
▁পৰস্স	-11.4524
▁উপ্পাদেতব্ব	-11.4525
▁অগিলানস্স	-11.4525
▁জরং	-11.4525
▁তদপি	-11.4527
ারহা	-11.4528
▁পরিস্সযা	-11.4528
দীপকং	-11.4529
▁সগারৰো	-11.453
চ্ছদ	-11.4531
সংৰেগ	-11.4531
▁আণাপেতি	-11.4533
ধেয্য	-11.4533
ন্দ্রিয	-11.4536
-‘	-11.4536
গীৰ	-11.4537
ইধাহং	-11.4537
যেয্য	-11.4538
সংসগ্গো	-11.4538
▁ভগ্গৰ	-11.4538
প্পমুখ	-11.4538
▁পল্লঙ্কেন	-11.4539
▁অসম্মিস্স	-11.4542
পটিঘ	-11.4543
▁পুব্বস্স	-11.4543
▁উপক্কমতি	-11.4544
▁সুস্সূস	-11.4545
ারোচন	-11.4545
▁সামঞ্ঞফলানি	-11.4546
▁লম্ব	-11.4548
▁আপজ্জিতব্ব	-11.4549
পিলোতিক	-11.4549
পক্খো	-11.455
ভগৰতা	-11.455
পণ্ডক	-11.4551
▁ৰাসৰ	-11.4552
কন্দ	-11.4553
খ্যাত	-11.4554
▁সুৰণ্ণং	-11.4554
বহুৰচন	-11.4555
পরিভোগো	-11.4556
সম্বাধ	-11.4556
▁বলি	-11.4557
রূপী	-11.4558
▁সম্ভৰতো	-11.4559
▁সরভ	-11.4559
প্পটিপত্তি	-11.456
পদেসো	-11.4561
▁সসঙ্খার	-11.4561
আসৰ	-11.4561
▁ৰিত্ত	-11.4563
▁ৰিরোধ	-11.4564
আরাম	-11.4564
▁দেৰলোকং	-11.4566
▁খীণাসৰানং	-11.4566
সাহং	-11.4567
পারিসুদ্ধি	-11.4567
▁ৰণ্ণতো	-11.4568
▁সোতাপন্নস্স	-11.4569
▁হরতি	-11.4569
▁অঞ্ঞানি	-11.4572
▁পাণাতিপাতী	-11.4573
▁তদ্ধিত	-11.4575
ভোগো	-11.4578
অম্ম	-11.4578
ৰাচি	-11.4579
▁এৰমযং	-11.4583
▁দেৰরাজ	-11.4583
জাতস্স	-11.4584
▁কিলমতি	-11.4584
▁ধম্মৰিনয	-11.4585
▁সমোধানং	-11.4587
▁নিস্সট	-11.4587
ৰিচিকিচ্ছা	-11.4589
▁পটু	-11.4589
নঅনিদস্সনঅপ্পটিঘ	-11.4589
▁সন্ন	-11.459
▁সূরো	-11.4592
▁মহাভূত	-11.4593
▁নিযমো	-11.4596
▁দণ্ডী	-11.4597
▁অধিসীল	-11.4598
▁নিরুদ্ধে	-11.46
▁নিব্ভয	-11.46
▁অনত্থসংহিত	-11.4601
▁সাহত্থিক	-11.4601
▁সদ্ধাদেয্য	-11.4602
[...]
