<unk>	0
<s>	0
</s>	0
̇	-1.50353
̣	-2.2093
д	-2.70133
и	-3.35757
.	-3.75731
▁д	-3.76914
,	-3.90061
ам	-4.02682
ад	-4.20623
̃	-4.21977
о	-4.25492
т	-4.4595
аа	-4.51592
н	-4.61832
а	-4.64466
г	-4.86749
б	-4.87246
ж	-4.90629
з	-4.96453
▁‘‘	-5.21688
ваа	-5.36234
▁г	-5.43767
аад	-5.44496
’’	-5.4543
▁жа	-5.45802
▁на	-5.46014
ан	-5.46313
▁ад	-5.56984
анд	-5.6161
▁б	-5.63259
асса	-5.68485
;	-5.78531
аб	-5.81591
нд	-5.89171
▁ваа	-5.91324
зна	-5.96689
уд	-6.03501
ийд	-6.07887
▁ж	-6.10337
▁сад	-6.12008
▁сан	-6.14505
жа	-6.15649
▁–	-6.21354
▁ан	-6.22446
▁хо	-6.24225
▁бан	-6.25839
▁ид	-6.25911
ааяа	-6.30161
аанам	-6.39491
ий	-6.4239
▁вад	-6.43171
▁вуд	-6.47363
у	-6.51596
зд	-6.5294
▁бана	-6.5305
▁гад	-6.5441
аан	-6.60092
анаа	-6.60497
▁зд	-6.62245
▁саб	-6.64538
?	-6.66257
бз	-6.66377
▁звам	-6.70252
им	-6.72441
▁	-6.72498
аани	-6.73051
ум	-6.73096
▁бад	-6.76743
аг	-6.78214
▁со	-6.82258
хо	-6.83239
хаа	-6.85984
▁яа	-6.93626
▁ко	-6.95225
▁уд	-6.95516
▁уббаж	-6.96823
ат	-6.97038
хи	-6.97252
▁наама	-6.97872
хам	-6.99921
▁бхаг	-7.00323
▁сам	-7.00886
▁н	-7.03609
▁жид	-7.04022
хаад	-7.06621
▁бхигкавз	-7.0716
ияаа	-7.08784
аж	-7.10234
▁хи	-7.11411
’	-7.11442
ха	-7.13754
-	-7.17226
анам	-7.17867
▁взд	-7.18949
▁кан	-7.24137
зсам	-7.25089
зхи	-7.25403
▁хзд	-7.27556
▁суд	-7.29485
зва	-7.30281
ун	-7.31284
м	-7.35992
▁т	-7.3644
зсу	-7.37423
авад	-7.3855
хаммо	-7.39251
хаммам	-7.40205
хаммаа	-7.40474
▁жад	-7.41613
▁гат	-7.45512
▁бхан	-7.46169
▁мз	-7.49173
▁‘	-7.51126
▁аяам	-7.5278
▁ниб	-7.53162
аван	-7.55881
аяо	-7.57011
▁аг	-7.57375
ияам	-7.57534
▁.	-7.58043
ахзд	-7.60471
▁яам	-7.62006
су	-7.63126
▁вияа	-7.64043
▁бажжаяо	-7.65543
вз	-7.65582
▁ат	-7.66307
▁аб	-7.66681
аваа	-7.66743
ахид	-7.67237
▁маг	-7.67872
▁яад	-7.68032
▁згам	-7.68106
▁аж	-7.69691
▁но	-7.70806
▁бадижжа	-7.72094
▁вин	-7.73128
асмаа	-7.74959
хим	-7.76419
▁ман	-7.76685
ано	-7.78639
асмим	-7.79052
▁ааг	-7.79106
▁яо	-7.79717
▁раа	-7.80406
ийн	-7.80418
арам	-7.80999
▁бхигку	-7.81492
ийсу	-7.82419
▁,	-7.83001
агам	-7.83155
▁аабад	-7.83252
▁ааха	-7.84204
▁вид	-7.84798
рияам	-7.84943
хан	-7.85667
▁вужжа	-7.85685
асан	-7.85711
▁аад	-7.86075
сад	-7.88484
▁жзд	-7.89968
▁ван	-7.92247
ааг	-7.95464
▁бавад	-7.9551
▁буб	-7.96299
хз	-7.96458
ассзд	-7.98301
хад	-7.99345
ийнам	-8.00056
ияо	-8.01028
раахман	-8.02721
инаа	-8.05523
ааби	-8.06469
аанаад	-8.07186
▁баб	-8.07585
▁баад	-8.07869
▁самб	-8.0835
▁нидти	-8.08603
▁виж	-8.08638
▁буг	-8.09925
ахан	-8.10628
игам	-8.11447
амби	-8.11854
▁аарамман	-8.12707
жхад	-8.1396
аарамман	-8.15885
аанан	-8.16104
▁хад	-8.16292
хааяа	-8.16557
асад	-8.16782
зяяа	-8.18523
игаа	-8.19131
▁яасса	-8.19271
амзва	-8.19306
аат	-8.19397
▁уба	-8.19541
ааяад	-8.19762
уг	-8.20008
сан	-8.20222
▁саа	-8.20938
▁яз	-8.22094
▁саман	-8.22204
▁баж	-8.2224
▁мад	-8.23405
▁гим	-8.2347
хид	-8.23647
ийхи	-8.25097
иссад	-8.25506
авасзна	-8.25702
арз	-8.26076
уб	-8.27062
убажжаяаа	-8.28996
▁зва	-8.29247
▁бхигкуу	-8.29489
▁нава	-8.29651
хзд	-8.29973
аава	-8.30338
▁саад	-8.30667
уяаа	-8.30686
уу	-8.31524
хаммасса	-8.329
жид	-8.32934
хаанам	-8.32988
аро	-8.33884
язва	-8.34225
хибад	-8.34394
ажчад	-8.34508
ал	-8.34698
хасса	-8.34992
ало	-8.35354
аса	-8.35678
▁ти	-8.37079
▁нид	-8.37327
▁рад	-8.37541
▁мам	-8.37664
асуд	-8.38404
▁ин	-8.38568
▁маад	-8.38619
▁самаад	-8.38877
ра	-8.39334
▁хон	-8.39752
▁ааман	-8.39758
яад	-8.40088
▁бун	-8.4103
аяам	-8.41176
зби	-8.42381
▁яож	-8.42773
вам	-8.4294
▁жзва	-8.43631
аман	-8.44861
иго	-8.45569
арад	-8.45853
▁ган	-8.45877
▁худ	-8.46527
оби	-8.47109
зси	-8.47377
аго	-8.47417
▁руубам	-8.4751
араа	-8.47625
▁сун	-8.47812
ааро	-8.48555
ажчан	-8.48903
▁1	-8.49007
▁нахзд	-8.5032
каад	-8.50551
▁нируж	-8.50998
▁гин	-8.51186
вад	-8.52072
▁асан	-8.52326
асам	-8.53078
алам	-8.53395
ва	-8.54493
▁арахад	-8.54501
хиг	-8.54635
яаагад	-8.54821
хаммад	-8.55649
▁иминаа	-8.55691
▁гаро	-8.56903
▁вадда	-8.58372
▁сод	-8.59553
▁гааран	-8.59708
▁имам	-8.60956
исваа	-8.61051
абад	-8.61649
▁вихара	-8.61651
ино	-8.61687
агкан	-8.61734
▁имз	-8.61745
▁ахам	-8.62401
бха	-8.62753
жхан	-8.62992
▁сияаа	-8.63929
▁яаа	-8.64796
▁ахоси	-8.65221
уж	-8.65309
ваана	-8.65735
▁язна	-8.6606
▁саманнаа	-8.66955
абажжаязна	-8.67859
хаммз	-8.6817
▁ну	-8.69375
ахад	-8.69412
▁авиж	-8.70203
зро	-8.70679
сигкаабад	-8.70778
анааяа	-8.71085
хзна	-8.71249
▁аавусо	-8.7215
▁бхад	-8.7299
иби	-8.7394
хаг	-8.74228
▁сажз	-8.74304
ийни	-8.75121
▁самбаяу	-8.75247
анз	-8.75348
▁зго	-8.75387
▁буна	-8.75701
▁табз	-8.76333
ийвид	-8.76422
яан	-8.76479
ахам	-8.77003
▁буд	-8.77378
сам	-8.77441
▁згад	-8.77595
абаад	-8.77706
идти	-8.77731
▁бхависса	-8.78205
▁са	-8.7846
яам	-8.78771
▁уббаад	-8.78822
▁муд	-8.78919
исса	-8.78995
анад	-8.79024
▁гарод	-8.79347
▁убаба	-8.79915
хийд	-8.79985
знзва	-8.80194
▁самуд	-8.80269
▁нисий	-8.80395
угкам	-8.80436
▁бадисан	-8.80442
▁ниг	-8.80505
абан	-8.8149
аари	-8.81518
игз	-8.81789
▁сахаж	-8.81835
▁махаараа	-8.82031
▁яаава	-8.82927
▁рааг	-8.84694
▁бахаа	-8.84924
аран	-8.84984
аванд	-8.8504
▁маж	-8.85365
адтаб	-8.85552
▁раж	-8.85688
▁ави	-8.86297
▁анааг	-8.86728
ааяам	-8.86979
агаа	-8.87282
аабад	-8.87529
ууд	-8.87697
▁барам	-8.88067
агз	-8.88167
самбаяу	-8.88198
абажжаяаа	-8.88306
агаран	-8.88329
исам	-8.88607
▁мама	-8.89007
▁абхин	-8.8954
▁аараб	-8.90214
алагкан	-8.90277
▁ча	-8.91215
ова	-8.91406
вид	-8.91696
▁барид	-8.91869
▁од	-8.91987
▁маа	-8.92396
▁баажи	-8.92407
▁яасмаа	-8.92729
бхад	-8.93065
▁нааг	-8.93159
▁батамам	-8.93214
▁бат	-8.93386
▁асса	-8.93525
▁бажжаяаа	-8.94144
▁гаад	-8.95205
идтад	-8.95249
▁нам	-8.95668
▁лад	-8.95836
на	-8.95911
▁баан	-8.96293
▁жз	-8.96794
▁ран	-8.96845
бхан	-8.96895
▁бид	-8.97019
▁маран	-8.97052
са	-8.9746
уухи	-8.97845
▁бассад	-8.97887
звад	-8.97917
знааха	-8.9879
▁аанан	-8.99143
агат	-8.99566
▁анан	-9.00002
▁логз	-9.00082
виббаяу	-9.00316
зсо	-9.01228
ажи	-9.01432
аабз	-9.0158
▁убасан	-9.01728
▁бу	-9.02689
хааран	-9.03005
▁наяо	-9.03193
гхаад	-9.03476
▁аабаж	-9.04057
▁бхигкуно	-9.04125
ху	-9.04484
ава	-9.04703
▁висса	-9.04753
рияан	-9.048
ааван	-9.04931
ассаа	-9.04977
со	-9.05353
асо	-9.05413
▁самаяз	-9.05477
ияа	-9.05615
▁гаммам	-9.06498
▁бхаавз	-9.07629
▁бадиг	-9.08016
ассзва	-9.0882
кад	-9.08868
▁имасмим	-9.08959
▁саг	-9.09125
▁баал	-9.09288
▁гира	-9.09653
аавад	-9.09816
▁саха	-9.09962
▁жин	-9.10121
анан	-9.10695
гхо	-9.10872
▁бхо	-9.10886
ван	-9.1132
▁нирод	-9.11469
▁нзва	-9.11488
▁бин	-9.11726
▁бхаван	-9.11861
▁вий	-9.12092
▁маяаа	-9.12349
аами	-9.12444
▁1.	-9.12559
угам	-9.13079
▁яуд	-9.13378
▁виг	-9.13868
▁баг	-9.14373
▁маяхам	-9.15043
▁анад	-9.15282
▁лаб	-9.15309
▁чан	-9.15447
яуд	-9.15499
▁бужчи	-9.15654
▁важ	-9.15664
▁убасамба	-9.15815
▁суг	-9.15957
аяад	-9.16026
▁ааяасмаа	-9.16473
ассанзна	-9.16887
хаммаанам	-9.17004
▁бхун	-9.17533
ханам	-9.17712
ассзн	-9.18567
▁бхааси	-9.18808
аал	-9.1881
▁гаран	-9.18834
исаа	-9.1896
гат	-9.19301
▁вибха	-9.19359
яож	-9.19989
ивасзна	-9.20019
ахо	-9.20764
▁уг	-9.20945
▁мзд	-9.21047
▁бхава	-9.21079
▁2.	-9.21871
▁асам	-9.21944
арид	-9.22059
аарам	-9.22371
яо	-9.22401
ассид	-9.23052
▁бадибад	-9.23056
хигаран	-9.23101
▁самад	-9.23397
хий	-9.23535
авид	-9.23582
рааж	-9.23602
▁сааман	-9.2361
▁ааяасма	-9.23618
ул	-9.24067
аанад	-9.24318
агкин	-9.25132
абхуу	-9.25249
звам	-9.25279
исад	-9.2584
▁важанам	-9.2589
ааси	-9.26998
▁палам	-9.27128
саб	-9.2734
жзд	-9.27366
хисад	-9.27522
ассанам	-9.27944
▁васзна	-9.2814
усса	-9.28745
хиббааяо	-9.29049
▁жхаанам	-9.29845
▁ааяад	-9.29846
▁хан	-9.29914
▁бхуу	-9.29978
бан	-9.30331
аваг	-9.30508
▁самааба	-9.30539
гамид	-9.31652
▁адта	-9.31847
▁;	-9.31888
жзва	-9.32045
аяид	-9.32064
▁саариб	-9.32163
аанаами	-9.32429
▁сукам	-9.32712
▁аран	-9.32827
абхаавам	-9.3283
▁баабун	-9.32838
▁саммаа	-9.32869
▁гусалаа	-9.33081
▁бариниб	-9.33533
ахабад	-9.33673
имааха	-9.34234
▁багад	-9.34356
▁гзжи	-9.34426
▁анааба	-9.34452
▁саран	-9.34515
▁чад	-9.34645
аббад	-9.34839
ари	-9.35165
ааний	-9.35205
ияад	-9.3537
▁бадтааяа	-9.35779
▁саммаасам	-9.35977
знаад	-9.36299
арахи	-9.36493
▁сагго	-9.36643
▁саавад	-9.37036
хаб	-9.37697
зяяам	-9.37953
▁махан	-9.37956
▁бхож	-9.38131
гхасса	-9.38328
аахам	-9.38395
уггадам	-9.38465
хаммзсу	-9.39097
аахи	-9.39164
▁хздтаа	-9.39753
▁бхигкуунам	-9.39976
▁виму	-9.39998
▁гаамараа	-9.40458
▁гасмаа	-9.40508
аасам	-9.40531
аяаа	-9.41077
ара	-9.41187
гхам	-9.41334
исо	-9.41369
аавуд	-9.41637
алаа	-9.41946
▁махаа	-9.42016
▁ануд	-9.42056
асаа	-9.42417
кааро	-9.42544
▁нуббаж	-9.42597
аяан	-9.42597
зсз	-9.42616
▁бариж	-9.42877
осо	-9.42888
▁лагкан	-9.43245
▁а	-9.43911
авожа	-9.43916
▁самаязна	-9.43974
▁сзяяа	-9.44546
▁самбад	-9.4465
аасу	-9.44833
▁хзвам	-9.44935
хаммзхи	-9.44951
авий	-9.45173
▁бурисо	-9.45731
▁убаг	-9.45785
аамий	-9.4603
▁уб	-9.46397
▁сзсам	-9.46567
▁3.	-9.46595
амааха	-9.46746
ияз	-9.46912
си	-9.47467
▁буу	-9.47612
▁2	-9.47727
ияан	-9.47774
амаг	-9.47805
жхисса	-9.4806
▁ними	-9.48065
аабхуу	-9.48522
▁ниссааяа	-9.48873
зсан	-9.48962
уго	-9.49162
жхз	-9.49196
▁яог	-9.4934
▁жуд	-9.49443
жхид	-9.4948
▁барин	-9.49648
▁каа	-9.50043
саа	-9.50084
▁бхз	-9.50299
убаад	-9.5036
▁гусалам	-9.50561
▁саяам	-9.50943
саад	-9.50968
▁п	-9.50979
зрасса	-9.51238
хиббз	-9.51644
▁аан	-9.51755
сса	-9.51871
зяяаа	-9.51943
▁яан	-9.51981
каараа	-9.52037
▁зса	-9.52242
хигкан	-9.52353
▁гуд	-9.52683
▁звамзва	-9.52957
саг	-9.53269
аваад	-9.53302
▁анубаа	-9.53464
▁зсзва	-9.53485
абхаавзна	-9.53526
▁мано	-9.53578
арааг	-9.53626
▁самбаж	-9.53657
▁махаабхуу	-9.53971
иссо	-9.54036
▁саггаа	-9.54135
амаано	-9.54219
▁бажчаа	-9.54243
▁уж	-9.54276
ивид	-9.54291
яа	-9.54785
усмим	-9.54839
уусу	-9.54861
▁4.	-9.54927
▁кад	-9.55234
▁гожи	-9.55416
хияаа	-9.55497
▁во	-9.55525
▁суван	-9.55587
аанз	-9.55789
▁имаа	-9.55789
▁лабха	-9.55951
яат	-9.56045
▁вису	-9.56104
▁виббаяу	-9.56226
агзна	-9.56231
агад	-9.56472
ааха	-9.56587
суд	-9.56703
▁бурзж	-9.56896
анзна	-9.56979
анид	-9.57203
▁убоса	-9.57417
▁‘‘‘	-9.57745
▁авиг	-9.58062
▁имасса	-9.58235
арааж	-9.58541
ибажжаязна	-9.58592
▁кий	-9.58729
▁логу	-9.58833
▁галяаан	-9.5891
▁мид	-9.59072
▁барибху	-9.5933
▁жаад	-9.59565
взд	-9.60039
ааяаад	-9.6009
▁наг	-9.60184
▁маан	-9.60301
▁баараа	-9.60445
▁маяам	-9.60653
▁бужчаа	-9.61001
ийяад	-9.6145
угаамо	-9.61456
ийбз	-9.61777
яаад	-9.61781
▁жод	-9.61848
абхааг	-9.62021
аган	-9.6215
агаалз	-9.62155
▁наамам	-9.62167
ибаад	-9.6239
▁жийварам	-9.6254
▁агусалаа	-9.62582
уунам	-9.62642
▁таанам	-9.63035
ассанад	-9.63128
▁самат	-9.63293
адтагат	-9.6338
ияасса	-9.63985
▁ассаа	-9.64058
▁убад	-9.64322
агаанам	-9.64513
аласса	-9.64681
▁7.	-9.64781
игасса	-9.65068
▁жагкун	-9.65354
исан	-9.65564
аано	-9.65682
аси	-9.65835
▁сигкаабад	-9.65944
▁аббама	-9.66222
▁адтага	-9.66387
игааяа	-9.66501
абхааво	-9.66715
▁гаал	-9.67199
▁5.	-9.67208
▁саммад	-9.67252
абхаавад	-9.6729
яаа	-9.67595
▁зван	-9.67687
анасса	-9.67801
ассаад	-9.67853
гим	-9.68197
▁бхигкунаа	-9.68399
арасса	-9.68712
алз	-9.68721
▁важана	-9.68788
▁миг	-9.68931
рияаа	-9.69074
▁бариб	-9.69198
▁наязна	-9.69361
▁бхаави	-9.69489
▁нз	-9.69505
аяуд	-9.69604
ааяо	-9.69757
▁басаа	-9.69821
анирод	-9.70015
аяа	-9.70197
аана	-9.70206
уббаад	-9.70376
агаммам	-9.70434
▁гаам	-9.70483
▁сий	-9.7053
▁аара	-9.70534
▁6.	-9.70544
▁саж	-9.70951
▁убари	-9.71092
▁жагку	-9.71362
ана	-9.71507
▁имаани	-9.71695
иннам	-9.7189
ваяам	-9.71933
▁имзхи	-9.71942
уви	-9.72031
агго	-9.72261
асамбад	-9.72262
яз	-9.72338
анаани	-9.72412
ига	-9.72476
хзхи	-9.72528
▁зган	-9.72538
хаж	-9.72828
умхз	-9.73101
уннам	-9.73106
виннам	-9.73128
▁гаалз	-9.73517
ахи	-9.73663
▁савид	-9.73944
ажча	-9.74037
▁гхаан	-9.74204
ийж	-9.74339
▁бахааяа	-9.74871
▁сийлам	-9.7498
▁сид	-9.75054
адтаанз	-9.75598
канд	-9.75849
зсанам	-9.75933
сз	-9.75961
▁год	-9.76163
▁сзд	-9.76219
▁мижчаа	-9.76306
авиг	-9.76449
▁ахзд	-9.76902
▁саасанам	-9.76982
зсанаа	-9.77086
ассо	-9.77268
сид	-9.77325
▁гааяасса	-9.77374
▁3	-9.77747
▁баяо	-9.7805
▁8.	-9.78099
угаа	-9.78214
▁згзна	-9.78384
вуд	-9.78548
аяог	-9.78634
▁яасмим	-9.78712
идтид	-9.78762
▁абхид	-9.78778
амаанаа	-9.78897
амма	-9.79091
▁авад	-9.79234
▁9.	-9.79545
▁вихаран	-9.79564
▁бариг	-9.79649
хаммзна	-9.79683
▁лого	-9.79786
идтам	-9.79865
▁абхааси	-9.79919
▁бхавз	-9.80028
▁згаад	-9.801
ага	-9.80273
▁габбз	-9.80556
адтаанам	-9.80714
▁нийваран	-9.80909
аанусаяо	-9.80937
яог	-9.8114
адтзна	-9.81164
▁с	-9.81395
▁бхигкусан	-9.81468
▁рат	-9.81611
идтаа	-9.81721
бхож	-9.8176
▁агад	-9.81804
ивад	-9.81811
▁чин	-9.81967
▁бхигкум	-9.82396
ивасз	-9.82742
иган	-9.82807
▁бхигкуний	-9.82928
анийяам	-9.82939
▁асад	-9.82975
▁бура	-9.83027
▁бхог	-9.83072
▁амхаагам	-9.8344
хамм	-9.83513
жахи	-9.83957
аяз	-9.84128
▁гзнажи	-9.84152
▁згаа	-9.84286
▁сол	-9.84349
арзна	-9.84489
иязва	-9.84956
угкаа	-9.85072
▁абхиж	-9.8538
▁жагк	-9.85713
▁ку	-9.85915
▁син	-9.85995
▁сахз	-9.86099
ааваж	-9.86109
бийд	-9.86343
уггадасса	-9.86357
▁амад	-9.86431
▁ижжаа	-9.86512
▁мун	-9.86562
▁жагкуви	-9.86627
▁амб	-9.86683
игад	-9.86759
алан	-9.86923
иван	-9.87115
зхий	-9.88022
иссан	-9.88026
аво	-9.88557
одтаб	-9.88564
знубаса	-9.88686
▁жаран	-9.88785
аасан	-9.88966
▁ваг	-9.88998
анаязнзва	-9.89263
х	-9.89641
аама	-9.89835
▁ааб	-9.90052
▁нисинно	-9.90143
▁гусало	-9.904
▁бадиб	-9.90481
ант	-9.90748
ваарз	-9.9081
игган	-9.91012
ужжари	-9.91034
▁винаа	-9.91084
асаад	-9.91319
▁мануссаа	-9.91361
агасса	-9.91724
▁нану	-9.91849
аамам	-9.91959
▁анид	-9.92001
▁махаг	-9.92039
бадисамбхи	-9.92091
угкасса	-9.92215
▁руубаанам	-9.92236
игкан	-9.92803
идтиг	-9.92831
▁аахари	-9.93085
▁махад	-9.93589
▁уббад	-9.93931
▁чаб	-9.93972
зсзд	-9.94152
▁таби	-9.94412
виж	-9.94419
уббад	-9.94477
▁згаман	-9.94621
’’’	-9.94761
▁аббад	-9.94796
▁бадиж	-9.94859
анаагкан	-9.94983
▁гааязна	-9.95015
▁таанз	-9.95055
▁гзвалам	-9.95158
аарад	-9.95375
алад	-9.95535
оязва	-9.96131
▁васан	-9.96168
асамудтаанам	-9.9629
▁уббаннам	-9.96428
имхи	-9.96647
инам	-9.96677
▁ун	-9.96703
хин	-9.96711
зяяо	-9.96961
баяог	-9.96969
анаязна	-9.97116
▁махааж	-9.9713
▁гаарз	-9.97178
сий	-9.97378
худ	-9.97478
хааж	-9.97553
▁бамаан	-9.97638
▁ниру	-9.97934
яаабаа	-9.98023
▁ааж	-9.98045
▁бажчааж	-9.98408
▁бажжа	-9.9842
амхи	-9.9855
анабад	-9.9859
зсид	-9.9876
▁сагад	-9.98773
зязва	-9.98881
хамма	-9.98921
ахуу	-9.98934
хаарзд	-9.99029
▁гаалам	-9.9915
ахз	-9.9918
взва	-10.0021
анаанам	-10.0047
абин	-10.005
▁барису	-10.0067
▁аяан	-10.0071
▁ануб	-10.0083
▁бадибаж	-10.0089
▁ваажааяа	-10.0092
аважанам	-10.0115
▁висум	-10.0122
▁саммаад	-10.0165
амзд	-10.017
асаб	-10.0172
▁барад	-10.0174
авзд	-10.019
ааман	-10.0194
▁баато	-10.0216
арум	-10.023
угкад	-10.0234
бхааг	-10.025
арабажжаязна	-10.0317
авин	-10.0319
▁наббаж	-10.0335
буна	-10.0339
▁имзсам	-10.0348
▁руубад	-10.0395
▁бассан	-10.0398
▁баасаад	-10.0403
▁санниба	-10.0404
▁ологз	-10.0411
вийсу	-10.0431
хзсу	-10.0433
аамз	-10.0457
араамаран	-10.0463
вийхи	-10.0484
уурз	-10.0521
▁бхааванааяа	-10.0547
▁барибун	-10.0569
идтияаа	-10.057
жааби	-10.0576
бурзж	-10.0596
▁гид	-10.0603
▁логам	-10.061
▁бхин	-10.0619
▁аса	-10.0624
авам	-10.0633
▁ниссаг	-10.0634
▁вижигижчаанусая	-10.0643
абуб	-10.0661
▁бзд	-10.0664
▁вз	-10.067
▁пассо	-10.0678
гхзна	-10.0713
уяо	-10.0723
▁бурз	-10.0739
гин	-10.0742
▁судту	-10.0744
аанзва	-10.0744
алзна	-10.075
ибхз	-10.0775
барижчз	-10.079
▁зг	-10.079
▁нивад	-10.08
▁агусалам	-10.0812
▁сажжам	-10.0847
аамо	-10.0858
хааби	-10.0859
▁ол	-10.0885
▁адтан	-10.0889
алид	-10.0915
ахулаа	-10.0934
▁вибааго	-10.0941
имид	-10.0952
▁гун	-10.0955
▁руубааяа	-10.0961
ибад	-10.0964
▁барасса	-10.0967
▁барамад	-10.0989
▁4	-10.0992
▁ахзсум	-10.1009
каа	-10.1013
▁махаасад	-10.1031
хамман	-10.1046
▁баривад	-10.1052
йд	-10.1052
вин	-10.1056
аванз	-10.1059
суу	-10.1072
аманам	-10.1092
аало	-10.1134
▁манин	-10.114
авааран	-10.1168
анзхи	-10.1176
агааран	-10.1195
▁абхиваа	-10.1236
ивасам	-10.124
гами	-10.1244
ийсуби	-10.1245
▁аяамби	-10.1252
аранд	-10.1258
анаг	-10.1292
▁жаггавад	-10.1306
▁згасмим	-10.1315
унаа	-10.1358
▁арахан	-10.1361
▁гааяо	-10.1361
▁убаж	-10.137
идтан	-10.1373
аабид	-10.1376
▁висам	-10.1386
ассааби	-10.1395
иннуба	-10.143
аанасса	-10.1456
агаван	-10.1458
род	-10.1477
▁оваа	-10.1479
▁мохо	-10.1487
▁арияам	-10.1497
асаман	-10.1527
▁гаммз	-10.1561
▁убаниссая	-10.1589
▁гаамад	-10.1599
▁бхааса	-10.1601
▁ануг	-10.1607
угка	-10.1627
▁самод	-10.1639
аанамзва	-10.1648
ийяам	-10.1651
ваава	-10.1655
▁бхавам	-10.1665
вааби	-10.1678
▁гассажи	-10.1682
рияз	-10.1702
▁анижжад	-10.1704
ажзд	-10.1712
▁бависи	-10.172
▁аасава	-10.1731
▁бужча	-10.1736
гхз	-10.175
рахмажарияам	-10.1793
убажжаязна	-10.1808
аяим	-10.181
▁вира	-10.1812
аггавижаарам	-10.1829
барам	-10.1838
уно	-10.1848
харид	-10.1852
▁язсам	-10.187
▁лохид	-10.1874
умхаагам	-10.1885
▁бхави	-10.1915
▁висзсо	-10.1934
аяха	-10.194
асахи	-10.1952
авиж	-10.1967
▁нигками	-10.1976
сум	-10.1996
зяяум	-10.201
идтим	-10.205
аамяаха	-10.2057
▁гааяад	-10.2068
▁авасзсаа	-10.2069
убхуу	-10.2071
▁яуж	-10.2072
исмим	-10.2075
иний	-10.2076
абхин	-10.2076
хаммааяа	-10.2086
▁взма	-10.2122
рияаани	-10.2133
аамад	-10.2134
аними	-10.2138
асид	-10.214
маа	-10.2142
▁нзсам	-10.2144
▁ануж	-10.2164
ахум	-10.2166
▁анун	-10.2176
▁бхигкунияо	-10.2179
▁взл	-10.2192
уггам	-10.2198
▁саасанз	-10.222
аггам	-10.222
▁барижчз	-10.2221
бхог	-10.2223
▁сигка	-10.2232
▁бхаж	-10.2245
▁бунаббунам	-10.227
▁жуул	-10.2291
ибажжаяаа	-10.2291
рияа	-10.2293
ниссаяабажжаязна	-10.2295
▁бхавзяяа	-10.2298
бхуу	-10.2313
зрам	-10.2346
▁руубаа	-10.2346
▁руубагкан	-10.2356
аббамаан	-10.2356
▁агааси	-10.2371
жаннам	-10.2376
▁алан	-10.2381
зсаван	-10.2383
▁нижжам	-10.2397
сзяяа	-10.2409
асамам	-10.2424
кам	-10.243
уяхам	-10.2432
кид	-10.2436
▁ааси	-10.244
▁лин	-10.2451
▁махааб	-10.2465
▁виваа	-10.2472
зво	-10.2475
зсуби	-10.2476
араж	-10.248
▁ро	-10.249
▁барзсам	-10.2527
асамб	-10.2527
▁вийса	-10.2539
харан	-10.2549
▁манаси	-10.2553
▁чз	-10.2553
абуд	-10.2571
згад	-10.2573
абажжаяо	-10.2625
▁яаажи	-10.265
▁сажчигад	-10.265
▁аббамаа	-10.2675
ахуд	-10.2687
▁жарид	-10.2693
сун	-10.2702
▁абхисан	-10.2756
▁вийрияам	-10.2764
▁5	-10.2766
ааху	-10.2771
игат	-10.2775
сажз	-10.2781
анавасзна	-10.2792
▁аби	-10.2793
аараан	-10.2813
аанзна	-10.2815
ала	-10.2848
▁вийм	-10.2856
▁бхааванаа	-10.2862
▁аху	-10.2928
уга	-10.2938
яасса	-10.2938
▁анум	-10.2942
хаани	-10.2951
▁вираа	-10.2953
▁бадивиж	-10.2984
уубаниссаяо	-10.2987
бхуд	-10.3008
▁суж	-10.302
▁абижа	-10.303
▁бадин	-10.3042
▁бажжавзгкан	-10.3043
▁наан	-10.3078
▁бадивира	-10.3084
бхааж	-10.3092
знаби	-10.3106
варо	-10.3125
▁самааг	-10.3129
▁самаано	-10.3129
▁убалаб	-10.313
аннам	-10.3152
▁гарун	-10.3181
1.	-10.3189
▁су	-10.3225
асий	-10.3233
▁барз	-10.3241
▁гааяам	-10.3248
аваж	-10.3248
▁самаг	-10.3268
▁бхааг	-10.3273
▁агусало	-10.3285
▁кзд	-10.3315
▁зсаа	-10.3328
ияаж	-10.3331
аалан	-10.3338
▁аван	-10.3338
▁батама	-10.3357
▁бхавараа	-10.3378
саран	-10.3382
оманассам	-10.3397
ануж	-10.3408
▁басам	-10.341
▁згаг	-10.341
▁звамааха	-10.3411
▁арахаа	-10.3414
▁аарожзсу	-10.3427
абхаавз	-10.3432
▁зваруубам	-10.3498
▁бхааво	-10.3499
▁асагг	-10.3504
▁убзгки	-10.3524
ааяид	-10.3542
▁зсо	-10.355
маг	-10.3553
▁бхаяам	-10.3556
▁хий	-10.356
▁ижчи	-10.3563
▁гарзяяа	-10.3569
▁вихаарам	-10.357
сахаж	-10.357
▁багааси	-10.3576
▁буриси	-10.3582
▁соби	-10.3587
ирад	-10.3605
угад	-10.3622
▁гааяз	-10.365
зса	-10.3661
▁убха	-10.3666
хибаад	-10.3687
зрааба	-10.3734
авуд	-10.3744
зсаа	-10.375
▁убз	-10.3756
▁буримаа	-10.3775
▁набхааванааяа	-10.3793
зваанам	-10.3796
▁мусаава	-10.3812
▁згажжо	-10.3813
авааро	-10.3827
идто	-10.3833
▁соманасси	-10.3838
3.	-10.385
▁виви	-10.3853
▁жагкум	-10.3877
имаа	-10.3882
2.	-10.39
▁вавад	-10.3913
▁аруубад	-10.3914
исид	-10.3918
▁жарад	-10.3927
араг	-10.3944
▁бхи	-10.3952
ааниби	-10.3959
▁овад	-10.3972
ахуссу	-10.3986
▁убхо	-10.3988
абхог	-10.4007
аху	-10.4008
▁банасса	-10.401
▁виб	-10.4022
аараа	-10.4023
▁чаад	-10.4027
▁гааяасан	-10.4032
ханад	-10.4033
▁барижжа	-10.4044
осам	-10.4058
▁гийл	-10.4089
ийвам	-10.4089
▁ниман	-10.4096
▁ниссаран	-10.41
▁аасаваа	-10.4103
▁абхинан	-10.4126
▁нияа	-10.4159
▁махаад	-10.4163
▁бхзса	-10.4182
8.	-10.4206
▁буурз	-10.4233
ажчз	-10.4269
абарам	-10.4297
▁ул	-10.4304
▁батамаж	-10.4325
хаана	-10.433
▁сзнаасанам	-10.4333
▁сассад	-10.4335
мад	-10.4341
▁уммад	-10.4367
5.	-10.4372
абун	-10.4375
▁гаммасса	-10.4378
звабу	-10.4381
зрзна	-10.4404
ааруубам	-10.4439
▁аарожз	-10.4441
сзд	-10.4444
аагкан	-10.4452
6.	-10.4462
ваарам	-10.4464
угкааяа	-10.4491
бажчааж	-10.45
хиважанам	-10.4505
▁барияа	-10.4505
7.	-10.4514
ияамби	-10.4529
хаммага	-10.4539
инид	-10.4539
▁сахад	-10.4561
жамам	-10.4563
каар	-10.4568
▁самаяам	-10.4574
▁будто	-10.4574
▁гисса	-10.4584
ийва	-10.4585
▁новиг	-10.4599
асмин	-10.46
▁бхигкунияаа	-10.4609
буб	-10.461
4.	-10.462
агаад	-10.4625
▁бораан	-10.4638
▁чаннам	-10.4646
бхам	-10.4656
жжаад	-10.4666
нирод	-10.4686
амаанз	-10.4699
▁лабхи	-10.47
ил	-10.4713
зраа	-10.4722
▁манови	-10.4766
▁11.	-10.4772
арааяа	-10.4781
игаанам	-10.4789
виму	-10.4813
▁убзгкаа	-10.4815
каараг	-10.4815
кан	-10.483
▁манасаа	-10.4834
удто	-10.4839
аяи	-10.484
▁згасса	-10.4844
▁гамман	-10.4854
гааро	-10.4863
▁сукааяа	-10.4867
▁бхигкуухи	-10.4893
▁вибассанаа	-10.491
взг	-10.4911
рахмаа	-10.4923
▁жаван	-10.4933
имз	-10.4948
▁гаамаг	-10.4954
9.	-10.4962
хзяяа	-10.4962
аббам	-10.4968
▁ануббад	-10.4973
аруубам	-10.4973
бадибад	-10.4978
▁вижигижчаа	-10.4981
▁гааяавин	-10.4981
хааро	-10.4988
▁баабам	-10.499
габбо	-10.5047
▁гаммабажжаязна	-10.5048
зраг	-10.5049
саж	-10.5055
бхаг	-10.5063
▁арияасааваго	-10.5066
▁звамби	-10.5066
уул	-10.5071
▁ажжан	-10.5071
авим	-10.5076
▁абхаавад	-10.5088
аамаг	-10.5109
хаанан	-10.5113
араса	-10.5116
ааязва	-10.5119
жаггаваал	-10.5129
аанамби	-10.5167
галяаан	-10.517
ааяисса	-10.5171
игкад	-10.5186
▁гари	-10.5198
▁самудтаа	-10.5223
амааси	-10.5224
▁бадисам	-10.5239
▁яаани	-10.5268
зхз	-10.5278
жхаанам	-10.5282
▁ниж	-10.5282
аяаб	-10.5295
уран	-10.5313
хуу	-10.5315
▁барибхо	-10.5318
ассуд	-10.533
агижжам	-10.5338
▁вибаагам	-10.5351
ахим	-10.5352
ахоси	-10.5369
▁аагин	-10.5392
▁хим	-10.5415
ажчзяяа	-10.5417
зсанааяа	-10.5431
▁вибхан	-10.5432
аарзна	-10.5444
аббавад	-10.5448
▁алам	-10.5456
▁муул	-10.5461
▁висад	-10.5468
аанусаяан	-10.5493
▁бхуд	-10.5494
▁нибаж	-10.5501
аарз	-10.5502
иязна	-10.5515
ассанасаббадигх	-10.5524
арун	-10.5532
хзва	-10.5544
анаасу	-10.5545
ааяий	-10.5547
▁6	-10.5561
исз	-10.5562
имам	-10.5564
асзна	-10.558
▁жасса	-10.5582
хисса	-10.5603
нийваран	-10.5606
▁винижчаяо	-10.5614
алаанам	-10.5623
▁13	-10.5626
гхад	-10.5626
▁мукам	-10.563
ахулийга	-10.5645
▁гзна	-10.5653
игаад	-10.5657
▁логасса	-10.5661
ааса	-10.5666
▁наанусз	-10.5667
▁ваажаа	-10.5669
угасса	-10.5676
зхам	-10.5681
▁бахийно	-10.5714
ман	-10.5715
▁анижжаа	-10.5728
анияад	-10.5739
▁гаалзна	-10.5763
ассаби	-10.5779
алим	-10.5788
арат	-10.5797
▁жааби	-10.58
аасий	-10.5811
зраса	-10.5816
▁таанзсу	-10.5816
▁руубасса	-10.5822
▁л	-10.5828
аарахам	-10.5829
аабий	-10.5842
хзгажжо	-10.5848
умуд	-10.5851
▁васид	-10.5855
▁бурисасса	-10.5855
▁адтааси	-10.5858
хажжасаха	-10.5859
▁луд	-10.587
▁ааяу	-10.5876
ниссаяа	-10.5876
▁15	-10.5877
саман	-10.5878
▁аахаарз	-10.588
▁14	-10.5886
жхаанз	-10.5895
▁нигкан	-10.5904
ааран	-10.5906
▁абад	-10.5917
хасан	-10.5922
агаани	-10.5932
▁чи	-10.5935
аавин	-10.5939
▁сал	-10.5952
▁12.	-10.5958
▁бажжзгаб	-10.5959
▁вихаарз	-10.5961
▁убзгкаасаха	-10.5961
ууни	-10.5966
иггами	-10.5973
ижжаад	-10.5974
ийнан	-10.5978
▁батамо	-10.5985
▁анубу	-10.599
анисси	-10.6022
▁рагка	-10.6022
бууж	-10.6054
▁уббаннаа	-10.6065
ийран	-10.6071
иннаад	-10.6073
аарзд	-10.6093
▁суб	-10.6114
▁гаамз	-10.6115
л	-10.6118
угканир	-10.612
каарз	-10.6127
аанусаязна	-10.6141
абарин	-10.615
▁сигки	-10.6151
ару	-10.6177
▁гамма	-10.6189
ханзна	-10.6199
▁наанад	-10.621
▁бадисамбхи	-10.6222
▁убаали	-10.6231
▁арияаа	-10.6232
ивияа	-10.6253
▁анаваж	-10.6258
▁наабхиж	-10.6264
▁гилзсаа	-10.6281
▁бадибанно	-10.6293
▁гаая	-10.6294
▁аанис	-10.6295
▁бамаа	-10.6311
анасан	-10.6322
асавид	-10.6327
умб	-10.6348
▁сарийрам	-10.6349
▁чадтам	-10.6358
▁рз	-10.6368
▁вивад	-10.6371
харо	-10.6371
▁вибарин	-10.639
игзна	-10.6398
▁аяамзва	-10.6405
увам	-10.6408
▁виру	-10.6409
ийяо	-10.641
▁саммо	-10.6412
хараа	-10.642
▁бадигхаанусаяо	-10.6444
▁сукад	-10.645
▁ахан	-10.6451
▁гхад	-10.6457
▁нигки	-10.6477
агкад	-10.6477
▁муни	-10.6481
исамб	-10.6498
▁абхигга	-10.6509
▁мааг	-10.6517
▁кама	-10.652
адто	-10.6522
▁вираж	-10.6527
▁басси	-10.6531
▁ви	-10.654
аажи	-10.655
▁жийвара	-10.6563
▁намаг	-10.6564
▁вааби	-10.6567
сахаг	-10.6574
яааб	-10.6585
хинаа	-10.659
▁багаасзн	-10.6594
▁нааасзванз	-10.6595
аавусо	-10.6596
угкан	-10.6602
▁бхияяо	-10.6608
▁сажжаани	-10.6617
жасу	-10.664
иссаамий	-10.6644
апалам	-10.6657
▁гаамаа	-10.6667
▁убаниссааяа	-10.6686
▁аагаасз	-10.6696
▁бахийнаа	-10.6701
▁аббан	-10.6706
▁нагаммз	-10.6715
убажжаяо	-10.6724
лагкан	-10.6726
▁саммабба	-10.6726
▁рууб	-10.674
аасаво	-10.6785
бхз	-10.6785
ааминий	-10.6789
▁яааг	-10.6789
гааран	-10.68
▁уббанно	-10.6818
арим	-10.6832
▁самма	-10.6838
аасад	-10.6843
▁сувин	-10.6851
зсий	-10.6867
▁бхаво	-10.6871
ивхаа	-10.6883
яаг	-10.689
▁сон	-10.6927
инно	-10.6934
▁важийсан	-10.6935
▁нзваса	-10.6947
▁вибаагад	-10.6957
ааяаа	-10.6967
аанаасан	-10.698
хано	-10.6981
▁гилзсз	-10.6991
▁навибаагз	-10.6992
▁чал	-10.7001
асамудтаанан	-10.7006
хияам	-10.7009
▁гаараабз	-10.7014
ванд	-10.7019
аанусаяам	-10.702
оси	-10.7026
гаран	-10.7028
▁вам	-10.7036
исахаг	-10.7037
▁мануссаанам	-10.7043
▁вассам	-10.7044
илин	-10.7045
▁сааг	-10.7046
▁бажчимаан	-10.7053
▁сзви	-10.7067
▁саммааса	-10.707
▁ахосий	-10.7075
аабзси	-10.7084
иссаа	-10.7087
▁гаалан	-10.7088
аабхисан	-10.709
мид	-10.7093
▁бхигкусса	-10.7095
▁логияа	-10.7098
▁ануббаад	-10.71
ийбан	-10.7107
авасзнзва	-10.7118
аанияо	-10.7123
▁багаасз	-10.7127
▁сукаа	-10.7136
зл	-10.7142
▁бадинисса	-10.7149
▁самаахи	-10.7163
▁бужчан	-10.7167
▁ниваасз	-10.7169
▁аал	-10.7172
уван	-10.7179
аагаарзна	-10.7187
ааяи	-10.7201
▁адтамам	-10.7209
▁жун	-10.722
ая	-10.7223
▁вод	-10.7228
▁зл	-10.7247
▁ассу	-10.7259
▁нона	-10.7263
▁13.	-10.7281
▁сигкаа	-10.7309
▁баллан	-10.7313
жхааяан	-10.7327
хум	-10.7327
ассий	-10.7328
▁яуг	-10.7342
ассаамий	-10.7343
уган	-10.7351
▁7	-10.7352
▁имааяа	-10.7356
арияам	-10.736
▁хам	-10.7363
▁бажжуббанн	-10.737
араад	-10.7378
▁абхисамб	-10.7385
▁нагусал	-10.74
▁анусаяаа	-10.741
▁ваажам	-10.7413
▁бахаанааяа	-10.742
▁аси	-10.7423
▁зга	-10.7424
▁вижигижчааса	-10.7435
▁аабо	-10.7443
▁саара	-10.7451
▁рагки	-10.7459
▁гамб	-10.7462
▁17	-10.7473
▁жагкаа	-10.7474
идтзва	-10.7486
зсамби	-10.7491
асод	-10.7527
с	-10.7528
▁16	-10.7529
▁саяамзва	-10.7541
асамаад	-10.7545
аанагкан	-10.7546
▁руубз	-10.7551
▁бадивз	-10.7561
▁анияа	-10.7567
арзсам	-10.7569
▁гулабу	-10.7571
харад	-10.7572
▁лаж	-10.7602
▁гасин	-10.7627
хамби	-10.7634
▁сасан	-10.764
▁гаммадтаанам	-10.7641
кзбад	-10.7647
▁висзсад	-10.7653
▁14.	-10.7657
▁асий	-10.7668
▁баро	-10.7671
▁руубаани	-10.7673
▁ижчад	-10.7675
исваана	-10.7676
▁батамз	-10.7677
вибхааг	-10.7679
▁самбхава	-10.7685
хурам	-10.7691
араб	-10.7697
ийво	-10.7708
▁имзсу	-10.7714
ибхуу	-10.7717
сод	-10.7721
▁паласама	-10.7737
▁саарад	-10.7738
▁анаг	-10.7768
▁ааган	-10.7777
▁гусалад	-10.7782
▁бураан	-10.7783
аалам	-10.7789
▁мог	-10.7791
▁аахааро	-10.7799
идтз	-10.78
иггамма	-10.7803
▁баасаан	-10.7807
ияаанам	-10.781
иражчаанаг	-10.7812
хаанз	-10.7813
▁гаммзна	-10.7813
▁мужжа	-10.7828
хиб	-10.7831
▁сийсам	-10.7838
▁вассаани	-10.7838
ийрз	-10.7847
▁маанад	-10.7861
▁адтаараса	-10.7867
▁яааваж	-10.7876
ар	-10.7903
▁васад	-10.7906
▁логад	-10.7912
баарааж	-10.7916
аалаа	-10.792
анаяамзва	-10.793
абаан	-10.7934
▁вибассанам	-10.7935
санид	-10.7946
▁гважи	-10.7964
▁абарабхаа	-10.7974
▁8	-10.798
ирияааба	-10.799
▁анусзд	-10.7996
жхам	-10.802
аахирам	-10.8021
▁ааробз	-10.8026
▁гаамзхи	-10.8029
убоса	-10.8034
▁манасигаро	-10.8053
▁барияаа	-10.8075
▁баваарз	-10.8076
абуг	-10.8084
чан	-10.8092
▁габ	-10.8095
▁вибхаавз	-10.8101
ол	-10.8102
аамим	-10.8106
рахмад	-10.8124
хиго	-10.8128
▁бийл	-10.8129
аха	-10.8144
▁харид	-10.8147
умхи	-10.8156
▁жагкунаа	-10.8163
убад	-10.8174
▁бхарияаа	-10.8194
▁сагун	-10.8198
▁арияо	-10.8203
▁гал	-10.8203
▁яааяа	-10.8214
ахаарааж	-10.8221
▁навамам	-10.8226
▁авожа	-10.8232
▁ануру	-10.8235
▁ог	-10.8237
▁арун	-10.8249
рааг	-10.8256
▁убасам	-10.8258
▁бадижчаа	-10.8262
аасо	-10.8264
▁аанз	-10.8276
аабан	-10.8279
▁яонисо	-10.8288
арахад	-10.8291
▁вассасад	-10.8298
химаг	-10.83
▁18	-10.8304
▁пал	-10.8305
▁бахийяа	-10.8305
▁сабхаа	-10.8306
▁бавужжа	-10.8308
аабхаавад	-10.8311
▁ахамзва	-10.8311
▁бадигхаанусая	-10.8313
▁бажжаяаанулом	-10.8325
аахо	-10.8327
▁гаало	-10.8345
▁маанаанусаяо	-10.8355
▁абан	-10.8372
уро	-10.8393
ран	-10.8396
жжигадтабарамад	-10.8401
исуд	-10.8402
аавий	-10.8404
сзна	-10.8405
▁ваал	-10.8407
имаг	-10.8418
▁саммуд	-10.8423
▁лаг	-10.8429
▁нираяам	-10.8449
аасим	-10.8455
амасо	-10.8462
▁басса	-10.8489
▁15.	-10.849
▁аними	-10.8495
адтид	-10.8498
▁логасмим	-10.851
ааггамам	-10.8512
▁гарисса	-10.8514
▁аагаасаанан	-10.854
аяасажж	-10.8544
▁манаая	-10.8553
▁9	-10.8553
хигаа	-10.8555
хаммасан	-10.8569
▁лобхо	-10.8569
▁бадила	-10.857
ассу	-10.8574
▁16.	-10.8581
▁бааба	-10.8588
▁язбхуяязна	-10.8588
алаани	-10.8598
▁вибаагз	-10.8608
аанааг	-10.8608
аанаг	-10.8609
асамудтаанаанан	-10.8611
асамбанно	-10.8611
▁аасан	-10.8612
▁мижча	-10.8621
ийяаа	-10.8632
▁гусаласса	-10.864
▁згааяа	-10.8647
инами	-10.8647
асахассаани	-10.8658
авз	-10.866
▁саммукаа	-10.8669
▁варам	-10.8676
гхабх	-10.8684
угкасажжам	-10.8694
▁гзхижи	-10.8696
гаарам	-10.8707
▁гулз	-10.8708
▁мусаа	-10.8709
▁багкиби	-10.8722
▁саяан	-10.8722
▁род	-10.8723
амзнам	-10.8727
▁анижжам	-10.8731
▁звамзвам	-10.8743
асаннам	-10.8744
▁рууба	-10.8749
▁насаман	-10.8762
аяоби	-10.8764
ахуж	-10.8778
▁бход	-10.8806
знааби	-10.8811
анасад	-10.8815
▁бабан	-10.8827
арог	-10.8827
▁згз	-10.8837
агаж	-10.8837
ааяаби	-10.884
ийбид	-10.8841
иссам	-10.8841
садто	-10.8844
виг	-10.8847
уубаг	-10.8848
▁лабхан	-10.8871
▁наро	-10.8871
▁буриса	-10.8874
▁убадти	-10.8876
▁сукасах	-10.8881
▁взраман	-10.8892
▁сзсаа	-10.8894
агаалам	-10.8897
▁язхи	-10.8907
▁гаамзсу	-10.8908
рааяам	-10.8919
▁згажжз	-10.8929
абхан	-10.8932
▁бажчимабхавиг	-10.8934
▁кид	-10.8941
зсзна	-10.8942
угк	-10.8956
▁химаван	-10.8967
▁саава	-10.8979
амахам	-10.8982
▁бурисаа	-10.8983
арасмим	-10.8986
анавибаага	-10.9001
▁сагам	-10.9008
▁вис	-10.9012
▁муулам	-10.9013
▁каг	-10.9016
▁махаасаму	-10.9021
вибад	-10.9023
ажийварам	-10.9027
ханз	-10.903
▁арахам	-10.9044
агзхи	-10.9048
▁вихараами	-10.9059
авиббая	-10.9059
ийгхам	-10.906
▁нияяаа	-10.9102
ажчи	-10.9112
абат	-10.9122
рамман	-10.913
▁ануяу	-10.913
▁сзяяо	-10.9149
бхо	-10.9149
кийн	-10.9157
гилзсаа	-10.9161
ажагку	-10.9164
▁наанан	-10.9174
угаамад	-10.9174
хунаа	-10.9186
увз	-10.9198
▁лан	-10.9199
▁зваруубо	-10.9213
ияид	-10.922
аяож	-10.9228
▁19	-10.9233
▁барияааязна	-10.9239
зваанамин	-10.9244
▁гамм	-10.9246
▁?	-10.9246
▁абха	-10.9248
ассанасаббадигхо	-10.9252
бхи	-10.9255
усан	-10.9256
аманз	-10.9268
зми	-10.9276
убаг	-10.9276
мхи	-10.9283
асу	-10.9291
▁17.	-10.9294
знзвааха	-10.9311
илагкан	-10.9322
зсзн	-10.9323
хиж	-10.9345
▁бавз	-10.9349
хидтаанам	-10.9351
угаамаа	-10.9351
▁наубаниссаяз	-10.9354
▁баран	-10.9355
▁гижжам	-10.9365
▁жхаанз	-10.9366
рияасса	-10.9378
▁махаамо	-10.9378
аабзн	-10.9383
▁нира	-10.9393
▁важанзна	-10.9393
▁ниссаяз	-10.941
улам	-10.9423
▁вудти	-10.9436
исаж	-10.9455
логу	-10.9463
алаг	-10.9466
васзна	-10.9466
жхаа	-10.9469
▁авуд	-10.948
асаманнаа	-10.9492
хаго	-10.9497
▁киббам	-10.951
▁наамзна	-10.9513
гха	-10.9519
▁мануссзсу	-10.9531
▁мааро	-10.9534
угкз	-10.9535
▁аваж	-10.9555
абаб	-10.956
▁абанз	-10.9569
имогкам	-10.9572
иса	-10.9574
хаса	-10.9577
▁махааг	-10.9581
▁сийлаб	-10.9587
▁бадигки	-10.9595
▁руубааважар	-10.9601
▁аараамз	-10.9622
▁банаавусо	-10.9647
вибаага	-10.9657
▁убаниссаяз	-10.9661
▁баагад	-10.9661
иссаами	-10.9668
аруд	-10.9669
раж	-10.967
▁22	-10.9672
мимаг	-10.968
ибхаавам	-10.9681
жасад	-10.9691
зсзси	-10.9692
▁19.	-10.9695
▁руубан	-10.9696
▁махаб	-10.9698
▁18.	-10.9703
агаало	-10.9706
исааяа	-10.9711
▁часу	-10.972
▁ааран	-10.9724
хибан	-10.9732
хаанад	-10.9737
▁наал	-10.9745
асажжам	-10.9747
овим	-10.9754
▁бхигкунийнам	-10.9755
▁нираяз	-10.9771
ийбам	-10.9774
ханаа	-10.9787
зсум	-10.9796
▁сзсамз	-10.9796
▁богкаран	-10.9804
иггамо	-10.9805
идта	-10.9808
▁баабз	-10.9812
▁ниранусаяо	-10.9813
▁басий	-10.9831
▁пасс	-10.9832
▁взсс	-10.9845
ааяз	-10.9845
усид	-10.9846
анияам	-10.9846
аманад	-10.9849
исамзва	-10.9863
▁вижаран	-10.9867
▁сарад	-10.9868
ахулам	-10.987
▁сийлаа	-10.9872
▁саасана	-10.9888
▁гон	-10.9895
бхаавад	-10.99
аанаани	-10.9904
хааяааха	-10.9905
▁сук	-10.9906
яаагара	-10.9907
▁абхуу	-10.9911
аавасзна	-10.9912
▁аяа	-10.992
▁самбадижчи	-10.9922
▁бариваж	-10.9932
ассано	-10.9935
▁нийхари	-10.994
▁гассаба	-10.9951
▁23	-10.9955
арабад	-10.9958
▁сука	-10.9963
асахаг	-10.9972
▁саманубасса	-10.9973
▁губ	-10.9975
▁нис	-10.998
▁21.	-10.9988
▁каж	-10.9988
асамз	-10.9999
▁гуггужжам	-11.0028
асаг	-11.0028
хаарзн	-11.0028
▁ма	-11.0035
каараанам	-11.0041
▁саллагкз	-11.0043
▁габбад	-11.0047
умааха	-11.0054
ияаг	-11.0062
асигам	-11.0072
▁бажжавзгка	-11.0089
▁бурисам	-11.009
хас	-11.0095
▁нзвавибааг	-11.01
алавад	-11.0104
▁сугад	-11.0105
▁амхзхи	-11.0105
▁саал	-11.0107
▁бунаб	-11.0114
аануб	-11.0127
▁анубасамбанн	-11.0132
▁нин	-11.0139
ийвад	-11.015
▁бассаами	-11.0161
▁жхаанасса	-11.0162
▁гаари	-11.0165
▁21	-11.0166
▁аасанз	-11.0167
хугам	-11.0174
▁23.	-11.0176
▁22.	-11.0182
▁аабанно	-11.0188
имб	-11.0194
▁гуж	-11.0198
▁ижчан	-11.0205
угз	-11.0213
▁гаамааважар	-11.0215
▁анусз	-11.0219
зрассааб	-11.0231
рияаанам	-11.0232
аалийса	-11.0235
алий	-11.0246
хийро	-11.0247
ийгхара	-11.0249
ожаро	-11.0252
▁бадижжасамубба	-11.0255
▁аажигки	-11.0259
▁саван	-11.026
бхааси	-11.0266
арасам	-11.0266
▁яамби	-11.0276
▁угки	-11.028
▁чахи	-11.028
▁гхаад	-11.0284
▁бахаанам	-11.0298
▁яаажа	-11.0305
аабанно	-11.0307
химад	-11.0315
ийнавам	-11.0317
гаро	-11.0318
▁24.	-11.0327
▁ва	-11.0337
муул	-11.0338
▁гааяагаммам	-11.0344
▁нигкиби	-11.0348
▁бадигхаанусаяан	-11.0355
▁жирам	-11.0364
жхаана	-11.0366
▁вааяо	-11.0368
ааяаго	-11.0371
▁вимад	-11.0375
▁убхиннам	-11.0392
ассанааббадигх	-11.0393
▁рам	-11.0397
▁вагка	-11.0404
ассам	-11.0413
ихзд	-11.0414
▁нууна	-11.0414
▁жхааби	-11.0415
гхан	-11.0415
▁аруубз	-11.0433
агаал	-11.0435
▁ахо	-11.0436
взби	-11.0437
▁26.	-11.0444
▁взяяа	-11.0444
▁згаж	-11.0445
хаммаг	-11.0453
▁25.	-11.0458
бхид	-11.0461
▁анзгави	-11.0478
▁бависан	-11.0481
▁бадигкиба	-11.0491
ибан	-11.0514
самаад	-11.0516
хуббаад	-11.0519
ббамаан	-11.0525
аббан	-11.0526
▁лобо	-11.0529
▁барихааяа	-11.0547
хигам	-11.0557
авиму	-11.0559
аггз	-11.0563
▁аагхаад	-11.0564
илаано	-11.0568
▁вибхааг	-11.057
▁ануломам	-11.0584
хаанзси	-11.0586
▁маано	-11.059
асахассам	-11.059
хабан	-11.0591
маад	-11.0592
я	-11.0593
▁м	-11.0597
гилидтасам	-11.0603
▁гусалзсу	-11.0609
араани	-11.0619
▁муху	-11.0623
▁абаг	-11.0624
▁27.	-11.0629
▁гусалаанам	-11.0633
амаанад	-11.0641
▁васам	-11.0657
аавим	-11.066
зсуу	-11.0661
авибхааг	-11.0669
▁имиссаа	-11.0673
асин	-11.0679
▁барааж	-11.068
▁винаяад	-11.0683
аамасса	-11.0683
ассанаа	-11.0685
▁саанусаяо	-11.0685
арийд	-11.0688
аахий	-11.0695
▁огаасам	-11.07
хаарз	-11.0703
▁аажарияо	-11.0707
уубам	-11.0715
жхаг	-11.0722
амзхи	-11.0726
ассанз	-11.0728
аараво	-11.0729
звалогз	-11.0729
аанабад	-11.0735
▁барияо	-11.0738
важ	-11.0745
ийван	-11.075
хагз	-11.0751
хааг	-11.0752
угкамасукааяа	-11.0756
бун	-11.0767
ахуло	-11.0768
▁вибад	-11.0769
иннаа	-11.0769
имуд	-11.0773
▁28.	-11.0774
каарам	-11.0776
▁аави	-11.0791
аараг	-11.0798
аанаван	-11.0802
▁баагадам	-11.0805
ирид	-11.0808
▁нагусало	-11.0814
▁баггаами	-11.0836
▁29.	-11.0837
злам	-11.0838
анадтзна	-11.0844
жижжа	-11.0844
▁гажжи	-11.0852
асаммад	-11.0852
▁балиб	-11.0854
ассанааяа	-11.0857
▁гаммаани	-11.0863
▁винаяо	-11.0864
знз	-11.0867
▁уяяо	-11.0874
ааяагад	-11.0875
абзн	-11.0881
ааригаа	-11.0883
асз	-11.0892
▁сари	-11.0926
гамма	-11.0937
асигаа	-11.0942
▁винаяз	-11.0943
▁31.	-11.0951
▁барисаа	-11.0955
▁сийлзна	-11.0964
▁руд	-11.0967
▁ваарз	-11.0969
наахам	-11.0972
▁иж	-11.0975
▁батамад	-11.0977
асасу	-11.0978
инна	-11.0979
угки	-11.0984
аннаамасса	-11.1
нибаад	-11.1001
▁сабхаавад	-11.1004
▁мод	-11.1005
хавасзна	-11.1008
аара	-11.1008
арзхи	-11.1017
ааригам	-11.104
▁бабхз	-11.1042
▁бажжаяз	-11.1048
буг	-11.105
аанияам	-11.105
ахий	-11.1053
▁убаасаго	-11.1057
абхад	-11.1072
▁анаасаво	-11.1073
асияам	-11.1073
сажжам	-11.108
хиббааязна	-11.1084
▁бахид	-11.1103
хидтаа	-11.1103
зс	-11.1108
▁саавагаа	-11.1111
варам	-11.1119
▁гзсаа	-11.112
▁багкан	-11.1121
асим	-11.1124
гаман	-11.1126
▁вивижжзва	-11.1132
чад	-11.1133
амано	-11.1134
абарияан	-11.1136
▁аббахийно	-11.1149
▁сарийрз	-11.115
▁авибари	-11.1153
ибхааво	-11.1183
▁жарз	-11.1206
асамо	-11.1209
анзсу	-11.1215
аамож	-11.1219
▁33.	-11.1225
▁35.	-11.1226
аяасса	-11.1233
абарибхо	-11.1233
▁32.	-11.1235
навуд	-11.1244
ассаавий	-11.126
▁бхууми	-11.1261
зсад	-11.1283
▁агусалаанам	-11.1298
▁суки	-11.13
▁саамам	-11.1307
▁сзва	-11.1311
руубам	-11.1312
▁намо	-11.1313
▁авигкзбо	-11.1315
▁гаамам	-11.132
▁в	-11.1329
жчид	-11.1333
сааяа	-11.1339
▁бажжаяабажжаний	-11.134
▁сааран	-11.134
▁наамаа	-11.1343
▁гааяажи	-11.1343
абужчаа	-11.1346
ас	-11.1349
асамуд	-11.1355
аахзд	-11.1358
▁гааяигам	-11.137
иминаа	-11.1371
ваг	-11.1372
уяог	-11.1381
▁вудтахи	-11.1382
▁ану	-11.1397
▁11	-11.1405
▁12	-11.1408
аарагаа	-11.1412
асамад	-11.1414
нааг	-11.1414
▁аагаарзхи	-11.1416
ижид	-11.1418
абурзж	-11.1425
▁мажжу	-11.1428
аабаж	-11.1438
▁34.	-11.1446
хиваасз	-11.1448
ийяан	-11.1449
▁анувад	-11.1449
▁нисса	-11.1451
▁сздто	-11.1453
▁раман	-11.1461
идтияо	-11.1472
уурад	-11.1478
▁нисиннам	-11.1482
аахаран	-11.1485
▁пуси	-11.1489
▁наанаа	-11.1489
звз	-11.1494
▁гилзсаанам	-11.1527
згаг	-11.1529
хияа	-11.1533
аажаран	-11.1534
аяхад	-11.1536
▁ануваа	-11.1543
ийрид	-11.1548
абарид	-11.1557
▁бужчаами	-11.156
абхааван	-11.1567
звзд	-11.1571
▁сийлаваа	-11.1571
▁бадилабха	-11.1573
абадиб	-11.1575
▁вихааро	-11.1576
яасуд	-11.1583
▁саммаасамаа	-11.1593
аамзна	-11.1593
▁барисааяа	-11.1593
▁36.	-11.1595
▁висан	-11.1597
▁ванз	-11.1607
асамудтаанаанам	-11.1613
▁ааху	-11.1625
алаад	-11.1629
агган	-11.1631
жагкан	-11.1645
зяяамзва	-11.1651
руухи	-11.1655
▁грияа	-11.1655
анияаа	-11.1656
рид	-11.166
▁взг	-11.1661
▁ассаасабассаас	-11.1673
хагам	-11.1675
аанияаа	-11.1678
▁нааби	-11.1682
жарид	-11.1685
исзсо	-11.1686
▁гаарзси	-11.1692
осад	-11.1694
▁сумз	-11.1695
хаава	-11.1697
згам	-11.1702
асахааяа	-11.1707
▁лики	-11.1708
▁39.	-11.171
угкасаму	-11.1712
▁37.	-11.1714
агулз	-11.1723
уббан	-11.1728
▁аарожзси	-11.1733
▁жхаана	-11.1734
▁гааяаг	-11.1735
бадиг	-11.1735
▁бажжагка	-11.1737
▁згавийса	-11.174
▁бхуумияам	-11.174
аязна	-11.1742
▁угкиби	-11.1742
анаабад	-11.1744
▁баависи	-11.1746
арий	-11.1747
▁сахаб	-11.1753
аарияам	-11.1754
▁огга	-11.1756
▁баривуд	-11.1766
аару	-11.1766
аагаарам	-11.1785
▁вибассанааяа	-11.1786
▁абхибхуу	-11.179
▁убхаяад	-11.179
▁рахо	-11.1793
▁маарз	-11.1804
абарил	-11.1804
▁аасзванз	-11.1807
▁нал	-11.1819
▁бахари	-11.1828
исий	-11.183
▁авий	-11.1839
▁бадижжаваараа	-11.1841
ннаануба	-11.1842
▁38.	-11.1843
▁висо	-11.1855
▁ужчз	-11.1859
▁убадтаа	-11.1859
▁бажжзгам	-11.1861
ис	-11.1863
аббабхз	-11.1867
▁нигкаман	-11.1867
▁махаабан	-11.1873
▁абажаяа	-11.1879
садтасамудтаан	-11.1884
▁бхаяад	-11.1885
иман	-11.1889
▁авин	-11.1892
▁махи	-11.1898
ийрам	-11.1902
агкз	-11.1906
▁саггажжам	-11.1917
▁аахаарам	-11.1923
рави	-11.1932
▁винзяяа	-11.1939
авияам	-11.1943
угкзна	-11.1944
▁бажжаяад	-11.1951
▁лаабхий	-11.1956
▁аббам	-11.196
аанисам	-11.1975
▁бадисз	-11.198
▁пари	-11.1981
▁зваруубаа	-11.1983
садтаа	-11.199
агаро	-11.1994
▁гаажи	-11.1997
осаа	-11.2
▁аббавад	-11.2004
яаабаж	-11.202
мзд	-11.2025
ааминаа	-11.2025
ийгааро	-11.2032
аараго	-11.2038
анибаад	-11.2038
▁гусала	-11.2044
▁сагаваад	-11.2047
звий	-11.2051
▁баабагаа	-11.2054
▁аяу	-11.2057
анижжам	-11.2057
▁вудтаа	-11.2059
▁нааахаар	-11.2059
осан	-11.2076
ияаани	-11.2079
▁вивари	-11.2079
ав	-11.2082
ийбо	-11.2085
▁убаяо	-11.2085
▁яасо	-11.2087
▁баагадо	-11.2096
уггадассаа	-11.2097
▁41.	-11.2101
▁анусан	-11.2114
▁бариязси	-11.2115
ахзна	-11.2116
▁палад	-11.2126
жхаад	-11.2136
ийнаво	-11.2141
исасса	-11.2142
▁сиб	-11.2145
▁сажчигаа	-11.215
ибуд	-11.2152
▁угган	-11.2158
▁сийлаван	-11.2159
ажчам	-11.216
арааяо	-11.2165
хаавад	-11.217
▁наамаруубам	-11.217
агзсу	-11.2171
бариниб	-11.2195
зхиби	-11.2196
▁арууб	-11.2197
▁абарз	-11.22
▁саавагаанам	-11.2204
бхаа	-11.2216
▁бадиббасса	-11.2218
▁сукан	-11.2219
аяамаано	-11.2221
▁43.	-11.2224
▁сийхана	-11.2225
▁гирияаа	-11.2233
▁кияяан	-11.2234
▁паласса	-11.2238
хаанаа	-11.2239
рааби	-11.2244
▁гариссаамий	-11.2246
▁баваари	-11.2247
▁гилзс	-11.2256
абаасаа	-11.2262
▁можз	-11.2262
исзсасса	-11.227
усад	-11.2276
▁абхиниб	-11.2283
▁жааг	-11.2288
▁ахамби	-11.2293
▁44.	-11.2294
убан	-11.2301
аамино	-11.2305
▁сагяабу	-11.2307
▁ала	-11.2313
▁руубасан	-11.2316
▁45.	-11.2318
ко	-11.2321
зраанам	-11.2325
▁рагкан	-11.2335
алаж	-11.2335
варан	-11.2339
анаава	-11.2345
▁суу	-11.2345
▁42.	-11.2349
▁хара	-11.2353
▁гахаабан	-11.236
удтид	-11.2361
аггасса	-11.2367
хаавий	-11.237
▁суман	-11.2378
▁висзсам	-11.238
абхаав	-11.2386
▁46.	-11.239
▁самудтаанаа	-11.2393
▁сукзна	-11.2394
аануд	-11.2398
▁24	-11.24
ависаан	-11.2401
▁47.	-11.2414
▁ирияа	-11.2415
хийяа	-11.2416
асааман	-11.2418
▁банааяам	-11.2418
аллаано	-11.2422
▁маанасам	-11.2425
▁абхивад	-11.2425
аанааси	-11.243
▁жаариг	-11.2434
умби	-11.2451
асукам	-11.2454
▁барзхи	-11.2458
хаммавинаяз	-11.2461
▁ива	-11.2469
звзсу	-11.247
хажжам	-11.247
аггасавижааро	-11.2475
▁маанам	-11.2476
▁адтам	-11.248
▁нисси	-11.2485
▁сарууба	-11.2486
▁таанан	-11.2486
▁абаро	-11.2488
▁харан	-11.2491
абариг	-11.2503
абаал	-11.2505
▁бажжан	-11.2509
идтаабз	-11.2509
▁нибпа	-11.251
▁сужари	-11.2513
ирам	-11.2513
▁убанз	-11.2517
▁аажаяа	-11.2526
ийби	-11.2527
▁49.	-11.253
хаммараа	-11.2532
язна	-11.2539
▁вимогко	-11.2542
баасаад	-11.2546
▁бажжаяажа	-11.2549
хигааро	-11.255
яаагааси	-11.255
▁гимад	-11.2563
▁нагка	-11.2569
▁наахам	-11.2572
▁баннараса	-11.2574
▁табзси	-11.2579
агамзва	-11.2581
▁сахассам	-11.2583
▁басанно	-11.2583
инз	-11.2589
бажаяаг	-11.259
▁самуг	-11.259
▁жзби	-11.2594
▁сарз	-11.2597
▁важий	-11.2606
умхзхи	-11.2606
бхааво	-11.2609
жамз	-11.2612
▁субхаас	-11.2624
авибхан	-11.2629
ниб	-11.2632
▁бууд	-11.2638
нисси	-11.2642
аасз	-11.2651
▁бубпам	-11.2652
▁бажжуббаннам	-11.266
▁гааяаб	-11.2664
▁гул	-11.2692
хаммабад	-11.2695
▁ижчаа	-11.2698
самбад	-11.271
ву	-11.2723
арабажжаяаа	-11.2758
ибхаавзна	-11.276
уллажжаяам	-11.2764
▁сзсзсуби	-11.2765
▁бажжавзгки	-11.277
▁48.	-11.2783
▁самужч	-11.2785
угкагк	-11.2788
ижжз	-11.2788
▁бахин	-11.2796
хаабз	-11.2807
ибадтаанаа	-11.2818
▁баггама	-11.2825
рияо	-11.283
абадисам	-11.2833
гамим	-11.2837
идтааяа	-11.2843
ссид	-11.2854
увийса	-11.2858
авибассанаа	-11.286
убхааво	-11.2861
▁сагим	-11.2867
▁звамасса	-11.2873
▁вуубаса	-11.2874
▁жхаанан	-11.288
аасавасса	-11.2883
▁арад	-11.289
▁55.	-11.2892
угкавз	-11.2895
▁барибуурз	-11.2896
ча	-11.2896
▁бадигкиби	-11.2897
аниб	-11.29
▁баарам	-11.2901
ажчаами	-11.2903
▁ал	-11.2903
хажжа	-11.2905
▁ахосим	-11.2907
▁саггааяа	-11.2918
▁логаа	-11.2923
▁к	-11.2923
▁ахи	-11.2929
самбаж	-11.2943
▁яагко	-11.2943
▁барима	-11.2955
асиго	-11.2958
агаббо	-11.2959
▁яаабз	-11.297
▁згаб	-11.297
ууж	-11.2975
аавзд	-11.2975
аманзна	-11.2979
хийхи	-11.2981
▁орам	-11.2982
▁сажзби	-11.2983
▁гумааро	-11.2988
абууж	-11.2989
▁ниран	-11.2994
▁вижааро	-11.2998
аамисса	-11.3014
аарасмаа	-11.3015
ассанан	-11.302
▁маасз	-11.3027
▁соманассам	-11.3034
▁жааяам	-11.3037
ханан	-11.3041
▁убхоби	-11.305
▁баараг	-11.3053
ияааби	-11.3055
▁вибхуу	-11.3057
▁51.	-11.3069
аггаа	-11.307
арагхарз	-11.307
▁гаамааважарам	-11.3075
▁52.	-11.3082
аабхаран	-11.3084
хийнам	-11.3086
самб	-11.3093
хидтаан	-11.3097
▁анубад	-11.31
▁54.	-11.3101
ассзси	-11.312
оманасси	-11.3121
▁нияу	-11.3124
хаабхин	-11.313
вибха	-11.3139
самуд	-11.3143
▁адтамз	-11.3146
▁важийгаммам	-11.3152
бхаво	-11.3155
▁барисам	-11.3158
лад	-11.3159
анигаа	-11.316
▁абхибхуяяа	-11.3171
▁махзсино	-11.3172
аанавасзна	-11.3172
▁басаннаж	-11.3174
кяам	-11.3183
ийгхо	-11.3184
саара	-11.3187
огам	-11.3195
▁у	-11.3208
▁вудтааяа	-11.3211
ур	-11.3229
сахзд	-11.323
арзсу	-11.323
арамзва	-11.323
зрз	-11.3233
▁сахи	-11.325
убалаб	-11.3252
▁сукасса	-11.3256
ахаад	-11.326
аяий	-11.3263
анагат	-11.3266
убид	-11.3269
хияо	-11.327
хувам	-11.3273
▁уббаннз	-11.3274
▁бхаваа	-11.3282
▁53.	-11.3283
▁самаяо	-11.3287
▁буура	-11.3299
▁хааро	-11.33
▁вибаажз	-11.3305
▁багки	-11.3306
▁ануггамзна	-11.3313
▁вихар	-11.3318
▁бияо	-11.3319
абажжавзгкан	-11.3323
▁бахуу	-11.3324
хивасзна	-11.3327
▁васс	-11.3336
агасин	-11.3337
▁абассан	-11.3347
▁жагкумаа	-11.3348
иггаман	-11.335
агаммзна	-11.3355
идтиго	-11.3364
4	-11.3372
▁баарис	-11.338
▁удтааяаасанаа	-11.3381
аабасо	-11.3383
▁ажжаязна	-11.3383
амива	-11.3383
▁аасав	-11.3394
баж	-11.3396
▁батамаа	-11.3403
▁56.	-11.3404
угаанам	-11.3406
▁гулам	-11.3407
аасаваанам	-11.3412
аамзд	-11.3416
звамануссаанам	-11.3417
арияамаг	-11.3422
▁аасзванабажжая	-11.3423
▁бажчаабха	-11.3424
маяам	-11.3425
▁57.	-11.3428
▁бараамааса	-11.3441
▁сумано	-11.3441
абхаавасса	-11.3452
▁наанаагкан	-11.3453
▁сияум	-11.3461
зго	-11.3462
хасуд	-11.3469
рияасам	-11.3471
▁маяи	-11.3474
▁винаяам	-11.3474
▁саасан	-11.3475
жхааяа	-11.3476
рууми	-11.3479
гусалад	-11.3483
амуулз	-11.3488
▁махаанаама	-11.3507
▁вааяама	-11.3511
исамудтаанаанам	-11.3512
анийяаа	-11.3513
алаваа	-11.3518
▁висабха	-11.3519
▁гхарам	-11.3523
▁агусаласса	-11.3531
агаллам	-11.3531
ураасий	-11.3534
сааро	-11.3536
илаанасса	-11.3536
агамби	-11.354
хидти	-11.3549
аний	-11.3558
саанам	-11.3563
знасса	-11.3579
кяаа	-11.358
кяаавааро	-11.3585
саяам	-11.3587
аанзяяа	-11.3592
▁чадтз	-11.3594
▁аасанам	-11.3599
звамзва	-11.36
вибхан	-11.3608
жамо	-11.361
▁аасим	-11.3612
жагам	-11.3614
▁буримам	-11.3615
▁убадтаабз	-11.3617
абаяог	-11.3618
▁багаарзна	-11.3624
уггадан	-11.3625
▁язва	-11.3625
▁сийгхам	-11.3636
▁барижчин	-11.3638
аабанам	-11.3651
аннаамо	-11.3653
▁хисса	-11.3655
▁гаммад	-11.3664
▁гови	-11.3667
каарзсу	-11.3669
мама	-11.3673
▁басад	-11.3675
▁ож	-11.368
▁лаабх	-11.3682
убаж	-11.3684
илам	-11.3692
▁бхав	-11.3697
▁субан	-11.37
▁саггад	-11.3701
▁ругко	-11.3702
гаарасса	-11.3703
▁сиж	-11.3708
хаарид	-11.3712
▁нзваажаяа	-11.3714
▁сабби	-11.3714
▁гааяасам	-11.3714
▁уббаннасса	-11.3715
▁аббаг	-11.3715
агаалад	-11.3717
▁виниба	-11.3719
▁лийна	-11.3721
хаараа	-11.3725
аггавижаар	-11.3727
гилзсиго	-11.3728
▁каяаа	-11.3729
▁баат	-11.373
ахууни	-11.3741
▁мануссабхуу	-11.3742
▁анисс	-11.3745
▁пуса	-11.3746
▁нзг	-11.3757
ваарзсу	-11.3761
▁вих	-11.3762
аббасаад	-11.3763
звасса	-11.3764
▁буриманаязнзва	-11.3767
▁арияаанам	-11.3768
▁явааяам	-11.3768
▁убан	-11.3769
▁барияан	-11.3769
▁абхаавзна	-11.3775
▁бод	-11.378
игаани	-11.3783
▁агааран	-11.3784
анийяз	-11.3789
амаалаа	-11.3794
аасаваа	-11.3799
ивхааяа	-11.3813
▁58.	-11.3814
агаанан	-11.382
▁бхуумийсу	-11.3825
▁пассаа	-11.3829
хигад	-11.3837
▁рас	-11.3839
▁маанаанусаяан	-11.3847
свааг	-11.385
▁хоми	-11.3861
алзхи	-11.3867
▁63.	-11.387
–-	-11.3872
▁алаж	-11.389
ибхааг	-11.389
адтаанад	-11.3893
▁баабагаммам	-11.3902
аануг	-11.3912
жхаан	-11.3914
▁бияам	-11.392
▁самаанаа	-11.3924
▁сийхал	-11.3926
▁рид	-11.3927
▁висзсзна	-11.3928
▁бхаасзяяа	-11.3931
▁жхааяий	-11.3934
хоби	-11.3945
▁сиймаа	-11.3948
▁барияаабу	-11.3953
▁28	-11.3963
абхааванаа	-11.3972
▁нисиннаа	-11.3984
▁сзсо	-11.3986
▁аанзн	-11.3988
хисамб	-11.3989
▁гзвалан	-11.3989
▁мукад	-11.399
ассана	-11.3992
▁бахаанаа	-11.3994
▁сагалам	-11.3997
яаавад	-11.4
▁убасаг	-11.4001
▁госамб	-11.4008
анасамбая	-11.4024
▁яу	-11.4029
зсса	-11.4029
муд	-11.4032
▁манасигааро	-11.4042
▁убааг	-11.4046
▁59.	-11.4051
ка	-11.4053
абхиж	-11.4063
▁бхигкуним	-11.4067
угамяа	-11.4068
▁яаажан	-11.4069
ияамаано	-11.407
игаалз	-11.4072
▁суббад	-11.4076
▁вийрияи	-11.4081
бисса	-11.4081
▁пан	-11.4091
алин	-11.4091
▁бадилабхисса	-11.4092
анамзва	-11.4096
▁аарабхи	-11.4102
усажжа	-11.4117
▁нимми	-11.4124
▁хийнам	-11.4126
▁звамаахам	-11.4129
▁бадибхаа	-11.4131
игзхи	-11.4132
▁убани	-11.4135
▁амхз	-11.4138
▁гирияам	-11.4143
▁сзс	-11.4144
ааво	-11.4145
аггаавижааро	-11.4151
▁бажжубадт	-11.4158
▁жхаанаа	-11.4159
хаммаваа	-11.4159
▁имамад	-11.4164
▁вибасса	-11.4164
асуг	-11.4176
махаа	-11.4176
жавогаар	-11.4182
арубха	-11.4188
ваар	-11.4191
▁бассам	-11.4194
аруубаниссаяо	-11.4198
иваса	-11.4198
аабзяяа	-11.4201
▁сажжаа	-11.4209
хаммасзнаа	-11.4213
▁1-7	-11.4214
агамман	-11.4214
▁навамз	-11.422
омхи	-11.4229
обарияан	-11.4238
▁вихан	-11.4246
усмин	-11.4248
зссаамий	-11.425
8	-11.4251
▁габбаса	-11.4252
амануяу	-11.4253
▁важча	-11.4257
▁вимужжа	-11.4258
▁67.	-11.4261
▁62.	-11.4264
▁адтахи	-11.4265
▁сийхо	-11.4266
угко	-11.4267
▁61.	-11.427
▁64.	-11.4275
▁амуул	-11.4279
убааг	-11.4287
▁бхаав	-11.4291
▁бадибаадияаа	-11.4292
▁убааязна	-11.4292
▁осад	-11.4298
▁сужин	-11.4306
▁65.	-11.4307
▁самийбз	-11.4309
▁бисун	-11.4311
исамбад	-11.4311
ийбхуу	-11.4312
▁ваагяам	-11.4317
▁свзва	-11.4318
▁бил	-11.432
▁ааваасигаа	-11.4324
▁абарзна	-11.4324
▁убхая	-11.4326
к	-11.4327
▁26	-11.4334
▁сийлан	-11.4345
▁абхибхави	-11.4347
▁собха	-11.435
хивид	-11.4357
зхзва	-11.4358
иггам	-11.4358
▁буримаб	-11.4362
рахмажаарий	-11.4364
▁анабхира	-11.4365
▁агаран	-11.437
▁ааваасз	-11.4375
▁гаммаанам	-11.438
▁сукз	-11.4385
▁ружжа	-11.4386
▁наанаад	-11.439
▁саммаж	-11.439
хат	-11.4392
аллаана	-11.4395
кзбо	-11.4396
▁бал	-11.4399
аанаамий	-11.44
сияаа	-11.4403
▁паасу	-11.4405
▁згиссаа	-11.4407
▁баабагам	-11.4416
▁сааваго	-11.4423
▁гаяираа	-11.4433
▁махаамуни	-11.444
▁хийнаа	-11.4442
▁66.	-11.4444
▁вуси	-11.4447
▁лома	-11.4449
ируубам	-11.445
агааро	-11.4452
▁ругкам	-11.4454
ро	-11.446
▁саамаг	-11.4469
аануруубам	-11.4471
▁бавзсз	-11.4471
угабадисан	-11.4472
▁убадтаанам	-11.4473
яасмим	-11.4483
▁вудтаабз	-11.4484
▁жораа	-11.4485
аараад	-11.4485
жавийса	-11.4492
▁згави	-11.4494
зрий	-11.45
▁самаан	-11.4502
хаммаж	-11.4508
▁гаамааважараа	-11.4515
▁бараваа	-11.4523
▁аалого	-11.4525
асун	-11.4527
▁баригкий	-11.4529
идтаанам	-11.4536
▁ааро	-11.4538
▁иман	-11.4539
▁агкаа	-11.4544
▁ануссара	-11.4545
▁бадиви	-11.4549
▁анавасзса	-11.4554
ллин	-11.4563
▁нияо	-11.4569
бхуг	-11.4569
адтаанаа	-11.457
иваж	-11.457
аавид	-11.4575
жчаад	-11.4575
исзна	-11.4582
▁ми	-11.4583
▁68.	-11.4593
увасзна	-11.4594
яасанам	-11.4597
аараб	-11.4608
▁27	-11.4611
▁25	-11.4612
▁убаасигаа	-11.4616
▁маариса	-11.4624
▁наагусало	-11.4628
идтзяяа	-11.4634
анааяам	-11.4636
▁виная	-11.4638
аасагам	-11.4646
▁чадт	-11.465
ипалз	-11.4654
▁убамаа	-11.4655
анааг	-11.4665
▁васз	-11.4668
рияабажжаязна	-11.4675
▁виббаму	-11.4678
хаммиго	-11.4684
▁абхааваа	-11.4688
▁сибб	-11.4688
▁аарабха	-11.4692
аалад	-11.4695
▁бадихан	-11.4705
▁самудтаанзхи	-11.4706
▁бариязса	-11.4707
▁аяяз	-11.4713
идтий	-11.4714
▁гусий	-11.4715
▁бубп	-11.4719
удтаа	-11.4721
осий	-11.473
▁удтааяа	-11.4731
звиж	-11.4734
риязсу	-11.4735
хисмим	-11.4737
▁таанаа	-11.474
сааман	-11.4742
алохид	-11.4745
▁вихарзяяа	-11.4748
▁хзва	-11.4753
арияаад	-11.4758
хова	-11.4762
аарун	-11.4771
▁сваа	-11.4778
▁бамо	-11.4779
▁бху	-11.4792
▁бадтабз	-11.4798
авияаа	-11.4801
▁саннид	-11.4801
ах	-11.4804
аабаг	-11.4818
ийгад	-11.482
иннад	-11.4826
▁вигхаад	-11.4831
аабанад	-11.4832
▁он	-11.4836
▁самманни	-11.4839
хара	-11.4842
▁71.	-11.4846
▁сийла	-11.4848
бхигку	-11.4852
▁аажария	-11.4857
ояам	-11.4859
▁баривз	-11.4863
ассз	-11.4865
ухим	-11.4867
▁агусалаж	-11.4871
исаасу	-11.4886
▁иминаава	-11.4887
▁сажчигаро	-11.4888
▁бзсз	-11.489
▁гааяаа	-11.4891
▁самбин	-11.4893
▁29	-11.4895
▁госаж	-11.4896
яаагаро	-11.4897
▁абб	-11.4898
▁жор	-11.4904
▁аахаараа	-11.4915
хаммигам	-11.4923
убхад	-11.4923
▁радтам	-11.4934
имогкасам	-11.4939
ави	-11.4941
ваяз	-11.4943
▁ааваран	-11.4949
▁бхуумияаа	-11.4965
анабажжаяаа	-11.4965
▁73.	-11.4966
▁69.	-11.4968
аагааро	-11.4969
иним	-11.4973
▁вал	-11.4975
▁вибарий	-11.4977
аммий	-11.4977
▁абун	-11.4979
▁вихаар	-11.4979
▁вуубасамз	-11.4981
▁ижжз	-11.4984
▁ассам	-11.4988
аанубхаавзна	-11.4995
арасад	-11.4996
▁аахаар	-11.4997
▁аабхад	-11.4999
гамад	-11.4999
ануб	-11.5002
▁уггам	-11.5013
▁бурагка	-11.5018
▁виниб	-11.5025
маяхам	-11.5029
2	-11.5031
хино	-11.5041
▁аавуд	-11.5048
▁виро	-11.5051
аар	-11.5058
аасахам	-11.506
▁гарохий	-11.5061
▁асужи	-11.507
хаммигаа	-11.5073
▁амохо	-11.5078
▁арияад	-11.5086
▁нисиннасса	-11.5088
амаанасса	-11.5089
▁сохам	-11.5091
▁аму	-11.5092
▁махааба	-11.5095
▁яаж	-11.5097
▁баримаан	-11.5099
▁мохасса	-11.5103
▁бависад	-11.5103
ааруубаанам	-11.5104
▁аасавасамб	-11.5107
▁75.	-11.5114
▁74.	-11.512
асуван	-11.5122
▁баанийяам	-11.5123
звид	-11.5124
аннаамам	-11.5126
▁абараа	-11.513
хаавусо	-11.5131
ос	-11.5137
хана	-11.5137
▁адтасу	-11.5139
ибажжаяо	-11.5139
▁нибун	-11.5153
▁бариязсан	-11.5153
вирахи	-11.5157
▁бхаарад	-11.5168
▁ругкаа	-11.5168
▁вибулам	-11.5169
▁сасса	-11.517
▁бажжаязхи	-11.5172
▁72.	-11.5173
▁бажжая	-11.5174
▁аажигка	-11.5177
▁баасам	-11.5182
иними	-11.5199
аабажжаяаа	-11.5199
убхаван	-11.52
▁ваяо	-11.5209
▁бабху	-11.5209
▁бажжуд	-11.5221
амхаагам	-11.5235
маяаа	-11.5235
ижжаб	-11.5236
ийнамби	-11.5238
▁взж	-11.5239
▁сааби	-11.5245
аасаа	-11.5249
▁логан	-11.5249
авожум	-11.525
▁ниггад	-11.5251
▁сийлагка	-11.5253
ааяог	-11.5256
▁пусан	-11.526
▁баагадаа	-11.5261
ажарияаа	-11.5266
▁бурисаанам	-11.5268
▁гаамави	-11.5271
▁саббий	-11.5278
▁гуудааг	-11.5279
рам	-11.5282
▁мануссад	-11.5283
1	-11.5288
▁бияад	-11.5289
▁свааяам	-11.5297
▁таанзхи	-11.5305
хаавид	-11.5308
▁анзгад	-11.5315
угкамасукам	-11.5326
апала	-11.5326
▁алабхан	-11.5328
▁сив	-11.5335
▁багган	-11.5339
▁наамаани	-11.5343
▁гхарз	-11.5346
▁бара	-11.5349
исукам	-11.5351
кааяа	-11.5352
хаммаанубассий	-11.5354
▁висзс	-11.5358
▁сийлавад	-11.5361
араасан	-11.5362
ийязна	-11.5363
▁гусал	-11.5374
▁бурисабу	-11.5378
▁нажирассзва	-11.5385
▁ас	-11.5385
▁гариссаами	-11.539
▁рассо	-11.539
алзсу	-11.5392
▁вара	-11.5393
аала	-11.5395
▁вибхааван	-11.5396
▁махаавийра	-11.5399
▁годиса	-11.54
авзсан	-11.5403
▁мануж	-11.5404
▁васа	-11.5407
7	-11.5412
▁сааяам	-11.5415
▁гагкал	-11.5417
исзсаа	-11.5417
лин	-11.5417
▁арияасажжам	-11.5418
▁76.	-11.542
осзна	-11.5422
▁сийлзсу	-11.5427
ааминияаа	-11.5427
▁мара	-11.5432
▁згамби	-11.5433
▁буури	-11.544
▁сзяяам	-11.5441
▁бзсзси	-11.5442
▁ваари	-11.5448
▁згамзва	-11.5449
▁сахасаа	-11.546
ви	-11.5461
▁ануссаран	-11.5461
саарз	-11.547
▁самзн	-11.5473
▁удтахи	-11.5475
▁самудти	-11.5478
▁хирий	-11.5479
▁аабужчи	-11.548
агирияаа	-11.548
звагз	-11.5481
▁логанаа	-11.5484
идтаанусаяо	-11.5485
ажч	-11.5491
ахуунам	-11.5498
▁навуд	-11.5498
▁вигкамбхан	-11.5499
хун	-11.55
▁бажжааг	-11.5503
▁77.	-11.5508
хзяяам	-11.551
каарабажжаяаа	-11.5511
▁гаммаба	-11.5512
▁бабхааса	-11.5522
▁жийварз	-11.5525
раад	-11.553
▁мохам	-11.5531
▁гаммаж	-11.5535
аамзсумижчаажаар	-11.554
имаани	-11.5541
▁бахаан	-11.5545
уггарам	-11.555
ануг	-11.5552
▁гулаг	-11.5556
▁суурияо	-11.5561
каро	-11.5578
▁бхавзсу	-11.5581
осз	-11.5581
хаммажаггам	-11.5582
ирзгад	-11.5588
▁бамуд	-11.5592
жанам	-11.5593
▁паран	-11.5594
▁муг	-11.5598
р	-11.56
зсзссаами	-11.5601
хасам	-11.5602
аахаабз	-11.5605
вий	-11.5608
ариманусса	-11.5608
асамаяз	-11.5612
▁хавз	-11.5612
гилзсиг	-11.5629
3	-11.563
▁вимаанам	-11.5636
бхаавам	-11.5637
асмимби	-11.5641
рахмалогз	-11.5642
виб	-11.5648
нахзд	-11.5653
▁аруубино	-11.5653
▁сзван	-11.5653
сим	-11.5658
▁асу	-11.566
▁вибассан	-11.5668
▁маха	-11.5668
▁гзваласса	-11.5673
иваг	-11.5679
ассанааббадигхам	-11.5681
бат	-11.5682
▁згуунавийса	-11.569
▁анаабужчаа	-11.5692
хааван	-11.5696
▁винасса	-11.5697
хаммасам	-11.5699
▁83.	-11.57
▁асмим	-11.5711
▁таанаани	-11.5722
аяиссаами	-11.5723
апал	-11.5724
ийбана	-11.5729
▁бажчим	-11.5738
▁наби	-11.574
▁абарияаабаннз	-11.5741
▁обаба	-11.5745
раа	-11.5745
▁маал	-11.5753
аалаг	-11.5756
адтам	-11.5757
▁сийл	-11.576
▁кзл	-11.5762
▁жхааяа	-11.5766
ийвигам	-11.5777
иннз	-11.5779
▁бияаа	-11.578
хийраа	-11.5782
▁саан	-11.5782
араанам	-11.5782
асук	-11.5785
▁барихааяан	-11.5789
▁ниваарз	-11.579
▁хзсса	-11.5799
апалаани	-11.58
гаара	-11.5808
абум	-11.5811
хови	-11.5813
▁бурисзна	-11.5813
ожарам	-11.5823
аггаавижаар	-11.5823
аариго	-11.583
▁81.	-11.5832
▁84.	-11.5833
абод	-11.5838
▁баабима	-11.5841
▁аажариязна	-11.5841
хаанасан	-11.5842
асзд	-11.5842
▁маанаанусаязн	-11.5853
ааласса	-11.5854
▁гаамаанам	-11.5857
нуунаахам	-11.5858
маран	-11.5858
▁абарима	-11.586
▁78.	-11.5862
▁самудтаабз	-11.587
ийнавад	-11.5878
аагаарад	-11.5879
жхааяо	-11.5879
уссад	-11.5882
▁саммасан	-11.5889
▁анубаг	-11.5895
усам	-11.5897
▁нараа	-11.5898
▁кибба	-11.59
аанамусаа	-11.5906
▁жара	-11.5907
агки	-11.5907
амбхо	-11.5911
▁сийсз	-11.5913
ахуб	-11.5916
агаб	-11.5918
▁гассабо	-11.5923
▁згзгам	-11.5924
9	-11.5931
▁86.	-11.5935
5	-11.5937
хабууж	-11.5951
▁гарохи	-11.5953
▁87.	-11.5954
барид	-11.5961
▁батаман	-11.5976
абхааваа	-11.5977
бхаавзна	-11.5984
▁висзсз	-11.5991
хуж	-11.5993
уубабад	-11.5996
▁аараа	-11.5996
амиссаамий	-11.5999
▁яонисоманасига	-11.5999
▁палаани	-11.6
▁бахийнад	-11.6001
▁мукз	-11.6003
▁бажчимам	-11.6004
бхаад	-11.6004
▁аббанаа	-11.6015
▁сзсабад	-11.6017
▁лон	-11.6017
▁79.	-11.6025
хагаалз	-11.6029
маж	-11.6042
▁гужчид	-11.6044
▁наанаави	-11.6046
сукам	-11.6048
жхаасаяо	-11.6055
алл	-11.606
аббаб	-11.6061
асабхаавад	-11.6067
ахулз	-11.6068
▁аалог	-11.6087
▁82.	-11.6088
ахулийгаро	-11.6088
▁88.	-11.6089
▁сак	-11.6091
амавожа	-11.6098
▁бажчимажи	-11.6106
▁квааха	-11.6111
абууран	-11.6113
▁свааг	-11.6115
жахан	-11.6115
иран	-11.6122
▁згасад	-11.6123
▁наяан	-11.6129
хуг	-11.6131
▁ноаасав	-11.6135
ажари	-11.6137
▁гаарун	-11.6139
▁ануссари	-11.614
▁пала	-11.614
жавин	-11.6142
▁нияамз	-11.6142
ахзяяа	-11.6146
араамаг	-11.6147
ияаваг	-11.6151
▁саро	-11.6152
▁габбияам	-11.6154
▁вижин	-11.6155
▁навам	-11.616
алобо	-11.6165
асаммуд	-11.6166
▁сздтам	-11.6171
хаарам	-11.6175
уллажжаяасса	-11.6183
▁вибааг	-11.6184
▁гилама	-11.6187
арааси	-11.6189
▁сараа	-11.619
▁угкзбанийяагамм	-11.6192
▁нивуд	-11.6201
анигааяа	-11.6202
зравад	-11.6202
аруубаани	-11.6206
▁аанаабаанасс	-11.6212
исзса	-11.6214
саяо	-11.6215
▁вибаагаа	-11.622
▁бавидто	-11.6222
▁бадиссу	-11.6223
▁самаабаннасса	-11.6232
ассанавасзна	-11.6234
зяяажи	-11.6237
▁палан	-11.6243
▁висаара	-11.6243
▁убзгкаасамб	-11.6248
аамаа	-11.6251
агасан	-11.6254
▁барил	-11.6258
ива	-11.6264
▁бадибаад	-11.627
▁авасзсам	-11.6282
▁вихааси	-11.6285
▁абуб	-11.6287
▁мамам	-11.629
▁вигаалз	-11.6293
▁бхигкаво	-11.6293
ахзси	-11.6304
ажжан	-11.6305
ваарад	-11.6305
хасамааба	-11.6313
▁бадилабхи	-11.6315
агко	-11.6315
хиббад	-11.6319
▁аха	-11.6324
▁мануссз	-11.6325
мз	-11.6328
▁бхигкам	-11.6328
▁асамб	-11.6332
хаван	-11.6338
наама	-11.6343
хаанааяа	-11.6343
▁баяу	-11.6345
▁руубааважараа	-11.6345
▁саами	-11.6348
▁аажарияасса	-11.6349
агкид	-11.6355
▁виббагад	-11.6355
▁вижаарз	-11.6357
▁89.	-11.6362
▁иси	-11.6364
▁расо	-11.6365
уруд	-11.6366
гаар	-11.6368
▁жаггам	-11.6376
иггамз	-11.6378
баримаан	-11.638
аасаад	-11.638
агаама	-11.6381
▁сийха	-11.6382
▁авзжжаббаса	-11.6383
сагз	-11.6384
хаважанам	-11.6384
▁мохан	-11.6391
▁гулаани	-11.6392
▁убхаяам	-11.6407
▁абааяам	-11.6408
▁сирасаа	-11.6409
▁убзгкааяа	-11.6412
химхи	-11.6415
▁васий	-11.642
асагам	-11.6421
▁самман	-11.6422
▁мукзна	-11.6423
▁наасз	-11.6427
▁руха	-11.6431
▁аниб	-11.6435
имааяа	-11.6439
вар	-11.6441
аалз	-11.6451
▁руубааважарам	-11.6454
▁бажжанийя	-11.6454
ажчаа	-11.6456
баабун	-11.6457
▁91.	-11.6459
хаммига	-11.6461
аабхад	-11.6461
▁85.	-11.6463
▁мунин	-11.6464
асахассаанам	-11.6466
аарагз	-11.647
санаавасаанз	-11.6474
▁сожа	-11.6477
игаран	-11.6483
асахасса	-11.6483
хаммагаммз	-11.6485
анасамааба	-11.6496
удтаж	-11.6497
▁руубаарамма	-11.6502
рабху	-11.6503
▁ваасздта	-11.6507
абаж	-11.6522
аниг	-11.6526
▁сяаа	-11.6526
осасса	-11.6531
▁саммаавааяаамо	-11.6533
гаараа	-11.6537
▁абхира	-11.6547
зниваасам	-11.655
▁си	-11.6553
гилзсигаа	-11.6554
▁94.	-11.6559
▁31	-11.6563
хамзва	-11.6568
▁васи	-11.657
▁абаран	-11.657
▁самбхаво	-11.657
▁вирожа	-11.6574
бхав	-11.6575
▁усс	-11.6583
идтахи	-11.6584
жавогаарз	-11.6588
зсим	-11.6589
анийяа	-11.6594
▁гароми	-11.6597
иро	-11.6609
▁саавз	-11.6611
ийяа	-11.6618
▁соманассасаха	-11.6621
▁басаарз	-11.6621
анигам	-11.6623
▁гирияааб	-11.6623
▁иссаро	-11.6624
агусало	-11.6632
▁агк	-11.6632
ссад	-11.6633
▁саммаабадиба	-11.6634
ийбзн	-11.6639
▁саамиважанам	-11.664
уулам	-11.6642
саван	-11.665
▁баригки	-11.6653
хаар	-11.6656
▁93.	-11.6657
▁анаасавам	-11.6659
иггамад	-11.666
▁92.	-11.6663
тибад	-11.6667
▁гаарзн	-11.6668
злан	-11.6669
абхууми	-11.6679
▁расам	-11.6679
аабаннаа	-11.6696
рахман	-11.6697
ийв	-11.6699
убхаяам	-11.6703
▁манаабаа	-11.6704
ханавасзна	-11.6708
▁анаасаваа	-11.6708
анийяад	-11.6711
хагаран	-11.6712
▁гхан	-11.6723
▁саммаагамма	-11.6737
ааромз	-11.6739
▁махаана	-11.6739
хаано	-11.674
звамануссзсу	-11.674
барибун	-11.6742
абажжан	-11.6742
ири	-11.6743
▁гулад	-11.6745
▁расаа	-11.6746
▁саббуриса	-11.6749
иважанам	-11.675
▁мануссалогз	-11.6753
▁имаанз	-11.6753
▁унна	-11.6762
ваараван	-11.6764
каара	-11.6768
▁гусалан	-11.6769
▁ажчаа	-11.6769
авийса	-11.6779
аанзси	-11.678
▁саббад	-11.678
уубад	-11.6782
ийрад	-11.6785
ахаро	-11.6785
збхи	-11.6785
▁гарийяа	-11.679
урид	-11.6791
аяаад	-11.6798
▁умму	-11.6799
▁97.	-11.6802
онид	-11.6803
▁бахийнам	-11.6805
▁бариваарзд	-11.6805
▁убадтахан	-11.6806
аанасамбая	-11.6806
▁вибассисса	-11.6808
аарасса	-11.681
жха	-11.6823
зниваасаанусса	-11.6825
хавам	-11.6827
▁батамзна	-11.6833
▁маанусам	-11.6833
аббажжаяаа	-11.6833
▁согабари	-11.6835
жимз	-11.6835
▁самбхаван	-11.6848
звияаа	-11.685
аггаад	-11.6856
▁бурзбх	-11.6858
▁багкз	-11.6861
ааяим	-11.6862
▁самбах	-11.6865
савад	-11.6865
агирияааяа	-11.6866
багад	-11.6868
▁аалаба	-11.6871
▁вибхаави	-11.6871
▁сувис	-11.6873
▁бунаби	-11.688
аггасавижаараа	-11.6883
жхаанаа	-11.6885
хар	-11.6886
▁авассу	-11.6889
▁садти	-11.6889
ссаамий	-11.6893
анаго	-11.6895
▁бубпи	-11.69
▁лабхз	-11.69
ужч	-11.6906
змий	-11.6907
убуб	-11.691
имасмим	-11.6915
▁гаммунаа	-11.6916
▁мужжи	-11.6916
ижчз	-11.6917
▁ниссаяо	-11.6918
аабхира	-11.692
▁сзсаани	-11.6922
абадиг	-11.6924
авийгас	-11.6929
▁анубхави	-11.6932
▁агусалан	-11.6934
аассу	-11.6936
агааси	-11.6942
ануббад	-11.6945
▁вийра	-11.6945
рияаб	-11.6947
абагк	-11.695
▁сажж	-11.6952
миг	-11.6953
▁аажигкан	-11.6959
▁мохаа	-11.696
▁жирадт	-11.6961
▁абараабарам	-11.6964
авасса	-11.6965
умаг	-11.6965
аважанзна	-11.6965
ийбаа	-11.6966
рахмз	-11.6966
▁ажчин	-11.6966
▁лзд	-11.6975
▁бубпаани	-11.6978
▁ванам	-11.6979
анагаалз	-11.6981
алигаа	-11.6983
▁сукав	-11.6984
▁аббижча	-11.6988
зрзхи	-11.6989
ипалаа	-11.6989
6	-11.6996
▁аасаво	-11.6997
▁сован	-11.6998
ийяз	-11.6998
аанаахи	-11.7
▁маарасса	-11.7002
▁баггосаабз	-11.7027
▁взважанам	-11.7029
▁воссаг	-11.7031
▁аяонисоманасига	-11.7034
▁бурам	-11.7038
▁бхаан	-11.7044
аанисса	-11.7045
уссан	-11.7053
амаанасо	-11.7054
▁95.	-11.7054
▁силаа	-11.7055
абхигг	-11.7055
▁гааяаанубассий	-11.7058
амаяам	-11.7061
харам	-11.7061
▁калу	-11.7061
▁асуг	-11.7063
хаасан	-11.7063
▁кийрам	-11.7065
п	-11.707
кзд	-11.7076
хав	-11.7076
алигам	-11.7079
▁савибха	-11.7082
хавийрияо	-11.7083
▁бийн	-11.7088
▁баригаммам	-11.7088
▁96.	-11.7095
аругам	-11.7102
▁барисан	-11.7111
▁винаасз	-11.7112
▁пассабажжаяаа	-11.7113
хаанзна	-11.712
▁саммааваажаа	-11.7123
аважан	-11.7124
▁анусаасан	-11.7126
аабхид	-11.7127
агин	-11.713
▁гаала	-11.7131
анагам	-11.7133
иггаамз	-11.7133
чид	-11.7134
▁гаммадтаан	-11.7135
▁лзн	-11.7136
▁бажжз	-11.7136
хагаарам	-11.7138
▁сзнааба	-11.714
▁кам	-11.7141
▁бхий	-11.7143
▁самаабанно	-11.715
авирах	-11.7153
аанаат	-11.7154
▁самуухад	-11.7159
игзсу	-11.716
авас	-11.7161
бхаван	-11.7165
▁ааса	-11.7168
▁сукумаа	-11.7179
аббахаанам	-11.7181
али	-11.7183
▁бадибхаана	-11.7183
алогз	-11.7185
ааяигаа	-11.7187
ависзсо	-11.7192
адта	-11.7196
хуро	-11.72
▁самаанад	-11.7209
аалзд	-11.721
▁бариваар	-11.7211
ужчаа	-11.7213
хаяо	-11.722
▁балааяи	-11.7222
▁махаасаава	-11.7224
▁чаара	-11.7227
зсасса	-11.7227
бхаавз	-11.7233
▁98.	-11.7238
син	-11.7239
аананаа	-11.724
▁адти	-11.7248
амбхийрад	-11.725
сая	-11.7258
▁махаанис	-11.7258
▁бхигкуниса	-11.7263
▁виха	-11.7263
амаанаанам	-11.7269
▁алобхо	-11.727
иббад	-11.727
сасса	-11.7272
асааяа	-11.7272
ипалам	-11.7277
▁убадтабз	-11.7282
▁багк	-11.7284
▁99.	-11.7305
▁муулз	-11.7306
▁бааруби	-11.7307
иннасса	-11.7307
▁батамаг	-11.7311
▁логияам	-11.7311
▁раса	-11.7318
▁бурохи	-11.7319
▁барияааяо	-11.7321
химан	-11.7322
▁манорам	-11.7325
ивзд	-11.7325
▁авассам	-11.7329
▁вижигижч	-11.7329
▁яонам	-11.733
уммз	-11.7332
▁сагга	-11.7333
ааяасма	-11.7334
▁маалааг	-11.7336
▁вийн	-11.7338
акан	-11.7344
ахулаан	-11.7345
▁бар	-11.7351
исаани	-11.7354
ваарзна	-11.7357
▁ваяабба	-11.7362
бадивз	-11.7362
▁сукий	-11.7363
камаано	-11.7373
в	-11.7379
▁гаамааважарз	-11.7379
▁саасанасса	-11.738
саарам	-11.7381
▁агаро	-11.7385
▁бажжассосу	-11.7391
▁ажин	-11.7392
алааб	-11.7392
▁аамаса	-11.7396
▁нибпаа	-11.7396
амбхз	-11.7398
усамбая	-11.7399
▁бараамаса	-11.7402
хзби	-11.7413
▁бхигкуусу	-11.7413
жхааяам	-11.7428
агаммасса	-11.7429
▁огаасо	-11.743
ожараа	-11.7437
харз	-11.7456
арасо	-11.7457
садтам	-11.7458
агаамаа	-11.7458
▁бажжзгас	-11.7462
▁сарас	-11.7466
▁аажарияаа	-11.7468
аанубассанаа	-11.7478
ааяасмаа	-11.7479
▁гааман	-11.7482
оса	-11.7486
▁сз	-11.7489
.1	-11.7491
▁яагка	-11.7501
▁наамарууба	-11.7508
▁виваж	-11.7509
амиг	-11.7509
▁ваасам	-11.751
игаммам	-11.7511
аараваа	-11.7514
хиязва	-11.7522
▁гхадз	-11.7524
▁руубааважарз	-11.7526
▁хз	-11.7526
суван	-11.7527
аваарз	-11.7527
висса	-11.7528
▁бажжаяам	-11.7534
асахабху	-11.7537
▁убаасагаа	-11.7538
▁убажин	-11.7538
▁банаахам	-11.7543
аахаара	-11.7552
▁гзсан	-11.7553
абадивз	-11.7554
аабхуж	-11.7557
▁гилзсо	-11.7557
аагин	-11.7557
ажийварамаа	-11.7561
▁гилзса	-11.7566
абхаяам	-11.7567
уллан	-11.7568
асаавагаа	-11.7576
▁висаяз	-11.7579
адтаанан	-11.758
хаммасукавихаар	-11.7581
▁амажжаа	-11.7584
▁ижжзвам	-11.7586
▁басава	-11.7591
авису	-11.7595
▁вибассанаан	-11.7602
▁аамиса	-11.7603
▁махаав	-11.7603
уванз	-11.7605
ухзд	-11.7607
улаа	-11.7608
анаяо	-11.7609
анияо	-11.7609
арууб	-11.7609
сагам	-11.761
▁руубаж	-11.7611
анамби	-11.7612
▁бааб	-11.7614
▁вохаран	-11.7617
гажжи	-11.7619
угаамзна	-11.7619
аруубад	-11.7622
▁чадто	-11.7623
аалабан	-11.7637
ч	-11.7638
басаад	-11.7638
▁сийлаани	-11.7638
амбхийро	-11.7639
ийгхад	-11.7639
▁яассаа	-11.765
▁нааяам	-11.7652
▁собхан	-11.7669
гхаран	-11.7679
▁ааваасо	-11.7682
яасмаа	-11.7685
хиббааяам	-11.769
▁банзса	-11.7693
▁бзжжа	-11.7703
▁гилан	-11.7704
▁лаабхо	-11.7706
▁сзгкаа	-11.7708
ия	-11.7715
ааваг	-11.7716
имогку	-11.772
▁аарох	-11.772
▁анубхаван	-11.7723
уур	-11.7724
илаанаа	-11.7733
▁бхусам	-11.7736
▁бидтид	-11.774
▁сусам	-11.7743
▁взрам	-11.7744
амаанааяа	-11.7748
▁сарийра	-11.7749
▁сабхааво	-11.7749
гаалз	-11.7749
хаяи	-11.776
▁носан	-11.7762
аббагаарзна	-11.7764
▁анулома	-11.7766
▁ха	-11.7769
▁бахаран	-11.7777
▁логаж	-11.7778
▁сзса	-11.7781
▁логанааяаг	-11.7784
▁саггасса	-11.7784
агирияава	-11.7784
▁бзсид	-11.7786
▁васанадтаанам	-11.7793
▁аваяав	-11.7795
▁саммаааа	-11.7801
химогк	-11.7801
ггарад	-11.7812
аахираа	-11.7814
▁наавам	-11.7815
▁ванасан	-11.7817
▁нагкама	-11.782
саасан	-11.7821
▁важийбх	-11.7825
▁гилзсзхи	-11.7829
игаабад	-11.783
ажчаама	-11.7832
▁басаннаа	-11.7833
▁ваха	-11.7833
аанасам	-11.7835
анааний	-11.7839
уссийло	-11.7842
▁баваар	-11.7844
ийл	-11.7849
ааминим	-11.7856
аахан	-11.7856
▁логави	-11.7856
агамм	-11.7862
хисан	-11.7864
улад	-11.7864
зсаж	-11.7865
▁анаж	-11.7866
анаабажжаяаа	-11.7874
асахабхуу	-11.7874
▁ниссан	-11.7876
▁каяам	-11.788
▁наарий	-11.7881
ассанасса	-11.7883
хиббааяа	-11.7884
бажжад	-11.7887
здто	-11.7888
▁убаруубари	-11.7894
вамби	-11.7895
▁сздти	-11.7897
гаммам	-11.7898
саавид	-11.7902
▁анижжаанубассан	-11.7907
▁ависзсзна	-11.7908
▁сусама	-11.7911
сми	-11.7911
хааяз	-11.7914
рул	-11.7917
ахула	-11.7919
ужчид	-11.7921
▁бхаасан	-11.7922
анийяагаммам	-11.7925
сагалин	-11.7926
▁сукум	-11.793
▁логияаа	-11.793
рахмажария	-11.7932
хаммажаарий	-11.7933
▁бассаамий	-11.7935
▁ааваса	-11.7936
аабаад	-11.7938
бажжаяо	-11.794
▁махаабад	-11.7947
▁анусса	-11.795
анаж	-11.7952
авзна	-11.7953
▁язнааяасма	-11.7968
▁муний	-11.7969
▁гуру	-11.7978
сааяам	-11.798
ажчим	-11.7981
▁ниссая	-11.7983
убзгкаа	-11.7987
алаб	-11.7988
уубамаа	-11.799
аважанан	-11.7993
уггада	-11.7994
хзгажжз	-11.8
▁вуубасамаа	-11.8006
▁згова	-11.8014
▁анусая	-11.8021
▁манун	-11.8024
абурисо	-11.8026
илад	-11.8028
хаанаг	-11.8032
▁сагз	-11.8033
▁сабхаав	-11.8036
чи	-11.8037
гилзсабхаа	-11.8038
аанубассий	-11.8043
▁сарийр	-11.8044
амуул	-11.8044
анийяо	-11.805
ижчад	-11.805
▁маанаанусаяам	-11.8055
▁аббадинисса	-11.8057
алав	-11.8061
агхаад	-11.8063
гаарзна	-11.8067
анаяад	-11.8072
саяож	-11.8072
▁сахассаани	-11.8074
нзвасзгканаасзгк	-11.8075
абарияаабаннам	-11.8077
▁уггадта	-11.8087
▁аруубаанам	-11.8087
▁анабхиж	-11.8092
аахад	-11.8094
▁рзв	-11.8095
хасамаяам	-11.8097
аббавз	-11.8101
асзнад	-11.8117
▁вигабб	-11.8122
▁аяонисо	-11.8122
зма	-11.8124
угкабадиба	-11.8126
▁бхияяобхаавааяа	-11.8134
рас	-11.8136
▁махабпалам	-11.8136
▁бива	-11.8137
▁аагаасо	-11.8138
аабхаавзна	-11.8139
анаагаран	-11.8139
▁бариви	-11.8139
▁мануссо	-11.814
▁ниссад	-11.814
▁бихи	-11.8141
▁сигкам	-11.8142
▁сиймам	-11.8143
ажчарияам	-11.8143
▁убасамбанно	-11.8144
▁згажжасса	-11.8147
▁барияааяа	-11.8151
▁вихаарасса	-11.8155
▁субхад	-11.8164
▁бзсун	-11.8167
▁жхаан	-11.8176
арзби	-11.8178
▁самаасо	-11.8179
▁ажагкугаанам	-11.8181
▁бхависсаси	-11.8189
жхааваса	-11.8192
имзва	-11.8193
▁абхаави	-11.8201
▁соманассаж	-11.8203
аанагаарий	-11.8209
▁гаамуба	-11.8213
урагки	-11.8217
▁взн	-11.8219
аяамаанаа	-11.8225
инуд	-11.8228
ария	-11.8228
▁винижчая	-11.824
хован	-11.8252
▁баабагаан	-11.8253
ависса	-11.8257
▁лаху	-11.8258
аббамад	-11.8258
ажчаси	-11.826
усамудтаанам	-11.8262
▁бхааваяа	-11.8266
▁аман	-11.8267
▁саманубассаами	-11.8269
▁исиба	-11.827
▁бхависсаами	-11.8271
урад	-11.8272
игаж	-11.8277
амукзна	-11.8277
▁язби	-11.8282
саго	-11.8291
▁грияаа	-11.8294
▁ос	-11.8296
рахмуно	-11.8298
асабхааво	-11.8298
▁лам	-11.83
яуг	-11.8305
▁аахаарабажжая	-11.8309
▁убава	-11.8311
▁ураг	-11.8315
гкид	-11.8317
▁бхааро	-11.8322
аггасавижаар	-11.8323
хисам	-11.8326
▁маабз	-11.8329
▁уяяаанам	-11.8329
▁огаасз	-11.8329
баахам	-11.8332
▁агаббияам	-11.8333
▁руж	-11.8333
аяум	-11.8336
гилидтаа	-11.8339
хаббамук	-11.8341
▁лог	-11.8341
агусалам	-11.8343
▁аасум	-11.8347
▁барияосаанам	-11.8348
▁наяаа	-11.8352
▁бхигкуса	-11.8358
зв	-11.8359
▁бааг	-11.8361
▁аббадигх	-11.8363
▁аагаасзна	-11.8371
▁висая	-11.8372
▁логава	-11.8376
жхим	-11.8377
гхигам	-11.8378
аавимогкам	-11.8381
хасаасанз	-11.8384
▁взр	-11.8389
▁баарамияо	-11.8389
▁руубзна	-11.8389
▁барияосаана	-11.8389
▁згагкан	-11.8393
▁каан	-11.8408
▁сиббам	-11.8412
абарияосаанз	-11.8421
▁барис	-11.8421
▁махаама	-11.8422
анаавасзна	-11.8424
▁мука	-11.8429
ужчан	-11.8432
▁маанус	-11.8442
аананам	-11.8448
аажарияо	-11.8456
аяаани	-11.8458
▁гисмин	-11.8464
инаамз	-11.8465
▁габилава	-11.8467
агасад	-11.847
абарзхиби	-11.8473
асамааба	-11.8482
▁арияасса	-11.8483
▁барамам	-11.8484
хагаарз	-11.8484
аабхааваа	-11.8485
▁нийл	-11.8486
васса	-11.849
▁оггами	-11.8495
агга	-11.8499
▁соязва	-11.85
▁аама	-11.8501
хаарзяяа	-11.8501
абба	-11.8502
ийбад	-11.8503
икин	-11.8503
▁имаахи	-11.8513
▁адтим	-11.8515
габбаа	-11.8521
звим	-11.8523
▁абхи	-11.8526
▁116.	-11.8532
▁115.	-11.8533
огаасо	-11.8536
▁губба	-11.8546
▁саавагасан	-11.8546
▁манасигаар	-11.8547
хаммавижая	-11.8548
саммуд	-11.855
▁аагаасад	-11.8553
▁сит	-11.8554
▁аббахааяа	-11.8556
хаммаабхисамаяо	-11.8562
уубасам	-11.8564
▁рун	-11.8565
игасан	-11.8566
▁бариваари	-11.8567
хурад	-11.8569
аббагаасанаа	-11.857
▁сагал	-11.857
рав	-11.8572
▁118.	-11.8575
уурам	-11.8578
амагааси	-11.858
▁бхаавзсса	-11.8581
варзна	-11.8582
ияабад	-11.8586
ааяу	-11.8587
▁виссу	-11.8588
▁ра	-11.859
зссаами	-11.859
хаараяаамий	-11.8592
гаарз	-11.8592
аамин	-11.8593
аабхааво	-11.8599
▁галааб	-11.8599
пал	-11.8604
арахан	-11.8606
▁бажжуг	-11.8606
осми	-11.8607
риязна	-11.8613
игааран	-11.8621
жигка	-11.8622
ийбанам	-11.8623
хабхуу	-11.8623
▁руубаг	-11.8624
хаара	-11.8625
аалаавад	-11.8628
▁киби	-11.8631
▁нидтам	-11.8631
▁наамигаба	-11.8636
▁сздт	-11.8639
хаммаануд	-11.8641
▁ануббаннасса	-11.8644
саарад	-11.8645
сзсу	-11.8653
▁вужжамаано	-11.8655
аанаабз	-11.8655
▁бумз	-11.8655
асамбаннам	-11.8659
▁ругкасса	-11.8665
яаава	-11.8675
▁сзнаа	-11.8676
▁сахасса	-11.8681
зран	-11.8682
асамбаннаа	-11.8684
аббагаарам	-11.8686
рахмаанам	-11.8686
▁нагаммабажжаяаа	-11.8691
▁сзгко	-11.8696
▁лаабхам	-11.8701
абарияосаанам	-11.8701
аабаяа	-11.8703
▁113.	-11.8703
▁нассад	-11.8706
сзн	-11.8707
▁аажин	-11.871
ийниби	-11.8713
▁имасмин	-11.8719
▁нигкама	-11.8719
баарибуурим	-11.872
▁охи	-11.872
▁вибассий	-11.8721
абхаан	-11.8727
убаривад	-11.8727
▁вижара	-11.8727
аяуг	-11.873
▁акан	-11.8739
▁бхуумим	-11.8741
бхааро	-11.8741
▁манусс	-11.8742
▁саннисиннаа	-11.8744
иссаси	-11.8745
▁111.	-11.8754
угкамасукаа	-11.8755
▁жол	-11.8771
хура	-11.8773
▁ааламб	-11.8778
▁махим	-11.8778
▁баабиг	-11.8779
жхимаа	-11.8786
▁112.	-11.8788
▁виваран	-11.8789
▁згоби	-11.879
▁аббаса	-11.8793
▁баригамм	-11.8794
алигкз	-11.8798
агаг	-11.88
▁гааламагааси	-11.8802
анасам	-11.8807
▁агусаламуул	-11.8808
хийбхуу	-11.8811
▁руубий	-11.8812
звийса	-11.8813
ибадтаанам	-11.8813
▁гирияа	-11.8814
взж	-11.8818
▁абхааво	-11.8821
▁аабаад	-11.8825
игабаа	-11.8827
▁агкар	-11.8833
убхаавад	-11.8833
▁сийласам	-11.8835
ваасо	-11.8836
▁анубан	-11.884
зрийг	-11.8843
▁аахараабз	-11.8843
▁хзман	-11.8848
▁баггаман	-11.8849
▁сзсзсу	-11.8851
▁вивзгаж	-11.8856
▁барибуурзн	-11.8859
▁вигаббз	-11.8861
▁ануббаннаа	-11.8861
яасан	-11.8863
▁абхависса	-11.8863
асамудтаано	-11.8871
ибхи	-11.8874
▁махаанубхааво	-11.8883
ижжа	-11.8889
▁рассад	-11.889
хаахи	-11.8891
рахмунаа	-11.8891
▁анома	-11.8896
▁ругкз	-11.8899
аарав	-11.89
▁наагусал	-11.8902
▁аагаас	-11.8903
здтаг	-11.8905
▁бассзяяа	-11.8906
асама	-11.8907
жхимам	-11.8907
▁сажжа	-11.8907
арууба	-11.8914
угган	-11.8915
▁сусан	-11.8917
бхаяа	-11.8922
аруг	-11.8928
▁ануяо	-11.8931
▁гзнадтзна	-11.8937
▁адтаннам	-11.8938
ивааран	-11.894
идтзна	-11.8943
▁бхаавзна	-11.8947
▁кзмам	-11.895
зсабха	-11.8953
имби	-11.8962
ижжзва	-11.8966
лохид	-11.897
▁босо	-11.8973
▁бараж	-11.8975
аароби	-11.8978
асзва	-11.8978
▁сукумам	-11.8979
абхид	-11.8981
жагаамаг	-11.8981
▁абхибх	-11.8982
▁сийласса	-11.8986
▁сийлавиба	-11.8987
оманассасаха	-11.899
асаалам	-11.8992
ариг	-11.8995
зяяу	-11.8996
хигз	-11.8996
арааяам	-11.8997
▁барихари	-11.8999
аамипалам	-11.9002
▁нисз	-11.9005
исаанам	-11.9005
▁асаб	-11.901
▁сийласамба	-11.9012
арамман	-11.9012
игаммигассаа	-11.9021
▁вим	-11.9024
уггад	-11.9024
ибхаавад	-11.9025
▁абарис	-11.9027
▁таана	-11.9028
▁вудтаанам	-11.9033
иважана	-11.9033
▁навави	-11.9034
абагкз	-11.9037
▁яасам	-11.9047
▁ваяад	-11.905
мано	-11.905
зра	-11.9051
рзва	-11.9056
ийваран	-11.9058
угкасажжан	-11.9066
жаран	-11.9069
▁аавадданаа	-11.907
исод	-11.908
саммад	-11.9081
уггадамзва	-11.9081
абажжубадтаанаа	-11.9083
асажжан	-11.9085
▁иссаа	-11.9088
абаасз	-11.9089
▁сигкааяа	-11.9094
▁ассамам	-11.9095
▁згажжам	-11.9095
▁114.	-11.9102
иггамаа	-11.9108
й	-11.9111
игк	-11.9114
▁важанийяо	-11.9114
взл	-11.9119
▁самбхуу	-11.9119
▁махаабурис	-11.9119
▁баггам	-11.9126
вааро	-11.9127
▁сажагкугаана	-11.9134
▁биван	-11.9135
уссам	-11.9135
▁сассам	-11.9136
бадисан	-11.9137
аанаама	-11.9138
омхий	-11.9146
▁саасаваа	-11.9151
▁ажчарияам	-11.9156
иязваа	-11.9159
агаарий	-11.9162
абарияааяо	-11.9164
▁взбуллааяа	-11.9173
адтаана	-11.9176
▁арияасажжаани	-11.9182
обхааг	-11.9182
▁119.	-11.9184
▁рама	-11.9188
▁баадиба	-11.919
▁згууна	-11.9196
рияад	-11.9198
аяаг	-11.9198
аллам	-11.9199
анааби	-11.92
асийло	-11.9201
хиссаамий	-11.9213
▁пудто	-11.9222
▁122.	-11.9224
▁баримуд	-11.9224
аабо	-11.9225
▁нааяаго	-11.9226
▁оба	-11.9228
агаммаа	-11.9231
жхаасаяам	-11.9231
▁осаар	-11.9234
▁наавааяа	-11.9234
хануг	-11.9247
▁взбуллам	-11.9248
арамби	-11.925
▁саггаарам	-11.9253
▁ругкамуулз	-11.9258
▁вихи	-11.9258
▁саамий	-11.9259
барияан	-11.9259
▁самаанасам	-11.926
▁адтамо	-11.9266
хумаа	-11.9266
▁нисиннз	-11.9271
▁агат	-11.9273
ужчз	-11.9273
хаавааро	-11.9279
▁субхаави	-11.928
▁117.	-11.928
▁пассам	-11.9281
▁зваруубз	-11.9282
▁оггама	-11.9284
ависам	-11.9285
▁гариссан	-11.9285
▁анзгаса	-11.929
амиссаами	-11.9296
▁яоби	-11.9299
имасса	-11.9299
исаарз	-11.93
илаан	-11.9311
▁121.	-11.9313
аараамз	-11.9325
▁наамз	-11.9327
▁басаари	-11.933
▁пусса	-11.9331
▁сого	-11.9333
абадисан	-11.9333
▁руубаарууба	-11.9334
▁пара	-11.9338
аггасавижаарам	-11.9339
▁васаа	-11.9349
ваараа	-11.9349
▁бадижчаннам	-11.936
яаб	-11.9361
▁годтаасз	-11.9362
ажийвара	-11.9362
▁бот	-11.9369
▁гижжаа	-11.9376
▁анзг	-11.9377
-1	-11.9382
хаасам	-11.9383
зр	-11.9393
▁убзгкаго	-11.9394
▁хздтима	-11.9394
▁аруубааважар	-11.9398
ибадтаанз	-11.9399
ийхиби	-11.9399
инияаа	-11.94
▁пусз	-11.94
сари	-11.94
звзхи	-11.9401
ббад	-11.9406
▁аббахийнаа	-11.9407
илаг	-11.9408
игааяам	-11.9414
гхаг	-11.9416
ожарз	-11.9417
аамипал	-11.9417
▁анугамбам	-11.9419
▁бурисз	-11.9422
абажжаяз	-11.9423
▁кзбз	-11.943
авибха	-11.943
▁саббурисо	-11.9431
ассанаад	-11.9432
во	-11.9432
▁махаасу	-11.9434
чаннаа	-11.9441
арасаа	-11.9442
▁сзсад	-11.9443
▁сураа	-11.9444
аруубо	-11.9445
хаваг	-11.9448
▁гус	-11.9457
ихийнам	-11.9458
абхигку	-11.9459
▁вибаагабажжая	-11.9463
▁манаабам	-11.9464
ияааяа	-11.9465
▁самбанно	-11.9466
жхиманигаая	-11.947
▁бхааяи	-11.9479
ууба	-11.9481
▁вохаар	-11.9484
▁абхирухи	-11.9485
бхуж	-11.9487
аанусаарзна	-11.9491
▁габбам	-11.9493
хабад	-11.9499
▁згажи	-11.95
▁гурун	-11.95
▁сагки	-11.9504
агадт	-11.9504
▁гааяин	-11.9505
▁авибха	-11.9505
▁аруубам	-11.9509
ийсад	-11.951
вис	-11.9511
▁анусааса	-11.9513
▁сзнам	-11.9519
▁расааяа	-11.9524
▁уггудиг	-11.9525
▁саггун	-11.9526
убхая	-11.9528
▁вибаагасса	-11.9532
▁жарамаано	-11.9534
▁мал	-11.9535
▁винаяан	-11.9543
▁123.	-11.9545
уло	-11.9552
сукааяа	-11.9556
апалад	-11.9559
ивуд	-11.956
инияо	-11.9562
хаммаанан	-11.9567
▁вийрияаб	-11.9573
▁наяи	-11.9587
▁анижж	-11.9596
▁саяамби	-11.9597
рог	-11.9602
гарид	-11.9603
ссу	-11.9607
▁сарааг	-11.9612
имаж	-11.9613
арияаа	-11.9613
агааяо	-11.9615
▁сийхаб	-11.9619
▁нигкамма	-11.962
▁махаагассаба	-11.9621
уббаж	-11.9622
агавад	-11.9625
▁взсаалияа	-11.9626
▁бурисад	-11.9627
игаб	-11.963
яааг	-11.9631
▁гхаанам	-11.9632
▁висаж	-11.9632
бажжаяа	-11.9648
самбхуу	-11.9649
▁барахи	-11.9652
хаммани	-11.9658
▁аагаасам	-11.9664
▁манасо	-11.9666
▁саяи	-11.9669
▁сарам	-11.9672
▁гудумб	-11.9673
анаанад	-11.9673
▁сзн	-11.9674
▁згзгасмим	-11.9675
▁аахажжа	-11.9675
▁бажчимаа	-11.9677
▁згабад	-11.9681
гаал	-11.9682
ияож	-11.9683
▁бааяааси	-11.9687
зваасиго	-11.9688
▁соманассзна	-11.9689
гилзсо	-11.9689
вааран	-11.9691
хамид	-11.9698
ханаад	-11.9698
иббабхз	-11.97
▁барихаран	-11.9704
▁ажжа	-11.9705
▁саакаа	-11.9705
▁гарим	-11.971
▁махаабурисо	-11.9715
▁мааяаа	-11.9717
угаани	-11.9717
▁убабаригки	-11.9725
▁бхуммад	-11.9726
лан	-11.9728
▁убхаяа	-11.9729
▁адтави	-11.9731
аарахо	-11.9736
▁125.	-11.9737
жхохаарз	-11.974
илан	-11.9743
анаваг	-11.9754
▁винижчаяам	-11.9754
▁ругкад	-11.9755
▁арияаг	-11.9755
исзсам	-11.9765
рахмавихаар	-11.9766
▁вассад	-11.9767
зяяз	-11.977
ийнаван	-11.9771
абаривад	-11.9773
виннамби	-11.9774
▁бхаваг	-11.9777
▁вибхава	-11.9786
аабхибхуу	-11.9787
▁марияаа	-11.9787
▁муулааяа	-11.9792
аахиро	-11.9794
▁нааваа	-11.9795
▁аароби	-11.9796
бубп	-11.9802
хааяи	-11.9805
аабаяи	-11.9811
жхимо	-11.9811
▁баарибуурияаа	-11.9814
▁васу	-11.9814
▁жарзяяа	-11.9818
хабхаавам	-11.9822
абарааяан	-11.9822
▁бидага	-11.9824
▁гусалз	-11.9828
аабхин	-11.9831
▁124.	-11.9831
▁виваддуубанисс	-11.9833
аманавасзна	-11.9836
▁аанубхаавзна	-11.984
▁аббас	-11.9842
▁идтаа	-11.9846
рабхуу	-11.9849
▁сужи	-11.9852
аггад	-11.9854
абби	-11.9854
–	-11.9862
▁гамзна	-11.9864
▁гааяига	-11.9869
▁ахуу	-11.987
▁нзми	-11.9871
▁буур	-11.9877
▁висаяо	-11.9878
▁самаасз	-11.9879
гилзс	-11.9882
▁агусалз	-11.9883
▁амма	-11.9886
▁иссар	-11.9891
▁жагкусампасс	-11.9895
абзгк	-11.9896
▁саммаси	-11.9896
агови	-11.9897
ахуухи	-11.9904
▁аарагаа	-11.9907
аануяо	-11.9908
▁бари	-11.991
▁нийд	-11.9911
▁нияяаанигам	-11.9914
арияо	-11.9915
▁аяамасса	-11.9916
киби	-11.992
▁бхааяа	-11.9922
▁луук	-11.9922
▁саамад	-11.9924
▁бадисзва	-11.9925
▁чадтий	-11.9927
ханаани	-11.9935
▁мук	-11.9936
▁яун	-11.9942
агаммуубаг	-11.9946
▁агусалзхи	-11.9946
▁саббан	-11.9955
▁ааруяха	-11.9956
▁вуубасамма	-11.9957
рз	-11.9961
яид	-11.9964
▁убабанно	-11.9974
▁вар	-11.998
жхог	-11.9988
аабавад	-11.9996
жамий	-11.9999
ааламб	-12.0003
исая	-12.0004
▁сзнааяа	-12.0007
▁бабхаа	-12.0007
▁уунад	-12.0009
урам	-12.0009
▁нагаамааважар	-12.0013
▁гусалаж	-12.0013
таанад	-12.0013
▁субад	-12.0015
▁рахог	-12.0016
▁ка	-12.0016
агамма	-12.0022
▁сийлаг	-12.0028
▁ижжзва	-12.0028
▁саарам	-12.003
▁ааваасаа	-12.0033
▁кааяа	-12.0039
хига	-12.0042
▁смим	-12.005
▁сувим	-12.0051
аарул	-12.0054
▁висзсанам	-12.0059
анаяан	-12.006
бхаас	-12.0061
ийбагам	-12.0062
▁батамасса	-12.007
ийгхаа	-12.0071
ияаб	-12.0076
▁убадтаан	-12.0077
гийл	-12.0078
сарад	-12.008
▁самужчин	-12.0083
кари	-12.0084
табз	-12.0084
ававад	-12.0087
▁маггад	-12.0097
▁каяо	-12.0102
овин	-12.0102
▁гааяабадиб	-12.0102
аруубаа	-12.0102
▁арияав	-12.0106
▁саамиго	-12.0108
▁бужчим	-12.0118
ажагкунаа	-12.0119
▁барзсу	-12.0122
сабхаав	-12.0122
ожчаг	-12.0122
▁барихара	-12.0124
▁субхам	-12.0125
аалаад	-12.0128
▁сажжзна	-12.0131
▁аагаарзна	-12.0132
агкаад	-12.014
хубос	-12.0144
жхааяасса	-12.0144
абажжаяад	-12.0147
▁уббаннаанам	-12.0148
▁малам	-12.0148
▁кзм	-12.0149
▁129.	-12.0151
▁вая	-12.0155
▁асур	-12.0155
▁нивзсанам	-12.0157
▁самбадижчан	-12.0159
ирим	-12.0165
хаабан	-12.0168
▁126.	-12.017
▁самудта	-12.0171
▁128.	-12.0172
самат	-12.0173
▁васав	-12.0178
▁сауба	-12.0183
▁буримад	-12.0183
▁вааяан	-12.0184
▁аяяаа	-12.0185
иггамам	-12.0185
ханасса	-12.0185
▁131.	-12.0189
ааважарзна	-12.0192
аригаа	-12.0194
усс	-12.0195
арул	-12.0199
ивасо	-12.02
асзнаасанаг	-12.02
▁габбо	-12.0202
авасам	-12.0203
▁алаб	-12.0203
▁махаавийро	-12.0203
асигкаа	-12.0204
авихаар	-12.0205
▁баажийна	-12.0205
▁саббим	-12.0209
гаарабхуу	-12.0214
бхамаана	-12.022
акзд	-12.0222
агийл	-12.0223
▁гаараго	-12.0228
хису	-12.0228
▁убалагкан	-12.0228
▁вигки	-12.0229
бхавз	-12.0231
▁вимогк	-12.0241
ожараг	-12.0242
уббаннам	-12.0242
▁132.	-12.0244
▁абужчи	-12.0257
хаанамаг	-12.0261
каран	-12.0262
▁агусала	-12.0267
▁наасагки	-12.0267
▁аараамо	-12.027
▁127.	-12.0273
▁бхиннаа	-12.028
▁нажж	-12.0281
▁махаабхо	-12.0281
агумааро	-12.0282
▁сийласамбанно	-12.0283
▁бхаяан	-12.0284
ихий	-12.0286
▁манаабо	-12.0288
хаммагкан	-12.0289
ияамаанз	-12.0297
зссан	-12.0297
▁згааб	-12.0302
▁аббзгажж	-12.0303
санам	-12.0303
рахмажаарийнам	-12.0304
амиссан	-12.0307
куд	-12.0311
зрияаа	-12.0316
▁наруубааважар	-12.0317
▁алаг	-12.0326
▁анубхо	-12.033
улз	-12.033
▁мааран	-12.0331
мижжаа	-12.0332
▁бажжаязсу	-12.0333
▁вижааран	-12.0337
зяяан	-12.0339
▁ананусс	-12.0341
▁бассз	-12.0342
исаабхаа	-12.0347
хаарасамба	-12.035
▁саманубхаасан	-12.0351
аарагам	-12.0354
ужид	-12.0355
▁абажи	-12.0355
ураа	-12.0355
▁самбасаа	-12.0356
▁агкийни	-12.0359
асамудтаанаа	-12.0363
▁имамзва	-12.0363
жхабхааси	-12.0365
удти	-12.0366
▁саббаан	-12.0368
▁гаммани	-12.0369
аанабажжаяаа	-12.0382
▁будтаа	-12.0386
▁бажжаяаанам	-12.0386
▁бажчимз	-12.0387
асажчигирияааяа	-12.0387
▁маалаа	-12.0388
▁сажжан	-12.039
хаанавин	-12.0391
▁ависса	-12.0394
аалзна	-12.0396
▁аваг	-12.0401
▁баригкаяаа	-12.0401
▁135.	-12.0405
аасукам	-12.0405
каарзна	-12.041
самааба	-12.0411
▁багаас	-12.0412
аасавз	-12.0415
▁гааяигасса	-12.0419
амагкааяа	-12.0423
хаавим	-12.0423
ааважаро	-12.0424
▁баригкиби	-12.0428
абхав	-12.0428
ирууб	-12.0432
▁вивадд	-12.0432
▁аббадиг	-12.0434
ааним	-12.0439
игавад	-12.0439
оран	-12.0442
ависзс	-12.0446
адтум	-12.0448
алого	-12.0449
ссам	-12.045
ивзссана	-12.0454
▁сураамзраяама	-12.0454
хааваасаанам	-12.0456
ижч	-12.046
бхаав	-12.0463
▁сийлз	-12.0466
аалийсам	-12.0466
авааби	-12.0472
агабан	-12.0473
яаани	-12.0473
▁гаамааважараан	-12.0476
зроби	-12.0477
▁хийно	-12.0481
аагат	-12.0481
▁ужчу	-12.0481
▁абх	-12.0484
▁наабхин	-12.0488
ваасаго	-12.0492
хигаани	-12.0497
аалаван	-12.0499
▁удтаабз	-12.0502
▁кийяа	-12.0503
▁анаббаг	-12.0508
▁аараамам	-12.0508
▁бажжааж	-12.0509
▁убажаар	-12.051
▁яаанам	-12.0512
аггаавижаарам	-12.0515
▁нир	-12.0515
иражчаан	-12.0518
▁гуггуд	-12.053
▁маяамби	-12.0533
▁ногилзс	-12.0534
▁яагкаа	-12.0538
▁язсу	-12.0539
▁барисаасу	-12.0539
▁сагкисса	-12.0539
▁гулзсу	-12.054
▁гусалзна	-12.0541
анийяаван	-12.0543
харагк	-12.0546
▁алл	-12.0551
▁аабаннаа	-12.0553
▁133.	-12.0557
▁нисинн	-12.0567
ваязна	-12.0569
асасса	-12.0569
бийл	-12.0571
барису	-12.0571
▁самудтаанзна	-12.0576
хагат	-12.0584
▁сагала	-12.0594
▁маар	-12.0594
▁сир	-12.0595
ивх	-12.0596
жхаасая	-12.0598
▁136.	-12.0598
▁бхуммам	-12.06
▁субхаг	-12.0604
удтам	-12.0605
хагаа	-12.061
паран	-12.0611
хаммадти	-12.0612
▁логанааяаго	-12.0612
▁субхаа	-12.0614
▁исаяо	-12.0615
уллабхо	-12.0615
яу	-12.0615
знаавусо	-12.0615
аанасан	-12.0616
звалогам	-12.0618
▁сарийрад	-12.0619
уру	-12.0619
амаанзсу	-12.062
асигаанам	-12.0621
абариб	-12.0623
▁саммукаавинаязн	-12.0627
▁уббанн	-12.0632
▁асамбад	-12.0633
ахуви	-12.0634
кзбзна	-12.064
сияо	-12.065
гхаб	-12.0655
аласа	-12.0655
▁раахула	-12.0655
ааяагаа	-12.0656
асавад	-12.0659
▁аруубааважарз	-12.0661
▁барибхаас	-12.0662
▁нираяаа	-12.0663
дтабуб	-12.0663
▁вохааро	-12.0668
нану	-12.0672
алогам	-12.0672
▁нзгкамма	-12.0674
ахар	-12.0679
▁анубассад	-12.0679
▁мах	-12.068
▁вихаараа	-12.0681
авирад	-12.0684
▁нижжад	-12.0686
асси	-12.0688
звин	-12.0692
▁абхисамз	-12.0694
ааяуд	-12.0697
▁асамаахи	-12.0697
▁вибаагааб	-12.0703
рия	-12.0708
аяасажжан	-12.0709
аасава	-12.071
▁насан	-12.0717
▁сагалаж	-12.0719
▁мудтасса	-12.0719
уляа	-12.072
▁иминааби	-12.0721
ниг	-12.0724
▁адтавийса	-12.0725
▁жаммам	-12.0726
▁чааяаа	-12.0728
мукам	-12.0732
ийбанаа	-12.0733
хаммабхаа	-12.0733
▁ануломабу	-12.0735
▁убхосу	-12.0736
ила	-12.0741
▁вил	-12.0745
▁гааяаанубассана	-12.0747
ахааяа	-12.0753
ияабан	-12.0755
▁бадибаннаа	-12.0755
▁савад	-12.0756
аваб	-12.0756
амагаараяи	-12.0757
▁бхигкунийхи	-12.0758
аамагз	-12.0762
гилзсигам	-12.0763
алуд	-12.0763
▁вирааж	-12.0764
хаммасабхааяам	-12.0765
▁жхаанабажжая	-12.0767
ахисса	-12.0773
▁авз	-12.0773
хийсу	-12.0774
сассад	-12.0775
▁соманасс	-12.0775
▁сзнаасан	-12.0776
▁вагкамаан	-12.0787
▁барихаани	-12.0788
ужчам	-12.079
▁банзсаа	-12.0795
▁таанзна	-12.0796
▁сажжаваа	-12.0801
▁134.	-12.0808
▁саяа	-12.0812
аяасан	-12.0812
аарзсу	-12.0814
▁анзгз	-12.0815
анаасан	-12.0816
▁нидтаа	-12.0816
▁нибанно	-12.082
илаанабажжаяабх	-12.0824
▁бариса	-12.0824
▁вааяаамо	-12.0829
▁анурууб	-12.0836
баарис	-12.0838
▁лабхаами	-12.0839
варад	-12.0841
рабх	-12.0842
▁гамад	-12.0842
идтаани	-12.0843
убхаавзна	-12.0843
▁бадисзван	-12.0844
агааяаа	-12.085
абхаава	-12.0852
▁гаммассага	-12.0854
ираа	-12.0854
ааваран	-12.0855
▁нажжан	-12.0857
игааби	-12.0858
▁вийрияасамб	-12.0863
хиби	-12.0863
▁самаабанн	-12.0868
змаа	-12.087
рахмаг	-12.087
▁141.	-12.0872
▁гусалаагусал	-12.0874
▁бодтаба	-12.0875
бхууми	-12.0876
▁агхаанаг	-12.0877
ааманиг	-12.0878
адтаанаани	-12.0878
аалид	-12.0879
▁бадисаран	-12.088
▁уббаннад	-12.0881
▁васса	-12.0884
▁агусаламуулам	-12.0885
▁гхос	-12.0888
▁сахасс	-12.0888
ароби	-12.089
хасажжам	-12.0894
▁убхаяамби	-12.0895
▁самбхо	-12.0897
▁ааваасам	-12.0898
▁гаасира	-12.0901
▁махзсинаа	-12.0902
агул	-12.0904
хуно	-12.0906
исзсу	-12.0906
▁кал	-12.0907
батамам	-12.0908
▁саммаса	-12.0908
▁биви	-12.0908
аяааяа	-12.091
угаамасса	-12.0913
▁аав	-12.0914
▁чинн	-12.0915
аваажаго	-12.0916
▁наван	-12.0919
▁138.	-12.0922
▁яассааяасма	-12.0923
▁вигаббан	-12.0926
жхохаран	-12.0927
зяяасам	-12.0927
▁гассабасса	-12.0928
баллан	-12.093
аруубзна	-12.0934
▁манааб	-12.0935
▁барибан	-12.0935
абаривуд	-12.0937
▁аббадисан	-12.0938
ияасан	-12.0943
▁вамбхз	-12.0943
▁сара	-12.0946
▁наалам	-12.0951
▁баагадамзва	-12.0952
хавад	-12.0953
зганав	-12.0954
сагад	-12.0963
агилама	-12.0964
▁арияасаавагасса	-12.0966
хаммияаа	-12.0966
▁хаар	-12.0968
▁сирий	-12.097
▁нажжаг	-12.097
хаммара	-12.097
ассанавис	-12.0973
▁137.	-12.0979
▁142.	-12.098
▁хаая	-12.0981
аасамбхавам	-12.0989
агкар	-12.0991
▁уссуггам	-12.0994
идтаабзси	-12.0994
химогко	-12.0998
▁яони	-12.1003
ийгх	-12.1005
▁ануссааван	-12.1005
висад	-12.1008
инасса	-12.1008
▁анзгаани	-12.101
▁самаанам	-12.1012
амбий	-12.1013
▁бхигкуни	-12.1015
жхаая	-12.102
алабан	-12.1021
ийхаагаарзхи	-12.1026
▁148.	-12.1033
яяа	-12.1038
▁р	-12.1041
▁саарз	-12.1042
▁асураа	-12.1043
▁вивара	-12.1047
аабхи	-12.1048
▁яасассино	-12.1049
▁гумаарам	-12.105
▁вивижжа	-12.105
▁чадта	-12.105
▁маяха	-12.1051
▁васси	-12.1052
аарага	-12.1054
улаад	-12.1058
саани	-12.106
ужчад	-12.106
▁алабхи	-12.1062
▁буурзн	-12.1063
▁жхаанаани	-12.1064
ахат	-12.1068
▁сажжаан	-12.1068
▁аруубааважараа	-12.107
саарибу	-12.1072
зсзсу	-12.1072
▁аахаара	-12.1075
аабарам	-12.1077
уухий	-12.1079
▁махийба	-12.1082
аабаат	-12.1084
▁139.	-12.1088
▁баабимаа	-12.1089
хисо	-12.109
▁анижжасан	-12.1093
чз	-12.1099
▁ная	-12.11
зсвзва	-12.11
агкаяам	-12.11
▁муулад	-12.1103
авиниб	-12.1106
▁асзгк	-12.1107
▁ру	-12.1111
▁агкаахи	-12.1115
▁мижчаасан	-12.1116
▁руубааважара	-12.1118
▁нааасава	-12.112
▁раха	-12.1123
▁бадилаабх	-12.1123
▁гаама	-12.1125
▁наяам	-12.1132
уубаниссая	-12.1135
▁асубх	-12.1138
самаг	-12.1142
▁144.	-12.1142
▁аахаран	-12.1147
авуубасам	-12.1147
аруго	-12.115
▁уббанна	-12.115
▁вассз	-12.1151
▁анугамбааяа	-12.1157
▁наахоси	-12.1158
ахун	-12.1159
▁ажчи	-12.116
▁кийр	-12.116
ваариг	-12.116
арзяяа	-12.1168
махаабхуу	-12.1168
▁авижаар	-12.1169
рива	-12.1178
аяавад	-12.1178
габб	-12.1179
анасамбанно	-12.1181
▁гумаар	-12.1182
исук	-12.1183
аалин	-12.1186
ависаяз	-12.1186
▁анзгзхи	-12.1187
аарзхи	-12.1188
саараж	-12.119
▁жийварзна	-12.119
▁вигаала	-12.1191
аббадиб	-12.1191
▁бхаяаа	-12.1194
▁палз	-12.1195
хур	-12.1197
аарий	-12.1199
▁ругк	-12.12
▁асзви	-12.1201
сабхаавад	-12.1203
▁гудим	-12.1204
ааяагам	-12.1205
усси	-12.1205
▁бадижчанн	-12.1208
▁баригкааро	-12.121
▁ло	-12.1214
игамзва	-12.1214
игасу	-12.1215
▁киббамзва	-12.1217
ламб	-12.1223
▁бабхан	-12.123
▁расз	-12.1234
▁гааяаваажаа	-12.1235
▁мунино	-12.1243
удтасса	-12.1244
▁жийвар	-12.1245
оязваа	-12.1246
▁махааяасо	-12.1249
▁чанно	-12.125
▁агаасий	-12.1252
рахмаж	-12.1254
▁махий	-12.1255
▁анзгабарияаая	-12.1257
▁сзнаасанаани	-12.1259
ааружи	-12.126
▁убааханаа	-12.126
ааниязва	-12.1263
▁годдз	-12.1268
ассзвам	-12.1272
▁логияо	-12.1273
аасзванабажжаяаа	-12.1276
▁ахум	-12.1277
усо	-12.1278
▁батамааяа	-12.1281
▁бхим	-12.1282
аваажаа	-12.1282
хасамаабанн	-12.1283
гхарад	-12.1284
▁бахаарам	-12.1291
▁аавад	-12.1293
▁жхаабз	-12.1295
▁иссарияам	-12.1295
барижжаа	-12.1297
аяамби	-12.1301
сийлам	-12.1302
агусалаа	-12.1305
▁маарам	-12.1305
▁саггам	-12.1306
самад	-12.1307
чаннам	-12.1307
згз	-12.1307
▁саггоми	-12.1308
▁гусалааб	-12.1313
▁расса	-12.1313
убхава	-12.1314
▁камаабз	-12.1319
ижжо	-12.1321
абарисааяа	-12.1322
ийнаваа	-12.1325
▁вибассанааб	-12.1328
▁жоро	-12.1328
▁сигкзяяа	-12.1328
▁аббий	-12.1329
маано	-12.133
бавад	-12.1331
▁навамо	-12.1332
хидтахи	-12.1336
▁варо	-12.1338
зяяун	-12.134
аахзна	-12.1341
хаво	-12.1341
▁гаамо	-12.1346
аабун	-12.1348
аасаг	-12.1351
ваязби	-12.1354
▁хаан	-12.1354
урахоси	-12.1358
убхо	-12.1359
▁жийвараби	-12.1364
▁156.	-12.1364
▁субхан	-12.1367
хааний	-12.1378
▁бадияаа	-12.1382
▁муулаани	-12.1382
абажжубадтаано	-12.1383
ахараа	-12.1386
хисийлам	-12.1392
иссаама	-12.1396
▁нижж	-12.1397
▁згаава	-12.1397
аахигаа	-12.1401
гхади	-12.1403
рууб	-12.141
ахал	-12.1414
▁аасабх	-12.1417
аарзси	-12.1418
▁висаакз	-12.1418
ависзсам	-12.1419
ияоби	-12.1419
ханисс	-12.1419
▁жийвараани	-12.142
▁сахааяам	-12.142
▁149.	-12.142
ануубаг	-12.1423
▁нийлаа	-12.1423
▁могхама	-12.1424
▁агусал	-12.1427
ваасадти	-12.1428
бхавад	-12.1429
▁аарул	-12.1433
▁лахум	-12.1434
бхаяам	-12.1435
▁вижинан	-12.1447
▁годи	-12.145
▁махаанаа	-12.1452
ижжасамуббаннаа	-12.1454
салагкан	-12.1462
ханааг	-12.1462
▁вибаагаанам	-12.1463
амбхийрам	-12.1464
абурисаа	-12.1465
згарад	-12.1466
▁анусааси	-12.1467
▁гзсз	-12.1467
аггзна	-12.1473
яас	-12.1474
алогаасаа	-12.1475
▁147.	-12.1477
▁146.	-12.1477
▁143.	-12.1477
▁гаамуубас	-12.1477
▁саар	-12.1481
салохи	-12.1496
▁барзна	-12.1498
адтаанзсу	-12.1499
бхун	-12.1501
алааяа	-12.1502
анийязна	-12.1504
▁саяамбхуу	-12.1506
▁аггосан	-12.1509
аанубассанааяа	-12.151
▁абарам	-12.1514
▁мажчарияам	-12.1515
гилидто	-12.1516
аругад	-12.1517
▁аруубий	-12.152
▁гхаддз	-12.1523
гамз	-12.1524
▁маносан	-12.1529
амми	-12.1531
уусаг	-12.1531
▁бхинн	-12.1532
▁нияаам	-12.1536
▁аггоса	-12.1536
аругк	-12.1536
▁саллзк	-12.1537
▁баабан	-12.1538
ажагкун	-12.1539
вигка	-12.1541
▁обхаасз	-12.1542
агулам	-12.1542
▁абарамби	-12.1542
вая	-12.1544
▁бадиббассамбхз	-12.1546
ижад	-12.1549
▁гаамасан	-12.1554
риязхи	-12.1555
▁сзнаасанз	-12.1557
▁багкий	-12.1559
обхаас	-12.1559
хаммасу	-12.1561
асамбхаар	-12.1562
агаараго	-12.1562
▁бахийна	-12.1565
аббаяо	-12.1569
▁абасаа	-12.1569
▁хохи	-12.157
хаасу	-12.1572
расса	-12.1572
▁саараж	-12.1573
▁бхуумибхаа	-12.1576
▁вижигижчааяа	-12.1576
хаммагаммас	-12.1576
ависая	-12.1578
угзна	-12.158
▁мажжуно	-12.1592
хийл	-12.1598
▁бхааванам	-12.16
▁бавзн	-12.1602
▁барисо	-12.1604
▁аяя	-12.1609
▁гаалага	-12.1616
▁яуваа	-12.1624
аахз	-12.1625
▁маараб	-12.1628
ааримаани	-12.1628
▁асамбхава	-12.163
осампасса	-12.1635
аарагасса	-12.1637
▁вибажжа	-12.1638
▁бадигхаа	-12.1639
▁мили	-12.1642
▁оруяха	-12.1646
зви	-12.1646
▁асаж	-12.1648
▁кийра	-12.1654
агзнзва	-12.166
▁бзмам	-12.1664
улид	-12.1665
▁обамм	-12.1666
игун	-12.1668
▁мажч	-12.1671
▁бадигкзбо	-12.1673
каарад	-12.1675
зсаг	-12.1677
аббадисам	-12.1682
сугуул	-12.1684
аяаанам	-12.1684
ияамаанаа	-12.1688
▁навахи	-12.1689
сажжабарияосаанз	-12.1696
▁суггависсадтияа	-12.1696
варз	-12.17
▁убагаар	-12.1704
згасмим	-12.1709
агаарасса	-12.171
угзхи	-12.1711
иссаад	-12.1713
▁ниваар	-12.1714
ижчагам	-12.1715
ассзгаг	-12.1715
▁руубууба	-12.1721
аасаго	-12.173
имогкз	-12.173
взмз	-12.1734
жаавусо	-12.1739
агааяа	-12.1741
аамааважарагусал	-12.175
абон	-12.1752
▁свз	-12.1752
сзва	-12.1753
▁миссаг	-12.1753
▁бхууриб	-12.1753
ийхий	-12.1755
▁лобхаа	-12.1758
▁аасзва	-12.1758
▁вассан	-12.176
каами	-12.176
▁ниваа	-12.1761
▁раммз	-12.1763
рабхусса	-12.1764
агк	-12.177
▁убаасагам	-12.177
авираа	-12.177
▁згарад	-12.1771
ивасса	-12.1772
▁аважа	-12.1775
уубабаа	-12.1778
ласун	-12.178
▁суужи	-12.1784
▁суви	-12.1785
иннаг	-12.1786
рахмажарияасса	-12.1787
мук	-12.1789
хивад	-12.179
▁аруубааважарам	-12.179
кзяяа	-12.1792
▁бараг	-12.1792
▁бараа	-12.1793
▁барияосаанз	-12.1797
▁абхаавам	-12.18
аанаанам	-12.18
асабхааваа	-12.18
рахмажарияан	-12.1805
аасаб	-12.1806
зхад	-12.1814
▁рохан	-12.1814
▁бхуури	-12.1815
асаалаа	-12.1816
▁нижжаа	-12.1819
▁бхаарам	-12.182
▁ниму	-12.182
иссаамаа	-12.1822
▁намассан	-12.1823
абадилаабхо	-12.1825
аавийса	-12.1828
▁убхиннамби	-12.1831
▁гаммаваажааяа	-12.1835
арабажжаяо	-12.1849
▁винассан	-12.1852
▁имаасам	-12.1853
аварам	-12.1854
аанусан	-12.1855
ийнав	-12.1855
▁арияабу	-12.1855
асийлам	-12.1856
уггадаанам	-12.1857
аббахаанзна	-12.1859
ийсо	-12.186
▁могко	-12.1865
▁анигки	-12.1865
хзси	-12.1866
идтисан	-12.1869
▁вудтаанасса	-12.187
асаара	-12.1871
▁сагааяа	-12.1872
хиважана	-12.1873
угга	-12.1874
ило	-12.188
▁взтз	-12.188
▁агусалад	-12.1881
исахассаани	-12.1884
▁хаабз	-12.1885
аваран	-12.1885
▁арагки	-12.1886
▁убажаяо	-12.1887
▁авас	-12.1894
▁бадибагка	-12.1895
▁сири	-12.1901
▁галахам	-12.1903
змаасам	-12.1905
▁аруубасан	-12.1907
▁вигкамбхи	-12.1909
агумаар	-12.191
▁пудтасса	-12.191
▁суббадиви	-12.1911
аахагад	-12.1915
идтасу	-12.1915
ааязна	-12.1919
▁нигкам	-12.192
▁суко	-12.1926
▁лахуд	-12.1933
▁баабасса	-12.1938
▁бхависсаамий	-12.1938
важанасса	-12.1942
хзяяум	-12.1944
▁бажжанийгаб	-12.1944
▁сааяи	-12.1947
анагааран	-12.1947
▁гаромий	-12.1947
▁аяамааяасмаа	-12.195
вараа	-12.195
амахаама	-12.1952
▁бхавзяяаа	-12.1953
звзна	-12.1954
▁огаас	-12.1954
ваавийса	-12.1956
гасин	-12.1959
▁бадилаабхо	-12.196
▁асаммоха	-12.196
авивзг	-12.1963
агаараг	-12.1966
хаммавасзна	-12.1967
абхааванааяа	-12.1971
▁аггос	-12.1971
годтаас	-12.1971
▁винаасам	-12.1976
каарасаман	-12.1976
хаараяа	-12.1985
ханид	-12.1986
ваараад	-12.1992
▁наарияо	-12.1995
▁авиббаваас	-12.1997
уун	-12.1997
▁аажарияам	-12.1997
▁бажжанубхо	-12.1998
▁155.	-12.2
▁161.	-12.2
▁баалз	-12.2005
анувад	-12.2006
▁абхая	-12.2009
иязхи	-12.2011
гусалаа	-12.2011
▁убадтааго	-12.2013
▁вагкаами	-12.2014
аяиссаама	-12.2015
рахмажарияаваасо	-12.2018
хаммавижаяо	-12.202
агаммз	-12.2029
агким	-12.2033
бари	-12.2033
▁рааси	-12.2036
▁145.	-12.2041
рахм	-12.2042
хибхуу	-12.2042
▁бараамаасо	-12.2045
удтуллам	-12.2046
▁вигкамбхз	-12.2046
агаамо	-12.2047
зхаси	-12.2048
▁мужжан	-12.2048
габбам	-12.205
▁взран	-12.2052
▁самбаяо	-12.2052
▁нано	-12.2053
яаабаар	-12.2054
амуулагам	-12.2057
▁бхаасиссаамий	-12.2059
▁157.	-12.206
▁151.	-12.206
▁госияа	-12.2063
▁бийтам	-12.2064
▁иха	-12.2064
▁ломам	-12.2066
хаавиж	-12.2066
жхаалу	-12.2067
варасам	-12.2068
▁нааран	-12.2076
аругаа	-12.2078
▁чзго	-12.2084
▁ижжзвамаа	-12.2089
▁сажжад	-12.209
убабаж	-12.2093
▁босз	-12.2095
жасуу	-12.2099
убзгкаасаха	-12.2102
▁гаарааби	-12.2105
▁яагк	-12.2109
аяаами	-12.2111
▁яааяам	-12.2116
агзби	-12.2117
▁убарим	-12.2117
▁аббижчаа	-12.212
аруубан	-12.212
▁154.	-12.212
хаммаб	-12.2122
▁саавагз	-12.2124
ажчисса	-12.2131
аалаанам	-12.2133
▁бхавзяяу	-12.2134
▁варад	-12.2137
▁агусалавибааг	-12.2141
▁важанз	-12.2142
▁нихад	-12.2142
гус	-12.2146
асийсзна	-12.2148
▁каяад	-12.2151
аананад	-12.2155
ахул	-12.2157
хибарааяан	-12.2158
аанувад	-12.2161
▁гарз	-12.2161
▁баабаго	-12.2162
▁бзгкамаано	-12.2163
▁165.	-12.2163
▁ахим	-12.2167
яаахам	-12.2168
имха	-12.2168
саами	-12.2169
▁маана	-12.2169
▁мин	-12.217
▁махааваг	-12.2174
▁руубзсу	-12.2174
сзнзва	-12.2174
хуум	-12.2176
▁агго	-12.2177
▁уббаннан	-12.2178
▁153.	-12.2181
▁лимба	-12.2183
▁годтаасо	-12.2185
▁басаннамаанасо	-12.2186
▁обхаасо	-12.2187
абадибаадияаа	-12.2187
зраваа	-12.2188
▁убаггама	-12.219
бабхз	-12.2196
аманасса	-12.2196
▁сум	-12.2202
анибпа	-12.2206
рагат	-12.2208
хаяад	-12.2209
▁лаамаг	-12.222
зсуязва	-12.2224
▁ваддам	-12.2226
▁сияан	-12.2226
▁ужжааса	-12.223
анубарива	-12.2232
ибажжая	-12.2233
анаабан	-12.2234
▁ажч	-12.2234
иссарз	-12.2237
▁нобараамаас	-12.2239
▁наана	-12.224
▁махаагассабо	-12.2241
яаабаннаж	-12.2241
▁158.	-12.2242
▁убахад	-12.2244
▁маасо	-12.2248
бхигкуу	-12.2251
зяяасса	-12.2253
авинижчаяо	-12.2255
▁абарибу	-12.2255
▁ниваас	-12.2256
маяи	-12.226
жаваг	-12.2265
ваасам	-12.2266
аругко	-12.2266
▁манора	-12.2267
ааяугам	-12.2268
рахмаано	-12.2271
агова	-12.2271
хаммав	-12.2271
▁сакаа	-12.2271
ажчаамий	-12.2273
асасахасса	-12.2274
яаануломам	-12.2276
савид	-12.2284
звагасса	-12.2285
бхин	-12.2287
▁вихаарад	-12.2289
ивасзнзва	-12.2291
▁наануб	-12.2293
хийрам	-12.2295
идтиб	-12.2297
▁аяяо	-12.2297
▁ваасанаабхаа	-12.2298
ийр	-12.2299
▁сур	-12.2301
▁баригкаяам	-12.2302
▁162.	-12.2303
саммаасам	-12.2307
ияяа	-12.231
звамануссаа	-12.231
▁мукан	-12.2312
ажийвар	-12.2314
хидтааяа	-12.2315
▁гаараяи	-12.2316
химужжа	-12.2316
аабанаа	-12.2316
▁воробз	-12.2319
ужчияам	-12.2323
▁вивзг	-12.2324
ужчиж	-12.2325
ахамби	-12.2326
▁сиссо	-12.2327
▁жала	-12.2329
ийяи	-12.2338
▁зваруубасса	-12.2341
аажин	-12.2345
▁габбзси	-12.2348
кязяя	-12.2351
▁пасса	-12.2352
▁вибаллаас	-12.2354
абажжанийяам	-12.2354
алаванд	-12.2356
звасан	-12.2357
зрид	-12.2357
ивиж	-12.236
▁нара	-12.2361
зяяааси	-12.2362
абхаавабадилаабх	-12.2364
▁167.	-12.2365
▁159.	-12.2365
▁ла	-12.2368
▁нижжа	-12.2372
амаяаа	-12.2372
ийваад	-12.2374
аамаж	-12.2374
таанз	-12.2375
хамаалаа	-12.2376
▁виссадт	-12.2378
▁васим	-12.2379
аарахасса	-12.2382
▁бурис	-12.2383
▁агин	-12.2383
осин	-12.2385
▁ниссааран	-12.2387
▁гзвала	-12.2389
бхиж	-12.239
▁аббзва	-12.2392
▁абзгки	-12.2399
▁чав	-12.2399
агоби	-12.2399
уваг	-12.2399
амааху	-12.2403
ибаамо	-12.2403
аанааяа	-12.2404
хиний	-12.2405
▁баадихаарияам	-12.2405
▁ануббаннаан	-12.2409
гилзсад	-12.2409
сол	-12.2411
арасан	-12.2412
аммасаара	-12.2414
▁гаараг	-12.2415
▁суурияз	-12.2421
каавид	-12.2425
▁раммам	-12.2427
▁173.	-12.2427
▁аахин	-12.2428
самма	-12.2434
ирзга	-12.2435
▁анаарамбх	-12.244
▁сар	-12.2444
▁ажчараа	-12.2445
аалий	-12.2446
наамагз	-12.2448
▁маногаммам	-12.2451
ассим	-12.2454
хаббад	-12.2458
асубха	-12.246
▁палаг	-12.2461
ваяа	-12.2461
абийтам	-12.2462
идтаг	-12.2463
агаалзби	-12.2464
аласан	-12.2468
аабаннасса	-12.2469
▁бхааванааб	-12.247
▁вааяаман	-12.247
▁жаахам	-12.2471
абубп	-12.2471
▁саасаво	-12.2474
▁аманусс	-12.2475
▁салл	-12.2478
асамбхава	-12.2482
хааяаби	-12.2483
▁абхааса	-12.2483
хамаано	-12.2484
▁агка	-12.2485
аруу	-12.2487
▁самаж	-12.2487
▁кая	-12.2488
ваяан	-12.2488
▁174.	-12.249
▁176.	-12.249
▁181.	-12.249
арааяаа	-12.249
ияамзва	-12.2491
▁багаасзси	-12.2493
аижжз	-12.2494
абхуумияам	-12.2496
▁абалогз	-12.2496
▁удтаха	-12.2497
▁вусса	-12.2498
▁бадинивад	-12.2499
▁ижча	-12.2501
иннан	-12.2502
исаб	-12.2509
▁госало	-12.251
бамаан	-12.251
бхаарам	-12.251
уллабхаа	-12.2513
▁махаабаж	-12.2516
идтибба	-12.2519
▁аахара	-12.252
саяз	-12.2521
▁вивзгани	-12.2522
▁убхохи	-12.2522
▁абхисамаяо	-12.2528
▁жарияаа	-12.2529
▁гзвадда	-12.2531
▁бажжуббаннаа	-12.2537
‘‘	-12.2538
арийг	-12.2541
▁ассоси	-12.2542
алобхасаха	-12.2544
▁асасса	-12.2544
▁сарийрасса	-12.2544
▁палзна	-12.2547
▁152.	-12.2553
▁бажчимасса	-12.2556
▁вимужжи	-12.2561
▁анавагаасо	-12.2562
саар	-12.2564
харзяяа	-12.2565
уггуж	-12.2566
▁гааяасуж	-12.2568
▁саавага	-12.2569
▁аасаад	-12.257
палам	-12.2571
анийяан	-12.2574
▁ажарим	-12.2575
жийварам	-12.258
▁сажчигирияааяа	-12.2581
▁навибаагабажжая	-12.2583
имасуурияаа	-12.2583
амаабаж	-12.2585
▁чамбхи	-12.2589
▁саммукаавинаяо	-12.259
анавид	-12.259
ивисзс	-12.2592
идтааси	-12.2593
асми	-12.2595
▁абаая	-12.2597
▁бааран	-12.2599
▁мануссзхи	-12.2601
▁баралогз	-12.2604
▁хасан	-12.2608
аббаг	-12.261
▁винааби	-12.2612
вису	-12.2612
▁винаас	-12.2614
абарижжа	-12.2615
▁абхинивис	-12.2616
▁бажжаахара	-12.2617
▁арияааяа	-12.2618
▁аасин	-12.2619
▁сажчигарисса	-12.262
▁вияаагааси	-12.2621
▁виггин	-12.2624
▁аббасаннаан	-12.2624
анагаа	-12.2624
идтивасзна	-12.2625
илид	-12.2625
▁ниссаяа	-12.2626
▁бхинно	-12.2627
▁згзгасса	-12.2631
▁барасан	-12.2632
▁вохаарам	-12.2634
▁аажарияа	-12.2637
▁анааваран	-12.2638
барияудти	-12.264
▁гара	-12.264
▁абарияаабаннаа	-12.2642
аабана	-12.2642
сааг	-12.2649
абаасаан	-12.2654
сзяяам	-12.2656
руубз	-12.266
▁бассаси	-12.2661
убхаав	-12.2661
амил	-12.2663
▁бужчааяа	-12.2663
▁гумбх	-12.2664
асаавигаа	-12.2665
▁аарожи	-12.2665
ибаал	-12.2666
гарод	-12.2669
▁сзсаанам	-12.2669
▁батамамзва	-12.2673
абхаязна	-12.2673
абаарис	-12.2673
▁убамааяа	-12.2675
варааяа	-12.2679
▁гариссаамаа	-12.2679
▁аабхи	-12.2682
▁нзсаа	-12.2686
аасанз	-12.269
▁наанааг	-12.2692
▁згабу	-12.2694
▁жагкусампасса	-12.2694
▁гааяаважий	-12.2699
исаязна	-12.27
▁ааяусан	-12.27
осаг	-12.2703
ваараб	-12.2705
▁анаабужч	-12.2709
бажжубадтаанам	-12.271
идтасса	-12.271
▁самманна	-12.271
▁абаригки	-12.2717
саха	-12.2717
▁згзг	-12.2717
▁салаагаг	-12.2718
ананад	-12.2718
▁субинам	-12.272
гирияа	-12.272
зваманусс	-12.2723
▁абарин	-12.2728
хаанусса	-12.2728
аабар	-12.2733
▁аббз	-12.2735
▁ава	-12.2738
▁саббадигхам	-12.2739
▁муним	-12.274
▁абария	-12.274
▁бажжавзгкамаано	-12.2741
▁нивз	-12.2742
▁169.	-12.2744
▁178.	-12.2744
▁179.	-12.2744
▁164.	-12.2744
бурисо	-12.2744
жхаанасса	-12.2744
бариг	-12.2747
▁баггами	-12.2747
рахмажарияа	-12.2748
хасо	-12.2754
асахассзхи	-12.2755
▁жарисса	-12.276
арамаг	-12.2766
▁взхаасам	-12.277
▁лаабхаа	-12.277
▁кали	-12.277
▁бавив	-12.2771
асаха	-12.2773
ануруубам	-12.2773
зсанаабарияосаан	-12.2775
▁каяз	-12.2776
аруубара	-12.2776
хзяяаа	-12.2777
ассаахам	-12.2781
идтаанусая	-12.2782
ийваго	-12.2783
гаало	-12.2784
▁гаанижи	-12.2787
аббий	-12.2793
▁нийяа	-12.2794
▁хаси	-12.2794
▁галан	-12.2795
▁яоб	-12.28
сарааж	-12.2801
▁жарам	-12.2802
▁бхааван	-12.2805
▁абхинивзсо	-12.2806
▁аалогасан	-12.2806
▁махаабажжарияам	-12.2806
▁сугарам	-12.2807
▁166.	-12.2808
▁172.	-12.2808
▁168.	-12.2808
▁мат	-12.281
кя	-12.2813
ваяамааха	-12.2815
▁аамис	-12.2816
хураа	-12.2819
абассий	-12.2819
▁гуса	-12.282
мижчаа	-12.2825
▁саггаая	-12.2827
▁нааруубааважар	-12.2827
▁висзсаад	-12.2829
▁нимуж	-12.283
сзхи	-12.2831
жахаагаарзхи	-12.2831
▁бавидтам	-12.2836
ахуважанам	-12.2836
▁бураа	-12.2837
▁ваасад	-12.2837
амаанзна	-12.2837
агусал	-12.284
абурис	-12.2842
▁ниссаяам	-12.2844
▁баяирубааси	-12.2845
ужжа	-12.2846
▁рав	-12.2847
▁бхая	-12.2847
уссийл	-12.2851
▁бияаруубам	-12.2852
ажийварад	-12.2858
▁махаавихаара	-12.2858
ибхаав	-12.2861
▁сувад	-12.2862
аахигааяа	-12.2865
▁бадигкзб	-12.2866
уубз	-12.2866
▁гусаламуул	-12.2868
гхаан	-12.287
▁барибуурагаарий	-12.2871
▁взнзяяа	-12.2872
▁сабхаавзна	-12.2872
▁яаажим	-12.2875
▁саббадигх	-12.2876
асаал	-12.2878
ибарияа	-12.288
абхисан	-12.2882
ассисса	-12.2884
ибхаава	-12.2886
барибхо	-12.2887
аббажжаяо	-12.2889
исзяяаа	-12.2889
анаяам	-12.2893
▁амбхо	-12.2895
▁самбанна	-12.2897
бхависса	-12.29
аахааро	-12.2904
аниго	-12.2904
аахираг	-12.2905
▁буримо	-12.2915
▁авасзс	-12.2916
▁агаалз	-12.2923
жагз	-12.293
асаран	-12.2932
▁бажжанийяам	-12.2932
▁баббод	-12.2933
▁яува	-12.2933
▁муулаг	-12.2934
▁манорамаа	-12.2934
▁мажчам	-12.2934
амбхийраа	-12.2938
▁163.	-12.2939
▁175.	-12.2939
▁огаасад	-12.2947
▁бажжзсса	-12.2947
кал	-12.2949
аяааг	-12.2953
ибадисан	-12.2953
▁ав	-12.2955
▁жагкус	-12.2955
▁зт	-12.2958
▁аруубааважараан	-12.296
▁усси	-12.296
▁бхаязна	-12.2963
▁висаака	-12.2966
абзси	-12.2968
▁згаважан	-12.2968
▁нийхаран	-12.2968
▁саггажжа	-12.2969
ахзсум	-12.297
гасмаа	-12.2976
бхавам	-12.2981
▁бурима	-12.2982
▁собхи	-12.2986
▁идтаанидт	-12.2988
абажчимажи	-12.3
харууб	-12.3001
▁184.	-12.3004
▁171.	-12.3005
▁сиймааяа	-12.3006
▁сзсаг	-12.3007
▁ассамз	-12.3008
▁вимогкаа	-12.3008
▁аганидта	-12.3009
авихи	-12.301
▁мужчи	-12.301
▁марисса	-12.3011
▁бхаавад	-12.3011
▁аамисам	-12.3014
▁аасавзхи	-12.3015
▁ужжаар	-12.3023
▁барихийн	-12.3026
гирияаа	-12.3026
сагаа	-12.3028
рахмаб	-12.3031
ийрас	-12.3037
агусалад	-12.3038
▁нихи	-12.304
хагаал	-12.304
хяа	-12.3044
▁ниггу	-12.3044
▁убаниб	-12.3046
хаарий	-12.3046
асуурия	-12.3049
▁огхам	-12.3051
▁баяирубааса	-12.3054
чаад	-12.3056
▁аарагкам	-12.3064
▁валаахаг	-12.3064
вирад	-12.3066
▁авасзса	-12.3066
иязсу	-12.3069
▁барияона	-12.307
ухад	-12.3073
▁мо	-12.3074
игамби	-12.3074
▁батамаб	-12.3075
уубамам	-12.3075
аабхинивзс	-12.3076
жагку	-12.308
ааяарз	-12.3084
абарисаа	-12.309
▁ружияаа	-12.3091
арахаа	-12.3094
▁гзсаг	-12.3096
▁авиру	-12.3098
▁наамаруубасса	-12.3099
уусан	-12.31
▁нияам	-12.3102
▁вааяам	-12.3102
рияаад	-12.3108
▁жхаанзна	-12.3108
абхаяад	-12.3109
▁анижжа	-12.3111
гхаадим	-12.3111
▁гажжаана	-12.3112
ияаава	-12.3114
абажжа	-12.3114
▁багаарзхи	-12.3116
алаваг	-12.3118
аавахам	-12.3123
оманассубааяаас	-12.3124
арасу	-12.3127
ааруд	-12.3129
бхаараа	-12.313
▁гаммадтаана	-12.3134
▁жагкусса	-12.3136
авигабб	-12.3138
▁наббахо	-12.3138
▁нзгкаммам	-12.314
авзг	-12.314
арас	-12.3143
хаяз	-12.3147
▁сахаг	-12.3148
васад	-12.3148
▁вилогз	-12.3155
аабхаавам	-12.3157
аажарияаа	-12.3158
усуд	-12.3166
амог	-12.3166
▁убаасага	-12.3167
▁35	-12.3173
▁ниббарияааяа	-12.3173
▁авиббадисаар	-12.3175
бариб	-12.3179
аамуд	-12.318
▁луб	-12.3182
▁варз	-12.3183
ибурис	-12.3183
аббажжаяад	-12.3184
ийвий	-12.3186
▁мижчааж	-12.3186
▁бажжагкам	-12.3187
габбз	-12.3189
агаарам	-12.3191
ханаам	-12.3192
уяха	-12.3195
ваара	-12.3197
▁важчаг	-12.3199
▁самбассамаано	-12.3202
▁моха	-12.3205
▁ассаса	-12.3205
яуух	-12.3208
▁баабами	-12.3212
жхаанаани	-12.3212
ийвино	-12.3212
▁виббасаннзна	-12.3213
хаабажжаяаа	-12.3214
▁радтз	-12.3217
▁бадибагк	-12.3221
инаг	-12.3229
▁баггамим	-12.3232
ахугаа	-12.3233
▁уун	-12.3235
хигаарад	-12.3237
абажчим	-12.3238
гамман	-12.3238
▁гариссаама	-12.3238
хуб	-12.3239
▁исса	-12.3242
▁сукин	-12.3244
игижч	-12.3248
▁наабаж	-12.3258
▁жаалз	-12.3258
▁сзсз	-12.3259
▁аяог	-12.3262
змз	-12.3264
▁ассаман	-12.3264
жханад	-12.3266
▁гаамааважаро	-12.3267
▁рассам	-12.3267
▁гусалзхи	-12.3267
▁рубба	-12.3268
▁маасаа	-12.3269
▁бунаббуна	-12.3272
▁183.	-12.3272
▁бажжуббаннз	-12.3273
манусс	-12.3276
▁сааро	-12.3278
▁ааяо	-12.3278
идтино	-12.3282
▁вудтахан	-12.3283
▁бхавабажжаяаа	-12.3284
▁мзсо	-12.3286
угзсу	-12.3286
ияавад	-12.3293
хира	-12.3293
▁33	-12.3296
▁гароси	-12.33
аравасзна	-12.3301
▁ваяам	-12.3302
▁наанаасав	-12.3302
▁абажжам	-12.3304
▁аббассу	-12.3305
▁бхигка	-12.3306
▁бааж	-12.3312
ияасам	-12.3314
рууба	-12.3314
▁адтаарасахи	-12.3315
маваг	-12.3323
ийбаг	-12.3323
жхааязна	-12.3326
▁абараж	-12.3327
арияад	-12.3329
зяяаани	-12.3333
сийл	-12.3334
▁васийбхаав	-12.3336
ахадто	-12.3338
▁177.	-12.334
▁191.	-12.334
аараяхо	-12.3341
▁хийнааяа	-12.3341
▁убажаарам	-12.3342
зла	-12.3343
▁бхигкаа	-12.3346
▁махаавуд	-12.3349
санз	-12.3351
иссаннам	-12.3353
равий	-12.3353
вибарин	-12.3354
▁мзгхо	-12.3355
▁уссаабз	-12.3355
▁взлааяам	-12.3355
аваажо	-12.3356
асиймаа	-12.3365
ваяасса	-12.3367
ийгха	-12.3371
уммано	-12.3371
▁язсан	-12.3373
▁бхаяа	-12.3373
звалог	-12.3373
▁баабаани	-12.3374
▁самуухо	-12.3375
▁убабаннаа	-12.3376
▁бажжаяабх	-12.3376
сагат	-12.3376
▁важийви	-12.3381
зсаанам	-12.3381
▁сукино	-12.3386
ийваг	-12.3388
▁гааж	-12.3391
алиб	-12.3392
гарад	-12.3394
▁самудтаабзс	-12.3396
▁мох	-12.3401
абхуумим	-12.3401
▁хари	-12.3404
▁1-6	-12.3405
▁ниранусаяаа	-12.3406
бхагк	-12.3406
▁уббалаван	-12.3411
▁аасзви	-12.3412
▁махзсий	-12.3413
▁ломаа	-12.3417
▁гобз	-12.3417
▁барияааяаважан	-12.3417
▁сабхигкугаа	-12.3418
▁сунагка	-12.3421
▁вийро	-12.3422
▁я	-12.3424
▁аваб	-12.3425
▁маяан	-12.3428
авихааро	-12.3428
асабхаавам	-12.3429
▁умма	-12.3429
▁буримаани	-12.3431
таанаа	-12.3431
обан	-12.3431
▁руубаарууб	-12.3434
балиб	-12.344
бхуумияам	-12.3444
▁хали	-12.3445
асамаа	-12.3446
адтаан	-12.3447
▁асзгко	-12.3447
16.	-12.3448
иси	-12.3452
ажааригам	-12.3453
▁вассасахассаани	-12.3455
инаязна	-12.3456
▁радтаа	-12.3459
▁важо	-12.3461
аахаго	-12.3462
аахагаа	-12.3463
▁важанамаб	-12.3466
гусалам	-12.3468
▁бхавасса	-12.3471
▁згасан	-12.3472
хаммамби	-12.3472
хидтаанаа	-12.3473
уггз	-12.3474
арааби	-12.3474
▁бадисаар	-12.3475
▁ануломиг	-12.3475
аарамбха	-12.3476
▁гагусан	-12.3477
▁186.	-12.3477
▁193.	-12.3477
▁наанаббагаар	-12.3478
илз	-12.3479
▁абарад	-12.3481
▁наанаасам	-12.3487
убажжая	-12.3489
анома	-12.349
▁хаса	-12.3492
▁робз	-12.3496
звамануссааяа	-12.3499
амуулагаа	-12.35
исс	-12.3502
гахаабан	-12.3509
исова	-12.3509
15.	-12.3512
идтигам	-12.3515
▁гухин	-12.3517
абаасам	-12.3524
уусаго	-12.3527
14.	-12.3528
▁сийхасса	-12.353
▁бажжаяа	-12.353
▁махаанубхаава	-12.3531
▁бадив	-12.3534
агаваг	-12.3534
▁убааяо	-12.3539
аасасса	-12.3542
▁яааж	-12.3543
▁нигкибан	-12.3545
▁182.	-12.3547
▁абхиб	-12.355
хаммассаванам	-12.3552
жхаасаяад	-12.3553
▁абхинивзс	-12.3554
▁буримаж	-12.3555
▁саакам	-12.3555
ивхам	-12.3555
▁руббан	-12.3555
▁бадилом	-12.3556
▁аакяаа	-12.3556
▁логаг	-12.3557
▁авира	-12.356
араава	-12.3564
▁лаабхасаггаарас	-12.3571
▁багга	-12.3571
аасуби	-12.3576
араха	-12.3576
анзби	-12.3577
▁сувибха	-12.3577
▁пулл	-12.358
асмий	-12.3582
▁абааязсу	-12.3582
улаяи	-12.3583
▁кара	-12.3594
агаарагаа	-12.3596
умижча	-12.3597
гижжа	-12.3598
ийя	-12.36
бхигкаво	-12.3602
ибуг	-12.361
▁баариж	-12.3611
▁бассасиссаамий	-12.3614
▁субубпи	-12.3615
▁синзх	-12.3616
▁важасаа	-12.3616
▁185.	-12.3617
амука	-12.3617
▁абхиггама	-12.3618
жхосаан	-12.3621
уллажжаяа	-12.3621
▁ижчаами	-12.3622
▁симхи	-12.3622
хаами	-12.3629
амукам	-12.3632
▁аббадиб	-12.3633
▁бурим	-12.3633
абадиман	-12.3636
▁сажчигирияаа	-12.364
▁висидт	-12.3641
▁гважий	-12.3641
▁сикий	-12.3642
анийя	-12.3649
аабаран	-12.3651
соби	-12.3654
▁самийбам	-12.3655
▁висаал	-12.3655
▁мажчо	-12.3655
▁барааяан	-12.3656
абарис	-12.3656
▁абхинийхаар	-12.3663
аахир	-12.3666
хигаараа	-12.3666
имогко	-12.3669
ассаами	-12.3669
хибхааванаа	-12.3669
аажарияа	-12.3669
урааса	-12.3671
ажун	-12.3673
аасааяа	-12.3674
бхигкавз	-12.3675
▁лобхам	-12.3677
▁маарисаа	-12.3677
▁ругкамуулам	-12.3682
▁нзсохамасми	-12.3685
▁бажчима	-12.3685
▁аббадихад	-12.3686
▁наанаарад	-12.3686
▁189.	-12.3687
абадигг	-12.3688
▁жийварасса	-12.3692
▁вижари	-12.3694
анаанаяо	-12.3695
авиная	-12.3698
ачан	-12.3699
▁вираман	-12.3699
▁гаммаваажа	-12.37
ниссаг	-12.37
▁асзк	-12.3701
▁бадисаамз	-12.3702
смим	-12.3702
▁вару	-12.3705
▁авасаанз	-12.3705
ахуусу	-12.3707
▁жхаанаанам	-12.3707
▁габбан	-12.3708
.2.	-12.3709
.3.	-12.371
вас	-12.3715
▁ариязна	-12.3715
звасзгканаасзгко	-12.3716
хидтааси	-12.3718
гханагам	-12.3718
21.	-12.3719
▁аарагк	-12.3719
угамзва	-12.3726
▁маносампасс	-12.3729
сахасса	-12.3732
▁вудтаанаг	-12.3733
▁никан	-12.3734
хаажари	-12.3735
▁батамава	-12.3739
ираж	-12.374
збхуумага	-12.3743
уммад	-12.3744
хагад	-12.3746
ийнаг	-12.3746
▁бариваарз	-12.375
▁пзн	-12.3751
хадтзна	-12.3751
▁наяз	-12.3754
оманасс	-12.3758
▁196.	-12.3758
▁бхаяаанаг	-12.376
ираб	-12.376
▁асс	-12.3761
жхааяи	-12.3762
▁гаммасс	-12.3762
▁хзса	-12.3762
▁ахора	-12.3765
вараж	-12.3765
хаабзси	-12.3766
▁анаавад	-12.3766
▁самаанз	-12.3769
18.	-12.377
▁суурияа	-12.3772
▁жагга	-12.3775
иссасса	-12.3775
▁савижаарам	-12.3777
▁сууб	-12.3777
▁ануруубам	-12.3778
▁аалая	-12.3779
▁сагхаанагаана	-12.3781
ийгханигаая	-12.3783
▁буримзна	-12.3784
асасахассий	-12.3786
▁сухад	-12.3787
абарияа	-12.3788
аваяав	-12.3789
исваава	-12.379
▁нзгкамм	-12.379
аарагзна	-12.3791
▁авиниба	-12.38
▁гол	-12.38
анурууб	-12.38
▁аахаарасамудтаа	-12.3801
ийязхи	-12.3801
▁баралогам	-12.3802
арадтз	-12.3803
асахасси	-12.3805
▁саббурисаа	-12.3805
▁36	-12.3806
▁бияаруубаа	-12.3806
▁саяанам	-12.3808
алиго	-12.3809
бана	-12.381
▁аббадижчанн	-12.3815
хибо	-12.3815
асиган	-12.3815
рагк	-12.382
жуул	-12.3822
аббагаараа	-12.3824
муулагаа	-12.3825
амуко	-12.3825
▁абариггаман	-12.3828
▁215.	-12.3829
исаяам	-12.3829
▁195.	-12.383
▁аарамбх	-12.383
▁магкз	-12.3832
▁анидт	-12.3832
▁таанасо	-12.3834
аагаар	-12.3835
каяз	-12.3837
▁ааяаажан	-12.3837
идтигаа	-12.3839
угужчи	-12.3841
ахасса	-12.3841
ийяаани	-12.3841
▁вийрия	-12.3842
ахаво	-12.3843
▁сийс	-12.3843
▁бавивзг	-12.3844
маха	-12.3846
▁нараасабхо	-12.3856
▁сахааяо	-12.3858
амануссаа	-12.3862
▁сабхигкуго	-12.3865
▁гос	-12.3866
▁согаа	-12.3866
▁роби	-12.3867
▁ахиригам	-12.3868
▁сарийран	-12.387
▁убаний	-12.3875
▁гарома	-12.3876
амогк	-12.3876
▁нибаго	-12.3878
▁паг	-12.3881
обамаа	-12.3884
▁вуубасам	-12.3885
исзсзна	-12.3888
ассааяам	-12.389
алаббад	-12.3894
▁баваро	-12.3896
ижийварам	-12.3897
махам	-12.3897
жимаани	-12.3898
▁аавзн	-12.39
▁ижчаси	-12.3901
▁187.	-12.3902
▁192.	-12.3902
хаммарагки	-12.3902
▁асажчига	-12.3904
▁усса	-12.3904
▁ануббаж	-12.3906
▁яамхи	-12.3907
▁анвад	-12.3907
аваасино	-12.3908
яааж	-12.391
агкаа	-12.391
гхосо	-12.391
▁вихарисса	-12.3912
асзнаа	-12.3912
убаниссаяа	-12.3913
хасздтасса	-12.3914
гилидта	-12.3915
▁сийласамаа	-12.3916
▁ависам	-12.3917
▁баваал	-12.3921
▁савин	-12.3922
сиб	-12.3924
васзнзва	-12.3925
▁махаали	-12.3926
асаама	-12.3928
агилзс	-12.3929
авихаарз	-12.3933
ависаяад	-12.3933
▁самаяаа	-12.3935
▁аамасан	-12.3937
▁пудт	-12.394
ула	-12.394
▁аббияо	-12.394
авинижчаяам	-12.394
зраад	-12.3942
▁баарамим	-12.3942
иссоби	-12.3943
зсзссаамий	-12.3946
сасан	-12.3948
▁анаамас	-12.3949
сзс	-12.3949
ааниссад	-12.395
.4.	-12.395
гаарад	-12.3951
убажч	-12.3953
абхаяаа	-12.3955
▁асаммад	-12.3956
висзс	-12.3959
жхаабанно	-12.396
ирзгам	-12.3961
здтаго	-12.3961
▁бурису	-12.3964
абалиб	-12.3967
▁абхибхава	-12.3967
17.	-12.3968
▁аббаваар	-12.3968
каарзхи	-12.3969
алибуд	-12.3971
▁ананун	-12.3972
▁лабхзяяа	-12.3972
абхаван	-12.3974
▁194.	-12.3974
▁197.	-12.3974
апаран	-12.3977
▁осса	-12.3981
усу	-12.3982
▁бхарияам	-12.3982
▁згаваарам	-12.3982
абарияосаанаа	-12.3982
▁бадиггаман	-12.3983
▁бадигхаса	-12.3983
▁навасу	-12.3984
хибагкияад	-12.3987
▁анабхин	-12.3987
▁махо	-12.399
суби	-12.3991
▁ужжз	-12.3993
идтабз	-12.3994
хаахам	-12.3997
▁убаггилзсо	-12.3999
хасийл	-12.3999
▁аббадиви	-12.4004
▁саарамбхам	-12.4005
▁34	-12.4006
авиб	-12.4009
▁гзн	-12.4013
▁багкибан	-12.4017
анаал	-12.4018
▁асамбхинн	-12.402
хийра	-12.4022
▁яассам	-12.4022
▁муула	-12.4024
▁сийлад	-12.4025
ияаабад	-12.4026
ижжам	-12.403
уубасан	-12.403
агижжад	-12.4032
бхаарад	-12.4033
алобзна	-12.4035
▁маяхан	-12.4037
▁набхам	-12.4039
ажчзяяаа	-12.4039
▁сура	-12.404
анаамад	-12.4041
зсаяи	-12.4043
19.	-12.4046
▁188.	-12.4047
▁аалогам	-12.4049
▁нарам	-12.405
асара	-12.405
▁раахуло	-12.4052
увин	-12.4052
аанзсу	-12.4052
хаммавз	-12.4053
▁рзн	-12.4058
зсзхи	-12.4059
▁салаагабха	-12.406
▁валли	-12.4061
▁агаасим	-12.4061
наамо	-12.4062
аавасаанз	-12.4063
▁анааваасо	-12.4064
асасад	-12.4066
▁гааяагамма	-12.4066
▁суманаа	-12.4066
▁саббааяа	-12.4066
аагааран	-12.4067
5-6.	-12.4067
жагкум	-12.4068
▁баарибуурим	-12.4069
▁убаниссаяо	-12.4069
▁асмий	-12.4069
▁бхуумид	-12.4071
▁чадтаа	-12.4071
▁вибп	-12.4074
бахаар	-12.4075
▁махаагар	-12.4075
▁гааяан	-12.4083
аагаммам	-12.4083
▁нийлам	-12.4084
хаммаса	-12.4087
▁самосаран	-12.4087
▁адтасад	-12.4087
сабхаавам	-12.409
хаммажарияаа	-12.4091
▁анзга	-12.4092
лог	-12.4092
▁абарааж	-12.4093
амисса	-12.4093
▁нийжа	-12.4098
▁висзсан	-12.4098
урааж	-12.4102
▁вааран	-12.4104
идтуба	-12.4105
ааяасса	-12.4106
▁суггам	-12.4107
иссаро	-12.4107
жабан	-12.411
▁асзсави	-12.411
ибадтаан	-12.4113
жиби	-12.4113
рахмам	-12.4114
ибун	-12.4114
▁авигкзб	-12.4115
▁сааяанхасамаяам	-12.4118
хигаанам	-12.4119
▁212.	-12.412
▁211.	-12.412
-‘	-12.4121
▁гуудам	-12.4123
▁анубассан	-12.4125
яаагарзяяа	-12.4132
саббад	-12.4135
▁гаамабхавз	-12.4142
▁муулабад	-12.4144
ааравад	-12.4147
▁бубпад	-12.4147
удтзна	-12.4148
бурим	-12.4151
ийвзна	-12.4153
гаммадтаан	-12.4154
аавираа	-12.4154
▁аяяа	-12.4157
руухз	-12.4158
хабхаав	-12.4159
▁бажжаяуббанн	-12.4163
авасад	-12.4163
▁ассз	-12.4167
огин	-12.4168
▁басаяха	-12.4171
аабас	-12.4179
▁малл	-12.4179
▁пассасса	-12.4183
▁снзх	-12.4184
хиран	-12.4186
▁сууро	-12.4186
амукз	-12.4187
таанаани	-12.419
авассам	-12.4195
игкабан	-12.4196
алун	-12.4197
игко	-12.4198
▁вибассана	-12.4202
▁гилзсам	-12.4203
▁наамасса	-12.4203
вияа	-12.4204
зсзяяа	-12.4204
▁вибасси	-12.4205
ваараг	-12.4207
▁баабагз	-12.4216
▁асаара	-12.4216
▁аажаараг	-12.4219
▁саамигам	-12.4219
авиро	-12.4222
наамааяа	-12.4228
игааяо	-12.4232
агарам	-12.4235
ууси	-12.4235
▁сожан	-12.4237
уяхан	-12.4242
▁агкан	-12.4244
▁бхинна	-12.4247
▁бхиннам	-12.4248
авзси	-12.4248
жхаанан	-12.4249
▁абхисамая	-12.4254
аббахаан	-12.4256
агун	-12.4256
▁саммукийбх	-12.4262
вийсад	-12.4266
асасахассилога	-12.4267
▁228.	-12.4268
▁213.	-12.4268
убаари	-12.4269
алаабх	-12.427
удтим	-12.4271
уубани	-12.4272
▁руубааважараж	-12.4275
▁вийрияаарамбх	-12.4276
▁наабхи	-12.4277
убасам	-12.4277
▁обхаас	-12.428
▁аая	-12.4284
▁гусум	-12.4286
▁согам	-12.429
▁анусаасаний	-12.429
ануссад	-12.4291
зсавасзна	-12.4292
ваасийнам	-12.4292
▁аннам	-12.4295
ассанадтзна	-12.4297
▁аарубб	-12.4299
▁гилзсагаам	-12.4299
31.	-12.43
▁ругка	-12.4301
амаана	-12.4301
▁убасамбаннасса	-12.4303
▁нияамо	-12.4306
хияан	-12.4307
халог	-12.431
▁гхааяи	-12.4311
▁гаммаа	-12.4312
сат	-12.4314
угаад	-12.4315
барин	-12.4315
▁парусам	-12.4315
▁паасувихааро	-12.4316
аануггам	-12.4318
уубамо	-12.4321
авзс	-12.4325
▁сабхаавам	-12.4325
аважанад	-12.4327
аабаннаад	-12.4328
бурз	-12.4328
агилзса	-12.4328
▁сунак	-12.4333
▁исиг	-12.4334
▁гилзсаб	-12.4338
▁яуу	-12.4339
▁санни	-12.4339
уссийлаа	-12.434
▁ассосум	-12.4342
агкаяо	-12.4342
▁вигад	-12.4344
▁216.	-12.4344
▁бадибаннасса	-12.4344
▁198.	-12.4345
амзваа	-12.4345
▁звамаяам	-12.4346
▁магк	-12.4346
агуудам	-12.4348
▁вилаб	-12.4352
абарияаабанна	-12.4353
абагад	-12.4355
▁гижжад	-12.4358
авинижчая	-12.4365
свз	-12.4366
▁лун	-12.4372
жхаасаязна	-12.4374
жхаанад	-12.4379
хаанасса	-12.4379
▁аасаж	-12.4381
▁аасанн	-12.4381
амаанасаа	-12.4383
▁лагки	-12.4386
▁лобх	-12.4386
▁лахугам	-12.4387
сука	-12.4387
агижжаа	-12.4389
абхзса	-12.4393
бадинисса	-12.4395
пасс	-12.44
алиг	-12.4401
ияуд	-12.441
аманагаалз	-12.4413
▁лижчавий	-12.4413
▁жаару	-12.4416
авзр	-12.4418
угкавибааг	-12.4418
▁анубассанаа	-12.4418
аахарад	-12.4419
▁219.	-12.4419
▁237.	-12.4419
звагам	-12.4422
▁саммаан	-12.4423
▁бхияяосо	-12.4424
▁логасми	-12.4427
▁сас	-12.4427
идтини	-12.4428
▁усабх	-12.443
▁гирияад	-12.4434
▁бараамаси	-12.4434
уусуби	-12.4434
▁асаббаая	-12.4435
агаараа	-12.4435
ханагг	-12.4437
▁буримаг	-12.4439
▁субхо	-12.4441
арааяигаа	-12.4441
▁х	-12.4446
гумааро	-12.4446
гумбх	-12.4446
аранимм	-12.4448
▁логзна	-12.4449
▁мануссам	-12.4449
▁барави	-12.4451
аггасавижаарасс	-12.4452
абасаа	-12.4452
▁анавасзсам	-12.4455
згаа	-12.4455
абаарамий	-12.4458
апаласамаа	-12.4458
аамасз	-12.4459
анасо	-12.4459
▁зсанаа	-12.4462
зсаад	-12.4462
хагкая	-12.4463
▁ссаа	-12.4463
саяан	-12.4463
▁абхинис	-12.4466
▁аабхаа	-12.4467
▁манусси	-12.4468
▁яамага	-12.4468
химужжан	-12.447
лаабх	-12.4473
змад	-12.4473
▁бхзрав	-12.4477
руухан	-12.4479
▁згагова	-12.4479
бажжаяаа	-12.4482
хаахий	-12.4484
▁сиссаа	-12.4487
▁сукумад	-12.4487
рзна	-12.4488
▁самбадижча	-12.449
аамаад	-12.4495
▁243.	-12.4495
▁234.	-12.4496
▁важанасса	-12.4496
▁222.	-12.4496
▁199.	-12.4497
▁гзл	-12.4497
сугуулам	-12.4498
▁суггависсадтим	-12.45
сиго	-12.45
▁сива	-12.45
ааязяяа	-12.4503
ууло	-12.4504
▁жураа	-12.4504
▁анавасс	-12.4505
хаабад	-12.4506
▁абариг	-12.4509
анияаамам	-12.4509
хумад	-12.451
▁ажчарияо	-12.4511
▁саама	-12.4511
убхаяамби	-12.4512
ааваасо	-12.4513
▁махабпалаа	-12.4518
▁гумаарасса	-12.4521
ачад	-12.4521
ужчо	-12.4524
амбисса	-12.4524
убари	-12.4525
▁гаамааважара	-12.4526
илаанам	-12.4529
важчарз	-12.453
▁абарид	-12.453
анасийло	-12.4532
хиро	-12.4535
хаараго	-12.4536
ивасзсу	-12.4536
иваавихаар	-12.4536
▁мас	-12.4538
яамаано	-12.454
уяам	-12.4541
самабби	-12.4541
идтивису	-12.4542
агка	-12.4543
▁жарим	-12.4543
▁нийжз	-12.4543
▁кум	-12.4544
агулаа	-12.4545
авасава	-12.4547
махад	-12.4548
▁самабби	-12.4551
▁сужим	-12.4555
▁вуубасамо	-12.4556
▁уббаннзсу	-12.4556
ибадтаанаад	-12.4556
барамад	-12.4557
▁висаакаа	-12.4559
▁сула	-12.456
▁галлам	-12.4564
аабхиж	-12.4565
▁ажираб	-12.4566
▁бидтим	-12.4567
иггамзна	-12.4567
аараанам	-12.4567
▁самбхавам	-12.457
гважи	-12.457
▁анураа	-12.4571
асукад	-12.4571
абариваасо	-12.4572
▁233.	-12.4573
▁232.	-12.4573
▁218.	-12.4573
▁231.	-12.4573
▁бараммукаа	-12.4579
▁бассзсу	-12.458
▁навама	-12.4582
▁луж	-12.4583
▁гаасааяаани	-12.4585
▁буримаса	-12.4586
▁гижжа	-12.4586
▁махаабурисасса	-12.4586
аяомз	-12.4588
угаран	-12.4589
▁лабхисса	-12.4589
асзно	-12.459
▁згажжаанам	-12.459
ияаган	-12.4594
аабанз	-12.4596
▁нхаару	-12.4597
зсва	-12.4603
амуулам	-12.4603
▁сусаанам	-12.4604
ниваас	-12.4607
▁бараамаас	-12.4608
▁уссад	-12.4608
▁гаамаасаво	-12.4608
хийно	-12.4613
▁лижчави	-12.4613
▁нийла	-12.4615
уггаа	-12.4616
▁бориса	-12.462
▁бх	-12.4624
агаммаани	-12.4625
убхаавам	-12.463
уса	-12.463
адтаанзязва	-12.4631
▁имамхаа	-12.4632
аарагк	-12.4634
абхавз	-12.4634
▁сув	-12.4637
рахма	-12.4637
авимогк	-12.4642
саал	-12.4645
уунан	-12.4646
авасан	-12.4646
каарабарин	-12.4646
▁багаара	-12.4647
ивино	-12.4647
аанусидт	-12.4647
▁235.	-12.465
▁221.	-12.465
▁баригкаарам	-12.4653
авасс	-12.4653
анигкзб	-12.4653
ибийл	-12.4654
исзсааяа	-12.4656
арияа	-12.4657
▁габб	-12.4659
ваасагаа	-12.466
▁ассо	-12.466
хаммигаанам	-12.4663
▁авахааро	-12.4663
кар	-12.4666
ийсуу	-12.4672
анаамзна	-12.4673
агилзсзхи	-12.4674
▁амажжо	-12.4675
▁вассигасаадига	-12.468
идтаанусаязна	-12.4681
▁баагадад	-12.4681
▁сзл	-12.4681
▁ниравасзс	-12.4682
▁махаллаго	-12.4683
▁самудтаанам	-12.4684
яаас	-12.4689
▁виббадисаар	-12.4689
хаммажагг	-12.469
ивасс	-12.4691
ириг	-12.4693
хир	-12.4693
вибан	-12.4694
▁гужчи	-12.4698
жийвара	-12.4699
ажаран	-12.4702
абарияааязна	-12.4704
рияабажжаяаа	-12.4706
аараях	-12.4707
▁нираяо	-12.4708
▁вигаар	-12.4712
ассаама	-12.4716
▁логия	-12.472
▁сигкз	-12.4721
▁тасса	-12.4726
ихаагаарзхи	-12.4727
агавасзна	-12.4727
асиг	-12.4728
▁226.	-12.4728
▁саали	-12.473
идтаанад	-12.473
▁сахам	-12.4731
▁маяа	-12.4734
авааяа	-12.4736
▁барамбара	-12.4736
▁бажчимад	-12.4736
ааруубз	-12.4737
асамийбз	-12.4737
▁барияосаабз	-12.4738
▁бадибужчи	-12.4743
баадиган	-12.4748
хуумо	-12.4756
▁вимал	-12.4756
ру	-12.4756
▁вижаарасса	-12.4758
▁бадибасса	-12.4758
виниб	-12.476
асамаас	-12.4762
исмаа	-12.4762
ивасаа	-12.4764
аасзна	-12.4764
▁огхад	-12.4765
▁аггами	-12.477
аругкаа	-12.4772
хавиная	-12.4773
бахийно	-12.4776
▁аалин	-12.4776
ияамаг	-12.4779
ависан	-12.4779
▁баннарас	-12.4782
▁ваггали	-12.4783
знаагаарзна	-12.4783
▁асун	-12.4784
▁виса	-12.4785
▁сийлавис	-12.4785
▁рахи	-12.479
▁кааяи	-12.4791
▁кийяан	-12.4794
анабарижч	-12.4799
▁вихзтз	-12.4799
▁габбия	-12.48
смий	-12.4805
▁самудтаан	-12.4806
▁236.	-12.4807
▁214.	-12.4807
▁ниммаан	-12.481
аяавасзна	-12.481
алогасса	-12.4811
▁ниббарияааязна	-12.4818
▁асаббурисо	-12.4818
авзсий	-12.4818
▁бзгка	-12.4819
▁вассаг	-12.482
▁субарису	-12.4821
ижчаа	-12.4821
▁бариваарзна	-12.4822
▁хаасаб	-12.4824
▁гараж	-12.4828
▁лобха	-12.4828
▁самбарааяиг	-12.4833
▁уссаахам	-12.4833
бужча	-12.4833
оманассаанам	-12.4836
арагхар	-12.4839
▁асзгкзна	-12.4844
▁баатасзсо	-12.4846
агижжо	-12.4848
▁баадалибу	-12.4848
урасса	-12.4849
агумаара	-12.485
аббасан	-12.485
ажаарий	-12.4856
▁бадисаллаанаа	-12.4857
▁имзсан	-12.4859
абаригаммам	-12.4861
▁бариваасо	-12.4862
аагаран	-12.4864
уунавийса	-12.4868
барияааяо	-12.4868
▁асзсам	-12.4869
бхааваббад	-12.487
апалз	-12.487
агаар	-12.4872
▁сагзна	-12.4876
лаб	-12.4878
абхаавасан	-12.4878
▁ийаа	-12.4879
ахаабз	-12.4883
▁бажжаязна	-12.4883
жхосааяа	-12.4885
22.	-12.4886
▁241.	-12.4886
▁абхинивисса	-12.4887
▁сулабх	-12.4888
▁нзраяиго	-12.4891
бхааваа	-12.4894
зсанийяа	-12.4896
саммаад	-12.4898
▁мууг	-12.4898
чадт	-12.49
▁барибагг	-12.49
▁паалз	-12.4901
▁вимаан	-12.4902
▁бхаяаани	-12.4902
обаалаг	-12.4902
хиваасзси	-12.4903
13.	-12.4903
уннамби	-12.4904
▁комхи	-12.4905
хаанабариваас	-12.4905
▁бхависсасий	-12.4906
огаасам	-12.4912
ла	-12.4916
хисийласигкаа	-12.4919
▁махааванз	-12.4919
анарасаа	-12.492
зяяаасий	-12.4922
36.	-12.4923
агабха	-12.4924
▁висзси	-12.4925
уггадааба	-12.4928
ийба	-12.4931
аанубассанаан	-12.4936
▁мажжо	-12.4937
▁махос	-12.4938
дхзн	-12.494
ваарзхи	-12.494
▁гхара	-12.4944
▁анижжо	-12.4944
висам	-12.4953
▁38	-12.4955
варасса	-12.4956
идтисам	-12.4958
амбхийран	-12.4958
ажааг	-12.496
▁баривасан	-12.4961
жаби	-12.4961
аамасан	-12.4962
▁нираяабаалаа	-12.4964
▁наамубадтааго	-12.4965
▁229.	-12.4966
▁238.	-12.4966
▁223.	-12.4966
▁баабагамм	-12.4968
уляаа	-12.4968
▁ружи	-12.4969
аниссаяа	-12.4974
▁кзман	-12.4975
▁32	-12.4976
асамбаж	-12.4976
рахмажариязна	-12.4977
аабасам	-12.4977
урияа	-12.4978
хаммасабхаав	-12.4979
руубий	-12.498
▁мор	-12.4989
угаро	-12.4989
▁сарзна	-12.4991
▁бхууваа	-12.4992
умзва	-12.4993
сахассаани	-12.4994
▁махин	-12.4998
▁ажирав	-12.4998
уубагара	-12.4998
▁вийриязна	-12.4999
хаарад	-12.5
аанаасий	-12.5003
аабаго	-12.5004
▁ругкамуул	-12.5006
садти	-12.5006
▁саггаро	-12.5008
▁ажжуг	-12.5009
▁хийнад	-12.5009
▁абхиг	-12.5011
анияасса	-12.5019
жхзна	-12.5019
ияамаанам	-12.5023
▁гирияааяа	-12.5024
уллабх	-12.5025
осмий	-12.5026
▁ануломз	-12.5027
▁вассуубанааяиг	-12.5027
▁гаария	-12.5032
жхогаасз	-12.5033
▁наанаава	-12.5033
гилидтам	-12.5034
▁гула	-12.5035
нууна	-12.5036
▁вужжамаанаа	-12.5039
▁субх	-12.5041
▁уяяаанз	-12.5041
зхибу	-12.5043
убхааваа	-12.5044
авибхааванаа	-12.5044
▁вассууба	-12.5045
▁бадисзви	-12.5046
▁224.	-12.5047
▁227.	-12.5047
▁217.	-12.5047
▁радтавад	-12.5051
▁бхзрим	-12.5052
▁иссараа	-12.5053
унаана	-12.5054
жхааб	-12.5056
▁вибаж	-12.5056
▁убзгкам	-12.5056
аанийяо	-12.5057
▁бхарияааяа	-12.5059
▁баарамий	-12.5061
▁убаасагасса	-12.5062
злзна	-12.5063
асигад	-12.5064
ааравам	-12.5065
барибхаави	-12.5065
▁ологзси	-12.5066
▁руубааруубабхав	-12.5068
хув	-12.5068
▁идтам	-12.5072
ажчо	-12.5073
ахуно	-12.5075
▁уббаннааяа	-12.5077
оман	-12.5077
жхаабз	-12.5078
руубаа	-12.508
абийл	-12.5081
▁сирим	-12.5084
▁бхааяан	-12.5087
▁гааяасампасса	-12.5088
зяяаама	-12.509
уубо	-12.509
▁абхир	-12.5093
▁37	-12.5094
▁агусалзна	-12.5094
▁1-1	-12.5097
зниваасан	-12.5097
▁махаасан	-12.5104
▁абхибхаван	-12.5105
авивзго	-12.5105
абарижчинн	-12.5108
▁гаарзсса	-12.5108
11.	-12.5108
аласу	-12.511
▁годтаас	-12.511
агумбх	-12.5111
▁ануя	-12.5111
▁сийлзхи	-12.5115
баал	-12.5115
жхаасаяаа	-12.5115
▁маара	-12.512
ийвига	-12.512
▁вижини	-12.512
▁парусаа	-12.5122
▁баанийяа	-12.5123
▁сожзяя	-12.5125
▁гаараабзси	-12.5125
асамудтаан	-12.5125
угкин	-12.5127
абамаан	-12.5128
▁аабан	-12.5128
▁245.	-12.5128
▁239.	-12.5128
▁225.	-12.5128
▁вибхаавинаа	-12.513
▁саллагкан	-12.5131
авигаар	-12.5133
игаван	-12.5134
▁барабу	-12.5134
идтааби	-12.5134
▁лога	-12.514
хисийла	-12.5141
▁абхисин	-12.5141
агаваад	-12.5142
▁бажжагкааяа	-12.5142
вийхааяа	-12.5145
▁гаромаа	-12.5146
вихи	-12.5149
▁бихая	-12.5149
▁буримзхи	-12.515
▁навагамм	-12.5152
илог	-12.5152
агаммадтаан	-12.5153
▁баяирубаасан	-12.5158
ааяагасса	-12.5159
▁анубасамбаннз	-12.5164
раани	-12.5165
▁маасам	-12.5166
▁рагкзяяа	-12.5169
▁бахийнз	-12.5169
▁аагаасаг	-12.5171
▁гуудад	-12.5175
аббараж	-12.5175
▁ажжуд	-12.5175
▁нзса	-12.5176
аббадибад	-12.5176
аарууба	-12.5176
вавад	-12.5176
ивиг	-12.5178
▁бавидта	-12.5178
▁маггадо	-12.5179
махааб	-12.5181
▁аббаб	-12.5182
асаннисс	-12.5182
91.	-12.5183
▁лзб	-12.5184
▁сова	-12.5186
▁кзмаа	-12.5186
аажария	-12.5186
уурияа	-12.5189
▁амох	-12.519
бхогаасз	-12.5196
▁убзгкааса	-12.5198
агрияаа	-12.5199
▁сабхаава	-12.52
збий	-12.52
▁каяааяа	-12.5201
аагаара	-12.5206
23.	-12.5209
игаммигааяаа	-12.5209
▁ассаг	-12.521
▁242.	-12.521
усаасанам	-12.5212
ува	-12.5213
гарун	-12.5214
▁гилзсаг	-12.5216
▁уммаа	-12.5222
▁гуггужж	-12.5223
▁саванам	-12.5225
ааган	-12.5225
авасзнаби	-12.523
▁виббадисаарий	-12.5235
сукад	-12.5236
▁сзко	-12.5239
хавийрия	-12.5241
обаг	-12.5241
упал	-12.5242
▁нижжо	-12.5245
хзнзва	-12.5247
бхаавагаран	-12.5248
идтивиба	-12.5248
хугаарам	-12.5248
▁бидти	-12.5251
▁самбанн	-12.5251
▁нибпанн	-12.5253
▁осаарз	-12.5254
умараха	-12.5254
▁самаяан	-12.5255
аанубхааваа	-12.5257
хиба	-12.5259
ияи	-12.5261
яасанзна	-12.5261
▁абарияо	-12.5261
▁бассзна	-12.5261
▁сабариггаман	-12.5263
вассасад	-12.5264
▁абхимукам	-12.5264
▁вахан	-12.527
8-9	-12.527
рахмалогаа	-12.5273
агабад	-12.5273
асалл	-12.5275
хаммабидагз	-12.5275
асамудтаанасса	-12.5277
▁нивзсанз	-12.5277
анадтаанз	-12.5279
аасияаа	-12.5279
хааваасам	-12.5281
аваарзсу	-12.5285
▁анужчавиг	-12.5285
агадтам	-12.5288
▁бужчисса	-12.5292
▁244.	-12.5293
▁сагаласарийрам	-12.5293
ависзсаа	-12.5293
▁сугк	-12.5293
аагаас	-12.5294
▁баригкаар	-12.5294
▁агкааси	-12.5294
анахзд	-12.5295
▁госалзсу	-12.5296
▁бадигууласа	-12.5298
▁аахарад	-12.5299
▁бадижжавааро	-12.5299
бх	-12.53
▁бумаа	-12.5303
арааяз	-12.5305
асзнаасанам	-12.5306
ахулийгааро	-12.5308
38.	-12.5312
▁аасаа	-12.5313
ибхав	-12.5314
уллабхам	-12.5315
▁бужчаама	-12.5316
▁годтаасаа	-12.5321
жчз	-12.5322
жхамаанам	-12.5323
алийб	-12.5324
▁анулом	-12.5324
▁абааяаг	-12.5327
▁гагуд	-12.5327
▁гумаараа	-12.5328
иссасий	-12.533
абхаавзнзва	-12.5333
имхаа	-12.5333
аасавам	-12.5335
▁сажжигадто	-12.5336
амаруубабажжаяаа	-12.5337
▁нируба	-12.5338
сс	-12.5339
97.	-12.5341
3-4.	-12.5343
хзса	-12.5344
▁махаараж	-12.5345
ивисая	-12.5346
▁вигуб	-12.5348
▁ийгаар	-12.5348
апалаа	-12.5351
аваасам	-12.5355
амиссаамаа	-12.5355
аваго	-12.5356
ависзсзна	-12.5357
хиббаая	-12.5358
гилзсам	-12.5359
▁анубхуу	-12.5359
▁саасав	-12.5361
ууна	-12.5361
ажанам	-12.5363
убасан	-12.5364
игаг	-12.5366
▁гумбха	-12.5366
рахмалогам	-12.5371
ибидага	-12.5372
▁ниббад	-12.5374
▁квасса	-12.5374
▁246.	-12.5376
▁вагкаама	-12.5376
уссийласса	-12.5376
зсанаан	-12.5377
ирз	-12.5378
▁бадиваса	-12.5383
▁уссаха	-12.5383
▁бажжаяабари	-12.5383
махаабурис	-12.5384
▁махаагажжаано	-12.5385
▁аббадигаммз	-12.5386
▁бзл	-12.5387
▁саббадигхо	-12.5388
▁гусаламуулам	-12.5389
рахмажаарийсу	-12.5397
гуро	-12.5398
▁взссаван	-12.5399
алигк	-12.54
▁гаамааважарад	-12.5401
алавам	-12.5409
▁нибанн	-12.541
▁бадигкибан	-12.541
жхоси	-12.5411
26.	-12.5413
▁руубаса	-12.5416
каан	-12.5416
▁бубпан	-12.5419
асираа	-12.5422
хаабзяяа	-12.5423
▁сумад	-12.5426
ажол	-12.5428
бхияам	-12.543
оманасса	-12.5431
▁абажж	-12.5432
▁бхис	-12.5434
▁иссария	-12.5434
асабхаа	-12.5437
▁убасамбаннам	-12.5439
язсам	-12.544
игкам	-12.544
▁гаасаавам	-12.5441
▁сзнаасанаг	-12.5443
аваарид	-12.5445
▁пз	-12.5445
▁суггаа	-12.5449
▁барив	-12.5452
бхаяаа	-12.5452
▁бавагкаами	-12.5453
37.	-12.5455
▁магко	-12.5457
▁соманассад	-12.5457
ижжзвамаа	-12.5457
▁нигаамалаабхий	-12.5458
идтаси	-12.5458
илаанаббажжаяаб	-12.5459
бариж	-12.5459
▁265.	-12.546
▁аманасигаараа	-12.5462
▁убажжаг	-12.5462
аваасий	-12.5463
▁гарзяяаа	-12.5463
▁сздтаа	-12.5465
▁обхаасан	-12.5466
амиссаси	-12.5467
▁аагаараа	-12.5467
сигаа	-12.5468
▁рин	-12.5469
▁саббо	-12.547
иво	-12.5476
ируубагзна	-12.5478
абажжуббаннам	-12.548
▁саамигз	-12.5483
сажжа	-12.5485
▁вижаяо	-12.5485
жхимасса	-12.5489
▁ааяан	-12.5491
42.	-12.5492
аггаанам	-12.5493
▁ганидто	-12.5494
аавали	-12.5496
▁гаммаб	-12.5498
▁кибан	-12.5498
баригкзб	-12.5499
амахаа	-12.5504
▁руубараа	-12.5506
▁барияаабаннаа	-12.5507
аалагам	-12.5507
ссаа	-12.5512
27.	-12.5514
ийбасса	-12.5515
▁гиламан	-12.5516
зхасс	-12.5516
▁вихааяа	-12.5519
▁сзхи	-12.552
аманасигаар	-12.5521
иражчаанаяони	-12.5523
▁анабзгко	-12.5523
▁анижжан	-12.5523
сааран	-12.5524
авихаарам	-12.5525
32.	-12.5528
▁анужчавигам	-12.5528
▁сахааяаа	-12.5531
▁барабад	-12.5531
▁нидтаабз	-12.5532
аавийнам	-12.5534
аважанасса	-12.5537
аасамбад	-12.5537
▁аажааравиба	-12.5544
асахасс	-12.5544
исзхи	-12.5551
▁анияяааниг	-12.5551
бадисаран	-12.5553
▁гзвалагабба	-12.5553
▁убзжжа	-12.5555
хагааро	-12.5556
виру	-12.5558
маанаа	-12.5559
муулааяабадигасс	-12.5561
уннан	-12.5563
вихаарз	-12.5564
аяагк	-12.5564
мун	-12.5568
▁нирууба	-12.5569
▁висаяам	-12.557
▁баарубан	-12.557
авибарияааязна	-12.5571
▁абхима	-12.5575
▁асуго	-12.5576
▁агамман	-12.5578
хигаарз	-12.5581
▁алобхаа	-12.5584
аабино	-12.5586
ирзгаа	-12.5588
▁висаан	-12.5589
▁ружим	-12.5591
убабад	-12.5592
яуж	-12.5592
▁бхаванам	-12.5597
ибадтаана	-12.5598
аабуб	-12.5599
угкал	-12.5601
▁уссанн	-12.5602
рахмажарияаваас	-12.5603
сал	-12.5605
аязяяа	-12.5607
▁барзсан	-12.5607
▁гаммавибааго	-12.5608
39.	-12.5609
▁гусалаагусала	-12.5609
яамби	-12.5609
ирзг	-12.561
абаригкаар	-12.561
аавасзс	-12.561
▁бажжанийгам	-12.5612
багк	-12.5612
бадижчаа	-12.5612
агкий	-12.5613
удтияаа	-12.5616
▁42	-12.5616
▁убаггам	-12.5618
агалааб	-12.5619
▁гилзсавиббая	-12.5621
▁аббахийн	-12.5622
абараамаасо	-12.5622
▁хадта	-12.5626
▁ужжаарабассаав	-12.5628
▁саамигасса	-12.563
▁бавуд	-12.563
▁маллабу	-12.5634
▁аббадибу	-12.5635
▁пали	-12.5636
ибагк	-12.5636
▁висаяа	-12.5636
аасаха	-12.5639
▁бажчимо	-12.5639
▁сугга	-12.564
▁гаммавибаагзна	-12.564
▁гасаав	-12.564
▁галин	-12.5641
абадижча	-12.5646
▁адтимз	-12.5648
ома	-12.565
▁бараабхава	-12.5651
▁басанна	-12.5652
аяамзва	-12.5652
▁бариваасам	-12.5652
▁ваагяа	-12.5653
▁вибаллаасо	-12.5655
гилидт	-12.5657
▁наанааб	-12.5658
урод	-12.566
▁ануббанно	-12.5662
▁барибхааса	-12.5664
▁богкараса	-12.5665
▁анин	-12.5667
▁сахасзяя	-12.5668
мби	-12.5673
жхамаанаа	-12.5674
95.	-12.5674
сагго	-12.5676
▁гааго	-12.5676
▁агирияа	-12.568
28.	-12.5687
жирам	-12.5689
агодияаа	-12.569
▁бхуумад	-12.5691
▁уссаах	-12.5694
▁39	-12.5694
▁нияяааниг	-12.5695
ияаваарз	-12.5698
абадилаабх	-12.5698
анабан	-12.5703
усаасана	-12.5705
▁сахааяаг	-12.5705
▁гадтам	-12.5706
угкасан	-12.5709
аважанз	-12.571
асинзх	-12.571
▁нижч	-12.571
▁бхара	-12.5713
▁самаяа	-12.5713
угкаанам	-12.5714
аббагаасан	-12.5715
▁габбияаагаббия	-12.5716
▁аниг	-12.5719
▁згу	-12.5719
ависаяам	-12.5719
агааний	-12.5719
▁яасасаа	-12.5719
рабхун	-12.572
25.	-12.5723
унид	-12.5724
яаанам	-12.5724
идтийнам	-12.5724
▁лобам	-12.5727
амбхийр	-12.5728
сийла	-12.5728
▁вижигижчад	-12.5729
▁оггаман	-12.573
удтад	-12.5731
▁бияа	-12.5731
▁сзло	-12.5733
▁яув	-12.5733
▁нару	-12.5733
▁нигкиба	-12.5734
▁лзкаа	-12.5736
▁41	-12.574
жхаанагкан	-12.5741
▁маанз	-12.5743
гусал	-12.5743
аруб	-12.5743
батама	-12.5745
игабадтаан	-12.5746
ирааг	-12.5749
▁лаабхаг	-12.5752
▁аббамзяяо	-12.5753
ууний	-12.5756
▁маарад	-12.5759
аараамо	-12.5763
саагаар	-12.5765
▁асужим	-12.5766
.5.	-12.5767
▁убажч	-12.5772
▁руубасмим	-12.5774
▁асубхан	-12.5776
уруубаани	-12.5779
▁сукасан	-12.578
баадихаарияам	-12.578
▁багаасан	-12.5781
аббахийно	-12.5783
▁бависа	-12.5784
▁баарами	-12.5786
аарум	-12.5787
▁лагк	-12.5787
аахага	-12.5787
яабба	-12.5789
абадибаад	-12.5789
агижж	-12.579
▁абхав	-12.5793
▁вудтаан	-12.5794
зваасигаа	-12.5796
аваасиний	-12.5799
33.	-12.5799
▁саммукаавиная	-12.5802
▁ассасиссаамий	-12.5802
▁256.	-12.5803
▁264.	-12.5803
▁263.	-12.5803
▁251.	-12.5803
▁262.	-12.5803
▁247.	-12.5803
ажагкум	-12.5805
анулом	-12.5805
▁ваасид	-12.5807
▁важжагуди	-12.581
▁махаанид	-12.5811
▁могха	-12.5815
овил	-12.5819
исукзна	-12.5819
▁ааяум	-12.582
▁нижжасан	-12.5821
ассааязва	-12.5822
▁бхависсаама	-12.5829
гусало	-12.583
гаарзхи	-12.5834
▁аалабан	-12.5835
▁аасаяо	-12.5835
▁бахара	-12.5838
▁виван	-12.5839
аббагааро	-12.5841
▁аагааран	-12.5845
▁мажчар	-12.5846
аабаяз	-12.5848
52.	-12.5851
хаммаана	-12.5851
исааро	-12.5851
агижжаани	-12.5852
▁гусалаагусалаа	-12.5853
сийсам	-12.5855
ахадтаа	-12.5855
ийса	-12.5856
▁нарасса	-12.5856
абаг	-12.5857
аважч	-12.5858
аанаваж	-12.5858
аамахам	-12.5859
ийхан	-12.5862
зваахам	-12.5864
▁синзру	-12.5866
абавад	-12.5866
▁саллам	-12.5868
45.	-12.587
жана	-12.5873
▁гилидт	-12.5874
смаа	-12.5877
98.	-12.5879
▁махаабун	-12.588
воссаг	-12.5881
▁бужчзяяа	-12.5884
▁жамм	-12.5884
авасий	-12.5885
▁ария	-12.5887
83.	-12.5888
▁баривааса	-12.5891
▁258.	-12.5891
▁269.	-12.5891
▁252.	-12.5891
удтуллаа	-12.5892
▁барамби	-12.5894
арзсуби	-12.5895
хану	-12.5897
▁бадигуул	-12.5897
жхаасаяавасзна	-12.59
96.	-12.5901
нисинн	-12.5902
ивасамби	-12.5903
▁вимаанз	-12.5903
▁намасса	-12.5903
бхаж	-12.5904
мхий	-12.5904
хажжагуггужжам	-12.5905
▁вия	-12.5907
хаммааби	-12.5908
жхаанасан	-12.5911
▁нияяаанигаа	-12.5913
▁сажжзсу	-12.5914
▁гхараа	-12.5917
самудтаанаа	-12.5917
амууг	-12.5919
▁наамарууб	-12.5921
иссааяа	-12.5923
анаанан	-12.5924
▁субба	-12.5924
▁бхуса	-12.5927
▁49	-12.5927
▁нигкзбо	-12.5927
аабзгко	-12.593
▁мохзна	-12.593
▁миж	-12.5931
▁киба	-12.5931
▁аббагаа	-12.5932
▁вибан	-12.5933
▁бажжуббанно	-12.5933
▁лаа	-12.5937
ваарасса	-12.5939
хураг	-12.594
12.	-12.5944
▁жзса	-12.5944
▁сигкаабз	-12.5947
▁уссаахо	-12.5949
имогка	-12.595
43.	-12.595
▁саруубам	-12.595
▁бассас	-12.5951
▁габбаас	-12.5956
самаано	-12.5958
сук	-12.5959
▁аасий	-12.5961
▁габбаа	-12.5961
убакаж	-12.5963
ваараани	-12.5963
▁бхигкубхаав	-12.5965
56.	-12.5965
таанзна	-12.5966
▁батамасан	-12.5972
▁орас	-12.5974
▁сусигки	-12.5978
▁253.	-12.598
▁249.	-12.598
▁248.	-12.598
▁сува	-12.598
илобо	-12.5982
хинид	-12.5982
ийбанияам	-12.5984
48.	-12.5984
анивад	-12.5985
асааваго	-12.5985
▁ора	-12.5986
▁згзга	-12.5989
▁наасагким	-12.5989
ахадтзна	-12.599
▁руубааважаро	-12.5991
хаммажаггабба	-12.5992
▁галал	-12.5992
оманассаа	-12.5993
▁вуубагадто	-12.5994
авасз	-12.5995
аббагаар	-12.5996
▁самасамаа	-12.5996
24.	-12.6
34.	-12.6001
ахуг	-12.6001
аабхаавз	-12.6005
сарийр	-12.6005
ижжзвам	-12.6007
▁суурияам	-12.6007
ийраяи	-12.6007
▁абба	-12.6011
харийяа	-12.6012
▁маарзна	-12.6017
хунан	-12.6018
7-8.	-12.602
аавар	-12.6022
каарига	-12.6022
аажиби	-12.6023
99.	-12.6024
▁баримужжа	-12.6025
абзяяа	-12.6032
▁ваараа	-12.6035
сасад	-12.6035
аалийс	-12.6035
▁барибхав	-12.6035
▁саббааяам	-12.6036
35.	-12.6037
▁бахийн	-12.6039
аананадтзна	-12.604
ааригад	-12.6041
▁ур	-12.6042
▁сахзва	-12.6045
▁гумаарз	-12.6047
▁авасава	-12.6048
▁сусс	-12.605
идтамаано	-12.6052
аанияан	-12.6053
рахмалог	-12.6053
самби	-12.6057
хааваасз	-12.6057
▁гхарад	-12.6058
▁вигкзб	-12.6058
▁лабхим	-12.6061
баривад	-12.6065
удтаг	-12.6065
▁агасиралаабхий	-12.6067
▁255.	-12.6069
▁261.	-12.6069
▁аавига	-12.6069
▁исийнам	-12.607
▁гаммабажжаяаа	-12.6071
амижча	-12.6071
звасигам	-12.6073
аббадибагк	-12.6073
▁гаараяз	-12.6074
▁яасмин	-12.6074
▁логахи	-12.6074
жхаанзна	-12.6076
убаая	-12.6076
аяхамаано	-12.6076
▁навин	-12.6077
иниб	-12.608
▁ниваасо	-12.608
▁мзгхияа	-12.608
асс	-12.6081
абажжая	-12.6081
асаммаа	-12.6082
▁анижчан	-12.6084
абатамам	-12.6085
▁наамасмаа	-12.6085
ахисиймаг	-12.6086
аасамби	-12.6086
▁авиниб	-12.609
ваасаа	-12.6091
хаабхи	-12.6098
хиббааяасса	-12.6098
ависаяо	-12.6103
82.	-12.6105
амаасий	-12.6106
▁габби	-12.6106
▁винаяасан	-12.6106
▁гирасса	-12.6106
▁баабаа	-12.6108
наамаго	-12.611
аанусая	-12.6111
▁аарохан	-12.6112
▁зварууб	-12.6117
▁бариссаяаа	-12.6117
▁бадибагко	-12.6117
ааваб	-12.6118
▁бажжуббаннасса	-12.6118
алава	-12.6118
89.	-12.612
▁барабариг	-12.6122
.2	-12.6122
абажжаяааби	-12.6123
▁гзжий	-12.6125
▁нийхара	-12.6127
▁яасзна	-12.6127
▁вохари	-12.6128
жхааяаа	-12.613
харас	-12.613
знааху	-12.6132
аахира	-12.6132
самбхавад	-12.6135
▁гууда	-12.6137
хабаб	-12.6138
сиг	-12.614
хаммаавад	-12.6147
▁габба	-12.6147
бадиб	-12.6148
жхаанавасзна	-12.6149
▁убаруж	-12.6149
46.	-12.615
гхаадиба	-12.6153
▁взс	-12.6155
▁арияасааваг	-12.6155
▁агижчалаабхий	-12.6157
анаван	-12.6159
ибхаавз	-12.6159
71.	-12.6159
▁267.	-12.6159
92.	-12.616
▁убаггилзсаа	-12.6163
ханаамо	-12.6163
хуунам	-12.6164
хаавасзна	-12.6166
▁сздта	-12.6168
▁убажчин	-12.6169
47.	-12.6169
▁субари	-12.617
абаллан	-12.6171
▁аламарияа	-12.6173
хисийлз	-12.6173
исаяо	-12.618
▁наббама	-12.6181
асийлаа	-12.6187
▁згзнзва	-12.6188
▁баабигаа	-12.619
▁бассаавам	-12.6194
ивасаани	-12.6195
▁жорзхи	-12.6197
▁баадиязгго	-12.6198
амааруяха	-12.6198
хаабхибхуу	-12.6202
▁манобад	-12.6206
исзсз	-12.6207
анигааяз	-12.6209
▁сояам	-12.6211
▁убагабба	-12.6211
▁аммаа	-12.6213
53.	-12.6216
араавад	-12.6217
▁гисаа	-12.6219
▁47	-12.6221
габбаад	-12.6221
хаммзсуу	-12.6221
▁ниссз	-12.6225
асасахасс	-12.6228
41.	-12.6229
49.	-12.623
анаяз	-12.6231
▁ажалам	-12.6235
ааяино	-12.6239
аабхз	-12.624
▁саманубасс	-12.624
аалая	-12.6243
▁варан	-12.6249
▁суббава	-12.6249
▁273.	-12.625
хзну	-12.625
ахзва	-12.6251
81.	-12.6251
▁яаса	-12.6253
▁балааяа	-12.6255
хабхааво	-12.6257
▁суяяа	-12.6257
▁адтийни	-12.6257
▁субхуу	-12.6259
▁саммохам	-12.6259
▁госалара	-12.6259
▁бхуумияо	-12.626
абхиси	-12.6261
▁бхиси	-12.6261
▁зсохамасми	-12.6262
▁аббанам	-12.6263
▁вассаанам	-12.6264
62.	-12.6265
▁авасзсо	-12.6267
ависаяаа	-12.6267
68.	-12.6269
▁аасавз	-12.6271
▁гусалаагусалам	-12.6272
асибб	-12.6272
▁абхаавз	-12.6273
▁бассамбха	-12.6273
▁жирара	-12.6274
64.	-12.628
▁аанубхааво	-12.6282
анаббамаан	-12.6284
амбхаа	-12.6286
хаммассавана	-12.6287
идтийсу	-12.629
▁аасийвис	-12.6291
▁бури	-12.6292
▁ажжаяа	-12.6295
29.	-12.6298
▁гижжаани	-12.6298
▁адтаасий	-12.6298
▁сукаавах	-12.6299
сас	-12.6301
▁аруубаж	-12.6302
гамий	-12.6302
▁баатз	-12.6303
ааравзна	-12.6303
▁лобхад	-12.6304
убасамба	-12.6306
▁абхаав	-12.6306
▁мари	-12.6308
▁сисса	-12.6309
амаанзби	-12.6309
саяад	-12.631
барияаая	-12.631
▁намз	-12.6311
▁лийн	-12.6311
▁вибажжан	-12.6316
хурз	-12.6318
▁аббааб	-12.6318
▁абарааб	-12.6319
▁саадагам	-12.6319
▁суул	-12.6321
амбхийрз	-12.6323
▁ужчиннамуулаа	-12.6323
▁гумма	-12.6324
рахаа	-12.6325
анадтаанам	-12.6331
▁аббадисам	-12.6332
▁згамзгам	-12.6334
махан	-12.6336
▁259.	-12.6341
▁257.	-12.6342
▁266.	-12.6342
▁сигкаабажжагкаа	-12.6342
умман	-12.6344
бхаяо	-12.6345
асахаж	-12.6345
▁гулавам	-12.6347
авиним	-12.6351
▁барибужча	-12.6353
аригааяа	-12.6353
▁згассзва	-12.6355
агилзсз	-12.6355
▁ааяуухан	-12.6355
адтаано	-12.6356
ассзс	-12.6359
вивад	-12.636
▁нижчая	-12.636
унна	-12.6362
ассаавино	-12.6363
аяаван	-12.6364
ус	-12.6366
▁жийвараанам	-12.6368
вассасахассаани	-12.6368
бажжанийяаанулом	-12.6369
▁46	-12.6369
аабхимуко	-12.6369
ариго	-12.6371
▁вибхааваяз	-12.6372
▁вассаан	-12.6375
ияааний	-12.6378
▁гусалаани	-12.6378
▁суураа	-12.6379
▁бисааж	-12.6379
61.	-12.6382
▁яав	-12.6382
▁наббас	-12.6383
анаамам	-12.6384
▁раахулам	-12.6387
▁бажчимзна	-12.6388
▁рави	-12.6391
▁мануссаж	-12.6395
авимаанава	-12.6395
▁убасамааяа	-12.6397
асабхаава	-12.6397
▁наанаббагаара	-12.6398
▁бхаар	-12.64
▁аббадигхо	-12.64
▁габил	-12.6403
▁бадиму	-12.6405
▁саннисинн	-12.6407
▁сага	-12.6408
алавасзна	-12.6412
▁убаваан	-12.6412
▁згажжаа	-12.6412
хаммабаал	-12.6413
▁жийварад	-12.6413
абогкарад	-12.6416
ийвибха	-12.642
▁самбаннам	-12.642
гааязна	-12.6421
идтисамбанно	-12.6421
▁амажжз	-12.6422
арааязна	-12.6422
агкзм	-12.6425
▁бхигкунубассая	-12.6427
▁огхаа	-12.6429
рияабаробарияа	-12.6432
▁абаж	-12.6433
аанугамбий	-12.6433
▁жирассзва	-12.6433
бурад	-12.6433
идтаанз	-12.6434
лобо	-12.6437
ириб	-12.6437
▁баралог	-12.6438
аабарияа	-12.6438
игусало	-12.644
▁аббижчо	-12.644
асахассаг	-12.644
▁паасувихаар	-12.6442
▁наббавад	-12.6444
▁арияапал	-12.6445
▁зваруубааяа	-12.6449
▁вижчин	-12.645
▁абарисзс	-12.6451
важанз	-12.6451
абаригкаарам	-12.6453
▁жорз	-12.6453
амуулзна	-12.6454
▁лаал	-12.6456
.11	-12.6458
44.	-12.6458
▁асаббуриса	-12.6458
аляам	-12.6459
▁бадигхам	-12.6459
хари	-12.646
▁бадиббассамбха	-12.6462
баяад	-12.6463
убадтаанам	-12.6464
анобад	-12.6466
▁вибхавам	-12.6466
▁саннидтаанам	-12.6466
▁гаммаббад	-12.6469
▁наасам	-12.647
▁аамо	-12.6471
▁банассаа	-12.6471
игаанан	-12.6471
авал	-12.6472
ахумби	-12.6472
87.	-12.6475
анияаамзна	-12.6476
▁обхаасзн	-12.6477
▁барижчинн	-12.6478
75.	-12.648
хавз	-12.6481
▁вужжамаанз	-12.6483
важанам	-12.6484
▁нараг	-12.6485
▁нияами	-12.6487
иймам	-12.6492
▁аахунзяяо	-12.6496
саяаа	-12.6496
руж	-12.6497
умхзби	-12.6497
ассабаабияасигаа	-12.6497
▁бадиггама	-12.6499
▁самаасан	-12.6499
арива	-12.6502
▁бариваарзн	-12.6502
иннаани	-12.6507
▁угкиба	-12.651
ивасасса	-12.6513
анаяаанусаарзна	-12.6514
▁абхаяам	-12.6517
▁намасси	-12.6518
▁хияяа	-12.6519
▁лааб	-12.652
▁логааяа	-12.652
ажчаамаа	-12.6521
▁гижж	-12.6525
агагуласамбхаво	-12.6526
жхубзгки	-12.6526
▁254.	-12.6528
▁нажхаанабажжая	-12.6528
▁271.	-12.6528
гзнажи	-12.6528
▁згуунабан	-12.6529
махаабхинигкаман	-12.6529
ависзсад	-12.6531
хаарзхи	-12.6532
иссз	-12.6532
асаж	-12.6533
ваараава	-12.6534
▁буримааяа	-12.6537
адтаанабхуу	-12.6538
▁буурая	-12.6542
▁авийжи	-12.6544
▁манасигаа	-12.6546
▁гхосо	-12.6547
▁барияудтаан	-12.6547
▁вохара	-12.6548
▁нийжам	-12.6549
жхзяяа	-12.655
ааманови	-12.655
сарам	-12.6551
▁ним	-12.6554
илаб	-12.6554
лобх	-12.6555
▁ааваха	-12.6555
▁угаар	-12.6556
игаава	-12.6557
арабхуу	-12.6558
хаммагамман	-12.6559
▁гусаламуулзна	-12.6563
▁бужчаавис	-12.6563
абубпам	-12.6564
79.	-12.6564
▁авиму	-12.6567
▁асубха	-12.657
▁аббия	-12.6572
осзхи	-12.6578
хаммабарияаая	-12.6578
73.	-12.6578
▁сукумо	-12.6581
асагун	-12.6582
▁гаммаваажаа	-12.6584
абхагко	-12.6586
аабанааяа	-12.6587
▁нияяа	-12.6589
ханадтзна	-12.6592
▁убба	-12.6592
▁чаг	-12.6594
онаг	-12.6595
аваагя	-12.6595
игкаа	-12.6598
агижжа	-12.6598
саггаа	-12.6598
▁нимм	-12.6599
язхи	-12.66
▁барихааро	-12.6603
инаама	-12.6604
▁адтама	-12.6607
▁самуух	-12.6608
зган	-12.6609
▁ануви	-12.661
▁сажжз	-12.6611
хараабз	-12.6612
▁висамз	-12.6618
▁руубияа	-12.6619
▁омаса	-12.662
▁яасассий	-12.6621
▁анубхава	-12.6621
▁276.	-12.6622
хивин	-12.6622
▁аманаабо	-12.6626
▁гааяаваажа	-12.6627
ожар	-12.6628
▁хияяо	-12.6628
▁хийн	-12.6628
▁мол	-12.6629
асаггаарасилого	-12.6629
бажжавзгкан	-12.6629
▁жали	-12.663
ависидт	-12.6633
кааравин	-12.6633
игасад	-12.6635
▁бхигкааяа	-12.6635
▁ажжаяам	-12.6635
69.	-12.6636
осзд	-12.6641
зрас	-12.6641
▁саббурисаан	-12.6643
хаама	-12.6643
ааваяав	-12.6644
▁самбарива	-12.6647
▁згавад	-12.665
хагааяо	-12.6651
иббажжая	-12.6651
махаг	-12.6652
угамб	-12.6652
ссзва	-12.6652
▁наваннам	-12.6653
хуваа	-12.6654
▁могхабурисаа	-12.6654
▁гааси	-12.6658
удту	-12.6658
яаж	-12.6659
игаал	-12.6661
▁маари	-12.6663
▁бадтаанам	-12.6664
аанубхаван	-12.6665
ийвасса	-12.6667
сзси	-12.6669
асукаа	-12.6673
идтаанусаяа	-12.6674
агкам	-12.6675
агараа	-12.6678
▁гуггужжааяан	-12.6678
▁орасо	-12.668
бхигк	-12.6681
агаалзязва	-12.6683
57.	-12.6686
▁рааху	-12.6686
наамарууб	-12.6691
▁амхи	-12.6691
▁вимужжан	-12.6692
▁авахаар	-12.6693
▁огха	-12.6695
аабхааванаа	-12.6696
ууро	-12.6696
ируубз	-12.6698
аалагкан	-12.6701
▁винаяа	-12.6705
▁бадижчаннаа	-12.6711
▁аажарияаб	-12.6715
▁гааяигаваажасиг	-12.6715
ивааро	-12.6716
▁274.	-12.6717
кязяяаани	-12.6718
имзсам	-12.6718
▁гуггур	-12.6719
▁самзжжа	-12.672
бурис	-12.672
▁аалоги	-12.6721
игабуд	-12.6721
хигаро	-12.6722
▁гаасиг	-12.6723
▁гариссаси	-12.6724
асига	-12.6724
▁габбадто	-12.6725
▁сва	-12.6725
сар	-12.6729
▁мамзва	-12.673
▁нийлаб	-12.6732
▁барихаар	-12.6733
▁багаарз	-12.6733
▁гижча	-12.6733
кий	-12.6733
аалаж	-12.6734
аахаабаг	-12.6735
▁сувз	-12.6736
▁жагкууни	-12.6737
нирая	-12.674
аабуд	-12.6743
ияабаад	-12.6745
▁саамо	-12.6746
▁уяяаан	-12.6746
▁ануун	-12.6747
инасаасанам	-12.6747
хамманим	-12.6748
3,	-12.6749
1,	-12.675
76.	-12.675
ирожа	-12.675
висзсо	-12.675
▁абхираман	-12.6752
▁багид	-12.6754
▁бхаваабхавз	-12.6754
▁махзси	-12.6757
ассуу	-12.6757
хаарзна	-12.6758
алогу	-12.6758
▁сахассаг	-12.6763
▁бадисаллаан	-12.6764
▁абассам	-12.6769
▁камо	-12.6769
авибассанам	-12.677
▁бажжзга	-12.677
▁жалан	-12.6771
нибпа	-12.6771
▁караа	-12.6771
згаад	-12.6773
хиваасана	-12.6777
▁саалаа	-12.6777
аанаббад	-12.678
чин	-12.6782
ияог	-12.6784
▁ваба	-12.6789
▁аманаабам	-12.679
▁арияасажжаан	-12.679
▁кур	-12.6792
▁баадихаария	-12.6792
ивинаяо	-12.6792
▁субинан	-12.6793
▁яаавагаалиг	-12.6794
▁муулабхуу	-12.6795
▁маанусз	-12.6795
▁могхабуриса	-12.6796
▁огааса	-12.6797
▁хийнз	-12.6799
аабхимукам	-12.6799
жарад	-12.6799
арубхаав	-12.68
уяяаанз	-12.68
аабхаа	-12.6802
аббадивз	-12.6804
▁сааяан	-12.6806
▁агааро	-12.6807
▁убагаарагад	-12.6808
▁важжамаг	-12.6811
▁гурумаано	-12.6811
анагасса	-12.6813
▁272.	-12.6813
▁ажчарияаа	-12.6814
▁масаараг	-12.6814
ааригасса	-12.6814
▁саггзсу	-12.6814
51.	-12.6816
васибба	-12.6817
▁буримабад	-12.6817
▁салаагам	-12.6818
▁арияасажжа	-12.682
агирия	-12.6821
ахуважан	-12.6821
▁барибхан	-12.6826
▁нияага	-12.6827
садтасамудтаана	-12.6828
▁уссуггаабз	-12.6829
▁вибассанааба	-12.6832
аасиго	-12.6835
▁вибаага	-12.6836
аггаавижаараа	-12.6839
▁нираб	-12.6839
▁сирияаа	-12.6839
88.	-12.6842
▁гумаара	-12.6845
хаарин	-12.6854
▁галаха	-12.6854
▁амхам	-12.6855
▁ний	-12.6858
бхигкуунам	-12.6858
знаахам	-12.6859
дхаяо	-12.686
▁взба	-12.6862
аруубасса	-12.6863
▁навибаага	-12.6865
рижча	-12.6866
саабз	-12.6869
94.	-12.6869
агаарид	-12.6871
гхигз	-12.6872
▁магкигаа	-12.6873
▁важийсуж	-12.6874
▁гумбхагаар	-12.6876
▁гаммабажжаяо	-12.6877
▁самужчиннаа	-12.6878
сир	-12.6882
рияааний	-12.6882
▁жараами	-12.6882
▁барим	-12.6883
▁махабпалад	-12.6886
авохааро	-12.6886
зяяаанам	-12.6887
54.	-12.6887
▁аасавагкая	-12.6889
ахавад	-12.689
▁маанасса	-12.6891
6,	-12.6891
▁лахуг	-12.6893
ийязсу	-12.6896
▁убанаахо	-12.6899
ваарагодтаг	-12.6902
яуу	-12.6903
▁вимогкааб	-12.6905
▁аасанзна	-12.6906
▁сааяанхасамаяз	-12.6909
хасааваг	-12.691
▁344.	-12.691
▁279.	-12.691
▁жирад	-12.691
▁268.	-12.6911
▁балаас	-12.6911
▁гижчзна	-12.6912
аганид	-12.6915
▁вирахи	-12.6915
агаббад	-12.6916
хидтаанзна	-12.6919
уллажжаяассаа	-12.6919
илаанааяа	-12.6919
▁анзгаббагаар	-12.6921
▁габбияа	-12.6921
▁жагкусмим	-12.6923
▁ануломад	-12.6927
72.	-12.6928
▁абхихад	-12.6928
▁самбхаараа	-12.693
угкагкаяа	-12.6931
иннажи	-12.6932
дхагий	-12.6932
▁наанаббагаараг	-12.6934
уях	-12.6935
уссо	-12.694
▁аасам	-12.694
асамаяо	-12.694
▁саммукз	-12.6941
▁баабияо	-12.6942
зваасий	-12.6944
хиваас	-12.6945
▁45	-12.6946
▁виниви	-12.6947
араваасино	-12.6947
▁пусанаа	-12.6948
▁вийрияаарамбхо	-12.6948
▁урад	-12.695
анисзви	-12.695
зяяагам	-12.6952
хабхаавад	-12.6952
▁саллабан	-12.6953
▁вибааган	-12.6959
63.	-12.696
аавахад	-12.6962
▁48	-12.6966
▁маалам	-12.6966
улаг	-12.6967
▁амхзсу	-12.6967
▁вужжамаан	-12.6968
анаагааро	-12.6969
▁маалу	-12.697
харааж	-12.6972
▁хадто	-12.6976
▁бараб	-12.6977
ависо	-12.6977
хабажжзга	-12.6977
абаригкаараан	-12.6982
хаммавинаяам	-12.6987
▁уббала	-12.6987
▁бхуммаважанам	-12.6988
иязяяа	-12.6989
▁огаар	-12.6989
лого	-12.6989
▁яахим	-12.699
▁лал	-12.699
▁згабха	-12.6991
васз	-12.6994
анубхав	-12.6994
▁убабаригка	-12.6996
▁амаг	-12.6997
▁хири	-12.6997
асаван	-12.6997
инивад	-12.7004
анаарах	-12.7004
хамасми	-12.7004
ваяад	-12.7005
▁бажжассоси	-12.7007
▁343.	-12.7008
▁345.	-12.7008
▁342.	-12.7008
асамуг	-12.7009
аабисса	-12.7009
▁хийнабан	-12.7009
▁баар	-12.701
маана	-12.7013
▁махижча	-12.7014
авибаага	-12.7015
уггадаа	-12.7016
абхигкуу	-12.702
иннзна	-12.7021
аруубз	-12.7024
аажанам	-12.7025
бадигкзбо	-12.7027
67.	-12.7027
▁вибулзна	-12.703
▁обхаасам	-12.7031
▁саган	-12.7031
▁гхаанзна	-12.7032
.5	-12.7032
уббал	-12.7035
нияяаа	-12.7038
▁агаббия	-12.7038
▁ааруббаа	-12.7043
▁адтасам	-12.7044
▁асзгкаа	-12.7047
84.	-12.705
абарижая	-12.7052
абадибагка	-12.7053
огааса	-12.7054
аабарияосаанз	-12.7056
суубаг	-12.7063
▁бхаванз	-12.7063
жавогаараа	-12.7063
▁нзяяам	-12.7064
вил	-12.7068
амохо	-12.7069
2,	-12.707
▁саавигаа	-12.7071
▁ужжад	-12.7073
анижжаа	-12.7073
бхаяз	-12.7073
кааяи	-12.7074
аравий	-12.7079
93.	-12.708
▁бабхав	-12.7082
аггавижаараа	-12.7085
вааравасзна	-12.7086
▁баварам	-12.7086
габбан	-12.7087
▁бзгкан	-12.7087
авигкзб	-12.7088
асздти	-12.7089
аббадиг	-12.7089
вааяам	-12.7094
▁манасигар	-12.7095
▁балааяан	-12.7096
▁вижаарам	-12.7096
▁виваддам	-12.7099
▁асзгкабхаа	-12.7099
▁габбзяяа	-12.71
▁бияан	-12.7103
иноби	-12.7108
авинижчаяага	-12.7117
▁гилзсад	-12.7121
▁убассая	-12.7121
ивиная	-12.7123
▁аабааяиг	-12.7123
▁гаммагаар	-12.7124
логз	-12.7128
имзхи	-12.7128
абхаванз	-12.7132
гхарааж	-12.7133
▁мул	-12.7133
аниссаран	-12.7134
анаяаа	-12.7139
аммам	-12.7141
▁язбхуяяасигаа	-12.7143
анийяасу	-12.7144
хаарзми	-12.7155
▁анзгаа	-12.7159
нижжа	-12.7159
▁гирияаагирияа	-12.7159
▁галам	-12.716
▁агаббияа	-12.7161
жхимз	-12.7162
бхогаас	-12.7163
▁сийгха	-12.7163
асукасса	-12.7163
▁нижжагаалам	-12.7166
аарагаанам	-12.7169
▁сагяа	-12.717
рамаж	-12.7177
▁саагажч	-12.7178
самуух	-12.7179
▁бхаваасаво	-12.718
77.	-12.7187
▁арияасан	-12.7189
убзгк	-12.719
▁44	-12.719
арабан	-12.7192
умаж	-12.7192
згзна	-12.7193
харасса	-12.7194
▁ассамо	-12.7196
▁убаая	-12.7197
абхая	-12.7198
вияо	-12.7201
жхубзгка	-12.7203
язнзва	-12.7204
66.	-12.7205
▁абхиган	-12.7205
▁гхоси	-12.7205
▁гааяасагкий	-12.7206
▁329.	-12.7207
▁рагкам	-12.7207
▁278.	-12.7208
▁284.	-12.7208
▁298.	-12.7208
▁281.	-12.7208
▁згаахаб	-12.7209
акийл	-12.7214
▁гужчимхи	-12.7216
▁жхааяан	-12.7219
асигасса	-12.7219
улла	-12.7222
74.	-12.7223
65.	-12.7226
наамам	-12.7228
▁бааяз	-12.7229
▁нараасабх	-12.723
жама	-12.723
амбхам	-12.7234
55.	-12.7236
▁вилоги	-12.7236
асилаа	-12.724
аажааро	-12.724
апалан	-12.7242
78.	-12.7242
аасанам	-12.7243
самааг	-12.7243
дтахим	-12.7246
▁вихаарзна	-12.7251
аажаар	-12.7259
аваасо	-12.7261
▁лоха	-12.7265
85.	-12.7268
▁сзсан	-12.7269
ивзл	-12.727
хал	-12.727
▁вимогкамук	-12.727
▁грияаабад	-12.7272
▁аасзван	-12.7272
▁згабуд	-12.7272
▁вихараамий	-12.7273
идтижари	-12.7275
▁руубияам	-12.7275
▁гхарааваасам	-12.7278
илл	-12.728
▁сасс	-12.7282
ваддад	-12.7286
▁баабижчо	-12.7287
▁аггаман	-12.7287
ибадтаанаан	-12.7287
згижчо	-12.7289
▁бурисан	-12.7292
▁бхууба	-12.7295
▁муб	-12.7296
руд	-12.7296
▁нхаан	-12.7297
▁уяяаана	-12.7298
аарахаа	-12.73
аллаанад	-12.7304
▁намассамаано	-12.7307
▁балаабз	-12.7307
▁бависзяяа	-12.7307
ажагкуу	-12.7307
абарияосаана	-12.7307
▁353.	-12.7308
▁винаяабидагам	-12.7311
▁нияамад	-12.7313
▁аарамбхо	-12.7313
▁мзгха	-12.7314
усадти	-12.7316
жханхиг	-12.7316
▁бадивин	-12.7316
▁бхаавагаммзсу	-12.7317
▁гаммамагар	-12.7317
ап	-12.7318
▁авигкзбадт	-12.7318
жхубзгкан	-12.7321
▁било	-12.7322
убхз	-12.7323
▁гамби	-12.7324
▁саруубзна	-12.7328
ияуг	-12.7332
▁авибааг	-12.7334
▁вийрияаад	-12.7335
аануваа	-12.7337
аабагасса	-12.7338
пала	-12.7338
▁логасам	-12.7339
зсаго	-12.7339
▁асаммисс	-12.7343
абхааваббад	-12.7344
▁манусса	-12.7344
▁бхаасамаан	-12.7345
▁аажарияаанам	-12.7346
аббадижча	-12.7347
ааваасз	-12.735
хийнаа	-12.7351
ависабхаа	-12.7351
▁бассаама	-12.7351
▁галах	-12.7354
авааси	-12.7356
равим	-12.7359
анусаарзна	-12.7359
▁гаммагааран	-12.7363
▁аабааяиго	-12.7364
хабхаавзна	-12.7365
▁гулуубаг	-12.7368
▁барияосаан	-12.7372
▁баарим	-12.7373
▁убадтах	-12.7373
аарзн	-12.7373
▁васо	-12.7375
хаараг	-12.7377
▁амун	-12.7381
▁барияааяам	-12.7383
аниссая	-12.7384
руу	-12.7385
▁ааяуу	-12.7386
агал	-12.7387
ийяисса	-12.7388
▁самаасад	-12.7389
▁басу	-12.7392
▁51	-12.7395
уггарад	-12.7396
лагк	-12.7396
аалагаа	-12.7397
анабхааво	-12.7399
▁парус	-12.7399
ажаггам	-12.74
баасаан	-12.7401
ижча	-12.7403
уухиби	-12.7403
▁хаараа	-12.7406
асахассамхи	-12.7407
вамаси	-12.7408
▁суггависсадти	-12.741
▁абхинийхааро	-12.741
▁299.	-12.7411
абхибхав	-12.7411
▁283.	-12.7411
.7	-12.7414
▁абхиробая	-12.7415
▁сурад	-12.7415
▁аасанаа	-12.7418
жхабарияосаан	-12.7418
▁багкасса	-12.742
бхаваабхиниб	-12.7421
▁бхаяз	-12.7422
▁гилзсасамбая	-12.7426
▁угкибан	-12.7426
▁убаахана	-12.7427
▁охааяа	-12.7428
▁сосса	-12.7429
▁ануббаннз	-12.7432
габбаман	-12.7434
▁анувиж	-12.7435
▁баабаж	-12.7436
▁сусамаар	-12.7437
ижийварзна	-12.7438
▁сарабхан	-12.744
згаж	-12.7445
хуво	-12.7445
аанабаб	-12.7445
▁зваруубзна	-12.7446
хаммамзва	-12.7447
рув	-12.7449
▁мааби	-12.7452
▁ваагя	-12.7453
▁рааман	-12.7454
ирабхаав	-12.7456
▁маасзхи	-12.7457
▁табанам	-12.7466
жабийт	-12.7466
ипаласажчигирияа	-12.7467
хаммигз	-12.7468
▁бубпаг	-12.7468
згажжо	-12.747
руубо	-12.7471
▁нияассагамм	-12.7471
▁вийрияа	-12.7475
58.	-12.7477
5,	-12.7485
хаммигаани	-12.7493
▁сзваал	-12.7495
хаммави	-12.75
86.	-12.7501
аванаани	-12.7503
жхима	-12.7506
хааяий	-12.7507
ожарад	-12.7508
аважано	-12.7509
▁хздтимам	-12.7511
ажчиг	-12.7511
▁анаажаарам	-12.7511
авис	-12.7512
абарияааяа	-12.7513
▁366.	-12.7513
▁362.	-12.7513
▁334.	-12.7513
▁бийтз	-12.7514
▁294.	-12.7514
▁277.	-12.7514
ханаг	-12.7514
▁282.	-12.7514
▁бараамасан	-12.7514
▁нигкзб	-12.7514
▁самбха	-12.7515
▁убааяаасо	-12.7516
▁вас	-12.7517
▁лабхиссаамий	-12.7518
хзгажж	-12.7518
▁язнзва	-12.7518
абариж	-12.7519
хабагк	-12.752
▁аахаарад	-12.7521
▁асаммосааяа	-12.7522
аяисса	-12.7525
хидтаана	-12.7527
убарамо	-12.7529
авабужчаа	-12.7531
▁вужжамаанам	-12.7531
▁агган	-12.7533
жхааяаго	-12.7534
▁лаабхзна	-12.7536
▁лол	-12.7536
анияан	-12.7536
▁яагкасса	-12.7536
▁уггаа	-12.7538
звалогаа	-12.7539
▁аабхассар	-12.754
▁аббасаад	-12.7541
ийбхаав	-12.7543
.9	-12.7547
анамукзна	-12.7547
▁асога	-12.7552
▁нийлаван	-12.7553
▁баасан	-12.7553
сагал	-12.7554
яамхи	-12.7555
авзсад	-12.7557
ажарияам	-12.7557
▁гаммавибаага	-12.7559
▁абарижжа	-12.7561
асукаавах	-12.7563
зяязна	-12.7566
абижаа	-12.7567
аалаго	-12.7567
жамаж	-12.7567
▁миссз	-12.7568
идтидтаан	-12.7568
▁осаанаг	-12.7569
уубасамба	-12.757
▁логассаа	-12.7571
ааяагаанам	-12.7574
▁бараса	-12.7574
аванабад	-12.7575
▁аамаси	-12.7577
.8	-12.7577
▁чанна	-12.7578
▁манохар	-12.7579
▁баахзси	-12.7584
▁сус	-12.7584
▁хомий	-12.7584
анийяасса	-12.7585
хибажж	-12.7587
▁убаггилзс	-12.7587
абажжаяасса	-12.7588
аабзгкааяа	-12.759
▁сия	-12.7592
абарисам	-12.7594
анзгад	-12.7597
аражч	-12.7597
▁анижжз	-12.7601
аамаб	-12.7605
▁абхиси	-12.7605
асажж	-12.7606
▁нинн	-12.7608
здтагам	-12.7608
адтаанасса	-12.7609
рахмабхуу	-12.7609
уггадтабад	-12.7612
▁ааяунаа	-12.7615
▁мижчаавим	-12.7615
химанвааяа	-12.7616
▁анубхоми	-12.7617
▁328.	-12.7617
▁347.	-12.7617
▁326.	-12.7617
▁341.	-12.7617
▁288.	-12.7618
▁самусс	-12.7621
сийхо	-12.7623
ийра	-12.7623
▁жааха	-12.7626
умхзсу	-12.7628
.6	-12.763
▁зж	-12.7631
▁надтам	-12.7634
▁бабхассар	-12.7634
▁мануссаг	-12.7635
вибарий	-12.7636
гааяо	-12.7636
хияяа	-12.7636
угкзхи	-12.7639
▁вижаари	-12.7639
табид	-12.764
▁вибассанаавасзн	-12.7641
улиба	-12.7641
▁сзвз	-12.7643
сийхи	-12.7644
▁мажчз	-12.7645
▁43	-12.7647
араабад	-12.7649
раанан	-12.7651
▁виббадисааро	-12.7651
▁аалоб	-12.7653
▁сукавибааг	-12.7655
агаммад	-12.7656
▁ажчинн	-12.7658
ивасабхаа	-12.766
анавад	-12.7661
аруубаад	-12.7661
▁сарасса	-12.7661
жхааниг	-12.7664
виви	-12.7666
аваарам	-12.7667
▁амхааган	-12.7669
▁саггаар	-12.7671
▁галахо	-12.7673
авил	-12.7673
▁смаа	-12.7673
▁ужжаарам	-12.7673
▁бубпа	-12.7673
рун	-12.7674
▁бхаваабхав	-12.7674
инасаасанз	-12.7675
авиви	-12.7675
аманамаг	-12.7675
увадд	-12.7676
ассаяи	-12.7676
аманусс	-12.7677
▁нивидтаа	-12.7677
бадибагка	-12.7678
саама	-12.7678
аабанаану	-12.7685
аахиран	-12.7685
▁мисс	-12.7685
абаанаа	-12.7685
аажариязхи	-12.7688
▁мажча	-12.7689
хаммасамаа	-12.7691
▁гаяира	-12.7691
аружи	-12.7691
ийвигаа	-12.7695
▁голам	-12.7695
▁батамабан	-12.7699
уггадава	-12.7702
хиван	-12.7702
▁авуубаса	-12.7703
жор	-12.7703
аанубассино	-12.7703
инаяабба	-12.7705
▁нивиса	-12.7706
▁нибажжан	-12.7707
▁улли	-12.7708
бадижжасамубба	-12.7708
барил	-12.771
улзна	-12.7712
▁яасассин	-12.7712
ийгхзна	-12.7713
▁ваар	-12.7714
агирияам	-12.7717
▁ааяаажи	-12.7721
▁гудил	-12.7721
аганиваабз	-12.7721
▁335.	-12.7722
авхо	-12.7723
▁мужалин	-12.7723
▁бхааванаб	-12.7723
▁311.	-12.7723
▁318.	-12.7723
▁вагкамаана	-12.7723
▁295.	-12.7723
вара	-12.7728
▁ху	-12.7728
▁обаммасам	-12.773
▁самбхаавз	-12.7731
▁винивад	-12.7732
▁виварзяяа	-12.7732
▁васзяяа	-12.7732
▁гарзяяум	-12.7733
▁вибаагабажжаяаа	-12.7733
гилзсав	-12.7735
▁саллаг	-12.7735
гхабарив	-12.7736
▁аногаас	-12.7737
асамбаннасса	-12.7738
▁саггааро	-12.7739
адило	-12.7739
ийгаро	-12.774
ийбаяан	-12.7742
хагаар	-12.7743
амаанасам	-12.7743
▁важанийяам	-12.7744
▁згаго	-12.7746
▁сзгкасса	-12.7747
ийбаяз	-12.7747
▁гумбхам	-12.7749
взяяа	-12.7752
абассз	-12.7752
жхааяага	-12.7752
хийбхаавзна	-12.7754
арагкан	-12.7756
кзяя	-12.7756
▁барибуурзсса	-12.7756
▁убаггамзна	-12.7758
▁бхумм	-12.7758
аманийяо	-12.7758
ваасий	-12.7759
▁бужчзяя	-12.7761
хигааяа	-12.7761
вийсуби	-12.7763
абаавура	-12.7768
ааяанаа	-12.777
▁мож	-12.7772
кзба	-12.7775
▁вирууб	-12.7775
▁бубпзхи	-12.7776
▁вивадам	-12.7776
▁баару	-12.7782
ваал	-12.7785
аяасо	-12.7786
уггар	-12.7787
ажарияа	-12.7787
алобх	-12.7788
▁пассасамба	-12.779
▁бажжаяабхаав	-12.779
хурзна	-12.7791
▁нажжам	-12.7792
▁саманубассан	-12.7794
▁маносуж	-12.7794
▁сздтиб	-12.7795
хаамий	-12.7796
▁палаа	-12.7799
▁барижчи	-12.7801
▁згаахам	-12.7802
анаависзсо	-12.7803
аях	-12.7803
▁бавасса	-12.7803
ипала	-12.7805
яабхижаар	-12.7806
аабзссаамий	-12.7807
ийбаний	-12.7807
▁вааси	-12.781
аажаарам	-12.7812
зга	-12.7812
хамманиру	-12.7813
▁абижз	-12.7813
хаанавасзна	-12.7814
▁яомхи	-12.7815
▁насука	-12.7815
аажагку	-12.7817
▁усмаа	-12.7819
вигад	-12.782
сага	-12.7821
▁госал	-12.7821
бажжаяз	-12.7821
зсараж	-12.7821
▁воса	-12.7821
▁махааванам	-12.7825
▁баабзна	-12.7826
▁смино	-12.7828
амаанусагзна	-12.7828
▁297.	-12.783
▁убасамбаннасан	-12.7831
аманвааяа	-12.7833
улаб	-12.7837
▁аяамаахааро	-12.7837
хигабан	-12.7838
анибхаа	-12.7841
алигаммам	-12.7842
▁абхиса	-12.7843
▁гиннар	-12.785
▁нивааб	-12.7852
▁абзгка	-12.7853
авигаа	-12.7854
ирасо	-12.7857
ияамаанасса	-12.786
зниваас	-12.7862
сабхаванз	-12.7863
59.	-12.7865
▁сзванаа	-12.7867
▁гхааса	-12.7869
▁наниссая	-12.7869
анадто	-12.787
идтиган	-12.787
▁сивам	-12.7871
гаамам	-12.7872
убаасага	-12.7873
хадто	-12.7874
ваарзби	-12.7874
▁баннарасз	-12.788
хавид	-12.7881
гаамад	-12.7881
уусз	-12.7881
адтан	-12.789
▁агкааяа	-12.789
бхаава	-12.789
хасздтам	-12.789
ааббад	-12.7891
▁бхамар	-12.7892
▁расаг	-12.7894
▁винижчи	-12.7895
убба	-12.7896
▁гилзсавад	-12.79
▁саагз	-12.79
ваяав	-12.7901
▁багаасая	-12.7902
анаагаарзна	-12.7903
св	-12.7903
улан	-12.7903
сарууб	-12.7905
ивасан	-12.7908
ияабуб	-12.7908
▁абхируубо	-12.7909
▁саавагзхи	-12.7911
▁сзнаасана	-12.7915
▁бависим	-12.7916
▁нигган	-12.7916
рууси	-12.7918
сарз	-12.7918
аануссаран	-12.792
▁сзк	-12.7921
хижжасамуббанн	-12.7922
▁идтагаа	-12.7924
взязва	-12.7924
▁багабби	-12.7926
▁бажчаану	-12.7927
▁саамаа	-12.793
▁вибаагаж	-12.7934
▁сзяяаа	-12.7934
▁анубали	-12.7935
▁275.	-12.7937
▁285.	-12.7937
асмааби	-12.7937
▁уяяу	-12.7938
▁сукаб	-12.7942
ибужчаа	-12.7942
аагаарий	-12.7943
▁аббагам	-12.7943
▁аруубааважаро	-12.7943
агаасий	-12.7944
▁бхаава	-12.7945
амаанаг	-12.7947
хамаасам	-12.7947
▁ужч	-12.7948
▁яаамз	-12.7949
жагкувин	-12.7949
абурз	-12.7949
жхзсан	-12.795
▁нияаамаг	-12.7952
▁батамабхаа	-12.7952
амаяан	-12.7953
аалийсааяа	-12.7957
▁ааруббз	-12.7959
▁паасувихаарааяа	-12.7961
▁висамам	-12.7963
▁мажчаа	-12.7965
хибаадихаария	-12.7965
бадижчанна	-12.7966
агхаданаа	-12.7967
▁пассаба	-12.7968
асарийро	-12.7969
▁асубхаса	-12.7969
садта	-12.7971
ийяамаано	-12.7971
укам	-12.7971
▁нзяяа	-12.7972
аалабу	-12.7972
1-2.	-12.7974
хага	-12.7975
▁багко	-12.7976
угкагкаяааяа	-12.7977
▁балу	-12.7978
▁муулзна	-12.7978
▁нзяяо	-12.7979
▁бажжаяабхааво	-12.7979
агаарз	-12.7979
важчарам	-12.7979
сохам	-12.7982
▁бажжаяаагаар	-12.7983
ийвамаан	-12.7984
▁нидтаабзси	-12.7984
▁важанаба	-12.7986
▁нихийн	-12.7989
сва	-12.7989
▁гобан	-12.7989
руубад	-12.7989
инааби	-12.7989
збурам	-12.799
ассино	-12.7991
сабхаа	-12.7991
агодтаас	-12.7992
▁анубавис	-12.7995
бадилаабх	-12.7998
аабхинийхаар	-12.7999
улияо	-12.8001
▁рагкас	-12.8002
вамзва	-12.8004
каарасса	-12.8005
угкаанубассанаа	-12.8006
идтаануг	-12.8006
мах	-12.8007
анияаамзнзва	-12.801
здтасса	-12.801
аббаяу	-12.8011
▁вир	-12.8011
хаанамби	-12.8011
▁абхиггаман	-12.8012
лаабхаа	-12.8012
рахмалогууба	-12.8012
жхаанигаа	-12.8014
▁синзрум	-12.8014
▁вохаара	-12.8016
агаммадтаанам	-12.8017
вийс	-12.8018
▁аббамзяя	-12.8018
▁орима	-12.8018
▁хаасо	-12.8022
габбаса	-12.8024
хивихаариго	-12.8026
буурид	-12.8027
хаммоби	-12.8028
ассоби	-12.8034
абхаванам	-12.8036
иймад	-12.8037
ибат	-12.8038
иймаа	-12.8039
▁убагаараго	-12.804
▁чави	-12.804
▁374.	-12.8045
▁346.	-12.8045
▁348.	-12.8045
▁351.	-12.8045
▁332.	-12.8045
▁296.	-12.8046
▁289.	-12.8046
▁287.	-12.8046
▁гааяагамман	-12.8046
▁имасмаа	-12.8047
араабз	-12.8048
▁аагааро	-12.8051
яаасад	-12.8051
▁собханам	-12.8053
гхаддан	-12.8053
яааяа	-12.8055
аванабан	-12.8056
угуула	-12.8059
▁габбияабха	-12.8059
▁барисагга	-12.806
анагаало	-12.806
угабадтаан	-12.8062
▁саасавам	-12.8062
▁самбарааяз	-12.8062
▁ануломан	-12.8064
▁аараг	-12.8065
ивассо	-12.8068
▁зяяаа	-12.8069
▁ануггам	-12.8071
ахаран	-12.8071
▁самубз	-12.8071
▁басан	-12.8073
амахаг	-12.8075
▁анааваасаа	-12.8076
жагкун	-12.8078
кияам	-12.8079
хахад	-12.8079
раас	-12.8079
асаарам	-12.8083
▁суурияасса	-12.8084
▁урз	-12.8092
▁мажчаг	-12.8093
хаасо	-12.8095
▁субха	-12.8096
▁убажааро	-12.81
▁рохи	-12.8101
абарисан	-12.8101
▁ожин	-12.8102
▁абхисзг	-12.8103
асамбаннз	-12.8104
сил	-12.8106
вибарияаасаг	-12.8108
вигаар	-12.8109
▁сийхаа	-12.811
удтз	-12.8114
агулаани	-12.8115
▁ваажжа	-12.8115
▁аараамиг	-12.8117
▁1-2.	-12.8121
увад	-12.8121
▁сагалана	-12.8126
абзми	-12.8129
игамма	-12.8129
амуулаг	-12.8131
бадибхаа	-12.8132
уггаж	-12.8135
гханаг	-12.8135
▁гусинаар	-12.8135
асаннид	-12.8139
ижжааяасмаа	-12.8141
▁саарубб	-12.8142
абил	-12.8143
ааманасигаараа	-12.8145
асуго	-12.8146
▁сукавихаар	-12.8147
ивас	-12.8148
▁ижчааяа	-12.8148
арадтам	-12.8149
▁гираа	-12.8151
▁вирожан	-12.8153
▁анологз	-12.8154
▁327.	-12.8155
▁356.	-12.8155
▁339.	-12.8155
▁316.	-12.8156
▁293.	-12.8156
▁сигкамаанааяа	-12.8156
▁ахирига	-12.8157
▁бадиман	-12.8157
▁амуулагзна	-12.8157
аахагаалигам	-12.8157
гисса	-12.8158
▁сасам	-12.8161
▁ваасо	-12.8163
▁махаанаамо	-12.8165
амуулаа	-12.8165
ийбигаа	-12.8166
▁баабижча	-12.8167
▁адтамагасса	-12.8169
▁аажарияаваа	-12.8169
гаамаа	-12.817
▁соманасса	-12.817
аамаго	-12.8171
жаабхин	-12.8172
хамаг	-12.8172
▁сампаббалаабаа	-12.8172
▁исид	-12.8175
▁гаммасамудтаан	-12.8177
▁абхигкан	-12.8178
аамипалз	-12.8185
▁виссаасам	-12.8186
▁оро	-12.8186
▁нзру	-12.8192
аламаал	-12.8201
аануломам	-12.8201
аламби	-12.8201
арасаман	-12.8203
абажжагк	-12.8204
▁вижаар	-12.8205
халогз	-12.8206
хаммавинаяо	-12.8207
▁вийрияан	-12.8208
аланид	-12.8208
ийсва	-12.8214
жаггавад	-12.8214
▁асубхаа	-12.8215
аварз	-12.8219
жаган	-12.8221
абурам	-12.8222
кязяяам	-12.8222
аануббад	-12.8223
каарубзгкаа	-12.8224
▁бидагаани	-12.8224
аавису	-12.8224
▁собхая	-12.8224
асампасса	-12.8225
удтулла	-12.8225
асамудти	-12.8226
варид	-12.8227
аарамбхага	-12.8228
▁абар	-12.8228
▁самох	-12.8229
ажчзяяам	-12.8231
▁сийса	-12.8233
хавинаяо	-12.8234
угааяа	-12.8235
хаараяи	-12.8235
аагаарабба	-12.8237
агилзсо	-12.8237
баггам	-12.8238
▁гаммасамаа	-12.8239
▁нирая	-12.8241
▁абаггам	-12.8241
хаммаава	-12.8242
▁нижжан	-12.8244
▁анидтам	-12.8245
асаахам	-12.8245
▁бажжанийг	-12.8245
угкий	-12.8247
ийвар	-12.8248
агижжасса	-12.8248
таано	-12.825
▁барабба	-12.8252
васий	-12.8252
▁гуласан	-12.8252
▁сикааб	-12.8253
▁васисса	-12.8253
.4	-12.8254
аабаннаанам	-12.8256
▁гаммаваажаахи	-12.8257
▁сасо	-12.8257
аббахаана	-12.826
▁агусалагамм	-12.8262
паан	-12.8263
▁табана	-12.8265
▁354.	-12.8266
▁323.	-12.8266
▁352.	-12.8266
▁338.	-12.8266
▁336.	-12.8266
хамаасз	-12.8266
▁314.	-12.8267
▁286.	-12.8267
▁291.	-12.8267
хаммасаван	-12.8269
▁згасмин	-12.8269
осааг	-12.827
омуд	-12.8271
осаж	-12.8271
▁жирагаалам	-12.8271
▁мануссавиг	-12.8273
хубаа	-12.8275
алла	-12.8275
▁нихан	-12.8276
ижчаад	-12.8278
бхигкам	-12.8279
▁сома	-12.8279
▁авижч	-12.828
хоси	-12.8284
▁сагаламби	-12.8285
▁взяяааважжагар	-12.8285
араасам	-12.8291
убхааг	-12.8292
агаббан	-12.8292
▁вирама	-12.8293
аалим	-12.8293
▁басаннаан	-12.8293
▁сунако	-12.8298
гкзд	-12.8299
бхигкусан	-12.83
▁вибулаа	-12.8302
асарийр	-12.8303
▁гзвалаа	-12.8305
▁ассамаба	-12.8306
▁габбаанам	-12.8308
хаамаана	-12.8308
▁усум	-12.8313
аммаад	-12.8314
анимма	-12.8315
зяязсу	-12.8318
▁гзсаса	-12.8319
исамбанно	-12.832
зсаваарава	-12.8323
▁мусал	-12.8324
ибий	-12.8324
▁барассаба	-12.8325
абхаавааяа	-12.8329
манасигаар	-12.8329
▁васал	-12.8331
▁каяан	-12.8332
хаарасса	-12.8336
▁баабо	-12.8336
▁силзс	-12.8338
уломабажжанийяам	-12.8341
▁убанаамз	-12.8342
▁бадигуж	-12.8342
▁убанис	-12.8344
исзсаниб	-12.8345
маасамб	-12.8346
▁мижчаабадиба	-12.8348
▁ааваддз	-12.8348
▁сил	-12.8349
▁аарожан	-12.8349
▁мажчарий	-12.835
аамипалаа	-12.8351
▁чамаа	-12.8351
▁мамааяи	-12.8353
ужжад	-12.8354
▁самаббавад	-12.8354
ияаамий	-12.8355
▁анияам	-12.8358
▁гаммания	-12.8359
имахан	-12.8359
амхасз	-12.836
убзгкаго	-12.8366
зсаяа	-12.837
аяассу	-12.8371
аарахад	-12.8373
бхава	-12.8374
▁лом	-12.8374
▁баннарасо	-12.8377
▁маалугяаб	-12.8377
▁винаяабидагз	-12.8377
▁367.	-12.8378
▁324.	-12.8378
▁355.	-12.8378
▁349.	-12.8378
▁357.	-12.8378
▁337.	-12.8379
▁333.	-12.8379
▁321.	-12.8379
▁жхааяи	-12.8382
салл	-12.8383
▁гимагааси	-12.8383
ийвааяа	-12.8385
▁вигкзбам	-12.8386
▁манасигаараа	-12.8386
▁гаамабхав	-12.8387
▁абхимук	-12.8387
сахад	-12.8389
хзязва	-12.8389
▁абхининнаамз	-12.8392
ажжаа	-12.8393
угкаббад	-12.8394
▁мунинаа	-12.8396
хагуди	-12.8397
▁мая	-12.8398
хаарагз	-12.8399
аяова	-12.8399
хабуд	-12.84
аммо	-12.8401
▁аавигаро	-12.8404
▁аасаннад	-12.8405
▁убадтааг	-12.8406
аахияа	-12.8409
ааба	-12.8409
чанно	-12.841
хавааро	-12.8411
аннаамаа	-12.8414
амахаасаал	-12.8414
▁химава	-12.8415
▁вибуло	-12.8416
аббагаара	-12.8416
хибхаав	-12.8419
усаасанз	-12.8419
▁вудтаана	-12.8422
▁нираамис	-12.8425
усампасса	-12.8427
▁лобхасса	-12.8429
▁анурагкан	-12.8431
огасин	-12.8431
инааг	-12.8436
бхигка	-12.8438
абаривааро	-12.8438
▁гзнааси	-12.844
▁жагкума	-12.8442
исааяам	-12.8443
▁вийрияасса	-12.8443
▁ваддз	-12.8444
жамад	-12.8446
▁гааяигаа	-12.8447
▁ааваддан	-12.8448
▁сик	-12.8454
▁бадивиру	-12.8459
▁орохан	-12.8459
жхаанасамаа	-12.8459
гара	-12.8461
▁винаасо	-12.8461
абидтз	-12.8465
исамудтаанам	-12.8466
агодияо	-12.8466
▁висзсабхаа	-12.8469
чал	-12.8471
▁яагкам	-12.8471
▁гааяиг	-12.8473
аббаа	-12.8475
▁аасавасса	-12.848
аасийнам	-12.8485
осаанам	-12.8487
онад	-12.8488
▁убая	-12.8488
иваасанабаарубан	-12.8491
ийбхажч	-12.8491
ожарасамбанно	-12.8491
▁наамамуулзна	-12.8492
▁364.	-12.8492
▁361.	-12.8492
▁аахаарабажжаяаа	-12.8492
▁312.	-12.8493
▁313.	-12.8493
▁317.	-12.8493
ааруубо	-12.8493
бурам	-12.8493
ругка	-12.8494
▁наамабажжаяаа	-12.8494
▁авивад	-12.8494
▁бхаарияам	-12.8496
▁жаавусо	-12.8496
.3	-12.8497
▁гхадди	-12.8498
жахубаали	-12.8498
▁вигобз	-12.8499
обамасу	-12.8504
▁уссаахаж	-12.8506
▁агусалагаммаба	-12.8506
▁гилзсавасзна	-12.8507
▁жхаанара	-12.8507
расам	-12.8507
▁сагаммаг	-12.8511
увогаараанам	-12.8512
жаахам	-12.8514
▁нассан	-12.8516
▁гулаан	-12.8517
ааруубааяа	-12.8518
барияудтаанам	-12.8519
▁аалабанам	-12.8519
аваажаг	-12.8523
▁маас	-12.8524
ажжо	-12.8525
хавир	-12.8525
▁баарааяан	-12.8527
каарасама	-12.8527
▁госалла	-12.8529
асон	-12.8529
▁ниббаба	-12.853
хаважана	-12.853
жамаа	-12.8532
сугуулиг	-12.8533
хагаарад	-12.8533
аахагам	-12.8534
анабат	-12.8534
▁муулан	-12.8534
махаасаму	-12.8534
игка	-12.8535
агусалаж	-12.8542
▁сахассад	-12.8543
▁аббажжаяо	-12.8546
▁маанзна	-12.8547
▁анусаяо	-12.8553
дхана	-12.8553
▁бхиннз	-12.8557
▁бавидтз	-12.8558
кяаанз	-12.8558
▁бадтабзси	-12.8562
хасабб	-12.8563
асаалааяа	-12.8564
ругко	-12.8566
кааран	-12.8569
уухад	-12.857
аараамад	-12.857
▁лаабхааяа	-12.858
▁жагган	-12.8583
хийма	-12.8585
▁кзмад	-12.8586
▁гаарагам	-12.8586
▁наамзса	-12.8588
абогкаран	-12.8589
▁бажжанийгад	-12.8589
яаавагийван	-12.8593
лома	-12.8594
▁бхаавам	-12.8594
▁наамхи	-12.8597
▁аагодз	-12.8597
абарияаабаннаа	-12.8598
▁сагаласса	-12.8599
амааноби	-12.86
хусса	-12.86
наббадиббассамбх	-12.8606
хаммаббадибанно	-12.8606
▁359.	-12.8607
▁365.	-12.8607
▁325.	-12.8607
▁гзсамассум	-12.8607
▁331.	-12.8607
▁сауссаах	-12.8607
арамаано	-12.8608
абассино	-12.8612
▁нассара	-12.8613
лоба	-12.8617
▁нияя	-12.8618
алигаран	-12.8618
▁аббахийнад	-12.8619
▁ажзло	-12.862
▁убахажжа	-12.8621
жханадтзна	-12.8621
авзл	-12.8624
анабхаавам	-12.8624
▁ариязхи	-12.8625
усабх	-12.8625
▁авибхуу	-12.8627
зсанийяам	-12.863
▁барамбарааяа	-12.8633
▁сукабадиба	-12.8634
▁бадиса	-12.8634
▁алаабхо	-12.8635
▁кийл	-12.8635
абхааро	-12.8635
▁анзгам	-12.8636
абажжаяа	-12.8639
▁нийлан	-12.864
▁суббаб	-12.864
▁сирийма	-12.8641
▁гусалаагусалааб	-12.8644
▁гарийсам	-12.8644
▁звамааг	-12.8644
сабхааво	-12.8645
звамзвам	-12.8649
▁нарин	-12.8651
▁асзса	-12.8653
анабхаавзна	-12.8654
аарах	-12.866
аагаам	-12.8664
▁ругкаг	-12.8664
▁ааяуухи	-12.8665
▁гажжааяан	-12.8665
ийсам	-12.8666
▁виссасз	-12.8667
▁анугуул	-12.8668
взлам	-12.8668
▁абхисад	-12.8669
уллажжаяаа	-12.8671
аруубаанам	-12.8671
▁сиро	-12.8672
хаммавиная	-12.8672
бхий	-12.8672
▁аамаг	-12.8674
рааси	-12.8675
ухааяам	-12.8676
▁саяанз	-12.8677
гаамааважара	-12.8678
аарасам	-12.8681
савар	-12.8682
иссамаан	-12.8682
▁жаваг	-12.8685
▁бадияа	-12.8686
игуд	-12.8688
ануссаран	-12.8688
▁55	-12.8689
▁хома	-12.8691
▁бадибхаанам	-12.8692
бариваж	-12.8694
▁бариссая	-12.8695
▁убаасигааяа	-12.8695
▁сзкаа	-12.8695
махид	-12.8696
▁маносампасса	-12.8698
▁гаамаб	-12.8699
ибхааван	-12.87
хибажжам	-12.87
аая	-12.8701
▁надтз	-12.8702
▁баадиязггам	-12.8703
▁ахааси	-12.8707
▁бадибхан	-12.871
▁згарас	-12.8711
▁маанусагам	-12.8711
гаммз	-12.8712
▁салаагаа	-12.8713
▁сааязва	-12.8713
аанурууб	-12.8714
свзва	-12.8715
кзб	-12.8716
▁бхааванаамая	-12.872
абажжуббанн	-12.8721
▁393.	-12.8723
▁322.	-12.8723
ассинаа	-12.8724
▁махаанубхаавз	-12.8725
▁бариязсанаа	-12.8725
агааби	-12.8725
▁бадимугг	-12.8727
▁асого	-12.873
вимаанам	-12.8732
▁сийсзна	-12.8734
▁пуссо	-12.8734
хаарая	-12.8735
▁сависзсам	-12.8738
▁таанад	-12.874
аггаавижааран	-12.874
▁авзрзна	-12.8741
▁уггодана	-12.8742
▁асогам	-12.8743
▁гаммаса	-12.8743
▁амисс	-12.8745
▁гаммабхаво	-12.8745
▁асамо	-12.8745
хабуб	-12.8746
агааяам	-12.8746
ааругк	-12.8747
▁гумбхо	-12.875
▁ссам	-12.8751
▁саммаавааяаам	-12.8753
▁гиман	-12.8755
▁бадигхо	-12.8756
ааваасаа	-12.8757
▁мижчаагамм	-12.8757
▁баариваасигзна	-12.8758
ааяамби	-12.8759
▁наамаруубан	-12.8759
агара	-12.8761
хуран	-12.8761
▁ийса	-12.8761
▁жира	-12.8762
▁вихзсаа	-12.8764
▁сунимм	-12.8767
▁ажчария	-12.8768
хаммабха	-12.877
▁гхаддан	-12.877
▁аасааяа	-12.8771
игоби	-12.8771
ируубаг	-12.8773
▁сажчигар	-12.8773
бассамбхаяам	-12.8777
▁ахосаха	-12.8779
аббагаарз	-12.878
▁бадиггуул	-12.8782
▁гуласса	-12.8784
аруубаг	-12.8784
▁хзсаа	-12.8787
▁лаабхз	-12.8788
ихисам	-12.8788
▁хзхи	-12.8789
аарубба	-12.879
аригам	-12.879
▁суббадибанно	-12.8791
▁самануг	-12.8793
аабхимук	-12.8796
▁богкар	-12.8798
иннааяа	-12.8799
ааригз	-12.8799
абаригки	-12.88
▁нинна	-12.88
исах	-12.8802
авигкамбхан	-12.8802
ивий	-12.8805
вохаара	-12.8806
▁сараж	-12.8807
▁ужжааран	-12.8807
▁ануссав	-12.8808
ажжаг	-12.8811
▁ависзса	-12.8812
▁аасаннз	-12.8813
апало	-12.8813
▁вах	-12.8815
▁басуу	-12.8817
агкзмам	-12.8817
агадтзна	-12.8817
асобхан	-12.8822
▁самбавз	-12.8822
’’’.	-12.8824
яасад	-12.8825
асамудтаанарууб	-12.8826
▁гора	-12.8828
жабийтам	-12.8829
▁аасаяа	-12.8829
▁анабхибху	-12.8833
▁охаарз	-12.8834
адтаараса	-12.8838
ияаабхисамаяо	-12.884
▁гуггул	-12.884
▁363.	-12.8841
гхаанаж	-12.8843
арасахи	-12.8843
аллаанзна	-12.8844
▁манобхааванийя	-12.8844
абхуумиг	-12.8845
жхаано	-12.8845
▁сарийрава	-12.8848
акаж	-12.8849
▁асзс	-12.885
▁анзгзби	-12.8851
▁гаммаваажам	-12.8852
▁бавзсан	-12.8852
▁ааваас	-12.8853
абхигкуунам	-12.8854
зяяасан	-12.8857
огаасз	-12.8857
▁бийта	-12.8858
хаарино	-12.8858
▁асаббурис	-12.8859
иважанзна	-12.886
▁ваажага	-12.886
винижчаяага	-12.8863
▁агамби	-12.8866
▁саггзна	-12.8867
▁нияяаан	-12.8868
жхимад	-12.8871
асмаасса	-12.8875
▁багкиба	-12.888
▁имаасу	-12.8881
асзви	-12.8882
▁ара	-12.8882
▁яаажаами	-12.8883
▁згамуулаг	-12.8883
▁баабзн	-12.8884
имин	-12.8887
▁аган	-12.8887
рахмагз	-12.8888
▁бахаара	-12.8889
▁гаммзсу	-12.8891
▁висзсанад	-12.8891
чам	-12.8893
▁сигкамаанам	-12.8895
муулаг	-12.8896
ажийваро	-12.8897
угкаана	-12.8897
▁бхаасаси	-12.8898
▁махаасааваг	-12.89
▁анубба	-12.8902
аавзяяа	-12.8903
згадтам	-12.8904
урааг	-12.8904
рахмажагга	-12.8906
арахам	-12.8907
сасам	-12.8907
▁уунага	-12.8912
уваад	-12.8913
аагхар	-12.8914
▁анавадт	-12.8914
алом	-12.8916
▁бамогка	-12.8917
асагаа	-12.8919
яамхам	-12.8921
анаваж	-12.8922
вийрия	-12.8925
самудтаана	-12.8928
▁ануруубад	-12.8931
▁суурияу	-12.8933
▁бадибанна	-12.8934
асамбхаво	-12.8935
▁анабхисамб	-12.8936
▁анувижжа	-12.8941
бабхаа	-12.8943
▁накаа	-12.8945
зссаама	-12.8946
бхаара	-12.8946
▁саннидтаан	-12.8948
аасзд	-12.8951
▁баггамисса	-12.8951
▁ву	-12.8951
▁авигкзбам	-12.8952
идтийхи	-12.8953
агууда	-12.8953
авасамбанно	-12.8954
ибарияаабанн	-12.8956
хораях	-12.8957
хибхаван	-12.8958
аггаб	-12.896
▁логаамис	-12.896
▁319.	-12.8961
▁315.	-12.8961
саммаж	-12.8961
▁виббагин	-12.8961
хиними	-12.8962
▁сугкавибассаг	-12.8962
винаяа	-12.8963
рахад	-12.8963
асахассан	-12.8963
обий	-12.8967
▁убажаарасамаа	-12.8967
▁важжам	-12.8971
алавабхаав	-12.8972
кил	-12.8972
аабхиг	-12.8973
▁аббажжая	-12.8973
▁габбияагаараг	-12.8974
галлоси	-12.8974
▁бадисаллийнасса	-12.8977
▁53	-12.8977
алааний	-12.8979
▁анаамая	-12.898
▁бзм	-12.898
▁анубаб	-12.8981
амбхуу	-12.8983
хавал	-12.8985
▁удтаана	-12.8986
▁уссаннад	-12.8987
аваро	-12.8988
▁чааяааяа	-12.899
▁убасамбаннаа	-12.8993
▁годтаасам	-12.8993
авзлааяа	-12.8995
▁сийласамбанн	-12.8996
▁взнзяяаанам	-12.8997
амаяз	-12.8997
▁хийнзна	-12.8998
▁вилаас	-12.9
▁сзгк	-12.9004
▁самбхинн	-12.9005
▁аннан	-12.9006
бужчаами	-12.9007
▁бавидтаа	-12.9008
▁магки	-12.9009
угажи	-12.901
ужчаад	-12.901
зсамзва	-12.9011
аллаанам	-12.9011
агагкан	-12.9012
арахий	-12.9012
мукаа	-12.9013
сийма	-12.9016
▁авигки	-12.9017
бхамаанам	-12.9018
▁барибхаасан	-12.9019
ваараанам	-12.9021
▁наво	-12.9021
хисамбхаар	-12.9021
▁ахзсун	-12.9021
хаммагамма	-12.9023
▁гааяоби	-12.9024
гхига	-12.9026
ггаран	-12.9027
ийвагам	-12.9028
▁гухаг	-12.9029
▁баара	-12.9029
ибуб	-12.9029
▁парусаая	-12.9031
абхаавааба	-12.9031
амзго	-12.9032
▁сзвзяяа	-12.9032
гулам	-12.9032
▁огки	-12.9033
▁батамаад	-12.9033
игкин	-12.9035
▁буримасса	-12.9036
аабариниб	-12.9036
▁нзвасса	-12.9037
▁бадтаана	-12.9038
▁аридта	-12.9038
▁убаримаг	-12.9038
агижжзсу	-12.9043
гарасса	-12.9044
▁саамигаа	-12.9044
▁ваасса	-12.9047
хзяяо	-12.9048
сагасса	-12.9048
▁наанубаа	-12.905
▁барихааяи	-12.9051
омзн	-12.9053
▁аамисаг	-12.9054
алийгар	-12.9055
▁имамхи	-12.9056
бхзяяа	-12.9062
▁нивзс	-12.9063
▁гзсар	-12.9064
ивассасахассаани	-12.9065
▁сурам	-12.9067
-‘‘	-12.9067
▁65	-12.9068
хабарисаа	-12.9072
▁мзсаа	-12.9072
▁аагаар	-12.9074
▁логаб	-12.9078
ажжааяа	-12.9078
асуб	-12.9079
ариби	-12.9079
▁згаббахаарзнзва	-12.9079
▁376.	-12.908
▁358.	-12.9081
агосам	-12.9081
▁анубхууя	-12.9081
▁авам	-12.9082
▁бажжанийгаогаас	-12.9082
алаабхий	-12.9084
▁згажж	-12.9084
▁ниваари	-12.9085
▁ваажаахи	-12.9087
▁сзв	-12.9087
▁яаажаамий	-12.9087
амаанзхи	-12.9089
▁наанаббагаарам	-12.9089
▁уггодз	-12.9091
абажжаяам	-12.9091
идтисса	-12.9092
▁ажжи	-12.9095
алаггаарзна	-12.9096
амубз	-12.9097
▁сукумаал	-12.9098
анаанубассий	-12.9099
ийгхасса	-12.91
▁саанусаяаа	-12.9101
▁гаммаараб	-12.9103
▁ганидтабхаа	-12.9105
бадиман	-12.9108
асахассз	-12.9109
сийлаа	-12.9109
асиймааяа	-12.9109
▁ваниб	-12.911
асамаана	-12.9115
ханум	-12.9117
бхинна	-12.9118
▁гилзсан	-12.912
хуубан	-12.9123
хованам	-12.9123
▁асаран	-12.9128
▁набхз	-12.9129
аанааний	-12.913
▁саммаг	-12.9131
▁баригкзб	-12.9132
сисса	-12.9132
авибхааса	-12.9133
ийбхи	-12.9136
аанаж	-12.9137
▁винаяасса	-12.9138
игула	-12.9139
▁бияааяи	-12.9142
идтаана	-12.9143
самосаран	-12.9144
▁сагасан	-12.9147
аггамзна	-12.9148
аяаано	-12.9149
▁идтаг	-12.9149
авимаанам	-12.915
угкасажж	-12.915
▁анзгзсу	-12.9153
аяав	-12.9154
абадиббасса	-12.9157
важанад	-12.9158
кобх	-12.9159
▁исим	-12.916
▁субин	-12.9161
▁убар	-12.9162
аабажжаяам	-12.9164
ираг	-12.9164
▁ассара	-12.9169
▁сунаабара	-12.9172
асавассо	-12.9173
жхаажаар	-12.9175
▁жагкуба	-12.9175
звамануссзхи	-12.9176
▁винаяавинижчая	-12.9178
▁сога	-12.9179
▁сав	-12.9179
ахзссаамий	-12.918
▁асури	-12.9182
▁ужчан	-12.9182
▁важанийяаа	-12.9183
хупа	-12.9185
харий	-12.9187
▁бхаяааг	-12.9188
аббзси	-12.9188
асабхаавзна	-12.9189
▁багкам	-12.919
▁агкарам	-12.9191
анаана	-12.9191
▁саарамбх	-12.9192
абуур	-12.9192
убаниссаяабажжая	-12.9193
авихаарзна	-12.9195
▁маабзси	-12.9196
▁обхаасаяам	-12.9199
уубан	-12.92
▁бхаавзяяа	-12.9201
▁асаллийн	-12.9201
хаанусаарий	-12.9202
ахосий	-12.9202
саасамаа	-12.9202
▁399.	-12.9202
▁368.	-12.9203
бхаязна	-12.9203
▁аас	-12.9203
▁махаагаарун	-12.9203
▁292.	-12.9204
▁асаммох	-12.9204
асамужч	-12.9206
аабараа	-12.9206
▁абхисамзжжа	-12.9208
▁амаанус	-12.9208
мусаа	-12.9209
▁босасса	-12.921
▁суугара	-12.9211
анийязсу	-12.9213
▁барихаанааяа	-12.9214
▁маномая	-12.9215
▁аббадигуул	-12.9217
▁гужчим	-12.9218
ассанасам	-12.9219
▁лобхан	-12.922
логад	-12.9221
▁абхун	-12.9222
▁авудти	-12.9223
сигкаа	-12.9224
ухаа	-12.9226
▁сусаанз	-12.9226
удтамаанасо	-12.9228
▁убажаараж	-12.9228
ахуважанан	-12.9232
▁бхааванийяо	-12.9234
яаабид	-12.9235
анага	-12.9235
аасаяо	-12.9237
▁васало	-12.9237
абаабад	-12.9237
аббасад	-12.9238
▁таананис	-12.9247
анак	-12.9247
хабадиб	-12.9247
▁жораг	-12.9247
▁гажчаб	-12.9251
знзвз	-12.9254
▁сивира	-12.9256
▁уббал	-12.9257
▁аруубааважара	-12.9257
▁бахаанад	-12.9258
илод	-12.926
▁саасанан	-12.9263
▁бзсаа	-12.9268
яя	-12.9268
▁ависад	-12.927
▁бадиважанам	-12.9272
ааниссаамий	-12.9272
хагудим	-12.9272
агабаал	-12.9274
руубим	-12.9278
▁руубагаая	-12.9278
▁аяяасса	-12.9279
аабхаав	-12.9279
уссийляам	-12.9282
▁бхигкаажаар	-12.9282
бажжуббанн	-12.9282
▁наанааж	-12.9283
▁убанигки	-12.9285
▁самаарагз	-12.9289
исоязва	-12.929
игхажчаа	-12.9291
▁вигаси	-12.9291
бахуу	-12.9295
хаануб	-12.9296
хуума	-12.9297
▁агкид	-12.93
▁адтзва	-12.9302
▁вимхая	-12.9302
▁бурисаяу	-12.9303
▁асинаа	-12.9304
▁манорамз	-12.9304
хуван	-12.9306
▁бадижчанна	-12.9306
▁гаалагирияаа	-12.9307
руубаани	-12.9307
▁взсияаа	-12.9308
▁асубхз	-12.9309
▁убасамбанн	-12.9312
▁сияу	-12.9314
▁ануссар	-12.9315
▁убажаарз	-12.9315
аалааб	-12.9318
ваажаго	-12.9318
▁мудти	-12.9318
арияаануя	-12.9322
бавидт	-12.9324
▁аарага	-12.9324
▁госаллам	-12.9325
жхагуудз	-12.9325
асагусалагамма	-12.9325
▁395.	-12.9326
▁мохз	-12.9326
▁яамагам	-12.9326
аараж	-12.9327
▁уунабан	-12.9328
апаланиб	-12.9329
аваахо	-12.9329
▁гаамара	-12.933
▁убару	-12.933
▁нийхад	-12.9332
ийвага	-12.9333
▁абарими	-12.9334
▁лажча	-12.9337
яаабз	-12.934
▁бадиниссадта	-12.934
▁сусаан	-12.934
▁саммасанам	-12.9341
идтаасаво	-12.9341
хаббадижчаннааяо	-12.9343
имзсу	-12.9343
▁згийбхаавааяа	-12.9344
агасам	-12.9345
▁мукаса	-12.9352
аббахаанааяа	-12.9356
▁нхаабз	-12.9357
▁сагкар	-12.9357
▁жаггавааг	-12.936
▁ажари	-12.9361
▁ийсагам	-12.9362
▁жараабз	-12.9364
аллигаа	-12.9365
▁гаросий	-12.9366
пассо	-12.9366
госал	-12.9366
авихаара	-12.9367
хаагааяаг	-12.937
▁абхзж	-12.937
знзвасса	-12.937
ибадиб	-12.9372
агуласса	-12.9375
▁нижжал	-12.9375
▁ому	-12.9375
аараамам	-12.9377
▁нхааяи	-12.9377
ийбзяя	-12.9378
▁габод	-12.9378
убарияаабаннаа	-12.9378
▁баванз	-12.938
▁язваабанаг	-12.9381
▁ууми	-12.9382
▁аажарияу	-12.9382
▁баабид	-12.9383
▁висзсаг	-12.9385
яабад	-12.9386
▁мийяа	-12.9386
згасса	-12.9386
▁бааруб	-12.9386
▁вигаббам	-12.9388
▁наязхи	-12.9389
зсанаавилаас	-12.9392
вассуд	-12.9392
анийл	-12.9395
▁жавад	-12.9397
бууд	-12.9398
ияабааж	-12.9399
аалаяам	-12.9399
▁взлаа	-12.94
▁уббалам	-12.9402
аббажжая	-12.9402
аггасавижаарз	-12.9403
▁гинну	-12.9403
асздта	-12.9404
▁винааяаго	-12.9405
вассам	-12.9406
аанубхааво	-12.941
абаригамм	-12.9411
▁аруубаг	-12.9411
авзн	-12.9412
хзнаби	-12.9412
укзна	-12.9413
▁убамаан	-12.9415
▁саммаабадибанн	-12.9416
лзк	-12.9416
асаакаа	-12.9417
ийязва	-12.9417
▁бахийнаани	-12.942
ийсан	-12.9421
▁сзгкам	-12.9424
хугаар	-12.9424
▁ааваад	-12.943
угкамзва	-12.9433
яум	-12.9435
▁омад	-12.9436
ависзсз	-12.9437
▁анусаас	-12.9437
аарига	-12.9441
соманассаж	-12.9441
хибхаавам	-12.9443
яуббад	-12.9443
▁бабхинна	-12.9444
▁ниммал	-12.9447
▁гарзяяам	-12.9447
амахзсий	-12.9448
▁вигааро	-12.9449
▁бужчам	-12.945
муко	-12.9451
▁382.	-12.9451
▁адтигасан	-12.9452
анасукааяа	-12.9453
▁каманийяам	-12.9453
▁ажчарияаб	-12.9453
бхасзяя	-12.9454
анижжад	-12.9455
аббанаа	-12.9456
уубхи	-12.9456
жхамаано	-12.9458
авилаас	-12.9458
ахарагаалз	-12.9459
ияабагга	-12.946
▁сикисса	-12.9461
▁гусалаабхисан	-12.9462
асаасим	-12.9464
хассзва	-12.9466
▁мажчзр	-12.9466
▁абзгкаа	-12.9466
акийн	-12.9467
▁бибаасаа	-12.9468
▁1-4	-12.9469
▁саасаван	-12.9469
▁абхигкуго	-12.9469
▁гхаддзн	-12.947
▁соманассасамба	-12.947
жхохари	-12.9473
▁жир	-12.9474
саммукаа	-12.9474
▁абасса	-12.9474
▁анануб	-12.9475
бадибаадияаа	-12.9479
хисамбанно	-12.9481
▁убасамбаннааяа	-12.9484
хаммабадисам	-12.9485
бхиний	-12.9487
авихаарий	-12.9487
аамаяаа	-12.9488
зсанааяам	-12.9489
аанассзва	-12.9491
агусаласса	-12.9492
агижжан	-12.9494
взраман	-12.9495
▁абхинав	-12.9497
анаамо	-12.9499
▁гааяасмим	-12.9501
ийяамаанз	-12.9502
аарая	-12.9504
▁уггадтам	-12.9505
аасамааба	-12.9507
ваасиг	-12.9507
▁махааяан	-12.9508
▁анаагул	-12.951
илогам	-12.9512
▁има	-12.9513
удтова	-12.9515
▁бхааванаануя	-12.9516
зсагамб	-12.9518
▁сарийраб	-12.9519
▁абхирууб	-12.9521
кяааяа	-12.9523
акил	-12.9524
угаамз	-12.9525
▁сзгка	-12.9526
ижчан	-12.9527
бадижчаннаанам	-12.9527
▁гижжз	-12.953
▁нияяааниго	-12.9531
▁махаагажжаан	-12.9532
▁салаага	-12.9533
▁лобхасаха	-12.9536
▁вааро	-12.9543
асавасс	-12.9545
▁аасаван	-12.9546
▁жорам	-12.9549
▁амануссаа	-12.9551
▁аалогз	-12.9552
асуул	-12.9554
▁баригаббз	-12.9554
зсв	-12.9555
ирий	-12.9556
▁нимма	-12.956
▁52	-12.956
абхисамая	-12.956
абарияаабанно	-12.956
▁хурам	-12.9561
▁гхадзн	-12.9562
вихара	-12.9562
▁вараг	-12.9563
▁виббавас	-12.9565
нисий	-12.9568
▁бавзсзн	-12.9569
илаанзна	-12.9571
▁сажжаваж	-12.9571
▁нисаамз	-12.9572
▁гала	-12.9573
аважана	-12.9573
асигкам	-12.9573
хурасса	-12.9574
▁маяхамби	-12.9574
абило	-12.9575
▁66	-12.9576
▁мийл	-12.9577
▁394.	-12.9578
▁375.	-12.9578
▁373.	-12.9578
▁369.	-12.9578
▁нийлаг	-12.9578
▁гааяаббадиб	-12.9579
▁кома	-12.9582
▁вуяхамаан	-12.9584
▁оримам	-12.9584
ийгхан	-12.9584
▁анувилогз	-12.9584
амбхийрабхаав	-12.9588
▁ниммини	-12.9589
▁гарахажи	-12.9591
хигусало	-12.9591
▁руубаним	-12.9593
ассзвз	-12.9593
аабхинивзсо	-12.9594
ийгхз	-12.9596
аанулом	-12.9597
каж	-12.9598
▁сараами	-12.9599
▁взссабхуу	-12.9599
дтаанз	-12.9599
аггарасса	-12.9605
▁бурисзхи	-12.9605
уллабхад	-12.9606
▁анубасамбаннзна	-12.9607
▁аагаарам	-12.9608
агаарад	-12.9609
▁баваахз	-12.9609
▁саммохави	-12.9609
▁гаалассзва	-12.9609
▁суурия	-12.961
агилзсаанам	-12.9612
исааман	-12.9613
бабхаваа	-12.9615
руумий	-12.9615
аббзна	-12.9616
хаммагаммам	-12.9617
увавад	-12.9618
▁гумааригаа	-12.9622
хагааран	-12.9623
идтиниссая	-12.9625
алигааяа	-12.9629
аасигкаа	-12.9629
▁аббаан	-12.9631
хааязва	-12.9634
хуумам	-12.9636
аманасигааро	-12.9637
самаяз	-12.9637
▁аббадива	-12.964
▁винаязна	-12.9641
▁намаами	-12.9643
▁бавааяа	-12.9644
ийрааг	-12.9645
аахирасса	-12.9645
▁чагга	-12.9646
аагаараа	-12.9646
сирий	-12.9647
ийгхаж	-12.9652
збурз	-12.9654
хаяамаанаа	-12.9654
арийя	-12.9655
аанук	-12.9657
▁бадилома	-12.966
▁сагаг	-12.966
▁абарзби	-12.966
▁сагкибха	-12.9661
▁гаахаами	-12.9662
ияав	-12.9667
аавасса	-12.9667
анаахи	-12.9668
▁барихаанам	-12.9668
сагани	-12.9669
амбхийра	-12.967
▁надтаа	-12.9672
вимаанава	-12.9674
▁ануломабажжаний	-12.9676
▁бзсо	-12.9676
илаанубадтааг	-12.9677
габбад	-12.968
алига	-12.968
▁рассаа	-12.9681
▁згийбхаав	-12.9682
▁барибуурам	-12.9682
▁вали	-12.9683
▁убадтаанасаалаа	-12.9684
уулад	-12.9686
▁бажжаяуббаннад	-12.9687
уллад	-12.9688
хасамбад	-12.9691
▁вирав	-12.9693
чинна	-12.9693
авийм	-12.9695
▁убадтахи	-12.9697
хахзд	-12.9704
асаасанам	-12.9705
▁махаамунз	-12.9705
▁аажигкзяяа	-12.9705
хаммава	-12.9705
барияааяз	-12.9705
аяяз	-12.9706
▁371.	-12.9706
хамаас	-12.9706
абубпаани	-12.9707
▁убадтааси	-12.9707
▁нираяаг	-12.9709
осаад	-12.9709
▁аруубасамааба	-12.9709
расад	-12.971
асаби	-12.971
▁самассаасз	-12.9712
амахзсияаа	-12.9712
▁убанисасамбанн	-12.9714
▁намассаами	-12.9715
вийм	-12.9718
▁вохарийяа	-12.9719
▁саамино	-12.972
▁аббияам	-12.9721
▁баригабби	-12.9722
▁убарибхаа	-12.9723
гижжам	-12.9724
угкубба	-12.9725
бадижчаннааяа	-12.9725
игодияо	-12.9726
▁ааваддо	-12.9728
▁абху	-12.9729
▁вудтаабзяяа	-12.973
▁ийс	-12.973
хийна	-12.973
вийха	-12.9734
аббанам	-12.9737
аанзяяам	-12.9739
угаамам	-12.974
мигасамбарааяига	-12.974
амуулагз	-12.974
игааяаби	-12.974
угавибааг	-12.9741
▁бааважанз	-12.9743
обаалаго	-12.9743
▁бадилаабхад	-12.9743
▁маанусаа	-12.9746
▁гаамабхаваа	-12.9749
ажчум	-12.9751
абариваар	-12.9751
▁саяамбхун	-12.9752
хаабаб	-12.9752
сагун	-12.9764
▁ниссаяабажжая	-12.9765
саавад	-12.9765
▁палаанам	-12.9767
анаамаго	-12.9768
▁логанир	-12.9768
важанзна	-12.9768
киббам	-12.9771
махааж	-12.9774
▁63	-12.9775
▁пусс	-12.9776
кия	-12.9777
игабун	-12.9778
▁гаарая	-12.9779
▁ааваасиго	-12.9779
аруубааважар	-12.9781
▁гаммага	-12.9782
аабанавасзна	-12.9782
▁гумаарибх	-12.9783
авзва	-12.9785
▁можая	-12.9786
игавасзна	-12.9787
ийгхааяугаа	-12.9788
авагаа	-12.9789
уббадиви	-12.979
хогаас	-12.9792
зваган	-12.9792
аругкз	-12.9793
апалаанам	-12.9796
ийгаараахаар	-12.9796
аалагз	-12.9798
▁барижаарз	-12.9798
абаараг	-12.9801
▁гусалавибааг	-12.9802
убасаг	-12.9803
▁баариваасиг	-12.9803
▁банааяасма	-12.9805
▁расаан	-12.9806
амиссам	-12.9807
угаммам	-12.9807
▁алобха	-12.9809
игзра	-12.9809
саахам	-12.9809
ибадтаанзсу	-12.981
суман	-12.9815
аанусаяаа	-12.9816
▁бариссааван	-12.9816
авибаагаа	-12.9819
ажжаяз	-12.9819
▁гааган	-12.982
▁анугамбан	-12.982
▁аасанна	-12.982
▁химаваа	-12.9822
агусалзна	-12.9823
знамхи	-12.9824
хабажжаяаа	-12.9825
хаммаанусаарий	-12.9825
агкаяаа	-12.9825
▁чаггам	-12.9825
▁вижзяяа	-12.9826
▁саммукийбхаавам	-12.9826
хаарага	-12.9826
▁мижчааса	-12.9827
▁сийман	-12.9829
▁аасийс	-12.9829
▁вимало	-12.9831
абарияудтаан	-12.9831
▁сагалз	-12.9833
абхиниб	-12.9833
▁баамогк	-12.9833
хибагкия	-12.9834
▁логасанниваасо	-12.9834
самаахи	-12.9835
анагад	-12.9835
▁аараамава	-12.9837
▁взсаалим	-12.9837
абубпияа	-12.9838
игаахи	-12.9838
▁игаар	-12.9838
▁згамзгасса	-12.984
асийл	-12.984
химужжи	-12.984
игодисахассаан	-12.984
▁вааяу	-12.9841
винижчая	-12.9841
▁вийрияасамаа	-12.9841
ахаси	-12.9841
оган	-12.9842
рахмабаари	-12.9844
абаабагаан	-12.9852
убхуумаг	-12.9853
▁бибааси	-12.9853
урас	-12.9854
аноби	-12.9854
▁бхигкунийнан	-12.9857
▁махаабариваар	-12.9859
хивихааригаа	-12.9861
ирахи	-12.9861
зваасигасса	-12.9862
аасамуд	-12.9865
▁басаннам	-12.9865
▁сукавихаарий	-12.9865
▁сигкамаанаа	-12.9867
варасийл	-12.9867
▁саавасзса	-12.9867
ухан	-12.9869
алзн	-12.9869
исаава	-12.9871
ассанзнаб	-12.9871
сияамаан	-12.9873
ааруубасса	-12.9873
▁парусаваажаа	-12.9873
аабасаа	-12.9874
хиругк	-12.9875
▁баависим	-12.9875
▁анувижари	-12.9876
хассааби	-12.9876
винижчаяо	-12.9877
зсаваарз	-12.9878
нубасан	-12.9879
▁аяяааяа	-12.9879
▁муусиг	-12.9881
▁нивзсз	-12.9881
ажагг	-12.9883
▁махаасаман	-12.9887
▁нас	-12.9891
▁винааяаг	-12.9891
ависзсан	-12.9892
агааяз	-12.9893
игабхаавам	-12.9893
▁убасамбаннз	-12.9895
▁хаани	-12.9896
▁убагаарам	-12.9898
▁махаавийр	-12.99
▁марийжи	-12.99
▁вааяи	-12.9901
▁жзл	-12.9901
▁синзруба	-12.9903
▁самужжаяа	-12.9903
ассанаани	-12.9904
гхагаммам	-12.9904
▁бажчимигааяа	-12.9904
аругара	-12.9904
уубамаах	-12.9905
▁сздтад	-12.9905
зсзми	-12.9905
хая	-12.9906
▁вигкиба	-12.991
анаагаарам	-12.991
авиру	-12.9912
аабасасса	-12.9915
▁жагкусампассо	-12.9916
▁нисиннова	-12.9918
▁56	-12.992
▁барижчиннаа	-12.992
▁хирийяа	-12.9922
▁анарияа	-12.9923
▁махаарахам	-12.9924
аанабан	-12.9925
▁64	-12.9926
зссаамаа	-12.9927
звамаавусо	-12.9929
▁хаасз	-12.9933
▁бажчимааяа	-12.9934
расо	-12.9934
ажаммам	-12.9936
ббавад	-12.9938
▁аабанна	-12.9938
осамох	-12.9942
▁абара	-12.9942
хаяуг	-12.9943
▁самааса	-12.9943
иражчаанав	-12.9944
▁зваахам	-12.9945
хаарзхий	-12.9945
▁анубхааво	-12.9946
хиббааяаа	-12.9948
▁рууха	-12.9952
▁мануссалогам	-12.9956
ибажжаяад	-12.9959
аанзхи	-12.9961
муулам	-12.9961
▁балла	-12.9962
алзкаа	-12.9963
агааяаг	-12.9963
гуудааг	-12.9964
авийрия	-12.9965
▁згаахабариваас	-12.9966
▁бадигажжзва	-12.9966
аабхисамаажаариг	-12.9966
▁кяаа	-12.9967
▁412.	-12.9967
▁411.	-12.9967
▁377.	-12.9967
▁378.	-12.9967
▁385.	-12.9967
▁387.	-12.9967
идтаман	-12.9967
угкаани	-12.9968
▁сираси	-12.9969
авзма	-12.9969
авохаар	-12.997
авибаллаасзна	-12.997
▁саббажжаяаа	-12.997
▁чадтияан	-12.9971
асахааяо	-12.9972
руубасса	-12.9974
▁вибхааваяи	-12.9975
хаарзсса	-12.9976
▁палаж	-12.9977
вихзд	-12.9977
▁бамужжа	-12.9977
▁балога	-12.9977
аарууни	-12.9978
▁асаллагкз	-12.998
▁сиг	-12.9983
хидтаанан	-12.9987
аахираан	-12.9989
▁буримасмим	-12.9989
▁абхаяад	-12.9991
▁абхива	-12.9992
▁васаами	-12.9992
▁убадтахим	-12.9993
руухая	-12.9994
яуухо	-12.9995
химхаа	-12.9995
бажжзгаб	-12.9996
▁ваажзн	-12.9997
ниру	-12.9998
жхаавуд	-13.0001
▁саммаав	-13.0003
▁алобх	-13.0005
▁ужжаа	-13.0006
▁мажжаа	-13.0006
асзнам	-13.0007
уубхаяам	-13.0008
▁голия	-13.0008
аамабхуу	-13.001
▁махаара	-13.0011
уссар	-13.0011
▁сарууб	-13.0013
▁нхааби	-13.0014
▁ноби	-13.0015
▁сириг	-13.0015
▁жхаанаб	-13.0022
бадисам	-13.0023
▁руубагааяа	-13.0029
абажжаяани	-13.003
амаанааби	-13.0033
агаамасам	-13.0035
вал	-13.0035
▁ниггилзс	-13.0036
▁саараг	-13.0036
абаалани	-13.0038
▁самаанаж	-13.0038
▁вааяами	-13.0041
абхавасам	-13.0043
▁абхиви	-13.0048
▁расзсу	-13.005
.6.	-13.0051
аарийса	-13.0051
.7.	-13.0051
▁луукам	-13.0053
▁паладт	-13.0054
▁абавид	-13.0054
▁годим	-13.0055
ивасзязва	-13.006
аасзвана	-13.0061
яяум	-13.0061
авасзс	-13.0064
▁бул	-13.0067
▁гаммамзва	-13.0067
▁удтахан	-13.0069
абадилаабхам	-13.007
▁барибуураа	-13.0071
▁винижчаяз	-13.0071
▁агхад	-13.0073
авинаас	-13.0074
аббабхаа	-13.0075
асуугар	-13.0076
хаммабхуу	-13.0077
аравибааг	-13.0078
▁батамабаад	-13.0079
наамагам	-13.0079
▁чиннам	-13.008
аабариж	-13.0081
аваажий	-13.0081
▁гаяирамаан	-13.0081
▁гаммабхав	-13.0083
▁лаабхасаггаара	-13.0085
збхуумаг	-13.0086
ббабхз	-13.0087
ийгхаад	-13.0089
угужчим	-13.0092
▁агуд	-13.0093
аггамо	-13.0095
▁обхаасад	-13.0096
▁наббад	-13.0097
ияаарубб	-13.0097
анигуудзна	-13.0099
▁урувзлагассаб	-13.01
хаммзхий	-13.01
▁гаараабзяяа	-13.01
▁384.	-13.0101
▁389.	-13.0101
баарамибба	-13.0101
асарийрам	-13.0103
▁убхаяамб	-13.0106
иваасино	-13.0107
агугкзб	-13.0107
▁маллигаа	-13.0107
асаган	-13.0108
▁авагга	-13.0109
авийрияам	-13.011
▁аахаарадт	-13.011
званигаая	-13.0111
▁аанаабаан	-13.0112
авзлааяам	-13.0112
▁чуба	-13.0113
▁самуб	-13.0114
▁мала	-13.0115
жорам	-13.0116
аравад	-13.0117
▁муяхан	-13.0119
▁гуханава	-13.0119
▁буримз	-13.0124
хууби	-13.0125
▁бхуумий	-13.0126
▁сасур	-13.0128
абубпа	-13.0128
арагки	-13.0128
абариязсан	-13.0129
уубанис	-13.013
висзсан	-13.013
аяяа	-13.0132
алахад	-13.0132
▁саманнаахари	-13.0133
имахаа	-13.0134
▁арияан	-13.0134
▁балаал	-13.0134
угкасмаа	-13.0134
▁ваарзсу	-13.0135
▁рагкаа	-13.0136
▁усабхо	-13.0136
▁взрий	-13.0136
▁сукзнзва	-13.0137
идтзсу	-13.0138
▁кийяз	-13.0138
▁ануббанн	-13.014
хаарзси	-13.014
▁банааха	-13.014
убарияаабанно	-13.0141
▁аахараа	-13.0141
асамааяо	-13.0145
уггарагаарига	-13.0145
▁ужжам	-13.0146
рахмажаарим	-13.0147
гилидтасса	-13.0149
▁махзсид	-13.0151
ияигаа	-13.0151
уссийля	-13.0151
▁баабабхигку	-13.0156
▁рамисса	-13.0162
▁бияабу	-13.0162
абаарибуурияаа	-13.0165
▁габи	-13.0165
▁аажар	-13.0165
▁вахид	-13.0167
▁аманааб	-13.0169
▁агаммаг	-13.0169
▁гаммааяа	-13.017
зрзсу	-13.017
▁аббадижчаннааяа	-13.017
гааси	-13.0172
вохааро	-13.0172
▁руубим	-13.0174
▁гаарага	-13.0175
ибадтаанас	-13.0181
▁аббанааб	-13.0181
▁сзсзхи	-13.0181
▁маарзн	-13.0182
▁убавуд	-13.0182
▁саллаба	-13.0182
аббааяа	-13.0183
исвааби	-13.0185
▁агки	-13.0188
▁гилзсасса	-13.0188
ахугаараа	-13.019
▁ваагяз	-13.019
габбаг	-13.0192
ияабхаа	-13.0192
взр	-13.0192
агкаг	-13.0193
▁гаананз	-13.0194
зсабхуу	-13.0194
улааяа	-13.0194
▁виссагамм	-13.0196
▁нийлуббал	-13.0196
▁аабаннам	-13.0201
▁саннижи	-13.0201
кяа	-13.0201
авассо	-13.0207
алоби	-13.0207
▁винижчини	-13.0207
анасамбаннаа	-13.0209
▁сийвали	-13.0209
уулаа	-13.021
▁махияаа	-13.0212
бхаажигкан	-13.0217
▁баанийя	-13.0221
ааруубзна	-13.0222
хидтаанасамуд	-13.0224
▁нааахаарабажжая	-13.0224
▁асамаана	-13.0224
асум	-13.0226
асагга	-13.0228
вараад	-13.0229
▁абассая	-13.0229
аабзна	-13.023
▁урувзл	-13.0233
▁багкибзяяа	-13.0236
знубааязна	-13.0236
▁413.	-13.0236
гхудт	-13.0236
▁379.	-13.0236
▁391.	-13.0236
сара	-13.0237
▁сампаббалаабо	-13.0238
агаммаанам	-13.0238
арадта	-13.0239
идтаж	-13.0239
хувас	-13.0241
бажжзсса	-13.0241
▁логас	-13.0241
хаммажагкум	-13.0241
▁адтамаа	-13.0242
▁гзжимз	-13.0242
уухан	-13.0243
ибхаво	-13.0244
▁бадиббассамбхан	-13.0245
ассин	-13.0245
гаваг	-13.0245
▁анзгаг	-13.0246
арагуру	-13.0246
▁ниссадо	-13.0248
усажжам	-13.0249
сагууд	-13.0249
хажагкунаа	-13.0251
гура	-13.0253
▁амум	-13.0254
исаахи	-13.0254
асигз	-13.0255
угкасс	-13.0255
бхарз	-13.0256
саммаа	-13.0256
мижча	-13.0256
исабхаава	-13.0256
уубаггилзсз	-13.0257
осажари	-13.0257
▁агусаласан	-13.0257
яавад	-13.0259
аавагаалиг	-13.0262
▁бариссам	-13.0263
▁жирзна	-13.0264
▁ругкамуулаг	-13.0264
агаара	-13.0266
ийбага	-13.0266
хиган	-13.0267
▁асаггажжа	-13.027
хибуб	-13.027
▁барабхан	-13.027
абаабасса	-13.0272
жабийтаа	-13.0272
сугуулиго	-13.0273
улияаа	-13.0275
▁ломаани	-13.0276
аяаамий	-13.0277
иггамааяа	-13.0277
лога	-13.0278
убадти	-13.0278
▁собханаа	-13.0279
игова	-13.028
▁сукаббад	-13.028
аамзсу	-13.028
▁самуухан	-13.0283
охамасми	-13.0284
ожарааяа	-13.0284
авасанаа	-13.0284
▁аанубхаав	-13.0286
амаанова	-13.0288
▁яидтам	-13.0288
ваасзна	-13.0289
хамаанаа	-13.029
▁гижжан	-13.0293
анагижжам	-13.0293
бууран	-13.0294
аанавад	-13.0294
взмаа	-13.0294
▁баависий	-13.0296
анаган	-13.0296
▁бхийру	-13.0299
▁гамала	-13.0299
аабанзна	-13.0302
▁нараанам	-13.0303
хигаарам	-13.0305
араабхаво	-13.0306
аанийяа	-13.0307
▁могк	-13.0307
асаарубб	-13.0313
▁гадугаа	-13.0316
авха	-13.0316
▁бхзри	-13.0317
уббанна	-13.0317
▁мура	-13.0318
▁висидтам	-13.0319
агзнаби	-13.032
▁бажчаасаман	-13.0323
ийбанияаа	-13.0324
▁гогил	-13.0324
▁абажжа	-13.0327
▁яосу	-13.033
▁жирага	-13.0331
вохаар	-13.0334
▁вимогкам	-13.0335
бхаман	-13.0336
улим	-13.0339
▁огааран	-13.034
вим	-13.0342
▁буув	-13.0342
▁барихийно	-13.0343
хисамбад	-13.0344
уббамаан	-13.0346
▁нижчи	-13.0347
ббабху	-13.0347
зваго	-13.0348
▁бхаас	-13.0349
▁бадиссав	-13.035
укаа	-13.0351
мука	-13.0351
▁аннзна	-13.0353
▁самбаннаа	-13.0354
▁аббияаа	-13.0355
аварад	-13.0357
▁57	-13.0357
ийяамаанам	-13.0359
асамбхавам	-13.0361
▁массу	-13.0363
аавасзсам	-13.0365
авинаяо	-13.0367
▁госзяяа	-13.0367
агумаарасса	-13.0367
хаммала	-13.0367
▁лаван	-13.0368
аяиссам	-13.0369
авасзнааби	-13.0369
аббадибагка	-13.037
бхигкуний	-13.037
анияаамо	-13.0371
габбияа	-13.0371
абатама	-13.0371
▁гасирзна	-13.0371
▁суггамуулзна	-13.0371
баривз	-13.0372
▁саяанаасанам	-13.0372
▁454.	-13.0372
▁416.	-13.0373
▁392.	-13.0373
▁397.	-13.0373
▁383.	-13.0373
яаамам	-13.0379
▁барияааяз	-13.0379
▁гхора	-13.038
▁гаагаа	-13.038
▁абариму	-13.038
▁навагаммам	-13.0383
▁абариб	-13.0383
ийвз	-13.0386
▁асигки	-13.0389
▁висзса	-13.0389
▁убхаяаб	-13.0391
▁убааяаас	-13.0391
ааруубаа	-13.0391
▁адтин	-13.0393
▁гассаг	-13.0393
▁габбаругк	-13.0394
абулли	-13.0395
▁авиная	-13.0396
▁адтамий	-13.0397
апалзхи	-13.0398
арасз	-13.04
бадижжасамуббанн	-13.04
▁лабхиссаами	-13.0401
▁удтаа	-13.0401
▁вигир	-13.0402
▁бхуви	-13.0402
▁бадигасси	-13.0404
▁арима	-13.0404
абагкиг	-13.0405
иггама	-13.0406
▁анавасзс	-13.0408
▁гусалагаммаба	-13.0408
ияаана	-13.0409
асарийраа	-13.0409
ийбаго	-13.041
асахассамби	-13.0411
гааяам	-13.0412
▁бадилаабхзна	-13.0412
▁саббажжаяо	-13.0413
асахассзна	-13.0414
ирзго	-13.0414
▁мохад	-13.0415
абхибхуу	-13.0416
▁вигамба	-13.0416
бажчимз	-13.0418
▁вааринаа	-13.042
▁нахааяи	-13.0424
зсанад	-13.0424
гамзна	-13.0426
зсанаахаар	-13.0429
▁анваассавзяяу	-13.043
арагабб	-13.043
асийсо	-13.0431
▁саака	-13.0434
ивисаяз	-13.0434
▁гобо	-13.0434
игаараг	-13.0435
▁сзлаа	-13.0436
▁аббаж	-13.0437
амаанабан	-13.0437
▁бараггама	-13.0437
хаммабаала	-13.0438
хаанаани	-13.0438
апалага	-13.0438
бхуумийсу	-13.0439
ибадтаанабхаав	-13.0441
▁табзсий	-13.0442
убасамбанна	-13.0444
▁симб	-13.0446
рахмажаарино	-13.0447
▁убзгк	-13.0448
аалзхи	-13.0448
▁руубабхавз	-13.0449
бахийнаа	-13.0452
ибаарам	-13.0453
усамб	-13.0456
▁гамманияз	-13.0459
▁бажчимаг	-13.0459
агаббз	-13.046
баагад	-13.046
алигз	-13.0461
вохаарам	-13.0462
гаасо	-13.0462
хигаад	-13.0462
яамо	-13.0464
анаабужчаа	-13.0466
бадибаад	-13.0466
▁бахаанан	-13.0472
аавагаалигам	-13.0473
аахусажж	-13.0474
▁аридт	-13.0474
▁гогаалиго	-13.0474
усабхаа	-13.0474
▁баримужжан	-13.0475
асахаагаарзхи	-13.0476
авибаллаасо	-13.0477
▁ваммиг	-13.048
звамби	-13.0483
урууба	-13.0485
▁взважанаани	-13.0485
▁абааяз	-13.0486
▁ваажасигам	-13.0486
гхабур	-13.0486
▁маяааби	-13.0488
аамагам	-13.0488
▁барижчиннам	-13.049
ибунаб	-13.0492
▁балааб	-13.0492
ийяагаммам	-13.0494
асамаасо	-13.0495
▁барияудти	-13.0496
асааруббас	-13.0496
▁мохажари	-13.0496
▁мунаяо	-13.0496
раасий	-13.0498
яагка	-13.0498
▁абажжагк	-13.0498
▁нзсо	-13.0498
▁58	-13.0499
▁гужчисми	-13.05
▁нигк	-13.0502
▁самаас	-13.0503
ийвим	-13.0504
гааяз	-13.0504
осавасзна	-13.0505
▁сагааран	-13.0506
▁анубаж	-13.0507
▁гааяаваажаахи	-13.0509
мяааяам	-13.051
▁ааяугкая	-13.051
▁гааяаважиймано	-13.0511
▁гаахижи	-13.0511
бубпам	-13.0511
исохамасмий	-13.0511
▁абхинивидт	-13.0511
▁згажжас	-13.0511
абхаб	-13.0511
▁386.	-13.0512
▁398.	-13.0512
▁асаахасзна	-13.0512
▁саннаяхи	-13.0512
▁бажжаами	-13.0513
▁махаавихаарз	-13.0516
▁сагадаса	-13.0518
▁аасанаани	-13.0518
▁сабхааваниру	-13.0518
▁сампаббалааб	-13.0519
амуулаани	-13.0521
▁баримук	-13.0522
баараг	-13.0522
яая	-13.0523
▁асаббааяам	-13.0524
удтаана	-13.0528
аллаанасса	-13.0529
▁саая	-13.0529
ияаами	-13.053
асууб	-13.053
иббагаар	-13.053
▁ажжааяиг	-13.053
зсзсса	-13.053
▁нижчаарз	-13.0533
имукзна	-13.0536
аажариязна	-13.0537
вивз	-13.0537
▁логасамм	-13.0538
▁авахари	-13.0539
руубасан	-13.0541
▁убаасагзна	-13.0542
ууран	-13.0546
аамаяа	-13.0546
авая	-13.0546
▁гусалабагк	-13.0548
имаяам	-13.0549
▁гусалаагусалз	-13.055
▁нзгкаммас	-13.0552
бураан	-13.0554
самудтаанам	-13.0554
злаг	-13.0555
▁авасидт	-13.0557
▁виварам	-13.0557
▁маасаанам	-13.0559
▁анияамад	-13.056
апулл	-13.0561
бажчим	-13.0561
▁згабан	-13.0561
сийса	-13.0563
аарамбхо	-13.0563
▁рагаар	-13.0564
▁бадигхан	-13.0567
ижчзяяа	-13.0567
▁абаагад	-13.0568
кз	-13.0568
бхийд	-13.0569
▁агаббияз	-13.0569
▁нзгкаммасан	-13.0569
охал	-13.0571
вижинан	-13.0571
▁бараамадт	-13.0572
▁самаанаг	-13.0573
амадтам	-13.0574
▁анабзгки	-13.0576
анусая	-13.0576
аанурагкан	-13.0576
▁абхинибпа	-13.0577
аагусала	-13.0581
ахаами	-13.0581
▁бавараа	-13.0581
[...]
