<unk>	0
<s>	0
</s>	0
‍	-2.91058
,	-3.02003
।	-3.03953
.	-4.04492
ति	-4.14194
ं	-4.2748
▁‘‘	-4.36097
▁	-4.56089
’’	-4.61645
▁न	-4.68296
▁च	-4.68517
च	-4.72665
ो	-4.96577
ा	-4.96606
▁वा	-5.08707
ञ्	-5.1241
न्ति	-5.16452
॥	-5.16873
े	-5.20913
स्स	-5.28145
्	-5.28499
▁–	-5.35593
▁होति	-5.63057
▁पन	-5.6458
ेन	-5.77052
▁तं	-5.77735
?	-5.7846
▁पञ्	-5.78844
▁पच्	-5.84896
पे॰	-5.85205
नं	-5.86651
▁तत्थ	-5.89024
न	-5.98331
▁सो	-5.99448
▁अ	-5.99902
▁एवं	-6.02255
पि	-6.05687
पच्	-6.06318
▁नाम	-6.09691
▁खो	-6.10003
▁उप्पज	-6.105
-	-6.1267
तो	-6.14494
▁अञ्	-6.17634
▁भिक्खवे	-6.22018
▁ते	-6.24118
’	-6.25573
▁तस्स	-6.25894
जति	-6.32098
▁हि	-6.36284
चया	-6.39789
▁वुत्तं	-6.4831
व	-6.49845
ानि	-6.50742
ाति	-6.53814
चयो	-6.54475
ेहि	-6.56494
ानं	-6.57377
▁अत्थो	-6.57552
नो	-6.64499
▁‘	-6.66296
;	-6.66419
ञा	-6.67648
▁धम्मा	-6.69955
▁स	-6.70101
▁धम्मो	-6.71612
▁मे	-6.73095
ना	-6.73462
▁तेसं	-6.73597
▁धम्मं	-6.7536
▁पटिच्	-6.75515
ेसु	-6.76121
▁अयं	-6.78952
▁यथा	-6.78958
ज	-6.80089
▁तेन	-6.80091
क	-6.81115
वसेन	-6.82728
चयेन	-6.84914
▁विय	-6.85044
▁यं	-6.86136
को	-6.89284
▁भिक्खु	-6.91124
▁यो	-6.91335
ाय	-6.91544
▁वुच्	-6.93587
▁एकं	-6.94768
ि	-6.94936
▁नो	-6.95436
▁द्वे	-6.95543
▁कत्वा	-6.96537
▁अथ	-6.97055
▁एत्थ	-6.98333
▁आह	-7.01575
▁तस्मा	-7.024
▁तथा	-7.02741
▁भन्ते	-7.04286
कं	-7.05024
▁इदं	-7.0517
▁भगवा	-7.05614
▁ततो	-7.06679
त्ता	-7.10301
म्पि	-7.11777
सञ्	-7.12042
▁तीणि	-7.12285
ता	-7.12494
ञं	-7.12971
▁विञ्	-7.14918
का	-7.15851
ी	-7.16913
▁अत्थि	-7.18014
ादि	-7.18153
न्	-7.18553
▁सञ्	-7.18987
▁अत्तनो	-7.19774
ञ	-7.1981
पज्	-7.19898
येव	-7.20538
▁।	-7.22028
य	-7.23462
चति	-7.25048
▁आ	-7.25341
▁सा	-7.25371
मेव	-7.26879
चं	-7.27828
▁इध	-7.29166
▁यस्स	-7.29687
▁सक्	-7.31623
▁चित्तं	-7.31721
▁हेतुपच्	-7.32669
सु	-7.34082
▁नत्थि	-7.34738
▁ये	-7.35499
▁नव	-7.35737
पञ्	-7.37241
या	-7.38857
▁तस्मिं	-7.39279
▁होन्ति	-7.39926
यो	-7.42993
▁इति	-7.43173
▁एव	-7.43307
चि	-7.4354
▁सत्त	-7.4509
▁निट्ठिता	-7.46322
▁भिक्खू	-7.46868
ञो	-7.47264
म	-7.47383
▁पटि	-7.48026
ज्	-7.48682
हि	-7.50411
▁प	-7.51305
ने	-7.52588
यं	-7.53023
▁किं	-7.53569
ोति	-7.53864
अ	-7.54761
▁महा	-7.56115
म्हि	-7.56372
ञाय	-7.56641
▁चेव	-7.56888
तिआदि	-7.57403
▁उप	-7.57636
ताय	-7.57842
तीति	-7.59339
जा	-7.59922
▁भगवतो	-7.60053
▁धम्मस्स	-7.60233
सि	-7.62378
▁दुक्	-7.63388
▁रूपं	-7.63602
▁आपत्ति	-7.63843
वितक्	-7.6482
▁हुत्वा	-7.65592
तं	-7.65767
▁या	-7.66227
▁वि	-7.69901
▁सब्ब	-7.7025
ेति	-7.70419
▁यत्थ	-7.70795
▁खन्धा	-7.70985
▁एक	-7.70985
▁इमिना	-7.71394
▁सच्	-7.71647
▁आमन्ता	-7.71789
▁इमे	-7.74191
जं	-7.75392
▁समन्	-7.75814
सच्	-7.76405
स	-7.76925
ेय्य	-7.77176
▁इमं	-7.78183
▁नहेतु	-7.78631
▁सु	-7.80489
▁दिस्वा	-7.80536
▁किञ्	-7.81053
▁अहोसि	-7.81141
▁सद्धिं	-7.81638
▁येन	-7.81937
▁राजा	-7.8216
▁धम्म	-7.8225
▁उप्पन	-7.82315
▁अहं	-7.82758
▁कथं	-7.83195
▁होतीति	-7.83222
▁त्वं	-7.84228
▁पुन	-7.86057
▁हेतु	-7.8638
▁तदा	-7.86556
सम्पन्	-7.87219
▁आवुसो	-7.87514
▁तयो	-7.87644
▁परि	-7.87726
▁सिया	-7.87918
▁मं	-7.87936
▁नु	-7.88356
जन्ति	-7.89543
न्तो	-7.89845
ित्वा	-7.89881
चय	-7.90538
▁अविज्	-7.9062
ञाणं	-7.91176
▁विज्	-7.91601
नि	-7.918
▁कम्म	-7.91846
▁अनु	-7.91917
▁पुञ्	-7.91917
▁मम	-7.92227
▁सचे	-7.92346
▁गहेत्वा	-7.92809
▁छ	-7.92865
प	-7.93233
▁१	-7.93641
ल	-7.93851
▁भगवता	-7.95215
▁एको	-7.95253
▁मञ्	-7.95716
च्	-7.9593
▁सति	-7.96068
▁इदानि	-7.96808
ञे	-7.96843
सुत्तं	-7.9745
▁सत्था	-7.98697
ादीसु	-8.01364
सुत्तवण्णना	-8.01459
▁मा	-8.01493
▁पुग्गलो	-8.03195
▁सह	-8.03483
▁विहरति	-8.04348
▁सुत्वा	-8.04831
▁सब्बं	-8.04953
▁कतं	-8.05717
जन	-8.06079
ञम	-8.06141
▁महाराज	-8.06328
▁आरम्मण	-8.06329
के	-8.06357
▁अन	-8.07211
▁यस्मा	-8.07712
ादीनं	-8.07895
चेव	-8.08115
▁चत्तारो	-8.08852
▁ताव	-8.09214
सो	-8.10151
िसिन्	-8.10312
ते	-8.10372
क्	-8.10928
मा	-8.11195
▁तेनाह	-8.12655
▁दुक्ख	-8.12682
▁अट्ठ	-8.12846
ती	-8.1377
▁दस्सेति	-8.13997
▁लोके	-8.14098
सद्दो	-8.14251
▁वत्वा	-8.14299
▁वेदना	-8.14495
▁सब्बे	-8.14719
▁आरब्भ	-8.14812
वि	-8.1572
िका	-8.15959
तिआदिना	-8.16299
कथा	-8.16598
▁पठमं	-8.1666
▁नेव	-8.16731
▁चत्तारि	-8.16886
ञाण	-8.17151
ादयो	-8.17513
▁खन्धे	-8.176
▁योजना	-8.176
भावं	-8.17611
▁समये	-8.18165
▁चे	-8.18195
▁वट्टति	-8.1824
वज्	-8.18636
▁अनिच्	-8.18953
▁पुब्बे	-8.1919
भावेन	-8.19217
ड्	-8.19291
▁एतं	-8.19295
ुप्पन्	-8.19401
जिस्सति	-8.1949
▁सन्	-8.19985
▁करोति	-8.2015
▁गन्त्वा	-8.20322
▁वत्तब्बे	-8.20712
भुञ्	-8.20936
▁चित्त	-8.21211
ेत्वा	-8.21441
त्थ	-8.22084
▁को	-8.22373
▁वत्थु	-8.22384
▁वेदितब्बो	-8.22402
▁भिक्खुनो	-8.22619
▁वुत्ता	-8.22765
▁किर	-8.22941
▁रञ्	-8.23109
▁मग्ग	-8.23233
नस्स	-8.23446
विञ्	-8.23465
त	-8.23725
▁नयो	-8.23827
▁मया	-8.24491
▁ठपेत्वा	-8.24688
नागतो	-8.24705
भावो	-8.24724
▁दस	-8.25378
ु	-8.25505
▁भो	-8.25994
▁कम्मं	-8.26534
▁२	-8.26756
▁इमस्मिं	-8.26907
तु	-8.26993
ादीहि	-8.27138
▁सन्धाय	-8.28114
वा	-8.28494
चा	-8.28797
ापि	-8.29393
▁परं	-8.29654
▁आयस्मा	-8.29702
▁विस्सज	-8.29748
▁क	-8.30146
▁दुक्खं	-8.30336
▁मय्हं	-8.31398
▁धम्मे	-8.32815
ञत्ति	-8.32877
▁अस्स	-8.33009
▁दिट्ठि	-8.33494
▁चाति	-8.33771
किच्	-8.33856
▁तण्हा	-8.33959
७	-8.34287
▁याव	-8.34337
स्मिं	-8.34551
पन्	-8.34563
ानीति	-8.34734
▁तु	-8.34775
काले	-8.35132
▁भगवन्तं	-8.35301
▁सम	-8.35894
▁अभिञ्	-8.36504
▁वत	-8.36596
▁इतो	-8.36819
▁गच्छति	-8.37764
▁सम्बन्धो	-8.37896
कम्म	-8.37956
ीति	-8.38126
▁दस्सेतुं	-8.38492
ल्	-8.38732
▁रूप	-8.39422
▁वुत्तो	-8.39676
ादीनि	-8.39807
▁अत्थ	-8.40041
▁थेरो	-8.40441
वग्गो	-8.41289
▁नि	-8.41305
जित्वा	-8.41393
▁सम्मा	-8.41585
▁पक्	-8.41836
▁वदन्ति	-8.4225
थ	-8.42995
चे	-8.4311
▁इच्	-8.43657
▁वेदितब्बं	-8.43787
धम्म	-8.44522
▁देव	-8.44533
िं	-8.44654
▁वितक्	-8.44789
▁यदि	-8.45045
▁निच्	-8.45107
▁उपपज	-8.45119
▁जानाति	-8.45262
▁पठम	-8.45894
त्थं	-8.46143
६	-8.46311
▁बुद्ध	-8.46357
▁तस्सा	-8.46399
▁वचनं	-8.46418
▁दस्सेन्तो	-8.46831
▁चक्	-8.47181
िता	-8.47265
ुप्पज्	-8.47272
ेनाति	-8.47346
चो	-8.47508
▁फलं	-8.47616
त्थाय	-8.47624
ये	-8.47678
▁खन्धानं	-8.47744
कस्स	-8.4777
▁तेसु	-8.48461
▁झानं	-8.48516
वण्णना	-8.48534
४	-8.48844
भाव	-8.48954
३	-8.49132
िंसु	-8.49505
▁हेतुया	-8.49539
▁जाति	-8.4981
ितो	-8.49959
▁केचि	-8.50069
ित	-8.50089
▁चित्तस्स	-8.50172
▁ञाणं	-8.50244
९	-8.50477
जना	-8.5062
▁वसेन	-8.50646
▁भव	-8.51179
कटं	-8.51364
▁राज	-8.51718
▁३	-8.52191
चादि	-8.52283
५	-8.52365
जतीति	-8.53148
ट्ठेन	-8.53247
▁वेदितब्बा	-8.53329
▁काम	-8.5345
▁दिन्	-8.53498
▁हेट्ठा	-8.53717
भावतो	-8.53846
▁अन्तो	-8.54246
२	-8.54408
▁कस्मा	-8.54494
िया	-8.54786
१	-8.54813
▁वड	-8.5513
▁वो	-8.55311
सा	-8.55362
▁सुखं	-8.55365
▁सङ्घो	-8.55409
न्तीति	-8.55439
िय	-8.55518
ितं	-8.55669
▁पट्ठाय	-8.55707
▁कुसला	-8.55948
▁एस	-8.5613
▁ब्राह्मण	-8.56217
▁फल	-8.56276
▁आदि	-8.56884
▁समा	-8.57128
▁हेवं	-8.57233
▁भिक्खूनं	-8.5744
▁एकच्	-8.57569
हं	-8.57888
ितुं	-8.58012
▁भविस्सति	-8.58212
▁अधिप्पायो	-8.58507
ेनेव	-8.58972
जित्थ	-8.58977
▁सत्ता	-8.59155
८	-8.59577
▁बुद्धो	-8.59612
▁अच्	-8.59623
▁कतमे	-8.59727
हेतु	-8.60118
▁तानि	-8.60482
▁समयेन	-8.60802
▁सब्बत्थ	-8.60929
ेव	-8.611
नन्ति	-8.61459
▁वुत्त	-8.61524
▁रज्	-8.61577
▁पुरिसो	-8.61818
▁४	-8.62053
▁तेहि	-8.62162
▁अतिक्	-8.62392
▁पर	-8.62492
▁तत्र	-8.62839
▁७	-8.63404
▁अभि	-8.63607
▁दुतिय	-8.63684
सं	-8.63717
न्ता	-8.63745
▁पच्छा	-8.63782
▁पुच्छा	-8.6416
▁उपसङ्कमित्वा	-8.64166
जि	-8.64293
ेपि	-8.6448
▁एतदवोच	-8.64493
▁कत	-8.64611
▁एवमेव	-8.65575
▁वेदनाय	-8.65648
कथावण्णना	-8.65708
नञ्	-8.65758
सिक्खापदवण्णना	-8.65846
िक	-8.65846
ञी	-8.66005
▁उक्	-8.66164
अयं	-8.67598
▁होती	-8.67603
▁कुसलं	-8.67615
▁तव	-8.67616
▁निस्साय	-8.67635
▁अनापत्ति	-8.67706
▁सेसं	-8.68025
मानो	-8.68036
▁चतु	-8.68038
▁बुद्धस्स	-8.68374
▁सुख	-8.68515
▁दत्वा	-8.6869
▁सन्तिके	-8.68697
रूप	-8.68737
▁इमस्स	-8.68746
▁दानं	-8.68792
▁ओ	-8.69021
▁वुत्ते	-8.69157
नेन	-8.69206
▁अति	-8.69211
▁एसेव	-8.69377
▁‘‘‘	-8.69546
लं	-8.69622
▁इमा	-8.69629
त्तं	-8.69901
▁तथागतो	-8.70103
मञ्	-8.70179
न्तस्स	-8.7026
▁पस्सति	-8.7027
▁अत्तना	-8.70694
ामि	-8.70756
▁एकमन्तं	-8.70905
ह	-8.71348
▁अप्प	-8.71398
▁५	-8.71697
▁उपनिस्सय	-8.71999
त्त	-8.72094
▁मग्गो	-8.72157
▁कोचि	-8.72387
रञ्	-8.72416
ेसि	-8.72421
▁ञाण	-8.72518
▁सील	-8.73
▁अत्थं	-8.73584
वत्थु	-8.7393
▁अव	-8.74019
एवं	-8.7413
▁मनो	-8.74441
▁अनुप	-8.74461
▁त	-8.74582
तिआदीसु	-8.74677
▁समाधि	-8.74939
▁ब्राह्मणो	-8.75238
▁उपसम्प	-8.75424
▁८	-8.75842
▁ता	-8.76006
▁आरम्मणे	-8.76034
सद्देन	-8.76081
▁सयं	-8.7614
त्थो	-8.76305
ञत्तं	-8.76396
▁वदति	-8.76459
▁अत्तानं	-8.77116
किं	-8.77172
सन्	-8.77321
केन	-8.7738
▁अनन्तर	-8.77425
▁अकुसला	-8.77437
▁६	-8.77466
▁धम्मेहि	-8.77592
▁उपरि	-8.77596
▁निब्बानं	-8.77651
▁९	-8.78321
▁यतो	-8.78826
▁धम्मानं	-8.79526
▁गाथा	-8.79946
अञ्	-8.80076
▁द्विन्	-8.80082
▁१०	-8.80479
▁काय	-8.80497
म्हा	-8.80631
ट्ठाने	-8.80672
▁मयं	-8.80748
▁आनन्द	-8.80838
र	-8.80911
▁चीवरं	-8.81044
▁पत्त	-8.81152
▁असञ्	-8.81196
भि	-8.81303
तिआदिमाह	-8.81729
▁एते	-8.81742
▁साधु	-8.82158
▁मग्गं	-8.82737
▁देति	-8.82763
कम	-8.82951
कञ्	-8.83075
▁धम्मेसु	-8.83538
▁नाना	-8.83639
▁ञत्वा	-8.83678
स्साति	-8.83989
नतो	-8.84025
▁खन्ध	-8.84029
▁तञ्	-8.84292
▁भिक्खुना	-8.84321
▁नयेन	-8.84575
▁इमानि	-8.84638
काय	-8.84751
प्प	-8.84767
▁पब्बज	-8.85004
▁किच्	-8.85193
▁इमेहि	-8.85605
▁बहु	-8.85788
▁सुञ्	-8.8581
द	-8.85916
न्ती	-8.86397
चित्त	-8.86807
▁दट्ठब्बं	-8.86974
ाव	-8.87315
चन्ति	-8.87868
दिन्	-8.8806
जो	-8.88206
ेतीति	-8.88307
▁ठानं	-8.88407
▁सल्	-8.88418
स्सेव	-8.88793
▁पहाय	-8.88812
▁वे	-8.88954
▁यञ्	-8.88971
▁पजानाति	-8.89069
▁एका	-8.89163
▁पाप	-8.89267
▁झान	-8.89287
▁साम	-8.89299
▁ठितो	-8.89308
▁पद	-8.89469
▁विना	-8.89476
▁दुतियं	-8.89509
▁ताय	-8.8958
कार	-8.89695
▁काले	-8.89782
▁पुब्ब	-8.89953
▁पटिसन्धिक्खणे	-8.89958
ट्ठानं	-8.90262
िको	-8.90269
▁सङ्घस्स	-8.90313
ट्ठ	-8.90324
▁चेतना	-8.90403
▁अरिय	-8.90633
▁अधिपति	-8.90827
ण	-8.90925
ञेन	-8.91265
▁उद्धच्	-8.91642
▁सासनं	-8.91777
▁वत्तब्बं	-8.91807
▁यथाभूतं	-8.91911
परि	-8.9197
▁कायस्स	-8.91994
▁व	-8.92285
ेतुं	-8.92386
▁सद्धा	-8.92397
जन्तानं	-8.92762
▁यस्मिं	-8.92792
▁चक्खु	-8.9281
▁अत्त	-8.9284
’’॥	-8.92992
पीति	-8.93022
▁बुद्धं	-8.93312
▁गाथमाह	-8.93368
▁सत्थु	-8.93374
▁चतूहि	-8.93406
▁भासितं	-8.93678
सक्	-8.93805
▁गतो	-8.93979
▁तिस्सो	-8.94005
▁अज्	-8.94139
आ	-8.94157
▁चतुन्	-8.94266
▁सावत्थियं	-8.94332
▁वत्थुं	-8.94382
स्सा	-8.94492
▁वज्	-8.94528
▁अर	-8.94569
▁दस्सेत्वा	-8.9489
▁सब्बेसं	-8.95085
▁भवे	-8.95102
महा	-8.95224
ेन्तो	-8.95398
सुत्त	-8.95807
कोति	-8.95826
▁कतमो	-8.95938
▁धातु	-8.96005
अत्थि	-8.96486
कारो	-8.96617
चहि	-8.96744
नानं	-8.96756
▁कातुं	-8.97035
▁एतमत्थं	-8.97065
ञ्हि	-8.97077
▁किलेस	-8.97082
▁नं	-8.97096
न्तं	-8.97118
त्थे	-8.97154
पद	-8.97247
▁परिभु	-8.97418
नाय	-8.97563
▁पसन्	-8.97693
जाय	-8.97747
ट्ठो	-8.98245
सी	-8.98334
ञस्स	-8.98704
ोपि	-8.98762
▁कतमं	-8.98768
▁सीलं	-8.98797
▁यदा	-8.99008
▁कारणं	-8.99077
▁उदक	-8.99144
जेय्य	-8.99483
▁तुम्हे	-8.99519
फल	-8.99678
कटस्स	-8.99894
▁गहपति	-8.99972
▁म	-9.00041
▁सङ्खारा	-9.00142
ञत्र	-9.00178
पल्	-9.00446
▁पाचित्तियं	-9.00786
▁तेनेव	-9.00803
मत्तं	-9.00874
▁देसना	-9.00963
धातु	-9.00992
▁पनेत्थ	-9.01056
अहं	-9.01143
जनं	-9.01341
नम्पि	-9.01373
▁उच्	-9.01393
▁सब्बञ्	-9.01638
▁पुरिम	-9.01782
▁लोक	-9.01822
▁वण्ण	-9.01922
ङ्ग	-9.01934
▁तद	-9.01995
▁अविगते	-9.02085
▁कति	-9.02132
▁अपि	-9.02263
▁निरुज्झति	-9.02396
यथा	-9.02418
कम्मं	-9.02652
▁उ	-9.0292
िकं	-9.02995
इच्	-9.03142
▁तथेव	-9.03144
▁वत्थुस्मिं	-9.03261
▁एतेन	-9.0327
▁पवत्त	-9.03361
▁अम्हाकं	-9.03471
चाति	-9.03528
▁पुथुज	-9.03554
न्ते	-9.03633
ादिवसेन	-9.03726
▁कुसलो	-9.03863
पटि	-9.0407
पुन	-9.04157
▁आपत्तियो	-9.04289
वण्ण	-9.04454
दि	-9.04472
▁केनचि	-9.04843
▁तीहि	-9.05177
ायं	-9.05184
▁भिक्खुनी	-9.05944
लक्खणं	-9.05961
तेन	-9.06149
▁चतस्सो	-9.06166
स्सु	-9.06201
ञू	-9.06328
▁तिट्ठति	-9.06404
▁चक्खुवि	-9.06466
▁करोन्ति	-9.06737
▁रूपानं	-9.06789
▁देवता	-9.06899
▁कुक्	-9.06986
▁नामं	-9.07178
नी	-9.07247
▁ननु	-9.07464
▁मनुस्सा	-9.07653
▁बहिद्धा	-9.08319
यति	-9.08391
▁पत्तो	-9.08477
▁निरुज्झिस्सति	-9.08503
▁तीसु	-9.08624
▁लोको	-9.08668
यि	-9.08714
माना	-9.08752
यन्ति	-9.08789
ोव	-9.08902
▁काल	-9.09023
▁भावेति	-9.0937
न्तिआदि	-9.09379
▁सत्तानं	-9.0952
▁कायेन	-9.0968
▁ततियं	-9.09762
▁कत्थ	-9.09826
▁ठाने	-9.10215
▁अत्ता	-9.10292
▁अरहत्तं	-9.10305
▁तत्थेव	-9.10341
▁क्	-9.10579
न्त	-9.10942
ियं	-9.11155
▁पत्वा	-9.11208
▁लभति	-9.11302
▁सेस	-9.11355
▁इ	-9.11467
▁भिक्खुं	-9.1157
ूप	-9.11598
▁एकतो	-9.11657
▁पुरिस	-9.11793
०	-9.11974
▁अप	-9.11985
▁कप्पे	-9.12048
▁सब्बसो	-9.12056
▁समुदय	-9.12068
▁उदकं	-9.12077
▁अत्थीति	-9.12137
▁छन्	-9.12399
▁वुत्तनयेनेव	-9.12452
कथं	-9.12511
▁चतुत्थं	-9.12524
ानी	-9.126
▁निब्बान	-9.1275
▁वाचाय	-9.12816
▁दट्ठब्बो	-9.12935
ग्ग	-9.12992
नाम	-9.13097
करण	-9.13417
▁पटिपदा	-9.13454
▁अग्ग	-9.13501
इदं	-9.13519
▁निसीदि	-9.13595
▁अनुपादि	-9.13628
▁विपाक	-9.13683
▁निट्ठितं	-9.1381
प्पच्	-9.13919
▁एकेन	-9.13993
▁ठत्वा	-9.14057
▁चतूसु	-9.14061
▁दस्सनेन	-9.14065
कर	-9.14138
दान	-9.14237
धम्मा	-9.14443
सम	-9.14858
▁मूल	-9.15066
▁अक्	-9.15169
▁केवलं	-9.15249
िस्सति	-9.15516
▁विसुं	-9.15589
▁सुत्त	-9.15858
चापि	-9.15997
िनो	-9.16046
▁दान	-9.16112
सत्त	-9.16115
▁पाठो	-9.16214
▁ब्रह्म	-9.16327
नु	-9.16347
▁चपरं	-9.16502
▁नत्थीति	-9.1651
▁केन	-9.16635
▁देवा	-9.16664
▁थुल	-9.16945
▁विपस्सना	-9.17156
▁कथेसि	-9.1717
▁सुवण्ण	-9.17451
▁कतमा	-9.17525
▁चीवर	-9.17708
तस्स	-9.17804
▁वुत्तन्ति	-9.17809
▁भावनाय	-9.17816
पुञ्	-9.17817
मि	-9.18161
ापेत्वा	-9.18177
▁तस्सेव	-9.18438
▁यथाह	-9.18551
▁ब्यञ्	-9.18677
कन्ति	-9.18715
ञाणस्स	-9.18716
मग्ग	-9.18721
▁उपेक्खा	-9.19131
▁मनसि	-9.19207
कुच्	-9.19242
▁इमेसं	-9.19648
वत्त	-9.19749
ानञ्	-9.19755
▁इन्द्रिय	-9.19771
ळ	-9.19798
▁रागो	-9.19845
कच्	-9.20231
जाति	-9.20291
ेहीति	-9.2031
▁पस्स	-9.20405
▁अब्याकतो	-9.20417
▁फस्सो	-9.20423
▁अत्थे	-9.20658
▁बहू	-9.20788
मत्त	-9.21021
ियो	-9.21045
▁बहि	-9.21462
▁चक्खायतनं	-9.21578
▁वुत्तत्ता	-9.21616
▁य	-9.21648
▁गो	-9.217
▁कालं	-9.21809
▁परस्स	-9.21814
रो	-9.21945
▁पति	-9.21958
▁आगन्त्वा	-9.21996
▁सुतं	-9.22015
▁करोन्तो	-9.22024
▁चक्खुन्द्रियं	-9.22064
ध	-9.22066
किञ्	-9.22188
▁अब्याकता	-9.22248
ू	-9.22344
सङ्खातं	-9.22418
से	-9.22603
▁द्वीहि	-9.22704
▁आहार	-9.22735
सील	-9.22896
गुण	-9.22928
ञेव	-9.2303
धम्मो	-9.23037
ीयति	-9.23082
▁वदामि	-9.23096
▁अकुसलं	-9.23297
▁भवन्ति	-9.23377
▁अज्झत्तं	-9.23515
सुख	-9.23654
ानु	-9.23675
ितब्बं	-9.23718
▁तिण्णं	-9.23801
▁अरहतो	-9.23868
न्तु	-9.23881
▁पाळियं	-9.23891
▁पीति	-9.239
सद्दस्स	-9.24029
▁गुण	-9.24113
▁पुप्फ	-9.24197
▁दोस	-9.24201
चये	-9.24829
▁सेय्यथापि	-9.24899
मान	-9.24903
▁द्वादस	-9.24908
वचनं	-9.25122
▁यदिदं	-9.25273
▁इत्थन्	-9.25339
▁चेत्थ	-9.25383
▁खन्धं	-9.25436
▁मह	-9.25515
▁गच्छन्ति	-9.25645
▁गोतम	-9.25694
’’’	-9.25736
ाहि	-9.25814
▁आसि	-9.25873
▁अहेसुं	-9.2601
▁अदासि	-9.26071
▁सारिपुत्त	-9.26264
रूपं	-9.26439
ट्ठान	-9.26486
▁दोसो	-9.26523
▁मरणा	-9.2657
विपाक	-9.26662
▁सुत्तं	-9.27389
निस्सय	-9.27622
▁अयम्पि	-9.2766
▁विप्पयुत्त	-9.27713
▁भिन्	-9.28254
▁अवसेसा	-9.28449
▁वेदनाक्खन्धो	-9.28484
▁इन्द्रिया	-9.28589
▁पुरे	-9.28672
▁कायो	-9.28679
▁गोतमो	-9.28831
▁पवत्ति	-9.28837
▁चा	-9.28849
िनी	-9.2888
▁दिसा	-9.28966
▁द्वीसु	-9.29006
चयं	-9.29007
मे	-9.2904
▁मज्झे	-9.29133
▁सम्बहुला	-9.29139
▁कम्मे	-9.29147
▁तया	-9.29193
तिपि	-9.29349
कमो	-9.29483
चन्	-9.29541
▁सुट्ठु	-9.29557
भव	-9.2961
विज्	-9.29639
▁कस्सचि	-9.29656
▁मोहो	-9.29722
▁सम्म	-9.29773
रे	-9.29821
▁दुक्खा	-9.29825
▁सदा	-9.29874
▁पदं	-9.2991
सिक्खापदं	-9.29984
▁सङ्घ	-9.30008
▁तासं	-9.30179
सज्	-9.30192
▁बोधिसत्तो	-9.30227
▁मुच्	-9.30435
दुक्ख	-9.30453
▁कप्प	-9.30462
▁विपाको	-9.30486
▁फस्स	-9.30693
कन्त	-9.3081
▁का	-9.30872
▁लोकं	-9.30901
▁पुत्तो	-9.3094
▁आपत्तिं	-9.31116
चानि	-9.31192
▁माता	-9.31212
कानं	-9.31281
▁यथावुत्त	-9.31497
रज्	-9.31817
▁सोळस	-9.31843
▁सं	-9.31883
जातकं	-9.32121
▁सुक्	-9.32193
▁पणमाम्यहं	-9.32347
▁पण्डितो	-9.32362
▁निब्बत्त	-9.32586
भूता	-9.32591
▁कारण	-9.327
सद्द	-9.32826
▁तेनुपसङ्कमि	-9.32832
▁कुसल	-9.32933
भूतो	-9.33201
▁सब्बा	-9.33316
▁ओक्	-9.33451
मतिक्	-9.33471
▁सङ्खार	-9.33691
▁अत्थतो	-9.33726
▁मार	-9.33753
नाति	-9.3377
▁सतो	-9.33805
न्तर	-9.33859
▁गरुं	-9.34019
▁आदाय	-9.34111
▁सरीर	-9.342
इध	-9.34257
▁मच्	-9.34352
▁कु	-9.34532
▁सरणं	-9.3465
उप	-9.34658
एक	-9.34792
▁तथागतस्स	-9.3508
चक्	-9.35145
ला	-9.35166
भूतं	-9.35235
जे	-9.35386
▁अभासि	-9.35512
लच्	-9.35602
▁धम्मदेसनं	-9.35646
▁जातो	-9.35725
▁येसं	-9.3573
▁सर	-9.35775
▁पुच्छि	-9.35857
▁एतस्स	-9.35953
माह	-9.3613
▁विसेस	-9.36176
▁पुग्गलस्स	-9.36195
▁दिट्ठ	-9.36233
▁गाम	-9.36714
▁वत्त	-9.3676
▁भवं	-9.36818
वसेनेव	-9.3686
▁नेसं	-9.36955
कप्प	-9.37309
▁उपक्	-9.37387
▁लक्खण	-9.37414
▁भेदा	-9.37515
▁सहजातपच्	-9.3775
▁ठिता	-9.37789
स्मा	-9.37806
▁द्वि	-9.37924
▁भ	-9.38008
▁पुग्गला	-9.38009
▁अङ्ग	-9.38047
▁चित्तेन	-9.38058
▁सङ्घं	-9.38097
▁कं	-9.38108
▁सन्त	-9.38155
उ	-9.38195
ानन्ति	-9.38206
च्छ	-9.3833
जु	-9.38361
▁समणो	-9.38422
▁सासने	-9.38544
▁गच्छ	-9.38674
▁लद्ध	-9.38785
▁लब्भति	-9.38824
▁दस्सन	-9.38854
▁पुनप्पुनं	-9.38943
पदं	-9.38982
▁अकासि	-9.39094
▁उपादाय	-9.39194
▁ख	-9.39283
निद्देसो	-9.3945
▁परेसं	-9.3956
सचे	-9.3958
▁पाद	-9.39636
देव	-9.39636
पत्त	-9.39894
लोक	-9.39906
▁सिक्खा	-9.40216
▁एकस्मिं	-9.40605
सीति	-9.40613
राज	-9.40801
चतुक्	-9.4083
▁कारणेन	-9.4084
▁ततिय	-9.40898
सब्ब	-9.4098
▁विनय	-9.41045
ुप	-9.41103
▁अग्गि	-9.41243
▁दानि	-9.41281
▁अहु	-9.41317
▁विसेसो	-9.41442
▁असक्	-9.4159
▁चित्तसमुट्ठानं	-9.41647
▁मनुस्स	-9.41665
▁विस	-9.41686
▁पाळि	-9.41725
▁सासन	-9.41838
▁पिता	-9.42019
▁एत्थाति	-9.42414
चित्तो	-9.42427
▁हत्थ	-9.42538
▁दिस्सति	-9.42595
ञथा	-9.4262
तोति	-9.42707
▁आयस्मतो	-9.42778
▁हत्थि	-9.42794
इति	-9.42797
▁सम्मादिट्ठि	-9.42892
▁नाग	-9.42893
▁दीघ	-9.42968
सल्	-9.43171
▁वर	-9.43231
▁कथा	-9.43311
▁भवेय्य	-9.43334
आदि	-9.43339
▁अड्	-9.43451
▁सि	-9.43567
मो	-9.43589
▁वीरियं	-9.43614
▁उदपादि	-9.43652
▁अभिक्	-9.43725
▁समान	-9.43767
▁वचन	-9.43789
▁आयस्मन्तं	-9.43815
▁मुख	-9.43825
▁सार	-9.43889
▁आगतो	-9.43942
ञतरो	-9.44095
▁उपादि	-9.44131
▁११	-9.44303
क्खणे	-9.44363
▁आरोचेसुं	-9.44572
लज्	-9.44605
▁धन	-9.44614
▁होन्तीति	-9.4464
मेतं	-9.44661
▁सन्तिकं	-9.44713
पक्	-9.44726
ेय्युं	-9.44808
जेत्वा	-9.44853
▁एकादस	-9.44939
जातकवण्णना	-9.44942
कारं	-9.44953
▁भावना	-9.44993
▁ना	-9.45019
▁मान	-9.45053
धम्मं	-9.45097
▁परे	-9.45116
▁समानो	-9.45194
▁सन्तो	-9.45207
राजा	-9.45308
भावे	-9.45364
▁मुञ्	-9.45428
▁अरहा	-9.45452
कड्	-9.45471
▁कत्थचि	-9.45587
लो	-9.45613
▁करेय्य	-9.45766
▁गण्हाति	-9.45818
▁अत्थाय	-9.45888
▁ठित	-9.45901
▁सद्द	-9.45947
▁अपिच	-9.45965
▁जीवितं	-9.46023
मं	-9.46185
▁पाचित्तियस्स	-9.46288
▁जन	-9.4634
▁दुग्गतिं	-9.46357
▁राग	-9.46381
▁अस	-9.46428
नवसेन	-9.46463
▁गण	-9.46524
▁पत्तं	-9.46576
▁कुल	-9.46704
▁अकुसलो	-9.46749
ाम	-9.46839
काम	-9.4692
▁बल	-9.46928
▁मनसा	-9.47011
▁उद्धं	-9.47017
▁मोह	-9.47099
▁चेतसा	-9.47177
▁अकुसल	-9.4721
न्तेन	-9.4732
▁पुत्त	-9.47328
▁भवति	-9.47512
▁उप्पादक्खणे	-9.47527
तत्थ	-9.47561
▁अधि	-9.47742
▁थेरस्स	-9.48108
करो	-9.48126
▁आनन्दो	-9.48185
▁भत्त	-9.4822
ेत्थ	-9.48414
▁किस्मिं	-9.48525
▁ब्रह्मचरियं	-9.48582
चु	-9.48627
वस्स	-9.48698
ुं	-9.48951
▁एसो	-9.49002
परियापन	-9.49149
▁आरम्मणं	-9.4926
▁एसा	-9.49308
ेय्याति	-9.49411
ञानि	-9.49458
▁आहरित्वा	-9.49625
छ	-9.49689
ाभि	-9.49788
▁अन्तरा	-9.499
▁नभावनाय	-9.49962
▁वस्स	-9.50297
▁चित्तसमुट्ठानान	-9.50301
▁सन्ति	-9.5046
भ	-9.50524
▁पञ्हं	-9.50553
▁पुरिमा	-9.50558
▁लाभ	-9.50578
▁परिजानाति	-9.50578
▁छन्द	-9.50609
▁जेतवने	-9.50711
िस्सन्ति	-9.50836
रि	-9.50846
▁सकल	-9.50914
ेसूति	-9.50927
▁द्वयं	-9.50932
▁ब्राह्मणा	-9.51115
▁परिच्	-9.51168
▁हञ्	-9.51216
▁पच्छिम	-9.5127
▁दीप	-9.51327
▁सोतापन्	-9.51447
▁गहेतब्बं	-9.51483
▁दिब्ब	-9.51512
नत्ता	-9.51705
चस्स	-9.51721
▁सक	-9.5173
▁सब्बेपि	-9.51789
▁दुक्खस्स	-9.51899
चित्तं	-9.51913
कट	-9.52139
▁वचनतो	-9.52251
▁सुद्ध	-9.52269
गतो	-9.52301
जिस्सतीति	-9.52521
▁तेरस	-9.52568
▁वट्टतीति	-9.52712
▁एवञ्	-9.52818
येवाति	-9.52827
▁तन्ति	-9.52851
लक्खण	-9.52854
▁पुरतो	-9.52912
चमं	-9.5292
▁समण	-9.52991
गतं	-9.53046
समनन्तरे	-9.53119
सहजात	-9.53222
▁एवमाह	-9.53244
▁विहरन्तो	-9.53246
मूल	-9.53357
▁काये	-9.53387
ान	-9.53446
▁एवरूपं	-9.53453
▁चित्तसमुट्ठान	-9.53697
▁आसवा	-9.53739
▁गता	-9.53741
▁वन	-9.53798
▁आपन्	-9.53815
▁मनिन्द्रियं	-9.53832
▁भिक्खुनियो	-9.53886
▁वुत्तनयेन	-9.53929
▁सोमनस्सिन्द्रिय	-9.54171
ादिना	-9.5428
▁तदेव	-9.54297
▁पकति	-9.54343
चेतना	-9.54417
ब्यञ्	-9.54418
जती	-9.54422
▁निक्	-9.54694
गच्छ	-9.54748
▁किस्स	-9.54874
▁पटिघानुसय	-9.55009
बल	-9.55153
▁उभो	-9.55368
▁होतु	-9.55395
▁अना	-9.55397
▁सुत	-9.55411
▁गति	-9.55444
▁एत्तावता	-9.55506
▁तम्पि	-9.55592
▁आगत	-9.55611
▁तुम्हाकं	-9.55622
तर	-9.55689
ीनं	-9.55723
▁पिय	-9.55749
▁दीपेति	-9.5585
कमेन	-9.55871
मस्स	-9.55937
▁मुनि	-9.55941
▁उत्तम	-9.56096
कमं	-9.56158
▁बोधि	-9.56189
▁भेसज	-9.56234
▁पिण्डाय	-9.56237
लि	-9.56416
▁पथवी	-9.56506
▁रूपायतनं	-9.56513
दिट्ठि	-9.56538
ासि	-9.56542
▁उभय	-9.56556
▁सत	-9.56742
मयं	-9.56769
कुल	-9.56797
ञतरं	-9.56835
▁अनेक	-9.56959
पटिसम्भिदा	-9.57055
▁सोपि	-9.57137
▁कायं	-9.57175
ञिन्द्रियं	-9.57198
▁धातूहि	-9.5726
▁द	-9.57321
कानि	-9.5742
▁दुतियो	-9.57577
▁नअधिपतिया	-9.5758
ञायति	-9.57652
▁पहातब्बो	-9.57682
ेतं	-9.57778
िते	-9.57816
▁आपत्तिया	-9.58053
▁वु	-9.58272
चतीति	-9.58345
भूत	-9.58381
▁समयं	-9.58499
▁इत्थि	-9.58532
▁केस	-9.58647
▁आगता	-9.58734
कमति	-9.58739
▁कम्मस्स	-9.58746
▁पनस्स	-9.58808
▁महन्तं	-9.58835
धम्मे	-9.58939
▁परम	-9.59022
▁जाता	-9.59035
▁युज्	-9.59046
कमित्वा	-9.59132
ञत्थ	-9.59221
▁अट्ठकथायं	-9.5929
▁अस्साति	-9.59457
यतो	-9.59543
▁१२	-9.59744
न्तिआदिना	-9.59903
▁बहुं	-9.59907
हार	-9.59938
▁चवन्तानं	-9.59951
▁हेतू	-9.59966
जञ्	-9.5997
पाद	-9.59974
▁भङ्गक्खणे	-9.59996
▁अतीतं	-9.60003
▁कता	-9.6003
▁धम्मेन	-9.60059
ञतो	-9.60073
▁सुखाय	-9.60106
▁पविसित्वा	-9.60131
▁वदेय्य	-9.60183
▁तमेव	-9.60294
▁छिन्	-9.60364
▁वट्ट	-9.60377
▁पजहति	-9.60415
साम	-9.60434
यस्स	-9.60491
रस	-9.60547
ाहं	-9.60598
नोति	-9.60693
चतो	-9.60705
▁चतुत्थ	-9.60738
▁निसीदित्वा	-9.60794
▁पधान	-9.60889
सम्पत्ति	-9.60907
▁वन्दित्वा	-9.61044
▁धनं	-9.61071
▁वुत्तञ्हेतं	-9.61078
▁पुट्ठो	-9.61316
ारम्मण	-9.61329
▁भविस्सती	-9.61376
भेद	-9.61588
सार	-9.61613
था	-9.6167
▁भिक्खुनिया	-9.61741
ब्ब	-9.61834
वग्ग	-9.61857
▁नामाति	-9.61948
जनो	-9.62024
▁करोतीति	-9.6204
▁कुतो	-9.62126
▁सम्पयुत्तकानं	-9.62158
▁एकस्स	-9.62168
▁इत्थी	-9.62431
िस्सामि	-9.62475
▁सुत्ते	-9.62476
▁गन्ध	-9.6259
▁भयं	-9.62612
यित्वा	-9.6266
▁निमित्त	-9.62715
▁महाभूते	-9.62779
जात	-9.62796
▁अनुलोम	-9.62936
▁भिज्	-9.62971
▁भय	-9.63026
▁नआरम्मण	-9.63041
भूमि	-9.63067
▁उप्पत्ति	-9.63131
▁भावो	-9.63218
▁निरुज्झित्थ	-9.63229
क्ख	-9.63239
▁ए	-9.63342
ञात	-9.634
▁कथ	-9.63459
▁चित्ते	-9.63671
▁वस	-9.63677
▁कच्	-9.63691
▁भिक्खूहि	-9.63699
▁धातुयो	-9.63791
▁रुक्ख	-9.63824
▁वीरिय	-9.63972
▁मरण	-9.64062
बुद्ध	-9.64074
करणं	-9.64089
ट	-9.64265
▁पकास	-9.64293
▁अट्ठारस	-9.64304
ञसत्तानं	-9.64351
▁खन्धो	-9.64376
▁ठितं	-9.64404
▁जीव	-9.6443
रु	-9.64478
मिव	-9.64528
▁एवम्पि	-9.64543
▁नोविगते	-9.64556
काल	-9.64628
वाद	-9.64633
▁दु	-9.64701
▁यानि	-9.64711
कालो	-9.64876
▁जीवितिन्द्रियं	-9.6488
भिञ्	-9.64921
ग्गहणेन	-9.65073
चीवर	-9.65193
▁अतीत	-9.65241
▁सङ्घेन	-9.65248
मुख	-9.65263
▁अथस्स	-9.65291
▁पादे	-9.65346
▁वण्णो	-9.65356
▁अरियसावको	-9.65371
▁नगरं	-9.65468
▁अवि	-9.65608
▁विहारं	-9.6566
दस्सनं	-9.65674
पुब्ब	-9.65786
▁गहित	-9.65789
▁पुरेजातपच्	-9.65896
▁एतरहि	-9.65898
▁पटिसन्धि	-9.65981
दानं	-9.66057
▁आवज	-9.66183
▁उत्तर	-9.6619
▁गाथायो	-9.6624
▁कतो	-9.66264
▁पाचित्तिय	-9.6653
▁तिण	-9.66534
स्सापि	-9.66574
▁भूमि	-9.66594
िकाय	-9.6662
त्वेव	-9.66725
वट्ट	-9.6676
▁एतेसं	-9.6698
▁नविप्पयुत्ते	-9.67007
ही	-9.67021
▁पटिच्छन्	-9.67216
▁अभिवादेत्वा	-9.67251
अथ	-9.67281
▁उप्पाद	-9.67308
भिक्खु	-9.67323
ञेय्या	-9.67326
▁समत्ता	-9.67339
▁समुट्ठाति	-9.67358
▁रस	-9.67394
नय	-9.67509
ञातं	-9.67509
देस	-9.67579
निमित्त	-9.67594
▁सेनासनं	-9.67781
▁मिग	-9.67843
▁पुथु	-9.68002
धि	-9.68004
▁सारिपुत्तो	-9.68119
चञ्	-9.68184
▁पटिक्	-9.68217
▁पन्	-9.68398
▁वाचा	-9.68504
लिङ्ग	-9.68572
किलेस	-9.68576
िसज्	-9.68604
▁तक्	-9.68751
स्मि	-9.68764
▁वद	-9.68773
▁कातब्बं	-9.68804
▁पब्बजित्वा	-9.68816
पी	-9.68936
वारो	-9.68944
▁र	-9.69052
गो	-9.69083
▁भिय्यो	-9.69123
सुखं	-9.69145
▁पनेतं	-9.69154
मानं	-9.69195
▁सुदं	-9.69235
ाप	-9.69344
पुच्छा	-9.69379
▁रूपक्खन्धो	-9.69455
ञेय्यं	-9.69512
सहस्स	-9.69569
अविगत	-9.69653
पुप्फ	-9.69674
▁सहस्स	-9.69815
▁देस	-9.69863
जित्थाति	-9.69979
नयो	-9.69984
ञास	-9.69989
▁चर	-9.70034
▁जानन्ति	-9.70048
▁कायवि	-9.70053
त्वा	-9.70061
▁विहार	-9.7009
▁सुवि	-9.70128
▁विचिकिच्छानुसय	-9.70172
▁मणि	-9.70189
▁चूळ	-9.70266
▁तत्थाति	-9.70391
▁कामरागानुसयो	-9.70424
▁पसाद	-9.70438
▁हेतुं	-9.70455
▁दुक्खाय	-9.70575
ीहि	-9.70618
▁चापि	-9.7062
▁कस्स	-9.70671
▁विहारे	-9.70877
वचन	-9.70906
नरस	-9.70973
▁विनिच्छयो	-9.71075
मग्गे	-9.71398
विसेस	-9.71435
▁पवत्तति	-9.71477
▁पटिविरतो	-9.71496
▁जना	-9.71568
त्था	-9.71607
दस्सन	-9.71614
▁कते	-9.7181
▁आयतिं	-9.71822
▁पवत्ते	-9.71922
▁दिवा	-9.7199
▁अब्याकतं	-9.72036
त्थेरो	-9.72049
ग	-9.72128
▁मग्गस्स	-9.72162
ितत्ता	-9.72241
▁निस्सय	-9.72275
▁तुय्हं	-9.72343
सम्पयुत्त	-9.72545
▁समापन्	-9.7258
ातिक्	-9.72637
पर	-9.7267
▁विपाकं	-9.72849
ेय्यं	-9.72872
▁सम्पजानो	-9.72888
▁आहारे	-9.72894
▁रतन	-9.72902
▁१३	-9.72963
▁पुरिसस्स	-9.73012
▁कथञ्	-9.73094
वचि	-9.73154
▁जिन	-9.7322
▁रूपस्स	-9.73231
▁विगत	-9.73292
विहार	-9.73312
▁वेदनं	-9.7332
▁तज्	-9.73364
त्ते	-9.73372
▁गाथाय	-9.73486
द्वार	-9.73526
▁चन्द	-9.73598
▁नागसेन	-9.73609
▁वीसति	-9.73623
▁कामे	-9.73623
▁अभावतो	-9.73804
▁देवानं	-9.73855
▁बन्ध	-9.73895
▁कालेन	-9.7425
▁लोकस्स	-9.74446
▁नेवदस्सनेन	-9.74495
▁चतुक्	-9.74501
चरित	-9.74554
▁अमच्	-9.74705
▁जात	-9.74798
▁चिन्तेत्वा	-9.74944
कन्तं	-9.74969
▁दुतिये	-9.7497
▁इद्धि	-9.75001
▁पठमो	-9.75016
▁असति	-9.75053
जितुं	-9.75066
▁कामरागानुसय	-9.75114
वार	-9.75179
▁सम्पयुत्ता	-9.75182
नुप्पन्	-9.75294
चते	-9.75312
▁राजानं	-9.75446
▁चोर	-9.75503
ज्झ	-9.75644
प्पत्तो	-9.75707
साधु	-9.75731
▁पटिघानुसयो	-9.75835
▁मनोवि	-9.75839
जने	-9.75846
▁धम्मायतनं	-9.75851
वो	-9.75939
▁मग्गे	-9.75958
▁ल	-9.75982
ायाति	-9.75991
▁पुग्गल	-9.75993
▁खन्धेहि	-9.76057
▁युत्त	-9.7609
कथञ्	-9.76114
▁सेय्यथिदं	-9.76191
किलेसा	-9.76206
दोस	-9.76229
▁आकासे	-9.76245
▁अट्ठासि	-9.76253
हत्थ	-9.76295
▁ह	-9.76351
▁पितु	-9.76382
भत्त	-9.76489
वुत्ति	-9.76556
चित्तस्स	-9.76576
समन्	-9.7676
▁ठानेसु	-9.76934
▁पण्डिता	-9.76966
▁सीह	-9.77014
आदयो	-9.77018
▁दिवसे	-9.77035
▁भाव	-9.77041
▁नील	-9.77088
▁पुच्छति	-9.77115
▁१४	-9.77167
▁अन्	-9.77236
धा	-9.77242
▁पवत्ता	-9.77253
गत	-9.77276
▁पापं	-9.77308
▁परित्त	-9.77401
▁नआसेवने	-9.77445
▁रे	-9.77447
ञेय्य	-9.77607
▁दण्ड	-9.77635
▁ञाणेन	-9.77636
▁निस्सग्गियं	-9.7768
▁जीवित	-9.77745
▁निरोध	-9.77931
▁इत्थं	-9.77951
▁नपुरेजाते	-9.77979
▁अरिया	-9.78047
▁वट्टती	-9.78099
▁पदुम	-9.78111
रा	-9.78149
▁मिच्छा	-9.78262
ेथ	-9.78312
मय	-9.78347
चनीयं	-9.7835
हीति	-9.78372
▁अङ्गानि	-9.78403
जमान	-9.78428
▁निब्बत्ति	-9.78469
प्पसन्	-9.78508
▁खुद्दक	-9.78616
▁लोकिय	-9.78635
▁पहीना	-9.78788
▁भूत	-9.78879
▁एतदहोसि	-9.78883
▁अधिवचनं	-9.78917
ेतब्बं	-9.78993
सुत्तादिवण्णना	-9.79017
▁नकम्मे	-9.79059
▁लिङ्ग	-9.79065
वर	-9.79065
▁बोज्झङ्गा	-9.7911
▁उद	-9.7912
▁थ	-9.79139
कुसलो	-9.79184
ञाणधातु	-9.7921
▁घट	-9.79213
▁बलव	-9.79252
▁चक्खुं	-9.79292
▁सङ्घे	-9.79384
कारण	-9.79407
▁अधिपतिया	-9.79426
तरो	-9.79545
▁द्वार	-9.79571
▁आसवानं	-9.79662
▁किलेसा	-9.79694
▁ज	-9.79776
ुप्पत्ति	-9.79794
मिदं	-9.79808
चित्वा	-9.79887
▁बालो	-9.79911
▁लोभ	-9.79961
ापेति	-9.80014
▁विचिकिच्छा	-9.8005
जमाना	-9.80153
▁दिट्ठिया	-9.80333
निमित्तं	-9.80467
जन्तो	-9.80511
▁सतं	-9.80528
रतन	-9.8055
▁पुरिसिन्द्रियं	-9.80599
▁खाद	-9.80624
तदा	-9.8064
▁अनिदस्सनअप्पटिघ	-9.80798
▁अकत्वा	-9.80853
भन्ते	-9.80951
▁सत्तमं	-9.80965
▁पकतूपनिस्सयो	-9.80985
ादितो	-9.81131
▁करित्वा	-9.81235
तू	-9.81281
▁असङ्गहिता	-9.8129
ञति	-9.81312
▁छट्ठं	-9.81341
▁नविपाके	-9.81423
मु	-9.81462
ञाक्खन्धो	-9.81473
▁उपनिस्साय	-9.8152
▁कामावचर	-9.81607
सदिसं	-9.81623
ेसुपि	-9.81642
▁सब्बो	-9.81699
▁चेतसो	-9.81731
नत्थाय	-9.81762
▁जिनो	-9.81834
दा	-9.81883
▁अयमेव	-9.81929
▁इधेकच	-9.81958
नेव	-9.8198
मेवाति	-9.82001
मत्तमेव	-9.82176
कवत्ती	-9.82186
▁पापुणाति	-9.82237
भय	-9.82247
कोस	-9.82261
▁जातिया	-9.82322
पुत्त	-9.82332
▁सभाव	-9.82437
▁तण्हाय	-9.82444
▁हेतुस्स	-9.82566
▁आमन्तेसि	-9.82593
वारे	-9.8268
▁योजेतब्बं	-9.82725
▁निक्खमित्वा	-9.82798
रं	-9.82847
▁बाल	-9.82868
▁वत्तुं	-9.8289
▁गरु	-9.82949
खज्	-9.83014
दं	-9.83083
गन्ध	-9.83101
▁परो	-9.83107
ताति	-9.8314
चती	-9.83213
▁सम्पन्	-9.8322
ेही	-9.83296
िस्सामी	-9.83303
ततो	-9.83377
▁ततियो	-9.83396
▁उपालि	-9.83396
वग्गवण्णना	-9.83452
ादिके	-9.8353
▁ग	-9.83587
नीय	-9.83617
▁नाभिजानामि	-9.83678
▁तस्सत्थो	-9.83712
▁उत्तरि	-9.83718
▁उस्स	-9.83756
▁कदाचि	-9.83866
ञाणञ्	-9.83885
▁ही	-9.83966
इमे	-9.8399
तोपि	-9.84038
ग्गहणं	-9.84075
▁अगमासि	-9.84094
▁तात	-9.84097
सू	-9.84139
▁खण	-9.84218
सन्ति	-9.84236
▁कामा	-9.84246
नत्थं	-9.84248
▁समन्ततो	-9.84248
▁तमत्थं	-9.8425
वसेनाति	-9.84329
गमन	-9.84358
▁चरति	-9.84446
वुच्	-9.845
द्ध	-9.84518
वाति	-9.84535
किरिया	-9.84539
▁अलं	-9.84597
▁ध	-9.84599
ग्गहण	-9.84607
जमानो	-9.84622
▁१५	-9.84703
त्तय	-9.84716
▁निट्ठितो	-9.8474
▁उपेक्खिन्द्रियं	-9.84784
घ	-9.84806
▁अनुसया	-9.8481
नक	-9.84844
▁अस्साद	-9.84987
▁जातं	-9.85172
▁गच्छतीति	-9.85215
चन्त	-9.85231
निद्देसे	-9.85236
▁निमित्तं	-9.85258
▁कोध	-9.85297
▁आचरिय	-9.85365
कट्ठ	-9.85429
▁अट्ठमं	-9.85448
ितब्ब	-9.8545
▁विवेक	-9.85459
▁तम	-9.85487
▁पुच्छित्वा	-9.85513
▁पुच्छ	-9.85626
▁हीन	-9.85635
▁अय	-9.85699
▁आर	-9.85741
▁सीस	-9.85781
▁पाण	-9.85783
▁लोकुत्तर	-9.85791
अनुजानामि	-9.85804
पस्स	-9.8581
▁गहिता	-9.85825
▁पहान	-9.85907
▁भासति	-9.85956
य्य	-9.8596
▁गमन	-9.86195
लक्खणा	-9.862
▁यु	-9.86216
▁बुद्धानं	-9.86229
▁उतु	-9.86241
▁अतिविय	-9.86305
▁चेतं	-9.86344
▁तिंस	-9.86421
▁पच्छिमानं	-9.86442
ञेहि	-9.86577
▁चिन्तेसि	-9.86589
वे	-9.86615
▁खणे	-9.86638
विप्पयुत्त	-9.86719
▁नच्	-9.86734
▁इमाय	-9.8682
▁एत्थापि	-9.86913
नानि	-9.87088
▁सयमेव	-9.87199
निद्देसवण्णना	-9.87222
▁समं	-9.87232
▁योनिसो	-9.87273
▁दुच्	-9.87352
▁अकत	-9.87413
ञता	-9.87432
▁नन्द	-9.87594
▁गामं	-9.87606
बन्ध	-9.87637
▁मिच्छादिट्ठि	-9.87658
ादिकं	-9.87729
सूति	-9.87742
सदिस	-9.87765
▁वत्थ	-9.87819
▁सेट्ठ	-9.87855
केहि	-9.87878
जिता	-9.87947
▁१६	-9.87965
नट्ठेन	-9.87978
▁२२	-9.87991
▁सरीरं	-9.88002
▁काळ	-9.88039
सह	-9.8813
▁अयमेत्थ	-9.88143
▁अप्पटि	-9.88149
▁आयु	-9.88207
▁वेद	-9.88276
नागतं	-9.88385
गाम	-9.88492
समाधि	-9.88546
जन्तस्स	-9.88565
ट्ठं	-9.88602
▁मनायतनं	-9.88705
▁महासत्तो	-9.88727
▁मरणं	-9.88773
▁वुत्तानि	-9.88783
▁गिलान	-9.88802
ाह	-9.88896
▁वण्णं	-9.88921
▁परिपुण्ण	-9.8896
▁विविच्	-9.88965
▁देसेति	-9.88983
▁जिव्हा	-9.88988
चरितं	-9.89109
मन	-9.89122
ेनपि	-9.8914
▁घानिन्द्रियं	-9.89257
▁कायसङ्खारो	-9.8931
ञाणेन	-9.89315
▁पब्बजितो	-9.8934
▁सत्तरस	-9.89347
▁भोजनं	-9.89388
▁लभित्वा	-9.89495
▁अन्त	-9.89531
▁अधिट्ठान	-9.89567
ञानं	-9.89624
▁पहीनो	-9.89645
जेन	-9.89654
नेसु	-9.89686
▁वित्थारेन	-9.89865
▁तस्सुद्दानं	-9.90031
▁सप्प	-9.90095
▁किलेसे	-9.90102
▁विमुच्	-9.90152
▁पहानाय	-9.90305
▁अवोच	-9.9035
मनु	-9.90353
▁जातकं	-9.90393
कुसल	-9.90412
▁गत	-9.90427
मत्तेन	-9.90448
▁दोमनस्सं	-9.90491
कु	-9.90598
▁इदम्पि	-9.9062
▁नदी	-9.90637
▁इत्थिन्द्रियं	-9.90678
वेदना	-9.90702
▁रत्ति	-9.90732
▁साधारण	-9.90771
ानम्पि	-9.90884
ञिनो	-9.90888
▁सत्थारं	-9.90902
▁पहातब्बहेतुको	-9.90907
▁परतो	-9.90918
▁कस्सप	-9.90923
▁तञ्हि	-9.90939
▁संविज्	-9.90991
▁दिट्ठेव	-9.91006
जानुसय	-9.91043
ञाना	-9.91161
▁भरिया	-9.91166
त्थि	-9.91169
सम्पदा	-9.91198
▁संवत्तति	-9.91204
▁गण्ह	-9.91316
▁सद्दं	-9.91364
▁दसमं	-9.91365
▁अम्ब	-9.91398
सेय्यथापि	-9.9145
चसु	-9.91698
▁उपलब्भति	-9.91765
चयस्स	-9.91782
ीयतीति	-9.91833
▁अनुसास	-9.91864
न्तिआदीसु	-9.91868
जनस्स	-9.91901
▁छन्दो	-9.91915
▁सद्धिन्द्रियं	-9.91938
▁एतस्मिं	-9.91938
▁सङ्गहिता	-9.91984
त्य	-9.92069
सङ्खात	-9.92115
▁दट्ठब्बा	-9.9212
▁तथ	-9.92142
▁एतेनाति	-9.92186
▁भत्तं	-9.922
धञ्	-9.92381
▁ञाति	-9.92387
पच्छाजाते	-9.9239
सम्पत्तिया	-9.92451
▁चक्खुन्द्रिय	-9.92466
▁पठमे	-9.92518
▁अत्तनि	-9.92525
▁निरोधो	-9.92586
समा	-9.92629
▁रूपानि	-9.9275
ब्य	-9.92768
▁आहारो	-9.92779
नम	-9.9278
करं	-9.92783
घात	-9.92857
ाकार	-9.9287
▁मनुस्सानं	-9.93005
▁इतरेसं	-9.931
▁बुद्धा	-9.93149
▁मधुर	-9.93191
हेतुया	-9.93205
ञन्ति	-9.93225
▁चक्खुना	-9.93227
▁१७	-9.93279
गण	-9.9334
▁सेसा	-9.93345
▁वस्सानि	-9.93349
▁अक्ख	-9.93411
▁सहजातं	-9.9352
▁नामरूप	-9.93618
▁कालो	-9.93623
जी	-9.93632
▁मन	-9.93696
ख	-9.93697
▁कामेहि	-9.93748
▁वेदनासु	-9.93753
▁जल	-9.93756
▁अहमेव	-9.93809
काति	-9.93843
भण्ड	-9.93882
▁इमेसु	-9.93887
▁आसेवन	-9.93973
ादीसुपि	-9.93976
▁दातब्बं	-9.93983
▁तहिं	-9.9402
▁अनागत	-9.94043
▁सम्मासम्बुद्ध	-9.94133
▁मन्त	-9.94146
▁कतिहि	-9.94221
तरं	-9.94228
▁ब्राह्मणस्स	-9.94234
म्ह	-9.94247
▁वत्तब्बा	-9.94262
ामीति	-9.94332
▁बीज	-9.94441
ादिन्	-9.94643
▁गाथं	-9.94677
▁यक्ख	-9.94693
नागता	-9.94735
ञेसं	-9.94746
णं	-9.94786
▁वत्तब्बो	-9.94811
तन्ति	-9.94821
▁रूपे	-9.94881
▁विदित्वा	-9.94986
▁रत्तिं	-9.9503
▁मातु	-9.95055
ञुत	-9.95065
▁नवमं	-9.95128
▁समुदयो	-9.95129
कत	-9.95208
ञेपि	-9.95238
न्तानं	-9.95284
▁तुवं	-9.95371
▁सम्मासम्बुद्धो	-9.95378
▁वित्थारतो	-9.95397
▁महन्त	-9.95446
▁सिक्खापदं	-9.95483
▁खम	-9.95524
▁गम	-9.95541
वन	-9.95603
रत्त	-9.95644
कायो	-9.95722
दुकं	-9.95723
▁उभि	-9.95738
▁पयोगे	-9.95758
▁मुखं	-9.95888
दस	-9.95893
मंस	-9.95946
▁पुग्गलं	-9.96225
▁कतमानि	-9.9624
▁एवमादिना	-9.96268
▁मानानुसयो	-9.96444
मग्गो	-9.96468
▁याय	-9.96493
भोग	-9.96523
▁पकासेन्तो	-9.96523
▁वचीसङ्खारो	-9.96558
▁विपाके	-9.96565
▁सुखा	-9.96576
▁अपरभागे	-9.96619
▁पब्बत	-9.96698
मास	-9.96814
मत्ते	-9.96849
▁गिहि	-9.96856
▁कम्मेन	-9.96887
▁समणब्राह्मणा	-9.96924
▁नसम्पयुत्ते	-9.96927
▁के	-9.96943
▁राजगहे	-9.96974
धार	-9.9707
▁कामधातुया	-9.97103
▁वियाति	-9.97143
▁अनन्तरे	-9.97159
▁निब्बत्तो	-9.97267
दो	-9.97268
▁वाचं	-9.97349
योग	-9.97354
नत्थि	-9.97361
सति	-9.97385
मनो	-9.97449
सहस्सानि	-9.97486
▁सम्मुखा	-9.97502
▁उदाहु	-9.97546
▁देवो	-9.97559
▁आगम्म	-9.97566
▁आरम्मणाधिपति	-9.97575
▁अमत	-9.97717
मिच्	-9.97753
▁एवञ्हि	-9.97799
स्सिदं	-9.97872
▁१८	-9.97899
▁सग्ग	-9.97978
▁एवाति	-9.98034
▁आवि	-9.98051
▁यथारहं	-9.98175
इमं	-9.98212
▁मज्	-9.98218
युत्त	-9.98267
द्वयं	-9.98284
▁भिक्खुस्स	-9.9829
मुखेन	-9.98418
▁इदञ्	-9.98429
▁येभुय्येन	-9.98451
सतानि	-9.98571
कन्तो	-9.98591
▁विपस्सनं	-9.98601
▁एकाय	-9.9871
▁७०	-9.98712
कतमेहि	-9.98721
वास	-9.98774
ाभावतो	-9.98775
▁सेसमेत्थ	-9.98811
कारस्स	-9.98815
▁वापि	-9.9882
▁अरियो	-9.98835
▁पाराजिक	-9.98955
भो	-9.98986
▁पाराजिकं	-9.99013
चार	-9.99036
▁सोमनस्स	-9.9912
भावना	-9.99135
▁१९	-9.99174
आरम्मणे	-9.99239
▁मधु	-9.99256
▁अज्झत्त	-9.99361
▁पच्छाजात	-9.9937
ेती	-9.99373
कता	-9.99379
▁कर	-9.99405
▁गहण	-9.99423
▁मुसा	-9.99571
▁सम्प	-9.99592
जितं	-9.99593
▁अभासित्थाति	-9.99604
▁अतिरेक	-9.99674
धम्मानं	-9.99704
▁कम्मट्ठानं	-9.99723
री	-9.99739
कतो	-9.99806
सत	-9.99821
▁उपादान	-9.9986
जीव	-9.9987
पण्ण	-9.99879
▁दूरे	-9.99919
सुणातु	-9.99924
अनु	-10.0001
मया	-10.0006
▁भवो	-10.0019
▁सद्धाय	-10.002
▁कुसलस्स	-10.0021
ओ	-10.0028
▁गहणं	-10.0033
▁सद्दो	-10.0035
पुग्गल	-10.0038
▁एतेसु	-10.0039
▁पिव	-10.0049
▁सहजात	-10.0052
अत्थ	-10.0059
नीति	-10.006
▁दिस्वान	-10.0067
▁लोकस्मिं	-10.0068
▁मल्	-10.0077
▁पुत्तं	-10.0079
नामो	-10.0081
▁कुले	-10.0093
▁पमाण	-10.0096
▁अब्याकत	-10.0099
▁वत्तति	-10.0102
▁सम्पयुत्तो	-10.0103
▁अतीते	-10.011
▁मङ्गल	-10.0112
▁मज्झिम	-10.0113
▁किरिया	-10.0114
▁एवमेतं	-10.0114
▁२०	-10.0116
▁जरा	-10.0118
ज्झान	-10.0127
१०	-10.013
▁लोभो	-10.0131
▁रत्त	-10.0135
▁नरो	-10.0139
▁आकासान	-10.0146
वस	-10.015
▁निरयं	-10.0153
▁अपर	-10.0154
्य	-10.0155
रासि	-10.0155
▁कथितं	-10.0156
ारम्मणं	-10.0159
चतु	-10.0161
जानि	-10.0162
लक्खणो	-10.017
सङ्घ	-10.017
▁मुत्त	-10.0173
हा	-10.0174
नत्थिया	-10.0176
▁दळ्ह	-10.0178
राग	-10.0181
▁अपरियाप	-10.0184
▁सहजाता	-10.0191
▁अन्तमसो	-10.0192
लोम	-10.0198
▁रम	-10.0199
तुं	-10.0205
▁करुणा	-10.0212
▁मन्द	-10.0215
▁ठान	-10.0216
▁केहिचि	-10.0219
जितब्बं	-10.0224
ाधिपति	-10.0226
▁दुस्स	-10.0226
▁निवत्त	-10.023
▁रक्ख	-10.0233
▁गच्छन्तो	-10.0234
▁सङ्गण्हाति	-10.0239
▁सम्मन्	-10.0244
ेमि	-10.0245
जान	-10.0248
▁पा	-10.0249
ामी	-10.0249
▁घानायतनं	-10.0256
▁२१	-10.0269
▁रूपधातुया	-10.0272
ञेय्यो	-10.0273
ब्भ	-10.028
दुच्	-10.0287
▁गच्छेय्य	-10.0299
ञाणक्खन्धो	-10.0301
▁६९	-10.0304
निपात	-10.0307
▁ततिये	-10.0308
वादी	-10.0308
▁८०	-10.0311
▁भास	-10.0313
ितब्बो	-10.032
बन्धन	-10.032
कारणं	-10.0328
ापत्ति	-10.033
सङ्खाता	-10.0336
▁तन्	-10.0337
▁इन्द्रियं	-10.0339
▁अनन्त	-10.0339
पा	-10.0363
▁एकन्त	-10.0366
सतं	-10.0368
मी	-10.0369
ेकच्	-10.0372
▁हत्थे	-10.0376
▁हन	-10.0378
नता	-10.0379
▁सुभ	-10.0397
▁कथिता	-10.0408
▁दास	-10.0408
▁द्विधा	-10.0419
चेतं	-10.042
देसना	-10.042
▁एके	-10.0421
▁पूरेत्वा	-10.0421
यमानो	-10.0423
▁सत्तो	-10.0423
▁अपच्	-10.0428
▁उदके	-10.0443
▁लोहित	-10.0448
ेय्या	-10.045
नमेव	-10.0451
द्वय	-10.0452
▁पटिजानाति	-10.046
▁२३	-10.0462
▁विहरामि	-10.047
▁जायति	-10.0478
▁६८	-10.0482
मुप	-10.0492
▁परिच्छेदो	-10.0492
▁अल्	-10.0494
▁अधो	-10.0502
▁नउपनिस्सये	-10.051
ेतब्बा	-10.051
▁वच्छ	-10.0515
▁७४	-10.0519
▁समन्ता	-10.0525
रतो	-10.0537
लभ	-10.0539
▁इमिस्सा	-10.0559
▁पज्	-10.0566
▁कि	-10.057
ानेव	-10.0572
▁गन्थ	-10.0574
▁ओभास	-10.0582
वत्थ	-10.0582
▁सङ्खारक्खन्धो	-10.0591
▁अरहं	-10.0597
▁सम्मासमाधि	-10.06
▁येहि	-10.0605
ापेसि	-10.0605
आदीनं	-10.0605
ेसुं	-10.0616
▁पच्छिमभविकानं	-10.0622
▁सहजाते	-10.0625
▁आयतन	-10.0627
ेयेव	-10.0627
ाकारेन	-10.0627
▁अरूप	-10.0628
▁अब्भ	-10.0631
▁सोभ	-10.0637
▁परिदेव	-10.0646
गति	-10.0651
▁तुण्ही	-10.0651
▁गहितं	-10.066
▁भोजन	-10.0662
▁सन्ते	-10.0665
▁संसार	-10.0667
▁चुद्दस	-10.0673
▁मुदु	-10.0674
▁२४	-10.0677
▁सेनासन	-10.0678
▁बाहिरं	-10.0689
▁सब्बानि	-10.0694
▁ठपित	-10.0696
▁तेपि	-10.0698
तण्हा	-10.0705
▁झाने	-10.0711
▁निस्सये	-10.0725
सर	-10.0731
▁जानामि	-10.0731
▁अट्ठि	-10.0732
▁भाविता	-10.0734
कुसलं	-10.0737
▁सत्ते	-10.074
▁मातापितरो	-10.0741
▁दन्त	-10.0743
▁असुभ	-10.0744
▁पव	-10.0745
▁६७	-10.0746
▁सेत	-10.0747
▁भण्ड	-10.0748
▁परियायेन	-10.075
▁सीसं	-10.0752
▁सुचि	-10.076
▁कातब्बो	-10.0763
▁करण	-10.0763
लोपो	-10.0769
▁तिट्ठन्ति	-10.0769
▁बाहिर	-10.0771
क्खन्ध	-10.0774
▁अनुत्तरं	-10.0776
▁विचिकिच्छानुसयो	-10.0777
▁अधिप्पेतो	-10.0778
प्पटि	-10.0788
जन्तीति	-10.0793
▁अनत्थ	-10.0794
मज्झ	-10.0796
दस्सनत्थं	-10.0799
▁तेनेवाह	-10.0804
▁सङ्खारे	-10.0811
▁सद्धम्म	-10.0811
▁दस्स	-10.0812
▁एवरूपो	-10.0812
▁आगम	-10.0814
▁सङ्गहो	-10.082
▁सियाति	-10.0832
▁विप्पयुत्ता	-10.0838
▁परिसा	-10.0842
▁एतस्साति	-10.0844
विसेसो	-10.0852
▁अधिकरणं	-10.0859
न्द	-10.0861
▁अरूपधातुया	-10.0864
सदिसो	-10.087
▁दिट्ठं	-10.0872
▁छब्बग्गिया	-10.0881
चक्खु	-10.0883
▁मोग्गल	-10.0884
▁उपनिस्सये	-10.0888
▁पटिसल्	-10.0891
▁दातुं	-10.0894
▁पण्डित	-10.0898
भेदो	-10.0907
त्थेरस्स	-10.0907
म्पीति	-10.0921
गाथा	-10.0921
▁कामेसु	-10.0926
▁वचनेन	-10.0929
▁दस्सनं	-10.093
तिआदीनि	-10.0934
▁उद्देस	-10.0942
▁२५	-10.0942
नामं	-10.0946
▁रथ	-10.0949
▁८६	-10.0959
चित्ता	-10.0959
▁मंस	-10.0962
▁परमत्थ	-10.0964
▁विहरन्ति	-10.0965
पञ्हो	-10.0969
▁पासाण	-10.0971
ञञ्	-10.0971
▁पहातब्बं	-10.0977
▁संवर	-10.0977
यन्तो	-10.0978
▁कप्पिय	-10.0981
लान	-10.0988
▁मेत्ता	-10.0989
सीस	-10.0989
▁अत्थस्स	-10.0996
पुत्तो	-10.0997
▁पदानि	-10.1004
कि	-10.101
यञ्	-10.1011
तञ्	-10.1013
▁छसु	-10.1016
▁२६	-10.1017
▁भविस्सन्ति	-10.1019
लु	-10.1026
▁मग्गेन	-10.1031
▁उद्दिस्स	-10.1032
▁सुगतो	-10.1042
▁नय	-10.1048
ञपच्	-10.1053
▁नेक्खम्म	-10.1055
▁चित्तसङ्खारो	-10.1055
▁दातब्बो	-10.106
▁एवमेत्थ	-10.1061
▁ब्राह्मणं	-10.1066
▁८३	-10.1084
▁ब्रह्मा	-10.1088
▁नेतं	-10.1088
▁नून	-10.1091
ट्ठा	-10.1091
▁लभ	-10.1092
ब	-10.1095
▁हर	-10.1101
▁अभिनन्दति	-10.1101
▁पुरेजातं	-10.1109
ीसु	-10.1111
कामि	-10.1114
ादिं	-10.1116
▁सोक	-10.1118
ञतर	-10.1119
▁करोन्तस्स	-10.1123
केसु	-10.1124
▁भोग	-10.1125
▁खत्तिय	-10.113
नादि	-10.1131
ीय	-10.1134
▁असंकिलिट्ठ	-10.1137
▁वीमंस	-10.114
▁पनावुसो	-10.114
▁आगतं	-10.1145
गता	-10.1154
पुरिस	-10.1155
वग्गे	-10.1161
▁वने	-10.1164
वती	-10.1165
▁वग्ग	-10.1171
▁निरये	-10.1177
ेतब्ब	-10.1181
वण्णो	-10.1181
▁कसिण	-10.1186
▁दुल	-10.1189
▁रोग	-10.1196
▁चक्खायतन	-10.1197
▁मनुस्सेसु	-10.1199
कारी	-10.12
▁आरामे	-10.1202
ेच्	-10.1203
सुत्ते	-10.1204
▁विभजित्वा	-10.1205
▁पमाणं	-10.1212
जेति	-10.1212
▁८४	-10.1213
▁विभज	-10.1215
▁१००	-10.1217
▁एवमेवं	-10.122
▁देवदत्तो	-10.122
▁बलं	-10.1221
▁सत्तमे	-10.1229
समुट्ठान	-10.1234
▁२७	-10.1237
▁मित्त	-10.1238
की	-10.1243
▁२८	-10.1253
दुक्	-10.1253
▁पच	-10.1255
▁सन्धायाह	-10.126
▁रहो	-10.1264
कुक्	-10.1267
▁परिवज्	-10.1271
▁समणा	-10.1277
नयेन	-10.1279
मल	-10.1282
▁बोधिसत्तस्स	-10.1286
कथ	-10.1287
ण्ड	-10.1288
▁दिट्ठिं	-10.1289
सङ्खार	-10.129
▁अकप्पिय	-10.1298
▁विमुत्ति	-10.1302
कारणा	-10.1323
चम	-10.1324
भोजन	-10.1324
▁अह	-10.1325
▁नगर	-10.1327
▁कारेत्वा	-10.1332
▁खत्तियो	-10.1334
जित	-10.1335
▁अधिप्पेता	-10.1336
चिच्	-10.1337
▁आने	-10.1338
▁सकं	-10.1342
म्ब	-10.1347
कतं	-10.1351
▁७१	-10.1352
नामस्स	-10.1356
▁उत्तानमेव	-10.1356
▁गामे	-10.1356
▁हित्वा	-10.1362
▁९०	-10.1368
सुञ्	-10.137
▁वेपुल	-10.1374
मन्त	-10.1378
चाग	-10.1388
छन्	-10.1389
यतीति	-10.1393
▁ओवाद	-10.1394
▁७२	-10.1394
ञायतनं	-10.1398
▁अनागते	-10.14
▁७५	-10.14
▁नेवविपाक	-10.1402
▁२९	-10.1404
ुल्	-10.1404
▁परिनिब्बायिस्स	-10.1405
▁३१	-10.1415
▁सङ्गह	-10.1415
सभाव	-10.1423
▁अरूपे	-10.1448
▁सच्छिकत्वा	-10.1458
चवेक्खण	-10.1468
▁मूलं	-10.147
▁पठमज्झान	-10.1473
जानुसयो	-10.1478
▁पूज	-10.1483
▁सीत	-10.1484
▁मारो	-10.1485
ञाता	-10.1487
▁देन्ति	-10.1489
मम	-10.1489
▁अमु	-10.1497
भास	-10.1507
रुक्ख	-10.151
▁तिक	-10.151
सङ्खातो	-10.151
▁चतुत्थे	-10.1511
▁पूर	-10.1513
मह	-10.1517
▁अच्छ	-10.1517
▁३०	-10.1517
▁वुत्तनयमेव	-10.1518
▁तेल	-10.1518
▁आचिक्ख	-10.1521
▁७६	-10.1525
फलं	-10.1531
▁वीतिक	-10.1532
▁पस्सामि	-10.1535
निस्सित	-10.1538
न्तिपि	-10.1539
मत्ता	-10.1545
▁कत्तु	-10.1547
▁नप्पजहति	-10.1548
सदिसा	-10.155
▁सहजाताधिपति	-10.1552
▁सेव	-10.1555
त्र	-10.1558
कत्ता	-10.1568
▁महाभूतं	-10.1573
▁भिक्खुनीनं	-10.1582
▁रत्तिया	-10.1582
▁अन्ध	-10.1588
▁सरण	-10.1591
निदान	-10.1596
▁आसने	-10.16
▁८९	-10.1601
▁थेरा	-10.161
▁अनवज	-10.1614
भावस्स	-10.162
▁भण	-10.162
▁ण	-10.1621
लाय	-10.1628
▁आसन्	-10.1631
▁इच्छति	-10.1632
▁वरं	-10.1634
▁अमतं	-10.1636
▁वत्तते	-10.1637
▁पाविसि	-10.1645
▁वस्सं	-10.1647
गाह	-10.165
▁छहि	-10.1653
▁दोमनस्स	-10.1662
▁दुतिया	-10.1662
▁इच्छ	-10.1662
▁आनेत्वा	-10.1665
▁जानित्वा	-10.167
▁निर	-10.1673
▁एवरूपा	-10.1674
▁८८	-10.1674
▁अन्तर	-10.1676
▁नमो	-10.1692
दुक्खं	-10.1696
▁एतानि	-10.1698
▁८२	-10.17
जनतो	-10.1703
नव	-10.1704
ुप्पाद	-10.1706
▁छिन्दित्वा	-10.1707
धन	-10.1707
▁नत्थी	-10.1708
कोटि	-10.1711
दुक	-10.1712
कारेन	-10.1716
▁पतिट्ठा	-10.1718
▁पगेव	-10.1721
▁पक्ख	-10.1725
▁कुमार	-10.1726
मण्डल	-10.1729
▁सहेतुको	-10.1733
ञाति	-10.1733
▁पवत्तं	-10.1735
▁उप्पादेति	-10.1749
▁इधापि	-10.175
▁निदान	-10.1752
▁तंतं	-10.1766
▁कम्मट्ठान	-10.1767
▁चतुत्थो	-10.1768
▁माणव	-10.177
▁सतिमा	-10.1771
▁अम्हेहि	-10.1775
पयोग	-10.1776
▁समोधानेसि	-10.1779
दन्त	-10.1782
▁इसि	-10.1784
▁सेय्यो	-10.1786
रूपो	-10.1792
▁युत्तं	-10.1792
▁अनुकम्प	-10.1804
णि	-10.181
मणि	-10.1813
▁सन्तं	-10.1814
विभङ्ग	-10.1817
▁आदितो	-10.1824
▁सिक्ख	-10.1827
▁७८	-10.1828
▁पुरिसा	-10.183
त्थेरगाथावण्णना	-10.1831
▁निपन्	-10.1832
▁सम्पयुत्त	-10.1834
जल	-10.1837
▁सट्ठि	-10.1846
▁७९	-10.1854
▁लोपो	-10.1857
नचित्तो	-10.1864
▁आकि	-10.1865
▁८७	-10.1868
दस्सनेन	-10.1877
▁झानस्स	-10.1879
▁अहो	-10.188
वचनेन	-10.1881
▁बन्धित्वा	-10.1882
न्तरे	-10.1882
यी	-10.1882
अभि	-10.1886
▁भज	-10.1888
▁इच्छा	-10.189
▁एवमस्स	-10.1891
▁पस्सन्तो	-10.1892
▁पुग्गलानं	-10.1898
▁सत्तन्	-10.19
▁पहातब्बा	-10.19
रक्ख	-10.1901
वण्णं	-10.1902
पात	-10.1905
▁इरियापथ	-10.1909
▁इन्द्रिये	-10.191
▁अयञ्	-10.1919
▁दक्खिण	-10.192
▁अल	-10.1924
▁झापिता	-10.1934
▁सज्	-10.1938
अहो	-10.1948
▁सुणाति	-10.1949
▁सब्बथा	-10.1951
▁तादिसं	-10.1951
▁नामा	-10.1952
णा	-10.1962
▁सतिया	-10.1965
▁७३	-10.1966
▁इधेव	-10.1974
एव	-10.1975
▁अवसेस	-10.1976
▁धम्मचक्	-10.1979
▁अपाय	-10.198
▁कुसलेसु	-10.1984
इन्द्रिय	-10.1985
▁नकुसलो	-10.1989
▁ठितस्स	-10.1995
▁कथाय	-10.1998
▁भणति	-10.2001
▁सन्द	-10.2001
चनीक	-10.2003
मच्	-10.2004
▁मता	-10.2005
्पटिच्छन्	-10.2009
▁सम्मुति	-10.2012
▁गन्तुं	-10.2016
▁आदीनव	-10.2022
▁परिसाय	-10.2025
▁अरियमग्ग	-10.2028
भिन्	-10.2036
▁३२	-10.2042
▁पसंस	-10.2042
▁विसेसतो	-10.2043
▁पथविं	-10.2044
▁५६	-10.2047
विसय	-10.2049
▁पण्ण	-10.2052
हरण	-10.2055
▁सदिस	-10.2055
विस	-10.206
▁मानो	-10.206
नाहं	-10.2061
▁फुस	-10.2062
सद्दा	-10.2064
जलिं	-10.2083
▁८१	-10.2092
▁आमिस	-10.2096
▁सब्बेसु	-10.2097
▁दुट्ठु	-10.21
▁विक्	-10.2103
भेदतो	-10.2105
लेख	-10.2107
जाल	-10.2109
प्पत्ता	-10.211
▁सब्बम्पि	-10.211
▁महामोग्गल	-10.2111
जातो	-10.2112
▁पु	-10.2115
▁३३	-10.212
ेन्तीति	-10.2126
▁निपातो	-10.2133
चयादि	-10.2134
समये	-10.2135
▁गहेतब्बो	-10.2137
ञवा	-10.2137
मार	-10.214
▁अद्धा	-10.2141
ङ्क	-10.2143
▁अनागतं	-10.2146
आदीसु	-10.2148
सङ्ख	-10.2148
▁विकप्प	-10.215
विनय	-10.2152
लम्ब	-10.216
▁घर	-10.2162
▁७७	-10.2164
▁दस्सितो	-10.2169
▁नागो	-10.2169
▁नानुसेति	-10.217
▁कत्तब्ब	-10.217
ण्ण	-10.2172
सब्बे	-10.2175
▁मग्गा	-10.2177
कन्ता	-10.2182
बलं	-10.2183
▁अनासवो	-10.2193
▁३५	-10.2201
म्म	-10.2204
पेक्ख	-10.2209
हित	-10.2211
मनुस्स	-10.2211
▁अवत्वा	-10.2213
▁थेरं	-10.2215
गा	-10.222
निन्	-10.2221
बीज	-10.2224
▁ब्यापाद	-10.2227
▁अनुसेति	-10.2231
जमानं	-10.2231
मत्तम्पि	-10.2237
▁चेतसिक	-10.2243
▁८५	-10.2244
▁एकेक	-10.225
समुट्ठानं	-10.2253
▁पणीत	-10.2253
▁पजह	-10.2254
सङ्खातेन	-10.2256
▁उपोसथं	-10.2259
▁सत्ताहं	-10.2271
▁उण्ह	-10.2281
▁कुस	-10.2281
▁हेतं	-10.2287
▁णो	-10.2289
▁कुसलानं	-10.2292
▁दम	-10.2293
▁सोतं	-10.2294
▁धातुया	-10.2297
▁जाल	-10.2301
▁एतेहि	-10.2303
चायतनं	-10.2304
इमिना	-10.2306
याति	-10.2314
▁सुणाथ	-10.2316
▁मच्छ	-10.2317
▁अप्पना	-10.2319
णी	-10.232
समं	-10.2322
अनिच्	-10.2333
▁आचरियो	-10.2342
▁लद्धा	-10.2347
▁नगरे	-10.2356
ली	-10.2363
▁अहोसीति	-10.2368
▁दुवे	-10.2369
▁अनुक्	-10.2371
मग्गं	-10.2374
▁सम्पज्	-10.2377
प्पवत्ति	-10.2378
▁विसय	-10.238
भत्तं	-10.238
▁अनुलोमं	-10.2381
▁चिरं	-10.2383
▁३४	-10.2384
▁चरित्वा	-10.2384
▁हेट्ठिम	-10.2384
▁निन्	-10.2397
पक्ख	-10.2398
▁पहानं	-10.24
▁कोटि	-10.2401
त्ताति	-10.2403
ग्गाह	-10.2408
▁सुन्दर	-10.2408
जनक	-10.241
ितुकामो	-10.241
पुग्गलो	-10.2411
कतमो	-10.2412
▁परिभोग	-10.2414
▁सावका	-10.2417
पाप	-10.2419
▁कम्मानि	-10.2421
नन्द	-10.2422
हर	-10.2423
▁हदय	-10.2424
अन	-10.2425
▁सुण	-10.2426
▁सरीरे	-10.2433
चित्तेन	-10.2443
▁३७	-10.2447
▁आहरि	-10.245
धी	-10.2452
▁उभतो	-10.2461
▁अनुजानामि	-10.2466
दण्ड	-10.2467
▁निरुज्झन्ति	-10.2468
▁जनो	-10.2471
ेसीति	-10.2474
त्थञ्	-10.2478
▁सद्दह	-10.2478
▁दस्सिता	-10.2483
▁अङ्गेहि	-10.2486
▁इतर	-10.2487
त्तो	-10.2487
▁साधुकं	-10.249
भाग	-10.249
करा	-10.2494
ापन	-10.2496
▁धीरो	-10.2496
▁पदस्स	-10.2505
▁नामेन	-10.2512
चक्ख	-10.2512
▁नअधिपति	-10.2513
▁उपासको	-10.2513
विध	-10.2519
▁भिन्दित्वा	-10.2519
▁परिवार	-10.2522
▁चरे	-10.2522
▁निरय	-10.2522
िस्स	-10.2526
दु	-10.2531
▁कायकम्मं	-10.2541
मुत्त	-10.2542
न्तिया	-10.2544
▁सहेतुक	-10.2545
▁गरह	-10.2546
▁खिप्पं	-10.2549
▁वन्द	-10.2553
▁इतिपि	-10.2556
▁ददेय्य	-10.2557
किरिय	-10.2557
▁इद	-10.256
▁तर	-10.2573
ञसि	-10.2579
▁इट्ठ	-10.258
▁आतापी	-10.2582
▁देसेसि	-10.2584
▁३६	-10.2586
पाल	-10.2589
▁५९	-10.2593
▁पक्खिपित्वा	-10.2601
न्तिआदिमाह	-10.2601
▁गब्भ	-10.2601
▁ठिति	-10.2603
चसमुप्प	-10.2611
▁से	-10.2612
जाता	-10.2616
▁पाकटं	-10.2621
▁नास	-10.2625
भार	-10.2628
मिञ्	-10.2631
रूपा	-10.2634
▁एवमादि	-10.2635
येन	-10.265
▁सत्थ	-10.2655
ग्गि	-10.2656
▁वध	-10.2659
▁एकदिवसं	-10.2663
▁हित	-10.2664
च्छिन्	-10.2667
▁परिपूर	-10.2671
▁विनेय्य	-10.2671
ेतु	-10.2674
▁असुचि	-10.2681
▁विनये	-10.2685
नझाने	-10.2687
चन	-10.2696
पुच्छ	-10.2699
▁अनन्तरा	-10.2701
▁पस्सतो	-10.2704
▁छन्दं	-10.2706
▁आगच्छति	-10.2706
ित्थ	-10.2709
▁३९	-10.2715
▁दारु	-10.2721
▁अस्सा	-10.2721
▁पुच्छामि	-10.2733
▁९२	-10.2739
चानं	-10.2739
▁रूपावचर	-10.274
▁उदानं	-10.2743
▁भगवति	-10.2744
▁अविक्खेपो	-10.2747
▁खमति	-10.2752
▁अग्गमग्ग	-10.2757
▁उपमा	-10.2766
▁अपरि	-10.2769
जानन	-10.2774
झान	-10.2779
▁अट्ठङ्गिको	-10.2779
▁भवितब्बं	-10.278
▁वुद्धि	-10.2781
▁सतिपट्ठान	-10.2784
द्द	-10.2787
▁सग्गं	-10.2794
▁वसि	-10.28
▁अनत्ता	-10.2802
▁अन्तरे	-10.2802
▁कीळ	-10.2804
▁कण्ण	-10.2806
ादेसो	-10.281
वीरिय	-10.281
▁अस्सादेति	-10.2816
▁सम्पयुत्ते	-10.2827
▁पापुणि	-10.2827
▁अकंसु	-10.283
▁महाभूता	-10.2834
▁कत्ता	-10.2837
▁९१	-10.2839
▁समादाय	-10.284
▁देसनं	-10.2849
ेता	-10.285
▁ओकासं	-10.2852
प्	-10.2853
▁सम्मदेव	-10.2854
▁४१	-10.2863
▁थेरेन	-10.2863
▁३८	-10.2864
सन्त	-10.2866
▁गहितो	-10.2868
▁सीलवा	-10.2871
मज्झे	-10.2875
▁वय	-10.288
स्सेतं	-10.2881
▁कार	-10.2887
▁परित्तं	-10.2887
▁कारणेहि	-10.2889
दिस	-10.2891
▁दुक्खतो	-10.29
पदानि	-10.2904
▁हत्थेन	-10.2907
▁आरोच	-10.2907
▁संयोजन	-10.2909
▁चित्तानि	-10.2914
▁मतो	-10.2915
पास	-10.292
िस्ससि	-10.2922
▁सम्पयुत्तका	-10.2925
चमे	-10.2925
▁छट्ठ	-10.2928
पटिवेध	-10.2928
▁निसीद	-10.2928
▁उपोसथ	-10.2931
▁सम्पयुत्तं	-10.2931
▁पातिमोक्खं	-10.2932
वण्णा	-10.2933
▁सवन	-10.2936
ावुसो	-10.2938
▁सेट्ठो	-10.2938
पाळि	-10.294
युत्तो	-10.2943
▁इत्थियो	-10.2951
▁जनेति	-10.2951
▁पब्बाज	-10.2954
▁अनगारियं	-10.2955
▁इन्द्रियानि	-10.2956
▁पाकटो	-10.2958
ग्घ	-10.2962
▁भवा	-10.2962
▁थेर	-10.2963
▁४०	-10.2963
जोत	-10.2969
▁९४	-10.2978
▁कायिकं	-10.298
▁तत्रायं	-10.2986
▁एत्तकं	-10.2989
आम	-10.2989
हो	-10.299
▁इत्थिया	-10.2996
▁अकुसलानं	-10.2996
▁पवत्ततीति	-10.2998
▁लक्खणं	-10.3
▁पवारणा	-10.3001
▁दिसं	-10.3003
ुत्तर	-10.3007
▁आसेवने	-10.3007
भयं	-10.3011
▁सन्तकं	-10.3014
▁अस्सु	-10.3021
▁भविस्सतीति	-10.3024
▁पहातब्बहेतुक	-10.3035
▁घात	-10.3038
▁जरामरणं	-10.304
▁छत्त	-10.3046
▁दोसं	-10.3047
ीयन्ति	-10.305
▁चरन्ति	-10.3053
िस्सती	-10.3056
▁परिच्छिन्	-10.3067
▁पविस	-10.3071
▁पटिसम्भिदा	-10.3078
सङ्गह	-10.3081
ासु	-10.3083
▁पमाद	-10.3086
▁अनाथपिण्डिकस्स	-10.3088
नुपादानियो	-10.3092
▁४४	-10.3102
पुरिसो	-10.3108
▁काचि	-10.3116
▁समापत्ति	-10.3117
▁सन्धि	-10.3125
▁पुण्ण	-10.3127
भूमियं	-10.3127
ले	-10.3129
▁पयोग	-10.313
▁जान	-10.3131
मत्थ	-10.3133
▁जीविता	-10.3135
▁इदमेव	-10.314
अज्	-10.3142
▁उन्	-10.3143
नुपादानिय	-10.3147
त्व	-10.3147
▁पत्ता	-10.3147
▁भासिता	-10.3149
प्पमाण	-10.3152
▁५०	-10.3152
पत्तो	-10.3152
जते	-10.3154
▁कारेसि	-10.3156
▁बद्ध	-10.316
▁४३	-10.3163
▁लाभी	-10.3166
▁कारणा	-10.317
छिज्	-10.3174
नाग	-10.3178
▁वुत्ताति	-10.3181
▁भवङ्ग	-10.3182
▁आकारेहि	-10.3186
▁४५	-10.3188
▁ब्याधि	-10.3192
▁पुरिसं	-10.3193
परियाय	-10.3196
▁गेह	-10.3205
▁वात	-10.3206
▁कामं	-10.3206
▁९८	-10.3211
▁खीण	-10.3212
▁गहेतुं	-10.3214
त्ति	-10.3214
चवारादि	-10.3219
▁योजेत्वा	-10.3222
▁पत्ते	-10.3222
चादिना	-10.3228
यिं	-10.323
कण्ण	-10.3231
नागतस्स	-10.3232
▁४२	-10.3233
▁राजानो	-10.3236
▁समुद्द	-10.3236
लास	-10.324
▁तथापि	-10.324
वंस	-10.3243
▁तिस्स	-10.3247
चीवरं	-10.3249
कुले	-10.3252
▁४६	-10.3257
▁दिब्बचक्खु	-10.3261
▁कल्याण	-10.3262
▁संकिलिट्ठ	-10.3263
▁अनुसेन्ति	-10.3264
किरियाय	-10.3266
▁वञ्	-10.3266
▁अङ्गं	-10.3269
▁कतत्ता	-10.327
▁पाणातिपात	-10.327
▁यद	-10.3271
जितब्ब	-10.3275
▁कथेति	-10.3275
▁भेद	-10.3277
▁विसुद्ध	-10.3279
भूते	-10.3281
नगरे	-10.3285
▁हिताय	-10.3289
▁९५	-10.3296
▁पुत्ता	-10.3296
▁विपस्सनाय	-10.3297
▁४९	-10.3299
सम्मासम्बुद्धस्स	-10.33
▁४७	-10.3303
▁पापका	-10.3306
▁पणीतं	-10.3306
▁पकासिता	-10.3313
▁इन्द	-10.3318
▁भण्डं	-10.3319
ङ्गं	-10.3321
▁सत्थुनो	-10.3324
सम्पत्तिं	-10.3324
ञाणे	-10.333
▁वाद	-10.3331
▁पटिपत्ति	-10.3331
ब्रह्म	-10.3333
कविचारमत्त	-10.3335
▁साल	-10.3342
समापत्ति	-10.3343
▁अग्घ	-10.3347
▁अयञ्हि	-10.336
▁विहारो	-10.3361
पुण्ण	-10.3364
पति	-10.3364
▁खय	-10.3366
सङ्खाते	-10.3369
रिय	-10.3371
▁भेदो	-10.3376
▁दीघरत्तं	-10.3377
चयेहि	-10.3377
▁नोउपादा	-10.3378
▁अट्ठङ्गिक	-10.338
▁वेमतिको	-10.3382
▁लहु	-10.3382
▁वसं	-10.3383
वद	-10.3388
▁किलेसानं	-10.339
ञु	-10.3396
▁सावत्थिनिदानं	-10.3399
▁सत्तहि	-10.3399
ञापेत्वा	-10.34
ूति	-10.3403
▁देवपुत्तो	-10.3403
▁विवर	-10.3405
▁९३	-10.3405
चरण	-10.3408
दिवसे	-10.341
निस्सितं	-10.3411
मकासि	-10.3414
▁खीर	-10.3415
▁यावता	-10.3416
वेर	-10.3416
▁दक्ख	-10.3426
▁यमक	-10.3426
▁निरुत्ति	-10.3427
▁अथो	-10.3427
▁पटिलद्ध	-10.3427
ञम्पि	-10.3428
▁सिक्खति	-10.3428
▁छिन्द	-10.3433
▁दिट्ठो	-10.3435
▁ओकास	-10.3441
▁कन्द	-10.3449
▁तादिसो	-10.3457
▁दब्ब	-10.3459
अट्ठ	-10.3466
▁एतेसन्ति	-10.3469
▁वुट्ठहित्वा	-10.347
▁तिट्ठ	-10.347
ञुतं	-10.3473
परिच्	-10.3473
▁कातब्बा	-10.3474
सीलं	-10.3475
▁अतीतानागत	-10.348
लङ्क	-10.3482
▁महानाम	-10.3485
द्वे	-10.3486
▁दुब्बल	-10.3486
प्पहान	-10.3488
▁अक्खर	-10.3493
▁वदेसि	-10.3495
ायतन	-10.3495
▁युत्तो	-10.3495
मूलक	-10.3499
▁आपत्तीनं	-10.35
अप्प	-10.3505
▁समथ	-10.3508
▁ततिया	-10.3508
▁पच्छतो	-10.3512
अविज्	-10.3514
▁भूमियं	-10.3518
ञातञ्	-10.3518
सन्धि	-10.3523
▁द्वेपि	-10.3531
▁९६	-10.3538
▁विसम	-10.3544
▁पब्बजित	-10.3546
▁दळ्हं	-10.3547
▁सत्ताह	-10.3552
प्पवत्त	-10.3558
▁तिण्णन्	-10.3561
▁विजान	-10.3561
▁तमहं	-10.3562
दीप	-10.3566
▁परियत्ति	-10.3567
▁जय	-10.3568
▁सद्दा	-10.357
▁पण्णत्ति	-10.3571
▁परिनिब्बान	-10.3572
▁गन्तब्बं	-10.3574
िदं	-10.3576
▁पाणातिपाता	-10.3578
▁नापि	-10.3587
वुत्त	-10.3591
यिंसु	-10.3592
▁जने	-10.3593
▁साव	-10.3593
▁सङ्खेपतो	-10.3594
▁सामं	-10.36
वूपसम	-10.3601
▁असि	-10.3602
▁वूपसम	-10.3603
पन	-10.3606
ग्गं	-10.3608
▁एता	-10.3608
▁भिक्खुसङ्घस्स	-10.3611
करणे	-10.3611
▁संवत्तन्ति	-10.3614
कारा	-10.3615
▁निब्बत्तित्वा	-10.3615
▁सङ्घादिसेसस्स	-10.3617
चमो	-10.3618
▁खीणासव	-10.3621
▁नदस्सनेन	-10.3622
पथ	-10.3622
▁सङ्खं	-10.3623
भेदेन	-10.3623
▁तदत्थ	-10.3632
▁आप	-10.3634
▁१०३	-10.3635
▁दसहि	-10.3638
▁मत	-10.364
▁गमनं	-10.3645
▁परिवत्त	-10.3645
▁६६	-10.3645
▁यन्ति	-10.3646
▁पिया	-10.3655
▁५५	-10.3658
▁वोहार	-10.366
भा	-10.3662
▁खेम	-10.3662
▁पटिपक्ख	-10.3665
अनन्तरे	-10.3666
▁गह	-10.3667
िना	-10.367
चायतन	-10.3674
▁दुट्ठ	-10.3677
म्भ	-10.3677
▁विचार	-10.3678
▁सुर	-10.3678
ंसु	-10.368
▁यम्पि	-10.3681
▁देवलोके	-10.3681
प्पत्त	-10.3685
भू	-10.3691
चेकं	-10.3703
चयानुलोमं	-10.3713
▁रुच्	-10.3713
▁दिब्बेन	-10.3716
▁अवुत्त	-10.3722
ापेतुं	-10.3724
▁पनाति	-10.3733
▁अट्ठकथा	-10.3737
▁देसनाय	-10.3753
▁५८	-10.3758
कम्पि	-10.3759
▁सम्बुद्धो	-10.3762
न्तरं	-10.3764
▁निरुज्झिस्सतीति	-10.3766
खन्ध	-10.3769
▁निवासेत्वा	-10.377
नेय्य	-10.3771
पपञ्	-10.3774
कसविचारो	-10.3774
▁बन्धन	-10.3778
▁अपरे	-10.3778
▁४८	-10.3779
कूट	-10.3781
गम	-10.3782
▁असाधारण	-10.3782
▁सावकानं	-10.3788
▁विनास	-10.3788
▁आरद्धं	-10.3789
▁सहाय	-10.379
▁अब्याकतस्स	-10.3792
▁आराम	-10.3794
▁संसट्ठो	-10.3794
▁कङ्खा	-10.3795
▁पहातब्बहेतुकं	-10.3798
▁वच्	-10.3802
▁सस्स	-10.3803
▁मातिका	-10.3804
▁लद्धं	-10.3814
▁आहर	-10.3815
▁निरनुसयो	-10.3818
▁मंसं	-10.3818
▁तम्हा	-10.3821
▁दस्सनाय	-10.3821
▁विहरेय्य	-10.3823
▁६१	-10.3828
▁बहुलं	-10.383
▁कामराग	-10.3835
▁अविदूरे	-10.3837
▁वेदितब्बानि	-10.384
जितो	-10.3845
▁उळार	-10.3851
▁रक्खति	-10.3853
ेनापि	-10.3853
कुसला	-10.3855
ेतब्बो	-10.3858
▁अननु	-10.3858
▁सूचि	-10.3863
▁अभिधम्म	-10.3867
चसमुप्पाद	-10.3871
ेस्सामी	-10.3872
▁सुगत	-10.3874
म्हीति	-10.3874
▁परियाय	-10.3875
लाभ	-10.3879
▁अहम्पि	-10.3879
तम	-10.3883
▁त्व	-10.3883
▁आरोचेसि	-10.3886
कादि	-10.3887
सनिदस्सनसप्पटिघं	-10.3891
पुर	-10.3892
▁विवट्ट	-10.3899
ट्ट	-10.3901
पूर	-10.3902
▁सामणेरो	-10.3908
▁बुज्झ	-10.3915
▁पठमा	-10.3915
▁मानानुसय	-10.3922
▁५१	-10.3922
▁गेहे	-10.3924
कन्ते	-10.3928
▁इतरे	-10.3931
▁कबळीकारो	-10.3931
कारे	-10.3932
▁जिण्ण	-10.3932
▁कटत्तारूपं	-10.3933
▁कायतो	-10.3936
▁परेहि	-10.3936
घट	-10.3939
▁ओलोकेन्तो	-10.3942
ञासि	-10.3945
तरा	-10.3949
▁अपरो	-10.3952
▁६०	-10.3953
▁पार	-10.3953
▁दस्सेतुमाह	-10.3955
▁विनयो	-10.3959
दयो	-10.396
▁पाराजिकस्स	-10.3967
▁सुद्धं	-10.3977
▁लग्ग	-10.3979
सुवण्ण	-10.398
पब्बत	-10.3982
ितब्बा	-10.3982
▁चारिकं	-10.3987
▁वत्तं	-10.3989
पार	-10.3992
दिसं	-10.3992
▁जिगुच्छ	-10.3993
▁पटिग्गहेत्वा	-10.3994
▁११०	-10.3996
▁कथितो	-10.3998
▁बुद्धे	-10.4
▁निक्खिप	-10.4002
दी	-10.4003
▁इममत्थं	-10.4003
▁बहुलीकता	-10.4003
चेति	-10.4003
▁निस्सरण	-10.4004
▁नाहं	-10.4006
जवन	-10.4011
▁लामक	-10.4014
▁१०२	-10.4016
मानस्स	-10.4017
▁तथागतं	-10.4018
▁५२	-10.4018
▁विज्झ	-10.4021
▁अविगत	-10.4022
▁रज	-10.4026
▁मज्झ	-10.4029
ीयते	-10.4034
▁११५	-10.4034
▁सूरिय	-10.4037
जर	-10.4037
कमे	-10.4038
▁५४	-10.4046
▁सुतन्ति	-10.4047
▁विग्गहो	-10.4048
कूल	-10.405
▁दार	-10.4058
लव	-10.4058
▁सभाग	-10.4059
▁पिण्डपात	-10.4062
वने	-10.4065
ञत	-10.4066
▁ननहेतु	-10.4075
▁जवन	-10.4075
चरिया	-10.408
▁अरहत्त	-10.4082
▁चतुरो	-10.4084
▁असुक	-10.4085
▁नीहर	-10.4085
▁सुखुम	-10.4088
▁सङ्ख	-10.4089
मिति	-10.409
▁आसव	-10.4093
▁इतरो	-10.4096
▁थूप	-10.4098
▁नकुसल	-10.4099
येवा	-10.4102
युं	-10.4107
ञातो	-10.4109
▁काक	-10.4111
▁५३	-10.4115
▁पियो	-10.4117
सद्दं	-10.4118
▁फलस्स	-10.4129
वाह	-10.413
▁१०८	-10.413
रथ	-10.4132
▁धम्मञ्	-10.4135
▁१०४	-10.4137
लानो	-10.4139
▁दुक	-10.4142
माने	-10.4142
▁कत्तरि	-10.4143
यदि	-10.4146
▁कूट	-10.4149
▁अदुक्खमसुखाय	-10.4152
सम्म	-10.4153
▁त्वेव	-10.4154
▁सम्पत्त	-10.4155
मच्छ	-10.4155
▁पात	-10.416
मज्	-10.4162
▁सेसेसुपि	-10.4162
▁सीमा	-10.4163
▁दूर	-10.4163
▁वेळु	-10.4165
▁वण्णेन	-10.4166
▁अनुपुब्ब	-10.417
▁सप्पि	-10.417
▁अहेतुकं	-10.4174
रसो	-10.418
▁अप्पमाद	-10.4182
▁खण्ड	-10.4186
सङ्खातस्स	-10.4188
▁पनायं	-10.419
▁अभिभुय्य	-10.4193
सासन	-10.4193
▁अधिकरण	-10.4194
रसं	-10.4194
▁तमेनं	-10.4196
▁जानातीति	-10.4202
ञायतन	-10.4202
▁अनुस्सर	-10.4203
निरोध	-10.4203
▁पुब्बभाग	-10.4204
▁निस्सग्गिय	-10.4205
तादि	-10.4206
▁परिनिब्बन्तान	-10.4206
उदक	-10.4207
वत्थुस्मिं	-10.4211
पदे	-10.4213
▁आहारं	-10.4213
▁अभिनन्द	-10.4213
▁६५	-10.4214
▁सतिपट्ठाना	-10.4214
िस्सं	-10.4217
▁लब्भन्ति	-10.4221
▁चक्खुमा	-10.4222
▁देवे	-10.4222
▁तनु	-10.4223
▁पीत	-10.4225
ट्ठि	-10.4226
▁महावीर	-10.4227
▁माणवो	-10.4227
▁रूपा	-10.4228
▁करणीयं	-10.423
▁गम्भीर	-10.4231
▁खीणासवो	-10.4231
▁मुत्तो	-10.4241
▁आलोक	-10.4245
▁एकेनायतनेन	-10.4245
▁तिक्खत्तुं	-10.4247
▁१०१	-10.4251
▁वक्खति	-10.4252
निद्देस	-10.4255
▁असम	-10.4262
▁अरहन्तो	-10.4265
▁ब्याकासि	-10.427
▁आदीनवं	-10.4271
▁सिप्प	-10.4272
▁अद्दस	-10.428
कालतो	-10.4284
▁उपेति	-10.4288
▁५७	-10.4288
▁घान	-10.4296
▁नीहरित्वा	-10.4301
▁हे	-10.4306
▁सचेपि	-10.4316
▁सुखेन	-10.4318
लिका	-10.4327
▁तप्प	-10.4329
▁पास	-10.433
▁यसो	-10.4333
▁यक्खो	-10.4334
▁गूथ	-10.4339
सत्थ	-10.4339
▁सत्थरि	-10.4345
▁धुव	-10.4346
▁ठपेसि	-10.4347
सम्बन्ध	-10.435
▁समयो	-10.4351
▁आकास	-10.4354
चरिय	-10.4355
▁महेसिनो	-10.4355
वसाने	-10.4357
फस्स	-10.436
कवत्ति	-10.4362
विपस्सना	-10.4363
भूतेन	-10.4364
▁चम्म	-10.4364
हन	-10.4369
सोत	-10.437
▁द्वत्तिंस	-10.4371
▁१०५	-10.4374
▁वित्थार	-10.4375
ारह	-10.4376
▁ताल	-10.4377
▁उस्सुक	-10.438
▁कोप	-10.4385
▁चायं	-10.4388
ेते	-10.4391
▁बाला	-10.4391
▁पवत्तिं	-10.4393
ापदानं	-10.4395
▁धम्मविनये	-10.44
च्छन्	-10.44
▁खेत्त	-10.4401
▁छड्ड	-10.4402
▁परिहायति	-10.4404
▁गेहं	-10.4404
निच्	-10.4409
कामो	-10.4412
▁जानं	-10.4413
त्तेन	-10.4414
▁१०७	-10.4415
वादो	-10.4416
म्ही	-10.4417
ञस्मिं	-10.4419
सरीर	-10.4424
▁पहीन	-10.4424
▁फासु	-10.4425
कत्वा	-10.4429
▁कामरागानुसयेन	-10.4431
इतो	-10.4433
▁लोका	-10.4436
▁अट्ठमे	-10.4442
▁चित्तञ्	-10.4443
▁मास	-10.4444
▁यावजीवं	-10.4451
▁पिण्ड	-10.4453
ेक	-10.4454
▁११२	-10.4462
तथा	-10.4463
िंसूति	-10.4466
▁गोतमस्स	-10.4467
▁धम्मदेसना	-10.4469
▁क्रिया	-10.4474
▁पञ्हा	-10.4476
▁आदीनवो	-10.4479
▁निवास	-10.448
▁मत्त	-10.4485
▁सुखस्स	-10.4486
▁जेट्ठ	-10.449
▁सब्बदा	-10.4493
▁कुमारो	-10.4494
ानिपि	-10.4499
▁सुगतिं	-10.4501
रोग	-10.4502
▁परिसुद्ध	-10.4504
▁विह	-10.4506
▁सरे	-10.4507
▁विगते	-10.4511
▁लब्भमान	-10.4514
मुखं	-10.4514
सिक्खापद	-10.4517
▁पोस	-10.4523
ची	-10.4524
म्प	-10.4524
▁९७	-10.4524
कविचारमत्तो	-10.4525
गन्थ	-10.4528
▁सुमनो	-10.4532
दुतिय	-10.4537
▁पेस	-10.4541
गामि	-10.4545
▁तस्मिंयेव	-10.4552
ोसि	-10.4553
▁समग्ग	-10.4555
सुपि	-10.4558
▁इन्द्रियानं	-10.456
▁तिकं	-10.456
▁नियत	-10.4561
▁कायायतनं	-10.4563
द्वारे	-10.4565
▁भू	-10.4567
▁धोव	-10.4569
▁वारे	-10.4574
▁पुराण	-10.4574
▁हारो	-10.4577
त्तिक	-10.4578
▁पुरेजाते	-10.458
कालं	-10.4581
▁रोद	-10.4585
▁वीत	-10.4585
▁भु	-10.4586
वात	-10.4586
सामि	-10.4588
▁आपत्तिसमुट्ठाना	-10.4592
▁पाणि	-10.4594
▁मासे	-10.4598
ेना	-10.4598
▁वसति	-10.4601
▁कथेत्वा	-10.4601
▁चेपि	-10.4616
ञत्तिया	-10.4617
▁थोकं	-10.4621
▁गुणे	-10.4624
▁विचारो	-10.4625
▁सावको	-10.4628
▁गोत्रभु	-10.4629
रागो	-10.4632
▁अग्गो	-10.4632
▁हदयं	-10.4641
एवमेव	-10.4642
चेत्थ	-10.4643
▁कस	-10.4646
▁आरोपेत्वा	-10.4648
▁ओलोकेत्वा	-10.4649
पट्ट	-10.465
वोहार	-10.4654
▁पामो	-10.4656
ित्वान	-10.4658
सभावो	-10.4659
▁उपादा	-10.4667
▁द्वारं	-10.4674
ेन्तस्स	-10.4675
भवे	-10.4676
▁दन्धा	-10.468
चहङ्गेहि	-10.4681
▁तरुण	-10.4682
▁११८	-10.4683
▁११६	-10.4687
▁ब	-10.4689
देवता	-10.4689
▁६३	-10.4689
▁मर	-10.469
▁मानसं	-10.4691
▁नअब्याकत	-10.4692
▁रट्ठ	-10.4693
▁समथविपस्सना	-10.4694
▁पस्सित्वा	-10.4695
गाथाय	-10.4697
▁ञत्ति	-10.4698
▁कत्वान	-10.4703
▁आगच्छन्ति	-10.4707
कुज्	-10.4716
▁छट्ठे	-10.4719
▁सकिं	-10.4719
▁किमत्थं	-10.4723
▁सङ्ख्यावारो	-10.4723
▁चोद	-10.4728
▁उभोपि	-10.4731
▁उप्पादो	-10.4735
▁संखित्तेन	-10.4739
▁सिक्खापद	-10.4743
▁तप	-10.4744
▁वत्तब्ब	-10.4747
िन्द	-10.4748
▁मतं	-10.475
▁वार	-10.4752
▁फरित्वा	-10.4752
▁अयमत्थो	-10.4753
लक	-10.4753
▁बाराणसियं	-10.4755
▁९९	-10.4766
कंस	-10.4771
णो	-10.4782
सम्बोज्झङ्गो	-10.4782
▁लद्धि	-10.4782
▁परियेस	-10.4784
▁वचीकम्मं	-10.4787
▁परक्	-10.4795
निस्सयपच्	-10.4796
▁हस	-10.4798
▁पकतिया	-10.4798
▁दस्सितं	-10.4799
▁दुर	-10.4799
ञाताविन्द्रियं	-10.48
▁अन्तरघरे	-10.4801
▁तस्साति	-10.4802
▁वुट्ठाय	-10.4804
ट्ठे	-10.4808
▁गते	-10.4812
▁सियुं	-10.4813
निस्सिता	-10.4813
▁अनत्ततो	-10.4815
▁अप्पच्	-10.4818
▁सङ्खारानं	-10.4819
गु	-10.482
ालङ्कार	-10.4824
▁चेतिय	-10.4825
▁चुतो	-10.4828
▁दसमे	-10.4829
ञतरस्मिं	-10.483
▁कामावचरं	-10.4832
यदा	-10.4836
पठम	-10.4837
▁छेत्वा	-10.4839
▁चिर	-10.4843
▁आगच्छ	-10.4845
सन्तान	-10.4851
▁समुट्ठान	-10.4853
▁१११	-10.4855
जनेन	-10.4857
▁सोत	-10.4857
▁अकुसलस्स	-10.4862
▁अनिट्ठ	-10.4863
करणेन	-10.4865
निब्बान	-10.4873
▁पत्थय	-10.4881
ञाणन्ति	-10.4882
▁बाहु	-10.4889
▁हंस	-10.4889
▁मयि	-10.4891
▁अनुपुब्बेन	-10.4893
▁उपाय	-10.4894
दत्त	-10.4895
▁यस	-10.4897
▁घन	-10.4901
मभि	-10.4903
▁लोकुत्तरं	-10.4904
ानम	-10.4904
▁भिन्द	-10.4909
▁मग्गाधिपति	-10.4909
▁वुत्तोति	-10.4909
▁पदेहि	-10.491
साधन	-10.4924
समयो	-10.4925
▁अग्गिं	-10.4927
ियमानो	-10.4928
आहारे	-10.4929
स्मिन्ति	-10.4931
▁भवरागानुसयो	-10.4933
▁कित्ति	-10.4935
▁नामरूपं	-10.4939
मिग	-10.4939
सुद्धि	-10.494
▁इतरस्स	-10.4941
चत्त	-10.4942
▁आहंसु	-10.4944
▁इत्थीनं	-10.4948
मोह	-10.4948
▁सीलेन	-10.4951
▁विमोक्खो	-10.4954
सय	-10.4956
▁मनाप	-10.4957
▁वसन्ति	-10.4957
▁उट्ठायासना	-10.4957
मुत्तमं	-10.4958
धम्मेसु	-10.496
▁कथेन्तो	-10.496
चुण्ण	-10.4964
▁अधिक	-10.4971
कअविचार	-10.4972
▁मु	-10.4972
चेन	-10.4976
स्व	-10.4977
▁मातरं	-10.4979
▁पुग्गले	-10.4981
समङ्गी	-10.4984
वरं	-10.4986
▁होमि	-10.4987
▁११३	-10.4988
▁महग्गत	-10.4992
▁उपपत्ति	-10.4992
▁अधिप्पेतं	-10.4995
समो	-10.4997
पटिलाभ	-10.5002
▁नीवरण	-10.5003
▁किम	-10.5005
▁गवेस	-10.5007
▁पवत्तो	-10.5007
त्थेन	-10.5008
रसा	-10.5008
▁मेधावी	-10.501
चीति	-10.5011
▁गाथाहि	-10.5014
▁पितरं	-10.5016
निरोधो	-10.5027
▁पदे	-10.5041
▁तिविध	-10.5041
कोसल्	-10.5042
▁गन्धो	-10.5043
▁उल	-10.5043
▁विराग	-10.5045
मित्त	-10.5047
▁हिरी	-10.5048
▁आपोधातु	-10.5049
▁दिस्सन्ति	-10.5051
▁वङ्क	-10.5053
सीलो	-10.5058
▁अरियं	-10.506
▁पकारेन	-10.5061
▁अधम्म	-10.5062
यमक	-10.5064
▁सोण	-10.5065
िस्सतीति	-10.5069
कटस्सा	-10.5073
▁सुक्ख	-10.5079
मिच्छ	-10.5079
▁६४	-10.5082
▁विहरतो	-10.5084
▁आयस्मता	-10.509
▁वेरमणी	-10.509
कमन्ति	-10.509
▁विविध	-10.5091
नगरं	-10.5094
▁विप्पयुत्ते	-10.5095
▁पूति	-10.5096
▁अज	-10.5099
▁मानत्तं	-10.51
▁इतरा	-10.5101
▁पुर	-10.5101
ुक्	-10.5106
गामे	-10.5108
▁पत	-10.5111
▁चुति	-10.5113
▁गामो	-10.5113
▁कोधो	-10.5117
परिच्छेद	-10.5118
▁वची	-10.5118
▁सम्बुद्धं	-10.5123
स्सपि	-10.5124
▁लभन्ति	-10.5127
▁अनुसय	-10.5128
▁गण्हन्ति	-10.513
चकं	-10.5131
करणीय	-10.5132
▁६२	-10.5135
गमनं	-10.5137
▁पटिनिस्सज	-10.5144
▁ठिते	-10.5151
▁भासेय्य	-10.5151
▁तादिस	-10.5152
▁उपट्ठान	-10.5154
▁पजा	-10.5155
किलेसो	-10.5157
कवाळ	-10.5157
▁असङ्खत	-10.5157
धनं	-10.516
▁सत्तम	-10.5161
▁पटिपदं	-10.5165
▁कण्ह	-10.5167
▁पाकटा	-10.5167
▁चेतसिकं	-10.5168
▁सब्बस्स	-10.5171
▁इदानेव	-10.5171
▁पग्गय्ह	-10.5172
▁१०६	-10.5173
▁समादपेति	-10.5173
▁कुम्भ	-10.5173
▁अन्ते	-10.5174
ब्या	-10.5181
सम्पयुत्ता	-10.5183
▁उप्पल	-10.5185
▁निसीदति	-10.5186
▁सोमनस्सं	-10.519
▁भद्द	-10.5192
विकप्प	-10.5194
▁पब्बजिता	-10.5199
▁पुत्ते	-10.5207
बोध	-10.5209
▁जोति	-10.521
▁पतिट्ठाय	-10.5213
▁खया	-10.5215
नील	-10.5215
▁अधिगत	-10.5216
ग्गाहो	-10.522
▁११७	-10.5226
▁दुग्गति	-10.5226
▁बोध	-10.5227
▁परिभास	-10.5229
▁सीहो	-10.5229
▁पटिक्खिपति	-10.5234
▁जानन्तो	-10.5236
ोप	-10.5239
हेतुक	-10.5242
कमन	-10.5242
समण	-10.5245
तल	-10.5246
बहुलो	-10.5246
▁गहेत्वान	-10.5249
त्तिकं	-10.5249
▁एकत्त	-10.5254
▁पस्सन्ति	-10.5258
कास	-10.5259
कोन्तो	-10.5266
▁देहि	-10.5267
ब्राह्मण	-10.5268
▁परिजानातीति	-10.5269
▁पना	-10.527
▁सात	-10.5271
▁उपसम्पदा	-10.5271
▁भूमीसु	-10.5272
▁सम्	-10.5273
▁सब्बेव	-10.5276
▁कट्ठ	-10.5279
▁तिविधं	-10.5284
कामा	-10.5295
▁देवेसु	-10.5296
समूह	-10.5297
सेन	-10.5298
▁पच्छाजातं	-10.5299
चमानो	-10.53
कमा	-10.5302
मण्डलं	-10.5304
रह	-10.5308
▁अद्ध	-10.531
▁पदक्खिणं	-10.531
भावा	-10.5319
प्पमाणं	-10.532
▁ओवादं	-10.5321
▁कटत्ता	-10.5322
▁इतरं	-10.5325
▁सद्दे	-10.5325
तत्र	-10.5329
विसये	-10.5334
▁पिट्ठि	-10.5337
▁पाकट	-10.5342
भूतस्स	-10.5342
▁खिप	-10.5343
▁पेत	-10.5347
▁आगन्तुक	-10.5348
▁विवाद	-10.5349
▁छळभिञ	-10.5349
▁मानं	-10.5352
▁परा	-10.5354
बलेन	-10.5356
अट्ठकथाय	-10.5357
▁परञ्	-10.5357
निकाय	-10.5361
▁भार	-10.5361
▁वुत्तमेव	-10.5362
नवुति	-10.5371
▁वेदयितं	-10.5379
▁निक्खम	-10.5379
ाहार	-10.5381
▁पिण्डपातं	-10.5382
कलाप	-10.5383
बहु	-10.5388
▁सुगति	-10.5388
▁मेत्ताय	-10.5389
▁आवासे	-10.539
▁सप्पुरिस	-10.539
▁एत	-10.5391
▁जनपद	-10.5399
चोर	-10.54
▁सिब्ब	-10.5403
धर	-10.5404
सीमा	-10.5406
▁देसितं	-10.5406
▁इद्धिया	-10.5409
रुक्खो	-10.541
▁झायी	-10.5415
▁ब्रूमि	-10.5416
▁पच्छाजाता	-10.5416
▁ममं	-10.5421
आवुसो	-10.5421
▁नमस्स	-10.5423
त्थस्स	-10.5424
दायक	-10.5425
▁फोट्ठब्ब	-10.5426
सीसेन	-10.5426
सहगत	-10.5429
▁समेति	-10.5433
▁आगमन	-10.5433
▁अवयव	-10.5434
चवेक्खति	-10.5435
चरियं	-10.5437
▁भावेतब्बा	-10.5438
संयोजन	-10.5441
▁वनं	-10.5444
▁सामणेर	-10.5447
▁निसीदिंसु	-10.5447
▁अम्हे	-10.5448
रतनं	-10.545
▁य्वायं	-10.5453
▁समय	-10.5453
▁अनवसेस	-10.5454
▁पीतिया	-10.5456
▁नवमे	-10.5458
▁सेसो	-10.5459
▁दक्खिणा	-10.5465
क्खत्तुं	-10.5466
▁तदारम्मण	-10.5471
▁अपनेत्वा	-10.5474
▁११४	-10.5474
▁गाह	-10.5475
ितत्तं	-10.5478
▁ब्य	-10.5482
▁चित्ततो	-10.5483
आदीनि	-10.5484
▁खन्ति	-10.5486
▁अनि	-10.5487
▁उप्पादाय	-10.549
पिण्ड	-10.549
लक्खेत्वा	-10.5495
मङ्गल	-10.5496
▁आसिं	-10.5498
▁आसनं	-10.5498
▁अभावेन	-10.5498
▁पुरिमनयेनेव	-10.5499
गम्भीर	-10.5503
ाधि	-10.5504
वी	-10.5506
जापच्	-10.5508
▁वाचतो	-10.551
तेव	-10.5511
चन्द	-10.5514
▁पटिघ	-10.5516
कमनं	-10.5518
–-	-10.5521
▁अनन्तरूपनिस्सयो	-10.5526
काळ	-10.5532
ोयेव	-10.5536
▁पेक्ख	-10.5538
ादो	-10.5538
ोदक	-10.5538
▁आवासिका	-10.5539
▁मल	-10.554
▁पियं	-10.5543
▁दुप्पञ्	-10.5547
▁विरज्	-10.5551
▁सिरि	-10.5552
वन्त	-10.5555
▁वल्	-10.556
▁सहधम्मिक	-10.5563
पाक	-10.5565
▁महामुनि	-10.5567
▁सब्बापि	-10.5569
लोप	-10.5572
▁अप्पमत्तो	-10.5574
▁महापञ्	-10.5575
▁अट्ठहि	-10.5581
▁तेसंयेव	-10.5584
▁मनिन्द्रिय	-10.5585
▁चन्दो	-10.5586
पटिच्छन्	-10.5587
▁आचार	-10.5587
▁वसित्वा	-10.5588
▁भिक्खुनिं	-10.5589
▁खीणासवस्स	-10.5589
▁आरब्भाति	-10.559
▁यागु	-10.559
▁ओवद	-10.5591
कत्थ	-10.5592
वत्तं	-10.5592
स्साद	-10.5595
▁हार	-10.5601
चम्म	-10.5602
▁गण्हि	-10.5606
ीर	-10.5608
जामि	-10.561
▁कुज्झ	-10.5611
▁अनागामी	-10.5611
धान	-10.5612
▁तासु	-10.5612
▁नानप्पकार	-10.5616
▁भोगे	-10.5619
▁सानुसयो	-10.5622
▁झाय	-10.5622
▁सस	-10.5624
मति	-10.5625
▁वदन्तो	-10.5627
कअविचारो	-10.5628
▁विसुद्धिमग्गे	-10.563
▁सतसहस्स	-10.5638
▁दिसाय	-10.5641
विहारे	-10.5641
▁नाभि	-10.5643
योजन	-10.5644
▁असीति	-10.5648
जिं	-10.5649
▁देसे	-10.565
▁बहूनि	-10.5653
▁आम	-10.5653
▁दा	-10.5654
▁पान	-10.5654
▁सुत्वान	-10.5661
▁नेवसेक्खनासेक्ख	-10.5661
▁मक्	-10.5665
▁किन्ति	-10.5681
▁वीर	-10.5681
▁उपासिका	-10.5684
▁उपज्झाय	-10.5686
▁दसन्	-10.5689
बोधि	-10.569
▁पहाना	-10.569
दज्	-10.569
▁मनु	-10.5699
जमाने	-10.5706
▁विसिट्ठ	-10.5708
मत्तनो	-10.5708
▁देवमनुस्सानं	-10.5709
▁चरण	-10.5711
ितन्ति	-10.5716
▁तुम्हेहि	-10.5717
▁स्वेव	-10.5719
वस्सं	-10.5724
▁निग्रोध	-10.5724
▁मक्ख	-10.5725
ञतरेन	-10.5726
▁जह	-10.5728
▁सेट्ठि	-10.5729
▁कामावचरा	-10.5731
▁अपरेन	-10.5733
मद्द	-10.574
▁याचति	-10.574
▁सम्मासति	-10.5741
सङ्गहो	-10.5745
जतो	-10.5752
पाण	-10.5754
▁सम्बन्ध	-10.5754
▁अत्तमनो	-10.5755
जेसि	-10.5755
▁मद	-10.5763
▁बलवा	-10.5767
▁सत्थारा	-10.5768
▁समत्थो	-10.5768
▁११९	-10.5769
▁सयन	-10.577
▁नअकुसलो	-10.577
▁विसेसेन	-10.5771
▁जव	-10.5772
▁मुसावाद	-10.5773
▁महतो	-10.5778
▁सङ्गहं	-10.5785
▁बाध	-10.5785
दिसा	-10.5787
▁पस्सद्धि	-10.5788
▁तिरियं	-10.5789
▁जायन्ति	-10.5789
▁सद्धं	-10.5791
▁विचर	-10.5792
▁अप्पहीनो	-10.5794
▁दिवसं	-10.5795
▁अनुरूप	-10.5795
▁जोत	-10.5796
▁सोहं	-10.5798
▁गुणा	-10.5798
मूलकं	-10.5799
क्खर	-10.5801
▁पत्तिया	-10.5802
▁सङ्ख्या	-10.5804
▁विपुल	-10.5804
▁खर	-10.5808
योगेन	-10.5809
▁रस्स	-10.5811
▁उट्ठाय	-10.5815
▁उग्गण्ह	-10.5818
▁तेसञ्	-10.5819
▁सङ्ग	-10.5819
वासिनो	-10.582
युत्तं	-10.5821
▁दुविधो	-10.583
▁पापकम्मं	-10.5831
▁गिरि	-10.5837
▁पटिलभिस्सन्ति	-10.5838
▁कम्मानं	-10.5839
ानुरूपं	-10.5841
कुट	-10.5844
▁पदेसे	-10.5844
▁दुक्खे	-10.5844
▁दोमनस्सिन्द्रिय	-10.5845
▁सम्पत्ते	-10.5846
ञमानो	-10.5848
▁संसट्ठा	-10.5849
▁सम्पत्ति	-10.5853
▁सुखदुक्ख	-10.5858
▁देसिता	-10.5861
▁भिक्खूति	-10.5861
भिक्खू	-10.5863
सट्ठि	-10.5864
▁अभब्बो	-10.5867
ापीति	-10.5867
▁यज	-10.5868
िस्साम	-10.5868
ानुभावेन	-10.5868
▁थिर	-10.5869
विभाग	-10.5871
▁रुक्खो	-10.5877
▁वक्	-10.5878
▁वत्थं	-10.5881
▁विसेसन	-10.5881
▁मनसिकारो	-10.5882
▁एतेनेव	-10.5883
▁उद्धर	-10.5884
▁पातिमोक्ख	-10.5885
जातं	-10.5888
▁आलोको	-10.5889
कतमे	-10.5891
▁दुक्खन्ति	-10.5891
▁सकट	-10.5902
इ	-10.5904
नागतेन	-10.5906
िन्द्रिय	-10.5908
▁दिट्ठे	-10.591
विभत्ति	-10.5912
▁जरामरण	-10.5912
▁सब्बदिसा	-10.5917
मुत्तो	-10.5918
▁सद्धो	-10.5921
पक्खे	-10.5923
▁अत्थी	-10.5923
▁परिस	-10.5923
▁पुब्बेव	-10.5924
▁चित्तसंसट्ठ	-10.5925
▁पञ्हो	-10.5925
ञेय्यमेव	-10.5926
▁१०९	-10.5929
▁उपगन्त्वा	-10.5935
गहण	-10.594
त्वं	-10.5943
▁पापकं	-10.5944
ाथ	-10.5944
▁विनयं	-10.5946
चन्ते	-10.595
गणनाय	-10.5954
▁पहीयति	-10.5955
▁पाक	-10.5957
११	-10.5958
याम	-10.5958
▁चतुब्बिधं	-10.5962
नानत्त	-10.5964
▁भणन्तस्स	-10.5965
▁सत्तरतन	-10.5967
▁सोतायतनं	-10.5969
▁दहर	-10.5969
▁सहस्सं	-10.5971
नइन्द्रिये	-10.5974
माला	-10.5974
▁समीपे	-10.5978
ितानि	-10.5979
लित	-10.5979
▁नत्थिया	-10.5985
सङ्क	-10.5985
पहान	-10.5991
▁विचिकिच्छासहगत	-10.5992
▁पटिवेध	-10.5993
▁उपायेन	-10.5999
च्छेद	-10.6002
चर	-10.6003
▁कत्तब्बं	-10.6011
तायाति	-10.6016
▁चेतो	-10.6023
सेस	-10.6025
पवत्त	-10.6027
▁निद्देसो	-10.6028
▁विभत्ति	-10.6029
ेसा	-10.6031
ाधिगम	-10.6031
▁उपादानं	-10.6033
▁आहु	-10.6037
▁ततियम्पि	-10.6039
ुपादान	-10.6042
▁सोतापत्तिफले	-10.6044
▁दस्सेसि	-10.6044
▁समास	-10.605
▁उपोसथो	-10.605
▁असेक्ख	-10.6052
▁अलङ्कार	-10.6053
▁पटिपाटिया	-10.6053
कथाय	-10.6054
▁विरोच	-10.6058
रट्ठ	-10.6062
▁वादो	-10.6064
▁१२३	-10.6065
▁अभावा	-10.6074
▁उक्खिपित्वा	-10.6075
यमाना	-10.6077
मत	-10.6078
▁समापत्तिं	-10.6084
▁१२४	-10.6085
▁अरियानं	-10.6086
▁समुट्ठानेहि	-10.6087
▁लोकियलोकुत्तर	-10.6088
▁पविट्ठ	-10.6091
▁निब्बुतो	-10.6097
’॥	-10.6097
मद	-10.61
▁अगारस्मा	-10.6101
▁गुणं	-10.6102
बुद्धो	-10.6104
▁आकार	-10.6107
▁इव	-10.6112
पदेस	-10.6113
▁सतिपि	-10.6115
गुणं	-10.6117
▁विमान	-10.6118
सद्धा	-10.612
▁मग्गफल	-10.6122
▁एहि	-10.6122
▁पुरिमं	-10.6124
वादा	-10.6124
▁१२२	-10.6128
मादाय	-10.6132
समय	-10.6133
▁पारं	-10.6135
▁लोह	-10.6136
ुड्	-10.6138
नगर	-10.6142
▁भोन्तो	-10.6143
▁हत्थतो	-10.6145
तस्मा	-10.6145
अनापत्ति	-10.6145
मानसो	-10.615
▁समणस्स	-10.6151
▁हीति	-10.6152
▁विभङ्गवारो	-10.616
कोट्ठास	-10.6161
धरा	-10.6165
▁सीघं	-10.617
▁सङ्क	-10.617
मिस्सक	-10.6172
▁वत्तमान	-10.6179
▁१२०	-10.6189
▁वुत्तम्पि	-10.619
▁अत्तभावे	-10.6191
▁थाम	-10.6191
गते	-10.6192
▁पीळ	-10.6198
▁अहेतुक	-10.6198
▁झ	-10.6199
सेव	-10.6209
चेते	-10.621
▁पतिट्ठित	-10.6215
यित्वान	-10.6215
▁अयम	-10.6216
त्तयं	-10.6217
पुब्बो	-10.6217
ुद्ध	-10.6219
ञस्सामीतिन्द्रिय	-10.6219
▁संवरो	-10.6222
▁खन्धेन	-10.6224
ञाविमुत्ति	-10.6225
▁इमिनाव	-10.6227
▁निब्ब	-10.6229
ञत्ता	-10.6229
भञ्	-10.6231
ितुन्ति	-10.6232
निधि	-10.6233
वेद	-10.6235
▁मिस्सक	-10.6237
▁चाग	-10.6238
माय	-10.624
▁जानेय्य	-10.6241
परिभोग	-10.6244
▁अहञ्	-10.6244
▁थूल	-10.6245
अरिय	-10.6245
▁पयिरुपास	-10.6246
▁चत्तालीस	-10.6247
▁सूरियो	-10.6249
▁कुसलत्तिक	-10.6251
▁कुलं	-10.6251
▁एकिस्सा	-10.6253
रूपसञ्	-10.6258
ूपमा	-10.626
्या	-10.6261
▁मनं	-10.6262
▁वोहर	-10.6262
मत्थं	-10.6262
▁मारिस	-10.6268
▁निब्बानस्स	-10.6269
स्वागतं	-10.6271
▁निरुज्झतीति	-10.6283
▁ओदात	-10.6284
▁विनिच्छय	-10.6287
सतसहस्स	-10.6291
वन्तो	-10.6292
▁कहापण	-10.6297
▁बोज्झङ्ग	-10.6301
▁निस्सरणं	-10.6305
▁अभिज्झा	-10.6305
सिया	-10.631
▁छड्डेत्वा	-10.6313
ानन्द	-10.6316
▁तिक्ख	-10.6316
रिव	-10.6317
▁ब्रूहि	-10.6322
योगो	-10.6324
नकाले	-10.6325
कारक	-10.6331
िम्ह	-10.6332
▁सम्भाव	-10.6334
▁ब्रह्मचरिय	-10.6334
▁संकिलेस	-10.6334
▁धुर	-10.6335
▁याचि	-10.6336
▁करोथ	-10.6341
▁एवमाहंसु	-10.6341
▁एवमादीसु	-10.6344
▁सङ्खत	-10.6346
▁कम्प	-10.635
भद्द	-10.6353
▁उपसङ्कम	-10.6356
साल	-10.6367
पथे	-10.6369
▁मनसिकरोतो	-10.637
▁महता	-10.6373
▁फोट्ठब्बायतनं	-10.6377
▁उप्पादेत्वा	-10.6378
▁थोम	-10.6379
दानेन	-10.6379
▁वुट्ठाति	-10.638
▁पाचित्ति	-10.6385
मुखो	-10.6385
▁पटिग्गण्ह	-10.6389
मधुर	-10.6389
▁सप्पाय	-10.639
▁उपकार	-10.6394
वुट्ठ	-10.6397
सिद्धि	-10.6397
▁महाराजा	-10.6398
▁सुप	-10.6399
▁विसेसं	-10.6399
▁अनुभव	-10.6401
▁अत्ततो	-10.6402
▁ओघ	-10.6403
▁वत्थुस्मिन्ति	-10.6403
कल्	-10.6406
सहगता	-10.6408
िस्सामीति	-10.6412
▁गिही	-10.6413
▁यान	-10.6413
विस्सज	-10.6414
▁अमोहो	-10.6416
▁पंसु	-10.6418
लोहित	-10.642
पवत्ति	-10.642
▁पवत्तन्ति	-10.6421
सिक्ख	-10.6428
▁चन्दन	-10.6431
▁दक्खिणं	-10.6434
▁पटिह	-10.6434
▁१२१	-10.6435
ठान	-10.6437
▁अविपरीत	-10.6439
▁वसी	-10.644
▁पुब्बेपि	-10.644
▁मोहस्स	-10.644
ेस्सामि	-10.6442
▁गय्ह	-10.6445
▁दुविधं	-10.6445
सामणेर	-10.6447
▁करिस्सति	-10.6449
▁मनोधातु	-10.6458
▁किरियं	-10.6459
ञत्तन्ति	-10.6461
▁कस्सपो	-10.6462
कमि	-10.6465
रोध	-10.6468
प्पभेद	-10.6469
ञातक	-10.647
▁सुमेध	-10.6472
▁दीघो	-10.6477
▁इत्थिलिङ्ग	-10.648
नियो	-10.6481
मत्तञ्	-10.6482
▁एकमेव	-10.6485
▁बुद्धि	-10.649
▁फलसमापत्ति	-10.6492
▁ओलोक	-10.6492
▁सहसा	-10.6495
▁निक्खन्त	-10.6496
▁पस्सतीति	-10.6496
▁१२५	-10.6496
▁विसं	-10.6497
▁तण्हं	-10.6497
▁सळायतन	-10.6498
▁राहुल	-10.6498
▁महासाव	-10.6498
हीन	-10.6502
▁फुस्स	-10.6506
नाव	-10.6507
▁केवल	-10.6508
वत्थूनि	-10.6512
परिक्खार	-10.6516
रुह	-10.6517
जातिको	-10.652
तूति	-10.6521
▁देसितो	-10.6521
धुर	-10.6522
▁अस्सास	-10.6523
धारण	-10.6524
विधं	-10.6533
हत्थि	-10.6535
दुक्खनिरोधगामिनी	-10.6537
▁भूमिया	-10.6541
▁मुत्ता	-10.6543
▁हत्थं	-10.6552
कुमार	-10.6554
आरम्मण	-10.6555
▁दिट्ठधम्मिक	-10.6557
▁अनरिय	-10.6559
य्ह	-10.656
अस्स	-10.6561
▁चुन्द	-10.6561
लेस	-10.6562
ठ	-10.6569
▁धुवं	-10.6571
लाप	-10.6574
▁चिन्त	-10.6575
▁पदट्ठानं	-10.6575
▁सोतवि	-10.6576
▁भोतो	-10.658
▁उच्छिन्	-10.6581
ेतुकामो	-10.6583
▁खत्तिया	-10.6583
▁भर	-10.6589
▁दिट्ठानुसयो	-10.6592
पाठ	-10.6592
▁सामि	-10.6595
▁वीस	-10.6597
▁सम्मोह	-10.6597
▁वसन्तो	-10.66
▁पुच्छितो	-10.66
▁उत्तान	-10.6603
▁उजु	-10.6604
▁गमने	-10.661
▁पदेस	-10.6614
▁भावित	-10.6616
समुद्द	-10.6619
▁दुविधेन	-10.6621
▁वारि	-10.6624
▁सत्तसु	-10.663
▁पहातब्ब	-10.6632
▁सम्पटिच्छ	-10.6632
▁वसे	-10.6632
▁गव	-10.6635
▁पट	-10.6636
▁इस्सा	-10.6636
▁पुब्बभागे	-10.6637
▁ठानेहि	-10.6638
▁दुविध	-10.6638
द्वारं	-10.6639
▁पथवि	-10.6642
चिकट्ठपरमत्थेन	-10.6644
▁कतन्ति	-10.6647
▁ठपिता	-10.6647
▁अच्छिन्	-10.6647
निपातो	-10.6648
▁वित्थारो	-10.6648
▁पटिपदाय	-10.6652
▁गोचर	-10.6652
▁निब्बिन्दति	-10.6653
▁विपरिणाम	-10.6655
▁अय्ये	-10.6657
ङ	-10.6657
याव	-10.6662
कुणेय्य	-10.6668
पदुम	-10.6671
कम्मस्स	-10.6674
▁कतम	-10.6677
▁वाक्यं	-10.6678
रूपानि	-10.6679
रूपे	-10.6681
▁उपचार	-10.6683
ुद्देस	-10.6684
▁तण्ह	-10.6691
▁गहेतब्ब	-10.6696
▁रह	-10.6696
साय	-10.6698
▁नोआसव	-10.6701
▁किरिय	-10.6701
▁मद्द	-10.6702
धरो	-10.6705
▁रस्सो	-10.6705
▁विस्सट्ठ	-10.6708
▁पाळिया	-10.6709
ञत्त	-10.6709
न्ध	-10.6711
सम्	-10.6712
पाय	-10.6713
चेकबुद्ध	-10.6715
▁सावक	-10.6723
ानन्तरं	-10.6725
▁सम्मासम्बुद्धेन	-10.6727
▁गङ्गा	-10.6728
▁१२६	-10.6731
▁युत्ता	-10.6733
▁अब्भन्तर	-10.6736
▁सरणगमन	-10.674
यु	-10.6742
▁नावा	-10.6743
ेसी	-10.6743
▁विभाव	-10.6745
▁विसभाग	-10.6745
▁करिस्सामि	-10.6747
▁गच्छामि	-10.6748
▁सकलं	-10.6749
▁अधिमुच्	-10.675
▁तेनाति	-10.675
लासो	-10.6751
ञोजनसम्पयुत्त	-10.6753
छन्द	-10.6753
▁उपपरिक्ख	-10.6754
भेदं	-10.6754
सभावा	-10.6758
▁विप्प	-10.676
▁पग्गह	-10.676
▁१२८	-10.6761
ट्ठानतो	-10.6762
▁विमोक्ख	-10.6764
▁घरं	-10.6771
दिट्ठ	-10.6773
▁हवे	-10.6774
कम्मट्ठान	-10.6774
कटन्ति	-10.6775
▁पतित	-10.6776
ीतिक्	-10.678
▁इदमवोच	-10.678
▁आदिं	-10.6781
महाराज	-10.6783
▁घरे	-10.6787
▁महाजनस्स	-10.6789
▁ब्या	-10.6793
▁उदकेन	-10.6794
▁समञ्	-10.6796
ोपम	-10.6804
पण्डितो	-10.6804
▁कातब्ब	-10.6806
▁निद्देस	-10.6806
भावनाय	-10.6807
िकानं	-10.6808
चाल	-10.6809
▁अनापुच्छा	-10.6809
ाधिप्पाय	-10.6811
▁विभव	-10.6811
वासि	-10.6812
▁अद	-10.6818
▁निस्सज	-10.6821
▁पत्थना	-10.6821
सेय्य	-10.6826
▁१२७	-10.6832
▁रागस्स	-10.6833
दाय	-10.684
कण्टक	-10.6844
वाचा	-10.6844
जिस्सन्ति	-10.6848
कायदिट्ठि	-10.685
चारी	-10.685
एतं	-10.685
वेच्	-10.6852
माहु	-10.6852
▁पुरिसानं	-10.6855
वत्थुका	-10.6859
▁सदिसो	-10.686
यत्थ	-10.6864
ञथ	-10.6864
परिवार	-10.6865
▁विपरीत	-10.6866
▁उभयत्थ	-10.687
▁दस्सनत्थं	-10.6878
ेसू	-10.6881
▁नदिया	-10.6885
▁उपट्ठ	-10.6889
▁कदा	-10.689
लेन	-10.6891
▁रासि	-10.6895
▁पटिभान	-10.6898
▁नक्खत्त	-10.6905
▁विहर	-10.6906
▁कारक	-10.6906
▁उत्तमं	-10.691
▁परिग्गह	-10.6915
चेसु	-10.6917
▁उपट्ठानं	-10.6917
परिसा	-10.6918
चिमे	-10.692
▁पटिप्पस्सम्भ	-10.6922
▁अधिगम	-10.6922
▁दुक्खेन	-10.6924
▁वुट्ठान	-10.6927
▁कारापेत्वा	-10.6934
चिकट्ठपरमत्थेना	-10.6934
कालिक	-10.6936
▁धातू	-10.6938
▁पत्थ	-10.6938
▁दह	-10.694
तले	-10.6941
िकाति	-10.6942
सुं	-10.6942
क्खन्धो	-10.6942
▁अनुवत्त	-10.6943
पान	-10.6943
▁पथवीधातु	-10.6943
▁वाक्य	-10.6948
▁समुच्छिन्	-10.6952
▁उच्छु	-10.6955
भङ्ग	-10.6959
त्थेरअपदानवण्णना	-10.6962
▁दुक्खक्खन्धस्स	-10.6964
▁चतुवीसति	-10.6965
▁अच्छरा	-10.6969
▁तण्डुल	-10.6974
▁निपात	-10.6974
▁सकुण	-10.6976
ामहं	-10.6977
▁मानानुसयेन	-10.6978
▁सरूपतो	-10.6983
▁अहोसिं	-10.6984
▁बुद्धुप्पादे	-10.6986
▁योग	-10.6987
▁अनुत्तरो	-10.6988
समनन्तरपच्	-10.699
▁मोक्ख	-10.6991
थाति	-10.6995
गरु	-10.6996
चङ्ग	-10.6999
ेन्ती	-10.7005
▁अनेकविहित	-10.7006
▁पब्बतो	-10.7007
▁नर	-10.7008
▁रूपारूप	-10.7008
▁परिच्छेद	-10.7009
▁आस	-10.701
▁ठानानि	-10.7012
▁त्य	-10.7014
▁अपुञ्	-10.7014
क्खा	-10.7015
ेहिपि	-10.7018
▁पञ्हे	-10.7018
▁पुप्फं	-10.702
वन्तं	-10.7026
▁अग्गहेत्वा	-10.7028
▁खग्गविसाणकप्पो	-10.7029
▁तीरे	-10.703
तिआदिकं	-10.703
▁भोगा	-10.7031
▁विमति	-10.7036
भागे	-10.7039
लोके	-10.704
▁अत्थेव	-10.7041
लप	-10.7042
पटिसन्धि	-10.7043
▁पटिग्गण्हाति	-10.7045
णे	-10.7046
▁चतुब्बिध	-10.7047
▁दुविधा	-10.7049
▁याचितो	-10.705
▁भिक्खुसङ्घं	-10.7053
▁भाय	-10.7056
▁अट्ठसु	-10.7057
मेत्थ	-10.7058
▁नचिरस्सेव	-10.7061
सिप्प	-10.7062
विधान	-10.7063
युत्ता	-10.7064
▁सूकर	-10.7064
▁यम	-10.7065
पटिबद्ध	-10.7067
मातिका	-10.707
▁रजो	-10.7071
▁विवट	-10.7071
▁कतञ्	-10.7071
ाचरिय	-10.7075
▁सारथि	-10.7077
हु	-10.708
▁मय	-10.708
▁पल	-10.7083
▁अस्सासपस्सास	-10.709
सेवन	-10.7092
पत्तं	-10.7092
मूलं	-10.7094
▁सीसे	-10.7098
चिक्ख	-10.7098
सिद्ध	-10.71
▁धीता	-10.71
मेक	-10.7101
▁आवट्ट	-10.7103
▁वासेट्ठ	-10.7104
▁पदट्ठान	-10.7108
सिक्खापदे	-10.7111
▁करोहि	-10.7112
▁सम्बुद्ध	-10.7113
▁गिलानो	-10.7114
प्य	-10.7119
▁उपोसथकम्मं	-10.7122
▁आहारा	-10.7123
▁कल	-10.7123
▁मेथुनं	-10.7128
▁अत्था	-10.7128
▁सब्बेन	-10.7129
▁अनभि	-10.713
▁होतू	-10.7131
▁नानाक्खणिका	-10.7132
▁परिकम्म	-10.7134
▁गामणि	-10.714
▁सागर	-10.7143
वु	-10.7144
कसविचारा	-10.7146
रति	-10.7146
पारमी	-10.7152
दिवस	-10.7154
▁सिव	-10.7155
▁परिक्खार	-10.7158
कम्मे	-10.716
चान	-10.7161
▁गोतमं	-10.7163
▁रतनं	-10.7165
▁कल्	-10.7166
▁कथिन	-10.717
▁अनुबन्ध	-10.717
ोदकं	-10.7173
पदस्स	-10.7173
मय्हं	-10.7173
▁अयो	-10.7176
दोसो	-10.718
▁हिंस	-10.7182
▁बहुस्सुतो	-10.7186
▁विपुलं	-10.7187
भगवा	-10.7188
दस्स	-10.7188
▁बहुवचन	-10.7191
▁करणीया	-10.7192
भु	-10.7193
▁अत्तमना	-10.7193
▁सङ्घिक	-10.7195
▁नास्स	-10.7196
▁अरूपिनो	-10.7197
कुम्भ	-10.7198
िके	-10.7198
न्तेसु	-10.7199
▁धनु	-10.7202
मत्तो	-10.7209
▁वंस	-10.7211
▁रट्ठं	-10.7214
▁पूरण	-10.7215
पदेन	-10.7217
हत्थो	-10.722
▁भावे	-10.7221
▁पदेन	-10.7221
▁पानीयं	-10.7223
ञपेन्ति	-10.7225
होति	-10.7226
▁तदुभय	-10.7226
▁सेल	-10.7227
▁अप्पमाण	-10.7229
जव	-10.7233
क्रिया	-10.724
सक	-10.7248
▁पुत्तदार	-10.7249
यम्पि	-10.725
▁सरो	-10.7251
विनास	-10.7251
▁ओळारिक	-10.7251
ाधिक	-10.7251
▁सद्धिन्द्रिय	-10.7252
दीनं	-10.7258
हन्ति	-10.7259
▁पेसेसि	-10.726
▁उपासक	-10.7262
▁पुब्बेनिवास	-10.7263
विधि	-10.7264
▁अनो	-10.7272
▁तपो	-10.7273
▁लु	-10.7273
ापेय्य	-10.7278
▁सुमन	-10.7278
▁अभय	-10.728
▁सद्ध	-10.7282
▁पविवेक	-10.7282
▁वुत्तप्पकार	-10.7287
एहि	-10.729
▁एकवचन	-10.7291
िस्सामा	-10.7291
▁आरम्मणपुरेजातं	-10.7291
▁पुल	-10.7294
ञेसु	-10.7295
रण	-10.7298
▁हीनं	-10.73
▁परिब्बाजको	-10.73
▁आचरियेन	-10.7301
▁तादिनो	-10.7301
जेय्युं	-10.7304
▁सापि	-10.7307
मत्थके	-10.7307
▁अरहन्त	-10.7308
अपि	-10.731
▁नागराजा	-10.731
जन्ती	-10.731
▁सूर	-10.731
▁भोजने	-10.7311
▁वत्तमाने	-10.7313
▁मनापा	-10.7315
ग्गे	-10.7318
पत्ति	-10.7323
▁सदेवके	-10.7323
दुस्स	-10.7325
▁देसेस्सामि	-10.7325
▁समनुपस्सति	-10.7332
सानं	-10.7332
वासी	-10.7333
▁हिमवन्त	-10.7336
▁ठाना	-10.7337
▁केवलस्स	-10.7338
दस्सी	-10.7339
न्तेहि	-10.7339
▁करोन्ता	-10.734
▁इस्सर	-10.734
▁होन्तु	-10.7341
▁गुणवन्त	-10.7342
लको	-10.7343
चित्तानि	-10.7343
चित	-10.7345
पिट्ठि	-10.7347
▁नअहेतुक	-10.7349
▁एवन्ति	-10.735
पकार	-10.735
ितब्बन्ति	-10.735
▁अस्मिं	-10.7352
चत्तारो	-10.7353
▁वयो	-10.7354
▁सुतेन	-10.7358
उत्तरिमनुस्सधम्म	-10.7359
संवर	-10.7359
▁कोसिय	-10.7361
▁फुसित्वा	-10.7366
लता	-10.7369
▁अभिव	-10.737
विवज्	-10.7373
सम्मुति	-10.7374
ियमाना	-10.7374
अभिक्	-10.7374
▁गण्हन्तो	-10.7376
पसाद	-10.7377
▁करणं	-10.7378
विभङ्गे	-10.7384
▁पस्सं	-10.7385
ञापेति	-10.7386
भोजनं	-10.7391
▁आरम्मणूपनिस्सयो	-10.7392
▁आबाध	-10.7394
▁सेय्य	-10.7395
चिन्द्रियानि	-10.7404
▁हेव	-10.7405
▁पहर	-10.7406
सेट्ठ	-10.7407
नर	-10.7407
▁उद्ध	-10.7411
ञत्ते	-10.7411
▁एय्य	-10.7412
कुलं	-10.7413
▁सेना	-10.7413
▁निक्खिपित्वा	-10.7413
खण्ड	-10.7415
तब्ब	-10.7417
▁उक्खिप	-10.7417
जिंसु	-10.7417
▁अनागता	-10.7418
जथ	-10.7423
▁तावदे	-10.7424
कथञ्हि	-10.7426
ारम्मणा	-10.7427
▁चुता	-10.7427
▁सिला	-10.7429
▁एतदवोचुं	-10.7432
▁इस्सरो	-10.7432
प्पसाद	-10.7432
▁चीवरे	-10.7433
▁परमत्थतो	-10.7435
▁पटिलभति	-10.7435
▁उद्धरित्वा	-10.7436
▁घोस	-10.7438
▁निदानं	-10.744
कसिण	-10.744
पण्डित	-10.7441
▁लब्भतीति	-10.7446
नत्थ	-10.7446
ुज्	-10.7447
विपत्ति	-10.7448
िमं	-10.7454
▁उपेक्खिन्द्रिय	-10.7456
▁परिनिब्बुतो	-10.7457
▁इमञ्	-10.7457
▁भवेसु	-10.7459
योनि	-10.7461
▁सत्तु	-10.7463
▁चेति	-10.7475
▁समथो	-10.7477
कङ्ख	-10.7478
▁सनिदस्सनसप्पटिघ	-10.748
▁समागता	-10.7481
सभावं	-10.7489
▁परिपुच्छ	-10.7491
जस्स	-10.7491
▁पुरिसिन्द्रिय	-10.7491
▁कन्त	-10.7492
▁एकम्पि	-10.7493
▁सरित्वा	-10.7494
▁समूह	-10.7495
स्सज्	-10.7496
▁पक्खित्त	-10.75
जानं	-10.7502
▁सहब्यतं	-10.7508
गोत्त	-10.7509
▁भिक्खवो	-10.7511
चयता	-10.7516
▁सीलेसु	-10.7516
▁हरित	-10.7517
पूरण	-10.7526
▁पह	-10.7535
रता	-10.7536
नागत	-10.7543
नादान	-10.7547
ट्ठित	-10.7551
▁सम्भव	-10.7553
ञायो	-10.7555
योगे	-10.7556
▁ला	-10.7562
▁सिरसा	-10.7564
आदीहि	-10.7566
▁महादानं	-10.7566
▁महाजनो	-10.7567
सच्छिकिरियाय	-10.7569
▁सज्झाय	-10.7571
ानुभाव	-10.7572
▁बुद्धेन	-10.7573
▁पुब्बापर	-10.7575
दसहायतनेहि	-10.7579
लक्ख	-10.7582
ङ्गुल	-10.7582
▁पुत्तस्स	-10.7582
▁महेसि	-10.7585
चयभे	-10.7585
जानाति	-10.7591
बुद्धि	-10.7595
▁कायकम्म	-10.7596
मना	-10.7599
▁कत्वाति	-10.7603
▁पकासितो	-10.7605
चुपट्ठाना	-10.7607
▁मेथुन	-10.7608
▁भावेन्तो	-10.761
▁करिस्सामी	-10.7612
▁उपेक्खाय	-10.7612
▁खेत्तं	-10.7614
ञि	-10.7618
▁हत्थी	-10.7618
▁सङ्घादिसेसो	-10.7619
▁चेत	-10.762
▁सुद्धि	-10.7621
▁आनिसंस	-10.7623
नामेन	-10.7624
१२	-10.7625
▁वह	-10.7627
▁योनि	-10.7629
▁गावो	-10.7631
स्साम	-10.7633
▁सोतापत्तिफल	-10.7638
▁नरा	-10.764
▁देसेन्तो	-10.764
संयुत्तं	-10.764
▁अरहत्तफल	-10.7641
त्थु	-10.7642
कतमा	-10.7645
कम्मा	-10.7645
▁होन्ती	-10.7646
विनोदन	-10.7646
▁रुक्खं	-10.7647
▁जानन	-10.7648
ण्ह	-10.7649
चवेक्खन्ति	-10.7651
▁सम्परायिक	-10.7651
▁पदानं	-10.7663
▁आसवविप्पयुत्त	-10.7664
▁ख्वाहं	-10.7664
नविपाकधम्मधम्मो	-10.7667
लोको	-10.7668
ादी	-10.7672
चवोकारे	-10.7672
सम्बोज्झङ्गस्स	-10.7673
त्तञ्	-10.7682
रूपेन	-10.7682
ासन	-10.7689
▁अनासवा	-10.769
▁पथवियं	-10.7691
असुक	-10.7698
▁मेत्तं	-10.7699
▁वत्थुपुरेजातं	-10.7699
▁अपचयगामि	-10.7699
▁अदत्वा	-10.77
जातके	-10.7703
च्छि	-10.7704
▁१३०	-10.7704
पादक	-10.7704
▁तिधा	-10.7707
▁साखा	-10.7715
▁सक्खि	-10.7715
▁योगो	-10.7718
अधि	-10.772
▁गज्	-10.7727
पामो	-10.7727
▁उज्	-10.7729
▁भावितो	-10.773
िनिं	-10.7732
पञ्ह	-10.7734
ाही	-10.7734
▁मनायतन	-10.7735
▁पटिग्गह	-10.7738
वाचक	-10.7739
▁चोरा	-10.7742
▁समो	-10.7742
▁नख	-10.7742
▁भावेत्वा	-10.7744
▁खादनीयं	-10.7751
निरोधा	-10.7753
▁उट्ठित	-10.7753
▁अभाव	-10.7756
▁आसन	-10.7756
▁समथेहि	-10.7756
▁रागं	-10.7758
▁अधम्मेन	-10.776
▁दाय	-10.776
वारवण्णना	-10.7766
वादि	-10.7766
▁सुकत	-10.7772
ियमाने	-10.7774
मर	-10.7775
▁विद्धंस	-10.7776
▁फलसमापत्तिया	-10.7779
▁निब्बत्ता	-10.7779
▁तापसो	-10.778
जय	-10.778
▁वुत्तञ्हि	-10.7783
▁समुदाय	-10.7787
ानन्तर	-10.7788
रोह	-10.7789
▁सम्मावायामो	-10.7792
▁कुलानि	-10.7793
कुस	-10.7797
▁रति	-10.7797
पटिपत्ति	-10.7802
▁निरुज्झिस्सन्ति	-10.7804
▁अहेतुकपटिसन्धि	-10.7805
▁कथित	-10.7812
▁चण्डाल	-10.7813
अत्त	-10.7818
▁आरभति	-10.7821
▁सुप्प	-10.7822
▁रूपावचरं	-10.7822
▁पवत्तनतो	-10.7825
▁देवलोक	-10.7827
प्पकार	-10.7828
▁सेय्यं	-10.7828
▁पसादो	-10.7828
▁अनुयु	-10.7828
▁मत्थके	-10.783
यस्मिं	-10.7831
जनवसेन	-10.7832
वित्थार	-10.7832
▁वसा	-10.7832
त्थेर	-10.7833
नताय	-10.7833
▁गाय	-10.7833
▁तिल	-10.7836
▁विहासि	-10.7842
परिच्छेदो	-10.7842
ळि	-10.7847
▁पमोद	-10.7849
▁तथागतेन	-10.7859
परियायो	-10.7864
▁१२९	-10.7869
ञापन	-10.7871
▁दुतियम्पि	-10.7875
गामी	-10.7877
▁अरणो	-10.7887
वरो	-10.7888
▁निक्खमि	-10.7889
ञत्तो	-10.7889
▁चण्ड	-10.7889
▁पुरिसेन	-10.7891
पुरेजातपच्	-10.7891
▁उत्तानत्थमेव	-10.7893
▁भूतं	-10.7894
▁बलानि	-10.7895
▁समाना	-10.7895
▁देवी	-10.7897
कासि	-10.7903
▁पदा	-10.7903
▁कयिरा	-10.7903
▁वायमति	-10.7905
▁अयुत्त	-10.7907
▁पोराण	-10.7907
ेहेव	-10.7908
▁एकदेस	-10.7909
▁पच्छिमं	-10.7909
▁अनापत्तीति	-10.791
▁अदा	-10.7914
▁दुतियज्झान	-10.7916
▁सुरा	-10.7918
िस्सन्ती	-10.792
▁चतुत्थज्झान	-10.7921
यन्तीति	-10.7921
▁महाजन	-10.7927
हारो	-10.7928
ञतं	-10.793
रव	-10.7936
▁गहितत्ता	-10.7937
▁सुन्दरं	-10.7938
▁पक्खिप	-10.7939
▁केसा	-10.794
▁ठपेति	-10.7941
वसि	-10.7943
▁धनेन	-10.7946
सङ्ग	-10.7948
ेस्सति	-10.7949
▁अब्भन्तरे	-10.7949
▁१४०	-10.795
▁भावितत्ता	-10.7951
▁सत्तमो	-10.7951
▁परमं	-10.7953
▁सिनेरु	-10.7955
सभाग	-10.7955
▁विचिन	-10.7957
▁एतायाति	-10.7957
▁ब्यापादो	-10.7961
ापय	-10.7964
▁आकङ्ख	-10.7965
▁धातूनं	-10.7966
▁अम	-10.7967
▁सङ्घाटि	-10.7971
▁पब्बते	-10.7972
▁वत्तन्ति	-10.7972
▁विकाले	-10.7974
▁आचरियस्स	-10.7975
▁मज्झत्त	-10.7976
ेस	-10.7976
कारको	-10.7977
▁गोत्तेन	-10.7979
▁जनं	-10.7981
पाणि	-10.7981
चयेसु	-10.7983
▁होहि	-10.7983
▁पानीय	-10.7983
माल	-10.7985
▁सुद्धावास	-10.7986
▁लोकिया	-10.7987
▁अवण्णं	-10.7993
▁स्वा	-10.7994
वेदन	-10.7996
▁उज्झायन्ति	-10.8
▁जराय	-10.8001
▁रागादि	-10.8002
▁मानुसं	-10.801
▁उदानेसि	-10.8017
▁दातब्ब	-10.8018
सङ्खेप	-10.8019
▁अनासवं	-10.802
▁उपादानसम्पयुत्त	-10.8023
हत	-10.8023
▁मनुस्से	-10.8024
ञुता	-10.8028
िध	-10.8029
▁देथा	-10.8033
▁अमनुस्स	-10.8035
▁फर	-10.8038
▁कथेतुं	-10.8038
▁सम्भवति	-10.8039
▁आपो	-10.804
▁अहेतुको	-10.804
▁मनुस्सलोके	-10.8045
विवेक	-10.8047
▁विपल	-10.8049
▁आराध	-10.805
▁अनुप्पाद	-10.8052
▁विरति	-10.8052
▁धीरा	-10.8052
▁नारी	-10.8056
▁निरोधा	-10.8057
पटिपक्ख	-10.8058
ुप्पादन	-10.806
▁उग्गत	-10.8064
▁धम्मिक	-10.8065
चसहगतो	-10.8066
कुटि	-10.8067
ञतरस्स	-10.807
▁समाधिस्मिं	-10.807
▁सम्बहुले	-10.8071
▁कोविदो	-10.8072
▁पञ्ह	-10.8073
▁उपसम	-10.8077
मरण	-10.8079
मंसं	-10.8079
सेट्ठि	-10.808
▁पतिट्ठिता	-10.8082
▁आसवो	-10.8084
▁करोथा	-10.8086
तेसं	-10.8087
▁निपातमत्तं	-10.8089
▁इम	-10.8092
▁सुव	-10.8093
▁सब्बेहि	-10.8095
▁विमुत्त	-10.8096
▁तथारूप	-10.81
▁पहीनत्ता	-10.8101
▁कुब्ब	-10.8101
▁अदुक्खमसुखं	-10.8102
▁वास	-10.8102
▁सुत्तन्त	-10.8102
ज्झासय	-10.8107
▁१३५	-10.8107
▁पविट्ठो	-10.8107
ादीनञ्	-10.8111
▁सायं	-10.8113
▁पनेस	-10.8114
▁भूता	-10.8115
ागम	-10.8117
निदानं	-10.8119
▁तित्थिय	-10.812
▁कुच्छि	-10.8121
▁कारिते	-10.8122
▁नामानि	-10.8123
▁पत्तचीवरमादाय	-10.8124
भयेन	-10.8124
मेत	-10.8125
▁पभुति	-10.8127
▁उपादारूपं	-10.8129
▁करोमि	-10.8129
▁अधिप	-10.8129
▁घानिन्द्रिय	-10.813
▁विपत्ति	-10.8134
द्दि	-10.8134
▁विमानं	-10.8135
▁युग	-10.8135
पुत्ता	-10.8136
▁१३७	-10.8138
▁सादिय	-10.8138
नको	-10.8145
▁धम्मधातु	-10.8145
▁१३३	-10.8147
विकार	-10.8148
▁अक्खि	-10.8149
कतम	-10.815
▁नपच्छाजात	-10.8156
▁तिविधा	-10.8157
▁सुखुमा	-10.8157
▁तस्सापि	-10.8158
▁जम्बुदीप	-10.816
▁गण्ड	-10.8161
तब्बं	-10.8165
पब्बज	-10.8166
▁ठपितं	-10.817
▁जम्बु	-10.8174
ायस्मतो	-10.8176
▁आरक्ख	-10.8177
▁गच्छन्ते	-10.8178
सहित	-10.8179
चारो	-10.8179
▁मुखेन	-10.8181
▁पथ	-10.8182
▁तेजो	-10.8183
▁नीवरणा	-10.8183
▁महाकच्	-10.8187
सब्बं	-10.819
▁अरहत्तमग्ग	-10.8194
एस	-10.8196
▁इमानेत्थ	-10.8196
▁दुज्	-10.8201
▁अनादरियं	-10.8203
▁अनुरुद्ध	-10.8205
▁अनुप्पत्तो	-10.8207
▁सम्मति	-10.8209
इदानि	-10.8209
▁पाकार	-10.8211
▁सग्गे	-10.8214
▁देहं	-10.8215
▁उपट्ठह	-10.8216
▁विपस्सिस्स	-10.8216
▁मोहं	-10.8219
ेन्ता	-10.8224
चतुन्	-10.8227
▁सामिवचनं	-10.8228
▁पाणं	-10.8228
▁एवम	-10.8229
▁संयोग	-10.823
▁यदिपि	-10.823
कायं	-10.823
▁धार	-10.8232
▁सालि	-10.8235
▁नियम	-10.8242
▁पाठ	-10.8243
ादिका	-10.8247
▁अनव	-10.8249
▁पूजा	-10.8253
▁ञात	-10.8253
चत्तारोमे	-10.8253
चेतिय	-10.8255
▁मानुस	-10.8258
▁फलानि	-10.8261
▁अद्दसं	-10.8263
▁मारस्स	-10.8263
▁निज्	-10.8266
▁रसो	-10.8268
लङ्कं	-10.8269
पटिपदा	-10.8269
▁योजन	-10.8271
सम्मा	-10.8272
रू	-10.8272
▁अवसेसं	-10.8273
▁परित्तो	-10.8275
▁विनस्स	-10.8276
▁अनुमोद	-10.8278
▁१३२	-10.8278
ानञ्हि	-10.828
▁गतं	-10.8283
▁नेत्त	-10.8284
तीहि	-10.8285
सुत	-10.8285
▁मातुगामो	-10.8288
▁संवेग	-10.8288
ट्ठिति	-10.8288
▁जन्तु	-10.8291
▁धम्मकथं	-10.8291
▁अन्तेवासिक	-10.8298
▁भिक्खुसङ्घो	-10.8301
▁अतीता	-10.8305
▁दस्सामी	-10.8306
ाराम	-10.8307
▁छत्तिंस	-10.8308
▁पकासेत्वा	-10.8317
▁सीहनादं	-10.8317
▁पणाम	-10.8318
▁अधिप्पायेन	-10.832
▁सेसानि	-10.8321
गुणा	-10.8324
मज्झिम	-10.8325
पुरे	-10.8328
▁अवच	-10.8328
ियति	-10.8329
ब्रह्मचरिय	-10.8332
▁अगारं	-10.8332
▁जातिं	-10.8336
▁सेक्ख	-10.8336
ाधिकरण	-10.8336
तस्सा	-10.834
▁दिवस	-10.834
▁१३८	-10.8341
▁धुतङ्ग	-10.8341
▁पभा	-10.8344
▁सम्भवो	-10.8345
हङ्गेहि	-10.8346
सहाय	-10.8347
ाभावेन	-10.8349
▁छत्तं	-10.8351
धातूति	-10.8352
▁सभावतो	-10.8354
ादिभेदं	-10.8355
▁देही	-10.8356
▁सम्पाद	-10.8359
लिक	-10.836
सम्प	-10.8361
लद्ध	-10.8361
ञफल	-10.8361
▁अधिप्पाय	-10.8362
▁पुनपि	-10.8362
▁अप्पहीन	-10.8363
▁लोहितं	-10.8365
कोन्ति	-10.8366
▁संयोजनानि	-10.8371
ञायतीति	-10.8379
विराग	-10.838
▁लुद्द	-10.8381
▁हास	-10.8382
▁अप्पमाणं	-10.8382
ेय्यासि	-10.8385
▁पादं	-10.8386
रक्खित	-10.8386
▁पटिसन्धिं	-10.8387
पदानं	-10.8391
साधू	-10.8391
नियम	-10.8393
▁उपरिम	-10.8394
▁विमुत्तो	-10.8396
▁रसा	-10.8396
▁उपट्ठाति	-10.8398
▁एकन्तेन	-10.8399
▁महन्तो	-10.8399
▁चरन्तो	-10.84
▁निब्बानञ्	-10.84
भाजन	-10.8401
पमाण	-10.8402
▁नागा	-10.8403
▁समुच्	-10.8404
▁तिरो	-10.8405
▁१३४	-10.8408
देसे	-10.8408
▁उर	-10.8408
धम्मस्स	-10.8409
▁१३१	-10.841
ारम्मणे	-10.8413
▁कम्मुना	-10.8415
जच्	-10.8417
▁संयोजनानं	-10.8418
▁तथागत	-10.842
सम्भवतो	-10.8424
▁ओळारिका	-10.8424
▁हेत्थ	-10.8425
▁कुसलाकुसल	-10.843
▁धूम	-10.843
▁विनिपातं	-10.8432
भिक्ख	-10.8432
▁गच्छन्तं	-10.8433
▁वत्थूनि	-10.8434
▁अभिज्झादोमनस्सं	-10.8439
▁तावदेव	-10.8441
भेदा	-10.8444
▁सप्पीतिक	-10.8445
▁पुरेजातस्स	-10.8446
▁तेसन्ति	-10.8448
▁उदान	-10.8454
सीह	-10.8456
▁सासनस्स	-10.8461
▁सके	-10.8461
▁देवराजा	-10.8462
▁कुहिं	-10.8463
वच्छ	-10.8466
▁आसय	-10.8468
▁सण्ह	-10.8469
▁ताहि	-10.8469
पे	-10.8473
▁वी	-10.8475
▁वुत्ति	-10.8478
▁ब्रह्मलोके	-10.8478
▁मेघ	-10.8478
▁समाधिन्द्रियं	-10.8479
पत्तिया	-10.8492
▁तेसम्पि	-10.8492
▁पटिच्छाद	-10.8493
▁तिट्ठतीति	-10.8494
काया	-10.8496
▁चेतियं	-10.8497
▁परिब्बाजक	-10.85
▁भङ्ग	-10.85
वीथि	-10.8501
▁खलु	-10.8503
▁पुच्छन्तो	-10.8503
हमस्मि	-10.8505
▁तेजोधातु	-10.8506
इमस्मिं	-10.8507
▁पस्सेय्य	-10.8509
▁सन्ता	-10.8511
▁सिनेह	-10.8513
▁१३६	-10.8514
▁देवतानं	-10.8515
▁ओत्तप्प	-10.8515
खिल	-10.8519
▁सत्ति	-10.8523
▁लोकुत्तरा	-10.8525
▁अज्झत्तिकं	-10.8526
वसा	-10.8527
▁पासाद	-10.853
वादिनो	-10.8532
▁धारेति	-10.8536
▁रूपञ्	-10.8536
दास	-10.8538
▁सहेतुका	-10.854
▁कामावचरे	-10.854
▁अयमस्स	-10.854
▁राध	-10.8543
▁आनन्दं	-10.8543
▁एकेकं	-10.8546
परिग्गह	-10.8547
दिस्स	-10.855
जेय्याति	-10.8554
▁भित्ति	-10.8559
▁सुखी	-10.856
▁वण्णे	-10.8561
▁देवपुत्त	-10.8562
▁नीच	-10.8564
ेसो	-10.8565
▁ञाणस्स	-10.8567
▁गोत्त	-10.8568
लापो	-10.8569
▁ओतरित्वा	-10.8571
▁किन्	-10.8571
▁सोत्थि	-10.8571
▁अभिभवित्वा	-10.8571
पूज	-10.8571
▁पटिजग्ग	-10.8577
▁लूख	-10.8577
नुपादानियं	-10.8579
▁सेति	-10.8582
▁उम्मु	-10.8584
▁पक्खे	-10.8587
▁तयिदं	-10.8588
तिण	-10.8589
पदान	-10.859
▁विघात	-10.859
▁तप्पच्	-10.859
▁किलम	-10.8598
▁तिविधो	-10.86
▁सन्ताने	-10.8603
▁अयोनिसो	-10.8603
▁विभङ्ग	-10.8605
▁सुगन्ध	-10.8607
▁रूपावचरे	-10.8611
▁अलोभो	-10.8611
▁नानाविध	-10.8612
▁लिखितं	-10.8612
रट्ठे	-10.8613
▁अपायं	-10.8614
▁विपाका	-10.8614
▁सिक्खापदानि	-10.8616
▁घट्ट	-10.8619
▁कारेतब्बो	-10.8626
▁सोतापत्तिमग्ग	-10.8626
▁उत्तमो	-10.8629
▁दिव	-10.8631
वत्थुं	-10.8634
▁सेट्ठं	-10.8637
▁उत्तानमेवाति	-10.8638
▁सब्बेसम्पि	-10.8643
▁आपदासु	-10.8645
▁खिय्यन्ति	-10.8647
भेसज	-10.8647
▁वण	-10.8647
रस्स	-10.8648
▁परिवारेत्वा	-10.865
पुब्बे	-10.865
मनसिकार	-10.8656
–	-10.8658
▁एवमेतस्स	-10.866
▁देवानमिन्द	-10.8664
▁धारेय्य	-10.8668
ञाहि	-10.8669
▁चङ्कम	-10.8672
प्पहानं	-10.8674
घर	-10.8675
पत्थ	-10.8676
जिते	-10.8677
निवास	-10.8678
▁समणं	-10.8681
▁घानं	-10.8681
▁पयोज	-10.8684
▁चेतोविमुत्तिं	-10.8684
महं	-10.8684
▁देवानमिन्दो	-10.8686
▁एतन्ति	-10.8688
▁तम्हि	-10.8691
▁चेतेति	-10.8692
▁वक्खमान	-10.8692
▁भद्र	-10.8692
▁याथावतो	-10.8693
▁अविञ्	-10.8694
२०	-10.8694
▁इत्थिन्द्रिय	-10.8696
▁यस्सा	-10.87
चत्तं	-10.87
ङ्गण	-10.8702
▁भासितस्स	-10.8702
▁निस्सयो	-10.8707
▁संसर	-10.8708
ञप	-10.8711
त्थेरगाथा	-10.8714
▁निरोधं	-10.8714
चेवं	-10.8717
नसनिदस्सनसप्पटिघ	-10.8722
ानुलोम	-10.8723
गेह	-10.8723
▁कुटि	-10.8724
▁जर	-10.8732
कस्मा	-10.8734
▁ब्यग्घ	-10.8734
▁सिक्खितब्बं	-10.8735
▁समेन्ति	-10.8736
कविचारानं	-10.874
कम्मट्ठानं	-10.8741
▁१३९	-10.8741
▁अहि	-10.8744
▁नियोज	-10.8744
सण्ठान	-10.8749
स्मिञ्हि	-10.8754
▁फुट्ठ	-10.8754
दायको	-10.8754
कण्ठ	-10.8756
▁तिरच्छान	-10.8759
▁कायानुपस्सी	-10.876
▁आचरिया	-10.876
▁पुम	-10.8762
▁हा	-10.8763
मूलका	-10.8763
▁पहरित्वा	-10.8767
सयन	-10.8768
▁पविसति	-10.8768
▁मोद	-10.8768
▁निरुज्झित्थाति	-10.8774
म्बु	-10.878
▁सङ्खेपो	-10.8783
समुदयो	-10.8787
▁पतिट्ठितो	-10.8788
ञाणानि	-10.8789
▁रूपायतनञ्	-10.8792
▁मुखे	-10.8793
▁विकार	-10.8794
▁सिस्स	-10.8794
▁अत्तनाव	-10.8794
▁पठमेन	-10.8796
साला	-10.8797
▁कुलगेहे	-10.8797
▁विहेठ	-10.8797
सभ	-10.8797
▁कट	-10.8797
कथायं	-10.8798
▁दिस	-10.8801
▁फ	-10.8802
▁गहेतब्बा	-10.8803
ञिन्द्रिय	-10.8804
▁इस्सरिय	-10.8805
िमे	-10.8807
▁येव	-10.8813
इमस्स	-10.8813
▁उस्साह	-10.8813
▁वेवचनं	-10.8813
▁छन्दराग	-10.8814
हे	-10.8816
▁माला	-10.8818
▁गुळ	-10.8819
यमान	-10.8822
ंयेव	-10.8827
▁छट्ठो	-10.8829
लक्खणेन	-10.8831
▁सम्मासङ्कप्पो	-10.8834
▁पजाय	-10.8834
▁सत्तेसु	-10.8835
▁अट्ठकथाय	-10.8835
▁आसवसम्पयुत्त	-10.8838
▁अन्तरामग्गे	-10.8838
▁आदित्त	-10.884
▁माया	-10.8841
▁करणे	-10.8844
अनतिक्	-10.8846
▁योगावचर	-10.8846
पासाण	-10.8847
▁भिक्खं	-10.885
▁अप्पत्त	-10.8851
ासीति	-10.8851
दीघ	-10.8853
▁गुणेहि	-10.8857
परियोसान	-10.8858
▁पठन्ति	-10.8859
ादिको	-10.8862
लोचन	-10.8864
▁आणा	-10.8864
धातुया	-10.8865
णिक	-10.8867
▁घ	-10.887
वचनस्स	-10.8871
▁पनाहं	-10.8872
▁अपरापरं	-10.8872
▁युद्ध	-10.8872
▁पुच्छितब्बत्ता	-10.8878
ानुबन्ध	-10.8879
▁पदीप	-10.888
▁सकदागामी	-10.8885
▁मत्थकं	-10.8885
जक	-10.8887
▁सरूप	-10.8888
▁पजहतीति	-10.8889
एत्थ	-10.8896
▁भगिनी	-10.8897
▁पहार	-10.8899
सावक	-10.89
▁पाटिकङ्खा	-10.89
▁चितो	-10.8903
▁अप्पटिच्छ	-10.8905
परित्त	-10.8906
झ	-10.8909
▁भुत्त	-10.891
कुला	-10.8912
ेय्याम	-10.8913
चस्सोसुं	-10.8913
▁तेनुपसङ्कमिंसु	-10.8916
▁अट्ठम	-10.8918
▁आलपति	-10.8918
▁आवासो	-10.8924
▁रूपावचरानं	-10.8925
▁निरत्थक	-10.8927
▁छट्ठी	-10.8928
स्मीति	-10.8931
▁वग्गो	-10.8931
जेव	-10.8932
▁परियायो	-10.8933
▁आजीव	-10.8933
सेनासन	-10.8934
▁गच्छन्तस्स	-10.8937
▁धुरं	-10.8937
देवो	-10.894
▁मनसिकार	-10.8942
▁पभेद	-10.8942
िनं	-10.8947
▁सम्मावाचा	-10.8949
▁अचल	-10.895
▁रूपिय	-10.8951
▁खणं	-10.8951
▁पसेनदि	-10.8953
यथापि	-10.8954
संकिलेस	-10.8958
▁कण्टक	-10.8962
▁महब्बलो	-10.8963
▁कारित	-10.8967
सङ्गहित	-10.8968
वुत्थ	-10.8968
▁पच्छाभत्तं	-10.8969
कुसलत्तिकं	-10.897
▁नियतो	-10.8974
▁पारि	-10.8975
▁खित्त	-10.8981
▁सखा	-10.8981
गणो	-10.8982
अम्हाकं	-10.8985
▁पापकम्म	-10.8989
▁सम्पज	-10.899
गब्भ	-10.899
▁नायं	-10.8992
▁सस्सत	-10.8992
▁सकवादिस्स	-10.8992
▁मन्ते	-10.8994
▁विपाचेन्ति	-10.8995
▁कम्मञ्	-10.8995
▁कथिनं	-10.9002
▁सन्तक	-10.9002
▁मति	-10.9002
▁परियोसान	-10.9002
▁इच्छित	-10.9003
सम्भव	-10.9003
▁पहोति	-10.9006
यते	-10.9008
▁अभविस्स	-10.9009
तिस्सो	-10.901
▁सन्तति	-10.9011
▁विसये	-10.9012
▁महानुभाव	-10.9014
रहिता	-10.9022
▁सय	-10.9026
▁देसित	-10.9026
▁अभिधम्मे	-10.9027
▁अस्सादो	-10.9027
लोभ	-10.9027
▁परिसं	-10.9028
▁विदू	-10.9028
▁ओकासो	-10.9028
▁इन्द्रियेसु	-10.903
▁बहुतरा	-10.9031
▁पग्गण्ह	-10.9033
अद्धा	-10.9036
▁वीरियिन्द्रियं	-10.9039
▁अत्र	-10.904
िमा	-10.904
▁पभासती	-10.9041
तेल	-10.9043
▁निरोधसच्	-10.9045
▁मूले	-10.9049
▁कप्पति	-10.905
▁विहरतीति	-10.9057
▁उपसग्ग	-10.9057
▁कामानं	-10.9058
▁मि	-10.9059
नये	-10.906
▁सेक्खा	-10.9061
▁अघ	-10.9062
▁गच्छती	-10.9062
▁संसन्दन्ति	-10.9062
▁अपगत	-10.9063
तत्ता	-10.9065
▁निग्गह	-10.9065
प्पत्तं	-10.9069
▁परामस	-10.9069
तात	-10.907
सन्तति	-10.9073
कप्पो	-10.9075
पट	-10.9076
▁घरावास	-10.9077
ट्ठक	-10.9081
▁कामेसुमिच्छाचार	-10.9083
▁तोस	-10.9085
नापि	-10.9085
समान	-10.9089
पण्णास	-10.909
▁नकम्म	-10.9091
▁भासित	-10.9093
संसार	-10.9095
▁भाजन	-10.9095
▁संसय	-10.9105
जेन्तो	-10.9106
▁सम्मप्प	-10.9109
▁यत्र	-10.9113
▁आधार	-10.912
▁परिपूरेति	-10.9121
▁हत	-10.9122
▁छन्दरागो	-10.9123
▁विहरती	-10.9123
▁रुक्खा	-10.9124
गोचर	-10.9125
▁पुनब्भवो	-10.9126
▁अविसेसेन	-10.9129
पथं	-10.9132
ायपि	-10.9134
▁पवत्तित	-10.9137
दम	-10.9141
भूमिं	-10.9147
▁सम्मप्पधान	-10.9149
वेग	-10.915
तानि	-10.9153
ारहो	-10.9156
▁देवमनुस्सेसु	-10.9157
ेस्सन्ति	-10.9158
▁पादा	-10.9158
▁कलाप	-10.9159
सत्तो	-10.916
▁सङ्खारो	-10.916
▁ञाती	-10.916
▁सरा	-10.916
▁अन्तं	-10.9162
▁पुप्फानि	-10.9164
▁खल	-10.9167
▁पयोजनं	-10.9167
▁सङ्घादिसेस	-10.9171
▁मही	-10.9177
▁गज	-10.9178
▁मिस्स	-10.9178
चेक	-10.9181
सोभ	-10.9182
▁असङ्खता	-10.9183
▁पकार	-10.9188
यन्ता	-10.9188
▁बहूनं	-10.9191
▁ओतार	-10.9191
▁यव	-10.9191
सवन	-10.9193
पुट	-10.9193
तिआदीहि	-10.9197
▁परिसुद्धा	-10.9199
▁मण्ड	-10.9199
ावह	-10.9199
प्पमाणो	-10.9206
िन्द्रिया	-10.9207
पलिबोध	-10.9207
▁उत्तानत्थमेवाति	-10.9209
निया	-10.9209
चाह	-10.921
राध	-10.9211
▁पातुभवन्ति	-10.9211
▁रूपधातु	-10.9216
▁ठपे	-10.9216
▁विभत्ता	-10.9217
▁वेगेन	-10.9218
▁अचक्खुकान	-10.9219
▁अरहति	-10.922
▁मातापितूनं	-10.9221
ञायाति	-10.9226
रोप	-10.9228
चनीयानुलोमं	-10.9228
▁बहुधा	-10.9235
▁लाभो	-10.9235
▁कोसल	-10.9235
▁दीघं	-10.9237
▁कुच्छित	-10.9239
जनपद	-10.9241
▁पत्तक	-10.9241
▁सङ्घमज्झे	-10.9245
▁नअनन्तर	-10.9247
ूपपत्ति	-10.925
▁कप्पेति	-10.9251
भेदे	-10.9253
त्थेरअपदानं	-10.9256
▁छवि	-10.9259
▁पापुण	-10.9265
▁सङ्कप्प	-10.9268
▁रोच	-10.9269
▁भाता	-10.927
ञोजनविप्पयुत्त	-10.9272
▁विरुद्ध	-10.9275
▁इच्छन्ति	-10.9276
▁निक्खन्तो	-10.9277
▁परियादाय	-10.9277
▁१५०	-10.9277
▁गन्था	-10.9278
चवेक्खणा	-10.928
▁उत्तरा	-10.9283
▁दक्खिणेय्य	-10.9285
▁पटिसेध	-10.9288
उपोसथ	-10.9289
▁अब्भुतं	-10.9289
▁अरूपावचर	-10.929
▁अरूपानं	-10.9293
परम	-10.9296
▁सन्तुट्ठो	-10.9298
▁यञ्हि	-10.9298
हच्	-10.9299
वापि	-10.9301
ानुपस्सी	-10.9302
बद्ध	-10.9304
पूजाय	-10.9306
▁मित्ता	-10.9306
▁थेरे	-10.9308
▁१४८	-10.9309
▁अज्झुपेक्ख	-10.9309
चमी	-10.931
जातिका	-10.931
जिय	-10.9312
▁१५६	-10.9312
▁योजेतब्बो	-10.9313
▁वेळुवने	-10.9313
▁कप्पियं	-10.9315
▁ञाणानि	-10.9317
▁संसारे	-10.9318
▁परिकम्मं	-10.9321
▁तिरच्छानगत	-10.9321
िनि	-10.9323
▁रूपी	-10.9327
ानुयोग	-10.9328
दूर	-10.9331
बाहु	-10.9331
▁आरभि	-10.9332
विनिच्छय	-10.9333
▁रसं	-10.9334
पु	-10.9334
▁१४१	-10.9338
तद	-10.9339
माणव	-10.934
▁अलोभ	-10.934
मुक्	-10.9341
ापेन्ति	-10.9344
▁गोण	-10.9344
▁सम्पत्तिं	-10.9345
िस्सा	-10.935
लाभी	-10.9351
▁ब्राह्मणानं	-10.9352
▁अजानन्तो	-10.9352
▁हेम	-10.9354
ादयोपि	-10.9354
▁परिमुच्	-10.9357
▁धम्मायतनञ्	-10.9357
▁आकासो	-10.9358
कोप	-10.9359
▁भविस्ससि	-10.9361
यस्मा	-10.9363
गमा	-10.9364
▁करणीयो	-10.9365
▁नअ	-10.9366
सत्ता	-10.9372
▁नेत्वा	-10.9372
▁उजुं	-10.9373
▁किलेसो	-10.9375
▁समुच्छेद	-10.9376
▁अभिभव	-10.9376
▁अवितथ	-10.938
चक्खन्धा	-10.9381
▁झाना	-10.9382
▁तिब्ब	-10.9387
▁पुग्गलिक	-10.9393
दीसु	-10.9393
▁दोसा	-10.9394
▁वुद्ध	-10.9394
▁निद्दोस	-10.9397
▁परिहायन्ति	-10.9399
▁रूपादि	-10.94
त्थम्भ	-10.94
▁वेदन	-10.94
▁इस्स	-10.9401
गोचरो	-10.9401
▁वूपसमा	-10.9402
▁पुमे	-10.9404
परिसुद्ध	-10.9405
दन्तो	-10.9405
ेभि	-10.9409
▁अज्झासय	-10.9409
▁विसुद्धि	-10.9409
▁खिप्पा	-10.9419
समुट्ठाना	-10.942
थेर	-10.9423
वासो	-10.9424
▁ठितिया	-10.9427
तिआदिका	-10.9428
▁वायम	-10.9429
वेस	-10.9429
▁बन्धनं	-10.9429
अत्तनो	-10.9432
पटिपदं	-10.9433
▁पोक्खर	-10.9433
कय	-10.9434
▁अजातसत्तु	-10.9436
▁एकज्झं	-10.9436
▁नापरं	-10.9437
▁इत्थत्ताया	-10.9439
सम्फस्स	-10.9441
▁कम्मपथ	-10.9447
मिस्स	-10.9447
▁सिक्खितब्ब	-10.9447
▁कारेति	-10.9449
▁विन्दति	-10.9451
कुमारो	-10.9452
मित्तो	-10.9452
▁अग्गं	-10.9454
▁उपासका	-10.9455
ेतुन्ति	-10.9456
▁नमग्ग	-10.9456
दक्खिण	-10.9458
▁लक्खणानि	-10.9465
▁सम्पहंस	-10.9465
वासं	-10.9465
▁सनिदस्सन	-10.9473
▁वुत्तेपि	-10.9473
सुत्तन्त	-10.9476
▁निब्बाने	-10.9476
▁नप्पजानाति	-10.9477
▁बुद्धपूजायि	-10.9478
▁उट्ठह	-10.9479
चत्तालीस	-10.9481
▁परियाप	-10.9481
▁एकवीस	-10.9482
▁अद्दसा	-10.9483
▁धोवित्वा	-10.9484
चतुत्थ	-10.9484
▁सङ्खा	-10.9486
▁समत्थ	-10.9487
त्थिको	-10.9489
▁सुद्धिं	-10.949
रुचि	-10.949
▁जागर	-10.9493
ादिम्हि	-10.9494
▁१४२	-10.9496
▁वेज्	-10.9498
सुखुम	-10.9499
जनानं	-10.9499
▁ठ	-10.95
▁पहीनं	-10.9503
पब्बजित	-10.9506
ट्ठिक	-10.9506
अत्थिया	-10.9508
▁निब्बिदा	-10.9513
▁पत्ति	-10.9514
▁चल	-10.9516
टो	-10.9517
▁राजगहं	-10.9517
नामा	-10.9518
अव	-10.9518
▁सम्पजानकारी	-10.9519
▁परिचार	-10.9519
▁किस्मि	-10.9521
▁पतिट्ठहि	-10.9521
▁संसरन्तो	-10.9524
▁पहातब्बस्स	-10.9524
▁करोही	-10.9525
▁जीवितिन्द्रिय	-10.9525
▁भिक्ख	-10.9526
▁अनिमित्त	-10.9526
दीहि	-10.9533
▁यावदेव	-10.9536
▁विध	-10.954
गन्तब्ब	-10.9541
परायण	-10.9544
▁पदुमं	-10.9547
▁भिक्खूसु	-10.9549
▁छक्	-10.9549
▁संसग्ग	-10.9549
सित	-10.955
▁योगिना	-10.9561
▁पटिग्गहित	-10.9563
पीठ	-10.9564
▁१४४	-10.9564
▁उपसङ्कमि	-10.9564
▁लप	-10.9565
▁वदमानो	-10.9566
लभो	-10.9567
▁परलोक	-10.9567
ितस्स	-10.9567
▁अज्झ	-10.957
▁तार	-10.9574
▁वेरं	-10.9574
▁मुनिन्द	-10.9574
▁सहस्सानि	-10.9577
▁हिस्स	-10.958
▁पाय	-10.9581
▁त्वञ्	-10.9583
क्खण	-10.9583
सीमाय	-10.9586
प्पयोग	-10.9587
▁१४३	-10.9588
▁निक्खित्त	-10.9591
▁सामी	-10.9592
मूले	-10.9593
▁तादिसे	-10.9593
▁नदिं	-10.9594
ियमानं	-10.9595
▁संव	-10.9596
चन्तं	-10.9596
तुर	-10.9596
▁योजेतब्बा	-10.96
समाचार	-10.9602
▁मातलि	-10.9602
ावयव	-10.9603
▁अनुप्प	-10.9605
▁पेसेत्वा	-10.9607
▁कङ्ख	-10.9607
▁परियादि	-10.9609
▁वुट्ठितो	-10.9612
▁१४७	-10.9614
▁भविस्सामि	-10.9615
▁दसविध	-10.9615
▁बहुस्सुता	-10.9615
▁सोचति	-10.9616
▁नावं	-10.9617
▁समासो	-10.9622
▁किलेसेहि	-10.9624
▁अधिगतो	-10.9625
▁विरागा	-10.9627
▁आरका	-10.9627
ब्राह्मणो	-10.9631
▁मय्ह	-10.9633
▁अकुसलमूल	-10.9636
▁मोर	-10.9639
▁परिहानि	-10.964
▁दिसासु	-10.964
चित्तेसु	-10.9642
समीपे	-10.9643
▁चतुरासीति	-10.9643
वचने	-10.9644
▁उपरूपरि	-10.9644
ञाविमोक्खं	-10.9644
क्खि	-10.9644
विदू	-10.9644
पोरिस	-10.9645
▁भिन्दति	-10.9646
▁जानतो	-10.965
ासी	-10.9651
▁सेनापति	-10.9652
न्धकार	-10.9654
▁थेय्य	-10.9658
▁तेलं	-10.9658
ियन्ति	-10.966
त्यादि	-10.9661
ेय्याथ	-10.9662
सोमनस्स	-10.9665
▁परिसुद्धं	-10.9666
▁पेत्तिविसय	-10.9671
▁सततं	-10.9672
▁असम्मोह	-10.9672
दार	-10.9674
▁विहारस्स	-10.9676
एते	-10.9676
▁नानत्त	-10.968
जलि	-10.9681
दद	-10.9683
▁विसाख	-10.9685
विसेसं	-10.9687
▁भिय्योभावाय	-10.9687
सोक	-10.9687
▁आमसति	-10.9687
चप्पसादेन	-10.9687
▁ओर	-10.9688
कोसापेत्वा	-10.9689
▁आरोह	-10.9691
▁अवस्सं	-10.9694
ञकम्म	-10.9695
विसयो	-10.9695
▁सब्बलोक	-10.9696
▁कक्खळ	-10.9699
▁पाचीन	-10.97
१३	-10.97
तादिसो	-10.9701
▁सद्धिविहारिक	-10.9702
▁दसबल	-10.9702
▁समग्गा	-10.9704
▁पटिविज्झ	-10.9706
▁इधाति	-10.9709
नसञ्	-10.9709
▁विधा	-10.9709
ुत्तम	-10.971
▁अहोसी	-10.9714
▁वेनेय्य	-10.9717
मानेन	-10.9718
तक्	-10.972
वीसति	-10.9725
▁सहेतुकं	-10.9726
▁सतिं	-10.9727
▁परियेसति	-10.9731
▁धीर	-10.9732
▁जायते	-10.9732
रुळ्ह	-10.9735
▁धारयामी	-10.9735
▁धम्मदेसनाय	-10.9736
▁थेरानं	-10.9736
▁१४६	-10.9737
▁विवरित्वा	-10.974
परिवारो	-10.974
▁दससु	-10.974
करणतो	-10.9742
▁इमाहि	-10.9742
▁सूप	-10.9742
▁भवतीति	-10.9746
▁तथागते	-10.9746
▁जहित्वा	-10.9746
परिसाय	-10.975
▁अपेक्ख	-10.9751
▁उसभ	-10.9751
▁करे	-10.9755
सस्स	-10.9757
▁वेय्याकरण	-10.976
बन्धनं	-10.9763
▁सहजातो	-10.9763
▁भुत्वा	-10.9764
तस्मिं	-10.9764
करोति	-10.9767
भागिय	-10.977
▁सारणीयं	-10.9772
▁समनुपस्सामि	-10.9772
च्छा	-10.9772
महन्त	-10.9773
द्वि	-10.9775
▁भगवाति	-10.9775
▁पुरिमबुद्ध	-10.9776
▁अनुभो	-10.9777
▁जीवं	-10.9781
वग्गस्स	-10.9789
▁पटिलोम	-10.9792
▁सीघ	-10.9793
▁उत्तरिं	-10.9793
पाचित्तिय	-10.9794
यत्त	-10.9795
▁महप्फलं	-10.9803
▁अमित्त	-10.9803
जनीय	-10.9803
▁विजह	-10.9804
पट्ठान	-10.9804
▁खुद्द	-10.9805
▁महग्घ	-10.9805
हेतू	-10.9806
िट्ठ	-10.9806
▁तिहेतुक	-10.9806
ाधिट्ठान	-10.9807
▁विमोक्खा	-10.9808
▁अपक्	-10.9808
▁दूस	-10.9808
भी	-10.9811
▁आय	-10.9813
सम्पयुत्तं	-10.9814
▁सम्मोदनीयं	-10.9814
किण	-10.9815
▁दहरो	-10.9816
त्थन्ति	-10.9817
▁अवहर	-10.9817
सतेहि	-10.9817
▁लोण	-10.9817
सत्था	-10.9821
▁अद्धानं	-10.9822
मट्ठ	-10.9822
हत्था	-10.9824
लानं	-10.9825
संकिलेसिको	-10.9828
▁समापत्तियो	-10.9829
▁पंसुकूल	-10.983
▁मेतं	-10.983
त्तु	-10.9831
लेप	-10.9831
माता	-10.9834
▁विभत्त	-10.9834
▁वेवचन	-10.9836
कातब्ब	-10.9839
मुखे	-10.9839
गू	-10.9841
विर	-10.9844
▁सहत्था	-10.9848
▁विद	-10.9854
▁सब्बकालं	-10.9855
▁अदोसो	-10.9855
▁छारत्तं	-10.9857
त्थायाति	-10.9858
▁नासक्खि	-10.9858
▁पवेद	-10.9858
▁विपस्सति	-10.9858
नेहि	-10.9859
▁कटत्तारूपानं	-10.9861
▁१६०	-10.9862
चल	-10.9863
▁पोसो	-10.9867
नेतं	-10.9868
▁पुथू	-10.9869
मग्गेन	-10.9869
▁वस्ससत	-10.987
▁दम्मी	-10.9871
▁हिदं	-10.9872
ाभावा	-10.9873
▁सादियति	-10.9874
▁अरहन्तानं	-10.9875
ियमान	-10.9876
▁सासवा	-10.9883
▁मनुस्सो	-10.9884
ञाणधातुया	-10.9884
▁पथविया	-10.9884
▁रतो	-10.9884
▁अरह	-10.9885
भागो	-10.9886
साधारण	-10.9889
▁ब्रह्मविहार	-10.9889
नागतत्ता	-10.9889
▁घानायतन	-10.9892
▁विचिकिच्छासहगते	-10.9897
▁सुत्तस्स	-10.9899
विसिट्ठ	-10.99
▁विपस्सी	-10.9901
दिसो	-10.9901
▁उपयोगवचनं	-10.9902
▁निद्दिट्ठ	-10.9906
▁नावाय	-10.9906
▁गरुकं	-10.9906
सम्पदाय	-10.991
सुभ	-10.991
▁दुतियेन	-10.9911
▁विन	-10.9913
▁बीजं	-10.9913
▁आसुं	-10.9915
विहारं	-10.9916
मोद	-10.9919
सद्दे	-10.9924
▁मेत्त	-10.9925
व्हो	-10.9926
▁रथं	-10.9934
वुट्ठान	-10.9938
तयो	-10.9939
▁दिय	-10.994
▁उद्धट	-10.994
कोटियो	-10.994
धो	-10.994
परिमाण	-10.994
नेनाति	-10.9947
▁सिक्खाय	-10.9947
▁अलङ्कत	-10.995
▁तदुभयं	-10.9952
नीवरण	-10.9953
▁१४९	-10.9954
कप्पे	-10.9954
▁गोप	-10.9955
अपरेहिपि	-10.9955
▁पतिट्ठ	-10.9955
कदा	-10.9956
▁राजपुत्त	-10.9957
▁कोसज	-10.9957
▁पाव	-10.9958
▁उदय	-10.9958
▁कताधिकारो	-10.9958
खण	-10.996
▁सत्तमी	-10.9961
▁उपधि	-10.9962
▁कल्याणमित्त	-10.9965
पिटक	-10.9969
▁अनियतो	-10.9969
▁थम्भ	-10.997
▁चुण्ण	-10.997
नद्ध	-10.9971
▁नप्प	-10.9973
▁उपट्ठाक	-10.9974
नागतोति	-10.9977
▁सीलानि	-10.9983
▁रूपकाय	-10.9984
वनं	-10.9985
▁नअकुसल	-10.9986
चेतनिका	-10.9987
केति	-10.9988
विनिच्छयो	-10.9989
जिन	-10.9992
▁मुनी	-10.9993
थूप	-10.9994
▁दिट्ठिगतं	-10.9996
तेय्य	-10.9998
▁लोकनायकं	-10.9998
▁वेध	-10.9999
▁करोती	-11
जन्ते	-11.0001
सोतं	-11.0002
▁आणत्ति	-11.0003
▁मित्तो	-11.0005
ञाणानं	-11.0005
▁कामगुणा	-11.0007
▁उपेक्खासहगतं	-11.0007
▁भवितुं	-11.0009
▁उद्दिस	-11.001
मयो	-11.001
▁सेक्खो	-11.0015
▁दधि	-11.0016
ञूनं	-11.002
सङ्खाताय	-11.002
▁अभिसङ्खार	-11.0022
▁धारण	-11.0023
▁अभावित	-11.0023
▁ओकासे	-11.0024
▁अकम्म	-11.0025
▁निहीन	-11.0028
▁ड	-11.0028
विनयो	-11.003
ञावेदयितनिरोध	-11.003
▁भारो	-11.0031
रहितं	-11.0031
▁जीवति	-11.0033
▁निप्फन्	-11.0033
सागर	-11.0035
जेहि	-11.0037
▁स्वायं	-11.0037
▁पलाय	-11.0037
जनाय	-11.0038
▁आया	-11.0039
▁निदस्सन	-11.0041
▁निरन्तरं	-11.0043
▁कोट्ठासे	-11.0044
▁अधिवचन	-11.0044
▁सरति	-11.0045
▁मत्तिका	-11.0046
रज	-11.0048
रिञ्	-11.0049
चनीय	-11.0049
▁रव	-11.005
▁कारु	-11.0051
▁जिव्हाय	-11.0051
▁उब्भ	-11.0052
▁गुत्त	-11.0052
▁पिटक	-11.0055
▁भुसं	-11.0055
▁येनायस्म	-11.0055
सम्पदं	-11.0056
▁जानासि	-11.0058
▁चित्तुप्पाद	-11.0063
▁चोदना	-11.0065
▁अप्पं	-11.0069
▁१४५	-11.007
िल्	-11.0074
▁पाटिये	-11.0075
▁करणीय	-11.0075
▁अचिर	-11.0076
▁सन्थत	-11.0077
▁भुज	-11.0078
चधा	-11.0078
▁सन्ताप	-11.008
▁परत्थ	-11.0081
चित्थ	-11.0081
▁निन्द	-11.0085
▁एवरूपे	-11.0089
▁उपज्झायो	-11.009
▁मुट्ठि	-11.0091
▁पकिण्णक	-11.0091
▁गण्हथा	-11.0092
हाय	-11.0092
▁आदिसद्देन	-11.0092
▁१५७	-11.0094
▁पवेस	-11.0094
ेथा	-11.0095
▁सचक्खुकान	-11.0095
▁समाधिं	-11.0096
▁गिलानस्स	-11.0097
▁भस्स	-11.0103
▁वेर	-11.0105
विधा	-11.0109
▁समागमो	-11.0109
▁पवारणाय	-11.0111
त्थेरवत्थु	-11.0112
▁सिद्धं	-11.0113
ेकदेस	-11.0114
वङ्क	-11.0116
▁पारमियो	-11.0119
पोत	-11.0121
यक्ख	-11.0122
▁सभावो	-11.0125
▁अप्पहाय	-11.0128
रहित	-11.0128
▁ओप	-11.0132
▁भिक्खुनि	-11.0133
नामको	-11.0134
▁१५३	-11.0136
मासे	-11.0136
चित्ते	-11.0137
▁रु	-11.0137
अङ्ग	-11.0138
▁एकोव	-11.0138
▁वेमतिका	-11.014
▁चक्खुसम्फस्स	-11.0142
▁अधम्मो	-11.0143
ब्बि	-11.0145
दासि	-11.0149
▁अभिवाद	-11.015
▁दि	-11.0152
लस्स	-11.0152
▁केवलञ्	-11.0153
▁सुप्पतिट्ठित	-11.0154
▁वेदितब्बोति	-11.0155
▁रुक्खस्स	-11.0155
▁चतुधा	-11.0156
▁विस्सास	-11.0157
दित्वा	-11.0157
▁राजकुमार	-11.0159
▁भब्बो	-11.016
चेय्य	-11.0162
▁पुब्बण्हसमयं	-11.0162
▁सीमं	-11.0164
▁परिणाम	-11.0164
▁कालमकासि	-11.0165
▁गाव	-11.0166
▁गङ्गाय	-11.0166
▁इट्ठा	-11.0168
▁गच्छतो	-11.0169
▁खीरं	-11.0169
▁परिवत्तेत्वा	-11.017
▁ट	-11.0171
▁आरद्धवीरियो	-11.0172
समादान	-11.0172
ाकारो	-11.0175
▁तादी	-11.0178
निय	-11.0178
▁सुपण्ण	-11.0178
▁१५९	-11.0179
▁सङ्खारक्खन्ध	-11.0182
▁समादिय	-11.0183
▁नोचित्त	-11.0184
ुप्पत्तिया	-11.0186
▁तिट्ठेय्य	-11.0187
▁पाल	-11.0188
▁अत्तभाव	-11.0189
चेतनाय	-11.019
पुप्फं	-11.0191
ञतरा	-11.0194
सप्पाय	-11.0198
▁साय	-11.0199
▁यथ	-11.0199
▁तदुप	-11.0202
▁घोर	-11.0202
नख	-11.0204
▁धम्माभिसमयो	-11.0207
▁गन्धा	-11.0208
▁थिनमिद्ध	-11.0211
▁सुत्तेन	-11.0214
भूताय	-11.022
▁असप्पुरिस	-11.0224
पदत्थ	-11.0225
▁सङ्घादिसेसा	-11.0225
▁देथ	-11.0225
▁१५५	-11.0226
▁अरहत्तमग्गेन	-11.0229
▁तम्ब	-11.023
▁सत्थं	-11.023
गन्धो	-11.023
▁पुनदिवसे	-11.0231
▁अधिमोक्ख	-11.0234
आहार	-11.0234
▁उब्ब	-11.0235
सहस्सं	-11.0236
▁हन्द	-11.0239
कल्याण	-11.0241
ञिता	-11.0242
▁करुणाय	-11.0244
▁मानानुसयं	-11.0244
▁पटिकूल	-11.0245
▁सासव	-11.0247
▁चक्खुधातु	-11.0249
विप्फार	-11.0249
▁कायदु	-11.0251
▁यथाभतं	-11.0252
▁आदिकम्मिकस्साति	-11.0253
▁येपि	-11.0253
निवारण	-11.0254
▁पटिक्खिपित्वा	-11.0256
▁नेक	-11.0259
▁उट्ठहित्वा	-11.026
▁पुरं	-11.026
बुज्झ	-11.0261
▁आरभ	-11.0263
▁१५४	-11.0265
पटिमण्डित	-11.0266
गिलान	-11.0268
▁विनस्सति	-11.0269
▁कलह	-11.0269
▁अट्ट	-11.027
▁लद्धो	-11.0273
पकत	-11.0273
▁सीलवन्त	-11.0276
जरं	-11.0277
▁विभङ्गे	-11.0279
▁सिक्खापदे	-11.028
▁विवादो	-11.0281
▁परियोसानं	-11.0282
▁सत्तस्स	-11.0283
योगतो	-11.0285
ञिक	-11.0285
▁पटिबाह	-11.0288
कुर	-11.0289
पासाद	-11.029
▁महासमुद्दे	-11.029
ाचार	-11.029
ाधिप्पायो	-11.0292
पेस	-11.0293
▁मुण्ड	-11.0295
▁सेद	-11.0295
▁सद्धम्मं	-11.0296
ादिअ	-11.0296
▁याचन	-11.0297
▁कन्ता	-11.0297
▁लक्ख	-11.0298
चवेक्खित्वा	-11.0299
▁आगते	-11.0299
विभव	-11.0301
▁पटिसंवेदेति	-11.0301
लोकुत्तर	-11.0302
कित्ति	-11.0303
▁उपट्ठित	-11.0303
▁तितिक्ख	-11.0303
यामि	-11.0312
▁लोकोति	-11.0312
▁अरियमग्गो	-11.0314
नायो	-11.0316
▁ब्रह्मलोक	-11.0316
ग्गहित	-11.0318
▁खीणासवा	-11.0319
ेसिं	-11.0319
▁परिजानन्ति	-11.0321
▁वासं	-11.0322
▁महानुभावो	-11.0323
रूपजीवितिन्द्रिय	-11.0325
सुखाय	-11.0325
▁जनस्स	-11.0325
▁तत्रापि	-11.0326
▁अट्ठमो	-11.0335
▁सङ्खारेसु	-11.0337
▁१५८	-11.0337
▁गच्छाम	-11.0338
▁तीर	-11.034
▁विहिंसा	-11.0341
हदय	-11.0341
▁लीनत्थप्पकासना	-11.0341
▁अचेलक	-11.0342
▁इत्थिं	-11.0342
▁भिक्खुनीति	-11.0347
▁तुल्य	-11.035
पण	-11.0353
वची	-11.0353
मादि	-11.0355
▁वादं	-11.0355
▁१५१	-11.0356
पकति	-11.0356
▁१६५	-11.0358
▁संस	-11.036
विधिं	-11.0367
▁सन्तेपि	-11.0369
ुपच्छेद	-11.0371
▁पोराणा	-11.0372
लोह	-11.0373
एत्तक	-11.0377
▁उपगतो	-11.0377
दस्सनवसेन	-11.0378
ितोति	-11.0379
▁लोकियं	-11.0379
अतीत	-11.038
टा	-11.038
▁पतति	-11.0384
▁सच्छिकता	-11.0385
▁उम्मत्तकस्स	-11.0386
▁विरूप	-11.0386
तव	-11.0386
▁अनन्तरं	-11.0387
▁आकासेन	-11.0389
▁अम्म	-11.039
ाभिनिवेस	-11.039
ानुगत	-11.0391
▁दुस्सीलो	-11.0394
संयोजनं	-11.0395
महत्त	-11.0402
▁पस्सती	-11.0402
▁चवित्वा	-11.0402
▁आवट्टना	-11.0404
▁परिमाण	-11.0404
देसनाय	-11.0404
ूपग	-11.0405
सीला	-11.0406
▁करोन्तीति	-11.0406
पदेहि	-11.0407
चयानं	-11.0408
मक्खित	-11.0408
▁सुनख	-11.0409
▁ठा	-11.041
चवीसति	-11.0411
▁चेतोविमुत्ति	-11.0413
▁नवुति	-11.0414
सम्पयुत्तपच्	-11.0414
ासने	-11.0416
▁परिनिब्बुते	-11.0417
पटिपाटिया	-11.0418
ित्वाति	-11.0418
▁लोकुत्तरधम्म	-11.042
▁रूपावचरा	-11.0422
▁कम	-11.0422
▁अग्गसावका	-11.0423
पेम	-11.0423
▁अत्थेन	-11.0423
▁नविपाक	-11.0425
कति	-11.0425
वादं	-11.0426
भण्डं	-11.0426
▁नायको	-11.0428
▁खेमं	-11.043
▁अप्पवत्ति	-11.0432
▁अगमंसु	-11.0433
स्सामि	-11.0433
क्खम	-11.0433
ळा	-11.0433
▁वाता	-11.0435
▁निक्खित्तो	-11.0437
परिच्छिन्	-11.0438
▁गतोति	-11.044
द्वये	-11.0441
मिमं	-11.0442
कारि	-11.0443
मन्द	-11.0445
घोस	-11.0446
वाचको	-11.0447
कटाह	-11.0448
▁धारय	-11.0449
▁अप्पणिहित	-11.0449
▁छब्बिध	-11.045
चिदेव	-11.045
▁आयस्मन्तो	-11.0451
समणो	-11.0456
▁जातक	-11.0457
व्हय	-11.0459
▁सुखसहगत	-11.0461
▁दसबलस्स	-11.0461
परिहार	-11.0461
▁रुक्खे	-11.0462
▁पुच्छन्ति	-11.0464
▁सुपिन	-11.0465
ाकारं	-11.0467
परियन्त	-11.0468
▁वेस्सन्तर	-11.0473
कमेय्य	-11.0476
▁अपञ्	-11.0476
▁अप्पहीना	-11.0479
▁कथेन्ति	-11.048
सत्ति	-11.048
ञाणा	-11.0484
▁सुतवा	-11.0485
▁अन्तिम	-11.0485
▁सम्मसन	-11.0485
सुद्ध	-11.0487
▁यावकालिक	-11.0488
▁नझान	-11.049
पधान	-11.049
▁दुक्खो	-11.0492
दीपक	-11.0495
▁तदनन्तरं	-11.0495
▁अवण्ण	-11.0496
▁खग्ग	-11.0499
यानं	-11.05
▁पारिसुद्धि	-11.0501
▁दद	-11.0502
मागम्म	-11.0503
▁केनट्ठेन	-11.0505
▁पण्डक	-11.0505
सन्ताने	-11.0509
▁बोधिया	-11.0511
थो	-11.0513
गिरि	-11.0513
▁अभिजान	-11.0514
▁परिकप्प	-11.0514
▁अनत्त	-11.0517
▁ञाणन्ति	-11.0519
▁भूतगाम	-11.052
भीत	-11.052
विय	-11.052
▁उग्ग	-11.0521
▁आदर	-11.0522
▁ण्वु	-11.0524
▁छब्बग्गिये	-11.0524
ीकत	-11.0526
चसहगते	-11.0526
▁सतिन्द्रियं	-11.0528
▁अरति	-11.053
▁वप	-11.053
भावोति	-11.0531
▁ब्राह्मणे	-11.0532
▁असं	-11.0533
▁एकत्थ	-11.0536
दाने	-11.0537
ीव	-11.0539
▁अनुत्तर	-11.0542
त्तभाव	-11.0543
▁अनिय्यानिक	-11.0544
▁नयन	-11.0547
▁साध	-11.0549
▁महाभूतानं	-11.0552
▁परिपुण्णं	-11.0553
▁नान	-11.0555
▁मातुल	-11.0556
▁अत्थवण्णना	-11.0558
निपतित्वा	-11.0561
ेन्तेन	-11.0561
दह	-11.0562
▁सीम	-11.0563
▁पटिजान	-11.0565
पुब्बा	-11.0569
ञाताविन्द्रिय	-11.057
िताय	-11.0571
च्छेदन	-11.0571
निर	-11.0571
▁कुलपुत्तो	-11.0573
▁धम	-11.0575
▁मुदिता	-11.0576
कल	-11.0577
▁विधुर	-11.0577
▁उक्खित्त	-11.0578
▁अकुप्प	-11.0578
▁भगिनि	-11.0579
▁लभेथ	-11.0582
▁पूव	-11.0582
विभागो	-11.0582
दरथ	-11.0583
▁पातिमोक्खुद्देस	-11.0584
▁बन्धु	-11.0584
प्पधान	-11.0584
▁अङ्गार	-11.0584
▁सेसेसु	-11.0585
दण्डक	-11.0586
▁सिङ्गाल	-11.0588
कलि	-11.0589
प्पहार	-11.0589
▁वीथि	-11.059
संयुत्त	-11.0591
▁रतनत्तय	-11.0596
▁चोदितो	-11.0596
▁अच्छरिय	-11.0597
▁नाथो	-11.0598
▁मेथुनधम्म	-11.0598
▁निवेस	-11.0599
जादि	-11.0599
नीयो	-11.0603
▁वधित्वा	-11.0604
▁लभि	-11.0605
▁लब्भा	-11.0606
पातुभाव	-11.061
मुट्ठि	-11.0612
▁भक्ख	-11.0614
▁आरद्ध	-11.0615
▁बुद्धप्पमुख	-11.0617
▁नक्खमति	-11.0618
ट्ठेनाति	-11.0621
▁निप्प	-11.0621
▁असुर	-11.0622
क्खित्त	-11.0623
▁युव	-11.0625
ए	-11.0626
तब्बा	-11.0629
▁ञातो	-11.063
▁परिवुतो	-11.0632
▁संयम	-11.0633
▁सीद	-11.0633
▁असङ्खतं	-11.0635
▁अज्झोहारे	-11.0635
▁सरणो	-11.0637
▁नसरण	-11.0637
▁अनुस्सरति	-11.0638
▁पञ्हावारो	-11.064
▁हत्थपाद	-11.0642
चारं	-11.0642
▁नियता	-11.0645
पटिग्गहण	-11.0647
▁बोधिसत्त	-11.0649
नेपि	-11.0654
▁सावत्थिं	-11.0655
समोधान	-11.0655
वतो	-11.0656
▁१६१	-11.0656
▁फाल	-11.0657
ूपाय	-11.0657
ेवाति	-11.066
▁इद्धिपाद	-11.066
▁रजन	-11.0661
▁दुख	-11.0661
यित्थ	-11.0661
▁भावय	-11.0663
▁पहातब्बहेतुका	-11.0664
▁तच्छ	-11.0664
विपाका	-11.0666
▁नळ	-11.0667
सभावत्ता	-11.0669
▁अयन्ति	-11.067
▁दिट्ठिगत	-11.0676
परियोसाने	-11.068
▁तुच्छ	-11.0682
▁निय्यान	-11.0683
▁विदिता	-11.0685
दुग्ग	-11.0685
▁सोध	-11.0688
▁इदन्ति	-11.0688
▁वजिर	-11.069
▁मेत्तचित्त	-11.0693
▁बिल	-11.0694
▁अधिगमाय	-11.0696
कीळ	-11.0696
▁निद्दिट्ठा	-11.0696
▁पगुण	-11.0696
▁जातियो	-11.0697
▁मोच	-11.0697
▁ओट्ठ	-11.0698
▁अरियस्स	-11.0699
▁पटिविद्ध	-11.0699
▁सामिस	-11.0701
रूळ्ह	-11.0704
▁ती	-11.0705
उद	-11.0708
▁संयोजनं	-11.071
▁कायगतासति	-11.0711
▁यथाभूत	-11.0711
ावरण	-11.0713
▁दुक्खपटिपदं	-11.0713
▁राजगह	-11.0718
गारव	-11.0718
▁पीतिसुखं	-11.0719
▁१६७	-11.072
▁पटिलाभ	-11.0729
▁निध	-11.0734
▁रुक्खमूले	-11.0737
कण्ड	-11.0738
▁समे	-11.0741
▁पटिपाद	-11.0742
▁अभावो	-11.0742
▁नपुंसके	-11.0743
▁विचित्त	-11.0743
▁पवत्तिया	-11.0745
▁सप्पुरिसो	-11.0745
नपान	-11.0747
विमुत्त	-11.0748
▁बहुस्सुत	-11.0748
▁जङ्घ	-11.0749
▁कङ्खति	-11.075
▁वसनट्ठानं	-11.0751
▁निट्ठा	-11.0752
▁वुट्ठह	-11.0753
▁यस्साति	-11.0754
▁ठितत्ता	-11.0755
▁पवत्तेति	-11.0756
जप्प	-11.0756
▁पुरत्थिम	-11.0757
परिवास	-11.0758
▁अगम	-11.0758
▁गल	-11.0759
नीयं	-11.076
▁अनुग्गह	-11.0761
▁दुक्खसमुदयो	-11.0762
▁पूजेसि	-11.0762
▁पारगू	-11.0763
▁ओळारिकं	-11.0765
पादे	-11.0767
▁उपेक्खको	-11.0768
▁गणन	-11.0768
▁ब्याकरेय्य	-11.0769
▁मच्छरिय	-11.077
▁अधिकार	-11.0771
▁कमेन	-11.0771
▁पभव	-11.0771
▁रूपेन	-11.0772
१८	-11.0773
▁वचनीयो	-11.0773
▁धुत	-11.0774
विमुत्ति	-11.0776
▁कूटागार	-11.0776
▁युज्झ	-11.0776
अत्ता	-11.0779
▁कोट्ठास	-11.0779
कोसि	-11.078
▁नवविध	-11.0781
त्थोति	-11.0781
ङ्गुट्ठ	-11.0782
▁भिक्खुसङ्घेन	-11.0782
▁निगम	-11.0784
▁चिन्तय	-11.0785
पेति	-11.0786
▁निकन्ति	-11.0787
मेघ	-11.0788
चयतो	-11.0788
▁कातु	-11.079
▁मनसो	-11.079
निधान	-11.0795
▁विरजं	-11.0795
▁आलय	-11.0796
▁पिट्ठितो	-11.0797
▁इधाधिप्पेत	-11.0803
▁विभावनियं	-11.0804
▁परियन्त	-11.0805
▁समाहितो	-11.0805
निब्बत्त	-11.0807
मतो	-11.081
▁भवरागानुसयं	-11.0812
▁पाणा	-11.0812
▁सिक्खं	-11.0814
▁दुन्	-11.0819
खीणासव	-11.0819
▁अचित्तक	-11.082
▁आभोग	-11.082
कसविचारस्स	-11.0821
▁भोजनीयं	-11.0823
गणा	-11.0824
समापन्	-11.0824
▁अनागामिमग्ग	-11.0824
विरहित	-11.0824
▁भुम्म	-11.0827
तलं	-11.0827
ननु	-11.0828
▁कतर	-11.0828
यानि	-11.0831
▁पती	-11.0834
▁दिट्ठियो	-11.0839
▁नसहेतुक	-11.0839
किण्ण	-11.084
▁कलि	-11.0841
▁निबद्ध	-11.0842
रहितो	-11.0855
▁अदुक्खमसुखा	-11.0856
▁पटिक्खिप	-11.0857
किलिट्ठ	-11.0861
▁पापिका	-11.0862
▁अनुच्छविक	-11.0862
वेल	-11.0863
टि	-11.0868
▁पमादो	-11.087
▁इदञ्हि	-11.0871
▁बहुजन	-11.0874
▁उपेक्ख	-11.0875
▁पभस्सर	-11.0875
▁अय्या	-11.0879
▁सतानि	-11.088
िताति	-11.088
▁अनिदस्सनसप्पटिघ	-11.0883
विमानं	-11.0888
गुणे	-11.0894
पल	-11.0898
▁भावनापारिपूरि	-11.0899
▁पदभाजने	-11.09
▁सोमनस्सेन	-11.0901
▁जीवितिन्द्रियञ्	-11.0901
▁विन्द	-11.0902
▁पातुभावो	-11.0902
▁गच्छन्तीति	-11.0903
▁धम्मानुपस्सी	-11.0903
▁लता	-11.0904
िकस्स	-11.0906
ञताय	-11.0907
कप्पिय	-11.0908
▁१५२	-11.0908
▁भवन्त	-11.091
▁पटिघानुसयं	-11.0913
ादीनम	-11.0914
▁पुरिसे	-11.0916
▁सङ्खेप	-11.0918
समास	-11.0918
कटो	-11.0918
ेवं	-11.0919
▁फुसे	-11.092
▁पापकानं	-11.0921
▁जाते	-11.0924
लब्भ	-11.0925
ुपेक्खा	-11.0925
▁इत्थियं	-11.0925
▁अमर	-11.0925
तप	-11.0926
चिक्खति	-11.0927
▁पातो	-11.093
▁परिब्बाजका	-11.0931
▁तिकिच्छ	-11.0931
कोध	-11.0933
▁सुखुमं	-11.0935
▁दड	-11.0938
मुच्	-11.094
▁सम्मुखाविनयेन	-11.094
कत्त	-11.0942
▁१७६	-11.0943
सरण	-11.0944
▁सोतापत्तिफलं	-11.0945
▁वीतिसारेत्वा	-11.0946
▁अभिनि	-11.0948
▁१७०	-11.0952
▁कामावचरानं	-11.0952
▁दुम	-11.0955
▁१६२	-11.0956
समङ्गिनो	-11.0956
दुब्बल	-11.0957
पेतं	-11.0958
▁आवुध	-11.0958
▁गतियं	-11.0959
▁परिग्गहित	-11.0959
▁१७४	-11.096
▁विपाकस्स	-11.096
▁देसेत्वा	-11.0962
समुदया	-11.0963
मोक्ख	-11.0966
निपतित	-11.0969
▁जटिल	-11.097
▁विसयो	-11.0972
भावाय	-11.0973
▁सीलस्स	-11.0978
▁अच्छरियं	-11.0979
▁योध	-11.0979
▁पतिट्ठितं	-11.0979
▁तप्	-11.098
किलेसे	-11.0982
▁बहल	-11.0986
▁धर	-11.0988
▁वत्थुना	-11.0988
▁उग्गह	-11.0989
▁गन्तब्बो	-11.099
▁वज	-11.0991
▁ञाणविप्पयुत्त	-11.0993
हंस	-11.0994
▁लाभं	-11.0994
▁तुला	-11.0994
लीन	-11.0994
▁परिच्छिन्दित्वा	-11.0995
▁थावर	-11.0995
▁ओलम्ब	-11.0995
▁वदेति	-11.0998
▁सङ्गीति	-11.1
▁योपि	-11.1003
▁चित्तविप्पयुत्त	-11.1004
सहगतं	-11.1005
▁विधि	-11.1006
▁यथारुचि	-11.1008
▁गम्भीरो	-11.1009
जरा	-11.1013
सन्तोसो	-11.1014
क्खो	-11.1015
मधु	-11.1016
▁पक्खी	-11.1017
▁गन्त्वान	-11.1017
तरे	-11.1018
पुरेजात	-11.1021
▁पच्छिमा	-11.1022
▁पिवित्वा	-11.1022
गण्ह	-11.1025
दिब्ब	-11.1026
▁१६९	-11.103
ेय्यो	-11.1031
▁दाने	-11.1034
▁वीतिवत्त	-11.1037
▁दिब्बं	-11.1037
निट्ठान	-11.1039
▁चोळ	-11.1039
फ	-11.104
सम्पज	-11.1042
सम्भवो	-11.1042
सत्तानं	-11.1042
सन्ताप	-11.1043
▁तदेकट्ठ	-11.1043
▁बोधिसत्तं	-11.1043
▁लोकविदू	-11.1044
▁पधानं	-11.1045
▁छेदन	-11.1045
▁युत्ति	-11.1047
▁निग्गण्ह	-11.1047
▁उद्दिसित्वा	-11.105
▁कामावचरकुसल	-11.105
कामावचर	-11.1051
नाळि	-11.1051
▁निब्बत्तति	-11.1052
▁चोदेति	-11.1053
▁सुभद्द	-11.1055
▁एकोपि	-11.1056
▁निब्बत्तेत्वा	-11.1059
▁डंस	-11.106
▁गारव	-11.106
▁ब्रह्मे	-11.106
छत्त	-11.1061
▁ठपितो	-11.1062
▁१७९	-11.1062
▁इदमस्स	-11.1063
ट्ठकथायं	-11.1065
चरितस्स	-11.1066
▁कामच्छन्दो	-11.1067
▁उपलब्भतीति	-11.1068
▁गीत	-11.1074
जामी	-11.1075
ञत्तीति	-11.1076
गहित	-11.1077
नीतो	-11.108
ासव	-11.108
▁चित्तन्ति	-11.1082
सुन्दर	-11.1084
पेय्याल	-11.1084
▁कक्	-11.1085
दायकत्थेरअपदान	-11.1087
▁सेनं	-11.1087
▁दे	-11.1088
▁विपस्सि	-11.109
▁धम्मकथिक	-11.1091
▁दिट्ठा	-11.1091
▁सयम्भू	-11.1091
▁इरिय	-11.1091
▁निक्खम्म	-11.1092
▁अभिन्	-11.1092
चिन्त	-11.1092
▁अरणं	-11.1092
▁भीतो	-11.1093
▁द्वारेसु	-11.1093
▁धम्मसेनापति	-11.1094
▁पन्थ	-11.1094
▁बुज्झन्तीति	-11.1095
▁चरमानो	-11.11
गमने	-11.1101
▁महापुरिसो	-11.1102
▁छिद्द	-11.1103
चत्थिक	-11.1107
▁परिचर	-11.1109
सिञ्	-11.1111
भाणवार	-11.1112
▁पत्तचीवरं	-11.1113
ीभूत	-11.1114
रिया	-11.1116
विवट्ट	-11.1116
सते	-11.1121
सम्मादिट्ठि	-11.1121
▁धी	-11.1122
▁दीपे	-11.1123
▁सिद्ध	-11.1127
▁वत्थानि	-11.1128
ेत्वाति	-11.1128
चित्तुप्पाद	-11.1129
▁सोभन	-11.1131
▁अधिट्ठानं	-11.1131
सन्थत	-11.1132
वुद्धि	-11.1132
▁अस्मा	-11.1134
सद्दानं	-11.1135
जरे	-11.1136
ावुध	-11.1138
▁हत्थेहि	-11.114
ाचयगामिनापचयगामि	-11.114
▁गहपतयो	-11.114
कालेपि	-11.1142
▁एकंसेन	-11.1142
सद्धम्म	-11.1147
▁तुम्ह	-11.1148
मतं	-11.1149
▁सुत्तन्तोति	-11.115
प्पवत्तिया	-11.115
▁दस्सित	-11.1152
▁विरागो	-11.1153
ानुसारेन	-11.1154
▁अनुस्सावन	-11.1156
▁धोत	-11.1158
परियोसानं	-11.1158
▁पातोव	-11.1159
परिवत्त	-11.1159
सण्ठानं	-11.1162
▁मुसावादा	-11.1163
▁पूजय	-11.1165
▁१६४	-11.1166
▁सयम्पि	-11.1168
▁पयोगो	-11.1169
मुत्ता	-11.117
परक्	-11.117
▁सङ्गहित	-11.1172
▁परामास	-11.1174
▁अज्झत्तिक	-11.1174
▁वन्त	-11.1175
िमुज्	-11.1177
▁अनिदस्सन	-11.1179
▁खयं	-11.118
ियाति	-11.1183
▁१६६	-11.1183
▁सम्मन्ति	-11.1187
कटमेव	-11.1188
▁जन्ताघर	-11.1189
▁ममाय	-11.1189
यती	-11.119
▁कालङ्कतो	-11.119
▁ठपेतुं	-11.119
▁निसीदन	-11.119
करणवसेन	-11.119
▁फुसति	-11.1193
▁महाबोधि	-11.1193
▁उग्गहेत्वा	-11.1194
▁सावत्थि	-11.1197
▁दुतियस्स	-11.1197
▁आतुर	-11.1198
▁पणीततर	-11.1199
▁जाय	-11.1199
▁गहिते	-11.1204
▁भवन्तं	-11.1206
▁गन्थो	-11.1208
▁अरूपं	-11.1209
▁अब्यापाद	-11.1211
भागेन	-11.1212
▁अपरा	-11.1213
विरहितो	-11.1214
वत्था	-11.1214
पीत	-11.1216
▁नपुंसक	-11.1216
▁यापन	-11.1219
▁हनति	-11.122
दाम	-11.1224
कोपि	-11.1226
▁उय्यानं	-11.1226
▁करोन्ती	-11.1227
अप	-11.1227
▁अभूत	-11.1227
लक्खणे	-11.1227
▁अका	-11.1229
▁सातं	-11.123
▁रक्खित	-11.1231
संसट्ठ	-11.1231
धिकार	-11.1238
चमान	-11.1239
विहारो	-11.1239
▁पट्ठान	-11.124
कण्डं	-11.1241
▁थद्ध	-11.1242
▁बाहिरा	-11.1243
दानि	-11.1243
▁वीतराग	-11.1246
▁पारिपूरिया	-11.1248
ङ्गुलि	-11.1249
निस्सितो	-11.125
▁पस्से	-11.1253
▁१७३	-11.1253
▁फरण	-11.1255
▁फुट्ठो	-11.1258
▁नोचित्तसमुट्ठान	-11.1259
▁निरोधधम्म	-11.126
दन	-11.1261
▁आपत्तीति	-11.1262
▁याचित्वा	-11.1262
▁वेय्यावच्	-11.1263
▁दया	-11.1264
ञूहि	-11.1264
कम्मेन	-11.1267
चता	-11.1272
▁तुट्ठो	-11.1274
जनेहि	-11.1276
▁पङ्क	-11.1278
गुत्त	-11.128
ानिसंस	-11.1281
एत	-11.1281
▁अम्बट्ठ	-11.1282
मुनि	-11.1282
ूपचार	-11.1285
न्तोति	-11.1287
सुत्तवण्णनाय	-11.1287
▁सोकपरिदेवदुक्ख	-11.1288
▁कलल	-11.1289
▁पजानाती	-11.129
▁सकाय	-11.129
▁अधम्मिक	-11.1291
गञ्छि	-11.1291
▁खुर	-11.1293
▁सुभासित	-11.1294
ूनं	-11.1294
मन्तो	-11.1295
▁कायिक	-11.1295
▁अनुपादाय	-11.1298
सिनेह	-11.1298
▁यंनूनाह	-11.1298
तीर	-11.1298
नादाना	-11.1299
▁विरागाय	-11.1302
▁पकत	-11.1302
ब्भन्तरे	-11.1303
परे	-11.1303
▁काळक	-11.1303
▁१७२	-11.1303
▁रजत	-11.1304
▁बद्धा	-11.1305
▁त्वम्पि	-11.1305
▁असुरा	-11.1307
▁आसीविस	-11.1308
मूला	-11.1308
▁आरम्मणेसु	-11.1309
विसुद्धि	-11.131
▁दुस्सील	-11.131
▁उपेक्खासहगता	-11.1312
वीरियं	-11.1313
▁आयतनं	-11.1316
▁वेदनाक्खन्ध	-11.1317
▁सिरी	-11.1317
एकनवुति	-11.1321
बीजं	-11.1323
▁तमो	-11.1325
ञिस्स	-11.1328
▁१७५	-11.1329
भाणक	-11.133
▁आचयगामि	-11.133
गतस्स	-11.1332
▁पूजितो	-11.1332
▁सेवितब्बो	-11.1332
▁पत्थनं	-11.1333
▁पटिपत्तिया	-11.1334
▁हितं	-11.1334
▁पिदह	-11.1335
▁छेद	-11.1335
▁इत्तर	-11.1338
ेकवचन	-11.1339
▁फस्सं	-11.1339
▁खीणा	-11.134
नकं	-11.1343
▁सब्बाकारेन	-11.1343
▁पब्बतं	-11.1344
ादीनव	-11.1344
▁अरहत्ते	-11.1344
त्थेरस्सापदान	-11.1345
▁लहुक	-11.1346
▁एकेकस्मिं	-11.1348
▁१६८	-11.135
जीवित	-11.135
▁अस्सोसि	-11.135
हेतुकं	-11.1352
▁मज्झिमो	-11.1355
सदिसे	-11.1359
▁पापुणन्ति	-11.136
▁अपस्सन्तो	-11.1361
धम्मेन	-11.1362
▁पिट्ठ	-11.1363
कारन्त	-11.1364
भया	-11.1364
▁वग्गा	-11.1365
▁चन्दिमा	-11.1365
▁लोम	-11.1366
▁कम्मनि	-11.1366
▁पोक्खरणी	-11.1367
▁निब्बिन्द	-11.1369
▁बद्धो	-11.137
▁अनुजान	-11.137
▁अस्समं	-11.1371
▁कुप्प	-11.1376
▁अदिट्ठ	-11.1377
▁रूपक्खन्ध	-11.1378
ानंयेव	-11.1379
▁उद्देसं	-11.138
सम्भिन्	-11.1384
▁न्हाय	-11.1389
▁निसेध	-11.1391
मकंसु	-11.1391
कविचारमत्ता	-11.1392
स्मिम्पि	-11.1393
▁अभिण्हं	-11.1398
मत्थि	-11.1399
▁सूल	-11.14
▁मनापं	-11.1401
▁एत्थेव	-11.1405
खेत्त	-11.1406
▁१८४	-11.1407
पटिसंयुत्त	-11.1407
▁निय्यानिकं	-11.1407
▁गण्हित्वा	-11.141
नामरूप	-11.141
▁अत्थङ्गम	-11.1411
विचित्त	-11.1412
ब्याकरण	-11.1413
ड	-11.1415
िंसू	-11.1416
▁सुचरितं	-11.1416
▁१७८	-11.1417
▁पटिक्खित्त	-11.1417
▁वोदान	-11.1418
▁कण्ड	-11.1419
ञातिकाय	-11.1421
▁दारका	-11.1421
कसविचारं	-11.1421
परिसं	-11.1422
▁सोळसहि	-11.1422
▁सम्माआजीवो	-11.1423
▁गोचरो	-11.1423
न्तरा	-11.1423
▁उदायि	-11.1427
साख	-11.1428
▁खन्धेसु	-11.1429
एकं	-11.1431
▁दुग्गत	-11.1432
▁पूजं	-11.1433
सम्भार	-11.1434
कादयो	-11.1435
▁दिब्बा	-11.1435
तिट्ठ	-11.1437
वोहारो	-11.1437
मानाय	-11.1437
▁तुण्हस्स	-11.1438
▁आसवविप्पयुत्तो	-11.1438
▁कुसलमूल	-11.1439
▁महावीरो	-11.1439
त्थेरेन	-11.144
▁जनपदे	-11.1442
▁छादेति	-11.1443
▁पदत्थ	-11.1443
▁चरेय्य	-11.1445
केस	-11.1448
▁धा	-11.1449
▁फस्सा	-11.145
▁पहूत	-11.1451
▁सोभति	-11.1451
चेस्स	-11.1452
▁सरस	-11.1453
जिनो	-11.1453
▁उय्यान	-11.1454
▁लोहितक	-11.1457
▁पग्गण्हाति	-11.1458
▁रूपन्ति	-11.1458
सङ्कप्प	-11.1459
▁भवन्तो	-11.1464
नीत	-11.1465
▁पोराणक	-11.1466
▁वट्टन्ति	-11.1466
▁सुद	-11.1468
बहुल	-11.147
▁कसि	-11.1472
पमज्	-11.1473
यान	-11.1474
▁नानत्तं	-11.1482
▁तदहु	-11.1482
दीपन	-11.1483
▁आगतत्ता	-11.1484
▁१६३	-11.1486
▁अब्यापज्	-11.1491
▁सुधा	-11.1491
▁तत्थापि	-11.1492
▁मनोद्वारे	-11.1492
▁सम्पजानमुसा	-11.1493
▁सोतधातुया	-11.1493
समुट्ठित	-11.1493
▁महाथेर	-11.1494
▁महप्फल	-11.1496
▁किलेसकाम	-11.1497
सप्प	-11.1498
▁नानु	-11.1499
▁असन्त	-11.1501
चक्खतो	-11.1501
▁समादप	-11.1502
▁पसु	-11.1502
नियत	-11.1503
▁बुद्धवचनं	-11.1503
इमाय	-11.1505
बन्धनेन	-11.1506
▁पारिवासिक	-11.151
▁नन्दी	-11.1511
▁अट्ठान	-11.1512
▁आनुभावेन	-11.1513
मेन	-11.1515
▁उपत्थम्भ	-11.1516
▁पुट्ठा	-11.1517
▁अकुसलेहि	-11.1518
ित्थी	-11.1521
▁असित	-11.1521
▁पप	-11.1522
▁थेरी	-11.1524
▁सङ्ख्यं	-11.1524
▁योनिसोमनसिकार	-11.1526
पाकार	-11.1526
किरियं	-11.1526
▁ञातीनं	-11.1526
टीका	-11.1526
पच्छिमचित्तस्स	-11.1527
ावचर	-11.1528
▁लभतीति	-11.1528
▁अत्तभावो	-11.1529
▁संवास	-11.1531
रत्तं	-11.1532
▁अकतं	-11.1532
▁निगण्ठ	-11.1532
ेथाति	-11.1533
▁आघात	-11.1534
चयानुलोम	-11.1536
सिता	-11.1537
▁सङ्गहितं	-11.1538
▁यथयिदं	-11.1539
▁द्वासट्ठि	-11.1539
▁नुपलब्भति	-11.154
▁नालं	-11.154
▁परामसति	-11.1541
मरणं	-11.1543
▁पटिलभित्वा	-11.1544
ाहारो	-11.1544
▁भिक्खा	-11.1545
▁लोकनायको	-11.1547
▁आचयगामी	-11.1547
लभा	-11.1549
▁कुप्पति	-11.1549
ताप	-11.155
▁निरोधाय	-11.1552
चिर	-11.1552
जीवि	-11.1556
▁विनिच्छयं	-11.1556
▁उभयं	-11.1561
▁दोमनस्ससहगत	-11.1561
गव	-11.1562
▁अङ्गुलि	-11.1564
▁कामधातु	-11.1565
▁१८१	-11.1565
नअनुपादानिय	-11.1566
▁सत्तधा	-11.1566
▁यथेव	-11.1566
▁मनोरमा	-11.1567
▁गमिस्स	-11.1568
▁पसव	-11.1568
नोपि	-11.1568
▁दुक्खस्सन्त	-11.1569
जेसु	-11.1569
परियेसन	-11.1573
▁तीसुपि	-11.1574
प्पकासन	-11.1574
▁एतम्पि	-11.1576
▁उतुसमुट्ठानं	-11.1577
▁वसन	-11.158
त्थेरं	-11.158
▁सम्भवन्ति	-11.158
ुपग	-11.158
योजना	-11.1581
▁अन्तोगध	-11.1582
▁विरम	-11.1585
▁दन्ध	-11.1586
▁नकामावचर	-11.1586
ापनं	-11.1587
▁अहेतुका	-11.1587
▁आरम्मणतो	-11.1588
▁१८०	-11.1588
▁वेसालियं	-11.159
▁महासत्तस्स	-11.159
▁पेसु	-11.1592
▁पोत्थक	-11.1593
ादीनम्पि	-11.1594
▁अकुसले	-11.1596
▁थिनमिद्धं	-11.1596
▁दन्ता	-11.1597
▁अप्पम	-11.1597
▁नरूपावचर	-11.1601
▁इद्धिपादा	-11.1601
▁आनापानस्सति	-11.1602
▁समाधिस्स	-11.1602
▁हेतुना	-11.1605
▁तुल	-11.1606
▁स्नेह	-11.1606
▁वत्तब्बत्ता	-11.1607
▁हन्त्वा	-11.1611
▁अय्य	-11.1612
▁तिविधेन	-11.1613
चमाना	-11.1614
▁होन्त	-11.1616
पथवी	-11.1616
▁अज्झापन	-11.1617
▁समनु	-11.1617
मातु	-11.162
▁अत्थपटिसम्भिदा	-11.162
▁सिप्पं	-11.1622
▁सतिसम्प	-11.1622
ण्णव	-11.1622
विपन्	-11.1622
▁अत्तभावं	-11.1623
ट्ठानेसु	-11.1626
▁निमित्ते	-11.1626
▁दत्वान	-11.1628
▁उपसम्पादे	-11.1632
चपरियोसाने	-11.1637
▁परिहाय	-11.1637
▁देवताय	-11.1638
कोमि	-11.1638
▁पठममग्ग	-11.1638
▁गिहीनं	-11.1639
▁सब्बत्थाति	-11.1639
▁अदस्सने	-11.164
▁पतिट्ठह	-11.164
▁लोकुत्तरो	-11.1641
▁विसोध	-11.1641
ानुपस्सना	-11.1641
▁एताय	-11.1641
▁मनोरमं	-11.1642
▁आरुय्ह	-11.1643
▁आमन्तेत्वा	-11.1644
वल्	-11.1645
नोव	-11.1645
▁चेतसिको	-11.1649
अकुसल	-11.165
ञफलं	-11.165
▁आकङ्खमानो	-11.1652
▁देवदत्त	-11.1655
देसो	-11.1657
नियाम	-11.1659
ानुरूप	-11.1661
▁रोगो	-11.1662
▁इण	-11.1662
▁छाया	-11.1665
▁पतिट्ठाति	-11.1666
संसग्ग	-11.1672
लग्ग	-11.1673
निग्गह	-11.1673
वादे	-11.1673
▁करोन्तेन	-11.1675
ारहं	-11.1675
▁पजानन्ति	-11.1677
▁गहपतिपुत्त	-11.168
▁अनियत	-11.1681
▁जनक	-11.1683
कसविचार	-11.1683
नञ्हि	-11.1685
लाना	-11.1686
▁गन्तब्ब	-11.1688
▁मण्डल	-11.1689
ामसे	-11.1689
▁अकुसलञ्	-11.1689
पातिमोक्ख	-11.169
▁तिण्णो	-11.1691
▁अज्झत्तिका	-11.1692
धम्मेहि	-11.1692
▁विसुज्झति	-11.1693
▁सुरामेरयम	-11.1693
ञासु	-11.1693
▁अधिमत्त	-11.1693
▁किच्छ	-11.1694
हट	-11.1694
▁सन्तान	-11.1695
▁नन्दि	-11.1698
भूतानं	-11.1698
▁१७७	-11.1698
▁अगार	-11.1699
ूपनिस्सय	-11.1703
▁पायासि	-11.1704
अपर	-11.1706
ादिभेद	-11.1706
▁नाथ	-11.1708
ूपम	-11.171
विधानं	-11.1713
▁आरम्भ	-11.1714
▁चुतस्स	-11.1715
नट्ठाने	-11.1715
ायतनं	-11.1722
▁१८३	-11.1723
सिक्खा	-11.1724
▁सङ्कम	-11.1727
ापज्	-11.1727
▁अनभावं	-11.1727
न्तोपि	-11.1727
▁कायानुपस्सना	-11.173
▁एत्तका	-11.1731
त्या	-11.1731
▁अपदानं	-11.1733
▁वत्थब्बं	-11.1733
िम	-11.1734
▁योनं	-11.1735
▁पक्खि	-11.1738
▁यादिसो	-11.1739
▁इमस्मिञ्	-11.1739
▁सारिपुत्तस्स	-11.1742
सुर	-11.1744
▁पुब्बकम्मं	-11.1744
वत्थुक	-11.1744
तुम्हे	-11.1746
▁उत्तरासङ्गं	-11.1747
▁तीरं	-11.1751
ूहि	-11.1753
▁आनिसंसो	-11.1753
▁समुद्दो	-11.1753
▁छाद	-11.1753
सङ्खत	-11.1755
▁उपगत	-11.1755
▁धिति	-11.1756
संसय	-11.1756
▁समादान	-11.1756
▁गय्हति	-11.1757
▁भङ्गा	-11.1758
▁वुत्तेसु	-11.1761
▁परेसु	-11.1761
▁वचो	-11.1762
▁अनुम	-11.1762
▁मुखतो	-11.1767
चविध	-11.1767
परिकम्म	-11.1768
▁कतस्स	-11.1769
▁सीलक्खन्ध	-11.1769
▁देविया	-11.1769
▁चेतिये	-11.177
नसीलो	-11.1771
सङ्घो	-11.1773
ोपमा	-11.1774
▁अपेत	-11.1774
▁एकंस	-11.1776
▁हीना	-11.178
चसता	-11.178
विमोक्ख	-11.1783
स्मिञ्	-11.1785
▁देतीति	-11.1785
योगा	-11.1786
पो	-11.1786
▁रत्तो	-11.1786
▁वायाम	-11.1788
▁आदिना	-11.1788
दन्ति	-11.179
▁रित्त	-11.1791
▁तस्मिञ्	-11.1793
▁दुम्म	-11.1793
▁सयम्भु	-11.1796
▁पुब्बचरितापदान	-11.1797
▁अथेकदिवसं	-11.1797
▁लभेय्य	-11.1797
▁सोतिन्द्रियं	-11.1797
▁विसारदो	-11.1797
▁इसयो	-11.1798
विप्पमुत्त	-11.1798
▁कायिकस्स	-11.1798
ाधिप्पायेन	-11.18
▁रुचिर	-11.1801
▁पस्सि	-11.1802
▁दुब्भ	-11.1803
▁साधेति	-11.1803
सण्ठित	-11.1808
गामं	-11.1811
▁मन्ता	-11.1813
१६	-11.1814
▁मनापो	-11.1814
िञ्	-11.1816
▁अप्पमाणो	-11.1817
▁सुद्धावासानं	-11.1817
▁खयो	-11.1818
▁१८२	-11.1818
▁नी	-11.1819
▁भा	-11.1819
जापि	-11.1821
▁सुलभ	-11.1821
िद	-11.1823
चपीठ	-11.1825
▁समु	-11.1826
▁अनभिरति	-11.1826
▁बज्झ	-11.1828
▁मग्गञाण	-11.1829
▁एति	-11.183
कच्छ	-11.1831
▁तब्ब	-11.1833
▁रम्म	-11.1833
ञोजनो	-11.1834
▁धम्मतो	-11.1839
▁सामिको	-11.184
▁पातुभूत	-11.1841
ट्ठपन	-11.1841
▁महाकस्सप	-11.1843
▁पुब्बेनिवासं	-11.1846
ुम	-11.1849
▁अरूपावचरे	-11.185
▁वुत्तस्स	-11.1851
▁केवट्ट	-11.1852
▁हेस्सति	-11.1852
▁अस्सं	-11.1854
▁आरामो	-11.1854
▁परिग्गहेत्वा	-11.1855
वाहन	-11.1855
▁दन्तो	-11.1855
▁उद्दिट्ठ	-11.1855
त्थर	-11.1856
▁एकक्खणे	-11.1862
▁मातङ्ग	-11.1862
▁पुनब्भव	-11.1864
▁रूपादीसु	-11.1864
▁पापेत्वा	-11.1865
▁वेदिय	-11.1866
ञोजनं	-11.1868
▁इममेव	-11.187
▁पलिबोध	-11.1872
▁पटिसन्धियं	-11.1875
▁भविस्सन्ती	-11.1876
▁कातब्बन्ति	-11.1876
▁पत्तस्स	-11.1877
▁समानं	-11.1883
सदिसमेव	-11.1884
▁कुलेसु	-11.1884
अग्गि	-11.1886
▁उदकस्स	-11.1888
▁उट्ठान	-11.1889
▁पस्साव	-11.189
मानसा	-11.1901
▁ब्रह्मुनो	-11.1902
▁विनिधाय	-11.1902
▁अज्झभासि	-11.1902
▁विवट्टूपनिस्सय	-11.1902
वीस	-11.1904
▁अक्खीनि	-11.1904
▁करणवचनं	-11.1904
जन्ता	-11.1905
▁वेदेति	-11.1907
▁तिण्ण	-11.191
▁जटा	-11.191
कवसेन	-11.1913
दस्सनतो	-11.1914
विघात	-11.1917
▁सङ्केत	-11.1918
जोति	-11.1918
▁वट्टतियेव	-11.1918
▁सङ्गाय	-11.1921
▁विभूत	-11.1922
▁१७१	-11.1923
गीत	-11.1923
धिक	-11.1923
▁भवङ्गं	-11.1923
मुखा	-11.1925
ारामो	-11.1928
▁संवण्णना	-11.193
ापयति	-11.1932
▁कोण्ड	-11.1933
▁यसं	-11.1933
▁समुट्ठानेन	-11.1936
▁सुखितो	-11.1936
जेतब्ब	-11.1937
▁१९०	-11.1937
▁भूमिं	-11.1942
▁गन्धब्ब	-11.1944
▁पटिग्गहण	-11.1946
त्तम	-11.1948
▁नोअविगत	-11.1948
▁पटिप्पस्सद्धि	-11.1949
कमेव	-11.1949
▁उदयब्बय	-11.1953
▁आपुच्छ	-11.1954
ग्गा	-11.1955
▁आवस	-11.1955
▁आकारेन	-11.1956
▁इह	-11.1956
▁करोतो	-11.1958
कताय	-11.1962
▁लभामि	-11.1963
▁पुरा	-11.1966
पादो	-11.1967
▁अवीचि	-11.1967
▁सुणोहि	-11.1968
▁बालस्स	-11.1968
▁निवासे	-11.1969
▁सेनाय	-11.1973
द्धो	-11.1975
▁ब्यत्त	-11.1976
▁उपसम्पद	-11.1979
▁सेवतो	-11.1979
वण्णेन	-11.1981
▁भवरागानुसयेन	-11.1981
▁कुसले	-11.1981
गतानं	-11.1982
▁इद्ध	-11.1982
विरुद्ध	-11.1987
राजस्स	-11.1988
चयापि	-11.1988
▁सम्माकम्मन्तो	-11.199
▁तेनस्स	-11.199
नत	-11.1991
▁१८५	-11.1991
सीम	-11.1994
ट्ठानानि	-11.1999
▁वत्वान	-11.1999
ञापि	-11.2
कोटिया	-11.2002
▁पण	-11.2003
▁पटिसङ्खा	-11.2005
यविक्	-11.2005
मनुस्सा	-11.2007
▁पोट्ठपाद	-11.2008
साधक	-11.2008
रूपूपपत्तिया	-11.2008
▁अन्तरन्तरा	-11.2009
नुपादानिया	-11.2009
अट्ठकथा	-11.2009
चावच	-11.201
▁ब्रह्मदत्ते	-11.201
उपादान	-11.201
▁निद्देसे	-11.2012
▁चेतनाय	-11.2012
भावेनेव	-11.2013
▁योब्बन	-11.2015
कविचारमत्तं	-11.2018
▁निपत	-11.2021
मुञ्	-11.2021
रत	-11.2023
सेति	-11.2025
▁महानाग	-11.2026
▁विमल	-11.2027
▁नोगन्थ	-11.203
▁महेसिना	-11.203
▁सन्तप्प	-11.203
फला	-11.2031
▁तिखिण	-11.2032
पटिच्	-11.2035
दस्सावी	-11.2035
▁आपत्ताधिकरणं	-11.2036
▁बोधिं	-11.2036
▁तेनेतं	-11.2039
▁गहणे	-11.2039
▁हीनो	-11.204
▁छड्डित	-11.204
▁वत्ततीति	-11.2042
पत्ता	-11.2044
ीध	-11.2045
वेध	-11.2048
▁तत्तक	-11.2049
▁बहूहि	-11.2049
▁लिख	-11.2049
म्पी	-11.2053
उपादानविप्पयुत्त	-11.2053
▁सतिसम्बोज्झङ्गो	-11.2053
मद्दन	-11.2054
▁सपत्त	-11.2057
ञक्खेत्तं	-11.2058
जह	-11.2059
▁बलि	-11.2059
▁वट्टं	-11.2059
▁सङ्गहितो	-11.206
▁वचीदु	-11.2061
▁गावी	-11.2061
ळ्ह	-11.2061
खीणा	-11.2061
▁वीतरागो	-11.2061
▁पहीयन्ति	-11.2062
▁सङ्खेपत्थो	-11.2063
ठित	-11.2064
थु	-11.2065
▁तत्रिदं	-11.2066
▁कामो	-11.2066
▁रुद	-11.2066
दस्सना	-11.2069
▁अट्ठंसु	-11.2071
▁खिप्प	-11.2072
चसमुप्पादो	-11.2074
ट्ठकथा	-11.2076
वासे	-11.2076
दारक	-11.2079
लद्धि	-11.208
▁अनुपस्सना	-11.2082
ेस्सामीति	-11.2082
▁मोघम	-11.2085
▁आवह	-11.2085
ावसेस	-11.2085
▁फुल	-11.2086
▁आदिम्हि	-11.2086
▁राजिनो	-11.2086
▁निब्बाय	-11.2087
सलाक	-11.2088
▁पनेसा	-11.2088
आचरिय	-11.209
▁मग्गक्खणे	-11.2091
▁खादन्ति	-11.2092
▁चित्तो	-11.2093
▁१८९	-11.2095
१७	-11.2095
▁बोज्झङ्गे	-11.2097
चुपट्ठानो	-11.2097
▁तास	-11.2098
दिवसतो	-11.2098
▁कारको	-11.2099
परिळाह	-11.2099
▁अभिसम्बुद्धो	-11.21
विग्गह	-11.2101
▁निरुद्धा	-11.2103
▁ततोपि	-11.2104
▁तङ्खण	-11.2107
▁मयम्पि	-11.2108
▁दण्डं	-11.2109
मानत्त	-11.211
▁अभ	-11.211
▁आयतनानि	-11.2111
परो	-11.2112
▁१९६	-11.2114
१४	-11.2115
▁गिज्झ	-11.2116
सीद	-11.2116
▁अनेकपरियायेन	-11.2116
▁मातुगाम	-11.2117
▁सुखन्ति	-11.2118
▁अन्धकार	-11.2119
हित्वा	-11.212
वुट्ठि	-11.2121
▁अनेके	-11.2122
▁पूजेत्वा	-11.2124
▁अण्ड	-11.2124
▁निदस्सनं	-11.2126
उच्	-11.2127
▁दासि	-11.213
▁अकार	-11.213
▁१८६	-11.2132
सेनो	-11.2133
▁धम्मकम्म	-11.2133
▁वदतीति	-11.2134
▁पूरे	-11.2135
▁मुसावादो	-11.2135
ुद	-11.2136
िस्सर	-11.2139
संयोग	-11.214
▁असेख	-11.214
▁येसु	-11.2142
▁उपगच्छ	-11.2145
निपाते	-11.2146
▁भवतण्हा	-11.2146
ाचरियो	-11.2147
▁तथागता	-11.2147
▁सिक्खापदेसु	-11.2148
ागन्त्वा	-11.2149
▁अरण	-11.215
▁कुसलेन	-11.2151
▁वाणिजा	-11.2151
गल	-11.2154
▁हेतुदुक	-11.2156
▁जग्ग	-11.2156
चेतसिक	-11.2156
▁भिसि	-11.2156
सूरिय	-11.2157
▁गहट्ठ	-11.2159
लतो	-11.2161
न्त्य	-11.2164
निक्	-11.2164
रूपस्स	-11.2164
▁भेरि	-11.2167
▁दातब्बा	-11.2167
ायस्मा	-11.2167
▁गच्छन्ती	-11.2167
▁पकरण	-11.2168
मारो	-11.2169
▁कारेन्ते	-11.217
पानं	-11.2171
▁रमणीय	-11.2171
िकन्ति	-11.2173
▁धम्मस्सवन	-11.2175
▁अनोम	-11.2181
ाभावो	-11.2182
▁यसस्सिनो	-11.2185
▁वोहारो	-11.2186
वत्थूसु	-11.2189
जतन	-11.219
▁गुन्	-11.2192
▁सङ्घिकं	-11.2194
▁गरुभण्ड	-11.2196
तेसु	-11.2198
▁अरहता	-11.2198
ेस्व	-11.2199
ज्झो	-11.22
▁आसङ्क	-11.22
घरं	-11.2203
भागं	-11.2204
▁उपट्ठहन्ति	-11.2207
▁वुट्ठानं	-11.2208
▁पण्डु	-11.2208
▁आनुभाव	-11.2209
▁कुसीत	-11.2209
सीहो	-11.2212
▁परिहीन	-11.2213
चिण्ण	-11.2214
▁दिब्बाय	-11.2214
▁कारिय	-11.2217
▁लभते	-11.2217
▁याति	-11.2218
आकार	-11.2218
▁एळकलोम	-11.2218
▁अधिट्ठित	-11.2219
▁परिक्खया	-11.2219
▁पजानना	-11.2219
▁आयत	-11.2221
पणीत	-11.2223
▁नानुसेन्ति	-11.2224
समङ्गि	-11.2224
सेनासनगिलान	-11.2224
▁देवदूत	-11.2225
▁पापिमा	-11.2225
▁२०७	-11.2225
ुद्धार	-11.2225
▁रा	-11.2226
▁नअरण	-11.2229
कुञ्	-11.2229
सकुण	-11.2229
▁उपेतो	-11.2229
▁उपसंहर	-11.223
मल्	-11.2231
बला	-11.2231
तुल	-11.2232
▁पयोजन	-11.2234
▁परिक्खित्त	-11.2236
▁वायोधातु	-11.2236
जलित	-11.2237
▁१९१	-11.2237
चसत	-11.2238
कमिंसु	-11.2239
▁ददाति	-11.2242
अस	-11.2243
सत्ताह	-11.2245
कत्तु	-11.2246
▁ब्रह्मुना	-11.2246
▁सम्पयोग	-11.2246
▁असार	-11.225
▁आवासा	-11.2253
हेव	-11.2254
दोसा	-11.2255
▁निमन्त	-11.2259
▁पाणातिपातो	-11.2259
▁विप्पटिसार	-11.2259
▁मिच्छत्तनियत	-11.226
चत्थिका	-11.2262
▁देन्तो	-11.2265
सदिसत्ता	-11.2266
▁होथ	-11.2267
सकं	-11.2269
जरो	-11.227
वस्सानि	-11.2271
▁सतीति	-11.2272
▁अनुरुद्धो	-11.2274
▁सुद्धिक	-11.2274
▁वोदानं	-11.2275
▁भावेतीति	-11.2277
▁पणिधाय	-11.2278
▁उक्खेपनीयकम्मं	-11.2279
▁सत्ततिंस	-11.2279
▁आनिसंसं	-11.228
▁धीतरं	-11.2281
▁अक्खाहि	-11.2282
▁गिल	-11.2282
तस्मातिह	-11.2282
▁ददामि	-11.2282
गुम्ब	-11.2283
▁दारके	-11.2284
युग	-11.2285
▁चरिया	-11.2286
ञथत्तं	-11.2287
▁कामभव	-11.2287
हन्द	-11.2288
▁वत्थुस्स	-11.2289
ारम्भ	-11.229
▁वायो	-11.229
▁चेतसिका	-11.2291
▁सुविसुद्ध	-11.2293
▁सिद्धा	-11.2295
▁हिरोत्तप्प	-11.2296
▁अकुसलमूलं	-11.2296
सम्बोज्झङ्गं	-11.2297
▁अनुसेतीति	-11.2297
▁गन्तु	-11.2298
▁पठमज्झानं	-11.2301
▁पठमस्स	-11.2301
▁तेभूमक	-11.2302
▁विभूस	-11.2303
▁पठमाय	-11.2304
▁भासतो	-11.2307
▁अकाल	-11.2307
▁पादेन	-11.2307
▁जनतं	-11.2307
ग्गो	-11.2308
▁अनागामिफल	-11.2312
ादीति	-11.2313
तब्बो	-11.2314
▁कोसल्	-11.2315
▁परिवत्तन	-11.2316
▁गणस्स	-11.2316
न्तरायो	-11.2316
▁निवेसनं	-11.2317
▁अरूपावचरा	-11.2319
मुग्ग	-11.232
▁धम्मता	-11.2323
घन	-11.2323
देह	-11.2326
थम्भ	-11.2326
▁सम्मोदि	-11.2327
वाणिज	-11.2328
▁ब्यसन	-11.2328
▁लो	-11.2329
ञाते	-11.233
▁पटिसंवेद	-11.233
भिक्खूनं	-11.2333
ादीनन्ति	-11.2334
तथेव	-11.2334
▁एकदेसं	-11.2334
▁सोमनस्सजातो	-11.2334
▁सब्बमेतं	-11.2336
थि	-11.2336
सरणो	-11.2336
▁एवमिध	-11.2336
▁कनिट्ठ	-11.2337
विचार	-11.2339
▁उद्धत	-11.234
▁भिक्खुसङ्घे	-11.234
▁परियापुण	-11.2341
कस्सप	-11.2343
प्पमाणा	-11.2345
मानि	-11.2345
▁मुनिनो	-11.2346
वसी	-11.2347
▁पिहित	-11.2347
पटिभान	-11.2351
▁तिदस	-11.2351
▁इदमेत	-11.2351
▁ञेय्यं	-11.2355
विसम	-11.2356
▁दूरतोव	-11.2358
गाथावण्णना	-11.2359
▁१८७	-11.2361
चकामगुण	-11.2362
लङ्केन	-11.2362
पिय	-11.2362
ादीन	-11.2364
▁अधिमुत्त	-11.2364
पञ्हे	-11.2364
तिआदीसुपि	-11.2364
▁पेतं	-11.237
▁पसीदति	-11.2371
▁परिक्खेप	-11.2373
मेस	-11.2373
▁गन्धं	-11.2373
ग्गह	-11.2374
▁आरद्धो	-11.2378
▁अनवसेसतो	-11.2378
▁तित्थिया	-11.238
▁वित	-11.2382
▁नस्सति	-11.2382
प्फल	-11.2385
भावदस्सनत्थं	-11.2385
समञ्	-11.2386
▁सकत्थे	-11.2386
▁आनन्तरिय	-11.2388
यस	-11.239
▁पवेसेत्वा	-11.2393
▁गाहापेत्वा	-11.2393
▁पराभव	-11.2393
▁अदासिं	-11.2394
▁पसवति	-11.2396
▁एत्तकेन	-11.2397
▁सम्पटिच्छित्वा	-11.2397
ङ्गानि	-11.2397
नत्थो	-11.2398
▁उपास	-11.2399
▁वाळ	-11.2399
कुटिकं	-11.24
▁अतुल	-11.24
▁कम्मन्ति	-11.2401
चेवमादि	-11.2401
▁उपट्ठिता	-11.2402
▁सेख	-11.2402
▁गच्छन्ता	-11.2402
चुपट्ठानं	-11.2403
▁सू	-11.2404
▁कुसुम	-11.2405
▁सङ्खता	-11.2406
१५	-11.2406
▁योजनं	-11.2407
लस	-11.2408
▁बुद्धसासने	-11.241
पराध	-11.2411
ञते	-11.2411
▁भत्तु	-11.2411
▁देवदत्तस्स	-11.2412
▁अनत्थाय	-11.2412
▁परियेसित्वा	-11.2414
▁हेमन्त	-11.2414
▁झानानि	-11.2414
▁गुणो	-11.2415
नयन	-11.2416
▁असङ्ख्येय्य	-11.2416
▁१९५	-11.2417
ालय	-11.2418
ङ्गो	-11.2419
▁विचरन्ति	-11.242
▁मुत्तं	-11.2421
▁मिन	-11.2422
परमं	-11.2425
पक्खि	-11.2425
ानुसय	-11.2426
▁एतदेव	-11.2427
कामं	-11.2428
▁आवास	-11.2429
▁ठानेन	-11.243
ञसाधारण	-11.243
ञुना	-11.2431
▁स्वे	-11.2431
खल	-11.2432
▁विपाकधम्मधम्मो	-11.2435
राजि	-11.2435
िस्सन्तीति	-11.2435
▁वत्तमाना	-11.2436
िच्छा	-11.2437
▁१९३	-11.2441
▁निद्दिस	-11.2441
▁नदि	-11.2441
▁अघानकान	-11.2444
▁सुत्तन्तभाजनीय	-11.2444
▁छट्ठायतन	-11.2445
▁विप्पमुत्तो	-11.2446
नामका	-11.2446
▁दुब्बण्ण	-11.2447
ापी	-11.2447
िद्धि	-11.2448
▁यानं	-11.2448
▁दुक्खितो	-11.2448
▁पारुपित्वा	-11.245
▁असमाहित	-11.245
नुभाव	-11.2451
▁कुरु	-11.2452
▁छव	-11.2453
▁सत्तमा	-11.2453
▁मातुगामस्स	-11.2455
नाना	-11.2455
ताव	-11.2456
यन्ती	-11.2457
चुनो	-11.2458
▁अब्भा	-11.2459
जनानि	-11.2459
▁चोरो	-11.2459
▁अनेकविध	-11.246
▁गण्हन्तस्स	-11.246
अलं	-11.2466
▁भणित	-11.2466
▁मनोमय	-11.2467
पुरं	-11.247
ितेन	-11.2474
▁लब्भ	-11.2475
▁भद्दे	-11.2476
▁सम्बोधि	-11.2477
त्वान	-11.2478
▁अप्पमत्तक	-11.248
▁महापच्	-11.2481
समथ	-11.2482
▁आकासं	-11.2483
▁वेळुरिय	-11.2484
▁निरुद्ध	-11.2486
▁हदये	-11.2489
▁एकविध	-11.2489
▁महाजनं	-11.249
लङ्के	-11.249
यम	-11.2493
▁संवरं	-11.2493
▁कप्पो	-11.2498
▁असुद्ध	-11.2499
▁हेतुफल	-11.25
सतिपट्ठान	-11.25
▁तिकपाचित्तियं	-11.25
▁पसय्ह	-11.25
चारिक	-11.25
अह	-11.25
▁रसायतनं	-11.2501
▁गरुक	-11.2501
▁विसेसनं	-11.2502
▁पस्सथ	-11.2502
▁१९८	-11.2504
▁नियुत्तो	-11.2505
दोमनस्स	-11.2506
▁२२०	-11.2508
▁जनिन्द	-11.2508
▁कुपितो	-11.2508
▁नवमो	-11.2509
ापेसुं	-11.2509
सन्तुट्ठ	-11.251
▁पितरा	-11.251
▁दूत	-11.2511
▁राजूनं	-11.2511
▁वत्ता	-11.2511
निपाता	-11.2511
▁अनुकम्पाय	-11.2512
ादिच्	-11.2513
▁महायसो	-11.2513
▁कल्याणं	-11.2514
कअविचारं	-11.2514
▁सम्भूत	-11.2514
▁सिद्धो	-11.2515
▁पासादे	-11.2516
▁सब्रह्मचारीनं	-11.252
▁समन्तपासादिकाय	-11.252
▁पासादं	-11.2523
गामो	-11.2523
▁समुप	-11.2524
▁वेदितब्बन्ति	-11.2524
▁लोल	-11.2525
▁अरियसावकस्स	-11.2526
▁कप्पं	-11.2526
▁दिब्बेहि	-11.2526
▁जलं	-11.253
ताल	-11.253
कुसलता	-11.2532
▁अवधारण	-11.2533
▁जित	-11.2534
▁विभत्तो	-11.2534
स्सामी	-11.2534
▁महाब्रह्मा	-11.2535
ित्थियो	-11.2536
▁तित्थ	-11.2538
गुणो	-11.2538
▁किलिट्ठ	-11.2539
▁ञातका	-11.2539
▁आनीत	-11.2546
यन्तं	-11.2548
▁विमुत्तं	-11.2548
▁इच्छितब्ब	-11.2549
▁अदस्सनं	-11.2549
▁अरूपी	-11.255
मू	-11.2551
▁दीपं	-11.2552
▁२१५	-11.2552
लन्ति	-11.2552
▁चतुरस्स	-11.2555
सहस्सेहि	-11.2555
िय्यति	-11.2555
सप्पि	-11.2556
▁नाहोसि	-11.2557
▁विभावेतुं	-11.2558
▁आगच्छन्तं	-11.2559
▁नवम	-11.2559
▁एतस्मा	-11.2559
▁तिलोक	-11.2563
▁खिप्पमेव	-11.2563
▁तण्हक्खय	-11.2565
▁रि	-11.2565
▁किलन्त	-11.2567
पदा	-11.2567
चङ्कम	-11.2568
▁पो	-11.2569
मण्डले	-11.257
▁मुतं	-11.2571
ञपेति	-11.2573
▁तण्हादिट्ठि	-11.2575
▁हिरि	-11.2575
सद्ध	-11.2578
▁दायको	-11.2581
▁निब्बानन्ति	-11.2582
▁उदर	-11.2583
▁पुरेभत्तं	-11.2583
▁अनेन	-11.2583
▁वेदेह	-11.2584
ङ्को	-11.2585
▁करित्वान	-11.259
▁खादनीय	-11.259
▁सुखञ्	-11.259
▁आहारसमुट्ठानं	-11.2591
भिज्	-11.2595
▁चतुर	-11.2596
▁पुग्गलेन	-11.2596
तापि	-11.2597
▁सकदागामिफल	-11.2599
▁जीर	-11.26
▁धनञ्	-11.26
▁उभयम्पि	-11.26
दे	-11.2601
▁यति	-11.2602
▁वण्णा	-11.2602
ङ्कुर	-11.2605
डि	-11.2605
पाहं	-11.2606
लोल	-11.2608
▁निरोधे	-11.261
▁थले	-11.2611
न्तिआदीनि	-11.2611
सिला	-11.2612
▁भुस	-11.2612
ाचयगामिनापचयगामी	-11.2612
▁तीहाकारेहि	-11.2613
▁महतिया	-11.2613
थाम	-11.2614
सूल	-11.2614
▁एवमत्थो	-11.2615
▁ठानमेतं	-11.2615
▁फले	-11.2617
रुद्ध	-11.2617
▁विवित्त	-11.2623
विजानन	-11.2623
मिच्छा	-11.2624
वण्णनाय	-11.2625
सन्तो	-11.2625
मेवा	-11.2625
▁उपेक्खासहगत	-11.2628
▁तेत्तिंस	-11.2629
विनिच्छयकथा	-11.2629
▁पब्बजिं	-11.263
पुथुज	-11.263
▁१९४	-11.2634
▁देह	-11.2636
▁अट्ठकथासु	-11.2637
▁रसे	-11.2637
▁अत्थेसु	-11.2637
▁अमनाप	-11.2638
नमानसो	-11.2639
कुसुम	-11.2641
पुरिसा	-11.2641
प्पभव	-11.2642
ब्रह्मा	-11.2642
भासित	-11.2643
निहित	-11.2644
१९	-11.2645
▁वायामो	-11.2646
पुग्गलोकासा	-11.2647
ञतित्थिया	-11.2647
सन्तक	-11.2647
▁निरा	-11.265
▁सम्पदान	-11.265
▁पच्छिमे	-11.265
▁आबाधो	-11.2652
चितं	-11.2654
▁तथागतबलं	-11.2655
ञकम्मेन	-11.2655
▁१८८	-11.2655
▁गण्हेय्य	-11.2657
▁माल	-11.2658
▁कपि	-11.266
▁अत्थङ्गमो	-11.2661
ाहु	-11.2663
यमानं	-11.2669
▁उपचिनन्तो	-11.2669
▁खादति	-11.2669
▁उदायी	-11.267
▁पतिट्ठापेसि	-11.267
पती	-11.2671
प्पत्तिया	-11.2671
▁समुट्ठितं	-11.2671
▁अनेकेहि	-11.2672
▁२०५	-11.2672
नट्ठानं	-11.2673
▁१९२	-11.2673
▁सन्ध	-11.2675
ञ्हेतं	-11.2675
▁समादह	-11.2675
उत्तर	-11.2676
▁हत्थपासे	-11.2676
▁गमिस्सामि	-11.2676
समुदाय	-11.2679
▁पयुत्त	-11.2683
▁पसादेत्वा	-11.2683
▁वस्ससतं	-11.2684
कन्द	-11.2684
▁अनुस्सव	-11.2684
▁आहट	-11.2685
▁समथा	-11.2686
परिस	-11.2688
▁लोकियो	-11.2688
गमो	-11.2689
परिनिब्बा	-11.2689
▁सुभं	-11.2689
▁उभोसु	-11.2689
▁कस्सपस्स	-11.2692
▁असद्धम्म	-11.2696
▁ताता	-11.2698
▁समणधम्मं	-11.2698
▁अदिस्वा	-11.2699
▁खार	-11.2699
अरूप	-11.2701
▁भाग	-11.2702
साखा	-11.2702
पत	-11.2704
▁कामतण्हा	-11.2704
▁सन्तिका	-11.2704
▁बाहा	-11.2709
चदस	-11.2714
चक	-11.2714
सासनं	-11.2716
▁अन्व	-11.2718
▁पेसित	-11.2719
▁सक्य	-11.2719
▁उळारं	-11.272
▁यथावुत्तं	-11.2721
▁पातु	-11.2722
▁केसे	-11.2722
▁भुम्मं	-11.2723
पथो	-11.2723
▁पेम	-11.2726
कज्झान	-11.2726
▁सस्सतो	-11.2727
परिक्खित्त	-11.2727
▁वदामीति	-11.2728
▁संसारो	-11.2732
▁पादेहि	-11.2733
▁भवितब्ब	-11.2733
न्तराय	-11.2734
▁वदामी	-11.2735
▁विनिपात	-11.2735
▁तिरच्छानयोनि	-11.2738
चङ्गिक	-11.2739
ाया	-11.274
▁अजानित्वा	-11.2741
▁तदङ्ग	-11.2742
नुग्गह	-11.2742
▁२०६	-11.2743
▁नेत्ति	-11.2744
▁मरति	-11.2747
▁द्वारे	-11.2748
▁नआहार	-11.2748
▁क्रियत्था	-11.275
▁वीणा	-11.2753
कम्पन	-11.2754
हितं	-11.2755
स्म	-11.2756
▁मज्झिमं	-11.2757
▁पदहति	-11.2761
नभावं	-11.2762
▁सचित्तक	-11.2763
मारुय्ह	-11.2763
▁पक्खन्द	-11.2766
मोचन	-11.2768
▁२०९	-11.2771
तप्प	-11.2772
▁ञाणसम्पयुत्त	-11.2773
▁अत्थङ्गमा	-11.2773
▁रुन्ध	-11.2774
▁कुसलधम्म	-11.2775
▁सम्मासम्बुद्धा	-11.2777
मती	-11.2779
▁चतुप्पद	-11.2779
▁बहुल	-11.2782
▁आचिक्खि	-11.2784
जतग्गे	-11.2784
▁फोट्ठब्बा	-11.2784
दायकत्थेरस्स	-11.2785
मत्तेनेव	-11.2786
ोभास	-11.2787
कू	-11.2787
▁२००	-11.2788
▁अभिस	-11.2788
▁चेतियस्स	-11.2789
४०	-11.279
मलं	-11.2791
ुप्पल	-11.2791
▁अनुयुत्तो	-11.2795
▁मज्झिमा	-11.2795
ञातत्ता	-11.2795
▁भावेन	-11.2796
परिय	-11.2797
▁दट्ठब्ब	-11.2801
मयि	-11.2803
खादनीय	-11.2804
▁अप्पसा	-11.2804
नअनुपादानियो	-11.2805
परिपुण्ण	-11.2806
▁भम	-11.2807
ञातब्बो	-11.2808
▁पट्ठप	-11.281
▁विदितो	-11.2814
समत्थ	-11.2814
▁कुमुद	-11.282
उक्	-11.282
म्बर	-11.282
▁रोस	-11.2821
▁परिळाह	-11.2828
▁नवहि	-11.2829
▁निरोधसमाप	-11.283
▁पवारित	-11.2832
कारका	-11.2833
▁अप्पिय	-11.2834
▁खुज	-11.2835
▁जानितब्बं	-11.2836
▁गतिं	-11.2836
▁भिक्खुनीहि	-11.2836
जेतुं	-11.2836
▁यथासुखं	-11.2841
▁निद्दिट्ठो	-11.2841
▁चेतोसम्फस्सज	-11.2842
▁सप्पाणक	-11.2842
▁ओरुय्ह	-11.2842
▁अतीतो	-11.2844
▁भूरिपञ्	-11.2844
यावता	-11.2844
▁विया	-11.2847
▁अधिप्पेतत्ता	-11.2847
▁दुक्खनिरोधो	-11.2848
पकरण	-11.285
▁आरोचेत्वा	-11.2851
▁अहन्ति	-11.2852
▁अभिमुख	-11.2853
▁ओतिण्ण	-11.2855
▁न्हान	-11.2858
▁पटिक्खेप	-11.2858
▁पटिग्गहितं	-11.2865
▁पीण	-11.2865
▁उपज्झायस्स	-11.2865
▁छेक	-11.2868
▁मातुकुच्छि	-11.2868
▁सोको	-11.2869
क्खी	-11.287
▁सख	-11.2873
वस्सो	-11.2873
प्पदेसे	-11.2875
▁पमुदित	-11.2876
नास	-11.2877
▁बिन्दु	-11.2877
▁चतुब्बिधो	-11.2879
▁सम्बोध	-11.2879
पाराजिक	-11.288
▁अपुब्बं	-11.2881
▁आवासं	-11.2881
▁सरद	-11.2883
रंसि	-11.2884
ापेन्तो	-11.2891
▁उपसम्पदं	-11.2891
▁दिट्ठानुसय	-11.2892
▁वस्सिकसाटिक	-11.2895
सङ्घादिसेस	-11.2895
▁आगमनं	-11.2897
सोधन	-11.2898
▁आरुप्प	-11.29
▁धज	-11.2901
सारी	-11.2902
▁ओदन	-11.2904
▁आभुजित्वा	-11.2904
मन्ति	-11.2905
समुट्ठानो	-11.2906
▁तुसित	-11.2909
▁ञेय्य	-11.2911
▁कुम्भकार	-11.2912
▁विजय	-11.2912
िस्ससी	-11.2913
▁अद्द	-11.2914
▁रतनानि	-11.2917
▁उपगता	-11.2917
▁२१३	-11.2918
▁सीलादि	-11.2918
▁चीवरपिण्डपात	-11.2919
▁२२८	-11.2919
विप्पयुत्तचित्त	-11.2919
वत्थुकथावण्णना	-11.292
▁भग्ग	-11.292
▁वरो	-11.2921
▁२३८	-11.2922
▁नाळि	-11.2924
येय्य	-11.2925
ग्घनक	-11.2925
विसयं	-11.2928
▁भवेय्याति	-11.2928
▁सेनासनानि	-11.2929
अग्ग	-11.2929
सङ्घस्स	-11.2931
▁२३६	-11.2931
▁निरवसेस	-11.2935
नाकार	-11.2938
▁पाति	-11.2941
सिरि	-11.2941
पुरिम	-11.2941
ापेतीति	-11.2942
दारु	-11.2942
कम्प	-11.2944
प्पभा	-11.2946
▁तथारूपं	-11.2947
▁एकवीसति	-11.295
▁नग्ग	-11.295
▁विपाकानं	-11.295
▁वुसितं	-11.2951
धातू	-11.2952
▁उपद्दव	-11.2954
▁आगच्छेय्य	-11.2955
▁उपन	-11.2957
▁अभिधम्मभाजनीय	-11.2959
▁आगतोति	-11.2962
▁कुहि	-11.2963
▁संवट्ट	-11.2964
▁कम्बल	-11.2964
नादानं	-11.2965
सोतापत्तिफलादीनि	-11.2966
▁२१०	-11.2966
▁उपसन्त	-11.2966
▁वदेय्युं	-11.2967
विसेसेन	-11.2967
वीमंस	-11.2969
▁उप्पादित	-11.2969
▁वचनत्थो	-11.2969
▁पातिमोक्खसंवर	-11.2971
▁कम्मविपाक	-11.2972
▁सारागो	-11.2975
▁पत्तचीवर	-11.2977
पदवण्णना	-11.2978
▁भणन्ति	-11.2978
▁२१६	-11.2978
▁सन्तीरण	-11.298
▁पसत्थ	-11.298
▁धारेन्ति	-11.2981
▁सब्बधि	-11.2981
वचनो	-11.2982
सग्ग	-11.2983
▁नोकिलेस	-11.2983
▁अधिकं	-11.2983
▁२१८	-11.2984
▁सम्पयुत्तस्स	-11.2984
▁वस्से	-11.2985
▁सप्पटिघ	-11.2986
▁भविस्स	-11.2986
पिलोतिक	-11.2987
लुज्	-11.2988
छा	-11.2989
▁पहारं	-11.299
▁अरिट्ठ	-11.299
ूपसम	-11.2991
▁दानेन	-11.2992
पादा	-11.2993
▁सच्छिकिरिया	-11.2994
ळु	-11.2994
नुप	-11.2995
चेकसम्बुद्धो	-11.2995
ित्थाति	-11.2996
▁तदनुरूप	-11.2998
▁अभिनिवेस	-11.2999
▁वीरियारम्भ	-11.2999
मिध	-11.3
▁गणना	-11.3004
परियायेन	-11.3005
▁हन्ति	-11.3005
▁पाराजिका	-11.3008
क्खिप	-11.3008
▁अनेकानि	-11.301
ञोजन	-11.3013
एको	-11.3015
▁न्हारु	-11.3017
टक	-11.3017
▁पदच्छेदो	-11.3018
▁कामूपसंहिता	-11.3018
▁दण्डेन	-11.3019
▁वेठ	-11.3019
▁निय्यानिक	-11.302
▁रम्मे	-11.302
▁अप्पीतिक	-11.302
▁२३७	-11.3021
सुक्	-11.3021
ागत	-11.3021
ूपमो	-11.3022
▁१९७	-11.3022
▁आभतं	-11.3023
▁सङ्खारुपेक्खा	-11.3023
▁वित्थारित	-11.3023
ततिय	-11.3025
भावकरण	-11.3026
विहारी	-11.3027
▁उपलक्खण	-11.3028
▁मन्दो	-11.3029
▁सिक्खेय्य	-11.303
इरियापथ	-11.303
▁धम्मिया	-11.303
चावुसो	-11.3033
▁नदति	-11.3034
▁किंकारणा	-11.3035
▁२०३	-11.3035
▁नप्पजहन्ति	-11.3035
▁पब्बता	-11.3036
▁दन्तकट्ठ	-11.3036
▁निब्बानाय	-11.3038
ञतीति	-11.3039
▁२०८	-11.3041
▁ञत्तिया	-11.3044
▁यक्खा	-11.3045
▁इमिनापि	-11.3046
▁२३४	-11.3048
खीर	-11.3049
▁विरतो	-11.305
▁महिद्धिको	-11.3051
कटानं	-11.3056
▁यसस्सि	-11.3058
सब्भावतो	-11.3059
▁जानाथ	-11.3059
▁इतरीतर	-11.306
नेक	-11.3062
पदट्ठान	-11.3064
▁सम्पदा	-11.3065
ुत्तमं	-11.3066
▁२१९	-11.3066
▁अभिनीहार	-11.3067
▁तस	-11.3069
▁अनोत्तप्पं	-11.3072
▁आदास	-11.3072
पेत	-11.3073
राजानो	-11.3073
ावबोध	-11.3073
अत्थो	-11.3075
साटक	-11.3076
▁महीपति	-11.3077
सब्बञ्	-11.3078
▁रजनीय	-11.3079
▁एकाहप	-11.3079
▁नारियो	-11.308
▁परिक्खिपित्वा	-11.308
लङ्कार	-11.308
चयवसेन	-11.3083
▁पठमतरं	-11.3085
गामिनी	-11.3086
भावेनाति	-11.3087
युज्	-11.3088
▁समुट्ठानादीनि	-11.3088
ळार	-11.3088
▁भयानक	-11.3089
▁घटेत्वा	-11.3091
▁दीपेन्ति	-11.3091
▁पसीद	-11.3092
▁अन्धकारे	-11.3092
▁सम्भ	-11.3093
▁आलोप	-11.3093
▁उपसन्तो	-11.3096
चवोकारानं	-11.3097
निपतन्ति	-11.3097
निदाना	-11.3097
▁मूलानि	-11.3098
▁गब्भो	-11.31
▁आरोपे	-11.3102
▁मोहा	-11.3102
▁गच्छन्त	-11.3104
▁सावके	-11.3105
धु	-11.3106
नयं	-11.3109
▁२३३	-11.311
▁दुग्गन्ध	-11.311
द्धा	-11.311
गं	-11.3112
▁पणिधीति	-11.3113
▁नविप्पयुत्त	-11.3114
तरि	-11.3115
▁एकग्ग	-11.3115
विसया	-11.3115
▁अङ्गजातं	-11.3117
▁राम	-11.3119
ञानिपि	-11.3123
▁चाहं	-11.3123
लाभो	-11.3124
तुकामो	-11.3124
सङ्गीति	-11.3124
▁अरूपावचरानं	-11.313
▁सदिसा	-11.3133
सहितं	-11.3133
▁पसारेत्वा	-11.3137
▁दीपिता	-11.3137
▁तुव	-11.3138
ग्गहणे	-11.3138
▁महन्तेन	-11.3138
▁भजति	-11.314
▁उपमाय	-11.3141
यन्ते	-11.3141
▁अरोगो	-11.3143
ाभिमुख	-11.3143
स्सती	-11.3146
▁सब्बथापि	-11.3148
प्पत्ति	-11.3152
▁चीवरेन	-11.3155
घटना	-11.3155
▁धम्मराजा	-11.316
▁योगिनो	-11.316
▁परिमण्डल	-11.3164
▁समूहता	-11.3167
▁सळायतनं	-11.3167
▁काको	-11.3168
चायन	-11.3169
▁सियन्ति	-11.317
▁चीवरानि	-11.3172
▁अभिसमय	-11.3174
▁समिद्ध	-11.3175
▁पटिक्खेपो	-11.3175
सन	-11.3177
नभावेन	-11.3177
▁भोति	-11.3179
▁धम्मविचयो	-11.3182
▁भावनामय	-11.3183
मङ्ग	-11.3186
▁निद्द	-11.3189
वाक्य	-11.319
▁कुटिं	-11.3191
चक्खाय	-11.3192
▁आरामं	-11.3193
▁आणाप	-11.3194
विक्खेप	-11.3195
वोहारेन	-11.3196
▁घम्म	-11.3196
▁उप्पतित्वा	-11.3198
गच्छति	-11.3198
▁बाहिय	-11.3198
योजनं	-11.32
▁तम्	-11.32
लोकं	-11.32
कूटं	-11.3204
▁साण	-11.3205
▁२०४	-11.3206
▁कामसुख	-11.3206
▁ठितेन	-11.3208
▁परेन	-11.321
▁संवे	-11.3211
▁परिनिब्बुत	-11.3212
▁खादित्वा	-11.3213
रित	-11.3214
▁सेय्या	-11.3219
▁कुसलञ्	-11.322
▁अरूपावचरं	-11.3221
▁कच्छ	-11.3222
▁निस्सरणञ्	-11.3224
चित्तानं	-11.3224
मुद	-11.3224
▁रुक्खमूल	-11.3224
हतं	-11.3225
▁अपरम्पि	-11.3225
▁कामगुण	-11.3226
▁संवत्तन्ती	-11.3226
▁२४३	-11.3228
दुट्ठ	-11.3231
▁सरं	-11.3231
▁अहुं	-11.3231
▁पब्बजि	-11.3232
▁उग्गहित	-11.3233
कोसति	-11.3233
▁महन्ते	-11.3233
▁१९९	-11.3235
▁कीदिसं	-11.3236
नळ	-11.3237
▁निवत्थ	-11.3248
भावतोति	-11.3249
मदो	-11.325
विवित्त	-11.3251
हेतुदुकं	-11.3252
▁अवसिट्ठ	-11.3252
▁दसाति	-11.3257
▁पादमूले	-11.3257
▁अपदाने	-11.3259
▁निमन्तेत्वा	-11.326
▁पादेसु	-11.3261
▁२३०	-11.3262
▁२१२	-11.3264
▁पमुख	-11.3265
▁२२९	-11.3266
▁विभावेति	-11.3267
प्पकरण	-11.3267
▁ब्रह्मचारि	-11.3267
▁२१४	-11.3267
▁समिद्धि	-11.3275
▁कम्मवाचाय	-11.3275
▁तावतिंस	-11.3275
▁अभव	-11.3276
▁फुट्ठस्स	-11.3277
नदी	-11.3277
▁२२५	-11.328
▁२११	-11.3281
▁दोसस्स	-11.3281
▁सब्बसङ्खार	-11.3282
▁दासो	-11.3282
▁२२४	-11.3283
▁पवत्तत्ता	-11.3284
िमानि	-11.3287
▁अग्गे	-11.3287
▁लोकस्मि	-11.3288
▁ब्यसनं	-11.3289
▁सीहनाद	-11.329
▁विसाखे	-11.3292
▁सेनासने	-11.3293
भवो	-11.3294
▁गणो	-11.3295
▁सब्बनाम	-11.3296
▁२०१	-11.3297
▁जलित	-11.3298
▁पिपास	-11.3298
▁किल	-11.3305
▁२२६	-11.3305
▁२०२	-11.3305
▁गण्हतो	-11.3306
▁अप्पमत्ता	-11.3307
▁सङ्गाम	-11.3308
▁तिरिय	-11.3309
▁सीले	-11.3311
▁वुट्ठि	-11.3314
▁२३२	-11.3316
▁अग्गहेसि	-11.3317
▁धम्मसभायं	-11.3317
▁सुदिन्	-11.3317
▁उपाहन	-11.3317
▁विचिकिच्छाय	-11.3317
▁निकाय	-11.3317
▁कायचित्त	-11.3318
▁ववत्थपेति	-11.3321
▁रो	-11.3323
▁अयमायस्मा	-11.3324
▁इट्ठानिट्ठ	-11.3324
निद्दिट्ठ	-11.3326
▁सुत्तानि	-11.3328
▁निट्ठं	-11.333
सिर	-11.3331
स्सरो	-11.3332
संसन्दन	-11.3333
▁उपादाना	-11.3334
सम्भूत	-11.3335
▁पटिलाभो	-11.3337
▁एत्तकमेव	-11.3341
▁अजानन्तस्स	-11.3342
▁तादि	-11.3343
▁एत्तक	-11.3344
▁सुभावित	-11.3345
▁भिस	-11.3348
▁यावततियं	-11.3349
▁अन्तरायो	-11.3351
▁अज्झावस	-11.3352
▁जि	-11.3352
▁विमुत्तिया	-11.3355
▁एतिस्सा	-11.3356
मानोति	-11.3356
त्थिका	-11.3356
मूलके	-11.3357
चानो	-11.336
▁कित्तावता	-11.3361
▁निक्खमति	-11.3361
▁चित्तसम्पयुत्त	-11.3362
▁पुच्छिता	-11.3363
चत्तारिमानि	-11.3363
▁किस	-11.3364
▁अभिसमे	-11.3365
▁यत	-11.3366
▁तूरिय	-11.3367
िनोति	-11.3367
▁सुचरित	-11.3369
तण्ह	-11.3369
▁समुदाचर	-11.337
▁अधिमोक्खो	-11.337
▁नया	-11.3371
▁२१७	-11.3372
▁विवद	-11.3373
▁निरन्तर	-11.3374
लञ्	-11.3375
ेत	-11.3377
चसूदनिया	-11.3378
▁मत्थक	-11.3379
▁थु	-11.3379
ादिवण्णना	-11.3379
▁गामन्तर	-11.338
▁विभाग	-11.3381
▁दट्ठुं	-11.3381
▁सम्मापटिप	-11.3382
▁पहितत्तो	-11.3382
▁वण्णवादी	-11.3382
ायन्ति	-11.3383
स्सरा	-11.3383
योग्ग	-11.3383
▁नोपरामास	-11.3384
▁महापथवी	-11.3384
▁जीविकं	-11.3386
▁उदाहरण	-11.3386
इत्थि	-11.3389
▁यत्तकं	-11.3389
▁सब्बतो	-11.3392
▁अनून	-11.3392
जितब्बो	-11.3393
▁नयिदं	-11.3394
किर	-11.3396
मत्तन्ति	-11.3398
परियोसाना	-11.3398
▁पदह	-11.3398
▁२२२	-11.3399
चयभावो	-11.3399
▁द्वित्तं	-11.3401
▁याचक	-11.3401
▁फलदान	-11.3401
▁आसा	-11.3401
▁अयोनिसोमनसिकार	-11.3402
▁अन्तरं	-11.3403
▁मद्दि	-11.3403
गमनेन	-11.3403
▁जीय	-11.3404
▁कारणे	-11.3405
▁सुणन्ति	-11.3408
कम्मन्त	-11.3409
▁वदे	-11.3409
ाबाध	-11.341
▁विचरति	-11.3413
कोन्ता	-11.342
ातीत	-11.3422
▁२३५	-11.3423
चेकबुद्धा	-11.3424
सद्दतो	-11.3425
▁महन्ता	-11.3425
निट्ठ	-11.3425
▁२२३	-11.3425
▁विजानाति	-11.3426
नमो	-11.3426
▁आसवसम्पयुत्तो	-11.3426
संवास	-11.3427
▁चतुब्बिधा	-11.3431
▁निरामिस	-11.3432
▁करणीयेन	-11.3433
▁दुग्ग	-11.3433
▁२२१	-11.3433
▁अभिनिब्बत्त	-11.3434
▁पीतिसम्बोज्झङ्ग	-11.3434
▁कोट्ठासो	-11.3436
▁उप्प	-11.3436
▁समणब्राह्मणानं	-11.3437
कनिद्देसवण्णना	-11.3437
▁एदिस	-11.3437
▁विनोदे	-11.3437
▁कारणन्ति	-11.3439
▁लिच्छवि	-11.3439
▁अग्गिवेस्सन	-11.3439
▁युवा	-11.3439
▁नप्पजहतीति	-11.3441
भग्ग	-11.3441
न्तेव	-11.3442
▁चित्तचेतसिका	-11.3443
▁अत्तहिताय	-11.3443
▁आवसथ	-11.3444
▁समादियित्वा	-11.3445
▁भासिस्सामी	-11.3445
▁लेण	-11.3445
▁२४०	-11.3446
▁पेक्खमानो	-11.3446
▁इतीति	-11.3446
▁पभास	-11.3446
▁अनुभवित्वा	-11.3447
▁पादो	-11.3447
लङ्कत	-11.3448
▁हु	-11.3448
▁कटि	-11.3449
▁सङ्गहेत्वा	-11.3451
▁पुच्छिंसु	-11.3451
▁यथापि	-11.3453
▁नोनीवरण	-11.3454
न्तस्साति	-11.3454
▁२२७	-11.3455
▁सब्बसत्तानं	-11.3455
▁विधम	-11.3456
िस्सथ	-11.3457
समुदयं	-11.3458
वीर	-11.346
▁कुणप	-11.3461
▁सतिपट्ठाने	-11.3461
गम्म	-11.3461
▁अहिताय	-11.3462
▁भरियाय	-11.3462
▁मरणेन	-11.3464
▁परिसासु	-11.3464
भुत्त	-11.3465
कसुत्तवण्णना	-11.3467
जिण्ण	-11.3468
तेहि	-11.3472
▁हतो	-11.3472
▁देसेतब्ब	-11.3475
▁आयति	-11.3475
▁कण	-11.3476
च्छन्द	-11.3481
ानुपस्स	-11.3482
दस्सनो	-11.3485
▁महग्गतो	-11.3485
▁भविस्सामी	-11.3486
▁२३९	-11.3488
▁हाय	-11.3488
चरे	-11.3489
सात	-11.3489
वाचि	-11.3492
ुस्सद	-11.3493
सङ्केत	-11.3493
भवङ्ग	-11.3496
ञाव	-11.3497
िकेन	-11.3498
काये	-11.3498
ानिच्	-11.3499
▁परिवेण	-11.3499
भावञ्	-11.35
▁पातुरहोसि	-11.3501
▁अग्गमग्गसमङ्गी	-11.3501
झिमनिकायट्ठकथाय	-11.3501
▁जिनं	-11.3504
▁पतित्वा	-11.3505
▁एकूनवीसति	-11.3505
▁तदनु	-11.3507
▁ओसध	-11.3508
▁आपुच्छित्वा	-11.3509
▁पब्बजितस्स	-11.351
▁अग्गिक्खन्ध	-11.351
▁मिगा	-11.351
▁अभिसम्पराय	-11.3512
▁तुट्ठ	-11.3512
▁असमत्थ	-11.3513
▁धम्मायतन	-11.3514
▁महग्गतं	-11.3514
▁पटिपत्तिं	-11.3515
▁आरोचेति	-11.3516
▁कोटिसतसहस्स	-11.3516
▁पीठ	-11.3517
▁अग्गिना	-11.3518
▁कुदास्सु	-11.3519
▁दासी	-11.3521
▁थुति	-11.3524
▁इमासं	-11.3527
च्छिज्	-11.3528
▁सुभा	-11.3528
ीयं	-11.3528
मक्ख	-11.3528
चेतस्स	-11.3529
ञत्तिं	-11.353
▁दुहेतुक	-11.3531
▁गीवा	-11.3532
सेवित	-11.3533
ानुसन्धि	-11.3533
मथ	-11.3535
वित्त	-11.3536
पटिसम्भिद	-11.3536
▁अलाभ	-11.3536
▁अनुसन्धि	-11.3537
▁वुद्धिं	-11.354
▁सठ	-11.3541
कस	-11.3542
चके	-11.3545
▁विवादाधिकरणं	-11.3546
▁सम्बोधाय	-11.355
▁सङ्घभेद	-11.3553
▁परामासो	-11.3554
जू	-11.3556
▁पवत्तियं	-11.3556
▁उपचयो	-11.3556
▁सारम्मण	-11.3556
▁नट्ठ	-11.3558
मुदु	-11.3558
▁आभा	-11.356
मित	-11.3561
▁सोयेव	-11.3562
▁एकविधेन	-11.3563
▁सीतं	-11.3563
वह	-11.3564
जली	-11.3564
ञादि	-11.3565
▁निसीदापेत्वा	-11.3566
किलेसेहि	-11.3566
▁पुरिसपुग्गलो	-11.3566
ञाणो	-11.3567
▁जानाहि	-11.3568
▁वम	-11.357
चारण	-11.3572
▁विज्झित्वा	-11.3573
▁पब्बजिस्सामि	-11.3573
▁वत्तब्बमेव	-11.3574
▁चिन्ता	-11.3576
भासा	-11.3577
ेय्युन्ति	-11.3578
देय्य	-11.3579
भुज	-11.3579
▁परिग्गहो	-11.3579
▁उपट्ठाको	-11.358
▁चारु	-11.3581
ग्गेन	-11.3583
▁अप्पेव	-11.3585
▁पस्ससि	-11.3586
समासो	-11.3588
▁पुनप्पुन	-11.3588
▁पापको	-11.3589
पभेद	-11.3591
▁पेमं	-11.3591
▁सदिसं	-11.3593
ज्झा	-11.3597
▁जीविते	-11.3598
▁उपाहना	-11.36
उप्पन	-11.3602
पारुत	-11.3604
चायस्मा	-11.3605
▁सारिपुत्तत्थेर	-11.3605
▁मनुस्सभूता	-11.3607
समुज्	-11.3608
विभत्त	-11.3608
▁धम्मम	-11.361
▁सरभ	-11.3612
मये	-11.3614
कारसिलोक	-11.3615
▁पंसुकूलिक	-11.3618
▁अपरन्त	-11.3618
परिब्बाजक	-11.3621
अनिदस्सनसप्पटिघो	-11.3621
समत्थता	-11.3623
▁विसाल	-11.3623
▁पुट	-11.3624
चेत	-11.3624
▁आवरण	-11.3625
लपन	-11.3625
▁२३१	-11.3625
कते	-11.3626
▁जातिजरामरण	-11.3626
ापयि	-11.3627
▁सम्मासम्बोधिं	-11.3627
▁नदादि	-11.3629
▁तुय्ह	-11.363
▁अचेतसिक	-11.363
सहगतो	-11.3631
फुल	-11.3632
▁खन्तिं	-11.3632
▁अद्धान	-11.3633
▁पाकतिक	-11.3633
▁गरू	-11.3634
▁मातुगामेन	-11.3635
▁रथेसभ	-11.3636
कविचार	-11.3637
रत्ति	-11.3637
▁भया	-11.3637
राम	-11.3643
गब्भो	-11.3643
▁तेयेव	-11.3643
▁सुत्तेसु	-11.3644
समुग्घात	-11.3646
अच्छरियं	-11.3646
▁विविधा	-11.3646
बहू	-11.3646
▁सासवो	-11.3646
▁दिट्ठिगतानं	-11.3647
कूप	-11.3647
मरियाद	-11.3648
इत्थन्	-11.3648
▁अकुसलविपाक	-11.3649
▁वक्खामि	-11.3651
▁मोक्खो	-11.3651
▁बुद्धोति	-11.3652
▁सूरिये	-11.3653
▁सुखविपाक	-11.3653
▁कम्मार	-11.3653
▁अपरिपुण्ण	-11.3653
▁धुरनिक्खेप	-11.3654
▁जेतवनं	-11.3656
▁अपुच्छि	-11.3657
▁निद्दा	-11.3657
विभावन	-11.3658
▁अप्पसद्द	-11.3659
▁परिक्खारो	-11.3661
▁कुसलचित्त	-11.3661
हास	-11.3661
▁ब्यापज्	-11.3662
▁सानुसयोति	-11.3663
▁द्वेधा	-11.3664
विमानवण्णना	-11.3664
▁मिगो	-11.3665
देवी	-11.3666
वादेन	-11.3667
परं	-11.3668
▁पोसे	-11.3669
▁कुट	-11.3669
▁विक्खम्भन	-11.3672
▁अत्थञ्	-11.3673
नेति	-11.3673
▁वुत्तञ्	-11.3673
▁पित्त	-11.3675
पवारणा	-11.3677
वासीनं	-11.3678
▁रुचि	-11.3678
णिज्	-11.3679
▁अथोपि	-11.3679
विसुद्ध	-11.368
बद्धो	-11.3681
▁पीतिसहगतो	-11.3681
▁पचित्वा	-11.3683
ञुनो	-11.3683
ञापेतुं	-11.3683
▁समुच्छिन्द	-11.3684
▁गब्भं	-11.3685
▁समापत्तिया	-11.3685
▁विक्खेप	-11.3687
▁आदान	-11.3687
▁रोहण	-11.3688
▁उपागमि	-11.369
▁पब्बाजेतब्बो	-11.369
‘‘	-11.3692
▁परिनिब्बायि	-11.3692
▁महासमुद्दो	-11.3693
हिंस	-11.3694
▁सारत्तो	-11.3696
कित्तन	-11.3696
द्वादस	-11.3696
▁नगरस्स	-11.37
▁मलं	-11.37
विनिच्छयं	-11.37
चारि	-11.3702
▁अदुट्ठ	-11.3702
▁मग्गारम्मण	-11.3703
ाधिट्ठानं	-11.3703
▁नियाम	-11.3704
अत्थे	-11.3704
हेतुतो	-11.3709
▁उपासकं	-11.371
▁मित	-11.371
निरुत्ति	-11.3711
▁खीयति	-11.3711
▁विरोचति	-11.3714
▁कासाव	-11.3714
▁किमि	-11.3715
नरसो	-11.3716
▁अस्सद्धिय	-11.3717
▁सिथिल	-11.3718
▁मोघ	-11.372
▁परियोसाने	-11.372
▁पासादो	-11.3721
▁अन्तराया	-11.3721
ित्थि	-11.3721
▁यत्तक	-11.3723
▁अभिरम	-11.3723
▁सन्थव	-11.3723
▁निसीदितब्बं	-11.3724
कम्मन्ति	-11.3725
▁मो	-11.3725
▁एकेकस्स	-11.3726
▁तापस	-11.3732
▁पीतिसहगता	-11.3733
जको	-11.3733
दन्ता	-11.3733
▁सरीरस्स	-11.3733
▁गणं	-11.3734
▁अन्तलिक्खे	-11.3735
भक्खो	-11.3735
▁पाणिनो	-11.3736
▁वलाहक	-11.3737
विसयत्ता	-11.3738
▁नामिकपदमाला	-11.3742
▁उण्हं	-11.3744
करे	-11.3744
▁वन्दे	-11.3746
▁गन्थविप्पयुत्त	-11.3748
▁निवात	-11.3749
▁साख	-11.3751
▁परित्ता	-11.3752
▁खणिक	-11.3752
▁माणवक	-11.3753
▁गिलाना	-11.3755
▁दम्मि	-11.3756
▁वुत्तनयत्ता	-11.3756
तवे	-11.3757
त्तेपि	-11.3757
▁गोत्रभुस्स	-11.3759
▁पवारणं	-11.3759
▁काया	-11.376
▁पकासेसि	-11.3761
गोचरा	-11.3761
पूजा	-11.3763
▁गमिस्सति	-11.3763
▁सत्तविध	-11.3764
ञवन्त	-11.3767
▁भवरागानुसय	-11.3767
▁अनुरक्ख	-11.3768
पतित	-11.3769
▁विसेसेत्वा	-11.3774
▁अहित	-11.3775
फरण	-11.3775
हरणं	-11.3775
भोजने	-11.3778
ट्ठकथाय	-11.3779
▁हरि	-11.378
याचन	-11.378
▁वचने	-11.3782
फलो	-11.3782
▁पारुप	-11.3782
▁२४२	-11.3784
▁पुमा	-11.3785
▁दर	-11.3786
▁कुलपुत्ता	-11.379
▁पियरूपा	-11.379
▁इस्सरियं	-11.3791
▁धम्मिकं	-11.3793
न्तरिक	-11.3795
▁पदेसं	-11.3795
▁निधि	-11.3796
सिङ्ग	-11.3797
▁परलोके	-11.3798
ावहं	-11.3801
▁सङ्खतं	-11.3801
वचनतो	-11.3804
▁असदिस	-11.3804
पूति	-11.3805
िनिया	-11.3805
निदस्सन	-11.3806
▁अपरिमाण	-11.3807
▁सपरिक्	-11.3812
▁महती	-11.3813
▁फोट्ठब्बं	-11.3814
▁मग्गहेतुक	-11.3815
▁नप्पजानन्ति	-11.3815
प्पटिसंवेदी	-11.3815
▁विचक्खणो	-11.3815
▁भावनं	-11.3816
▁सस्सतदिट्ठि	-11.3816
▁इधावुसो	-11.3816
रेति	-11.3816
▁वळ	-11.3818
ावसाने	-11.3818
मत्तिका	-11.382
▁मासा	-11.382
सङ्गहं	-11.3821
▁तब्बि	-11.3822
क्खय	-11.3822
▁वेरि	-11.3822
▁अरहतीति	-11.3823
▁समुट्ठाप	-11.3823
देवा	-11.3824
दय	-11.3824
▁झानङ्ग	-11.3825
▁संसयो	-11.3826
नविपाकधम्मधम्म	-11.3826
ञाक्खन्ध	-11.3827
▁मासो	-11.3828
▁अनुस्सति	-11.3828
सूचि	-11.3829
▁वुट्ठानस्स	-11.383
▁पतितं	-11.383
भाणि	-11.3831
विमान	-11.3831
▁नपुंसकलिङ्ग	-11.3837
▁मरणस्स	-11.3838
कहापण	-11.3838
▁अत्ताति	-11.3839
सम्पयुत्तो	-11.384
सूर	-11.3841
▁अनुप्पत्ता	-11.3843
पुत्तं	-11.3843
▁निम्म	-11.3844
▁महाविहार	-11.3845
▁आसी	-11.3845
▁वाह	-11.3846
एसो	-11.3846
▁कपण	-11.3847
▁विदित	-11.3847
▁पत्थनाय	-11.3847
बन्धु	-11.3847
▁कथिनुद्धारो	-11.3849
सारं	-11.385
▁सीमाय	-11.3851
▁जप्प	-11.3851
विचारो	-11.3853
▁तच	-11.3854
▁कासि	-11.3855
▁मुद्ध	-11.3857
ेमीति	-11.3858
महापुरिसलक्खण	-11.3858
▁२४१	-11.386
अक्	-11.386
▁यायं	-11.3864
▁विसाखा	-11.3867
▁मानत्त	-11.387
▁वचनत्थं	-11.3871
▁सम्मस	-11.3871
▁होतूति	-11.3871
दोसं	-11.3872
▁सप्पुरिसा	-11.3873
▁अखण्ड	-11.3874
▁कारणभूत	-11.3874
▁जेट्ठक	-11.3874
किस्स	-11.3876
पयोगे	-11.3876
▁छेको	-11.3876
▁निस्सक	-11.3878
▁पटिस्सुत्वा	-11.3879
▁अयञ्हेत्थ	-11.3879
▁वियाकासि	-11.388
▁मच्छरियं	-11.388
▁आजीवक	-11.3882
विलास	-11.3883
▁तादिसस्स	-11.3885
▁इन्द्रियन्ति	-11.3885
▁तूल	-11.3886
▁सुप्पटिप	-11.3888
▁यथासम्भवं	-11.3889
जितब्बा	-11.3889
▁लिङ्गं	-11.389
▁पठमपाराजिक	-11.3891
▁निवार	-11.3891
▁बन्धना	-11.3891
मासि	-11.3893
निवत्ति	-11.3895
जेन्ति	-11.3895
▁हेतुसम्पयुत्त	-11.3896
▁अग्गी	-11.3896
घोसो	-11.3896
वत	-11.3897
कायस्स	-11.3897
वरे	-11.3898
▁धुन	-11.3898
द्दु	-11.3899
▁मधुरं	-11.3899
▁दुब्भिक्ख	-11.39
▁सासप	-11.3901
क्खन्धे	-11.3903
प्पटिवेध	-11.3904
▁चरिम	-11.3905
▁सम्मप्पधाना	-11.3906
▁दुब्बि	-11.3908
▁दुद्दस	-11.3909
▁परिभुत्त	-11.3913
▁नआसेवन	-11.3916
ायेव	-11.3916
▁पतिरूप	-11.3916
▁ब्यत्तेन	-11.3918
▁सिस्सो	-11.3919
▁देय्यधम्म	-11.392
▁समत्तं	-11.392
▁स्मा	-11.3922
▁अज्झो	-11.3923
▁निब्बत्तं	-11.3924
बहुला	-11.3925
▁हेस	-11.3926
चवेक्खणञाण	-11.3927
▁सद्दायतनं	-11.3927
▁चाल	-11.3932
परिग्गहित	-11.3933
▁पथवीकसिण	-11.3936
▁ब्रह्मचरियवासो	-11.3936
▁रोप	-11.3938
▁सम्पजान	-11.3939
नासिक	-11.394
▁एवरूपस्स	-11.3941
▁पच्छाजाते	-11.3942
▁पिण्डपातो	-11.3942
भरित	-11.3944
▁अनवकासो	-11.3944
▁नअरूपावचर	-11.3944
▁गन्धायतनं	-11.3945
▁नानाकरणं	-11.3945
त्तिके	-11.3946
▁उपट्ठपेत्वा	-11.3947
▁विहेस	-11.3947
▁इतरथा	-11.3948
▁पट्ठपेत्वा	-11.3948
बलव	-11.3949
▁निरोधसमापत्ति	-11.3949
वसेनपि	-11.3949
द्वेमे	-11.395
▁अनपेक्ख	-11.3951
▁उपकारक	-11.3952
▁गण्हितुं	-11.3953
मत्तानं	-11.3953
▁विकिर	-11.3954
▁पजहन्तो	-11.3959
भाजनं	-11.3959
वसं	-11.3961
ातिआदीसु	-11.3961
▁अस्समे	-11.3963
परिदीपन	-11.3963
▁दिट्ठेन	-11.3964
▁पवत्तितं	-11.3964
▁कलहं	-11.3965
▁सुद्धो	-11.3966
▁इन्द्रियसंवर	-11.3968
▁दलिद्द	-11.3971
▁अनत्थं	-11.3974
▁निस्सित	-11.3974
सङ्खातानं	-11.3977
वस्सिक	-11.3978
▁वग्गु	-11.3978
▁आकासधातु	-11.3979
आदेसो	-11.3981
▁संवच्छर	-11.3981
▁कंस	-11.3984
▁भि	-11.3984
▁हरन्ति	-11.3984
▁यदेव	-11.3985
▁मनोकम्मं	-11.3986
▁वम्मिक	-11.3986
▁अनियम	-11.3988
चगीत	-11.3989
▁समया	-11.399
▁अभिसमयो	-11.399
▁मत्ता	-11.3992
▁भवनं	-11.3994
▁सुतो	-11.3996
परिवत्तन	-11.3999
▁अपरं	-11.3999
अट्ठानमेतं	-11.4
संवण्णनाय	-11.4
▁फीत	-11.4001
▁नारद	-11.4004
पच्छिम	-11.4004
▁वेरञ्	-11.4005
ूर	-11.4005
ुट्ठ	-11.4005
अनेक	-11.4006
▁अविस्सज	-11.4006
▁कथन्ति	-11.4006
▁तिचीवर	-11.4007
चुपादानक्खन्धा	-11.4009
▁सन्तिट्ठति	-11.4009
▁द्विक्खत्तुं	-11.4011
गणना	-11.4011
▁अरुणुग्गमन	-11.4012
▁वत्तु	-11.4013
दीपना	-11.4013
ूपमं	-11.4013
कविस्सट्ठिया	-11.4013
▁भयतो	-11.4014
▁अप्पत्वा	-11.4018
▁पाटिदेसनीय	-11.4018
लीनो	-11.4019
▁आमन्त	-11.402
▁गद्रभ	-11.4024
ागमो	-11.4025
निस्सरण	-11.4025
छक्	-11.4027
▁अनागतारम्मण	-11.4028
▁कङ्खं	-11.4032
बिन्दु	-11.4032
निभा	-11.4034
लिकं	-11.4034
च्छादन	-11.4037
▁वातेन	-11.4037
सासने	-11.4039
▁तुट्ठि	-11.4043
▁धारेन्त	-11.4043
ब्याधि	-11.4045
चवोकारं	-11.4046
▁अधम्मकम्म	-11.4047
धज	-11.405
िये	-11.405
▁लोमा	-11.4052
रित्वा	-11.4052
▁रम्मं	-11.4052
▁सब्बाव	-11.4052
▁सुखिता	-11.4055
त्तस्स	-11.4056
३०	-11.4057
▁सुदस्सन	-11.4059
▁तस्मातिह	-11.406
सारो	-11.406
परिवज्	-11.406
वस्ससहस्सानि	-11.406
▁अभूतं	-11.4061
सीले	-11.4064
▁भवन्तीति	-11.4064
ञोपि	-11.4065
मनुसास	-11.4067
▁अनासव	-11.4067
पञ्हा	-11.4068
▁नुत्थ	-11.4068
ादिअत्थ	-11.4068
▁भोजनानि	-11.4069
▁निमन्तितो	-11.4069
▁गोचरं	-11.407
▁कप्पेसि	-11.4072
▁पट्ट	-11.4074
चनीयुद्धारो	-11.4074
पिण्डपात	-11.4075
▁नेसाद	-11.4075
▁कुमारं	-11.4077
▁छिन्दति	-11.4078
▁निय्यात	-11.4078
कथन	-11.408
▁जानितुं	-11.408
▁द्वय	-11.4081
▁रूपारम्मणं	-11.4082
निक्खेप	-11.4082
▁निवेसन	-11.4082
नीया	-11.4084
▁सण्ठाति	-11.4084
गि	-11.4085
▁इत्थिपुरिस	-11.4085
▁रुप्पन	-11.4086
▁सम्मुखाविनयो	-11.4089
▁ञाणदस्सन	-11.4094
विरति	-11.4094
पत्ती	-11.4096
▁वच	-11.4096
अल	-11.4099
▁ओदनं	-11.4099
▁लद्धनाम	-11.4101
▁ब्राह्मणेन	-11.4101
▁बहुविध	-11.4102
▁परामाससम्पयुत्त	-11.4103
▁आघातो	-11.4106
▁यकार	-11.4108
▁वुत्तलक्खण	-11.4109
मनुयुत्तो	-11.4112
▁संवत्तती	-11.4116
चिदं	-11.4116
▁परिहार	-11.4117
▁सीहस्स	-11.4118
▁पापके	-11.4119
वेलाय	-11.4123
मक्	-11.4123
▁समासे	-11.4125
▁उपादारूप	-11.4126
▁सम्पटिच्छन	-11.4129
ूपगा	-11.413
▁विनयकम्म	-11.4131
▁मग्गङ्गं	-11.4131
▁पवारण	-11.4132
▁वेस्सन्तरो	-11.4133
▁अप्	-11.4133
▁उपवस	-11.4134
नियं	-11.4137
▁देवते	-11.4138
▁नअनासव	-11.414
▁समोधानपरिवास	-11.414
▁मुय्ह	-11.414
▁पापुणिंसूति	-11.4141
दल	-11.4141
▁वयप्पत्तो	-11.4142
इतिपि	-11.4143
▁कामावचरो	-11.4144
▁यमहं	-11.4146
▁सच्छिकरोति	-11.4147
नचित्ता	-11.4148
▁नन्दो	-11.4149
▁अरहतं	-11.4149
▁भायि	-11.4149
जिव्ह	-11.4149
▁ओभासो	-11.415
ानुभवन	-11.415
▁करोन्ते	-11.4153
सरा	-11.4156
विनिबन्ध	-11.4157
▁पतिरूपं	-11.416
▁भजन्ति	-11.416
पापुण	-11.4162
परा	-11.4163
ितुकामा	-11.4163
ामिस	-11.4164
मेतन्ति	-11.4164
▁पुब्बा	-11.4164
दस्सि	-11.4165
सङ्ख्य	-11.4165
▁सामणेरस्स	-11.4167
▁दीपेन्तो	-11.4167
▁ब्याकर	-11.4167
तुम्हाकं	-11.4168
▁असप्पाय	-11.4169
मण्डित	-11.417
▁लीन	-11.417
▁कद्दम	-11.4171
चागो	-11.4173
▁अकाले	-11.4173
पिण्डं	-11.4173
▁असोक	-11.4175
दब्ब	-11.4177
▁वुत्तसिक्खापद	-11.4179
सरूप	-11.4179
▁अजानन	-11.4179
द्दस	-11.4182
▁विनापि	-11.4182
▁कारयि	-11.4183
ादिभावेन	-11.4184
▁ओत्तप्पं	-11.4185
▁कोसलो	-11.4188
▁परिवारितो	-11.4188
▁उरग	-11.4189
जातस्स	-11.4192
त्तिंस	-11.4192
तादीहि	-11.4193
समुदय	-11.4193
आपत्ति	-11.4194
▁संविदह	-11.4198
लाभा	-11.4198
▁भागो	-11.4198
▁रता	-11.4202
▁कित	-11.4202
▁निब्बुत	-11.4202
▁यागुं	-11.4203
▁अहू	-11.4203
▁पाटिहारियं	-11.4205
▁सेतु	-11.4206
▁अभिभू	-11.4206
▁कामभोगी	-11.4206
▁कायसुचरित	-11.4207
▁अननुस्सुतेसु	-11.4208
िन्द्रियानि	-11.421
▁कतोति	-11.4211
▁मुहुत्तं	-11.4212
कवाट	-11.4214
ेय्यासी	-11.4216
▁निदस्स	-11.4217
▁बलेन	-11.4219
ञना	-11.422
▁पटिबलेन	-11.4221
दिना	-11.4221
▁गेहसित	-11.4221
▁सुजातो	-11.4222
▁करिस्सामा	-11.4222
ट्ठितो	-11.4222
▁गत्त	-11.4224
▁चित्तेकग्गता	-11.4226
▁सोतेन	-11.4226
▁पुच्छाय	-11.4229
नाह	-11.4231
महग्गत	-11.4233
यट्ठि	-11.4233
▁अक्खाता	-11.4237
▁पग्गहेत्वा	-11.4238
▁दातु	-11.4238
▁अधिगच्छ	-11.4238
▁अनुविच	-11.4242
स्सतीति	-11.4243
▁सुणन्तो	-11.4244
▁गामस्स	-11.4245
▁खये	-11.4245
ग्गहणेनेव	-11.4246
▁करिस्सन्ति	-11.4246
निट्ठानं	-11.4247
विसेसे	-11.4248
▁गाथासु	-11.4249
▁कायसंसग्ग	-11.425
▁तेवीसति	-11.4255
▁समाधिना	-11.4257
▁यम्हि	-11.4257
▁जेगुच्छ	-11.4259
मधि	-11.4259
▁जातरूप	-11.426
▁सकुणो	-11.4261
पिता	-11.4263
▁महाकस्सपो	-11.4265
मप्प	-11.4266
▁निब्बिदाय	-11.4266
रोगो	-11.4266
सीसं	-11.4267
धातुयो	-11.427
▁खेप	-11.4272
▁कुट्ठ	-11.4275
▁दुक्खविपाक	-11.4279
▁सब्बलोके	-11.4282
नविपाकधम्मधम्मं	-11.4283
▁विभूतं	-11.4284
न्तूति	-11.4285
▁सीलञ्	-11.4285
कन्तेन	-11.4286
▁दस्सामि	-11.4287
▁चक्खादि	-11.4289
धातुं	-11.4291
▁अज्झत्तबहिद्धा	-11.4293
▁वुत्तोयेव	-11.4293
▁पियरूपं	-11.4296
▁आनिसंसा	-11.4296
▁अतिसय	-11.4301
कोट्ठासे	-11.4301
▁वतायं	-11.4302
लट्ठि	-11.4303
▁अनियता	-11.4303
▁मूलाय	-11.4303
चिपि	-11.4303
▁अरुण	-11.4304
▁आवाट	-11.4305
▁अवस्स	-11.4306
यीति	-11.4308
▁उभोहि	-11.4309
िन्द्रियो	-11.4311
▁धम्मिको	-11.4311
निवत्त	-11.4311
जये	-11.4311
▁पासंसो	-11.4312
ञोजनिय	-11.4314
क्खन्धा	-11.4314
▁जनपदेसु	-11.4315
सम्भवा	-11.4316
▁फुट	-11.4316
यागु	-11.4319
▁दाठ	-11.4321
नीये	-11.4322
▁योगावचरो	-11.4322
▁वेहासं	-11.4323
▁सम्मादिट्ठिया	-11.4325
▁आचर	-11.4326
▁विहित	-11.4327
▁यादिसा	-11.4329
▁अजिन	-11.433
चसहगतं	-11.433
कुलपुत्त	-11.433
भं	-11.4331
▁एकाबद्ध	-11.4332
▁कोधं	-11.4333
▁निय्याति	-11.4336
प्पयोजन	-11.4336
▁विहारा	-11.4339
दिट्ठिया	-11.4339
ञाणट्ठिति	-11.4339
▁आभत	-11.4341
▁चित्तसहभु	-11.4341
नानत्तं	-11.4341
चवेक्खमानो	-11.4341
▁आणापेसि	-11.4342
▁ब्राह्मणी	-11.4344
▁दोण	-11.4345
▁भवाभव	-11.4345
▁अरियाय	-11.4347
▁गगन	-11.4348
▁सन्थर	-11.435
किलमथ	-11.435
लोकिय	-11.435
▁अज्झोहर	-11.435
▁निसीदितुं	-11.4351
हानि	-11.4352
जीविक	-11.4355
▁पराजयो	-11.4355
▁पसारे	-11.4357
दसक	-11.4359
▁गु	-11.4359
▁पच्छिमस्स	-11.436
ावि	-11.4364
▁रजनीया	-11.4364
▁एसना	-11.4365
▁चित्ता	-11.4365
▁मारिसा	-11.4367
▁जानता	-11.4369
रम	-11.437
▁अग्गफल	-11.437
▁मरियाद	-11.4371
▁जानाती	-11.4371
▁विक्खम्भित	-11.4373
▁गवं	-11.4374
▁निद्दाय	-11.4374
▁मनोसम्फस्स	-11.4375
▁पठममेव	-11.4379
▁रुह	-11.4379
लिङ्गे	-11.438
▁आसीस	-11.438
योपि	-11.4382
▁मुहुत्त	-11.4384
▁अमोह	-11.4385
▁समुग्घात	-11.4386
पठमं	-11.4386
न्तन्ति	-11.4388
पेता	-11.439
दोमनस्सुपायासा	-11.439
▁पणिधि	-11.4394
▁लोकधातु	-11.4396
▁अगारवो	-11.4398
ारो	-11.4399
५०	-11.4399
हतो	-11.44
▁पसंसन्ति	-11.44
विरहितं	-11.44
दिवसं	-11.4402
धूम	-11.4402
▁आरा	-11.4402
▁भूतानि	-11.4402
कुतो	-11.4404
▁खायति	-11.4404
पुग्गलं	-11.4406
▁उण्ण	-11.4407
▁अपचयगामी	-11.4407
▁तदहुपोसथे	-11.4407
▁अलभन्तो	-11.4407
▁पोथ	-11.4408
▁पटिविरता	-11.4408
▁पितामह	-11.4408
▁ठपन	-11.4409
▁समोधान	-11.441
▁नसहजाते	-11.4411
▁धुत्त	-11.4411
▁रूपायतन	-11.4412
▁वुत्तमत्थं	-11.4412
▁चम्मं	-11.4415
मानानं	-11.4415
ोकासं	-11.4415
▁परिक्खयं	-11.4415
रुक्खे	-11.4415
कादीनं	-11.4415
कोविदो	-11.4416
▁मन्ति	-11.4417
▁करिंसु	-11.4417
▁सण्ठान	-11.4419
▁एकदिवस	-11.4419
▁वत्तब्बतं	-11.442
▁परिक्खीण	-11.442
विभावना	-11.4421
▁वेसा	-11.4421
▁अधिगतं	-11.4421
▁मापेत्वा	-11.4423
म्हे	-11.4424
त्थरण	-11.4424
पारिपूरि	-11.4425
जाते	-11.4425
▁समाधियति	-11.4426
▁मारं	-11.4427
▁अविक्खेप	-11.4427
परायणो	-11.4428
▁गती	-11.4428
▁चतुत्थस्स	-11.443
▁नहान	-11.443
अय्य	-11.4434
▁तादिसा	-11.4437
सूकर	-11.4438
बाहिर	-11.4438
▁संहर	-11.4438
▁उच्छेददिट्ठि	-11.4439
ादिनो	-11.4439
▁सदेवकस्स	-11.4439
▁रत्तियो	-11.4441
▁संवण्ण	-11.4442
िसु	-11.4445
▁अकप्पियं	-11.4447
▁अनुमोदनं	-11.4447
▁उपमं	-11.4447
▁एकधम्म	-11.4448
वीति	-11.4448
▁धारेतु	-11.4448
▁वन्दि	-11.4449
▁लसुण	-11.4451
सेचन	-11.4456
नामकं	-11.4456
दायिका	-11.4457
▁ब्रूह	-11.4457
आकास	-11.446
▁वस्सूपनायिक	-11.4462
▁तुस्स	-11.4463
मुत्तम	-11.4463
▁आदीनवा	-11.4463
▁पण्डितेहि	-11.4465
▁पुब्बन्त	-11.4466
▁पस्सामी	-11.4468
दूस	-11.447
▁निब्बत्तन्ति	-11.4471
▁कथय	-11.4471
गण्ड	-11.4472
ामाति	-11.4472
▁सकलसरीर	-11.4474
▁फलक	-11.4475
▁अविप्पटिसार	-11.4475
▁मनसिकरोन्तो	-11.4476
▁अलभित्वा	-11.4476
▁अजानन्ता	-11.4476
▁परिहरति	-11.4476
▁अदंसु	-11.4476
▁परिपूरेन्ति	-11.4476
▁चित्तस्सेकग्गता	-11.4476
▁देसनापरियोसाने	-11.4477
▁युगनद्ध	-11.4478
ञापय	-11.4479
समापत्तिया	-11.4479
▁खणो	-11.448
▁मनुस्सभूतो	-11.4482
▁रुचिया	-11.4486
▁विसुद्धिया	-11.4488
विपाकं	-11.4489
गतेन	-11.4493
▁विनासं	-11.4494
▁विब्भन्त	-11.4494
▁भारं	-11.4495
भूतानि	-11.4499
खिप्प	-11.45
▁दण्डि	-11.45
कमितुं	-11.4502
▁मुत	-11.4502
▁परिपाक	-11.4504
▁महावुत्ति	-11.4504
विसेसा	-11.4504
▁पत्तब्ब	-11.4504
▁अपरिक्खित्त	-11.4506
एतदग्गं	-11.4507
▁अभिभूतो	-11.4508
लोपे	-11.4509
▁सभिक्खुका	-11.451
कण्ह	-11.4511
▁सुखो	-11.4511
▁थन	-11.4512
▁भणे	-11.4512
गामिनो	-11.4513
अति	-11.4514
गणन	-11.4515
चादीनि	-11.4515
▁गेध	-11.4516
▁दत्त	-11.4516
▁पसादं	-11.4517
▁विप	-11.4519
ताळ	-11.4519
▁एकरस	-11.4522
निक्खित्त	-11.4525
▁विचिकिच्छासहगतं	-11.4527
▁साधन	-11.4527
वेकल्	-11.4528
▁सच्छिकिरियाय	-11.4528
ववत्थान	-11.4528
▁अट्ठारसहि	-11.4528
▁वक्खाम	-11.4531
▁जानि	-11.4532
▁अग्गसावक	-11.4534
▁आयतनेहि	-11.4535
▁कायिन्द्रियं	-11.4536
▁तिस्सन्	-11.4538
ुन्ति	-11.4539
सेनासनं	-11.4542
▁सब्बकाम	-11.4543
▁उपनिधाय	-11.4544
▁निरनुसया	-11.4544
▁मिथिल	-11.4544
▁भेरव	-11.4544
▁आहिण्ड	-11.4544
▁कानिचि	-11.4545
▁सारिपुत्तमोग्गल	-11.4545
बधिर	-11.4546
▁अय्यो	-11.4546
▁सारिपुत्तं	-11.4547
व्हे	-11.4547
▁सुनक्खत्त	-11.4548
▁विजाय	-11.4548
ादिपच्	-11.4549
ुपोसथ	-11.455
▁एथ	-11.4554
दुक्खा	-11.4559
निस्सये	-11.4559
कोव	-11.456
▁अलत्थ	-11.4561
▁पिटकत्तय	-11.4561
तुमिच्छ	-11.4562
▁परिवेणं	-11.4562
▁विदितं	-11.4562
▁लहुं	-11.4564
▁सुखिनो	-11.4565
वेदनं	-11.4569
▁दोसेन	-11.457
▁अनादर	-11.457
▁द्वावीसति	-11.457
▁दीपय	-11.457
▁वत्तब्बन्ति	-11.4571
▁सकदागामिमग्ग	-11.4571
नक्खत्त	-11.4574
▁नाव	-11.4575
चतूहि	-11.4577
▁उट्ठा	-11.4579
पक्खन्द	-11.458
चेतसो	-11.458
ाभिधान	-11.4581
प्फ	-11.4581
▁कपिल	-11.4583
▁सद्धम्मस्स	-11.4583
▁खीय	-11.4583
सिख	-11.4583
▁सब्बानिपि	-11.4584
▁पण्णास	-11.4584
▁पापा	-11.4585
▁सिस्सा	-11.4586
ेको	-11.4587
पिण्डि	-11.4588
▁अभिसङ्खत	-11.4588
▁एळक	-11.4589
▁समनुपस्स	-11.4591
▁अक्खात	-11.4592
▁महि	-11.4594
▁मनुस्सेहि	-11.4594
▁कामच्छन्द	-11.4595
▁अन्तरधाय	-11.4595
▁पुण्डरीक	-11.4597
▁पापिम	-11.4598
▁पारमी	-11.4599
२२	-11.46
▁अनुमान	-11.4601
▁कुसलेहि	-11.4601
▁दव	-11.4602
▁ठपेन्त	-11.4603
▁नोनत्थि	-11.4605
▁रस्सत्तं	-11.4605
▁इद्धिपादं	-11.4606
चयाकार	-11.4607
▁सुखदुक्खं	-11.4608
मण्डप	-11.4608
विज्झ	-11.4609
विरहिता	-11.4609
▁परमत्थो	-11.4612
▁अग्गसाविका	-11.4613
▁मागण्डिय	-11.4613
▁भुम्मत्थे	-11.4615
तार	-11.4616
▁जहन्ति	-11.4616
ियत्थेरअपदान	-11.4618
▁निब्बानधातुया	-11.4619
▁महापुरिस	-11.462
▁अप्पमादो	-11.462
सेख	-11.4621
▁महग्गता	-11.4621
अनन्तर	-11.4622
▁पटिलभ	-11.4627
माप	-11.4627
▁अप्पोस्सुक	-11.4627
▁दमिळ	-11.4628
▁परिपुण्णो	-11.463
ादीनिपि	-11.4631
ुद्द	-11.4632
▁पटिसन्थार	-11.4634
▁भवेय्युं	-11.4634
▁अम्भो	-11.4635
पब्ब	-11.4636
▁निवत्तित्वा	-11.4636
परेत	-11.4638
▁सागरो	-11.4639
कम्मानि	-11.464
▁नरक	-11.464
▁धम्मपटिसम्भिदा	-11.464
▁आधि	-11.4642
▁पजापति	-11.4647
▁दूतं	-11.4647
भगवतो	-11.4647
धोवन	-11.465
▁अरियवंस	-11.465
पटल	-11.465
ानुप	-11.4652
पक्खो	-11.4653
पेतवत्थु	-11.4654
पच्छा	-11.4654
जातिया	-11.4654
▁अनागामिस्स	-11.4658
▁अज्झा	-11.466
▁अट्ठङ्गुल	-11.4661
▁नप्पटि	-11.4661
▁पस्सितुं	-11.4663
तापन	-11.4664
▁एकदेसेन	-11.4664
▁दिट्ठधम्मसुख	-11.4665
▁मुग्ग	-11.4666
▁पीतिं	-11.4667
▁ठितोति	-11.4668
▁पजहथ	-11.4668
कुच्छि	-11.4669
▁अप्पमाणा	-11.467
ापत्तिं	-11.467
खार	-11.4671
▁मुट्ठस्सति	-11.4672
नुपुब्ब	-11.4673
दिसाय	-11.4674
▁साधूति	-11.4674
पणिहित	-11.4675
▁तळाक	-11.4675
▁अधिट्ठह	-11.4676
▁समुदाचरन्ति	-11.4678
गच्छन्ति	-11.468
▁वुत्तेन	-11.468
▁भे	-11.468
दण्डो	-11.468
▁अत्थतकथिन	-11.4682
▁गारय्हो	-11.4683
सालाय	-11.4683
▁गिर	-11.4684
▁आरोप	-11.4685
▁अभित्थव	-11.4685
▁आणत्त	-11.4686
वितान	-11.4686
▁पिसाच	-11.4686
▁दिट्ठिगतविप	-11.4687
▁पसीदित्वा	-11.4687
▁आरामिक	-11.4689
▁मेसो	-11.469
ट्ठीनि	-11.469
▁अधम्मं	-11.469
▁संयुत्त	-11.4691
चहाकारेहि	-11.4691
▁अहिरिक	-11.4693
मस	-11.4694
गाळ्ह	-11.4695
▁अभिसेक	-11.4695
▁दानानि	-11.4695
▁गामा	-11.4696
▁महेसी	-11.4696
▁निस्सार	-11.4698
▁निद्दिट्ठं	-11.4698
▁असन्तं	-11.4698
सम्मतं	-11.4699
▁अमू	-11.47
सङ्ख्या	-11.4701
मनसिकारो	-11.4702
धम	-11.4703
▁वित्थत	-11.4703
ून	-11.4703
त्तन्ति	-11.4707
▁समेन	-11.4708
▁सुता	-11.471
▁छदन	-11.4711
▁फलेन	-11.4712
कमन्तो	-11.4712
▁मयूर	-11.4713
▁अब्याकतमूल	-11.4714
क्खेत्त	-11.4714
▁विराज	-11.4715
▁आकङ्खति	-11.4717
▁असेक्खो	-11.4717
भिक्खवो	-11.4718
▁सन्तीति	-11.4718
▁परिसुद्धो	-11.472
▁सम्बन्धितब्बं	-11.472
▁पमत्त	-11.472
▁गरुभण्डं	-11.4721
गतन्ति	-11.4724
▁आसवेहि	-11.4727
▁हदयवत्थु	-11.4727
ुपाय	-11.4729
ब्यसन	-11.473
चिकट्ठो	-11.473
▁थूपं	-11.4733
▁गन्थसम्पयुत्त	-11.4734
▁एवरूप	-11.4734
ुपट्ठान	-11.4735
▁ब्रह्मचारी	-11.4735
▁कुसलविपाक	-11.4736
तच्छ	-11.4738
उतु	-11.4743
▁अगा	-11.4743
चेतियं	-11.4746
▁पुच्छित	-11.4748
▁परिस्सया	-11.4749
▁परिणत	-11.475
▁कुण्डल	-11.4751
▁वूपसम्मति	-11.4752
▁उम्मत्तिकाय	-11.4753
▁सिखी	-11.4753
विकति	-11.4753
▁हन्दाहं	-11.4753
ञातावी	-11.4754
▁मच्छो	-11.4754
रणं	-11.4755
▁समन्त	-11.4756
▁अब्भुतो	-11.4756
▁रागेन	-11.4757
▁पटिबलो	-11.4758
रूपी	-11.4759
▁वक्ख	-11.4761
▁जेट्ठो	-11.4763
▁ब्यापार	-11.4765
▁रूपारम्मण	-11.4765
▁सघानकान	-11.4766
▁अपाकट	-11.4767
विगत	-11.4767
▁निपको	-11.4768
▁उपायो	-11.4768
▁पूरित	-11.4768
▁समनुभासन	-11.4771
▁पापस्स	-11.4772
वण्णनायं	-11.4772
भाणी	-11.4772
▁तप्पटिपक्ख	-11.4772
▁पापे	-11.4775
पुरेक्खार	-11.4777
क्रिय	-11.4777
▁सुकरं	-11.4777
प्पदेस	-11.4779
▁नाळिकेर	-11.4779
▁वेला	-11.4779
विकल	-11.4781
▁भागं	-11.4781
पाटिहारिय	-11.4784
कन्ताय	-11.4784
नन्दी	-11.4784
▁राहु	-11.4785
पेत्थ	-11.4785
य्या	-11.4786
▁सभावेन	-11.4789
▁सहायो	-11.4789
▁वत्थूहि	-11.479
तेजो	-11.479
▁समूहो	-11.4792
▁कतपु	-11.4792
▁गहेतब्बानि	-11.4792
▁अनत्तमनो	-11.4793
न्तरेन	-11.4794
▁२४८	-11.4794
▁सिम्हि	-11.4795
वारि	-11.4796
▁यावदत्थं	-11.48
▁गण्हातीति	-11.4801
चाभि	-11.4802
▁अनारम्मण	-11.4803
▁धोवन	-11.4803
▁दसाह	-11.4805
▁नामरूपस्स	-11.4806
रूपानं	-11.4807
▁पिह	-11.4807
▁वन्दन	-11.4809
▁चन्दिमसूरिया	-11.4811
▁धि	-11.4811
▁खेत्ते	-11.4811
▁पापानि	-11.4812
▁वदन्तीति	-11.4812
▁झानेन	-11.4814
▁उपनीत	-11.4817
हेतूति	-11.4819
▁जातोति	-11.4819
▁मातापितु	-11.4819
लाबु	-11.482
रोहि	-11.4822
ञागार	-11.4822
लीनं	-11.4822
भूसित	-11.4823
▁२४४	-11.4823
▁सेसपदेसुपि	-11.4823
बहुवचन	-11.4823
▁ञापेतब्बो	-11.4823
▁करोसि	-11.4825
कनिपाते	-11.4825
▁विवेकनिस्सितं	-11.4825
▁सेसानं	-11.4828
▁समुट्ठापेति	-11.4829
▁भिक्खाचार	-11.4829
विवाद	-11.4832
पयोगो	-11.4833
▁सता	-11.4834
▁अकिरिय	-11.4835
▁जहतीति	-11.4835
▁पत्थेति	-11.4835
सीत	-11.4836
मदासि	-11.4838
▁आयतनानं	-11.4838
▁कप्पती	-11.4839
▁सम्मता	-11.484
▁पण्डर	-11.484
▁एकादसमं	-11.4841
▁अनापत्ती	-11.4841
▁थोक	-11.4842
▁दण्डो	-11.4842
विपाको	-11.4842
▁पतिट्ठासि	-11.4843
प्पकारं	-11.4844
युतं	-11.4844
▁की	-11.4845
▁दुम्मनो	-11.4845
▁दसम	-11.4846
▁हता	-11.4847
इट्ठ	-11.4849
▁विनयधर	-11.485
विभाव	-11.4851
▁अजानन्त	-11.4852
▁अग	-11.4853
▁ओसार	-11.4854
▁अवधि	-11.4855
ुत्त	-11.4855
ातिआदिमाह	-11.4855
▁पुरक्खतो	-11.4856
▁एकग्गता	-11.4858
▁ठानन्ति	-11.4858
सम्बन्धो	-11.4858
▁पाटिहारिय	-11.4858
चूळ	-11.4859
संयुत्ते	-11.4861
पसन्	-11.4864
▁निद्दिसितब्ब	-11.4864
▁पवत्तमान	-11.4864
न्तू	-11.4866
चक्खू	-11.4866
▁कुद्धो	-11.4866
त्थमेव	-11.4868
्वा	-11.4868
अनुप	-11.4869
समायोग	-11.4875
▁अधिप्पायं	-11.4876
▁निरनुसयोति	-11.4879
▁पसिद्ध	-11.488
कमतो	-11.4881
▁बहुक	-11.4881
▁वस्ससहस्सानि	-11.4882
चन्ध	-11.4883
▁तत्तकं	-11.4884
त्यत्थो	-11.4884
▁अत्थङ्गत	-11.4885
▁वेलायं	-11.4886
िन्दो	-11.4887
▁एदिसो	-11.4887
▁देवताहि	-11.4887
सेना	-11.4889
▁अनेकसत	-11.4891
▁तेमासं	-11.4891
मस्साति	-11.4892
सम्पत्ती	-11.4892
▁अकारण	-11.4893
▁सम्पस्समानो	-11.4894
▁नीवरणविप्पयुत्त	-11.4895
▁अवसाने	-11.4895
▁उपपत्तिक्खणे	-11.4896
▁धारेतीति	-11.4896
▁पाकटमेव	-11.4897
▁उम्माद	-11.4897
▁पजानातीति	-11.4897
▁पटिच्छादेत्वा	-11.4899
▁वसन्त	-11.4899
▁वीरो	-11.49
कसुत्तं	-11.49
चयभाव	-11.4902
ानिसंसा	-11.4902
प्यत्र	-11.4903
▁पसंसा	-11.4904
▁पथवीकसिणं	-11.4904
▁२६५	-11.4906
▁यापेति	-11.4907
▁सोवण्ण	-11.4912
▁महत्त	-11.4913
▁पापुणित्वा	-11.4913
▁पस्सता	-11.4915
▁नरासभो	-11.4915
▁घंस	-11.4918
कामेति	-11.4918
▁अनिदस्सनो	-11.4923
▁एकपद	-11.4923
▁विस्सुतो	-11.4923
ाभिमुखो	-11.4923
▁गोतमी	-11.4924
▁२६३	-11.4926
तीरे	-11.4926
करस्स	-11.493
▁पादकज्झान	-11.4931
▁पाणिना	-11.4931
ियोति	-11.4933
कुट्ट	-11.4933
परिवुत	-11.4933
करणा	-11.4936
हरित	-11.4936
▁महाकरुणा	-11.4938
▁पटिग्गाहक	-11.4941
▁ठपेन्तो	-11.4942
▁मते	-11.4943
▁बहुतरं	-11.4944
▁सुखसहगता	-11.4945
नकालो	-11.4947
चक्खं	-11.4949
भावदस्सन	-11.4951
चरियाय	-11.4952
पस्से	-11.4955
ुञ्	-11.4957
▁येभुय्य	-11.4958
▁मेघिय	-11.4958
सम्पत्त	-11.4958
गमे	-11.4959
जितु	-11.4959
चेवमादी	-11.496
▁कटुक	-11.4961
▁आदीसु	-11.4961
चसहगता	-11.4962
▁कवि	-11.4962
अच्	-11.4963
मण्ड	-11.4963
▁अङ्गुल	-11.4963
▁चातुमहाराजिक	-11.4964
▁तस्सेवं	-11.4964
ञाभिसन्द	-11.4965
▁चेतनापणिधीहि	-11.4965
▁नेसोहमस्मि	-11.4965
▁नागराज	-11.4965
▁दुक्खस्सन्तकरो	-11.4966
वाता	-11.4966
▁देसेय्य	-11.4967
▁पतिट्ठापेत्वा	-11.4967
▁अहञ्हि	-11.4968
मनोवि	-11.4969
प्पहानेन	-11.4969
सयं	-11.4971
▁परियुट्ठान	-11.4971
ञाबलं	-11.4972
▁सदेवमनुस्साय	-11.4973
सास	-11.4975
चबन्धुना	-11.4975
पत्थना	-11.4976
सिखा	-11.4976
ादीनीति	-11.4977
ञभागिय	-11.4978
▁मातुया	-11.4978
▁सन्थरित्वा	-11.4978
▁सभिक्खुको	-11.4979
सङ्खातेहि	-11.498
लाभिनो	-11.4981
नासन	-11.4982
▁सन्दिट्ठिकं	-11.4986
कटा	-11.4986
▁सन्धायेत	-11.4991
वचनन्ति	-11.4992
▁पातुभवति	-11.4994
▁पकारेहि	-11.4994
▁वुत्तप्पकारेन	-11.4994
▁अरक्खित	-11.4996
ियत्थेरस्स	-11.4996
▁आयुसङ्खार	-11.4997
विरोध	-11.4997
▁अस्सुतवा	-11.4998
गन्त्वा	-11.4999
▁ब्रहा	-11.5003
पुब्बङ्गम	-11.5004
▁सुमना	-11.5004
▁सीलादिगुण	-11.5004
▁सद्देन	-11.5004
▁विजम्भ	-11.5004
धिप्पेत	-11.5005
समाधी	-11.5006
▁नन्दिय	-11.5006
य्यो	-11.5007
▁करोम	-11.5009
▁झायति	-11.501
२३	-11.5011
ादीसूति	-11.5011
▁अपरिक्	-11.5012
▁पस्सद्ध	-11.5013
क्खन्धं	-11.5014
▁महायस	-11.5014
सङ्खारा	-11.5014
वता	-11.5015
▁पीठं	-11.5016
▁निच्छय	-11.5017
▁कास	-11.502
▁नानत्तस	-11.5025
▁नीवरणे	-11.5025
वचना	-11.5026
अज्झत्त	-11.5028
▁उत्तरो	-11.5029
▁दुप्प	-11.5031
▁महाथेरो	-11.5031
▁२४६	-11.5032
म्हसे	-11.5032
▁परिग्गण्ह	-11.5033
▁सङ्गण्ह	-11.5034
▁साधू	-11.5037
▁गाथाद्वयमाह	-11.5037
▁तिवेदनन्ति	-11.5037
▁लिच्छवी	-11.5037
भूतत्ता	-11.5038
▁कतिपय	-11.5038
घरे	-11.5039
▁नोचित्तसंसट्ठ	-11.5041
▁ब्रू	-11.5041
जासवो	-11.5041
▁उच्छिज्	-11.5042
▁मातिकं	-11.5043
▁विवेकजं	-11.5044
▁वचसा	-11.5044
▁ताळ	-11.5044
▁गण्ठि	-11.5044
▁२४५	-11.5044
▁अनोत्तप्प	-11.5045
▁वाचसिक	-11.5045
ञीना	-11.5045
▁सात्थिका	-11.5046
▁अट्ठविध	-11.5047
▁कपिलवत्थु	-11.5047
▁इच्छामि	-11.5047
▁मच्छेर	-11.5048
चाय	-11.505
▁गवेसन्तो	-11.505
▁अनुपस्सति	-11.505
▁ठानसो	-11.5051
▁मुदित	-11.5051
पूजं	-11.5051
▁अभिवादन	-11.5052
दस्सने	-11.5053
▁ब्याकरण	-11.5054
▁पविसन्ति	-11.5055
ादिगुण	-11.5056
▁महब्बला	-11.5056
▁सुखावह	-11.5057
▁सातिसय	-11.5058
▁फरुसा	-11.5058
यिस्सामि	-11.5059
▁ब्याकरो	-11.5059
▁सप्पटिघं	-11.5063
सुखेन	-11.5063
▁गिम्ह	-11.5064
यन्त	-11.5064
सदिसानि	-11.5064
उपनिस्सय	-11.5068
फरुस	-11.507
बिम्ब	-11.5071
▁पकासेति	-11.5071
▁अङ्कुर	-11.5072
▁दहरा	-11.5073
सुतं	-11.5074
▁तेनावुसो	-11.5075
▁तायं	-11.5076
मानसं	-11.5077
▁आयूहन	-11.5077
वेपुल	-11.5077
जेट्ठ	-11.5081
वाचाय	-11.5082
सोळस	-11.5082
▁२५६	-11.5082
नियामेन	-11.5083
युगं	-11.5083
▁परित्तारम्मणं	-11.5084
▁सत्थार	-11.5084
वतिया	-11.5085
▁नेक्खम्मं	-11.5088
क्खणेयेव	-11.5089
इम	-11.5089
▁कुतोचि	-11.509
▁सिवि	-11.5091
▁चतुरङ्ग	-11.5092
अम्भो	-11.5094
इमानि	-11.5095
रितो	-11.5097
पाट	-11.5098
▁गमिस्सामी	-11.5101
कथिन	-11.5104
▁गणभोजन	-11.5106
गोचरं	-11.5107
▁सुवण्णं	-11.5107
ञकिरियवत्थु	-11.5109
दीपनत्थं	-11.511
▁कथिने	-11.511
▁पटिवि	-11.511
▁सातरूपं	-11.5112
▁भद्दन्ते	-11.5113
▁विसत्तिका	-11.5113
▁परियोदात	-11.5113
▁विसेसाधिगम	-11.5114
कुण	-11.5114
▁निक्खेप	-11.5116
▁पमुञ्	-11.5117
▁चाप	-11.5118
ब्बं	-11.5118
▁अपरिमाणा	-11.5118
दिट्ठी	-11.5119
▁वीमंसा	-11.512
▁अनिदस्सनं	-11.512
सेल	-11.5121
नपञ्	-11.5125
▁दिज	-11.5128
सया	-11.5129
▁धारेतब्ब	-11.5129
समणब्राह्मण	-11.5129
▁नइन्द्रिय	-11.5132
▁मेद	-11.5132
▁सुविभत्त	-11.5133
ातिआदि	-11.5134
▁तयोपि	-11.5134
वारं	-11.5135
▁कोधनो	-11.5135
सुखदुक्ख	-11.5138
बद्धा	-11.5139
ाभिसङ्खार	-11.514
▁अदु	-11.514
▁तहं	-11.514
ानुकम्प	-11.5141
▁चिण्ण	-11.5142
गुणेन	-11.5143
निब्बेध	-11.5146
▁विजित	-11.5146
▁दुम्मेध	-11.5147
ादिभेदे	-11.5148
▁पलि	-11.5149
त्थानं	-11.5149
▁फोट्ठब्बे	-11.5149
▁ओतरति	-11.515
▁देवेहि	-11.515
▁अविपाक	-11.515
▁पतन्ति	-11.5151
इच्छ	-11.5151
▁वयं	-11.5153
ानमेतं	-11.5153
कुणप	-11.5156
▁संसट्ठ	-11.5159
आराम	-11.5159
ट्ठानन्ति	-11.516
▁तावता	-11.516
भूतपुब्बं	-11.516
▁सारम्मणो	-11.5161
▁निच्छ	-11.5162
सुण	-11.5163
▁२६४	-11.5165
दुक्खस्स	-11.5167
▁दण्डक	-11.5168
ेस्सती	-11.517
▁मानुसक	-11.5174
▁ओसारण	-11.5176
परिभोगो	-11.518
▁पवरो	-11.518
▁रथो	-11.5181
परिग्गहो	-11.5181
नन्त	-11.5181
▁बन्धति	-11.5182
▁अग्गमक्खायति	-11.5182
▁पस्ससिस्सामी	-11.5183
▁पब्ब	-11.5183
▁अनावासो	-11.5184
धारा	-11.5184
▁थी	-11.5184
रद्ध	-11.5185
▁समोधानेत्वा	-11.5186
▁अकारन्त	-11.5186
▁कनक	-11.5188
▁वुत्तानं	-11.5189
▁दीपङ्कर	-11.519
धूप	-11.519
परिक्ख	-11.5191
किण्णं	-11.5191
ाभिमुखं	-11.5192
▁संखित्त	-11.5192
▁मद्दित्वा	-11.5194
निस्सग्ग	-11.5194
▁समन्तचक्खु	-11.5194
हता	-11.5195
▁गुहा	-11.5196
▁ववत्थित	-11.5196
चिमानि	-11.5197
▁मातर	-11.52
▁अनुसन्धिं	-11.5201
▁हत्था	-11.5202
▁कामगुणेसु	-11.5203
▁पवारेतब्बं	-11.5205
▁अचरि	-11.5207
▁दारको	-11.5207
ाहीति	-11.5208
तिस्सत्थेरो	-11.5208
▁सिज्झति	-11.5208
▁वट्टदुक्ख	-11.5208
▁विहिंस	-11.521
▁इच्छाय	-11.5211
▁भाज	-11.5211
▁वोट्ठब्बन	-11.5211
जमानेसु	-11.5212
सावको	-11.5212
▁अरियमग्गेन	-11.5212
▁दुब्भासित	-11.5212
▁सचित्तकं	-11.5213
▁पनेते	-11.5214
करुणा	-11.5216
अन्तर	-11.5216
▁कम्मवाचा	-11.5218
▁अलीन	-11.5219
▁तिट्ठतु	-11.5219
▁दसमो	-11.522
गत्त	-11.522
जनन्ति	-11.5222
▁आरोपित	-11.5224
▁नभ	-11.5224
▁अरहत्ता	-11.5224
विहित	-11.5226
भिक्खवे	-11.5226
पीठं	-11.5227
▁एकादसहि	-11.5228
अना	-11.5228
समुदाचार	-11.5228
कायेन	-11.5229
मिद	-11.5231
▁भावितं	-11.5231
▁असम्भवतो	-11.5232
पिट्ठे	-11.5232
▁बहूसु	-11.5233
▁पभिन्	-11.5233
▁तचो	-11.5234
▁आळवक	-11.5234
▁कमल	-11.5236
चरो	-11.5237
पितु	-11.5237
सेय्यं	-11.5238
▁भगवन्तो	-11.5238
ाभिभू	-11.5238
▁मारण	-11.5239
▁पटिच्छ	-11.5241
▁दीपि	-11.5243
▁२५८	-11.5243
▁एतदग्गे	-11.5246
सस्सतो	-11.5247
▁कतमेसं	-11.5249
▁उपसंहरति	-11.525
▁ताण	-11.5253
गुळ	-11.5254
▁ब्यापन	-11.5254
▁विकालभोजन	-11.5256
▁धतरट्ठ	-11.5256
▁अरियमग्गं	-11.5257
ञदत्थु	-11.5257
▁कायसङ्खार	-11.5257
▁निद्धारेत्वा	-11.5257
चन्तीति	-11.5257
▁परिपूरकारी	-11.5257
▁बुद्धानुस्सति	-11.5258
▁अभासथ	-11.5259
पक्खिका	-11.5259
▁समानसंवासक	-11.5259
▁भयेन	-11.5259
▁आगमिस्सति	-11.526
▁परिवारे	-11.5261
रुक्खा	-11.5262
▁चवति	-11.5262
▁कायसम्फस्स	-11.5263
▁सुपिनं	-11.5263
▁पुरिमानि	-11.5263
समूहो	-11.5264
▁२६७	-11.5264
▁रत्तिन्दिव	-11.5265
▁एकत्तं	-11.5266
दायकं	-11.5266
▁नियमेत्वा	-11.5266
▁केनचिदेव	-11.5268
▁बाह	-11.527
▁दसधा	-11.5273
ञाचक्खु	-11.5275
▁पुथ	-11.5275
▁पहिण	-11.5276
▁तथाविध	-11.5277
गोचरे	-11.5278
लेखा	-11.528
हत्थं	-11.5281
▁परिवास	-11.5282
▁२६९	-11.5283
पायास	-11.5284
पविट्ठ	-11.5284
ीयित्थाति	-11.5287
▁रुहति	-11.5287
▁सब्बस्मिं	-11.5287
▁परिभव	-11.5288
सङ्खा	-11.5288
▁फरति	-11.5288
▁२८०	-11.5289
▁उदपादीति	-11.5289
▁विभत्तं	-11.529
▁रट्ठा	-11.5294
▁पारमिं	-11.5294
▁कप्पास	-11.5295
▁अभिनिवेसो	-11.5295
निब्बत्तक	-11.5296
▁धम्मिका	-11.5298
▁आद	-11.5298
अड्	-11.5298
उपासक	-11.5299
▁बन्धने	-11.53
फलानि	-11.5302
अम्ब	-11.5304
▁२४७	-11.5306
▁वदन्तस्स	-11.5306
▁सारम्भं	-11.5307
परियन्तं	-11.5307
सस्सत	-11.5309
▁याथाव	-11.5309
▁दक	-11.531
▁अप्पक	-11.531
भेरि	-11.531
मागतं	-11.5311
▁उत्त	-11.5311
▁अग्गट्ठान	-11.5311
ोकासो	-11.5312
▁अधिचित्त	-11.5312
त्थी	-11.5312
अन्त	-11.5313
निरय	-11.5313
▁वुत्तेहि	-11.5315
मारब्भ	-11.5316
ेन्तं	-11.5316
▁एकाव	-11.5319
कुटिक	-11.532
▁अवेक्ख	-11.5322
▁ओवादो	-11.5322
निप्फन्	-11.5322
विसारद	-11.5322
▁निस्सट्ठ	-11.5323
दाह	-11.5324
▁२६६	-11.5324
▁कामभवे	-11.5326
▁वरे	-11.5326
▁पुट्ठ	-11.5326
▁आदिकम्मिक	-11.5328
▁निब्बापे	-11.5329
▁अप्पियो	-11.533
▁ततुत्तरि	-11.533
लासा	-11.533
▁नानुसेतीति	-11.533
▁महब्भय	-11.533
▁सम्मुखीभाव	-11.533
▁निसा	-11.5331
▁सणिकं	-11.5331
▁मङ्कु	-11.5333
▁मेघो	-11.5335
दस्सावि	-11.5337
▁अधिट्ठाति	-11.5338
▁मद्दी	-11.534
▁सुकतं	-11.534
जहं	-11.5341
रोपन	-11.5343
▁छात	-11.5343
▁कोट्ठ	-11.5345
▁सन्तोस	-11.5346
दूत	-11.5346
▁सविचारं	-11.5348
ादेसा	-11.5349
▁रूपेसु	-11.5355
धोत	-11.5355
जल्	-11.5355
▁आचिण्ण	-11.5357
ायुक	-11.5357
▁सभा	-11.5357
संसग्गो	-11.5362
▁विनट्ठ	-11.5364
▁नमे	-11.5364
▁नरं	-11.5365
▁रागादयो	-11.5365
▁२६२	-11.537
ुपेक्ख	-11.5371
▁पटिनिस्सग्ग	-11.5371
कहं	-11.5373
पब्भार	-11.5374
रणे	-11.5375
देवलोक	-11.5381
▁इदम	-11.5385
▁दण्डी	-11.5385
सङ्कास	-11.5385
निक्खम	-11.5385
▁उपचित	-11.5386
परिक्खेप	-11.5386
▁सुत्तपद	-11.5388
भवं	-11.539
▁पटिग्गहो	-11.539
▁अपण्णक	-11.5392
विक्	-11.5392
▁ञातके	-11.5394
▁इद्धी	-11.5396
लानि	-11.5396
▁अपराजित	-11.5397
इधाहं	-11.5397
▁सारो	-11.54
▁जट	-11.54
ाभिसमय	-11.5403
▁सतसहस्सं	-11.5403
▁समाहिते	-11.5404
▁अनुग्गण्ह	-11.5405
▁यावतायुकं	-11.5405
▁अनागतंसञाणस्स	-11.5405
▁उञ्छ	-11.5405
▁निग्गत	-11.5406
▁धम्मन्ति	-11.5407
▁वेदनानं	-11.5408
▁अत्थुद्धार	-11.5408
▁२५३	-11.5409
▁मोचेत्वा	-11.541
▁पञ्हस्स	-11.541
▁वुत्तमेवत्थं	-11.5411
▁चक्खुस्स	-11.5411
बाल	-11.5412
▁निब्बेधभागिय	-11.5415
कारिनो	-11.5416
▁सावसेस	-11.5417
▁कण्हसु	-11.5418
परियादान	-11.5419
▁वुत्तत्थमेव	-11.5419
वीथियं	-11.542
▁हरति	-11.5424
चयनिद्देसवण्णना	-11.5424
लेण	-11.5425
जापेत्वा	-11.5425
सद्धो	-11.5426
सरीरं	-11.5426
पटिक्	-11.5427
पाळिया	-11.5427
▁कोस	-11.5429
सङ्घाट	-11.5431
▁अम्ह	-11.5433
चम्मं	-11.5434
▁कल्याणमित्तता	-11.5437
▁विनिच्छिन	-11.5438
▁अदोस	-11.5439
▁तेपिटक	-11.5439
सदिसता	-11.544
▁सब्बङ्ग	-11.544
स्सथ	-11.5441
▁चेस	-11.5443
ूनि	-11.5443
▁दुतियदिवसे	-11.5445
▁गहितानि	-11.5448
▁ओवदति	-11.5449
आसव	-11.545
ब्यत्त	-11.545
पटिपत्तिया	-11.5451
वत्तब्बे	-11.5452
▁भावित्थ	-11.5452
▁सच्छिकतं	-11.5453
▁सीहळ	-11.5458
▁कुसलकम्म	-11.5461
▁बाराणसिं	-11.5461
▁सेसे	-11.5461
▁जानितब्ब	-11.5463
▁आरक्खं	-11.5467
▁आगतानि	-11.5467
वतं	-11.5467
सहायो	-11.5471
▁संवराय	-11.5471
▁यथासकं	-11.5472
▁अधम्मकम्मे	-11.5472
▁सकि	-11.5473
▁बुद्धगुण	-11.5474
▁सूद	-11.5476
▁उद्देसो	-11.5476
स्वाक्खात	-11.548
▁देवलोकं	-11.548
▁भिक्खुनुपस्सय	-11.548
▁सायन्हसमयं	-11.548
▁बहवो	-11.548
▁अनाथपिण्डिको	-11.548
▁दायादो	-11.5481
▁भारद्वाज	-11.5482
▁वोदानस्स	-11.5483
▁संसन्द	-11.5484
▁भवितब्बन्ति	-11.5485
▁पण्डितानं	-11.5486
▁सोधेत्वा	-11.5486
▁ञातक	-11.5487
▁सलाकभत्त	-11.5487
ञत्ती	-11.5487
धाय	-11.5488
▁रट्ठे	-11.5489
▁अधिगता	-11.549
यञ्हि	-11.5492
▁अनुमोदित्वा	-11.5492
▁पुच्छाम	-11.5493
▁गमिस्सन्ति	-11.5493
▁तुम्हाक	-11.5493
वध	-11.5494
ूपसंहित	-11.5495
▁कुहक	-11.5497
▁इच्छसि	-11.55
▁विचिकिच्छ	-11.55
▁कम्पति	-11.5501
▁णि	-11.5503
▁निद्दं	-11.5504
िस्सरो	-11.5505
▁आदियति	-11.5505
गेहे	-11.5506
▁अन्तरधायति	-11.5506
▁२५९	-11.5508
तिआदीनं	-11.5509
▁बुद्धान	-11.5509
भिसि	-11.5509
▁भासितम्पेतं	-11.5514
विद्ध	-11.5514
▁निरुद्धे	-11.5515
प्पसङ्ग	-11.5517
▁भणेय्य	-11.5517
ज्झाय	-11.5517
ञफलानि	-11.5518
▁कुट्ट	-11.5519
▁जनेतीति	-11.5519
▁समनन्तर	-11.552
सालं	-11.552
▁जाती	-11.5522
परिच्छेदं	-11.5524
उप्पाद	-11.5527
▁परिक्खीणा	-11.5529
▁२४९	-11.5529
पुग्गलस्स	-11.553
▁आयुप्पमाणं	-11.553
▁२५७	-11.553
▁पुच्छेय्य	-11.5531
उपेक्खा	-11.5533
जनी	-11.5534
सम्पादन	-11.5536
▁सुखसहगतो	-11.5537
▁धंस	-11.5542
ादिभाव	-11.5544
▁रट्ठव	-11.5544
ङ्गपञ्हो	-11.5545
पत्ते	-11.5546
▁जनता	-11.5546
भूमक	-11.5546
▁पहीनोति	-11.5547
संसट्ठसमुट्ठान	-11.5548
▁पुब्बस्स	-11.5549
▁अपायेसु	-11.555
पटिघ	-11.5553
▁उपहत	-11.5553
▁कबळ	-11.5554
▁बहूपकार	-11.5554
करतन	-11.5555
▁चित्तसहभू	-11.5556
▁पदेसु	-11.5556
▁पोरिसाद	-11.5556
▁पुरक्खत्वा	-11.5556
▁अगिलानस्स	-11.5557
▁सुपुप्फित	-11.5557
चन्दन	-11.5557
सम्मतो	-11.5558
▁पटु	-11.5559
▁कोसम्बियं	-11.5559
▁मोघपुरिस	-11.556
▁निमन्तन	-11.556
▁समोधानं	-11.5562
▁सम्मत्तनियत	-11.5562
▁आणापेति	-11.5563
▁सगारवो	-11.5563
निदस्सनं	-11.5565
▁निविट्ठ	-11.5565
पोस	-11.5565
▁मन्दा	-11.5566
नीता	-11.5567
-‘	-11.5567
▁माप	-11.5568
▁असम्मिस्स	-11.5569
▁देमा	-11.557
▁गच्छे	-11.557
ख्या	-11.5571
▁चक्खुसोत	-11.5572
▁अगच्छ	-11.5573
▁अरियकन्त	-11.5573
▁सुस्सूस	-11.5573
▁कीळा	-11.5575
▁चेतोपरियञाणस्स	-11.5576
▁निद्धारित	-11.5577
▁फलन्ति	-11.5579
ायु	-11.558
▁गण्हथ	-11.558
मरिय	-11.5582
▁२५१	-11.5585
विभागेन	-11.5587
अधिपति	-11.5587
▁धम्मसञ्	-11.5588
▁खीणासवानं	-11.5589
▁मरणधम्म	-11.5589
ेय्याथा	-11.5589
▁पुरेजात	-11.5589
मत्तिक	-11.5591
▁थव	-11.5592
▁पेता	-11.5592
दस्सनत्थ	-11.5592
▁वित्त	-11.5592
▁पुरिमो	-11.5594
सुमन	-11.5595
▁अस्सद्ध	-11.5596
▁तद्धित	-11.5598
▁दानादि	-11.5599
▁आयतना	-11.5601
▁गणे	-11.5602
▁अपने	-11.5602
चविधं	-11.5602
सम्बाध	-11.5603
परिळाहो	-11.5603
भगवता	-11.5603
वसेनापि	-11.5605
सारिपुत्त	-11.5607
▁हानि	-11.5608
गीव	-11.5609
पारिसुद्धि	-11.5611
▁एवमयं	-11.5611
दितो	-11.5613
६०	-11.5617
जिस्सती	-11.5618
ीयो	-11.5618
▁उद्द	-11.5619
▁संकिलेसिका	-11.562
▁नयोति	-11.562
▁ववत्थप	-11.5623
▁वसनट्ठान	-11.5623
अम्म	-11.5623
▁समानत्थ	-11.5625
▁तदपि	-11.5625
▁निच्छर	-11.5628
▁सम्पति	-11.5629
▁पण्डितं	-11.5629
ङ्गे	-11.5632
अन्	-11.5632
▁आमिसं	-11.5633
▁सद्धादेय्य	-11.5634
वाचं	-11.5634
▁दुब्बच	-11.5634
▁चीवरस्स	-11.5636
यन्तु	-11.5637
▁पजानामि	-11.5638
याय	-11.5638
ट्ठानेयेव	-11.5638
चमाने	-11.5639
▁सूरो	-11.564
▁धम्मपद	-11.5642
▁तावतिंसा	-11.5643
▁संविग्ग	-11.5643
▁उदपान	-11.5645
करणत्थं	-11.5646
खण्डं	-11.5646
▁ओपम्म	-11.5647
▁इट्ठक	-11.5648
▁किलमति	-11.5649
▁सेम्ह	-11.5649
▁ततियज्झान	-11.565
▁चतुवोकार	-11.5651
पण्डक	-11.5652
▁दस्सेतब्ब	-11.5657
परिभोगेन	-11.5659
▁पलास	-11.5659
▁परलोकं	-11.5659
रथो	-11.566
▁पवत्तितो	-11.566
वत्थुकं	-11.566
त्थेसु	-11.5661
▁वासव	-11.5661
वाल	-11.5662
▁मूळ्हो	-11.5665
किल	-11.5669
निवेस	-11.567
मज्झत्त	-11.5671
▁महालि	-11.5672
▁कथेतब्बं	-11.5672
समवाय	-11.5672
▁सुविमुत्त	-11.5674
▁भाजनं	-11.5674
नअनिदस्सनअप्पटिघ	-11.5679
भावेपि	-11.5679
▁२६१	-11.5679
▁अभावं	-11.5679
ुब्बेध	-11.5679
▁उप्पादेतब्ब	-11.5681
भाजनीय	-11.5681
▁अरियेन	-11.5684
▁अधिसील	-11.5685
▁नियमो	-11.5686
▁पुक्	-11.5686
आपत्तिं	-11.5687
▁लम्ब	-11.5688
▁पिण्डपातपटिक्	-11.569
अहम्पि	-11.5692
▁दीपितो	-11.5693
▁निक्खमन	-11.5694
▁सुत्तनिपात	-11.5697
▁अग्गहित	-11.5699
▁लोमं	-11.57
सिक्खापदञ्	-11.57
▁वण्णतो	-11.5701
सूप	-11.5703
ापत्तियो	-11.5704
▁२७३	-11.5706
संयुत्तवण्णना	-11.5706
▁चत्तारोपि	-11.5706
▁पटिबद्ध	-11.5708
▁अहिरिकं	-11.5708
▁निब्भय	-11.571
▁विलुम्प	-11.5711
▁निस्सट	-11.5711
नामाय	-11.5711
▁अप्पका	-11.5712
▁नागं	-11.5712
ट्ठानिय	-11.5712
▁इज्झति	-11.5712
▁इमम्हा	-11.5712
▁सुरापान	-11.5713
▁अनत्थसंहित	-11.5715
▁अपरिसेस	-11.5715
▁संवुतो	-11.5716
▁२५५	-11.5718
अन्तो	-11.5719
आदी	-11.5719
▁सम्मद	-11.572
▁कण्डु	-11.572
भे	-11.5721
▁उसूय	-11.5723
▁अनुपादा	-11.5724
हिरञ्	-11.5725
▁मगध	-11.5726
▁भग्गव	-11.5727
▁अनुमोदन	-11.5727
हिता	-11.5728
▁पाणातिपाती	-11.573
▁लेड्डु	-11.5731
▁सूच	-11.5732
नरसा	-11.5732
▁तदत्थं	-11.5734
▁चिन्तित	-11.5734
निवेसन	-11.5734
▁अंस	-11.5736
▁ओवदित्वा	-11.5736
▁झानानं	-11.5737
▁२५२	-11.5737
कवण्णना	-11.574
▁अग्गळ	-11.574
ब्भन्तर	-11.5741
▁जरामरणस्स	-11.5743
▁परम्मुखा	-11.5743
▁बिम्ब	-11.5744
▁कामगुणे	-11.5745
▁हस्स	-11.575
▁गुणव	-11.5751
सम्मुख	-11.5751
▁जहाति	-11.5752
▁वादे	-11.5752
मिगो	-11.5753
▁लक्खणे	-11.5754
पदेसु	-11.5756
▁निप्फाद	-11.5757
▁गमि	-11.5758
ाधिपतेय्य	-11.5758
तत्था	-11.5759
▁दससहस्स	-11.5759
▁ब्रह्मानं	-11.5759
▁पवस्स	-11.5759
▁रमति	-11.5759
▁अच्छरियो	-11.576
▁वीरियबलं	-11.576
▁भद्दिय	-11.5761
▁जनानं	-11.5761
प्पयोगो	-11.5761
▁विमुत्तिं	-11.5762
▁अप्पटिकूल	-11.5764
यिस्सति	-11.5765
चरितानि	-11.5765
नुग	-11.5766
▁देसेतुं	-11.5767
▁पटिविज्झति	-11.5767
▁जीवक	-11.5769
▁कलं	-11.5769
▁दुस्सील्य	-11.577
▁आसेवति	-11.5771
नेस	-11.5771
▁दुट्ठो	-11.5773
स्मी	-11.5774
ञाभिसङ्खार	-11.5775
लिकाय	-11.5775
रूपावचर	-11.5775
▁निगमे	-11.5775
भासाय	-11.5776
▁सम्मासङ्कप्प	-11.5778
मागतो	-11.5778
समाचारो	-11.5779
▁बाहं	-11.578
गुणेहि	-11.5781
▁साधारणा	-11.5782
▁विद्धो	-11.5783
दीपकं	-11.5783
▁चरं	-11.5784
▁पाराजिको	-11.5786
चुतूपपात	-11.5786
▁बात्तिंस	-11.5786
▁सप्पटिभय	-11.5786
▁अधिसीलसिक्खा	-11.5788
▁अनुभूय	-11.5789
▁अरहत्तफलं	-11.579
आगम	-11.579
▁फरुसं	-11.5791
▁अवस्सुत	-11.5791
▁जरं	-11.5791
▁अधिट्ठहित्वा	-11.5792
▁गच्छथ	-11.5793
▁समीप	-11.5794
वत्थू	-11.5794
▁आवासिक	-11.5794
भासि	-11.5796
▁विक्खम्भ	-11.5796
▁धम्मचारी	-11.5796
▁पारिच्छत्तक	-11.5798
चानुपस्सना	-11.5798
▁सुद्धा	-11.5801
▁दस्सेन्ति	-11.5801
▁वस्ससहस्स	-11.5802
▁सब्बमेव	-11.5803
▁महप्फला	-11.5805
मन्तं	-11.5807
▁परिया	-11.5808
दिवा	-11.5808
▁बाहिरक	-11.5808
▁परिस्सय	-11.581
▁तारका	-11.5811
▁ओवदि	-11.5812
दाठ	-11.5813
▁समुक्	-11.5816
▁इवण्ण	-11.5816
▁दुक्खक्खयाय	-11.5818
▁मङ्गलं	-11.5821
▁खिल	-11.5822
▁वज्झ	-11.5823
▁चागो	-11.5824
▁उद्दिट्ठा	-11.5824
▁अनागामिफलं	-11.5828
▁तयि	-11.5828
▁दिट्ठानुसयेन	-11.5828
▁निधान	-11.5828
संवत्तनिक	-11.5829
▁सम्भवतो	-11.583
पब्बजितो	-11.5832
▁जनपदो	-11.5833
▁भावयतो	-11.5834
▁एवमेत	-11.5835
रिस	-11.5836
▁आलोकं	-11.5836
▁निस्सयं	-11.5836
▁पुत्तेन	-11.5839
२१	-11.5839
▁तब्भाव	-11.584
▁पुत्तेहि	-11.5841
सत्थु	-11.5843
▁असमो	-11.5845
न्वय	-11.5846
▁गन्तुकामो	-11.5846
▁सिलेस	-11.5846
च्छन्दो	-11.5847
▁अङ्गण	-11.5848
चरिता	-11.5849
▁गन्धे	-11.585
पदुमुत्तरो	-11.5856
▁कामरागो	-11.5856
परमत्थ	-11.5858
▁रेणु	-11.586
सम्भवं	-11.586
▁अप्पटिनिस्सग्गे	-11.5865
▁गिरं	-11.5865
▁सोतधातु	-11.5865
▁वेदगू	-11.5865
▁विरूळ्हिं	-11.5866
▁वत्तारो	-11.5867
▁पवत्तमानं	-11.5868
ापेतब्ब	-11.5868
नट्ठान	-11.5869
▁सीतल	-11.5869
ादिकथा	-11.5869
चमानं	-11.5871
यापि	-11.5871
▁२७४	-11.5871
▁आख्यात	-11.5874
भूम	-11.5874
▁एवमादीनि	-11.5875
▁सेनक	-11.5875
▁लहुकं	-11.5876
▁रट्ठपाल	-11.5877
▁साकच्छ	-11.5877
▁हिमवन्तं	-11.5878
सद	-11.588
▁पिसुण	-11.588
▁जातस्स	-11.5881
▁३०५	-11.5881
वासिक	-11.5883
▁गहेतब्बोति	-11.5884
▁पग्घर	-11.5888
हाकारेहि	-11.5889
▁२७०	-11.589
▁दुवि	-11.5891
▁सोण्ण	-11.5891
▁अनारम्मणं	-11.5891
नाकारो	-11.5892
▁मनोहर	-11.5893
मन्वाय	-11.5898
▁चित्तानं	-11.5899
▁चतुत्थी	-11.59
भाजने	-11.59
▁वस्सान	-11.5901
▁लोकनाथ	-11.5901
वादित	-11.5901
ठानं	-11.5904
नुस्सर	-11.5904
▁भातु	-11.5905
चत्थरण	-11.5906
नलक्खणा	-11.5906
▁सहायं	-11.5908
▁अविप्पवास	-11.5908
▁कुमारा	-11.591
▁वचीवि	-11.5911
▁इतरानि	-11.5911
▁वन्दना	-11.5912
▁कवाट	-11.5912
▁आयाचन	-11.5912
▁मग्गङ्ग	-11.5913
ख्यात	-11.5914
ञाणधातू	-11.5916
▁सिर	-11.5917
▁गद	-11.5919
▁सम्फुस	-11.592
▁कीळन्ति	-11.592
▁जातिआदि	-11.5921
सयो	-11.5921
ारोचन	-11.5922
गब्भं	-11.5923
▁होतियेव	-11.5923
ग्गय्ह	-11.5924
▁राजापि	-11.5925
▁२५४	-11.5925
▁वीमंसति	-11.5927
▁धम्मकम्मे	-11.5927
▁वनसण्डे	-11.5928
▁पत्तेन	-11.5928
मपि	-11.5929
▁कुमारस्स	-11.593
▁पपात	-11.593
ञिको	-11.593
परिवुतो	-11.5933
▁मण्डन	-11.5934
▁विरोध	-11.5934
▁चतुपञ्	-11.5936
▁वूपसमो	-11.5937
तेति	-11.5938
▁मूळ्ह	-11.5939
▁वुद्धियेव	-11.594
▁कामासवो	-11.5941
ेस्सन्ती	-11.5942
ियमानस्स	-11.5942
▁धम्मविनय	-11.5944
▁दहति	-11.5944
▁ततियस्स	-11.5946
इत्थी	-11.5947
▁तरण	-11.5948
▁भरियं	-11.5948
▁निपुण	-11.5948
▁पापुणिंसु	-11.5949
▁कयिर	-11.5949
पुप्फानि	-11.595
▁तुण्हीभूत	-11.595
▁ब्राह्मणकुले	-11.595
▁२६०	-11.5951
▁बाराणसि	-11.5953
▁साटक	-11.5955
▁सदेवकं	-11.5955
▁कुज्झित्वा	-11.5956
▁अप्पिच्छा	-11.5957
▁दुक्खनिरोधगामिन	-11.5958
▁अधिवासन	-11.5963
ञमाना	-11.5966
▁वुत्थ	-11.5966
नपुब्ब	-11.5967
वेळ	-11.5968
▁रागादीनं	-11.597
▁सण्ठह	-11.597
▁कपाल	-11.5971
मोच	-11.5971
▁पनेत	-11.5971
नागते	-11.5971
पभव	-11.5975
▁अनागतमद्धानं	-11.5975
▁धेनु	-11.5976
▁पातिमोक्खे	-11.5976
▁मागध	-11.5977
पधानं	-11.5978
▁सयन्ति	-11.5979
▁भवतो	-11.5981
तण्डुल	-11.5982
दिय	-11.5983
▁३०३	-11.5983
▁समत्था	-11.5983
▁ममा	-11.5985
चित्तताय	-11.5987
चोळ	-11.5989
खो	-11.599
पिट्ठ	-11.5991
सेक्ख	-11.5991
▁अज्झावसति	-11.5992
▁चित्र	-11.5994
▁मनुस्सलोक	-11.5994
▁आलपन	-11.5996
ुत्तमो	-11.5998
समुच्छेद	-11.5998
मनुयु	-11.5998
▁थेन	-11.5999
▁करिस्सामीति	-11.5999
पटिसेध	-11.6
फुट्ठ	-11.6001
▁उपनिस्सयो	-11.6004
▁अप्पहीनोति	-11.6004
ञाणेहि	-11.6005
गरह	-11.6008
▁अहोसिन्ति	-11.6009
ेय्यु	-11.601
नादं	-11.601
▁अभिरति	-11.6011
मुट्ठ	-11.6014
▁पीतिसहगत	-11.6014
पुब्बं	-11.6017
भोगो	-11.6019
▁पुण्णो	-11.602
गह	-11.602
ेतब्बन्ति	-11.6021
▁असेस	-11.6021
▁जालि	-11.6022
▁भोता	-11.6022
▁पहातुं	-11.6023
▁हीनायावत्त	-11.6023
▁येवापनक	-11.6023
न्द्रिय	-11.6023
▁अस्मीति	-11.6023
▁समुट्ठापेसुं	-11.6023
▁गिलानुपट्ठाक	-11.6024
निप्फत्ति	-11.6026
प्पटिपत्ति	-11.6026
▁तुलयित्वा	-11.6026
प्पभेदं	-11.6026
▁अन्तेवासिको	-11.6026
▁उपगच्छति	-11.6026
विपस्स	-11.6028
▁२५०	-11.603
तयोमे	-11.6031
त्तनो	-11.6032
ञपेत्वा	-11.6033
▁वित्थारेत्वा	-11.6033
▁पदुमुत्तरस्स	-11.6033
▁अनुद्धंसे	-11.6033
नाथ	-11.6034
▁साठेय्य	-11.6036
▁निरुज्झ	-11.6036
▁तिचित्तं	-11.6037
▁वुत्तप्पकारं	-11.6037
▁धातुस्स	-11.6038
जनको	-11.604
▁परिजानित्थ	-11.604
कवाक	-11.6042
पटिसंयुत्तो	-11.6042
विमुत्तिञाणदस्सन	-11.6044
निब्ब	-11.6044
द्धज	-11.6046
विजय	-11.6046
▁पवत्तन	-11.6046
ायतना	-11.6048
▁हेते	-11.6048
▁निक्खित्तं	-11.6049
▁विहत	-11.605
जेय्या	-11.605
▁पप्पोति	-11.6051
▁एककोव	-11.6053
▁गतत्ता	-11.6054
नाद	-11.6057
▁गाहाप	-11.6057
▁सितं	-11.6058
▁रवि	-11.6059
▁पयोगा	-11.606
▁दमे	-11.606
▁सम्मापटिपत्ति	-11.606
सरो	-11.6062
▁दिस्समान	-11.6063
जसि	-11.6064
सुत्तेन	-11.6064
▁एकाह	-11.6068
पक्खिक	-11.6068
▁संकिलेसो	-11.6068
ङ्गार	-11.6069
ब्रवि	-11.6071
▁अदस्सन	-11.6071
वन्दन	-11.6071
नपुंसक	-11.6072
ब्याकत	-11.6072
▁कथन	-11.6072
▁थेय्यचित्तेन	-11.6072
काव	-11.6072
येथ	-11.6074
▁सोतुं	-11.6078
सन्थर	-11.6079
कद्दम	-11.6083
▁विजानन	-11.6083
▁हेतुम्हि	-11.6083
▁निब्बुता	-11.6083
▁गुरु	-11.6084
▁सन्तिं	-11.6084
▁जानाप	-11.6085
चिद	-11.6086
▁परामट्ठ	-11.6087
▁मण्डप	-11.6087
ादीहीति	-11.6089
▁एकीभाव	-11.6089
▁उच्छेद	-11.6089
▁पकरणे	-11.6091
▁वेरमणि	-11.6094
▁निप्परियायेन	-11.6095
▁सापेक्ख	-11.6095
▁सुकतेन	-11.6096
जुं	-11.6096
▁असु	-11.6097
▁संसीद	-11.6099
▁भायति	-11.61
▁क्रिय	-11.6101
▁समाहितं	-11.6101
▁वधाय	-11.6102
▁आगन्तुका	-11.6102
▁ञातुं	-11.6102
▁बहुलीकतो	-11.6103
▁मातापितूहि	-11.6103
▁निरयपाला	-11.6103
▁किरियाब्याकतं	-11.6103
▁उग्घटित	-11.6105
▁वण्णना	-11.6106
▁अलङ्करित्वा	-11.6107
म्पेतं	-11.6108
▁ओतारेत्वा	-11.6109
▁अमित	-11.6109
जन्तीनं	-11.611
▁नेरयिको	-11.6111
▁भण्डनकारक	-11.6111
▁लिङ्गविप	-11.6112
▁एकधम्मम्पि	-11.6112
▁फण	-11.6113
▁दातुकामो	-11.6113
▁उसु	-11.6114
▁२६८	-11.6115
▁वग्गे	-11.6115
▁विनीत	-11.6116
जोतो	-11.6117
▁कित्तक	-11.6117
बलो	-11.6118
▁सन्थतं	-11.6118
भिक्खुनी	-11.612
▁ओकप्प	-11.6122
प्पमाणे	-11.6123
▁अज्झाचार	-11.6125
▁विवादाधिकरण	-11.6125
▁दस्सेतु	-11.6126
▁अभिधेय्य	-11.6128
▁कारय	-11.6128
▁पवारेन्ति	-11.6128
राय	-11.6129
▁सब्बधम्म	-11.613
▁अनागामि	-11.613
छिन्	-11.6133
▁सङ्कप्पो	-11.6134
निस्सन्द	-11.6134
नितब्बो	-11.6134
▁सेवति	-11.6134
▁इतरेन	-11.6135
▁महापुरिसस्स	-11.6135
करतनं	-11.6135
▁सद्दत्थ	-11.6135
▁मुदुक	-11.6136
▁कथनं	-11.6137
▁सिन्धव	-11.6139
▁फुसन	-11.614
▁ओवादे	-11.6141
▁ससङ्खार	-11.6142
▁जीवितक्खयं	-11.6144
▁संवत्तन्तीति	-11.6144
▁अनिस्सितो	-11.6145
▁सङ्घादिसेसं	-11.6145
त्थतो	-11.6146
णेय्य	-11.6146
ितानं	-11.6147
परियत्ति	-11.6149
▁विचारस्स	-11.615
▁पासादिक	-11.6151
▁मुत्ति	-11.6151
तीसु	-11.6153
▁आकिण्ण	-11.6155
▁जहति	-11.6155
निकन्ति	-11.6156
साव	-11.6157
संवच्छर	-11.6158
▁ब्रह्मलोका	-11.6159
▁तुरित	-11.616
द्धं	-11.6161
सम्बोज्झङ्ग	-11.6163
▁पटिक्खित्तं	-11.6164
चारिकं	-11.6164
▁येनाति	-11.6164
सङ्खारो	-11.6164
▁विहाय	-11.6164
वट्टि	-11.6165
चक्खन्ध	-11.6168
▁धम्मदेसन	-11.6169
चयत्ता	-11.6169
▁विनि	-11.617
▁अविहिंसा	-11.617
▁वुत्तनयमेवाति	-11.617
त्तर	-11.6171
तुकामस्स	-11.6172
ञतरञ्	-11.6174
लपति	-11.6174
मत्तानि	-11.6174
▁देसेन्ति	-11.6174
पाठो	-11.6175
धिगम	-11.6176
▁मीय	-11.6177
प्पिय	-11.6178
▁पाचित्तियन्ति	-11.6178
▁सित	-11.6178
करणो	-11.6179
सब्बत्थ	-11.6179
▁कप्पियकारक	-11.6182
▁भूतो	-11.6183
पुब्बक	-11.6183
▁नामुपट्ठाको	-11.6183
पहीनो	-11.6184
▁महासत्तं	-11.6184
▁विरागनिस्सितं	-11.6184
▁रूपराग	-11.6185
▁इदमेत्थ	-11.6185
ुप्पादो	-11.6185
▁सुखसहगतं	-11.6189
त्थीति	-11.6189
▁ञातं	-11.6189
ञितं	-11.619
▁गरुळ	-11.6191
ञाणक	-11.6191
▁वत्थुम्हि	-11.6191
कारिका	-11.6192
दिस्वा	-11.6194
▁समागन्त्वा	-11.6194
ाधिप	-11.6195
नाकारं	-11.6196
▁विलोक	-11.6199
▁योगे	-11.6201
जतु	-11.6201
▁कुसीतो	-11.6201
▁मिगदाये	-11.6202
▁२७९	-11.6202
▁गब्भे	-11.6203
▁बाहिरो	-11.6203
ञाभिसङ्खारो	-11.6204
▁पाठसेसो	-11.6204
▁पटिसम्भिदाहि	-11.6205
▁सम्पत्तो	-11.6205
ञमेव	-11.6207
विवर	-11.6208
▁द्वङ्गुल	-11.6209
▁सुसान	-11.621
योगक्खेम	-11.6213
▁मक्खिका	-11.6214
▁भत्ता	-11.6215
▁अधिगच्छति	-11.6217
▁उपचारसीम	-11.6218
▁२७६	-11.6218
निम्मित	-11.6221
▁करि	-11.6222
▁निरुद्धं	-11.6222
▁एत्थन्तरे	-11.6223
उदकं	-11.6225
▁अनधिगत	-11.6225
▁पुरिमेन	-11.6226
▁कच्छप	-11.6227
▁निरोधस्स	-11.6227
आर	-11.6228
मेवेतं	-11.6228
▁कारापे	-11.6228
▁चरणं	-11.623
▁सब्रह्मचारी	-11.623
▁चित्तसम्पयुत्तो	-11.6231
▁जुह	-11.6231
▁जायमान	-11.6232
▁दस्सय	-11.6235
▁वेमत्तता	-11.6235
▁चाह	-11.6236
चाधिकरण	-11.6238
▁उपच्	-11.6238
मच्छरिय	-11.6238
▁सब्बभव	-11.6239
▁सस्सतं	-11.624
च्छिद्द	-11.624
▁असप्पुरिसो	-11.6242
विमानवत्थु	-11.6242
▁जातिजर	-11.6243
▁पिण्डपातिक	-11.6244
▁सलक्खण	-11.6244
गय्ह	-11.6248
▁कामञ्	-11.6248
▁आधिपतेय्य	-11.6248
▁ब्यन्ती	-11.6248
फोट	-11.625
▁परिचिता	-11.6251
▁विसुद्धिमग्ग	-11.6256
राव	-11.6257
▁सीलवतो	-11.6257
▁दक्खिणेन	-11.6257
▁संयोजना	-11.6258
क्खन्धक	-11.6258
▁कुम्भि	-11.6259
तोव	-11.626
▁तत्त	-11.626
▁दीघनिकाय	-11.6261
सीलेन	-11.6261
▁परमा	-11.6262
ाभावे	-11.6262
स्वे	-11.6263
परिपूरण	-11.6263
▁आरोहपरिणाह	-11.6265
▁सविभत्तिस्स	-11.6265
▁सम्मुखीभूत	-11.6265
▁देवसारथि	-11.6265
▁भातरो	-11.6266
▁अपरिसुद्ध	-11.6266
[...]
