<unk>	0
<s>	0
</s>	0
.	-2.61495
,	-2.91097
ં	-3.97729
તિ	-4.01235
▁‘‘	-4.24827
▁	-4.41915
’’	-4.48608
▁ચ	-4.55318
ા	-4.57367
▁ન	-4.59253
ો	-4.62625
;	-4.79613
ે	-4.92906
ન્તિ	-4.9616
▁વા	-4.98388
સ્સ	-5.02486
▁–	-5.247
ેન	-5.39113
▁હોતિ	-5.51613
▁પન	-5.52259
▁તં	-5.66042
પે	-5.66722
?	-5.67783
॰	-5.7446
▁તત્થ	-5.77781
▁સો	-5.89391
▁એવં	-5.91154
પિ	-5.94745
તો	-5.95282
▁નામ	-5.97031
▁ખો	-5.99127
-	-6.02289
ઞ્ચ	-6.039
▁અ	-6.10271
▁ભિક્ખવે	-6.11296
’	-6.12752
ાનં	-6.12975
▁તસ્સ	-6.14213
▁તે	-6.15362
ન	-6.19483
▁હિ	-6.25328
ાતિ	-6.25712
ાનિ	-6.27118
ેહિ	-6.34234
▁વુત્તં	-6.36086
વ	-6.40171
▁અત્થો	-6.45552
ેસુ	-6.48326
ાય	-6.51903
▁‘	-6.55038
િ	-6.57823
▁ધમ્મા	-6.59764
▁ધમ્મો	-6.61606
▁મે	-6.62147
વસેન	-6.62186
▁તેસં	-6.62444
નં	-6.63867
▁ધમ્મં	-6.65166
▁ઉપ્પજ્જતિ	-6.66891
▁અયં	-6.67613
▁તેન	-6.68232
▁પચ્ચયો	-6.68635
▁વિય	-6.72038
▁યથા	-6.7219
▁પટિચ્ચ	-6.74409
▁યં	-6.78475
▁ભિક્ખુ	-6.80205
ી	-6.83605
ત્તા	-6.84145
▁કત્વા	-6.84688
▁દ્વે	-6.84718
▁એકં	-6.84802
▁યો	-6.85195
▁અથ	-6.85232
▁એત્થ	-6.8644
▁નો	-6.87899
તા	-6.89125
▁તસ્મા	-6.90481
▁તથા	-6.90543
▁આહ	-6.91732
▁ભગવા	-6.92268
મ્પિ	-6.93122
▁સ	-6.93142
▁ભન્તે	-6.93166
▁ઇદં	-6.9396
▁તતો	-6.95312
ાદિ	-6.95861
ય	-7.00573
▁તીણિ	-7.02188
ક	-7.03279
મેવ	-7.06033
▁અત્તનો	-7.07469
યેવ	-7.10437
▁વુચ્ચતિ	-7.1547
કો	-7.16581
▁પઞ્ચ	-7.17987
▁ઇધ	-7.18465
▁યસ્સ	-7.19788
▁ચિત્તં	-7.20762
સુ	-7.2173
▁સા	-7.2219
▁નત્થિ	-7.23836
▁અત્થિ	-7.24279
▁નવ	-7.2538
▁યે	-7.25532
ોતિ	-7.26872
યો	-7.27524
▁તસ્મિં	-7.28088
▁હોન્તિ	-7.28378
તીતિ	-7.28427
મ	-7.28947
▁એવ	-7.30629
ના	-7.3089
▁ઇતિ	-7.31556
▁સત્ત	-7.32969
▁ભિક્ખૂ	-7.35785
તાય	-7.36608
▁નિટ્ઠિતા	-7.36632
િત્વા	-7.3687
અ	-7.38227
યં	-7.40007
યા	-7.40174
હિ	-7.40919
ેતિ	-7.42009
▁કિં	-7.42165
કં	-7.43358
▁ચેવ	-7.45204
મ્હિ	-7.45456
સિ	-7.45611
ડ્	-7.45793
તિઆદિ	-7.45886
▁મહા	-7.47391
તં	-7.48633
ેય્ય	-7.48659
▁હેતુપચ્ચયા	-7.48724
▁ભગવતો	-7.48857
▁ધમ્મસ્સ	-7.50255
▁રૂપં	-7.52998
▁આપત્તિ	-7.5335
▁હુત્વા	-7.53976
ન્તો	-7.54935
▁સબ્બ	-7.56266
▁એક	-7.58184
કા	-7.5923
▁ઇમિના	-7.59342
▁યત્થ	-7.60316
▁ખન્ધા	-7.60635
▁આમન્તા	-7.62004
સ	-7.63011
▁ઇમે	-7.63914
▁યા	-7.65024
▁ધમ્મ	-7.6578
▁ઇમં	-7.67255
▁વ	-7.68013
▁દિસ્વા	-7.68985
▁અહોસિ	-7.69412
▁સદ્ધિં	-7.6977
▁યેન	-7.7019
▁સુ	-7.71277
▁રાજા	-7.71729
▁હોતીતિ	-7.71763
▁અહં	-7.71958
▁કથં	-7.72154
▁પ	-7.72342
▁ત્વં	-7.73511
▁હેતુ	-7.7447
▁તદા	-7.75495
▁સિયા	-7.75759
▁પુન	-7.7578
▁આવુસો	-7.76459
▁તયો	-7.77106
▁મં	-7.77516
▁નુ	-7.7806
▁મમ	-7.79489
▁સચે	-7.8031
નિ	-7.80502
▁ગહેત્વા	-7.80707
▁છ	-7.81802
▁એકો	-7.83144
▁સતિ	-7.83675
સુત્તં	-7.83888
નો	-7.84411
ાદીસુ	-7.8448
▁ભગવતા	-7.8474
▁ઇદાનિ	-7.85079
▁૧	-7.85158
તી	-7.85469
▁પઞ્ઞા	-7.86133
▁સત્થા	-7.87683
▁મા	-7.87919
ાદીનં	-7.90792
સુત્તવણ્ણના	-7.90802
▁પુગ્ગલો	-7.91038
▁સહ	-7.91334
▁અનુ	-7.91366
પ	-7.92529
▁વિહરતિ	-7.93521
▁સુત્વા	-7.93525
ત્થ	-7.93843
ાપિ	-7.9412
તે	-7.94383
▁સબ્બં	-7.9443
▁વિ	-7.94596
સો	-7.94686
▁પચ્ચયા	-7.94929
▁મહારાજ	-7.95
▁કતં	-7.95084
▁યસ્મા	-7.95729
▁ઉપ	-7.9701
િકા	-7.97344
▁તાવ	-7.97614
▁ચત્તારો	-7.97887
ેત્વા	-7.99085
ાદયો	-7.99171
ભાવં	-8.00362
▁તેનાહ	-8.00746
▁દસ્સેતિ	-8.0218
સદ્દો	-8.03099
▁વત્વા	-8.0311
▁લોકે	-8.03521
▁નહેતુ	-8.03525
ભાવેન	-8.03549
▁સબ્બે	-8.03817
▁આરબ્ભ	-8.04103
તિઆદિના	-8.04753
▁પઠમં	-8.0551
કથા	-8.05773
▁ચત્તારિ	-8.05936
▁વટ્ટતિ	-8.06002
▁અટ્ઠ	-8.06055
▁યોજના	-8.06568
▁પુબ્બે	-8.07001
▁ખન્ધે	-8.07121
ુ	-8.07325
▁કિર	-8.07694
▁સમયે	-8.07894
▁એતં	-8.07976
▁વેદના	-8.08129
▁ગન્ત્વા	-8.08529
▁કરોતિ	-8.08787
ભાવો	-8.09233
ાદીહિ	-8.10055
▁વેદિતબ્બો	-8.10494
▁વત્તબ્બે	-8.10883
▁વુત્તા	-8.10994
▁કમ્મ	-8.11126
▁ચે	-8.1118
▁ભિક્ખુનો	-8.11374
▁નેવ	-8.11394
િત	-8.11395
ત	-8.12079
▁નયો	-8.12141
▁દસ	-8.12482
ને	-8.12982
▁ઠપેત્વા	-8.13154
▁ચિત્ત	-8.13314
▁મયા	-8.13825
ીતિ	-8.14183
૭	-8.14237
▁કમ્મં	-8.14513
▁ઇમસ્મિં	-8.15036
▁કો	-8.15246
કાલે	-8.15315
ચ	-8.16223
સ્મિં	-8.16254
▁સન્ધાય	-8.16292
૫	-8.1675
ાનીતિ	-8.16907
▁કિઞ્ચિ	-8.17727
▁પરં	-8.17736
▁૨	-8.17836
િતા	-8.18142
▁અસ્સ	-8.18719
▁આયસ્મા	-8.19163
▁દુક્ખં	-8.19448
૬	-8.19558
થ	-8.19566
ન્તીતિ	-8.19921
કે	-8.19978
▁મય્હં	-8.20284
૯	-8.20847
▁ભો	-8.20866
તુ	-8.21171
વિ	-8.21263
ાદીનિ	-8.21303
▁તુ	-8.21861
૧	-8.2201
૪	-8.22101
▁રૂપ	-8.22158
િંસુ	-8.22211
▁યાવ	-8.22221
▁ભગવન્તં	-8.22285
મા	-8.2234
વા	-8.22344
▁ધમ્મે	-8.22664
▁ચાતિ	-8.22925
▁વત	-8.23524
▁અત્થ	-8.23684
▁સમન્નાગતો	-8.2371
▁અઞ્ઞં	-8.23841
િં	-8.24031
ત્થાય	-8.25334
ેનાતિ	-8.25971
િતું	-8.26082
▁દસ્સેતું	-8.26296
ધમ્મ	-8.26316
▁સમ્બન્ધો	-8.26373
▁વત્થુ	-8.26379
▁ગચ્છતિ	-8.26479
૩	-8.26519
▁તણ્હા	-8.26528
▁દુક્ખ	-8.26606
િય	-8.26799
િતો	-8.27049
▁પટિ	-8.27571
▁ઇતો	-8.27573
ેપિ	-8.27804
▁વુત્તો	-8.27995
▁થેરો	-8.29421
િક	-8.29591
િયા	-8.29731
▁દિટ્ઠિ	-8.29794
ત્થં	-8.30428
ટ્ઠેન	-8.3045
▁વદન્તિ	-8.30775
૮	-8.31084
▁ઉપ્પજ્જિસ્સતિ	-8.31164
માનો	-8.31698
▁વેદિતબ્બં	-8.31748
▁સમ્મા	-8.31939
▁ઉપ્પજ્જન્તિ	-8.32459
િતં	-8.32682
▁સમ	-8.3285
▁યદિ	-8.33431
ામિ	-8.33639
વણ્ણના	-8.33653
વગ્ગો	-8.33887
▁બુદ્ધ	-8.34027
▁જાનાતિ	-8.34118
▁દસ્સેન્તો	-8.34912
▁પઠમ	-8.35038
૨	-8.3505
▁અન	-8.35065
▁વચનં	-8.35301
ેવ	-8.36363
▁તેસુ	-8.3663
▁ખન્ધાનં	-8.36658
▁ઝાનં	-8.3687
▁ફલં	-8.37539
▁ઞાણં	-8.37945
▁ભવ	-8.38032
▁તસ્સા	-8.38206
ભાવ	-8.38634
▁રઞ્ઞો	-8.38659
▁કેચિ	-8.38667
ભાવતો	-8.38989
▁ચિત્તસ્સ	-8.39017
▁વસેન	-8.39431
▁આ	-8.39666
▁હેતુયા	-8.39867
▁બ્રાહ્મણ	-8.40384
▁રાજ	-8.40436
▁દેવ	-8.40618
યે	-8.40641
▁અન્તો	-8.40929
▁વેદિતબ્બા	-8.40929
ેનેવ	-8.41614
▁હેટ્ઠા	-8.4204
▁કસ્મા	-8.42118
▁૩	-8.42654
▁પટ્ઠાય	-8.43182
ન્તા	-8.43221
ન્તસ્સ	-8.43509
ત્ત	-8.43722
હં	-8.43922
▁સઙ્ઘો	-8.44305
▁એસ	-8.44309
▁વુત્ત	-8.44384
▁જાતિ	-8.44924
રૂપ	-8.44944
▁સુખં	-8.44978
▁ભિક્ખૂનં	-8.45439
▁કુસલા	-8.45768
▁પર	-8.45922
▁ફલ	-8.46394
ેસિ	-8.46583
▁અધિપ્પાયો	-8.46763
▁ભવિસ્સતિ	-8.46876
▁દુતિય	-8.46922
▁હેવં	-8.47442
▁સબ્બત્થ	-8.48004
હેતુ	-8.4801
▁બુદ્ધો	-8.48312
▁તાનિ	-8.48648
▁તત્ર	-8.48665
▁કામ	-8.48852
▁વો	-8.48983
▁સમયેન	-8.49157
▁પચ્છા	-8.49218
▁મગ્ગ	-8.49818
▁કતમે	-8.49851
▁તેહિ	-8.50358
ઞ્ચેવ	-8.50981
▁પુરિસો	-8.51247
▁સઞ્ઞા	-8.51364
ાવ	-8.51388
કમ્મ	-8.51389
▁સત્તા	-8.51391
સં	-8.51497
▁ઉપસઙ્કમિત્વા	-8.52554
▁દુક્કટં	-8.52638
▁૪	-8.5265
▁પુચ્છા	-8.52688
કથાવણ્ણના	-8.52967
ત્તં	-8.53031
▁કત	-8.53173
▁નિસ્સાય	-8.53369
લ	-8.53422
▁એતદવોચ	-8.53707
સા	-8.53879
સિક્ખાપદવણ્ણના	-8.54101
▁એવમેવ	-8.54207
▁ઇમસ્સ	-8.54742
▁૭	-8.55019
▁ઞાણ	-8.55134
અયં	-8.55142
▁અનાપત્તિ	-8.55165
▁હોતી	-8.55337
▁વેદનાય	-8.55394
▁ઓ	-8.55921
હ	-8.56306
▁સન્તિકે	-8.5689
▁તવ	-8.56918
▁દત્વા	-8.56993
▁કુસલં	-8.57079
▁અતિ	-8.57158
▁સુખ	-8.57185
▁સેસં	-8.57312
ન્તી	-8.57525
▁વુત્તે	-8.57581
▁એસેવ	-8.57668
▁દાનં	-8.58184
▁પસ્સતિ	-8.58999
▁બુદ્ધસ્સ	-8.59058
▁તથાગતો	-8.59392
પ્પ	-8.59393
▁ઇમા	-8.59422
▁‘‘‘	-8.59639
▁ત	-8.59721
▁અત્તના	-8.5974
ટ્ઠાને	-8.59781
▁અભિ	-8.59901
▁એકમન્તં	-8.59981
▁મગ્ગો	-8.6018
▁૫	-8.60416
▁પરિ	-8.60552
ત્થો	-8.60834
▁કોચિ	-8.61469
▁સમાધિ	-8.62252
જ	-8.6246
તિઆદીસુ	-8.62816
▁પત્ત	-8.63137
▁૬	-8.6314
▁આનન્દ	-8.63172
એવં	-8.63294
▁અત્થં	-8.63455
પચ્ચયા	-8.63927
સ્સાતિ	-8.63937
▁સક્કા	-8.64181
▁આરમ્મણે	-8.64502
▁વદતિ	-8.64629
▁સયં	-8.64741
▁પઞ્ઞાય	-8.64895
▁ક	-8.6493
▁ઉપરિ	-8.65096
▁બ્રાહ્મણો	-8.65309
સદ્દેન	-8.65372
કિં	-8.65416
ભિ	-8.65593
▁અત્તાનં	-8.6589
▁નિબ્બાનં	-8.66429
વત્થુ	-8.666
▁તા	-8.66617
મ્હા	-8.66776
▁અકુસલા	-8.67059
▁ધમ્માનં	-8.67089
▁ગાથા	-8.67246
▁ધમ્મેહિ	-8.67339
▁અપ્પ	-8.6736
▁યતો	-8.67743
▁અવ	-8.68089
ોપિ	-8.68136
તિઆદિમાહ	-8.68378
▁૮	-8.68431
ઞ્હિ	-8.6872
સ્સેવ	-8.69138
િનો	-8.69288
ણ	-8.69342
▁સીલ	-8.6958
▁ઉપ્પજ્જિત્થ	-8.6962
▁મયં	-8.69696
▁ઉ	-8.69798
▁આદિ	-8.70469
▁ચીવરં	-8.70901
▁૯	-8.70972
▁પદ	-8.71042
▁કાય	-8.71258
સી	-8.71263
▁વિઞ્ઞાણં	-8.71275
▁દેતિ	-8.71382
▁મગ્ગં	-8.71431
ટ્ઠાનં	-8.71502
▁ઞત્વા	-8.71523
ઙ્ગ	-8.71678
ર	-8.71768
▁પાપ	-8.71786
▁નયેન	-8.72275
▁૧૦	-8.72557
▁ભિક્ખુના	-8.72605
નતો	-8.72881
દિ	-8.73039
▁ધમ્મેસુ	-8.73267
ેતીતિ	-8.733
▁ઇમાનિ	-8.73466
▁નિ	-8.73914
▁દટ્ઠબ્બં	-8.73961
ચિત્ત	-8.7444
▁નાના	-8.74666
▁સાધુ	-8.74916
▁ઇમેહિ	-8.75133
▁એતે	-8.75632
▁વિના	-8.75968
▁પઞ્ઞત્તં	-8.76033
જ્જ	-8.76585
વણ્ણ	-8.76607
સુત્ત	-8.77206
ેતું	-8.77277
▁ઠાનં	-8.773
▁પહાય	-8.77631
▁પજાનાતિ	-8.77749
▁ઠિતો	-8.77876
▁તાય	-8.78167
ોવ	-8.78235
▁ચેતના	-8.78797
િકો	-8.79262
▁કાલે	-8.79327
▁સઙ્ઘસ્સ	-8.79449
ટ્ઠ	-8.79546
▁વત્તબ્બં	-8.79668
▁પટિસન્ધિક્ખણે	-8.79678
▁દુતિયં	-8.79754
▁ઉદક	-8.79809
▁કિલેસ	-8.79845
ન્તં	-8.80037
▁બહુ	-8.80043
ાયં	-8.80256
મહા	-8.80664
ન્તે	-8.80667
▁ધાતુ	-8.80699
▁યથાભૂતં	-8.81135
▁;	-8.81153
િકં	-8.81203
▁કાયસ્સ	-8.81236
ધાતુ	-8.81816
▁સાસનં	-8.81884
▁યસ્મિં	-8.81925
અત્થિ	-8.81973
પીતિ	-8.8202
▁ચતૂહિ	-8.82187
▁પુબ્બ	-8.82812
▁પચ્ચય	-8.83046
▁ગાથમાહ	-8.83127
▁ગતો	-8.83164
▁દ્વિન્નં	-8.83429
▁તિસ્સો	-8.83462
▁ભાસિતં	-8.83518
▁સાવત્થિયં	-8.83555
આ	-8.83668
▁વત્થું	-8.83711
▁આપજ્જતિ	-8.83773
▁દસ્સેત્વા	-8.83805
૦	-8.83903
▁બુદ્ધં	-8.83958
ટ્ઠો	-8.84019
સઞ્ઞા	-8.84074
▁સત્થુ	-8.84204
▁પુરિમ	-8.84309
▁ઉપસમ્પજ્જ	-8.84402
▁સબ્બેસં	-8.84505
માના	-8.84538
▁વે	-8.84557
▁સદ્ધા	-8.84854
▁ચક્ખુ	-8.84945
▁ભવે	-8.85096
ફલ	-8.8516
પદ	-8.85361
▁કાતું	-8.85664
▁કતમો	-8.85817
ાદિવસેન	-8.85921
િતબ્બં	-8.86419
ેન્તો	-8.86658
▁એતમત્થં	-8.86877
▁આરમ્મણપચ્ચયેન	-8.86914
▁મનો	-8.86965
▁પવત્ત	-8.87011
▁યદા	-8.87531
▁તુમ્હે	-8.87673
▁ઉપપજ્જન્તાનં	-8.87684
▁કતમં	-8.8789
કસ્સ	-8.87976
▁સઙ્ખારા	-8.8798
▁એકા	-8.88046
▁ગહપતિ	-8.88124
▁કારણં	-8.88162
▁તેનેવ	-8.88171
કમ્મં	-8.88251
▁પનેત્થ	-8.88251
▁સીલં	-8.88624
▁મ	-8.89052
ત્થે	-8.89074
સ્સુ	-8.89177
ઞાણ	-8.8919
ૂ	-8.89205
ન્ત	-8.89219
▁અત્ત	-8.89601
અહં	-8.89758
ાનઞ્ચ	-8.89981
દ	-8.90228
િસ્સતિ	-8.90624
▁પાચિત્તિયં	-8.90647
▁એતેન	-8.90786
▁અમ્હાકં	-8.9083
યથા	-8.911
▁તથેવ	-8.91101
▁નિરુજ્ઝતિ	-8.91817
▁નિસિન્નો	-8.92132
▁દુક્કટસ્સ	-8.92244
▁અપિ	-8.92336
સત્ત	-8.92353
▁અવિગતે	-8.92363
▁દેસના	-8.92405
▁ઝાન	-8.92762
▁વત્થુસ્મિં	-8.92813
માન	-8.93135
▁ચતુ	-8.93422
▁કેનચિ	-8.93502
ાપેત્વા	-8.9364
ાની	-8.93678
િયં	-8.93778
મગ્ગ	-8.9397
▁કુસલો	-8.94002
▁અવિજ્જા	-8.94023
▁તીહિ	-8.94232
▁દેવતા	-8.94237
▁આપત્તિયો	-8.9433
પુન	-8.9434
ાહિ	-8.94449
▁કરોન્તિ	-8.94452
▁તિટ્ઠતિ	-8.94711
કેન	-8.95052
મત્તં	-8.95062
ધ	-8.95284
▁મૂલ	-8.95395
▁ઉપનિસ્સયપચ્ચયેન	-8.95525
▁વણ્ણ	-8.95675
▁ચતસ્સો	-8.95827
ક્ખ	-8.96024
▁કતિ	-8.96078
▁નનુ	-8.96167
▁કાલ	-8.96186
▁રૂપાનં	-8.96253
▁સુત્ત	-8.96293
▁તઞ્ચ	-8.96299
▁મનુસ્સા	-8.96381
▁અત્તા	-8.96416
▁બહિદ્ધા	-8.96723
▁લોક	-8.96997
▁તીસુ	-8.97112
કરણ	-8.97124
તેન	-8.97241
નામ	-8.97419
▁પત્તો	-8.9744
▁ચતુન્નં	-8.97607
▁તત્થેવ	-8.97649
▁પુરિસ	-8.97764
▁અરહત્તં	-8.97947
સ્સા	-8.97991
▁સત્તાનં	-8.98164
ટ્ઠાન	-8.98208
▁લોકો	-8.98318
▁પત્વા	-8.98702
▁નિરુજ્ઝિસ્સતિ	-8.98808
▁કાયેન	-8.98852
▁સચ્ચ	-8.98879
▁ભિક્ખુની	-8.98886
▁ઠાને	-8.99054
▁ભાવેતિ	-8.99059
▁તતિયં	-8.99184
▁પઞ્ચહિ	-8.99203
▁સેસ	-8.99349
ાન	-8.99485
▁કત્થ	-8.99725
▁અત્થીતિ	-8.99762
▁ગો	-8.99871
▁લભતિ	-9.00134
▁દટ્ઠબ્બો	-9.00169
દાન	-9.00594
▁સબ્બસો	-9.00739
ૂપ	-9.00741
▁ઉદકં	-9.00951
▁વુત્તનયેનેવ	-9.01021
લક્ખણં	-9.0112
ન્તિઆદિ	-9.01165
ાનુ	-9.01207
▁કપ્પે	-9.01243
▁નિબ્બાન	-9.01465
▁પટિપદા	-9.01556
▁વાચાય	-9.01662
ઇદં	-9.017
▁દાન	-9.01708
▁નિસીદિ	-9.01846
▁ચીવર	-9.0191
▁દ	-9.0194
▁ચતૂસુ	-9.01988
▁ચતુત્થં	-9.02118
▁ઠત્વા	-9.02277
▁દસ્સનેન	-9.02474
▁વિસ્સજ્જના	-9.02566
કાય	-9.02705
▁દેવા	-9.02706
▁યથાવુત્ત	-9.02729
મત્ત	-9.02949
▁કેવલં	-9.03381
ન્તુ	-9.03454
▁એકેન	-9.03459
▁વિસું	-9.0373
કથં	-9.03741
▁પસ્સ	-9.03867
ની	-9.03947
▁નિટ્ઠિતં	-9.04151
▁ખન્ધ	-9.04244
ાનન્તિ	-9.04523
▁ગુણ	-9.0456
▁પાઠો	-9.04872
▁સારિપુત્ત	-9.05085
▁નામં	-9.05148
▁એકતો	-9.05166
▁નત્થીતિ	-9.05191
▁કેન	-9.05336
સમ	-9.05451
િયો	-9.05725
▁ભિક્ખું	-9.05815
▁વુત્તન્તિ	-9.05829
ધમ્મા	-9.05914
▁અગ્ગ	-9.05964
રે	-9.06021
▁સુવણ્ણ	-9.06053
▁કથેસિ	-9.06227
▁ઉપેક્ખા	-9.06298
▁ચપરં	-9.06343
▁તસ્સેવ	-9.06399
યતિ	-9.06493
▁અઞ્ઞત્ર	-9.06668
▁ભાવનાય	-9.06831
▁કતમા	-9.06831
▁આરમ્મણ	-9.06936
▁યથાહ	-9.07056
▁વત્ત	-9.07109
▁અઞ્ઞ	-9.07111
ધમ્મો	-9.07152
કારો	-9.07469
▁ઉપ્પન્નં	-9.07486
પરિ	-9.07542
▁ઇમેસં	-9.07914
યન્તિ	-9.08055
સે	-9.08065
▁રાગો	-9.08504
▁વુત્તત્તા	-9.08953
▁અઞ્ઞો	-9.09045
▁ફસ્સો	-9.09103
▁મનસિ	-9.09139
▁દોસો	-9.09148
ીનં	-9.09295
ેહીતિ	-9.09443
▁આગન્ત્વા	-9.09455
કાર	-9.0965
▁પુપ્ફ	-9.09966
▁અબ્યાકતો	-9.10049
▁કરોન્તો	-9.10201
ીયતિ	-9.10207
▁બહૂ	-9.10243
▁બહિ	-9.10273
▁કાલં	-9.10275
ગ્ગ	-9.10387
▁પરસ્સ	-9.10452
▁વિનય	-9.10614
સઙ્ખાતં	-9.10642
િની	-9.1067
▁પુઞ્ઞ	-9.1074
વચનં	-9.10885
યિ	-9.11194
▁સુતં	-9.11225
▁ચક્ખાયતનં	-9.11345
▁વિપસ્સના	-9.11378
▁ચક્ખુન્દ્રિયં	-9.11686
પટિ	-9.11783
▁ગોતમ	-9.11795
▁દ્વીહિ	-9.11994
▁સદ્દ	-9.12049
▁અબ્યાકતા	-9.12113
સઞ્ઞી	-9.12122
▁પાળિયં	-9.12139
નુ	-9.12172
▁અજ્ઝત્તં	-9.12269
ગુણ	-9.12319
▁તિણ્ણં	-9.12501
▁ચેત્થ	-9.12533
▁અકુસલં	-9.12533
દુક્ખ	-9.1254
▁ઇચ્ચાદિ	-9.12558
▁અત્થિપચ્ચય	-9.12678
સીલ	-9.12728
નન્તિ	-9.12799
ાસિ	-9.12885
▁વદામિ	-9.12885
▁ભવન્તિ	-9.12979
▁ગચ્છન્તિ	-9.13269
▁અદાસિ	-9.13276
રૂપં	-9.13394
▁સેય્યથાપિ	-9.13419
▁અત્થે	-9.13421
વિપાક	-9.13431
▁બ્રહ્મ	-9.1348
સુખ	-9.13543
રો	-9.13681
સદ્દસ્સ	-9.13954
▁અરહતો	-9.13972
▁યદિદં	-9.13995
▁અભિઞ્ઞા	-9.14025
સદ્દ	-9.14046
▁દિટ્ઠ	-9.14083
ળ	-9.14112
પચ્ચય	-9.1423
રાજ	-9.14513
▁દોસ	-9.14689
▁કા	-9.14705
▁ઉપ્પજ્જતીતિ	-9.14788
▁અહેસું	-9.15054
▁ખન્ધં	-9.15335
તસ્સ	-9.15882
▁અયમ્પિ	-9.16138
▁કપ્પ	-9.16237
િસ્સન્તિ	-9.16361
ાહં	-9.16463
▁મરણા	-9.1698
▁દીઘ	-9.17198
▁ય	-9.17373
▁પુરે	-9.17441
▁કસ્સચિ	-9.17486
▁છન્દ	-9.1757
▁સુટ્ઠુ	-9.17722
▁સુત્તં	-9.17807
સિક્ખાપદં	-9.17946
▁કારણ	-9.17975
▁દ્વીસુ	-9.1803
▁સક્કો	-9.18211
▁બોધિસત્તો	-9.18241
▁કાયો	-9.18376
▁ગોતમો	-9.1839
▁વેદનાક્ખન્ધો	-9.18603
▁મજ્ઝે	-9.18607
પઞ્ઞા	-9.18628
▁પઞ્ઞત્તિ	-9.18665
▁સં	-9.18723
▁તયા	-9.18728
પત્ત	-9.18814
▁દિસા	-9.18829
▁ઇન્દ્રિયા	-9.19042
▁મોહો	-9.19163
ાભિ	-9.19195
▁સઙ્ઘ	-9.19249
▁તાસં	-9.19487
▁કમ્મે	-9.19645
▁લોકં	-9.19726
વસેનેવ	-9.19754
કપ્પ	-9.19848
▁પદં	-9.1986
▁સદા	-9.19877
▁કુસલ	-9.19963
▁અત્થતો	-9.19973
▁વિપાકો	-9.20182
મિ	-9.20193
▁માતા	-9.20206
ામ	-9.20287
▁વિજ્જતિ	-9.20333
▁પુત્તો	-9.20396
▁ઉપ્પન્ન	-9.20449
ન્તર	-9.20611
▁હેતુપચ્ચયેન	-9.20704
ભૂતો	-9.20713
▁દુક્ખા	-9.20757
▁વુચ્ચન્તિ	-9.20792
’’’	-9.20847
▁નહેતુપચ્ચયા	-9.21032
જાતકં	-9.21058
માહ	-9.21077
▁લક્ખણ	-9.21079
▁ઉપાદાય	-9.21293
વત્ત	-9.21359
▁સમ્બહુલા	-9.21409
ેય્યું	-9.21574
દેવ	-9.21635
▁સતો	-9.21724
▁નિબ્બત્ત	-9.22277
▁તેનુપસઙ્કમિ	-9.22335
▁વચન	-9.22422
▁પણ્ડિતો	-9.22529
▁આદાય	-9.22633
▁પણમામ્યહં	-9.22651
▁આપત્તિં	-9.22701
▁અવસેસા	-9.22773
▁પાળિ	-9.22844
બલ	-9.22968
▁અજ્જ	-9.23
ઇધ	-9.23017
▁પતિ	-9.23081
▁ગરું	-9.23123
સ્મા	-9.23243
▁સરીર	-9.23259
▁પવત્તિ	-9.23339
▁સમાન	-9.23342
▁પુચ્છિ	-9.23348
▁યેસં	-9.2357
તિપિ	-9.23578
▁એતસ્સ	-9.23697
▁અભાસિ	-9.24142
▁તથાગતસ્સ	-9.24229
ભૂતં	-9.24269
▁કારણેન	-9.24287
▁સરણં	-9.24359
▁આસિ	-9.24402
▁કરેય્ય	-9.24403
નિસ્સય	-9.24428
▁સમ્માદિટ્ઠિ	-9.24437
▁નેસં	-9.24485
▁સર	-9.24576
▁કં	-9.24662
▁ધન	-9.24737
▁જાતો	-9.24786
ભૂતા	-9.24855
ભવ	-9.25047
▁આગત	-9.25091
▁પુગ્ગલસ્સ	-9.25097
ાદિના	-9.25204
▁લદ્ધ	-9.25244
▁દસ્સન	-9.25333
▁જ	-9.25421
▁વિજ્જા	-9.2543
▁અઞ્ઞે	-9.25528
▁ઠિત	-9.25618
▁સચ્ચં	-9.25647
▁કુલ	-9.25732
▁દ્વાદસ	-9.25746
▁ધમ્મદેસનં	-9.25839
મે	-9.25873
▁બલ	-9.25896
ું	-9.25945
જ્ઝ	-9.25995
▁મનુસ્સ	-9.26023
▁સબ્બા	-9.26074
▁ગચ્છ	-9.26107
એક	-9.26115
ચ્ચ	-9.26308
▁અકાસિ	-9.2647
▁ઇ	-9.26474
▁ચિત્તેન	-9.26487
ેત્થ	-9.26502
▁ભેદા	-9.26595
▁નિચ્ચ	-9.26633
▁તદ	-9.26704
▁સન્ત	-9.26787
સબ્બ	-9.26839
▁સોળસ	-9.26861
▁વિઞ્ઞાણ	-9.26927
▁ભવં	-9.27051
▁સઙ્ઘં	-9.27077
ચ્છ	-9.27107
આદિ	-9.2712
▁લબ્ભતિ	-9.27188
▁ગણ	-9.27228
▁સમણો	-9.27297
▁સાસને	-9.27323
▁અઞ્ઞમઞ્ઞં	-9.27635
ભાવે	-9.27635
કિચ્ચ	-9.27692
સચે	-9.27865
નેન	-9.2788
▁પીતિ	-9.27926
▁પાદ	-9.27932
▁સાસન	-9.28071
ેય્યાતિ	-9.28101
▁પુનપ્પુનં	-9.28103
▁એકસ્મિં	-9.28139
▁પરેસં	-9.28247
▁અઙ્ગ	-9.28628
▁ઠિતા	-9.28724
▁પુગ્ગલા	-9.28851
▁માન	-9.28862
▁સક	-9.28879
▁વર	-9.29273
▁પિય	-9.29446
▁અનન્તરપચ્ચયેન	-9.29537
▁ભવેય્ય	-9.29627
▁સન્તિ	-9.29782
નિદ્દેસો	-9.29948
▁વિસેસો	-9.29953
▁ચિત્તસમુટ્ઠાનં	-9.30096
▁હત્થ	-9.30117
▁વિપાક	-9.30425
▁દાનિ	-9.30634
▁પિતા	-9.3072
કર	-9.30737
▁નાગ	-9.31046
▁તતિય	-9.31283
▁દિસ્સતિ	-9.31309
ઞ્ઞ	-9.31524
▁સકલ	-9.31533
કાલ	-9.31541
▁આયસ્મતો	-9.31565
રાજા	-9.31637
▁પઞ્ચન્નં	-9.31643
▁આગતો	-9.3167
પદં	-9.31694
▁એત્થાતિ	-9.31795
▁સન્તિકં	-9.31899
▁અપિચ	-9.32108
ઇતિ	-9.32151
▁દ્વિ	-9.32165
ેતં	-9.32314
▁આયસ્મન્તં	-9.32335
▁હોન્તીતિ	-9.32367
▁મુખ	-9.32554
▁આરમ્મણં	-9.32563
ક્ખણે	-9.32655
▁અનુપ	-9.32657
▁રજ્જં	-9.32714
▁વીરિયં	-9.32739
તોતિ	-9.32808
▁અડ્	-9.32933
▁ઉદપાદિ	-9.33228
▁કત્થચિ	-9.33417
▁સમાનો	-9.33429
▁સક્કોતિ	-9.33479
સીતિ	-9.33571
▁આરોચેસું	-9.33683
▁વિસેસ	-9.33755
▁ગણ્હાતિ	-9.33908
▁અત્થાય	-9.33908
▁ઇન્દ્રિય	-9.3412
જાતકવણ્ણના	-9.34142
પઞ્ચ	-9.34212
▁ભાવના	-9.34229
ચિત્તો	-9.34574
રિ	-9.34632
▁સન્તો	-9.34667
▁પરે	-9.34757
આરમ્મણે	-9.34844
▁હત્થિ	-9.34892
▁માર	-9.34954
▁અરહા	-9.35011
▁દિબ્બ	-9.3524
તત્થ	-9.35557
▁મનસા	-9.35703
િતે	-9.3584
▁ઉદ્ધં	-9.35846
મો	-9.35947
▁ગામ	-9.35972
▁સાર	-9.35988
▁બ્રહ્મચરિયં	-9.36212
લોક	-9.36346
▁ભિક્ખુનિયો	-9.36354
ઉપ	-9.36377
▁પત્તં	-9.36379
▁અગ્ગિ	-9.36392
▁થેરસ્સ	-9.36403
▁પાચિત્તિયસ્સ	-9.36412
▁ચેતસા	-9.36461
▁૧૧	-9.36509
▁પુત્ત	-9.3654
▁જીવિતં	-9.36623
▁એવમાહ	-9.3672
ુપ	-9.36788
▁દુગ્ગતિં	-9.36816
▁અકુસલો	-9.36939
િસ્સામિ	-9.37028
▁વસ્સ	-9.37044
▁કુ	-9.37113
▁ચિત્તસમુટ્ઠાનાન	-9.37155
બુદ્ધ	-9.37498
▁ભવતિ	-9.37518
▁ઉપ્પાદક્ખણે	-9.37565
કુલ	-9.37726
▁નિચ્ચં	-9.3787
લક્ખણ	-9.38004
▁પચ્છિમ	-9.38024
▁જીવ	-9.38228
નવસેન	-9.38305
▁યઞ્ચ	-9.38343
ઉ	-9.38376
▁ગતિ	-9.38463
▁કિસ્મિં	-9.38522
વસ્સ	-9.38562
▁સત	-9.38564
નઞ્ચ	-9.38622
▁સમણ	-9.38638
▁આહરિત્વા	-9.38702
▁પઞ્હં	-9.38942
▁આનન્દો	-9.39132
▁એસા	-9.39137
▁એસો	-9.39213
▁અન્તરા	-9.39232
ન્તેન	-9.39515
ધમ્મં	-9.39561
▁જેતવને	-9.39595
▁વટ્ટ	-9.39758
▁નભાવનાય	-9.39915
▁એકાદસ	-9.39934
▁ગહેતબ્બં	-9.39997
ેસૂતિ	-9.40059
▁સબ્બેપિ	-9.40113
ેથ	-9.40166
▁વચનતો	-9.40298
▁કથા	-9.40373
▁પરમ	-9.40472
▁ભત્ત	-9.40602
▁દુક્ખસ્સ	-9.4061
▁પરિજાનાતિ	-9.40691
▁ખ	-9.4072
▁પકતિ	-9.40763
ભૂત	-9.40768
▁દ્વયં	-9.40847
▁ચતુત્થ	-9.40851
▁વટ્ટતીતિ	-9.40888
મૂલ	-9.40975
તર	-9.41086
▁પુરતો	-9.41209
▁અપ	-9.4134
સાર	-9.41372
▁વુત્તનયેન	-9.41372
▁તન્તિ	-9.41402
ાનમ્પિ	-9.4154
વચન	-9.4155
▁એવરૂપં	-9.4155
▁મરણ	-9.41591
▁ગન્ધ	-9.41613
▁તેરસ	-9.41633
ચિત્તં	-9.41645
▁તુમ્હાકં	-9.41696
▁સિક્ખા	-9.41699
▁એકચ્ચો	-9.41746
યેવાતિ	-9.41746
▁પચ્ચ	-9.41761
▁પુરિમા	-9.41846
▁અસ	-9.41885
મેતં	-9.4196
▁બ્રાહ્મણા	-9.4216
▁તદેવ	-9.42213
▁સુદ્ધ	-9.42301
દિટ્ઠિ	-9.42311
િકાય	-9.42372
▁ઉત્તર	-9.42749
▁દીપેતિ	-9.4292
▁અહુ	-9.43019
▁ભાવો	-9.43031
▁કાયે	-9.43044
મુખ	-9.43061
▁વિહરન્તો	-9.43065
▁અઞ્ઞતરો	-9.43094
▁મનિન્દ્રિયં	-9.43136
▁એત્તાવતા	-9.4325
▁હોતુ	-9.43273
ગતં	-9.43282
▁વન	-9.4334
▁તમ્પિ	-9.43399
સ્સાપિ	-9.43433
સમનન્તરે	-9.43455
સમ્પયુત્ત	-9.43523
▁કિસ્સ	-9.44041
▁દિન્નં	-9.44042
▁સોમનસ્સિન્દ્રિય	-9.44068
વાદ	-9.4409
▁ગતા	-9.44174
ારમ્મણ	-9.44174
મુ	-9.44234
ગ	-9.44376
▁આસવા	-9.44398
રસ	-9.44422
▁પટિઘાનુસય	-9.44499
▁રાગ	-9.44506
▁પિણ્ડાય	-9.44524
▁અનેક	-9.44586
ગત	-9.44836
▁ઇદ્ધિ	-9.44851
▁સમ્મ	-9.44866
▁પથવી	-9.44889
▁ઉભો	-9.44961
▁ઉભય	-9.44974
મસ્સ	-9.45471
સ્મિ	-9.45551
મન	-9.45567
▁મુનિ	-9.4573
▁અધિપતિપચ્ચયેન	-9.45798
િતબ્બ	-9.45834
▁કમ્મસ્સ	-9.45877
▁દીપ	-9.46
▁આપત્તિયા	-9.46048
▁સોપિ	-9.46185
▁સઙ્ખાર	-9.46378
▁રૂપાયતનં	-9.46379
▁પઞ્ચમં	-9.46674
▁પચ્ચુપ્પન્ન	-9.46724
▁કાયં	-9.46735
સમ્પન્નો	-9.46935
▁વાચા	-9.46948
▁લ	-9.46985
▁દ્વાર	-9.47033
ન્તિઆદિના	-9.47124
▁ગહિત	-9.47148
▁ભય	-9.47304
▁ઉત્તમ	-9.47392
મિવ	-9.47404
▁વિપ્પયુત્તપચ્ચય	-9.47447
▁અઞ્ઞથા	-9.47449
▁નુપ્પજ્જતિ	-9.47478
▁ધાતૂહિ	-9.47502
પચ્ચયો	-9.47548
▁દુતિયો	-9.47576
▁અથસ્સ	-9.4758
▁મહન્તં	-9.47581
▁પહાતબ્બો	-9.47588
▁અસ્સાતિ	-9.4769
મં	-9.47709
કિચ્ચં	-9.47759
નય	-9.47767
ચીવર	-9.47788
▁નઅધિપતિયા	-9.47853
▁પવિસિત્વા	-9.47928
▁અટ્ઠકથાયં	-9.48046
▁વસ	-9.4819
▁સમયં	-9.48241
▁મોહ	-9.4825
▁પુઞ્ઞં	-9.48259
▁ભવિસ્સતી	-9.48402
▁ધમ્મેન	-9.48406
▁રુક્ખ	-9.48504
પટિસમ્ભિદા	-9.48531
▁અકુસલ	-9.48562
▁જાતા	-9.48629
▁તમેવ	-9.48683
▁સુખાય	-9.48724
▁વન્દિત્વા	-9.48814
મગ્ગે	-9.48837
ઞ્ચાતિ	-9.48838
ત્થેરો	-9.48854
▁જીવિત	-9.48889
▁વદેય્ય	-9.48892
▁ફસ્સ	-9.48959
▁વુત્તઞ્હેતં	-9.49019
▁પુટ્ઠો	-9.49367
▁અતીત	-9.49403
▁બોધિ	-9.49528
ગચ્છ	-9.4954
રુ	-9.4959
▁રસ	-9.49641
કાલો	-9.49764
મયં	-9.49927
▁પજહતિ	-9.49942
▁બહું	-9.49964
▁હેતૂ	-9.50035
પાદ	-9.50164
▁ઉપ્પત્તિ	-9.50183
▁અતીતં	-9.50184
▁ચવન્તાનં	-9.50191
▁ભઙ્ગક્ખણે	-9.50193
છ	-9.50231
▁દુ	-9.50264
▁નિસીદિત્વા	-9.50265
▁ભિક્ખુનિયા	-9.50329
કામ	-9.50419
▁પધાન	-9.5046
ટ	-9.50476
▁એવઞ્ચ	-9.50604
▁કરોતીતિ	-9.50667
▁મિગ	-9.5068
▁સહસ્સ	-9.50693
ત્વા	-9.50838
▁ઉપ્પાદ	-9.50915
સમ્પત્તિ	-9.50974
▁એકસ્સ	-9.5101
▁અઞ્ઞતરં	-9.51332
▁ધનં	-9.51345
યતો	-9.51353
▁ઇત્થી	-9.51407
▁સુત્તે	-9.51434
▁આગતા	-9.51508
▁૧૨	-9.51578
વારો	-9.5158
▁કતા	-9.51745
ભેદ	-9.51859
▁કુતો	-9.51895
વિસેસ	-9.5195
ીહિ	-9.52023
▁સમ્પયુત્તકાનં	-9.52041
▁વિસ	-9.52042
▁સુત	-9.52148
▁એવમ્પિ	-9.52263
નિદ્દેસવણ્ણના	-9.52273
▁વીરિય	-9.52279
્ય	-9.52297
દોસ	-9.52362
વિપ્પયુત્ત	-9.52414
કરો	-9.52432
▁ભયં	-9.5245
ભિક્ખુ	-9.52501
▁મહાભૂતે	-9.52567
અવિગત	-9.52576
ધમ્મે	-9.5263
▁નામાતિ	-9.52647
કુસલં	-9.52724
સહજાત	-9.52787
▁દિન્ન	-9.52812
▁ભિક્ખૂહિ	-9.52846
▁અઞ્ઞેન	-9.53001
ગતો	-9.53109
▁ઠિતં	-9.53174
▁કમ્મપચ્ચયેન	-9.53177
▁સઙ્ઘેન	-9.53275
▁ધાતુયો	-9.53394
▁નિરુજ્ઝિત્થ	-9.53479
▁એતેસં	-9.53725
▁ખન્ધો	-9.53759
બ્બ	-9.53763
▁પસાદ	-9.53796
▁વજ્જ	-9.53856
પુપ્ફ	-9.53893
▁ચિત્તે	-9.53894
ાકાર	-9.53946
ભૂમિ	-9.53949
▁વિહારં	-9.54063
▁પાદે	-9.54145
િતત્તા	-9.54174
▁ચર	-9.54207
▁નગરં	-9.54371
▁એતરહિ	-9.54398
પર	-9.54438
ગ્ગહણેન	-9.54463
▁પનસ્સ	-9.54475
▁જીવિતિન્દ્રિયં	-9.54632
ાયાતિ	-9.54661
િસ્સામી	-9.54698
▁નોવિગતે	-9.54808
▁કિઞ્ચાપિ	-9.54829
ેય્યં	-9.54859
સહસ્સ	-9.54873
▁કતો	-9.54906
▁અરિયસાવકો	-9.54982
કરણં	-9.55042
પુચ્છા	-9.5512
▁પાચિત્તિય	-9.55282
▁હ	-9.55292
દસ્સનં	-9.55294
ત્વેવ	-9.554
▁યાનિ	-9.55432
▁જન	-9.55442
થા	-9.55458
▁ભાવ	-9.55479
▁અસઞ્ઞસત્તાનં	-9.55531
▁બન્ધ	-9.55548
▁વણ્ણો	-9.55692
અથ	-9.55735
▁અઞ્ઞા	-9.55841
▁છન્નં	-9.55854
▁વિહાર	-9.55972
▁સેનાસનં	-9.56014
▁અભિવાદેત્વા	-9.56064
નયો	-9.56074
જાતિ	-9.56095
દસ્સન	-9.562
▁કાતબ્બં	-9.5642
ીય	-9.56458
▁ભૂમિ	-9.56693
માનં	-9.567
▁ગાથાયો	-9.56705
▁પબ્બજિત્વા	-9.56735
પુબ્બ	-9.56747
મેવાતિ	-9.5695
ત્તય	-9.57038
▁પનેતં	-9.5709
▁સહજાતપચ્ચયેન	-9.57139
▁નવિપ્પયુત્તે	-9.57208
▁પટિવિરતો	-9.57316
વગ્ગ	-9.57436
▁અવિ	-9.57509
▁નિમિત્ત	-9.57563
▁સમુટ્ઠાતિ	-9.57662
▁ચૂળ	-9.57745
ેસુપિ	-9.57805
પી	-9.57808
▁રૂપક્ખન્ધો	-9.57817
▁છિન્ન	-9.57896
ઞાણં	-9.58076
▁સમત્તા	-9.58119
દ્વાર	-9.58187
▁અરિય	-9.58231
▁જાનન્તિ	-9.58248
▁જના	-9.58333
▁તિણ	-9.58498
▁લોકિય	-9.58588
▁કસ્સ	-9.58635
▁ખુદ્દક	-9.58725
▁ભૂત	-9.58733
▁સારિપુત્તો	-9.58768
▁પવત્તતિ	-9.58894
▁વિહારે	-9.58976
▁અઞ્ઞસ્સ	-9.59056
દેસ	-9.59113
હાર	-9.59284
▁સુદં	-9.59312
યસ્સ	-9.59316
ધિ	-9.59335
▁જાત	-9.59354
▁નીલ	-9.59538
▁ગ	-9.59584
વે	-9.59717
▁બ્યઞ્જન	-9.599
▁ભિય્યો	-9.59915
ભય	-9.60037
ભ	-9.60086
વાર	-9.60156
▁ચાપિ	-9.6016
▁વિચિકિચ્છાનુસય	-9.60187
▁આયતિં	-9.60202
▁દુક્ખાય	-9.603
નિમિત્ત	-9.60485
▁વિનિચ્છયો	-9.60552
▁મગ્ગસ્સ	-9.60588
▁ચોર	-9.60612
દાનં	-9.60677
તાતિ	-9.60757
▁કાલેન	-9.60798
▁અબ્યાકતં	-9.60799
▁અટ્ઠારસ	-9.60813
▁કામરાગાનુસયો	-9.61015
▁નિરોધ	-9.61023
▁દેવાનં	-9.6111
▁પવત્તે	-9.61196
કાનં	-9.61211
▁ર	-9.6132
▁મણિ	-9.61417
હત્થ	-9.6149
▁આહારે	-9.61496
▁અભાવતો	-9.61501
▁વેદનં	-9.61503
▁સમ્પજાનો	-9.61531
વિહાર	-9.61565
▁કતે	-9.61567
▁તત્થાતિ	-9.61575
▁ગાથાય	-9.61686
▁પિતુ	-9.61689
નીય	-9.61777
ભો	-9.61858
પઞ્ઞત્તિ	-9.6197
▁તુય્હં	-9.61993
▁લોકસ્સ	-9.62194
▁રૂપસ્સ	-9.62285
▁પુરિસસ્સ	-9.62295
ુપ્પત્તિ	-9.62407
પચ્છાજાતે	-9.62454
▁નાગસેન	-9.62816
▁ઇત્થિ	-9.62842
▁અસતિ	-9.62848
વર	-9.62889
▁ચિન્તેત્વા	-9.62903
ગમન	-9.62912
▁વીસતિ	-9.62934
▁વિપાકં	-9.6294
▁પટિસન્ધિ	-9.63158
▁આહાર	-9.63308
સમાધિ	-9.63317
ાહ	-9.63363
▁રાજાનં	-9.63413
ાપેતિ	-9.63582
કારણ	-9.63601
સૂતિ	-9.63608
▁હેતું	-9.63749
મિદં	-9.6377
સાધુ	-9.63842
▁દિવા	-9.63976
મય	-9.64233
▁કામે	-9.64235
▁ઉપ્પન્ના	-9.64274
સન્તિ	-9.64299
▁નેવદસ્સનેન	-9.6431
મત્તમેવ	-9.64362
ભત્ત	-9.64372
▁૧૩	-9.64424
સુખં	-9.64447
▁કથ	-9.64462
▁વિતક્કો	-9.64465
▁અટ્ઠાસિ	-9.64547
▁એ	-9.64586
▁વટ્ટતી	-9.64592
▁યક્ખ	-9.64699
▁વિતક્ક	-9.64817
▁આકાસે	-9.6488
▁કામરાગાનુસય	-9.64973
▁અધિ	-9.65016
▁ઠાનેસુ	-9.65036
દ્ધ	-9.65062
કિરિયા	-9.65082
પુઞ્ઞ	-9.65114
▁સીહ	-9.6518
લ્લ	-9.65213
આદયો	-9.65297
▁સેય્યથિદં	-9.65363
ન્ન	-9.65383
ત્થા	-9.65463
હેતુયા	-9.65527
▁લોભ	-9.65602
▁પઠમો	-9.65646
▁ઉપ્પજ્જિસ્સતીતિ	-9.6572
▁ખન્ધેહિ	-9.6573
▁બલવ	-9.65742
▁ધમ્માયતનં	-9.65791
નત્થાય	-9.65826
▁દુતિયે	-9.65977
▁અરિયા	-9.65991
બન્ધ	-9.65992
▁ઉત્તરિ	-9.66044
▁પુચ્છતિ	-9.66052
દા	-9.66116
▁પટિપન્નો	-9.66159
▁અય	-9.66166
▁ઞાણેન	-9.66213
▁દિવસે	-9.66246
▁કર	-9.66428
▁ચન્દ	-9.66456
▁પટિઘાનુસયો	-9.66512
િત્થ	-9.66521
▁પવત્તા	-9.66532
▁સભાવ	-9.66722
▁અના	-9.66912
▁યુત્ત	-9.66929
▁અધિવચનં	-9.6697
▁એતદહોસિ	-9.67002
ેતબ્બં	-9.67142
▁ગરુ	-9.67169
ચિત્તસ્સ	-9.67212
▁પુથુ	-9.67243
વારે	-9.67252
▁અઙ્ગાનિ	-9.67343
▁દણ્ડ	-9.67357
▁ગણ્હ	-9.67358
પચ્ચ	-9.6739
વટ્ટ	-9.67421
ગો	-9.67475
ગ્ગહણ	-9.67492
▁પણ્ડિતા	-9.67524
▁નઆસેવને	-9.6764
▁અકત્વા	-9.67717
▁મગ્ગે	-9.67745
પુત્ત	-9.67753
▁સુભ	-9.67783
રતન	-9.67853
વુત્તિ	-9.67939
ભન્તે	-9.6798
▁નિસ્સગ્ગિયં	-9.67995
▁ઇત્થં	-9.68148
▁રે	-9.68152
▁પાપં	-9.68183
▁ખણ	-9.68209
▁નિબ્બત્તિ	-9.6822
▁ઘટ	-9.68232
▁આસવાનં	-9.68274
▁નપુરેજાતે	-9.68285
▁૧૪	-9.68295
તરો	-9.68358
▁સગ્ગ	-9.68447
▁જિન	-9.68534
▁ગત	-9.68582
▁પદુમ	-9.68641
સદિસ	-9.68643
▁વિચિકિચ્છા	-9.68662
ન્દ	-9.68822
▁મહ	-9.68943
ેહી	-9.68948
▁કામાવચર	-9.68962
▁પહીના	-9.69081
▁સચ્ચાનિ	-9.69198
▁કિચ્ચ	-9.69217
▁નકમ્મે	-9.69236
કત	-9.69252
▁ભિન્ન	-9.6932
▁ચક્ખું	-9.69368
▁કેસ	-9.69447
સુત્તાદિવણ્ણના	-9.69449
▁સઙ્ઘે	-9.69464
▁સઙ્ગહિતા	-9.69556
▁બોજ્ઝઙ્ગા	-9.69563
▁અધિપતિયા	-9.69623
▁બાલ	-9.69758
કુસલો	-9.69761
▁વેદ	-9.69821
મન્ત	-9.69844
▁દિટ્ઠિયા	-9.69863
▁જાતિયા	-9.69879
▁કરિત્વા	-9.69913
▁પાપુણાતિ	-9.69932
▁નિક્ખમિત્વા	-9.69939
યિત્વા	-9.6995
▁બાલો	-9.69992
સદિસં	-9.70039
▁સતં	-9.70048
▁વત્તું	-9.70054
▁સેટ્ઠ	-9.7015
નિમિત્તં	-9.70173
▁સમ્પયુત્તા	-9.70296
રં	-9.70313
▁સમ્માસમ્બુદ્ધ	-9.70321
▁ઉપનિસ્સાય	-9.70366
જ્ઝાન	-9.70384
કથઞ્ચ	-9.70454
▁પઞ્ચસુ	-9.7047
▁ચેતસો	-9.70483
▁પુરિસિન્દ્રિયં	-9.70498
▁તણ્હાય	-9.70503
▁કિલેસા	-9.7051
સર	-9.70519
▁પઞ્ઞાયતિ	-9.70536
▁પકતૂપનિસ્સયો	-9.70628
▁પહાનાય	-9.70656
કન્તિ	-9.70684
▁લોકુત્તર	-9.7073
ાદિતો	-9.70759
▁અનિદસ્સનઅપ્પટિઘ	-9.70763
નિદ્દેસે	-9.70767
▁અયમેવ	-9.70782
હીતિ	-9.70882
▁સત્તમં	-9.70904
તદા	-9.70929
તોપિ	-9.70994
▁મિચ્છા	-9.71124
▁આચરિય	-9.71124
▁ભાસ	-9.71156
▁આમન્તેસિ	-9.71293
▁તમ	-9.71325
▁રતન	-9.71329
▁અનુલોમ	-9.71495
▁અલં	-9.71524
▁નવિપાકે	-9.71568
કિલેસ	-9.71573
▁છટ્ઠં	-9.71609
▁ગમન	-9.71656
વસેનાતિ	-9.71829
જા	-9.71871
▁યોજેતબ્બં	-9.71879
▁અગમાસિ	-9.71966
અત્થ	-9.72041
▁જિનો	-9.72111
▁પુગ્ગલ	-9.72167
▁તાત	-9.72237
▁કદાચિ	-9.72279
▁સીસ	-9.72438
ઇમે	-9.72537
▁હી	-9.72552
▁તસ્સત્થો	-9.72639
▁અનિચ્ચતો	-9.72684
▁ચરતિ	-9.72688
▁અધિટ્ઠાન	-9.72779
▁ઉપાલિ	-9.7279
▁તમત્થં	-9.72929
ગન્ધ	-9.73176
વગ્ગવણ્ણના	-9.73178
▁સમન્તતો	-9.73318
ત્તે	-9.73339
▁અસઙ્ગહિતા	-9.73471
▁ખાદ	-9.73493
▁તતિયો	-9.73498
▁અતિવિય	-9.73579
▁ચિન્તેસિ	-9.7358
▁ઉપ્પન્નો	-9.73632
▁સિ	-9.73633
▁જાતં	-9.73647
▁બુદ્ધાનં	-9.73697
▁પરો	-9.73738
▁ચક્કવત્તી	-9.73843
અનુજાનામિ	-9.73859
▁નાભિજાનામિ	-9.73983
▁હેતુસ્સ	-9.74052
ણં	-9.74065
સહસ્સાનિ	-9.74073
ાદિકે	-9.74092
તતો	-9.74098
ેનપિ	-9.74109
▁ઉપેક્ખિન્દ્રિયં	-9.74202
▁ઇમાય	-9.74251
▁સીત	-9.74277
▁પુચ્છિત્વા	-9.74329
▁ગચ્છતીતિ	-9.74391
▁પહાન	-9.7441
▁સબ્બો	-9.74463
▁પચ	-9.74583
▁તથ	-9.7467
▁નિમિત્તં	-9.7473
▁પરિપુણ્ણ	-9.74803
રા	-9.74862
ખ	-9.74932
મનો	-9.74962
ગામ	-9.75026
▁ખણે	-9.75049
▁નિટ્ઠિતો	-9.75089
▁ચેતં	-9.75126
ાપન	-9.75158
▁વત્થ	-9.75269
▁અટ્ઠમં	-9.7529
▁એત્થાપિ	-9.7534
પસ્સ	-9.75402
▁અનુસયા	-9.75404
વત્થ	-9.7543
મલ	-9.75436
કુસલ	-9.75443
ારમ્મણં	-9.75548
▁પચ્છિમાનં	-9.7557
▁૧૫	-9.75699
ય્ય	-9.75711
ગ્ગહણં	-9.75726
▁ઠાન	-9.75752
સૂ	-9.75794
▁સયમેવ	-9.75869
તૂ	-9.75949
▁સહજાત	-9.75968
ઞ્ઞેવ	-9.75987
ામી	-9.76012
▁અયમેત્થ	-9.76035
ચ્ચાદિ	-9.76078
▁થ	-9.76139
▁ભાસતિ	-9.76284
નત્થં	-9.76284
▁યોનિસો	-9.76474
▁અતિરેક	-9.76612
▁ગહિતા	-9.76737
િતબ્બો	-9.76767
▁મહન્ત	-9.76768
ાદિકં	-9.76791
▁મન્ત	-9.76868
ઓ	-9.76918
ક્ખન્ધ	-9.76975
વાદી	-9.77122
મત્તેન	-9.77133
▁દેસેતિ	-9.77133
મ્હ	-9.77159
▁પબ્બજિતો	-9.77175
મત્તે	-9.77178
દં	-9.77194
▁૬૭	-9.77299
▁સઞ્ઞાક્ખન્ધો	-9.77351
▁ગામં	-9.77364
વિઞ્ઞાણ	-9.77637
▁કિલેસે	-9.77638
▁ઇધેકચ્ચો	-9.77641
વન	-9.7771
▁આયુ	-9.77741
▁વુત્તાનિ	-9.77746
▁કથઞ્ચ	-9.77756
▁તઞ્હિ	-9.77785
▁૫૯	-9.77805
▁સત્થારં	-9.77806
▁અનાગત	-9.77809
▁વાચં	-9.77824
▁સમં	-9.77859
ભાવના	-9.78013
લક્ખણા	-9.78021
▁નન્દ	-9.7805
નટ્ઠેન	-9.78105
▁પઞ્ઞિન્દ્રિયં	-9.78132
▁નિસ્સય	-9.78158
▁મિચ્છાદિટ્ઠિ	-9.78161
▁મહાસત્તો	-9.78176
▁સરીરં	-9.78202
ત્થિ	-9.78321
ત્ય	-9.78321
▁૨૨	-9.78334
બ્ય	-9.78346
▁અત્તનિ	-9.78355
પ્	-9.78369
▁નદી	-9.78374
▁લભિત્વા	-9.78412
ાનેવ	-9.78443
▁મનાયતનં	-9.7854
ેયેવ	-9.78551
દસ	-9.78562
▁ઇદમ્પિ	-9.78618
સમ્પત્તિયા	-9.78802
▁૧૬	-9.78803
વાતિ	-9.78817
▁ઞાતિ	-9.78823
પ્પત્તો	-9.7886
▁ઘાનિન્દ્રિયં	-9.78868
▁અવોચ	-9.78886
▁પરતો	-9.7889
▁મરણં	-9.78893
▁ભોજનં	-9.78911
▁પહીનો	-9.78927
▁ઉપલબ્ભતિ	-9.78928
▁લિઙ્ગ	-9.79059
નત્થિયા	-9.79166
▁પુચ્છ	-9.79175
▁ભુઞ્જ	-9.7936
▁કાયસઙ્ખારો	-9.79391
▁અરઞ્ઞે	-9.79396
▁મજ્ઝિમ	-9.7945
પણ્ણ	-9.79562
નક	-9.79593
▁દોમનસ્સં	-9.79602
▁તિંસ	-9.79609
ન્તિઆદીસુ	-9.79679
▁મધુર	-9.79688
મંસ	-9.79708
▁વિત્થારેન	-9.79731
▁સત્તરસ	-9.79738
▁વણ્ણં	-9.79745
▁ભરિયા	-9.79812
▁છન્દો	-9.79833
▁અક્ખ	-9.79858
▁ઉતુ	-9.79883
▁મનુસ્સાનં	-9.799
ાપત્તિ	-9.79945
▁હીન	-9.80022
▁પબ્બત	-9.80142
સઙ્ઘ	-9.80212
▁આહારો	-9.80265
ાભાવતો	-9.80336
▁તસ્સુદ્દાનં	-9.80338
▁એતસ્મિં	-9.80394
▁સદ્દં	-9.80441
▁પહાતબ્બહેતુકો	-9.80489
▁૫૬	-9.80499
▁પુઞ્ઞાનિ	-9.80546
▁ઇત્થિન્દ્રિયં	-9.80601
▁આવિ	-9.80634
▁રોગ	-9.80638
▁દટ્ઠબ્બા	-9.80661
નત્થિ	-9.80697
સેય્યથાપિ	-9.80705
▁ચક્ખુના	-9.80721
▁જાતકં	-9.80727
રત્ત	-9.80744
▁હર	-9.80841
▁સંવત્તતિ	-9.80842
▁દિટ્ઠેવ	-9.80879
▁સમુદયો	-9.80902
સઙ્ખાત	-9.80939
▁એતેનાતિ	-9.81008
▁ગહણ	-9.81103
▁ભત્તં	-9.8111
▁દસમં	-9.81212
▁વત્તબ્બા	-9.81296
ઘ	-9.81312
▁પવિસ	-9.81355
સમુટ્ઠાન	-9.81424
▁સદ્ધિન્દ્રિયં	-9.81467
દ્વયં	-9.81577
▁ગમ	-9.81594
▁વત્તબ્બો	-9.81603
▁નિરોધો	-9.8163
કારણં	-9.81669
ેતબ્બ	-9.81714
▁ક્વચિ	-9.81722
▁રૂપાનિ	-9.81778
ઘાત	-9.81792
▁કસ્સપ	-9.81851
▁અપ્પટિ	-9.81863
▁યાય	-9.81894
▁રત્તિ	-9.81935
મગ્ગો	-9.81961
ેમિ	-9.82025
▁અવિજ્જાનુસય	-9.82072
▁કામા	-9.82079
લિઙ્ગ	-9.82099
▁મેત્તા	-9.82102
▁ઇમેસુ	-9.82192
સચ્ચ	-9.82213
ાદીસુપિ	-9.82225
▁પાણ	-9.82284
▁વસ્સાનિ	-9.82291
▁દસ્સ	-9.82329
▁રક્ખ	-9.82422
▁મુત્ત	-9.8247
▁ઉપ્પજ્જિત્થાતિ	-9.82571
▁પરિત્ત	-9.82665
▁વુ	-9.82693
ીયતીતિ	-9.827
▁બીજ	-9.8271
ગણ	-9.82756
▁અઞ્ઞત્થ	-9.82776
▁રમ	-9.82824
તરં	-9.82825
▁કામેહિ	-9.82964
ટ્ઠં	-9.83011
▁બુદ્ધા	-9.83022
▁વિગત	-9.83049
નેવ	-9.83062
▁ગન્થ	-9.83101
▁અઞ્ઞમઞ્ઞ	-9.83105
▁સુચિ	-9.83205
▁અમત	-9.83242
▁ઓભાસ	-9.83262
▁ઇતરેસં	-9.83321
નાતિ	-9.8337
▁અન્ત	-9.83402
ાપેસિ	-9.83466
▁વેદનાસુ	-9.83489
દુકં	-9.83514
કારસ્સ	-9.83603
મહ	-9.83634
વજ્જ	-9.8365
▁સહજાતં	-9.83662
▁અહમેવ	-9.8367
મુખેન	-9.8384
▁રથ	-9.83906
▁દાતબ્બં	-9.83913
▁૧૭	-9.8401
▁પઠમે	-9.84018
▁બ્રાહ્મણસ્સ	-9.84049
તું	-9.84052
▁તહિં	-9.84169
▁સિક્ખાપદં	-9.84184
▁સમ્માસમ્બુદ્ધો	-9.84399
▁વિત્થારતો	-9.84533
▁કતિહિ	-9.84543
િસ્સ	-9.84572
▁યાચ	-9.847
▁પુગ્ગલં	-9.84715
▁વિદિત્વા	-9.84748
▁૬૮	-9.84818
▁કમ્મેન	-9.84835
▁ભવો	-9.84969
▁નવમં	-9.84974
▁૫૭	-9.84975
▁પકાસ	-9.84989
▁રૂપે	-9.85004
▁રત્તિં	-9.85035
ાસુ	-9.85041
ાકારેન	-9.85043
▁ગાથં	-9.85052
▁મુખં	-9.85085
▁કોધ	-9.851
મી	-9.85119
▁ઉદાહુ	-9.85223
▁કાલો	-9.85398
કતમેહિ	-9.85491
જન	-9.85513
▁યથારહં	-9.85529
▁દુક્કટ	-9.85548
સઞ્ઞાય	-9.85571
સહ	-9.85572
▁તિસ્સ	-9.85603
▁તુવં	-9.85668
▁એવમાદિના	-9.85756
▁આગમ	-9.85758
▁અનન્તરે	-9.85763
▁પકાસેન્તો	-9.85769
▁કતમાનિ	-9.85779
▁અપરભાગે	-9.85845
કારી	-9.85856
▁કાળ	-9.85864
સતિ	-9.85907
યોગ	-9.85929
માસ	-9.85937
▁પયોગે	-9.8597
▁૭૦	-9.85979
૧૦	-9.8598
▁સેસા	-9.86009
▁મંસ	-9.86013
▁વિયાતિ	-9.86034
▁કમ્મટ્ઠાન	-9.86043
▁અનુસાસ	-9.86079
ઇમં	-9.86132
▁સચ્ચિકટ્ઠપરમત્થ	-9.86141
▁નિબ્બત્તો	-9.86167
સત	-9.8617
રાગ	-9.86217
▁સમણબ્રાહ્મણા	-9.86232
ત્થેરસ્સ	-9.86235
▁માનાનુસયો	-9.86295
▁કામધાતુયા	-9.86323
▁અરિયો	-9.864
લોપો	-9.86447
▁વિવેક	-9.86468
▁રાજગહે	-9.86531
▁વચીસઙ્ખારો	-9.86591
ચિત્તસમુટ્ઠાનઞ્ચ	-9.86655
▁એવઞ્હિ	-9.86668
▁વિપસ્સનં	-9.8677
▁પાસાણ	-9.86776
▁આગમ્મ	-9.86922
▁આરમ્મણાધિપતિ	-9.86925
ક્કમ	-9.8693
હા	-9.86946
ચક્ખુ	-9.87017
▁સમ્મુખા	-9.87023
▁જલ	-9.87069
▁દેવો	-9.87077
▁સઞ્ઞોજન	-9.87108
▁માતુ	-9.87112
ચેતના	-9.87144
બન્ધન	-9.8715
▁વિપાકે	-9.87186
▁સુખા	-9.87209
▁નસમ્પયુત્તે	-9.87236
સતાનિ	-9.87275
ેતી	-9.87289
▁પારાજિકં	-9.8732
▁અમ્બ	-9.87328
વેદના	-9.8747
▁દેસ	-9.87489
▁નિર	-9.87536
▁અરઞ્ઞ	-9.87556
▁પરિદેવ	-9.87579
બ્ભ	-9.87587
વો	-9.8763
▁યેભુય્યેન	-9.87683
▁હિત	-9.87719
▁એવાતિ	-9.87734
વણ્ણં	-9.87942
▁દિસ્વાન	-9.87963
▁સંવર	-9.87997
▁સેસમેત્થ	-9.88013
ેના	-9.88029
▁સોમનસ્સ	-9.8806
▁ગરહ	-9.8818
▁દૂરે	-9.88196
ન્તાનં	-9.88211
▁સમથ	-9.8822
▁કમ્મટ્ઠાનં	-9.88266
▁આહર	-9.88339
કાનિ	-9.88404
▁અસંકિલિટ્ઠ	-9.88439
▁કે	-9.8845
ાયતન	-9.88569
▁અનન્તર	-9.88692
▁તુણ્હી	-9.88715
▁કપ્પિય	-9.88743
▁મઙ્ગલ	-9.88749
ભાસ	-9.88785
સભાવ	-9.88788
▁સઞ્ઞાય	-9.88939
▁૧૮	-9.89099
▁એકાય	-9.89141
▁અપર	-9.89178
ામીતિ	-9.89216
▁એકન્ત	-9.89258
▁પુત્તં	-9.89276
મઞ્ઞ	-9.89359
કિલેસા	-9.89425
▁કરુણા	-9.89462
▁સદ્ધાય	-9.8948
▁૬૫	-9.89504
▁કિરિયા	-9.89524
▁ઉદ	-9.89525
▁ગહણં	-9.89542
▁પન્નરસ	-9.89551
▁મધુ	-9.89562
▁વત્તતિ	-9.89579
▁નગર	-9.89583
▁મુસા	-9.89588
▁યથાક્કમં	-9.89589
▁એતેસુ	-9.89616
ગતિ	-9.89638
▁ગિહિ	-9.8964
▁ઉપોસથ	-9.89713
▁યુજ્જતિ	-9.89722
દુક	-9.89817
▁કુસલસ્સ	-9.89817
▁સેત	-9.89818
સીસ	-9.89842
▁અભાસિત્થાતિ	-9.89909
▁૬૧	-9.89937
▁અન્તમસો	-9.89974
સ્સિદં	-9.90002
સમ્પદા	-9.90067
સુણાતુ	-9.90068
▁૭૫	-9.90081
▁૬૯	-9.90128
લોમ	-9.90154
▁૧૯	-9.90298
▁અકપ્પિય	-9.904
▁સઙ્ગણ્હાતિ	-9.90442
ધા	-9.90498
▁કુલે	-9.90518
▁૮૦	-9.90525
▁વદ	-9.90536
▁સમ્પ	-9.90566
▁કથિતં	-9.90588
▁દળ્હ	-9.90651
▁લોકસ્મિં	-9.90656
▁ઠપિત	-9.90657
▁ગચ્છેય્ય	-9.90667
▁પારાજિક	-9.90706
▁ભિક્ખુસ્સ	-9.90747
▁અતીતે	-9.90769
તણ્હા	-9.90771
▁લોભો	-9.90784
▁રત્ત	-9.9082
▁૭૪	-9.90825
▁તર	-9.90902
યુત્ત	-9.90903
▁સાવક	-9.90913
ભોગ	-9.90919
રાસિ	-9.90921
▁અનવજ્જ	-9.91001
▁પુરેજાતપચ્ચયેન	-9.91082
▁ગચ્છન્તો	-9.911
▁અરૂપ	-9.91211
▁એવમેતં	-9.9127
▁૫૫	-9.91282
▁દુક્ખસચ્ચં	-9.91347
▁સમા	-9.91423
ધમ્માનં	-9.91463
ેય્યા	-9.91533
▁સાધારણ	-9.91553
▁કથિતા	-9.91558
▁સમ્પયુત્તો	-9.91564
▁અજ	-9.91615
▁જરા	-9.91674
▁૫૮	-9.91681
ાધિપતિ	-9.91698
કુ	-9.91702
મયા	-9.91751
સતં	-9.9184
▁કેહિચિ	-9.91843
▁સરણ	-9.91846
દ્વય	-9.91852
િસ્સતી	-9.91859
▁૨૦	-9.91924
▁વચ્છ	-9.91968
▁સદ્દો	-9.92015
ગ્ગાહ	-9.92075
સઙ્ખાતા	-9.92192
▁નિરયં	-9.92222
પુગ્ગલ	-9.92294
▁ઘાનાયતનં	-9.92334
▁વાપિ	-9.92343
▁નરો	-9.92382
ચિ	-9.92389
▁હત્થે	-9.92427
અનુ	-9.92428
દેસના	-9.92441
▁પૂરેત્વા	-9.92534
▁રૂપધાતુયા	-9.92535
▁મગ્ગેન	-9.9267
રતો	-9.92705
▁તતિયે	-9.92726
▁ઇન્દ્રિયં	-9.92727
▁અકત	-9.9289
▁૭૩	-9.92926
▁એકચ્ચે	-9.92998
▁મન	-9.93057
▁પબ્બજ્જા	-9.93171
▁સહજાતા	-9.93183
▁૬૦	-9.93231
આદીનં	-9.93356
▁આયતન	-9.934
▁પટિજાનાતિ	-9.93414
▁નામરૂપ	-9.93421
કોટિ	-9.93427
▁૨૧	-9.93439
▁નિવત્ત	-9.93487
▁દન્ત	-9.93493
▁દ્વિધા	-9.93501
▁૭૬	-9.93593
▁સમ્માસમાધિ	-9.93666
▁નય	-9.93711
▁વન્દ	-9.93781
▁વિઞ્ઞાણક્ખન્ધો	-9.93795
▁નુપ્પજ્જિસ્સતિ	-9.93821
▁જાયતિ	-9.93835
▁હન	-9.93927
▁અક્કોસ	-9.93951
▁અધો	-9.93981
▁અઞ્ઞેસં	-9.94027
▁સમન્તા	-9.94065
▁પટિપક્ખ	-9.94079
િતુકામો	-9.94109
રી	-9.94221
▁ભ	-9.9426
▁યેહિ	-9.94311
ભેદો	-9.9432
વિધ	-9.94326
▁સામઞ્ઞ	-9.94455
▁વિપ્પયુત્તા	-9.94509
▁ઇમિસ્સા	-9.94563
▁ઇરિયાપથ	-9.94607
▁પરિચ્છેદો	-9.94671
કેહિ	-9.94688
▁સેય્યો	-9.94813
▁અરહં	-9.94823
અવિતક્કવિચારમત્ત	-9.94843
▁વિહરામિ	-9.94855
જાત	-9.94868
વિસય	-9.949
પુરિસ	-9.94901
▁મિત્ત	-9.95004
▁ઉદકે	-9.95014
▁જાનામિ	-9.95021
▁મુઞ્ચ	-9.95043
▁હેતુપચ્ચયો	-9.95053
▁તેપિ	-9.9509
▁હદય	-9.95208
ાર	-9.95252
લા	-9.95316
▁નિરય	-9.95325
▁નઉપનિસ્સયે	-9.95328
▁અનન્ત	-9.95367
▁તેનેવાહ	-9.9542
દો	-9.95512
▁૨૩	-9.9552
▁એતસ્સાતિ	-9.95602
▁કસિણ	-9.95606
▁પૂર	-9.95639
▁ભાવિતા	-9.95639
▁૭૯	-9.95643
▁સઙ્ખારક્ખન્ધો	-9.95669
પા	-9.9568
▁૮૬	-9.95721
વિસેસો	-9.95776
▁પરિયાયેન	-9.95782
હી	-9.95817
▁હઞ્ચિ	-9.95834
▁ઉપનિસ્સયે	-9.95851
▁ચુદ્દસ	-9.95882
▁વિકપ્પ	-9.95973
▁૭૮	-9.95979
ગ્ઘ	-9.9608
▁અધિપ્પેતો	-9.96114
▁સન્તે	-9.96118
▁સઙ્ખારે	-9.96137
ક્ક	-9.96148
▁દાતું	-9.9615
▁અનિચ્ચં	-9.9617
▁માતાપિતરો	-9.96174
▁ગહિતં	-9.96194
▁લોહિત	-9.96198
વણ્ણો	-9.96235
▁સઙ્ગહો	-9.96264
િના	-9.96321
હિત	-9.96338
સેસ	-9.96382
▁સીસં	-9.96483
▁કાતબ્બો	-9.96505
▁પચ્છિમભવિકાનં	-9.96526
▁ખત્તિય	-9.96542
ભાગ	-9.96609
▁એકે	-9.96631
▁અનત્થ	-9.96688
▁અપાય	-9.96715
▁નેક્ખમ્મ	-9.96717
દુ	-9.96762
▁બાહિરં	-9.96767
▁સમન્નાગતા	-9.96834
જો	-9.96852
▁સબ્બાનિ	-9.96871
▁મન્દ	-9.96952
▁દુસ્સ	-9.96969
લક્ખણો	-9.96979
▁કરણ	-9.97022
▁૬૬	-9.97044
▁ઝાને	-9.97055
ગતા	-9.97086
▁સહજાતે	-9.97125
નઝાને	-9.972
▁મઞ્ઞે	-9.97223
▁તિટ્ઠન્તિ	-9.97287
▁૯૦	-9.97316
▁લભ	-9.97321
▁પિવ	-9.97348
ભણ્ડ	-9.97476
▁જાલ	-9.97477
▁પરિપૂર	-9.97515
રુક્ખ	-9.97523
▁૮૩	-9.97548
▁છબ્બગ્ગિયા	-9.9755
▁ઇત્થન્નામ	-9.97581
▁૨૪	-9.97598
મ્પીતિ	-9.976
▁ભોગ	-9.97648
▁એવરૂપો	-9.9765
તિઆદીનિ	-9.97685
નયેન	-9.9776
સમયે	-9.9781
ન્તિયા	-9.97845
▁એકેક	-9.97856
વીરિય	-9.97868
▁ભણ	-9.97874
▁દસ્સનં	-9.97891
▁અત્થસ્સ	-9.97897
સદિસો	-9.97956
▁કામેસુ	-9.97972
▁નિસ્સયે	-9.98
▁સંસાર	-9.98031
▁પણ્ડિત	-9.98038
જાન	-9.98057
▁એવમેત્થ	-9.98109
▁અનુત્તરં	-9.98117
પ્પવત્તિ	-9.98122
▁સત્તો	-9.98122
વિસ	-9.98125
▁કિ	-9.98129
▁લાભ	-9.98177
▁અરૂપધાતુયા	-9.98247
▁અધિકરણં	-9.98247
▁વિમુત્તિ	-9.98285
▁પદાનિ	-9.98334
પઞ્હો	-9.98376
▁વચનેન	-9.98406
▁ઇદઞ્ચ	-9.98462
▁વિચિકિચ્છાનુસયો	-9.98493
ફલં	-9.98549
ુડ્	-9.98646
▁અસ્સાદ	-9.98673
અભિ	-9.98681
▁આરમ્મણપચ્ચયા	-9.98682
▁અભિઞ્ઞાય	-9.98717
▁દિટ્ઠં	-9.98822
▁વિહરન્તિ	-9.98836
▁સત્તે	-9.98847
▁નાસ	-9.98869
▁નેતં	-9.98928
▁ઉપાદાન	-9.9895
▁તક્ક	-9.98996
▁નિરયે	-9.99058
▁એવમસ્સ	-9.99059
▁સિયાતિ	-9.99101
▁સમુદયસચ્ચં	-9.99105
મણિ	-9.99286
▁સુગતો	-9.99402
દસ્સનત્થં	-9.9942
ેક	-9.99555
▁૨૫	-9.9962
▁સઙ્ગહ	-9.99623
વતી	-9.99639
▁મુદુ	-9.99646
ગા	-9.99649
▁ભવિસ્સન્તિ	-9.99675
▁ઇતર	-9.99748
▁પરિયાય	-9.99748
▁પનાવુસો	-9.99826
▁વગ્ગ	-9.99851
▁દાતબ્બો	-10.0001
▁ઉદ્દિસ્સ	-10.0001
અનન્તરે	-10.0002
ણિ	-10.0002
▁૮૮	-10.0011
ભોજન	-10.0012
તન્તિ	-10.0013
ચિત્તા	-10.0017
▁અભિનન્દતિ	-10.0024
▁પહાતબ્બં	-10.0026
▁છસુ	-10.0034
કતા	-10.0037
▁ઉદ્દેસ	-10.0038
▁ચિત્તસઙ્ખારો	-10.0039
▁કરોન્તસ્સ	-10.004
▁બાહિર	-10.005
▁અદ્ધા	-10.0053
▁પમાણં	-10.0053
▁વિભજિત્વા	-10.0057
સઞ્ઞ	-10.006
▁૨૬	-10.0074
▁પુરેજાતં	-10.0081
▁૮૪	-10.0083
▁ભજ	-10.0089
▁વિવર	-10.009
▁નૂન	-10.0092
▁અધિપતિ	-10.0101
▁પરિસા	-10.0108
▁આગતં	-10.0109
સુત્તે	-10.011
ન્તિપિ	-10.0115
▁તંતં	-10.0119
▁સહેતુક	-10.012
ેતબ્બા	-10.0122
▁આરામે	-10.0122
▁પુથુજ્જનો	-10.0128
▁પવ	-10.0131
પન	-10.0133
▁વીમંસ	-10.0135
▁દેન્તિ	-10.0139
▁સત્તમે	-10.014
કતં	-10.0149
▁બોધિસત્તસ્સ	-10.015
▁મનુસ્સેસુ	-10.015
▁૭૧	-10.0156
▁દેવદત્તો	-10.0157
▁અધિપ્પેતા	-10.0159
▁પુણ્ણ	-10.0159
ણ્ડ	-10.0163
▁સન્ધાયાહ	-10.0165
▁ભણ્ડ	-10.0171
કાયો	-10.0179
અહો	-10.0181
▁અનુપાદિન્ન	-10.0183
▁એવમેવં	-10.0185
▁સાલ	-10.0187
નમ	-10.0196
ટ્ઠા	-10.0202
▁ઇસિ	-10.0207
▁ગિલાન	-10.0209
▁બ્રાહ્મણં	-10.0211
▁અજ્ઝત્ત	-10.0213
▁૧૦૦	-10.0214
▁તેલ	-10.0216
સઙ્ખાતો	-10.0218
▁બ્રહ્મા	-10.0221
▁વને	-10.0222
મુપ	-10.0222
▁સુન્દર	-10.0224
ીસુ	-10.0228
▁ચતુત્થે	-10.0235
▁આપન્નો	-10.024
ગાથા	-10.0241
જં	-10.0256
▁પરમત્થ	-10.0259
▁વત્થુઞ્ચ	-10.0259
▁૭૨	-10.026
▁યુ	-10.0264
▁સચ્છિકત્વા	-10.0268
▁ઉત્તાનમેવ	-10.027
ક્	-10.0273
▁૨૮	-10.0277
▁નિસીદ	-10.0278
ત્ર	-10.0282
▁ગામે	-10.0283
▁સમણા	-10.0286
▁૮૯	-10.0288
▁પઠમજ્ઝાન	-10.0288
▁બલં	-10.0301
▁૨૭	-10.0302
▁ખય	-10.0304
સદિસા	-10.0307
▁કારેત્વા	-10.0308
▁સકં	-10.032
▁સદ્ધમ્મ	-10.0321
મમ	-10.0322
▁નેવવિપાક	-10.0324
જાતો	-10.0328
મજ્ઝે	-10.034
ત્તાતિ	-10.0354
▁ખત્તિયો	-10.0354
વંસ	-10.0354
▁અહ	-10.036
મનુસ્સ	-10.0362
▁ઇચ્છ	-10.0364
પક્ખ	-10.037
▁મચ્છ	-10.0382
▁સક્ક	-10.0386
▁ઘર	-10.0386
મત્તમ્પિ	-10.0403
▁છિન્દિત્વા	-10.0404
ત્તો	-10.0407
િદં	-10.0419
▁હિત્વા	-10.0425
▁નમો	-10.0426
▁પગેવ	-10.0433
કથ	-10.0434
તઞ્ચ	-10.0446
વગ્ગે	-10.0447
▁અનાગતે	-10.0449
▁વુત્તનયમેવ	-10.045
જાલ	-10.0453
▁ભિક્ખુનીનં	-10.0453
▁દિટ્ઠિં	-10.0454
▁સોભ	-10.0454
▁૮૫	-10.0457
▁આચિક્ખ	-10.0458
▁આસને	-10.0458
▁મારો	-10.046
પુત્તો	-10.0463
▁દોમનસ્સ	-10.0465
▁વસ્સં	-10.0465
▁અમ્હેહિ	-10.0469
▁૨૯	-10.0469
▁૭૭	-10.047
▁પમાણ	-10.0473
▁છિન્દ	-10.0488
▁એતાનિ	-10.0489
▁૩૧	-10.0491
▁અનિચ્ચા	-10.0494
▁મૂલં	-10.0497
▁વિજ્જમાન	-10.0501
▁પસ્સામિ	-10.0505
▁૮૭	-10.0512
િસ્સં	-10.0515
મનુ	-10.0521
▁ઇચ્છતિ	-10.0524
▁અરૂપે	-10.0524
▁સહજાતાધિપતિ	-10.0526
▁આનેત્વા	-10.0528
▁૩૦	-10.0533
▁નિદાન	-10.0533
▁રઞ્ઞા	-10.0534
▁ભોજન	-10.054
▁છહિ	-10.0541
▁આદિતો	-10.0542
▁યુત્તં	-10.0544
▁પાવિસિ	-10.0544
▁રહો	-10.0545
▁૮૧	-10.0547
▁સદિસ	-10.0549
▁કત્તુ	-10.0556
પયોગ	-10.056
▁મહાભૂતં	-10.0566
▁જાનિત્વા	-10.0568
▁નત્થી	-10.0569
ગાહ	-10.0571
સઙ્ખ	-10.0571
▁રત્તિયા	-10.0576
▁ઝાનસ્સ	-10.0578
▁નપ્પજહતિ	-10.0581
▁સતિયા	-10.0583
▁અવસેસ	-10.0583
સલ્લ	-10.0584
▁૮૨	-10.0585
▁વત્તતે	-10.0597
▁અવિજ્જાનુસયો	-10.06
િતબ્બા	-10.0606
ઇન્દ્રિય	-10.0607
▁ઇધાપિ	-10.0611
▁પવત્તં	-10.0614
▁વધ	-10.0614
▁માણવ	-10.0615
અન	-10.0618
▁અક્ખર	-10.0618
▁અનુકમ્પ	-10.0635
વિનય	-10.0636
નિદાન	-10.0638
▁પણ્ણ	-10.0641
▁અચ્છ	-10.0641
▁થેરા	-10.066
કિ	-10.0662
ાદિં	-10.0665
ુત્તર	-10.0665
▁પરિનિબ્બાયિસ્સ	-10.0668
િત્વાન	-10.0671
▁અમતં	-10.0677
▁સેનાસન	-10.068
▁બુજ્ઝ	-10.068
ઉપાદિન્નુપાદાનિય	-10.0684
▁સતિમા	-10.0686
▁૬૨	-10.0691
▁વરં	-10.0691
ેતુ	-10.0693
▁ઓવાદ	-10.0695
▁હેટ્ઠિમ	-10.0696
ેસીતિ	-10.0698
▁અતિક્કમ	-10.0703
કારણા	-10.0705
▁પરિવાર	-10.0711
સમ્બન્ધ	-10.0715
મ્મ	-10.0724
▁ઉપ્પાદેતિ	-10.0726
▁ઉણ્હ	-10.0729
▁ઇધેવ	-10.0736
ાધિક	-10.0744
મણ્ડલ	-10.0749
▁પટિલદ્ધ	-10.075
▁યજ	-10.0751
▁સટ્ઠિ	-10.0757
▁ઇટ્ઠ	-10.0757
▁ગબ્ભ	-10.0762
▁દક્ખિણ	-10.077
ભાવસ્સ	-10.0778
ચતુ	-10.078
▁ઠિતસ્સ	-10.0781
▁બન્ધિત્વા	-10.0783
ણી	-10.0784
▁ગેહ	-10.0788
સઞ્ઞિનો	-10.0795
▁મઞ્ઞતિ	-10.0795
▁પરિવત્ત	-10.0798
▁ચતુત્થો	-10.0799
▁સહેતુકો	-10.0804
▁પસ્સન્તો	-10.0806
▁ચક્ક	-10.0806
▁સુણાતિ	-10.0806
▁આવજ્જન	-10.0808
▁સમોધાનેસિ	-10.081
ીયન્તિ	-10.0811
▁કથાય	-10.0813
▁અઞ્ઞમઞ્ઞે	-10.0814
એવ	-10.0818
પુર	-10.0827
▁સન્દ	-10.0832
▁નિપાતો	-10.0836
▁એવરૂપા	-10.0838
▁સન્તં	-10.0844
▁અસુભ	-10.0846
આદીસુ	-10.0847
▁પુગ્ગલાનં	-10.0848
ઞ્જ	-10.0852
▁અહો	-10.0863
વાસ	-10.0865
ાવુસો	-10.0866
દુક્ખં	-10.0867
ત્થેરગાથાવણ્ણના	-10.0869
▁ઉપ્પજ્જિ	-10.0869
▁ગન્તું	-10.0872
▁કુક્કુચ્ચં	-10.0873
સમ્	-10.0884
▁પહાતબ્બા	-10.0891
બ	-10.0894
વિતક્ક	-10.0897
નાય	-10.0901
▁અઞ્ઞેહિ	-10.0903
વચનેન	-10.0903
▁ઇચ્છા	-10.0903
▁ગહેતબ્બો	-10.0906
▁લોપો	-10.0911
▁ચેતસિક	-10.0914
કુલે	-10.0917
▁વુચ્ચતીતિ	-10.0919
સઙ્ખાતેન	-10.092
▁નકુસલો	-10.0921
દીપ	-10.0925
▁સબ્બથા	-10.0928
▁પમાદ	-10.0936
▁પસંસ	-10.0939
▁વિસય	-10.0942
▁કુસ	-10.0942
▁ઇન્દ્રિયે	-10.0949
બીજ	-10.0953
▁પરિસાય	-10.0959
▁સંયોજન	-10.096
▁કલ્યાણ	-10.0962
▁ઝાપિતા	-10.0964
▁વિસેસતો	-10.0964
▁કુસલેસુ	-10.0966
▁તાદિસં	-10.0967
▁અયઞ્ચ	-10.0968
▁દુતિયા	-10.0968
ચરિયા	-10.0979
▁સબ્બમ્પિ	-10.0989
▁અલ	-10.0997
માર	-10.0999
▁ભેસજ્જ	-10.1001
▁તિક	-10.1003
સઙ્ખાર	-10.1012
ાહાર	-10.1025
▁યંકિઞ્ચિ	-10.1033
▁અઞ્ઞતર	-10.1035
▁પથવિં	-10.1037
▁સપ્પિ	-10.1044
દસ્સનેન	-10.1045
ધાર	-10.1048
દણ્ડ	-10.1049
▁ભણતિ	-10.1049
ભેદતો	-10.105
▁કણ્હ	-10.1053
▁દસ્સિતો	-10.1055
▁૩૨	-10.1069
▁દાસ	-10.107
▁અપ્પના	-10.1077
▁ફુસ	-10.1096
▁મઞ્ઞ	-10.1098
ઇમિના	-10.1099
પબ્બત	-10.1105
▁થેર	-10.1106
▁મગ્ગા	-10.1106
▁૩૩	-10.111
▁કાક	-10.111
▁અનિચ્ચ	-10.1114
▁મગ્ગસચ્ચં	-10.1117
▁અટ્ઠિ	-10.1118
ારામ	-10.112
▁સત્તાહં	-10.1121
▁સે	-10.1121
▁સબ્બેસુ	-10.1127
મૂલક	-10.1129
▁પરિભોગ	-10.1135
▁એતેહિ	-10.1139
▁અનાગતં	-10.1141
રસો	-10.1142
▁અવત્વા	-10.1144
▁વય	-10.1146
ાપ	-10.1149
▁૩૫	-10.115
ાપેતું	-10.1151
નાગ	-10.1155
વૂપસમ	-10.116
▁૯૭	-10.117
બ્યઞ્જન	-10.1175
▁આકાર	-10.1179
▁એકદિવસં	-10.118
ભેદેન	-10.118
▁કિચ્ચં	-10.118
▁ઇન્દ	-10.1182
▁પક્કામિ	-10.1182
▁કણ્ણ	-10.1184
▁થેરં	-10.1186
▁હેતં	-10.119
ચીવરં	-10.1193
▁જિણ્ણ	-10.1195
▁બન્ધન	-10.1196
▁નાનુસેતિ	-10.12
▁માનો	-10.1203
દન્ત	-10.1205
▁કુસલાનં	-10.1205
▁અવિજ્જાય	-10.1207
▁વિવટ્ટ	-10.1208
▁ઉપોસથં	-10.121
સચ્ચં	-10.1216
કોટ્ઠાસ	-10.1216
▁કત્તબ્બ	-10.1218
▁સમ્	-10.1225
નમ્પિ	-10.1226
▁૯૪	-10.1229
▁માસ	-10.123
સબ્બે	-10.123
▁અનાસવો	-10.1233
તમ	-10.1235
મત્તા	-10.1238
▁નાગો	-10.1242
▁પક્ખિપિત્વા	-10.1245
રથ	-10.1245
▁લાભી	-10.1247
▁સુણાથ	-10.1247
▁જનો	-10.1248
▁વોહાર	-10.1258
▁અનુસેતિ	-10.1262
▁પહાનં	-10.1265
▁મતા	-10.1268
▁અહોસીતિ	-10.1268
▁સોતં	-10.1272
▁પુરિસા	-10.1276
કારં	-10.1277
▁ણો	-10.1282
▁આચરિયો	-10.1285
▁ઉપમા	-10.1286
▁અતિક્કમિત્વા	-10.1288
▁દારુ	-10.1289
▁સિક્ખ	-10.1291
મ્બ	-10.1296
▁સઞ્ઞ	-10.1303
કતમો	-10.1304
▁સાધુકં	-10.1304
ઝાન	-10.1314
ંસુ	-10.1317
▁ભવઙ્ગ	-10.1333
ન્તિઆદિમાહ	-10.1333
પ્પટિ	-10.1334
▁અનુલોમં	-10.134
▁કઞ્ચિ	-10.1341
▁ચરિત્વા	-10.1343
▁પાકટં	-10.1348
▁પદસ્સ	-10.1355
રઞ્ઞો	-10.1359
▁ધાતુયા	-10.1359
▁વિવિચ્ચેવ	-10.1362
▁કમ્માનિ	-10.1365
▁ઠિતિ	-10.1365
▁એવમાદિ	-10.1369
▁સઞ્જાત	-10.1379
પાપ	-10.1383
▁પાપુણિ	-10.1383
યમાનો	-10.1389
▁ચિરં	-10.139
રૂપો	-10.139
▁આમિસ	-10.1392
▁કાયકમ્મં	-10.1395
▁દદેય્ય	-10.1395
▁અરિયમગ્ગ	-10.1395
▁ખમ	-10.14
▁દુવે	-10.1403
ધી	-10.1403
▁નગરે	-10.1411
▁૩૪	-10.1412
▁વિહર	-10.1412
▁અજ્ઝ	-10.1418
અઞ્ઞમઞ્ઞે	-10.1421
▁રજ્જ	-10.1421
▁અમુ	-10.1425
સમુટ્ઠાનં	-10.1431
▁ધઞ્ઞ	-10.1433
▁રસ્સ	-10.1438
▁અઙ્ગેહિ	-10.1443
ીયતે	-10.1444
લિ	-10.1445
▁ભિન્દિત્વા	-10.1449
કોતિ	-10.1452
નીતિ	-10.1453
▁૩૭	-10.1454
ચક્ક	-10.1456
▁છટ્ઠ	-10.1458
▁ખમતિ	-10.146
▁હત્થેન	-10.1463
▁લદ્ધા	-10.1464
દ્દ	-10.1466
▁આતાપી	-10.147
▁દેસેસિ	-10.1471
ધન	-10.1475
ન્તરે	-10.1478
▁૫૩	-10.1478
▁અનન્તરા	-10.1481
▁અનુજાનામિ	-10.1483
▁ભગવતિ	-10.1483
▁પિણ્ડ	-10.1485
▁અચ્ચન્ત	-10.1485
▁સતિપટ્ઠાન	-10.1488
▁ઉપાસકો	-10.1489
▁ઉભતો	-10.149
બલં	-10.149
▁યમક	-10.1492
સઞ્ઞં	-10.1493
▁સત્થ	-10.15
▁રૂપાવચર	-10.1503
▁૯૮	-10.1504
▁સોક	-10.1506
▁ખીર	-10.1507
▁સરીરે	-10.151
▁નિરુજ્ઝન્તિ	-10.151
▁ગાહ	-10.1517
ચિત્તેન	-10.1518
▁પણીત	-10.1521
ેતા	-10.1523
▁ધીરો	-10.1523
▁ઇતિપિ	-10.1526
▁પસ્સતો	-10.1526
▁અસિ	-10.1529
▁અન્તર	-10.1531
▁પજહ	-10.1533
▁અઞ્ઞેપિ	-10.1538
યાતિ	-10.1541
પક્ક	-10.1542
▁ઉભિન્નં	-10.1545
ુપ્પાદ	-10.1546
▁ખીણાસવ	-10.1549
પ્પમાણ	-10.1551
▁દસ્સિતા	-10.1552
▁અઞ્ઞાણ	-10.1555
કાલતો	-10.1557
નાહં	-10.1558
ૂતિ	-10.1561
▁૯૩	-10.1561
▁અવિક્ખેપો	-10.1565
▁અધિકરણ	-10.1565
ેન્તીતિ	-10.1565
▁ચરે	-10.1565
▁કોટિ	-10.1566
▁દેસનં	-10.1568
▁ખિપ્પં	-10.1569
▁સમ્મુતિ	-10.1571
▁૯૫	-10.1579
હન	-10.1581
પરિક્ખાર	-10.1586
▁૯૨	-10.1586
કિરિય	-10.159
ાનમ	-10.1592
▁સુખુમ	-10.1593
▁વાદ	-10.1594
યુત્તો	-10.1595
▁૩૬	-10.1598
▁ઝાય	-10.1599
▁અસુચિ	-10.1608
▁પયોગ	-10.1609
ારહ	-10.1613
▁વિનયે	-10.1618
જવન	-10.1618
કડ્	-10.1619
ણા	-10.1624
પતિ	-10.1628
યતીતિ	-10.1631
મકાસિ	-10.1642
પુગ્ગલો	-10.1647
▁અસાધારણ	-10.1649
સમાપત્તિ	-10.1649
▁આગચ્છતિ	-10.1655
▁બદ્ધ	-10.166
વસ	-10.1663
▁૯૧	-10.1668
▁પૂજ	-10.1669
▁અકંસુ	-10.167
▁અટ્ઠઙ્ગિકો	-10.1674
▁પટિસમ્ભિદા	-10.1675
▁અનત્તા	-10.1675
▁ભવિતબ્બં	-10.1684
▁અત્થિયા	-10.1685
ગ્ગિ	-10.1688
મજ્ઝ	-10.1689
▁અગ્ગમગ્ગ	-10.1693
▁ઓકાસં	-10.1694
▁કારણેહિ	-10.1698
▁અસ્સાદેતિ	-10.1699
▁૩૯	-10.1702
▁દુક્ખતો	-10.1704
▁ઉદાનં	-10.1704
સ્સેતં	-10.1704
▁ગહિતો	-10.1704
▁સમ્પયુત્તે	-10.1707
િસ્સતીતિ	-10.1709
▁પક્ખ	-10.1712
▁ચિત્તાનિ	-10.1713
▁સમ્મદેવ	-10.1714
▁પબ્બજિત	-10.1714
▁આહરિ	-10.1717
મુત્ત	-10.1717
▁દમ	-10.1717
▁અબ્ભ	-10.172
ત્તિક	-10.1727
▁ઇન્દ્રિયાનિ	-10.173
ઞ્ઞૂ	-10.1733
પરિયાય	-10.1736
▁અનગારિયં	-10.1736
ેનાપિ	-10.1745
સમં	-10.1748
▁એત્તકં	-10.1749
▁વસિ	-10.1757
▁સત્તન્નં	-10.176
▁પઞ્ચમ	-10.1761
સઙ્ક	-10.1761
▁સાવકા	-10.1767
▁પચ્ચયે	-10.1767
▁પુચ્છામિ	-10.1769
▁ખણ્ડ	-10.1769
પરિચ્છેદ	-10.1774
▁અન્તરે	-10.1782
▁અનિટ્ઠ	-10.1784
▁તત્રાયં	-10.1785
▁સીલવા	-10.1785
▁૫૪	-10.1788
મગ્ગં	-10.1791
▁વુદ્ધિ	-10.1792
▁પરિત્તં	-10.1798
▁કાચિ	-10.18
સઙ્ગહ	-10.1801
▁મહાભૂતા	-10.1803
▁ચેતિય	-10.1807
▁૯૬	-10.1809
િતુ	-10.1811
▁વાત	-10.1816
પ્પકાર	-10.1816
▁તથાપિ	-10.1821
▁મર	-10.1825
▁કીળ	-10.1825
જીવ	-10.1826
▁૪૧	-10.1827
▁ત્વ	-10.1828
▁વિનેય્ય	-10.1832
▁સગ્ગં	-10.1837
▁સમાદાય	-10.1838
રસં	-10.1842
▁ખેમ	-10.1846
▁પવત્તતીતિ	-10.1848
આહારે	-10.185
▁પાકટો	-10.185
લો	-10.1855
▁છન્દં	-10.1856
▁પિટ્ઠિ	-10.1862
હો	-10.1866
▁૩૮	-10.1871
▁ખેત્ત	-10.1871
▁આય	-10.1874
▁ઇત્થિયા	-10.1875
▁સમુદ્દ	-10.1877
▁થેરેન	-10.1877
આમ	-10.1882
▁જનેતિ	-10.1885
મત્થ	-10.1889
▁ઉપપજ્જતિ	-10.1893
▁તપ	-10.1895
▁અનાથપિણ્ડિકસ્સ	-10.1902
▁ગહેતું	-10.1904
▁પટિપત્તિ	-10.1913
િન્દ	-10.1914
▁અલ્લ	-10.1918
પુચ્છ	-10.192
રૂપા	-10.1921
▁દુક	-10.1921
ભૂ	-10.1922
▁નિસિન્ન	-10.1924
▁જને	-10.1925
▁અકુસલાનં	-10.1926
▁સન્તકં	-10.1928
▁મહગ્ગત	-10.1934
▁સેટ્ઠો	-10.1937
▁૧૦૩	-10.1938
▁ઇત્થિયો	-10.1939
▁આલોક	-10.1939
▁કાયિકં	-10.194
સત્થ	-10.194
માને	-10.1941
▁પાણાતિપાત	-10.1943
▁સમાપત્તિ	-10.1943
▁સમ્પયુત્તં	-10.1943
▁ચરન્તિ	-10.1948
▁પવારણા	-10.195
▁કત્તા	-10.1955
▁જરામરણં	-10.1966
▁અટ્ઠઙ્ગિક	-10.1977
▁આસેવને	-10.1977
▁મતો	-10.1978
ેતબ્બો	-10.1979
▁તિવિધ	-10.1981
▁ભેદ	-10.1983
ત્થઞ્ચ	-10.1984
▁આકારેહિ	-10.1985
ચન્દ	-10.1987
ચર	-10.1988
▁દોસં	-10.1994
▁૪૦	-10.1995
પાળિ	-10.1997
▁ભવિસ્સતીતિ	-10.2003
▁રાજાનો	-10.2004
સઙ્ખાતે	-10.2004
▁પાતિમોક્ખં	-10.2005
▁સભાગ	-10.2013
ભૂમિયં	-10.2014
પ્પહાન	-10.202
▁આરામ	-10.2024
▁સિક્ખાપદ	-10.2025
▁બહુલીકતા	-10.2031
▁કિલેસાનં	-10.2035
▁દિસં	-10.2037
▁ગમ્ભીર	-10.2039
અટ્ઠ	-10.2039
▁વિસુદ્ધ	-10.2041
પ્પવત્ત	-10.2048
▁ખીણ	-10.205
▁પતિટ્ઠા	-10.205
ઉદક	-10.2054
▁અસ્સુ	-10.2056
લી	-10.206
કિરિયાય	-10.2063
પુરિસો	-10.2063
સન્ત	-10.2065
▁પુ	-10.2065
▁આમ	-10.2067
ોયેવ	-10.2068
▁ઉસ્સ	-10.2069
▁નર	-10.2087
▁પટિસેવ	-10.2092
▁સંકિલિટ્ઠ	-10.2095
▁વિહારો	-10.2096
▁ઇદમેવ	-10.2097
▁સન્ધિ	-10.2102
▁વુત્તાતિ	-10.2106
▁હિતાય	-10.2108
▁યોજેત્વા	-10.2108
▁ચક્ખુવિઞ્ઞાણં	-10.2109
▁લક્ખણં	-10.2112
વુત્ત	-10.2113
▁ચક્ખુવિઞ્ઞાણ	-10.2116
▁નિબ્બ	-10.2118
યન્તો	-10.2119
ાનિપિ	-10.212
▁કારેસિ	-10.2123
▁પાકટ	-10.2124
▁સામં	-10.2127
▁૪૪	-10.2129
▁એતેસન્તિ	-10.2136
▁મત	-10.2137
સિક્ખાપદ	-10.2138
▁કતત્તા	-10.2139
▁૧૦૨	-10.214
રક્ખ	-10.2147
▁પરિભાસ	-10.2148
▁વિસમ	-10.2151
▁૪૩	-10.2152
▁સમ્પયુત્તકા	-10.2152
યિં	-10.2162
નવ	-10.2164
▁તદત્થ	-10.2164
દિવસે	-10.2164
ન્નં	-10.2164
ઘટ	-10.2164
▁દિબ્બચક્ખુ	-10.2166
▁૯૯	-10.2173
▁પોસ	-10.2175
સય	-10.2176
▁રજ	-10.2177
▁વિપસ્સનાય	-10.2178
▁કથેતિ	-10.2178
▁અરહત્ત	-10.2179
▁અગ્ઘ	-10.2181
▁૫૦	-10.2182
▁દીઘરત્તં	-10.2185
▁અયઞ્હિ	-10.2186
▁પાપકા	-10.219
▁ભાસિતા	-10.2194
▁૪૫	-10.2196
ાદેસો	-10.2197
▁પરિસ	-10.2199
▁દિટ્ઠો	-10.22
સોત	-10.2209
િમે	-10.2209
વેર	-10.2213
▁વુચ્ચતે	-10.2213
▁૫૨	-10.2214
▁૪૨	-10.2216
▁મઞ્ઞસિ	-10.2217
▁દાર	-10.2225
યોજન	-10.2228
▁યઞ્ઞ	-10.223
ાલઙ્કાર	-10.223
▁કાતબ્બા	-10.223
હર	-10.2231
▁પકાસિતા	-10.2232
▁આકાસ	-10.2234
▁ણ	-10.2238
▁૪૬	-10.224
▁સમ્પયુત્ત	-10.2246
▁વુટ્ઠહિત્વા	-10.2256
સમ્પત્તિં	-10.2258
નગરે	-10.2265
▁સત્થુનો	-10.2268
▁અનુસેન્તિ	-10.2273
પટિચ્ચવારાદિ	-10.2274
▁પણીતં	-10.2275
ેસ્સામી	-10.2278
▁સોત	-10.2285
▁સત્તહિ	-10.229
▁દેસનાય	-10.2302
પત્તો	-10.2304
▁અઙ્ગં	-10.2306
▁૪૯	-10.2308
▁૪૭	-10.2308
▁કામં	-10.2308
▁જીવિતા	-10.2309
કરણે	-10.2309
▁કારણા	-10.231
▁પચ્છતો	-10.2317
▁ધ	-10.2321
▁અન્ધ	-10.2327
▁યાવતા	-10.2329
▁દેવપુત્તો	-10.2329
મ્ભ	-10.2329
▁યસો	-10.2332
▁સવિતક્કસવિચાર	-10.2332
▁નિબ્બત્તિત્વા	-10.2336
▁સસ્સ	-10.2338
▁સાવત્થિનિદાનં	-10.2339
બ્રહ્મ	-10.2341
▁ઇત્થન્નામસ્સ	-10.2341
▁તાદિસ	-10.2341
પદાનિ	-10.2342
▁મહાનામ	-10.2343
▁છત્ત	-10.2344
▁૧૦૪	-10.2346
▁પુરિસં	-10.2346
▁મજ્ઝ	-10.2351
▁ભુઞ્જતિ	-10.2351
િમ્હ	-10.2352
▁અતીતાનાગત	-10.2354
સુવણ્ણ	-10.2355
જાનન	-10.2355
▁પઞ્ચમે	-10.2365
▁ભણ્ડં	-10.2365
▁ભૂમિયં	-10.2365
▁તદારમ્મણ	-10.2365
▁પત્તે	-10.2368
ભયં	-10.2371
▁સિક્ખતિ	-10.2382
સમા	-10.2382
▁ભેદો	-10.2385
▁દબ્બ	-10.2386
▁આપત્તિસમુટ્ઠાન	-10.2387
▁વેમતિકો	-10.2392
▁દુબ્બલ	-10.2392
▁સપ્પ	-10.2393
▁દક્ખ	-10.2394
્	-10.2399
▁પક્ક	-10.24
▁સુવિઞ્ઞેય્યમેવ	-10.2402
▁સઙ્ખં	-10.2403
▁ત્વેવ	-10.2404
▁પરિનિબ્બાન	-10.2422
▁સઙ્ખેપતો	-10.2422
દિસ	-10.2428
દ્વે	-10.243
ગાથાય	-10.2431
▁વિત્થાર	-10.245
▁સમ્પત્ત	-10.2458
▁વુચ્ચતી	-10.246
▁અટ્ઠકથા	-10.2463
મ્પ	-10.2467
▁યસ	-10.2467
▁પુત્તા	-10.2469
▁પરિયત્તિ	-10.2474
▁નિક્ક	-10.2476
ભૂતે	-10.2482
▁યુત્તો	-10.2485
નિરોધ	-10.2486
▁તાદિસો	-10.2489
▁ઞત્તિ	-10.2491
▁નિસિન્નં	-10.2491
▁ભિક્ખુસઙ્ઘસ્સ	-10.2492
▁પીત	-10.2495
▁દ્વેપિ	-10.2496
▁આસવ	-10.2497
વણ્ણા	-10.2501
▁વદેસિ	-10.2502
▁ઉચ્ચ	-10.2506
▁જહ	-10.2507
ત્વ	-10.251
▁તતિયા	-10.2511
▁વસં	-10.2511
▁ઓકાસ	-10.2512
▁નામેન	-10.2515
સ્સપિ	-10.2517
સમયો	-10.2518
▁યમ્પિ	-10.2527
▁આપત્તીનં	-10.2529
▁સક્કચ્ચં	-10.253
પઞ્ઞો	-10.253
▁સુર	-10.2532
▁એતા	-10.254
▁નિવાસેત્વા	-10.2547
▁દસહિ	-10.2549
ઙ્ક	-10.2549
િસ્સસિ	-10.2549
કરણીય	-10.255
▁યન્તિ	-10.2551
▁૧૦૭	-10.2555
▁જિવ્હા	-10.2558
▁દૂર	-10.2561
▁નાપિ	-10.2563
▁સુગત	-10.2563
િંસૂતિ	-10.2568
ણ્ણ	-10.2569
ોસિ	-10.2574
▁પટિપજ્જ	-10.2575
સમ્પયુત્તા	-10.2576
▁પાણાતિપાતા	-10.2579
▁ગન્તબ્બં	-10.2582
▁તમહં	-10.2593
▁સવન	-10.2597
▁દળ્હં	-10.2601
▁વૂપસમ	-10.2602
કી	-10.2603
▁ગમનં	-10.2604
▁અપરે	-10.2607
કુસલા	-10.2608
▁પાર	-10.261
▁અવિદૂરે	-10.2611
▁વિપ્પયુત્તે	-10.2612
▁તિટ્ઠ	-10.2614
સમ્પન્ન	-10.2615
▁પચ્ચક્ખ	-10.262
▁સહાય	-10.262
▁ભવા	-10.2622
િયમાનો	-10.2624
▁સંવત્તન્તિ	-10.2626
▁૧૦૫	-10.2632
▁સઙ્ઘાદિસેસસ્સ	-10.2633
▁બ્ય	-10.2635
▁આરોચેસિ	-10.2636
▁રક્ખતિ	-10.264
કત્તા	-10.2641
▁નિક્ખિપ	-10.2644
▁દિબ્બેન	-10.2649
ુજ્જ	-10.265
▁આરોચ	-10.2655
▁સેવ	-10.2658
▁નદસ્સનેન	-10.2661
▁વિનાસ	-10.2661
વદ	-10.2663
▁દેવલોકે	-10.2668
▁પચ્ચયાનુલોમં	-10.268
▁વિભત્તિ	-10.2681
તાદિ	-10.2682
▁અહમ્પિ	-10.2683
▁પટિપ્પસ્સમ્ભ	-10.2683
▁૧૦૬	-10.2685
▁ચારિકં	-10.2694
િન્દ્રિય	-10.2694
▁રોદ	-10.2696
▁અપ્પમાદ	-10.27
▁થિર	-10.2702
▁કન્ત	-10.2705
▁સાવકાનં	-10.2705
સદ્દા	-10.271
▁વેદિતબ્બાનિ	-10.2711
ભત્તં	-10.2718
▁યાન	-10.272
▁૧૧૦	-10.272
▁છન્ન	-10.2727
▁ઇમમત્થં	-10.2727
▁૪૮	-10.2739
નિદ્દેસ	-10.2739
સીલં	-10.2742
▁અદ	-10.2749
▁તમ્હા	-10.276
▁કચ્ચિ	-10.276
▁લહુ	-10.2763
ેતે	-10.2766
▁કઙ્ખા	-10.2768
▁કબળીકારો	-10.2773
▁પહાતબ્બહેતુકં	-10.2778
▁જરામરણ	-10.2778
પ્પત્તા	-10.2782
નિપાત	-10.2783
▁કટત્તારૂપં	-10.2784
▁પરેહિ	-10.2784
▁ગેહે	-10.2788
▁ચતુસચ્ચ	-10.279
▁સંસટ્ઠો	-10.2791
▁દસ્સનાય	-10.2791
▁સદ્દહ	-10.2794
ઙ્ગં	-10.2795
▁નિરુજ્ઝિસ્સતીતિ	-10.2797
▁ગેહં	-10.2798
▁અબ્યાકતસ્સ	-10.2798
સરીર	-10.28
ાપદાનં	-10.2804
▁૬૩	-10.2811
▁સઞ્ઞં	-10.2812
▁પુરાણ	-10.2812
મ્હીતિ	-10.2816
પથ	-10.2817
▁સમ્બુદ્ધો	-10.2817
▁આરદ્ધં	-10.2825
▁નિરનુસયો	-10.2826
▁પાત	-10.2841
વાદા	-10.2845
▁લદ્ધં	-10.2849
▁પહીન	-10.2855
યેન	-10.2855
▁લામક	-10.2856
સન્ધિ	-10.286
▁પટિગ્ગહેત્વા	-10.2861
▁સૂચિ	-10.2863
સ્મિન્તિ	-10.2864
▁ઓલોકેન્તો	-10.2864
ગામિ	-10.2867
▁અપરો	-10.2867
▁પચ્ચયચતુક્કં	-10.2868
સમણ	-10.2872
▁ફલસ્સ	-10.2874
▁અસ્સા	-10.2874
▁વત્તં	-10.2875
▁વિન	-10.2877
ચાર	-10.2882
▁કટ્ઠ	-10.2885
▁ઇતરે	-10.2885
▁મુ	-10.2888
▁મુસાવાદ	-10.2896
▁બહુલં	-10.2898
▁સદ્દા	-10.2901
▁સામણેરો	-10.2904
િતત્તં	-10.2907
▁જિગુચ્છ	-10.2909
▁નીહર	-10.2915
▁દસ્સેતુમાહ	-10.2915
▁ચેત	-10.2917
▁કુમાર	-10.2918
▁વત્તબ્બ	-10.2922
▁કથિતો	-10.2926
▁૫૧	-10.2927
રણ	-10.2929
મ્હી	-10.2933
વને	-10.2933
મિગ	-10.2936
▁વક્ખતિ	-10.2937
▁ચિર	-10.2938
▁પારાજિકસ્સ	-10.2939
▁સય	-10.294
▁કાયતો	-10.2942
▁પનાયં	-10.2942
▁ઇતરો	-10.2948
▁મંસં	-10.295
નિસ્સિત	-10.2951
▁પત્તા	-10.2954
▁પઞ્ચમો	-10.2955
▁૧૦૯	-10.2959
▁પુબ્બભાગ	-10.2962
▁સિપ્પ	-10.2963
▁૧૧૫	-10.2967
▁પરિક્ખાર	-10.297
માલ	-10.2979
▁સોતાપન્નો	-10.298
ગ્ગં	-10.298
ગન્થ	-10.2984
▁ઉપકાર	-10.2988
દયો	-10.2989
▁પચ્છાજાતપચ્ચયેન	-10.299
સનિદસ્સનસપ્પટિઘં	-10.2992
▁અધિગત	-10.2992
સાસન	-10.2992
▁લબ્ભન્તિ	-10.2993
યદિ	-10.2995
▁સુતન્તિ	-10.2997
▁સસ	-10.3003
▁પાતિમોક્ખ	-10.3003
ાધિ	-10.3008
▁તિણ્ણન્નં	-10.301
ત્તિ	-10.3012
▁આહારં	-10.3014
▁તથાગતં	-10.3016
▁અબ્યાકત	-10.302
▁નાહં	-10.3021
▁ઓદાત	-10.3021
▁વિનયો	-10.3022
▁આદીનવં	-10.3027
▁વિગ્ગહો	-10.3027
▁થૂપ	-10.3028
▁વેળુ	-10.3031
▁તાલ	-10.3031
▁તમેનં	-10.3035
▁નામા	-10.3037
પટિવેધ	-10.304
▁દુગ્ગતિ	-10.304
▁૧૦૧	-10.3041
કઙ્ખ	-10.3044
▁અહેતુક	-10.3044
▁નીહરિત્વા	-10.3045
▁પાણિ	-10.3047
▁જાનાતીતિ	-10.3048
્યા	-10.3049
દિસં	-10.305
▁પિયા	-10.3053
▁અધમ્મ	-10.3053
▁અભિધમ્મ	-10.3053
▁ખીણાસવો	-10.3054
▁સુદ્ધં	-10.3055
રિય	-10.3057
▁ઠપેસિ	-10.3059
▁અનુસ્સર	-10.3059
▁જય	-10.306
▁પરિસુદ્ધ	-10.3062
▁ચતુરો	-10.3062
જાતા	-10.3063
▁વિજ્ઝ	-10.3067
▁અભિભુય્ય	-10.3069
હીન	-10.3069
▁૧૦૮	-10.307
▁સેસેસુપિ	-10.3074
▁૧૧૩	-10.3075
સીલો	-10.3076
તેવ	-10.3082
▁નનહેતુ	-10.3083
▁તિક્ખત્તું	-10.3083
▁મોગ્ગલ્લાન	-10.3085
▁ઉળાર	-10.3088
▁આસ	-10.3093
સઙ્ખાતસ્સ	-10.3097
▁કૂટ	-10.3098
મિતિ	-10.31
▁નિસ્સગ્ગિય	-10.3103
▁પિણ્ડપાત	-10.3106
▁કસ	-10.3109
▁પનાતિ	-10.3113
▁પિયો	-10.3115
▁એકત્ત	-10.3117
ભાર	-10.3118
▁કરણીયં	-10.3127
▁૧૧૬	-10.3128
▁પવુચ્ચતિ	-10.313
▁દુટ્ઠ	-10.313
▁સઙ્ખ	-10.3131
કામા	-10.3134
▁સમ્બન્ધ	-10.3145
▁પટિઘ	-10.3151
કતો	-10.3155
કૂટ	-10.3159
વન્ત	-10.316
▁ઝ	-10.3161
▁કત્તરિ	-10.3163
▁કન્દ	-10.3164
▁વિસિટ્ઠ	-10.3172
ભા	-10.3183
▁માણવો	-10.3183
▁નમસ્સ	-10.3184
▁અદુક્ખમસુખાય	-10.3189
હરણ	-10.319
ેસ	-10.319
માનસ્સ	-10.319
▁સતિપટ્ઠાના	-10.3197
▁જવન	-10.3201
▁પચ્ચેકં	-10.3201
▁બ્યાકાસિ	-10.3203
▁સત્થરિ	-10.3203
▁પુર	-10.3205
▁ધુવ	-10.3205
▁વણ્ણેન	-10.3206
ભિન્ન	-10.3209
▁બુદ્ધે	-10.3216
▁પબ્બાજ	-10.3216
▁ઉક્કટ્ઠ	-10.3217
▁લબ્ભમાન	-10.322
રોગ	-10.3221
પરિભોગ	-10.3222
▁પેસ	-10.3227
▁અદ્દસ	-10.3228
▁મહાવીર	-10.3229
▁પરિનિબ્બન્તાન	-10.3232
▁ઉપેતિ	-10.3236
▁ઘ	-10.3237
▁સમાસ	-10.324
▁ચક્ખુમા	-10.3241
▁સવિતક્કસવિચારો	-10.3243
મિસ્સક	-10.3253
▁ઓલોકેત્વા	-10.3255
▁અહેતુકં	-10.3256
▁૬૪	-10.3262
સંયોજન	-10.3265
વિપસ્સના	-10.3265
▁અનિ	-10.327
▁સુખેન	-10.3271
▁પરિહાયતિ	-10.3273
પેક્ખ	-10.3273
▁દેવે	-10.3274
▁તસ્મિંયેવ	-10.3276
▁એકેનાયતનેન	-10.3276
ચરિત	-10.3277
▁ચમ્મ	-10.3282
▁મુત્તો	-10.3282
▁સચેપિ	-10.3287
▁સીમા	-10.3287
▁અધિક	-10.3295
▁દેસે	-10.3298
▁ગોતમસ્સ	-10.3301
▁ચાગ	-10.3302
▁આરોપેત્વા	-10.3302
ટ્ઠિ	-10.3303
ઇતો	-10.3305
▁અનુપુબ્બ	-10.3305
વાદો	-10.3305
નઇન્દ્રિયે	-10.3306
▁નિક્ખન્ત	-10.3307
▁વિઞ્ઞત્તિ	-10.3314
▁વિમોક્ખ	-10.3315
સામિ	-10.3315
વેદ	-10.3319
▁અથો	-10.332
▁ફાસુ	-10.3321
▁અરહન્તો	-10.3323
▁ચાયં	-10.3325
▁ઉદ્ધર	-10.3327
લમ્બ	-10.3328
▁ભિન્દ	-10.3333
▁યાવજીવં	-10.3333
▁સદ્ધ	-10.3334
▁વિઞ્ઞાત	-10.334
પાન	-10.3342
▁જાનં	-10.3347
▁પસન્નો	-10.3348
▁કેવલ	-10.3352
▁ઇન્દ્રિયાનં	-10.3353
▁મહેસિનો	-10.3353
પ્પત્ત	-10.3354
યામ	-10.3359
▁ધમ્મદેસના	-10.3359
વત્થુસ્મિં	-10.3359
ટ્ટ	-10.3363
▁યક્ખો	-10.3365
▁ગોત્રભુ	-10.3369
▁પાસ	-10.3371
▁પપઞ્ચ	-10.3373
▁ક્રિયા	-10.3374
▁અટ્ઠમે	-10.3377
▁નિરુત્તિ	-10.3378
▁મચ્ચુ	-10.3378
પૂર	-10.3379
બોધિ	-10.338
▁સત્તાહ	-10.3381
યદા	-10.3382
▁કુમારો	-10.3382
▁દસવિધ	-10.3385
સભાવો	-10.3388
▁૧૧૨	-10.3395
નીલ	-10.3397
▁અસુક	-10.34
વસાને	-10.34
▁દ્વત્તિંસ	-10.3402
વારવણ્ણના	-10.3403
કાતિ	-10.3403
▁વત્તમાન	-10.3404
વિહારે	-10.3405
▁વાર	-10.3412
નગર	-10.3415
▁સુખસ્સ	-10.3418
▁લદ્ધિ	-10.3419
નિરોધો	-10.3424
▁૧૧૮	-10.3425
▁નઅધિપતિપચ્ચયા	-10.343
▁પટ	-10.343
▁નિયત	-10.343
▁કથેત્વા	-10.3431
▁ધમ્મવિનયે	-10.3433
ારમ્મણા	-10.3434
▁બાલા	-10.3436
મિસ્સ	-10.3439
▁સમયો	-10.344
▁આદીનવો	-10.344
▁લોકા	-10.3441
▁યદ	-10.3445
▁હરિત	-10.3448
વિભત્તિ	-10.3449
▁ચિત્તઞ્ચ	-10.3457
કાલં	-10.3462
પહાન	-10.3462
કારક	-10.3463
પાલ	-10.3465
▁સબ્બદા	-10.347
▁પવત્તિં	-10.3471
▁ઉદ્ધચ્ચ	-10.3474
▁વિજાન	-10.3479
પઠમ	-10.348
▁સુગતિં	-10.348
▁વિચારો	-10.3481
ઠ	-10.3487
▁કામરાગાનુસયેન	-10.349
▁પકતિયા	-10.3491
મિચ્છ	-10.3492
▁થોકં	-10.3493
▁તરુણ	-10.3493
ઇ	-10.3495
▁કાયાયતનં	-10.35
તથા	-10.3502
▁કત્વાન	-10.3503
▁દુવિધ	-10.3503
▁વિગતે	-10.3504
▁નીવરણ	-10.3504
પરિવાર	-10.3505
▁સુણ	-10.3505
▁ઉગ્ગણ્હ	-10.3505
એવમેવ	-10.3506
વોહાર	-10.3506
▁ઓઘ	-10.3508
પદે	-10.351
▁ઉભોપિ	-10.3514
પઞ્ઞ	-10.3514
▁ભાવિત	-10.3515
▁પસ્સિત્વા	-10.3515
▁નઆરમ્મણપચ્ચયા	-10.3518
▁ઉપાસક	-10.3519
▁સકિં	-10.352
▁અયમત્થો	-10.3529
▁બારાણસિયં	-10.3532
▁સુમનો	-10.3537
▁બ	-10.3542
નાદિ	-10.3554
▁પઠમા	-10.3557
પજ્જ	-10.3558
▁વુટ્ઠાય	-10.3561
▁ચક્ખુન્દ્રિયઞ્ચ	-10.3562
▁તનુ	-10.3563
▁નિવાસ	-10.3565
▁અવુત્ત	-10.3566
▁આહારપચ્ચયેન	-10.3566
▁આગમન	-10.3567
▁પબ્બજ્જં	-10.3567
▁સમથવિપસ્સના	-10.3568
કણ્ણ	-10.3568
▁ભદ્દ	-10.357
▁ઘન	-10.3575
▁કિમ	-10.3577
ભૂતેન	-10.3577
પિણ્ડ	-10.3579
▁સરે	-10.358
▁નોઉપાદા	-10.3591
▁આહંસુ	-10.3591
▁માસે	-10.3595
▁દ્વારં	-10.3596
▁પુરેજાતે	-10.3597
▁આગચ્છન્તિ	-10.3599
▁વિભજ	-10.3603
▁વસતિ	-10.3605
▁યાગુ	-10.3608
▁સમન્નાગતસ્સ	-10.3609
▁કુમ્ભ	-10.3611
▁તિકં	-10.3612
કામો	-10.3616
મદ	-10.3616
▁અનત્તતો	-10.3617
તરા	-10.3617
▁વુત્તોતિ	-10.3621
▁હારો	-10.3624
▁આગચ્છ	-10.3627
▁સત્તમ	-10.3631
હેતુક	-10.3634
▁માનસં	-10.3635
▁અઞ્જલિં	-10.3635
સઞ્ચ	-10.3636
▁અનુપુબ્બેન	-10.3637
ાથ	-10.3638
▁૧૧૪	-10.3639
▁સઙ્ખારાનં	-10.364
દ્વારે	-10.3641
▁અનઞ્ઞ	-10.3642
ત્તિકં	-10.3647
▁નઅબ્યાકત	-10.3648
▁નિસિન્ના	-10.3649
ત્તેન	-10.3656
▁પઞ્ચહઙ્ગેહિ	-10.3656
▁પુથુજ્જન	-10.3658
▁અગ્ગો	-10.366
ોપ	-10.3663
▁કામરાગ	-10.367
▁નિગ્ગહ	-10.3675
યિંસુ	-10.3676
બહુલો	-10.3676
▁વુત્તપ્પકાર	-10.3678
▁વચીકમ્મં	-10.3679
▁અધિપ્પેતં	-10.3679
▁હદયં	-10.3679
▁ફરિત્વા	-10.3683
▁માતિકા	-10.3685
▁કિમત્થં	-10.3686
▁છટ્ઠે	-10.3695
▁ઉપ્પાદો	-10.3695
▁૧૧૯	-10.3697
▁નાભિ	-10.3697
▁વિરાગ	-10.3704
▁હંસ	-10.3705
▁૧૧૧	-10.3705
▁અઞ્ઞતરસ્મિં	-10.3706
પાત	-10.3707
▁વિમોક્ખો	-10.3707
યઞ્ચ	-10.3709
ાલ	-10.3709
સિદ્ધ	-10.3712
▁ઉપાદા	-10.3712
▁સિયું	-10.3716
▁વારે	-10.3717
સ્સાદ	-10.3717
▁ઇતરસ્સ	-10.3723
▁સંખિત્તેન	-10.3723
બ્રાહ્મણ	-10.3723
▁પત્થય	-10.3725
સમ્બોજ્ઝઙ્ગો	-10.3726
િતબ્બન્તિ	-10.3727
▁સમ્મોહ	-10.3729
ભાવા	-10.3731
▁જાન	-10.3733
▁દસ્સિતં	-10.3734
▁ચુતો	-10.3735
પાક	-10.3741
▁નચ્ચ	-10.3742
સરણ	-10.3742
▁એત	-10.3743
▁ચત્તાલીસ	-10.3745
▁ગુણે	-10.3753
▁સઙ્ખ્યાવારો	-10.3754
▁જોતિ	-10.3756
▁અરિયં	-10.3758
▁જેટ્ઠ	-10.3758
▁હિંસ	-10.376
▁સિબ્બ	-10.3767
▁પદેહિ	-10.3767
▁પટિચ્છન્ન	-10.3768
પઞ્ઞાસ	-10.3772
▁ઉપપત્તિ	-10.3772
મના	-10.3772
▁અન્તરઘરે	-10.3779
▁સમુદય	-10.3785
ન્તરં	-10.3787
▁સાવકો	-10.3796
▁પટિક્કમ	-10.3799
રાગો	-10.3802
▁ગવેસ	-10.3803
▁મતં	-10.3805
▁ચુન્દ	-10.3805
▁ઉપટ્ઠાન	-10.3816
▁અનુક્કમેન	-10.3819
▁વિવિધ	-10.382
▁સિરિ	-10.382
▁લોકિયલોકુત્તર	-10.3821
▁નામરૂપં	-10.3828
સાલ	-10.3829
▁સમગ્ગ	-10.3833
▁ચેપિ	-10.3836
▁લભન્તિ	-10.3839
▁વિસ્સજ્જ	-10.3839
▁અવિતક્કઅવિચાર	-10.3851
▁મયિ	-10.3853
▁અસઙ્ખત	-10.3854
▁દસમે	-10.3856
▁અનઞ્ઞાતઞ્ઞ	-10.3857
▁ઉટ્ઠાયાસના	-10.3857
▁મગ્ગાધિપતિ	-10.386
▁ગન્ધો	-10.3863
▁કથેન્તો	-10.3863
▁સમુટ્ઠાન	-10.3868
▁ધોવ	-10.3869
વાહ	-10.387
મોહ	-10.3871
▁છેત્વા	-10.3872
▁બ્યાધિ	-10.3872
સમ્માસમ્બુદ્ધસ્સ	-10.3874
▁ગતે	-10.3874
▁આસેવનપચ્ચય	-10.3875
▁પિતરં	-10.3876
▁પટિક્ખિપતિ	-10.3881
▁અકુસલસ્સ	-10.3884
▁ખન્તિ	-10.3888
▁અલઙ્કાર	-10.3893
▁વઙ્ક	-10.3894
દુતિય	-10.3897
▁અનુસય	-10.3898
▁સુક્ખ	-10.39
▁રૂપા	-10.3903
▁માતરં	-10.3904
તલ	-10.391
▁લોકુત્તરં	-10.3914
▁પકારેન	-10.3915
▁ઇત્થીનં	-10.3916
▁કામાવચરં	-10.3916
ભવે	-10.3918
▁૧૧૭	-10.3919
▁વેરમણી	-10.3919
િસ્સામીતિ	-10.392
▁પટિભાન	-10.3921
કટ્ઠ	-10.3926
▁નિસ્સરણ	-10.3935
▁નિન્ન	-10.3938
સદ્દં	-10.3946
પઞ્ઞાય	-10.3954
▁બહુવચન	-10.3954
ચોર	-10.3961
▁મજ્જ	-10.3963
▁પુગ્ગલે	-10.3963
▁ખર	-10.3965
એત	-10.3967
સું	-10.3969
▁વસન્તિ	-10.3971
પટિલાભ	-10.3975
▁ભવરાગાનુસયો	-10.3976
ધનં	-10.3976
▁કિત્તિ	-10.3978
▁ચતુક્ક	-10.3978
▁પઞ્ઞવા	-10.3979
▁વિસેસન	-10.3979
▁સીલેન	-10.398
યું	-10.3982
મિત્ત	-10.3987
▁પત્તકલ્લં	-10.3988
▁મેધાવી	-10.3988
▁ચુતિ	-10.3989
▁હોમિ	-10.3992
▁ગાથાહિ	-10.3996
મુત્તમં	-10.3999
▁આપોધાતુ	-10.4002
નિબ્બાન	-10.4002
▁અચ્ચયેન	-10.4003
▁ઉપ્પલ	-10.4004
કુમ્ભ	-10.4005
▁ગામો	-10.4007
પ્પસાદ	-10.401
▁ઠિતે	-10.4011
▁ઞાય	-10.4015
▁સાવ	-10.4016
પક્ખે	-10.4023
▁પતિટ્ઠાય	-10.4025
▁પટિપદં	-10.4029
યી	-10.4029
▁અન્તે	-10.4032
▁દિસ્સન્તિ	-10.4033
ોદક	-10.4034
▁દુક્કટસ્સા	-10.4034
▁પચ્છાજાતં	-10.4035
▁ઉપ્પન્ને	-10.4035
▁માનાનુસયઞ્ચ	-10.404
▁થૂલ	-10.4044
▁ઉપસમ્પદા	-10.4047
▁અગ્ગિં	-10.4051
▁વિહરતો	-10.4051
▁સતસહસ્સ	-10.4052
▁હે	-10.4054
▁કોધો	-10.4056
▁હિરી	-10.4057
▁સૂરિય	-10.4057
▁જાનન્તો	-10.4063
ધર	-10.4067
▁ખિપ	-10.4067
▁થુલ્લચ્ચય	-10.4071
▁ઇતરા	-10.4074
ફસ્સ	-10.4077
ત્તયં	-10.4085
▁ભૂ	-10.4086
હન્તિ	-10.4092
▁પેત	-10.4092
▁આયસ્મતા	-10.4094
▁પગ્ગય્હ	-10.4095
▁પરિચ્છેદ	-10.4101
▁કિઞ્ચ	-10.4102
▁અવયવ	-10.4103
▁પસ્સન્તિ	-10.4106
યેવા	-10.4106
ાપેય્ય	-10.4106
▁ગૂથ	-10.4111
▁લગ્ગ	-10.4112
▁નિસીદતિ	-10.412
▁ઇદાનેવ	-10.4121
▁સબ્બેવ	-10.4121
ગમનં	-10.4122
▁સપ્પુરિસ	-10.4123
રસા	-10.4124
▁સયન	-10.4126
▁સઙ્ગ	-10.4128
▁ચક્ખાયતનઞ્ચ	-10.4131
મનસિકાર	-10.4132
▁ગણ્હન્તિ	-10.4132
▁ગહેત્વાન	-10.4134
▁બોધ	-10.4137
▁ભાસેય્ય	-10.4145
▁જનપદ	-10.4146
▁તસ્સાતિ	-10.4146
▁પવત્તો	-10.4147
▁મલ	-10.4149
▁માનત્તં	-10.4152
તત્ર	-10.4154
▁પબ્બજિતા	-10.4156
વિભઙ્ગ	-10.4157
▁તપ્પ	-10.4158
▁પચ્ચવેક્ખતિ	-10.4158
ગમ્ભીર	-10.4159
▁પરઞ્ચ	-10.4161
▁પદક્ખિણં	-10.4163
▁ઇતરં	-10.4163
▁સામણેર	-10.4163
નિરોધા	-10.4167
પ્પમાણં	-10.4167
▁અભિઞ્ઞેય્યં	-10.4175
▁ધમ્મઞ્ચ	-10.4177
▁સીહો	-10.4178
માનસો	-10.4179
▁પદે	-10.4183
▁તાસુ	-10.4183
ાદો	-10.4185
સહગત	-10.4186
▁કલ	-10.4187
ાનુભાવેન	-10.4189
▁પજા	-10.4193
▁સમ્બુદ્ધં	-10.4196
▁બ્યાપાદ	-10.4196
▁ભૂમીસુ	-10.4199
▁પટિઞ્ઞા	-10.4203
વત્તં	-10.4204
વિસયે	-10.4208
▁સુગતિ	-10.4211
▁ય્વાયં	-10.4213
▁ઉપાય	-10.4215
▁સસ્સત	-10.4215
▁ચેતસિકં	-10.4216
▁અસેક્ખ	-10.4216
▁સબ્બાપિ	-10.4216
▁પિણ્ડપાતં	-10.4223
▁ઓવાદં	-10.4224
▁સોમનસ્સં	-10.4226
ધમ્મેસુ	-10.4229
▁ઉપ્પન્નસ્સ	-10.4234
▁ઉપસઙ્કમ	-10.4235
▁એહિ	-10.4236
▁વુત્તમેવ	-10.4237
▁પચ્છાજાતા	-10.4241
▁તેસંયેવ	-10.4241
▁કમ્પ	-10.4244
કુમાર	-10.4245
▁પચ્ચુપ્પન્નં	-10.4246
▁તિવિધં	-10.4246
–-	-10.4249
▁નેવસેક્ખનાસેક્ખ	-10.4255
▁નુપ્પજ્જિત્થ	-10.4261
ગામે	-10.4266
▁પરિજાનાતીતિ	-10.4266
નેય્ય	-10.4267
▁સમાદપેતિ	-10.4269
▁દેવેસુ	-10.427
▁પુત્તે	-10.4273
િનિ	-10.4276
▁દા	-10.4278
▁ઇદ્ધિયા	-10.4281
મત્તો	-10.4281
આદીનિ	-10.4282
▁અનો	-10.4282
દિસા	-10.4289
ૂપમા	-10.4291
મેક	-10.4292
▁મનાપ	-10.4292
▁ઉદ્ધચ્ચં	-10.4294
માલા	-10.4295
▁અનવસેસ	-10.4295
સઙ્ગહો	-10.4303
▁કટત્તા	-10.4303
▁પાક	-10.4304
▁પવિટ્ઠ	-10.4306
▁હાર	-10.4307
▁મય	-10.431
▁અપનેત્વા	-10.4311
નગરં	-10.4312
▁પતિટ્ઠિત	-10.4314
▁અભય	-10.4314
▁ઉપપજ્જિત્વા	-10.4314
▁નિસીદિંસુ	-10.4315
▁અસીતિ	-10.4316
▁વેદયિતં	-10.4317
▁રટ્ઠ	-10.4317
દાયક	-10.4322
▁નાનપ્પકાર	-10.4324
▁દિસાય	-10.4327
ત્થસ્સ	-10.4329
▁સમેતિ	-10.433
▁સબ્બસ્સ	-10.4331
▁વિઞ્ઞાણસ્સ	-10.4332
▁પીતિયા	-10.4333
▁ઉપજ્ઝાય	-10.4337
અટ્ઠકથાય	-10.4341
▁પાકટા	-10.4342
ભઙ્ગ	-10.4344
▁ગહ	-10.4347
નાનત્ત	-10.4347
▁મેત્તાય	-10.435
આવુસો	-10.4352
▁દેહિ	-10.4356
િસ્સામ	-10.4358
વિભાગ	-10.4358
ેન્તસ્સ	-10.4359
▁માનં	-10.4362
સઙ્ગ	-10.4362
▁વાચતો	-10.4364
▁પક્કમતિ	-10.4367
▁કિન્તિ	-10.4368
પટ્ટ	-10.4368
▁ખયા	-10.4373
▁વહ	-10.4376
▁અભાવેન	-10.4379
▁મોદ	-10.438
▁સઙ્ગહં	-10.4381
સાધન	-10.4382
▁ચન્દન	-10.4389
▁બ્રૂમિ	-10.4391
મભિ	-10.4392
ક્ખત્તું	-10.4395
▁ભાવેતબ્બા	-10.4397
▁ઉપનિસ્સય	-10.4401
▁પહાના	-10.4406
ખન્ધ	-10.4406
▁પટિગ્ગણ્હ	-10.4408
▁વિહરેય્ય	-10.441
▁આવજ્જ	-10.441
▁સદ્દે	-10.4411
સેન	-10.4414
▁આવાસે	-10.4415
▁પુરિમનયેનેવ	-10.4419
▁બ્યા	-10.4423
▁દેસિતં	-10.4423
▁ઉગ્ગત	-10.4423
▁અયમ	-10.4428
▁અમ્હે	-10.4429
ચરણ	-10.443
▁આન	-10.4434
▁સમ્પત્તિ	-10.4434
▁પઞ્હા	-10.4435
▁દહર	-10.4443
▁નવમે	-10.4444
▁મુચ્ચતિ	-10.4445
▁આસનં	-10.445
▁અટ્ઠહિ	-10.4451
▁ગણ્હિ	-10.4452
ણો	-10.4454
દીઘ	-10.4461
ન્ધ	-10.4462
▁અપ્પમત્તો	-10.4463
પરિયાપન્ન	-10.4463
▁નિપાત	-10.4464
િતાનિ	-10.4465
ેસ્સામિ	-10.4466
ાપીતિ	-10.4468
▁કમ	-10.4479
▁ઝાયી	-10.4479
લાભ	-10.4479
▁વિચિકિચ્છાસહગત	-10.4481
▁વિસુદ્ધિમગ્ગે	-10.4484
લુ	-10.4486
▁અનુરૂપ	-10.4487
▁તાપસ	-10.4488
▁બહૂનિ	-10.4489
ઞ્ઞા	-10.4492
▁વીર	-10.4498
િતુન્તિ	-10.4503
પત્તિ	-10.4505
▁દક્ખિણા	-10.4506
બલેન	-10.4507
▁ખીણાસવસ્સ	-10.4507
પાસ	-10.4507
▁સહધમ્મિક	-10.4512
▁પટિચ્ચસમુપ્પાદ	-10.4514
સેય્ય	-10.4515
▁સોચ	-10.4515
▁કટ	-10.4516
▁સેસો	-10.4524
તાયાતિ	-10.4527
▁ચિત્તતો	-10.4527
સેવન	-10.4528
▁અનન્તરૂપનિસ્સયો	-10.4529
▁વસિત્વા	-10.4531
▁વિસેસેન	-10.4533
▁ઉપ્પાદાય	-10.4535
▁કોસિય	-10.454
ક્ખર	-10.4544
મઙ્ગલ	-10.4544
▁વિપુલ	-10.4547
▁દેવમનુસ્સાનં	-10.455
ાનન્દ	-10.4552
▁ચરણ	-10.4553
▁સુત્વાન	-10.4558
મેત્થ	-10.456
પ્પભેદ	-10.4563
▁પેક્ખ	-10.4566
▁આસવવિપ્પયુત્ત	-10.4572
વત્થૂનિ	-10.4576
▁પત	-10.4577
▁ઇમ	-10.4582
▁અનાગામી	-10.4585
▁થમ્ભ	-10.4589
▁૧૨૦	-10.4591
▁આવાસિકા	-10.4592
▁પાપુણ	-10.4592
▁મક્ખ	-10.4592
▁ઉટ્ઠાય	-10.4593
▁ભિક્ખુનિં	-10.4597
▁પરક્કમ	-10.4599
વિતક્કવિચારમત્તો	-10.46
▁પટિવેધ	-10.46
▁એતેનેવ	-10.4603
▁વુદ્ધ	-10.4606
▁પત્થ	-10.4612
▁સમય	-10.4613
ત્વં	-10.4615
કાસિ	-10.4616
બહુ	-10.4616
▁વદન્તો	-10.4617
▁અત્થી	-10.4617
▁મહામુનિ	-10.4618
કલાપ	-10.4621
પવત્ત	-10.4621
મત	-10.4625
▁મનોધાતુ	-10.4627
િતન્તિ	-10.4627
▁સાનુસયો	-10.463
▁ચન્દો	-10.4631
અઞ્ઞમઞ્ઞ	-10.4632
બુદ્ધો	-10.4635
▁અપરેન	-10.4638
▁ભાર	-10.4641
▁સેય્ય	-10.4642
▁અત્તમનો	-10.4644
▁દિવસં	-10.4644
સુપિ	-10.4646
મત્તનો	-10.4647
પટિપક્ખ	-10.4647
કતમે	-10.4648
▁તુમ્હેહિ	-10.4648
મુખં	-10.465
અપ્પ	-10.4651
▁ભોગે	-10.4654
યુત્તં	-10.4656
▁અર	-10.4658
▁આરબ્ભાતિ	-10.4659
ઞ્ઞાતાવિન્દ્રિયં	-10.4661
ાધિગમ	-10.4662
▁સમ્માસતિ	-10.4663
▁પદેસે	-10.4665
▁નિગ્રોધ	-10.4666
▁સ્વેવ	-10.4666
પટિપત્તિ	-10.4668
▁થુલ્લચ્ચયં	-10.467
કરણેન	-10.4671
▁વાચ	-10.4671
ોદકં	-10.4675
▁આસિં	-10.4676
▁તિરિયં	-10.4678
▁અભબ્બો	-10.468
▁વિસં	-10.4684
▁દુક્ખે	-10.4686
▁અભિનન્દ	-10.4688
મુત્તો	-10.4693
▁સબ્બઞ્ઞુતઞ્ઞાણ	-10.4699
▁પાપકમ્મં	-10.4699
▁ચિત્તસંસટ્ઠ	-10.4701
▁વનં	-10.4701
સન	-10.4702
▁ઓલોક	-10.4703
▁સત્થારા	-10.4704
▁પઞ્ઞ	-10.4713
▁પટિપાટિયા	-10.472
▁મહતો	-10.4728
▁સમ્પન્ન	-10.4732
▁નઅકુસલો	-10.4733
વાસિ	-10.4736
ાસીતિ	-10.474
▁વુટ્ઠાન	-10.4742
▁ઉજુ	-10.4742
▁જાયન્તિ	-10.4743
▁દુક્ખન્તિ	-10.4745
કથાય	-10.4745
▁અપ્પહીનો	-10.4746
ભુ	-10.4753
૧૧	-10.4753
▁મનસિકારો	-10.4754
▁ઉપ્પજ્જેય્ય	-10.4756
▁કમ્માનં	-10.4759
વિધાન	-10.476
▁સુખદુક્ખ	-10.4764
▁સમ્પત્તે	-10.4764
▁પિયં	-10.4766
▁મલ્લ	-10.4767
▁ઉપાસિકા	-10.4769
ચ્છેદ	-10.477
▁પદટ્ઠાનં	-10.4771
વિકપ્પ	-10.4771
યિત્વાન	-10.4776
દેવતા	-10.4776
▁સમત્થો	-10.4778
ગહણ	-10.4781
▁પઞ્હો	-10.4783
ચુણ્ણ	-10.4785
▁અરહત્તમગ્ગ	-10.4789
▁ઉક્ખિપિત્વા	-10.4789
▁અનુભવ	-10.4793
▁સુત્તન્ત	-10.4794
▁પત્તિયા	-10.4799
▁ચક્કવાળ	-10.4802
▁ઉપાયેન	-10.4804
કથઞ્હિ	-10.4804
▁સોહં	-10.4804
વસ્સં	-10.4805
▁પસ્સદ્ધિ	-10.4805
નિસ્સિતં	-10.4806
▁અભિવ	-10.4806
▁બાધ	-10.4807
▁ગોચર	-10.4807
ુપ્પન્ન	-10.4807
કરા	-10.4808
▁અગારસ્મા	-10.4812
▁ચતુબ્બિધં	-10.4814
▁દોમનસ્સિન્દ્રિય	-10.4818
સાખ	-10.4818
▁પહાતબ્બ	-10.4819
▁બલવા	-10.482
લભ	-10.482
▁ચેતો	-10.4821
▁સદ્ધં	-10.4823
▁મત્ત	-10.4825
ધાતુયા	-10.4826
રજ્જ	-10.4828
▁રહ	-10.483
વાત	-10.483
▁આલોકો	-10.4831
અજ્જ	-10.4831
કારા	-10.4834
▁યાચતિ	-10.4837
▁સઙ્ક	-10.4843
▁ગિરિ	-10.4845
▁પહર	-10.4847
▁રુક્ખો	-10.4848
▁કત્તબ્બં	-10.4849
▁દુવિધો	-10.4851
▁કુચ્છિ	-10.4852
ચરિય	-10.4853
ોપમ	-10.4855
▁કામાવચરા	-10.4858
વિપલ્લાસ	-10.4861
▁સતિપિ	-10.4861
▁અચ્ચ	-10.4864
▁કાર	-10.4869
▁પહીયતિ	-10.4869
▁પટિલભિસ્સન્તિ	-10.487
▁સમીપે	-10.4872
▁પીળ	-10.4874
▁નિદ્દેસો	-10.4875
▁પાપકં	-10.4875
▁અરિયાનં	-10.4877
વન્તં	-10.4878
▁મગ્ગફલ	-10.4883
▁ઇવ	-10.4885
▁સમૂહ	-10.4886
▁સબ્બલોક	-10.4887
▁અવિતક્કઅવિચારો	-10.4891
દિટ્ઠ	-10.4893
રુહ	-10.4896
▁પુબ્બેવ	-10.4896
ગમ	-10.4896
▁સઙ્ખ્યા	-10.4898
▁પક્કમ	-10.4899
ભૂતસ્સ	-10.49
▁સલ્લ	-10.4901
▁સબ્બદિસા	-10.4901
▁દસ્સેસિ	-10.4901
▁ઉપગન્ત્વા	-10.4902
થાતિ	-10.4904
ગોત્ત	-10.4908
▁અત્તતો	-10.4915
▁વત્થં	-10.4919
વિજ્જા	-10.492
▁વોહર	-10.4923
▁આકાસાનઞ્ચાયતન	-10.4923
▁અનુઞ્ઞાતં	-10.4925
▁નસરણ	-10.4926
▁ભણન્તસ્સ	-10.4927
▁તતિયમ્પિ	-10.4929
▁ઉપાદાનં	-10.4931
સ્વાગતં	-10.4936
ાચાર	-10.4941
▁સેટ્ઠિ	-10.4942
▁સંસટ્ઠા	-10.4946
કમ્મસ્સ	-10.4947
પરિયાયો	-10.4949
કલ્યાણ	-10.4952
▁વિમાન	-10.4955
▁જઞ્ઞા	-10.4958
▁છડ્ડેત્વા	-10.4959
▁અદ્ધ	-10.4961
યમક	-10.4962
સાય	-10.4962
મૂલકં	-10.4962
સિયા	-10.4968
▁વિરોચ	-10.4969
▁સમણસ્સ	-10.4969
▁સોતાયતનં	-10.4975
▁સીઘં	-10.4977
▁નત્થિયા	-10.4984
▁હત્થતો	-10.4987
▁એવમાદીસુ	-10.4989
મધુર	-10.4989
▁ઇમિનાવ	-10.4989
મતિ	-10.4992
▁સદ્ધો	-10.4994
▁સમન્નાગતં	-10.4996
િકે	-10.4997
તૂતિ	-10.5
ચી	-10.5002
▁વસી	-10.5004
▁અસક્કોન્તો	-10.5006
ાનુરૂપં	-10.5009
મુખો	-10.501
▁કહાપણ	-10.5011
ગણનાય	-10.5014
▁એવમાહંસુ	-10.5015
▁હત્થપાદ	-10.5019
▁આગન્તુક	-10.502
▁૧૨૪	-10.5023
▁જાનેય્ય	-10.5024
▁૧૨૩	-10.5026
▁સઙ્ખત	-10.5027
▁ઇન્દ્રિયપચ્ચયેન	-10.503
▁હીતિ	-10.5031
▁દિટ્ઠે	-10.5033
સક્ક	-10.5033
અસ્સ	-10.5033
વાસિનો	-10.5041
▁સહસ્સં	-10.5043
▁સોતાપત્તિફલે	-10.5051
સમ્પન્નં	-10.5052
▁પસન્ન	-10.5054
▁નિબ્બુતો	-10.5056
રતિ	-10.5057
િધ	-10.5058
પદુમ	-10.5061
▁ઉપોસથો	-10.5062
▁વાદો	-10.5063
▁આહુ	-10.5063
▁મિસ્સક	-10.5066
▁પથવિ	-10.507
▁ગિહી	-10.507
ાહી	-10.5071
સામઞ્ઞ	-10.5071
▁દાતબ્બ	-10.5071
▁ખન્ધેન	-10.5072
▁એકિસ્સા	-10.5077
▁વિનિચ્છય	-10.5078
▁૧૨૨	-10.5078
સદ્ધા	-10.508
સમ્મા	-10.5091
ચમ્મ	-10.5092
▁તપો	-10.5096
▁બ્રહ્મચરિય	-10.5096
▁જોત	-10.51
અનાપત્તિ	-10.51
▁મઞ્ચ	-10.5101
▁સૂકર	-10.5104
▁પયિરુપાસ	-10.5106
નન્દ	-10.5106
▁કથિન	-10.5108
▁સંવરો	-10.5113
િમં	-10.5118
▁દેસિતા	-10.5119
▁વુત્તમ્પિ	-10.512
▁પારં	-10.5121
▁સમુટ્ઠાનેહિ	-10.5122
▁અત્તભાવે	-10.5123
▁અપ્પમાણ	-10.5125
▁બોજ્ઝઙ્ગ	-10.5126
▁ભોન્તો	-10.5128
▁ઉપચાર	-10.5134
▁સમાપત્તિં	-10.5135
હત્થિ	-10.5137
હે	-10.5139
▁નિબ્બાનસ્સ	-10.5141
▁દુવિધં	-10.5142
▁અભાવા	-10.5145
સટ્ઠિ	-10.5148
▁સમુ	-10.5149
રિવ	-10.515
▁યોગ	-10.5151
▁થામ	-10.5151
▁ગુણા	-10.5152
▁કિરિય	-10.5155
▁સકટ	-10.5156
લોપ	-10.5157
▁કરોથ	-10.5157
▁વિભઙ્ગવારો	-10.5161
▁સક્કોન્તિ	-10.5161
▁મનં	-10.5162
▁મનોવિઞ્ઞાણધાતુ	-10.5169
▁ગુણં	-10.5171
▁ફોટ્ઠબ્બ	-10.5171
ેસા	-10.5173
ત્થેર	-10.5175
ઞ્છ	-10.5177
▁ફોટ્ઠબ્બાયતનં	-10.518
▁ચક્કવત્તિ	-10.5182
▁પંસુ	-10.5182
▁સૂરિયો	-10.5183
▁મમં	-10.5187
માદાય	-10.5188
ટ્ઠે	-10.519
▁પરિચ્છિન્ન	-10.5194
▁મહતા	-10.5195
▁બ્રૂહિ	-10.5196
▁સંકિલેસ	-10.5197
લં	-10.5197
ઙ્ગુલ	-10.5198
સમો	-10.5199
▁ઇત્થિલિઙ્ગ	-10.52
▁સમ્મપ્પધાન	-10.5204
▁સામ	-10.5206
ેસૂ	-10.5207
યુત્તા	-10.5212
▁કુસલત્તિક	-10.5219
▁મનસિકરોતો	-10.522
▁કારક	-10.5223
▁અનુજાન	-10.5223
કમ્મટ્ઠાન	-10.5226
પસાદ	-10.5228
ટ્ઠાનતો	-10.523
▁ઠપ	-10.523
▁ઉપ્પાદેત્વા	-10.523
▁કોપ	-10.5233
▁એકમેવ	-10.5237
▁હિમવન્ત	-10.5237
▁વિનયં	-10.5239
▁વીત	-10.524
ાનન્તર	-10.5241
▁મારિસ	-10.5243
સિદ્ધિ	-10.5243
સતસહસ્સ	-10.5245
▁અભિજ્ઝા	-10.5247
▁વીતિક્કમ	-10.5249
સિક્ખ	-10.5252
▁કરિસ્સતિ	-10.5254
રહ	-10.5254
લોહિત	-10.5254
▁નિસ્સરણં	-10.5255
▁પરિયોસાન	-10.5256
સન્તાન	-10.5259
▁નિરુજ્ઝતીતિ	-10.5261
▁પરિભુઞ્જ	-10.5262
રૂપાનિ	-10.5266
▁સમનુપસ્સતિ	-10.5267
▁પવત્તન્તિ	-10.5269
▁ગય્હ	-10.5276
અરિય	-10.5276
▁વુટ્ઠાતિ	-10.5277
▁કુલં	-10.5278
સામણેર	-10.5278
▁રાહુલ	-10.5282
પદેસ	-10.5282
મેત	-10.529
▁અધિગમ	-10.5294
સીમા	-10.5297
▁વિનસ્સ	-10.5298
▁ભુત્ત	-10.5298
પાય	-10.53
સભાવા	-10.5309
▁સપ્પીતિક	-10.531
સમ્ભાર	-10.5319
વીથિ	-10.5322
▁આકિઞ્ચઞ્ઞાયતન	-10.5322
▁પાચિત્તિ	-10.5322
મણ્ડલં	-10.5324
ધારણ	-10.533
▁વિઞ્ઞૂ	-10.5331
▁પહાતબ્બહેતુક	-10.5339
▁ભિક્ખૂતિ	-10.534
પ્પધાન	-10.5342
▁ભાવે	-10.5344
▁૧૨૧	-10.5345
▁દહ	-10.5346
સમ્મ	-10.5352
ત્થેન	-10.5355
લદ્ધ	-10.536
▁વિસ્સટ્ઠ	-10.5362
▁ભૂમિયા	-10.5363
▁કિરિયં	-10.5366
▁અસ્સાસ	-10.5368
▁ચક્ખુવિઞ્ઞાણસ્સ	-10.5371
▁ઓળારિક	-10.5374
▁પુરિમં	-10.5375
▁પસ્સતીતિ	-10.5379
▁પગ્ગહ	-10.5379
િનં	-10.5381
ાદી	-10.5382
ભદ્દ	-10.5384
▁અવિપરીત	-10.5386
ુદ્દેસ	-10.5389
▁પતિત	-10.5391
▁વિવાદ	-10.5391
પવત્તિ	-10.5391
▁અબ્ભન્તર	-10.5393
▁અમોહો	-10.5399
▁દેસિતો	-10.5402
▁ભર	-10.5404
▁વિપરીત	-10.5404
▁ખિત્ત	-10.5406
કાળ	-10.5407
▁દસ્સનત્થં	-10.5408
▁મોહસ્સ	-10.5411
▁ગહેતબ્બ	-10.5416
રુક્ખો	-10.542
▁વીસ	-10.5422
▁સહસા	-10.5423
▁ઓવદ	-10.5423
▁અરહ	-10.5424
▁અનરિય	-10.5424
▁કાતબ્બ	-10.5426
ઠાન	-10.5428
સમઙ્ગી	-10.543
▁અવચ	-10.5431
▁વત્થુસ્મિન્તિ	-10.5434
યમ્પિ	-10.5436
▁નિપન્ન	-10.5436
કત્થ	-10.5437
▁સજ્ઝાય	-10.5439
સમુદ્દ	-10.5441
▁બુદ્ધિ	-10.5442
મ્	-10.5446
▁સચ્ચા	-10.5448
▁પા	-10.545
▁સરૂપતો	-10.5452
▁આચાર	-10.5453
▁કથિત	-10.5453
▁દક્ખિણં	-10.5456
▁પરિગ્ગહ	-10.5462
▁ફુસ્સ	-10.5469
▁અચ્છરા	-10.5474
▁વસન્તો	-10.5478
તિઆદિકં	-10.5479
મહારાજ	-10.548
▁વિસેસં	-10.5481
▁૧૨૫	-10.5482
▁સોણ	-10.5484
▁પુબ્બેપિ	-10.5485
ઞ્ઞં	-10.5485
ગ્ગાહો	-10.5491
▁ભોતો	-10.5494
▁પાળિયા	-10.5494
▁ઉત્તાન	-10.5494
▁આસન્ન	-10.5494
સુદ્ધિ	-10.5495
▁ચતુબ્બિધ	-10.5496
રોધ	-10.5497
પરમ	-10.5498
બ્યા	-10.5502
▁તણ્હં	-10.551
વિધં	-10.5511
▁વિત્થારો	-10.5512
ેસી	-10.5516
▁વિસભાગ	-10.5517
રટ્ઠ	-10.5524
ાસન	-10.5528
▁ઠાનેહિ	-10.5529
વિકાર	-10.5536
▁સુમેધ	-10.5537
▁ભાય	-10.5538
▁પટિપદાય	-10.5538
દાય	-10.5539
▁વસે	-10.554
▁ધુવં	-10.5542
▁કસ્સપો	-10.5542
▁જાનન	-10.5542
ભાવનાય	-10.5545
પારમિ	-10.5546
વેદન	-10.5547
દુક્ખનિરોધગામિની	-10.555
મત્થં	-10.5553
▁ઉપપરિક્ખ	-10.5555
ેતુકામો	-10.5566
ભેદં	-10.5571
▁ગવ	-10.5574
▁નિસિન્નસ્સ	-10.5576
▁મુત્તા	-10.5577
▁પુબ્બભાગે	-10.5578
સ્વ	-10.5579
▁વિચર	-10.558
▁અય્યે	-10.56
પટિમણ્ડિત	-10.5603
▁નોઆસવ	-10.5603
▁દક્ખિણેય્ય	-10.5605
વિભઙ્ગે	-10.5605
▁ઉદકેન	-10.5611
▁અનુવત્ત	-10.5611
રોહ	-10.5614
▁અગ્ગહેત્વા	-10.5615
▁દુક્ખક્ખન્ધસ્સ	-10.5615
પારમી	-10.5618
▁ઇસ્સા	-10.5625
▁કતન્તિ	-10.5625
વી	-10.5629
▁રક્ખિત	-10.5636
▁દિટ્ઠાનુસયો	-10.5638
તબ્બ	-10.5638
પાણ	-10.5638
િમા	-10.5639
▁પુચ્છિતો	-10.5639
▁દીઘો	-10.564
▁વાક્યં	-10.5647
સેનાસન	-10.5648
▁ખત્તિયા	-10.5648
▁હત્થં	-10.565
સિક્ખાપદે	-10.5652
▁કરિસ્સામિ	-10.5654
તપ્પ	-10.566
▁ચિત્તસમુટ્ઠાન	-10.566
▁પરિઞ્ઞાય	-10.5661
ાનન્તરં	-10.5664
▁ઞાત	-10.5665
▁સરણગમન	-10.5666
▁ગચ્છામિ	-10.5668
▁યમ	-10.5668
▁દુવિધેન	-10.5672
▁મહાજનસ્સ	-10.5675
▁સમ્માસમ્બુદ્ધેન	-10.5679
▁સમત્થ	-10.568
▁ગમને	-10.5683
વન્તો	-10.5688
દત્ત	-10.569
▁સકુણ	-10.569
ઞ	-10.5691
▁ઘરે	-10.5693
▁નિબ્બિન્દતિ	-10.5698
▁સકલં	-10.5701
▁આદિં	-10.5701
કણ્ટક	-10.5704
રહિતા	-10.5705
સમ્પન્ના	-10.5706
▁વાક્ય	-10.5706
અઞ્ઞ	-10.5707
▁વિરતિ	-10.5709
▁બુદ્ધુપ્પાદે	-10.5712
▁રાગસ્સ	-10.5713
છન્દ	-10.5715
▁પત્થના	-10.5719
▁૧૨૬	-10.572
▁જવ	-10.5722
▁પઞ્ઞત્તન્તિ	-10.5722
▁સમ્ભવ	-10.5725
▁અનાપુચ્છા	-10.5725
▁પરિયેસ	-10.5726
▁ગઙ્ગા	-10.5727
સક	-10.5729
પણ્ડિતો	-10.573
યાવ	-10.5731
ખણ્ડ	-10.5732
▁નદિયા	-10.5733
▁ઉભયત્થ	-10.5735
ગતે	-10.5737
ેય્યાસિ	-10.5739
▁દુક્ખેન	-10.5741
દોસો	-10.5741
ણે	-10.5743
▁તદુભય	-10.5746
▁નાવા	-10.5746
માહુ	-10.5747
▁હોતૂ	-10.5748
▁તેનાતિ	-10.5749
▁અસ્સાસપસ્સાસ	-10.5753
▁૧૨૮	-10.5755
વરં	-10.5757
▁અટ્ઠસુ	-10.5758
જ્ઝાસય	-10.5763
▁રુ	-10.5765
▁નક્ખત્ત	-10.5766
સપ્પ	-10.577
▁નચિરસ્સેવ	-10.5771
એતં	-10.5772
▁હવે	-10.5774
▁અરિયસચ્ચં	-10.5774
▁વિમતિ	-10.5777
પિટ્ઠિ	-10.5779
ક્કન્ત	-10.5779
▁ઇદમવોચ	-10.578
▁પચ્ચયેહિ	-10.5783
▁રસ્સો	-10.5788
▁ઉપટ્ઠાનં	-10.579
▁ઘરં	-10.5791
▁૧૨૭	-10.5792
▁સાપિ	-10.5793
▁પરિકમ્મ	-10.5794
દ્વારં	-10.5795
પટિબદ્ધ	-10.5805
▁સન્નિપાત	-10.5806
▁સઙ્ઘિક	-10.5809
ાનઞ્હિ	-10.5814
ામહં	-10.5815
▁પચ્ચયપચ્ચનીયં	-10.5815
▁અઞ્ઞસ્મિં	-10.5817
પઞ્ચમ	-10.582
▁દુચ્ચરિતં	-10.5822
▁પુથુજ્જના	-10.5822
▁ગુત્ત	-10.5826
▁વંસ	-10.5826
દીનં	-10.5826
▁પુત્તદાર	-10.5829
સંયુત્ત	-10.583
▁ઉત્તમં	-10.5831
જાતિકો	-10.5832
▁સદિસો	-10.5832
▁દધિ	-10.5833
ેહિપિ	-10.5833
▁પટિસેધ	-10.5836
▁પુરિસાનં	-10.5838
▁ફલસમાપત્તિ	-10.5838
▁વાસેટ્ઠ	-10.5839
▁મહારાજા	-10.5841
ાધિપ્પાય	-10.5843
▁નાનત્ત	-10.5843
▁ઉપસગ્ગ	-10.5845
▁મદ	-10.585
સમાન	-10.585
▁ગામણિ	-10.585
▁સક્કાયદિટ્ઠિ	-10.5856
▁ધાતૂ	-10.5857
▁વિવટ	-10.5857
▁દદ	-10.5859
ધરા	-10.5861
▁ગણન	-10.5862
પુબ્બો	-10.5863
▁સત્તસુ	-10.5867
▁પેસેસિ	-10.5869
▁કારાપેત્વા	-10.5872
▁કદા	-10.5876
વાસી	-10.5881
▁તણ્ડુલ	-10.5883
▁સહબ્યતં	-10.5886
તસ્મા	-10.5891
ગુણં	-10.5892
▁લૂખ	-10.59
▁મોક્ખ	-10.5901
▁લોહ	-10.5903
પદાનં	-10.5907
▁પયોજ	-10.5909
જનક	-10.591
▁પથવીધાતુ	-10.5912
પાદિન્નુપાદાનિયો	-10.5913
▁પઞ્હે	-10.5915
▁પઞ્હ	-10.5915
▁ભુઞ્જિત્વા	-10.5918
યોનિ	-10.5919
િસ્સામા	-10.5924
▁અવિજ્જમાન	-10.5925
▁પકાર	-10.5925
ેન્તી	-10.5926
▁માનાનુસયેન	-10.593
▁આહારા	-10.5931
▁પદટ્ઠાન	-10.5931
▁સલ્લક્ખેત્વા	-10.5932
▁યાચિતો	-10.594
▁પઞ્ઞાવિમુત્તિ	-10.5943
સઞ્ઞાનાસઞ્ઞાયતન	-10.5943
▁અનુત્તરો	-10.5948
પણ્ડિત	-10.5952
▁સમ્ભાવ	-10.5952
▁પુપ્ફં	-10.5953
▁ભિક્ખુસઙ્ઘં	-10.5954
▁ધુર	-10.5954
▁મદ્દ	-10.5958
પચ્ચયે	-10.596
▁ખગ્ગવિસાણકપ્પો	-10.5962
▁અરણ	-10.5963
▁ઠપિતા	-10.5964
▁દસન્નં	-10.5967
કરં	-10.5971
▁અનેકવિહિત	-10.5973
કમ્મે	-10.5974
પરિચ્ચાગ	-10.5975
ગરુ	-10.5975
▁ધીતા	-10.5976
ત્થેરઅપદાનવણ્ણના	-10.5976
▁અપરિયાપન્ને	-10.5977
▁સમ્બુદ્ધ	-10.5978
▁યુત્તા	-10.598
▁મોચ	-10.5983
▁કઞ્ઞા	-10.5983
▁સંવેગ	-10.5987
જિન	-10.5988
▁ઉચ્છુ	-10.5989
▁ઠાનાનિ	-10.5994
▁કરોહિ	-10.5995
▁યોજન	-10.5999
▁ઉપોસથકમ્મં	-10.6
▁પચ્ચવેક્ખણ	-10.6003
▁એકવચન	-10.6007
મર	-10.6008
સાવક	-10.6009
સમ્મુતિ	-10.6011
▁અત્થેવ	-10.6012
▁સારથિ	-10.6013
▁તદઞ્ઞ	-10.6016
પ્ય	-10.6017
▁પટિલભ	-10.6017
▁પટિગ્ગણ્હાતિ	-10.6019
મય્હં	-10.6019
વાચ	-10.602
ાચરિય	-10.6022
ગુ	-10.6022
સાધારણ	-10.6023
▁દુવિધા	-10.6024
પટ	-10.6026
▁સુમન	-10.6027
▁અરૂપિનો	-10.6031
નિસ્સિતા	-10.6034
સમૂહ	-10.6035
ભગવા	-10.6038
કારે	-10.6039
▁ઇદ	-10.6042
▁સપ્પાય	-10.6042
ચિત્તાનિ	-10.6044
ચારી	-10.6044
સિપ્પ	-10.6045
▁પઞ્ઞાસ	-10.6046
▁નાસ્સ	-10.6046
▁પણ્ણત્તિ	-10.6053
િયમાને	-10.6055
િકાનં	-10.6057
▁કુજ્ઝ	-10.6058
▁પથ	-10.6058
▁અભિક્કમ	-10.6058
▁આદીનવ	-10.6058
તલે	-10.6059
▁અત્તમના	-10.6061
▁પાનીયં	-10.6063
યુ	-10.6063
▁ભિત્તિ	-10.6063
પરિસા	-10.6065
▁ભોજ	-10.6065
▁તીરે	-10.6068
▁સાગર	-10.6069
▁રૂપારૂપ	-10.607
▁ફુસિત્વા	-10.6072
ટ્ઠિત	-10.6073
▁મેથુનં	-10.6076
ત્તઞ્ચ	-10.6077
પાદક	-10.6084
▁લબ્ભતીતિ	-10.6085
▁બહુસ્સુતો	-10.6089
▁ગિલાનો	-10.6093
▁ઉપપજ્જ	-10.6093
▁પલાય	-10.6102
ભોજનં	-10.6104
એહિ	-10.6105
યમાના	-10.6106
લોકો	-10.6106
▁અપરિ	-10.6109
▁કેવલસ્સ	-10.6113
▁અતુલ	-10.6114
િકાતિ	-10.6116
▁દિટ્ઠધમ્મિક	-10.6117
▁પટિચ્ચસમુપ્પન્ન	-10.6119
▁અનુબન્ધ	-10.6119
▁કઞ્ચન	-10.6121
▁પબ્બતો	-10.6121
▁આપ	-10.6121
▁પૂરણ	-10.6123
માતિકા	-10.6126
▁ત્ય	-10.6127
▁ઉપ્પજ્જિત્વા	-10.6129
િયમાન	-10.613
▁મેત્ત	-10.6136
વિપત્તિ	-10.6136
▁સિનેરુ	-10.6137
યોગેન	-10.6146
▁ઇસ્સર	-10.6146
સહગતા	-10.6151
સોક	-10.6152
મચ્છ	-10.6154
ભિક્ખૂ	-10.6154
▁નાનાક્ખણિકા	-10.6157
▁અરઞ્ઞં	-10.6157
▁પુબ્બેનિવાસ	-10.6157
▁સેલ	-10.6166
▁આચરિયેન	-10.617
▁મહાબોધિ	-10.6173
દન	-10.6175
▁ઉદ્ધરિત્વા	-10.6178
▁પરિપુચ્છ	-10.6182
▁ઉક્ખિપ	-10.6182
▁ચણ્ડ	-10.6183
▁અરહન્ત	-10.6183
વિભાવન	-10.6184
મત્થકે	-10.6184
▁સદ્ધિવિહારિક	-10.6189
▁ધનુ	-10.6189
▁પઞ્ઞપેન્તિ	-10.619
ુપ્પાદન	-10.6192
પન્ન	-10.6192
પાર	-10.6194
▁તથારૂપ	-10.6198
ચત્તારો	-10.6199
સંવર	-10.6199
▁ઘાત	-10.62
▁ગોતમં	-10.6204
▁મય્હ	-10.6207
▁હોન્તુ	-10.6208
▁સબ્બેન	-10.621
પરિમાણ	-10.6213
▁ગોણ	-10.6213
સહિત	-10.6214
પચ્ચુપ્પન્ન	-10.6215
ચતુત્થ	-10.6221
▁અસ્મિં	-10.6222
▁દેસેસ્સામિ	-10.6223
▁સીલેસુ	-10.6224
▁હીનં	-10.6226
પઞ્હ	-10.6227
▁તિક્ખ	-10.6228
▁અરહત્તફલ	-10.6229
▁એતદવોચું	-10.6231
ચ્છિન્ન	-10.6231
વિધિ	-10.6232
▁પબ્બજ્જ	-10.6235
સજ્જ	-10.6238
હોતિ	-10.6238
રૂપે	-10.6239
▁પરમત્થતો	-10.6239
ઙ	-10.6241
▁અરતિ	-10.6243
▁વિપુલં	-10.6243
પત્તં	-10.6243
▁અભાવ	-10.6246
ઞ્ચાપિ	-10.6248
▁ઉપાદિન્ન	-10.625
▁પદેન	-10.6253
▁પત્તિ	-10.6255
દસ્સી	-10.6256
▁અહોસિં	-10.6256
▁ભોગા	-10.6258
▁અઞ્ઞાણં	-10.6259
▁તાદિનો	-10.6259
સીલા	-10.6261
સિર	-10.6263
▁પુબ્બાપર	-10.6263
પથં	-10.6267
▁ઉપેક્ખિન્દ્રિય	-10.6268
▁ચુણ્ણ	-10.6276
▁રતનં	-10.6278
▁સિવ	-10.6283
▁મિસ્સ	-10.6283
પુણ્ણ	-10.6283
▁ગણ્હન્તો	-10.6284
▁કરણીયા	-10.6285
▁દુક્કર	-10.6285
▁હેવ	-10.6285
કુલં	-10.6287
▁પચ્ચવેક્ખન્તિ	-10.6288
ક્રિયા	-10.6295
▁વિમલ	-10.6297
▁રટ્ઠં	-10.6299
▁સિસ્સ	-10.6303
▁નિક્ખમ	-10.6304
સીસેન	-10.6306
ભાગે	-10.6308
▁આરમ્મણપુરેજાતં	-10.6309
▁ભોજને	-10.631
▁અદિન્નં	-10.6311
▁ઉજ્ઝાયન્તિ	-10.6312
ાનુભાવ	-10.6318
હત	-10.6319
▁પક્ખિત્ત	-10.6319
સમાદાન	-10.6319
▁યોનિ	-10.632
▁કરણં	-10.6322
▁ઉદ્ધ	-10.6322
ઉત્તરિમનુસ્સધમ્મ	-10.6322
▁સમતિક્કમ્મ	-10.6323
▁અદત્વા	-10.6324
▁કરોન્તા	-10.6324
બદ્ધ	-10.6326
▁વિજહ	-10.6326
સેટ્ઠિ	-10.6326
દાનેન	-10.6331
▁અમચ્ચ	-10.6334
હત્થો	-10.6336
▁મહાજનો	-10.6338
▁સમથો	-10.6342
દસ્સ	-10.6345
▁નિક્ખિપિત્વા	-10.6353
▁કાયિક	-10.6354
ચ્છન્ન	-10.6354
▁પરિબ્બાજકો	-10.6355
અત્ત	-10.6357
▁રાગાદિ	-10.6357
▁હસ	-10.6357
▁સમ્પરાયિક	-10.6358
▁વારિ	-10.6361
▁સુતેન	-10.6363
▁સામિ	-10.6364
▁ગુણવન્ત	-10.6365
▁સિઞ્ચ	-10.6366
ાયપિ	-10.6367
સોભ	-10.6372
▁જનં	-10.6375
▁અત્થા	-10.6376
નત્થ	-10.6379
▁પૂતિ	-10.638
▁કરિસ્સામી	-10.638
▁ચુતા	-10.6382
નસ્સ	-10.6382
વિસિટ્ઠ	-10.6382
▁આનિસંસ	-10.6383
▁આરમ્મણૂપનિસ્સયો	-10.6389
▁સેના	-10.6389
આદીહિ	-10.639
▁ઘોસ	-10.6392
▁ઠપેતિ	-10.6397
▁સરો	-10.64
ભેસજ્જ	-10.6401
▁પચ્ચનીક	-10.6402
▁મહાદાનં	-10.6403
▁સરિત્વા	-10.6403
▁દેવલોક	-10.6412
▁એકચ્ચ	-10.6416
▁કલ્યાણમિત્ત	-10.6417
પદાન	-10.6417
▁આસન	-10.6419
પ્પહાનં	-10.6421
▁સિરસા	-10.6424
િયતિ	-10.6428
▁એકમ્પિ	-10.6428
▁વિપરિણામ	-10.643
▁નિદ્દેસ	-10.6431
ક્ખણ	-10.6431
▁એકદેસ	-10.6432
▁આપો	-10.6433
ધુર	-10.6433
▁પરિનિબ્બુતો	-10.6434
ાકારં	-10.6435
▁ઇસ્સરો	-10.6436
▁ભાવેત્વા	-10.6436
▁એય્ય	-10.6444
થેર	-10.6444
ીર	-10.6445
▁વિમુત્ત	-10.6446
▁પુથુજ્જનસ્સ	-10.6447
▁ઉપેક્ખાય	-10.6447
મજ્ઝિમ	-10.6449
▁તાવદે	-10.6449
▁ગાવો	-10.6458
▁અન્તેવાસિક	-10.646
કારેન	-10.6461
▁નિપજ્જ	-10.6466
▁તણ્હ	-10.6467
જાતં	-10.6467
▁સનિદસ્સનસપ્પટિઘ	-10.6468
▁ભવેસુ	-10.6468
▁વચી	-10.6469
યાન	-10.647
▁એવન્તિ	-10.6471
ળિ	-10.6472
▁વિપાકપચ્ચય	-10.6473
▁ભાવેન્તો	-10.6476
▁સક્ખિ	-10.6477
▁તુમ્હ	-10.6478
ઞ્ઞો	-10.6479
▁ઠાના	-10.6479
ત્થન્તિ	-10.6479
પૂરણ	-10.6481
▁ઉપગત	-10.6481
કતમા	-10.6486
▁દેવપુત્ત	-10.6488
▁હત્થી	-10.6489
▁સોતાપત્તિફલ	-10.6491
ાવહ	-10.6493
▁છન્દરાગ	-10.6494
▁સમ્બહુલે	-10.6497
▁પરિચ્ચજ	-10.6498
▁સૂપ	-10.6501
ચતુક્ક	-10.6503
▁સમુદાય	-10.6503
▁રૂપકાય	-10.6509
▁મેથુન	-10.6511
▁ભિક્ખવો	-10.6515
▁નિદાનં	-10.6518
કારકો	-10.652
▁મેત્તં	-10.6523
▁મહેસિ	-10.6523
▁પહૂત	-10.6523
ઞ્ચેત્થ	-10.6523
▁પુત્તસ્સ	-10.6524
દુસ્સ	-10.6527
▁સમ્માવાચા	-10.6527
▁નરા	-10.6528
સ્મિઞ્હિ	-10.6532
▁અધિપ્પાયેન	-10.6546
▁પટિબાહ	-10.6557
▁ખ્વાહં	-10.6557
▁આર	-10.6557
લોચન	-10.6558
▁વિહાસિ	-10.6559
▁ધમ્મિક	-10.656
▁ધમ્મચક્કં	-10.6563
▁પઞ્ચિન્દ્રિયાનિ	-10.6563
▁પદાનં	-10.6563
▁મનાપા	-10.6566
▁અધમ્મો	-10.6568
▁ચોરા	-10.6569
▁વત્તમાને	-10.6573
▁નાગરાજા	-10.6575
▁પટિલભતિ	-10.6575
ય્હ	-10.658
▁વિપલ્લાસ	-10.658
▁ગાય	-10.6584
▁હોન્તી	-10.6587
▁સઙ્ઘાદિસેસો	-10.6591
▁તિત્થિય	-10.6591
▁પચ્ચયુપ્પન્ન	-10.6591
▁ઉર	-10.6598
▁લોકુત્તરધમ્મ	-10.6599
▁પસ્સં	-10.6602
▁હન્દ	-10.6602
▁સત્તિ	-10.6604
▁દેસેન્તો	-10.6605
▁સદેવકે	-10.6605
▁અનાપત્તીતિ	-10.6605
▁થુલ્લચ્ચયસ્સ	-10.6607
સેટ્ઠ	-10.6608
▁નિદ્દિટ્ઠ	-10.6609
▁સાખા	-10.6611
ાલય	-10.6614
▁સાલિ	-10.6616
▁અમનુસ્સ	-10.6618
ેહેવ	-10.662
▁અયુત્ત	-10.6621
▁ઉપક્કમ	-10.6621
ગૂ	-10.6621
▁સુરા	-10.6622
સભાગ	-10.6622
▁પવત્તનતો	-10.6623
સઙ્ખત	-10.6624
▁અધમ્મેન	-10.6624
▁અજ્ઝુપેક્ખ	-10.6626
▁પાન	-10.6626
▁ચીવરે	-10.6626
▁અભિઞ્ઞેય્યો	-10.6628
અધિ	-10.6629
▁પકાસિતો	-10.6634
ક્ખિ	-10.6634
પકાર	-10.6635
▁જીવિતિન્દ્રિય	-10.6638
▁ફર	-10.664
▁ઉસ્સાહ	-10.664
▁વુત્તઞ્હિ	-10.6641
ઇચ્ચેત	-10.6644
રવ	-10.6648
જાતકે	-10.6649
▁બોધિસત્ત	-10.665
▁દુતિયજ્ઝાન	-10.6652
▁સીસે	-10.6652
▁દુતિયમ્પિ	-10.6652
▁સમાગતા	-10.6654
▁પસત્થ	-10.6654
▁પક્ખિપ	-10.6658
ચેતિય	-10.666
દ્વિ	-10.6661
▁તિલ	-10.6667
▁પટિવિદ્ધ	-10.6668
દાસ	-10.6671
યત્થ	-10.6671
મોદ	-10.6674
નવિપાકધમ્મધમ્મો	-10.6675
▁તિધા	-10.6675
▁સન્તક	-10.6679
▁ઉટ્ઠિત	-10.6679
▁યાચિ	-10.6682
▁સુદ્ધાવાસ	-10.6683
સઙ્ખેપ	-10.6683
તેસં	-10.6686
▁યોગો	-10.6686
ભાસિત	-10.6688
▁પથવિયં	-10.6693
▁વિચિત્ત	-10.6694
▁ધૂમ	-10.6694
▁વત્થુપુરેજાતં	-10.6695
▁અપચયગામિ	-10.6695
કસિણ	-10.6698
ઞ્ઞાય	-10.67
▁૧૩૦	-10.67
▁તાપસો	-10.6701
▁પનેસ	-10.6702
સમય	-10.6702
િસ્સા	-10.6704
વિત્થાર	-10.6705
▁ફલસમાપત્તિયા	-10.6706
▁ઉપટ્ઠ	-10.6709
પદેન	-10.671
▁અન્તિમ	-10.6715
ન્ધકાર	-10.6716
▁લજ્જ	-10.6716
▁રુક્ખં	-10.6717
યસ્મિં	-10.6718
ગબ્ભ	-10.6722
▁ખેત્તં	-10.6725
સંયુત્તં	-10.6727
▁પોરાણ	-10.6728
▁સમ્માવાયામો	-10.6728
▁નિરામિસ	-10.673
▁અસમ	-10.673
▁પાસાદ	-10.6731
કમ્પિ	-10.6732
▁ગહિતત્તા	-10.6734
કણ્ડ	-10.6734
દાયકો	-10.6735
રતનં	-10.6735
▁વિદ્ધંસ	-10.6739
ધરો	-10.674
▁સ્વા	-10.6741
▁તચ	-10.6742
ક્ખન્ધો	-10.6743
▁સઙ્ઘાટિ	-10.6745
▁કુલાનિ	-10.6746
ત્થુ	-10.6746
▁એતાયાતિ	-10.6746
▁સમાપન્નસ્સ	-10.6747
▁ધાતૂનં	-10.6747
▁ઇત્થન્નામો	-10.6752
▁મગ્ગારમ્મણ	-10.676
▁અયો	-10.6763
▁પઞ્ચવોકારે	-10.6764
▁આક	-10.6765
▁કથેતું	-10.6768
▁સમથેહિ	-10.6769
ભાજન	-10.6772
તાનિ	-10.6772
▁નખ	-10.6772
ંયેવ	-10.6773
▁કાયકમ્મ	-10.6776
▁નિરોધા	-10.6776
▁પાકાર	-10.6779
▁ખાદનીયં	-10.6779
પુ	-10.6779
▁રાગં	-10.6781
સન્નિસ્સિત	-10.6789
▁ગારવ	-10.6789
▁કુસલાકુસલ	-10.679
▁ચતુત્થજ્ઝાન	-10.679
▁અનાસવા	-10.6792
▁સમ્ભવતિ	-10.6792
▁નિક્ખમિ	-10.6795
સભાવં	-10.6798
▁સુદ્ધિ	-10.68
▁પરિઞ્ઞા	-10.6801
▁આચરિયસ્સ	-10.6801
પૂજ	-10.6803
મંસં	-10.6803
ક્ખા	-10.6804
પબ્બ	-10.6805
સમ્બોજ્ઝઙ્ગસ્સ	-10.6806
▁દુક્કટન્તિ	-10.6808
▁ઉત્તાનત્થમેવ	-10.6813
▁અપ્પહીન	-10.6814
તેલ	-10.6815
▁મત્થકે	-10.6816
▁સઞ્ચિચ્ચ	-10.6817
વિનાસ	-10.6819
▁ભિક્ખુનિ	-10.6819
▁અનિમિત્ત	-10.682
ગામી	-10.6822
▁અનાગતા	-10.6826
▁રતિ	-10.6827
▁મજ્ઝત્ત	-10.6827
▁પચ્ચેકબુદ્ધ	-10.6831
▁દિવસ	-10.6831
વત્થુકા	-10.6833
▁નિરુજ્ઝિસ્સન્તિ	-10.6834
▁ભાવિતો	-10.6835
▁કુટિ	-10.6836
▁અહેતુકપટિસન્ધિ	-10.6837
▁મઞ્ઞમાનો	-10.6839
ાસી	-10.6839
▁સેય્યં	-10.6842
▁તથાગતેન	-10.6844
ાભાવેન	-10.6847
કઞ્ચ	-10.6851
ત્યાદિ	-10.6852
▁વિચિન	-10.6855
▁નિયમ	-10.6855
બોધ	-10.6857
વેસ	-10.6859
▁કયિરા	-10.6859
▁જરાય	-10.6859
▁કુક્કુટ	-10.6861
▁આરભતિ	-10.6862
▁સમન્નાગતેન	-10.6868
મૂલં	-10.6871
▁વત્તન્તિ	-10.6873
▁હાસ	-10.6873
▁અનિય્યાનિક	-10.6877
▁વિપત્તિ	-10.6879
▁સુન્દરં	-10.6881
પદસ્સ	-10.6882
▁કતર	-10.6882
▁અતીતા	-10.6885
▁અબ્ભન્તરે	-10.6885
હારો	-10.6886
▁પમોદ	-10.6887
▁વાયમતિ	-10.6887
▁બ્યાપાદો	-10.6887
▁સુઞ્ઞત	-10.6888
▁ભેસજ્જં	-10.689
સણ્ઠાન	-10.6892
ભયેન	-10.6893
▁૧૨૯	-10.6893
▁મુખેન	-10.6894
સમ્ભવતો	-10.6894
▁કારાપ	-10.6899
દિન્ન	-10.6901
▁વિમુચ્ચ	-10.6901
પટિચ્છન્ન	-10.6903
▁નિબ્બત્તા	-10.6905
▁પુરિસેન	-10.6905
▁ધનેન	-10.6905
▁પજ્જ	-10.6905
▁સમ્પટિચ્છ	-10.6906
▁અગ	-10.6908
▁કરોથા	-10.6909
▁અનુયુઞ્જ	-10.6909
▁બલાનિ	-10.6913
પત્થ	-10.6915
▁ઉપટ્ઠહ	-10.6916
▁આરક્ખ	-10.6916
▁અધિપ્પાય	-10.6916
ક્કમો	-10.6917
▁પૂરિત	-10.6924
▁વેદન	-10.6925
▁દેવી	-10.6925
▁સત્તમો	-10.6928
નતા	-10.6928
પરિત્ત	-10.6929
▁કામભવ	-10.693
▁અભિભવ	-10.6934
▁દેથા	-10.6936
▁પભુતિ	-10.694
▁વિકાલે	-10.694
▁રૂપાવચરં	-10.6941
ઞાણેન	-10.6941
▁હોહિ	-10.6942
ૂપચાર	-10.6944
▁ખિય્યન્તિ	-10.6945
▁પદેસ	-10.6947
▁પસાદો	-10.6948
▁ઉપ્પજ્જનક	-10.6949
રજ	-10.6953
ાવસેસ	-10.6953
ચુ	-10.6955
ઇચ્ચાદિ	-10.696
▁પચ્છિમં	-10.696
▁પઞ્ઞપ	-10.6961
▁સમાધિસ્મિં	-10.6962
મરણ	-10.697
▁અવણ્ણં	-10.6971
૧૨	-10.6973
▁ભૂતં	-10.6974
▁છબ્બિધ	-10.6975
▁ગુળ	-10.6975
▁નિપાતમત્તં	-10.6977
▁ઉદાનેસિ	-10.6977
▁અરણો	-10.6979
▁૧૪૦	-10.6981
દી	-10.6984
▁તથાગત	-10.6986
▁ગોત્તેન	-10.6987
▁પલ્લઙ્ક	-10.699
▁પાઠ	-10.6992
વુટ્ઠ	-10.6993
▁સેસાનિ	-10.6993
પથે	-10.6994
▁૧૩૫	-10.6994
વરો	-10.6994
ાનુલોમ	-10.6995
એસ	-10.6995
▁પબ્બતે	-10.6997
▁સંયોગ	-10.7
▁ઉપાદાનસમ્પયુત્ત	-10.7002
▁રાસિ	-10.7002
▁તાવદેવ	-10.7002
▁ઞાણસ્સ	-10.7005
▁અદુક્ખમસુખં	-10.7007
ઇદાનિ	-10.7009
િત્વાતિ	-10.7011
ઘર	-10.7012
▁માનુસં	-10.7013
▁કરોમિ	-10.702
▁પરમં	-10.7024
▁દસ્સામી	-10.7024
▁પહીનત્તા	-10.7029
▁ઉપસમ	-10.7029
▁અક્ખિ	-10.7032
▁પટિજગ્ગ	-10.7034
▁પાલ	-10.7039
▁સાયં	-10.7041
કાલિક	-10.7042
▁સમાના	-10.7042
▁યદિપિ	-10.7043
▁ઉપરિમ	-10.7045
▁ઇમાનેત્થ	-10.7046
ાનુયોગ	-10.7046
▁પત્તચીવરમાદાય	-10.7046
▁આવટ્ટ	-10.7047
▁સમ્મતિ	-10.7053
▁પવિટ્ઠો	-10.7053
વાચક	-10.7054
▁ભાવિતત્તા	-10.7055
▁જમ્બુદીપ	-10.7055
▁સત્તુ	-10.7056
નર	-10.7057
▁અઞ્જન	-10.7064
▁મનસિકાર	-10.7065
પટિસન્ધિ	-10.7069
▁સુક્ક	-10.7075
ાતીતિ	-10.7077
▁અનાસવં	-10.7078
▁મનુસ્સલોકે	-10.7079
▁ઞ	-10.7082
યોગે	-10.7083
▁અટ્ઠમ	-10.7086
વનં	-10.7089
▁કુબ્બ	-10.709
▁સામિવચનં	-10.709
ાદિકા	-10.7093
▁ગણ્ડ	-10.7093
રૂપેન	-10.7094
▁આસય	-10.7103
▁ઉદ્દિસ	-10.7104
વચ્છ	-10.7106
ાદિભેદં	-10.7106
▁આસવો	-10.7107
વિસ્સજ્જન	-10.7109
▁૧૩૩	-10.711
▁કોવિદો	-10.7111
▁નેત્ત	-10.7111
ણ્હ	-10.7117
▁સબ્બેહિ	-10.7117
▁દેવતાનં	-10.7117
ાપય	-10.7119
▁કેસા	-10.7119
▁ઉપાદારૂપં	-10.712
▁અત્તભાવ	-10.7121
દિવસ	-10.7121
ક્ખી	-10.7126
▁ધીરા	-10.7127
▁૧૩૭	-10.713
▁તેજો	-10.7131
પત્તિયા	-10.7134
▁અહેતુકો	-10.7135
લોકે	-10.7137
▁આદિય	-10.714
▁અગારં	-10.7144
▁સમ્ભવો	-10.7146
▁સાદિય	-10.7147
▁તાહિ	-10.7148
▁વેસ્સન્તર	-10.7149
▁કુચ્છિત	-10.715
▁વાસ	-10.715
▁પક્ખે	-10.7151
▁બાહુ	-10.7151
ચક્કં	-10.7153
પાણિ	-10.7156
▁પુનપિ	-10.7157
▁નિદસ્સન	-10.7163
▁હેત્થ	-10.7163
▁સખા	-10.7164
▁અનુપ્પત્તો	-10.7164
▁અનુરુદ્ધ	-10.7165
▁સંયોજનાનં	-10.7165
્વ	-10.7166
▁અનભિ	-10.7167
▁સવિતક્કસવિચારા	-10.7169
▁ઉદ્ધચ્ચસહગતો	-10.717
▁મનુસ્સે	-10.7171
મૂલે	-10.7173
ઙ્ગણ	-10.7174
▁વસા	-10.7175
પઞ્ચિમે	-10.7175
▁કારિતે	-10.7184
▁વિપસ્સિસ્સ	-10.7185
સયન	-10.7187
ઇમસ્મિં	-10.7187
▁સમાધિન્દ્રિયં	-10.7187
▁ઠપિતં	-10.7188
▁પભવ	-10.7188
▁કોટ્ઠાસ	-10.719
બ્રહ્મચરિય	-10.7193
▁સીહનાદં	-10.7194
▁કમ્મુના	-10.7195
▁ગચ્છન્તે	-10.7196
▁પાટિદેસનીય	-10.7199
ચત્તારોમે	-10.7199
▁પકાસેત્વા	-10.72
સહગતં	-10.7201
▁સમાપન્નો	-10.7206
વિનિચ્છયો	-10.7209
▁મોહં	-10.7209
▁સક્કાય	-10.7212
નિયમ	-10.7212
▁ધમ્મધાતુ	-10.7213
▁એકન્તેન	-10.7217
▁સક્ય	-10.7218
સાધૂ	-10.7221
▁પતિટ્ઠિતા	-10.7222
▁તસ્સાપિ	-10.7222
▁પુઞ્ઞકમ્મ	-10.7223
▁વિમુત્તો	-10.7223
કીળ	-10.7224
▁અવસેસં	-10.7225
વિમોક્ખ	-10.7227
▁કુહિં	-10.7228
▁ફલાનિ	-10.7231
▁અપ્પમાણં	-10.7232
▁તેસમ્પિ	-10.7238
▁પટિસન્ધિં	-10.7238
▁વિમાનં	-10.7239
▁અદ્દસં	-10.724
રૂ	-10.7244
▁મારસ્સ	-10.7244
▁પાણં	-10.7245
▁૧૩૨	-10.7246
કસ્મા	-10.7247
▁થેય્ય	-10.7247
▁ધમ્મકથં	-10.7253
▁ભિક્ખુસઙ્ઘો	-10.7253
▁છડ્ડ	-10.7254
▁અનાદરિયં	-10.7255
▁ઓત્તપ્પ	-10.7257
સવન	-10.7259
▁ખજ્જ	-10.7262
▁વિપાચેન્તિ	-10.7268
▁મુચ્ચ	-10.727
▁છાદ	-10.7271
પઞ્ચહિ	-10.7272
▁ઉદય	-10.7273
▁ઉદાયિ	-10.7273
▁તિટ્ઠતીતિ	-10.7275
▁યુગ	-10.7278
▁દેહં	-10.7279
▁અદા	-10.7279
▁સગ્ગે	-10.7279
▁નાનાવિધ	-10.728
▁પુમ	-10.7292
▁સિક્ખાપદાનિ	-10.7294
▁ભૂતા	-10.7295
▁અયમસ્સ	-10.7296
▁રસો	-10.7297
▁જન્તુ	-10.73
▁સોત્થિ	-10.7301
વાચા	-10.7302
▁સન્તતિ	-10.7302
▁અપ્પત્ત	-10.7304
▁પસ્સેય્ય	-10.7306
▁ચણ્ડાલ	-10.7306
▁ઓતરિત્વા	-10.7307
▁ઇચ્છિત	-10.7307
▁સભાવતો	-10.7308
દ્વયે	-10.7308
▁પરિત્તો	-10.731
▁દિસ	-10.7312
તાપ	-10.7312
▁અરિયસચ્ચ	-10.7312
▁સબ્બઞ્ઞુ	-10.7312
▁પુચ્છન્તો	-10.7315
ભૂમિં	-10.7315
▁આલય	-10.7316
▁મહલ્લક	-10.7318
ખન્ધઞ્ચ	-10.7322
ભેદે	-10.7323
▁નીચ	-10.7323
▁ઉપટ્ઠાતિ	-10.7323
નિદાનં	-10.7325
▁વજ	-10.7327
▁ચરન્તો	-10.7328
િયમાના	-10.7329
▁ઉપ્પજ્જન્તીતિ	-10.7329
▁દેહી	-10.7329
કન્ત	-10.733
▁૧૩૮	-10.733
▁ગતં	-10.733
▁ગચ્છન્તં	-10.7332
સઞ્ઞાનાસઞ્ઞાયતનં	-10.7332
▁તેસન્તિ	-10.7335
▁વક્ખમાન	-10.7335
▁ધુતઙ્ગ	-10.7336
સીહ	-10.7337
▁સંયોજનાનિ	-10.7338
ગારવ	-10.7338
▁છત્તિંસ	-10.7339
▁માતુગામો	-10.734
તિણ	-10.734
▁વિકાર	-10.7341
▁અનુમોદ	-10.7342
▁લોહિતં	-10.7342
▁પભા	-10.7345
▁પાય	-10.7345
▁છત્તં	-10.7349
▁તેજોધાતુ	-10.735
▁૧૩૧	-10.7352
▁સોતાપત્તિમગ્ગ	-10.7353
પમાણ	-10.7354
▁નીવરણા	-10.7356
▁અચલ	-10.7358
▁સમાદિન્ન	-10.736
▁ચેતિ	-10.7362
▁પાનીય	-10.7365
સમ્પયુત્તં	-10.7365
▁ઉદાન	-10.7371
▁પણામ	-10.7371
હુ	-10.7374
▁મહન્તો	-10.738
દણ્ડક	-10.7381
ેસ્સતિ	-10.7381
▁૧૩૪	-10.7381
પટિપદા	-10.7381
▁અનુઞ્ઞાત	-10.7386
▁વત્થૂનિ	-10.7388
▁બ્રહ્મલોકે	-10.7397
▁અજ્ઝાસય	-10.7399
▁ઇમઞ્ચ	-10.7399
▁જમ્બુ	-10.74
ાતીત	-10.7401
▁ફસ્સપચ્ચયા	-10.7402
▁તિરચ્છાનગત	-10.7403
▁સુખુમા	-10.7405
▁સાસનસ્સ	-10.7406
▁વિઞ્ઞાણઞ્ચાયતન	-10.741
▁પુરેજાતસ્સ	-10.741
ક્કમેન	-10.7411
▁ધારેતિ	-10.7418
ગેહ	-10.7418
▁અપચ્ચ	-10.7422
▁મુઞ્ચિત્વા	-10.7426
પરિયન્ત	-10.7426
સભ	-10.7429
▁વણ્ણે	-10.7431
હઙ્ગેહિ	-10.7431
▁સણ્હ	-10.7433
કાયા	-10.7434
▁સન્તાને	-10.7435
નયે	-10.7436
▁પરિકપ્પ	-10.7439
સબ્બં	-10.7442
▁અભિજ્ઝાદોમનસ્સં	-10.7442
▁અતિક્કમ્મ	-10.7447
ખિલ	-10.7449
કુટિ	-10.745
▁સિનેહ	-10.7451
▁એવમેતસ્સ	-10.7452
▁ખલુ	-10.7452
▁નારી	-10.7453
વિનિચ્છય	-10.7457
▁પરિવારેત્વા	-10.7457
ીવ	-10.7459
▁ઠ	-10.7461
▁દેસિત	-10.7462
▁આણા	-10.7463
▁સમો	-10.7464
▁ભદ્ર	-10.7466
▁નામાનિ	-10.7466
લાપ	-10.7467
સમુદયો	-10.7467
ક્ખય	-10.7468
ાદિકો	-10.7468
પરિયોસાન	-10.7469
▁૧૩૬	-10.7471
▁તિવિધા	-10.7474
▁આપન્ન	-10.7474
યોગો	-10.7474
▁પટિક્ખિત્ત	-10.7475
▁વેય્યાકરણ	-10.7475
▁મણ્ડ	-10.748
પુત્તા	-10.7483
▁સળાયતન	-10.7485
બ્યાકત	-10.7485
▁એકેકં	-10.7487
▁અન્તરામગ્ગે	-10.7488
▁વુત્તિ	-10.7489
▁આદિત્ત	-10.7492
▁અભિભવિત્વા	-10.7493
▁પહ	-10.7493
▁અધમ્મિક	-10.7495
▁આરભ	-10.7496
▁વિભવ	-10.7496
▁અપરાપરં	-10.7497
▁મેઘ	-10.7497
સ્સામ	-10.7497
ગોચર	-10.7499
▁પહરિત્વા	-10.7499
▁વયો	-10.7502
▁સૂર	-10.7506
માણવ	-10.7507
▁મહામોગ્ગલ્લાનો	-10.7507
▁લિખિતં	-10.7508
▁દિવ	-10.751
િટ્ઠ	-10.7518
▁ઇસ્સરિય	-10.7519
▁મહાજન	-10.752
▁પટિચ્છાદ	-10.7521
▁અયોનિસો	-10.7522
▁કિલમ	-10.7523
૨૦	-10.7524
▁વિનિપાતં	-10.7525
ઇમસ્સ	-10.7527
▁ઉત્તાનમેવાતિ	-10.7529
નીવરણ	-10.7534
▁ગોત્ત	-10.7537
▁અજ્ઝત્તિકં	-10.7537
▁સન્તા	-10.7537
▁રાધ	-10.7538
▁મુખે	-10.7539
સન્તતિ	-10.7541
▁તયિદં	-10.7545
▁સકે	-10.7548
▁ઓળારિકા	-10.7549
▁ઘાનં	-10.755
▁પઠન્તિ	-10.755
▁ધારેય્ય	-10.7553
▁બ્યગ્ઘ	-10.7554
▁નિબ્બાનઞ્ચ	-10.7558
▁પહાર	-10.7559
▁સુગન્ધ	-10.7559
▁કુલગેહે	-10.756
ટ્ઠિતિ	-10.7561
ગિલાન	-10.7561
▁સંયમ	-10.7563
▁પુચ્છિતબ્બત્તા	-10.7565
▁સમાપજ્જિત્વા	-10.7565
▁આકિઞ્ચઞ્ઞાયતનં	-10.7567
▁અટ્ઠકથાય	-10.7568
▁પબ્બજ	-10.7569
▁ભિજ્જતિ	-10.7571
▁પજાય	-10.7575
▁પવિવેક	-10.7575
▁ચઙ્કમ	-10.7585
વાદિનો	-10.7585
▁ઉત્તમો	-10.7587
▁ચેતેતિ	-10.7589
▁જાતિં	-10.759
▁એતન્તિ	-10.7591
પણ્ણાસ	-10.7592
▁નાગા	-10.7592
વત્તન	-10.7593
▁તિવિધો	-10.7595
▁માલા	-10.7596
ધમ્મસ્સ	-10.7596
▁અલોભો	-10.7598
▁સબ્બેસમ્પિ	-10.7599
▁વિઞ્ઞાપેત્વા	-10.7601
ારમ્મણે	-10.7601
▁કારિત	-10.7602
▁વિધ	-10.7605
▁પાદં	-10.761
▁વિપાકા	-10.761
વીસતિ	-10.761
▁સમ્માસઙ્કપ્પો	-10.761
▁પચ્ચા	-10.7613
▁યાથાવતો	-10.7613
▁તમ્હિ	-10.7614
▁સાવજ્જ	-10.7618
વુત્થ	-10.7619
▁અસન્ત	-10.7621
▁સેતિ	-10.7621
▁સુખી	-10.7623
▁હત	-10.7624
▁વણ	-10.7625
▁ભઙ્ગ	-10.7626
▁ચેતિયં	-10.7629
–	-10.7632
દીસુ	-10.7635
વિમુત્ત	-10.7637
▁વિઞ્ઞાયતિ	-10.7638
ગુણા	-10.764
▁ઉગ્ગહ	-10.7641
▁આબાધ	-10.7642
▁આજાન	-10.7644
▁કત્વાતિ	-10.7644
▁સઙ્ખેપો	-10.7648
▁દેવાનમિન્દ	-10.7648
▁કામાવચરે	-10.765
સઞ્ઞોજનસમ્પયુત્ત	-10.7651
▁યુત્તિ	-10.7651
કેસુ	-10.7656
▁અઞ્ઞતરસ્સ	-10.7657
▁સોચતિ	-10.7659
▁વિઘાત	-10.7659
▁સેક્ખ	-10.7659
પકતિ	-10.7664
▁પઞ્ઞત્તો	-10.7664
પચ્ચવેક્ખણ	-10.7664
તસ્સા	-10.7666
▁બહૂનં	-10.7669
▁દેવાનમિન્દો	-10.7671
▁નિસ્સયો	-10.7675
ન્તોપિ	-10.7675
▁કારેતબ્બો	-10.7675
▁જર	-10.7677
▁ફ	-10.7678
▁આપદાસુ	-10.7683
▁માયા	-10.7683
મગ્ગેન	-10.7684
સાનં	-10.7686
▁વજ્જેત્વા	-10.7686
▁સમેન્તિ	-10.7687
નીયં	-10.7687
▁યુદ્ધ	-10.7687
નસનિદસ્સનસપ્પટિઘ	-10.7688
વત્થું	-10.7689
▁દેવરાજા	-10.7692
▁સરૂપ	-10.7692
િનિં	-10.7693
પો	-10.7694
ત્થેરં	-10.7697
તાત	-10.7698
▁ગુણેહિ	-10.77
▁ફુટ્ઠ	-10.77
▁સુપ્પ	-10.77
▁સમણં	-10.7701
▁રૂપાવચરે	-10.7702
▁પતિટ્ઠિતો	-10.7703
▁ગરુક	-10.7704
▁પટિસંવેદ	-10.7704
▁સકવાદિસ્સ	-10.7712
▁કાયાનુપસ્સી	-10.7713
નિયો	-10.7714
ુપાદાન	-10.7716
સઙ્ઘાટ	-10.7717
પ્પચ્ચયો	-10.7722
કિણ્ણ	-10.7724
▁પજહતીતિ	-10.7725
પઞ્ચક	-10.7726
ાતિક્કમ	-10.7728
▁સેટ્ઠં	-10.773
અમ્હાકં	-10.7731
તણ્હ	-10.7735
▁રસા	-10.7736
▁જિત	-10.7738
▁સિક્ખિતબ્બં	-10.7739
▁વેવચનં	-10.774
ેસો	-10.774
ચ્છા	-10.7741
▁ભાસિતસ્સ	-10.7749
કથાયં	-10.775
▁ચિન્ત	-10.7752
▁નિરોધં	-10.7752
વિપ્પયુત્તો	-10.7752
▁તેનુપસઙ્કમિંસુ	-10.7754
કાસ	-10.7756
રતા	-10.7757
અદ્ધા	-10.7757
▁અત્તનાવ	-10.776
▁ગચ્છન્તસ્સ	-10.776
▁ચેતોવિમુત્તિં	-10.776
▁પરિચાર	-10.7762
▁ગહેતબ્બા	-10.7763
▁સકદાગામી	-10.7763
પુબ્બે	-10.7765
▁૧૩૯	-10.7766
▁ખેપ	-10.7769
ત્થેરગાથા	-10.7772
▁પટિગ્ગહ	-10.7776
▁ઓકાસો	-10.7779
▁બન્ધુ	-10.778
ભિક્ખ	-10.778
▁કણ્ટક	-10.7781
મહન્ત	-10.7782
આહાર	-10.7784
પરિવારો	-10.7789
▁અપાયં	-10.779
યોગતો	-10.7794
▁મિ	-10.7795
▁વેગેન	-10.7797
▁પસન્નચિત્તો	-10.7798
▁લોકુત્તરા	-10.7799
▁તિબ્બ	-10.7802
▁રૂપાયતનઞ્ચ	-10.7802
▁વિહરતીતિ	-10.7804
▁પભેદ	-10.7804
▁મહપ્ફલ	-10.7806
વિનોદન	-10.781
▁અપગત	-10.781
▁સત્તેસુ	-10.781
▁સક્કસ્સ	-10.7814
▁ભિક્ખં	-10.7814
▁કોસલ	-10.7815
ભેદા	-10.782
પાસાણ	-10.7822
▁નિરુજ્ઝિત્થાતિ	-10.7823
▁આલપતિ	-10.7824
▁મત્થકં	-10.7824
▁સાય	-10.7825
▁પસેનદિ	-10.7827
પરિચ્છેદો	-10.783
▁અલાભ	-10.7832
▁પવિસતિ	-10.7833
▁કામેસુમિચ્છાચાર	-10.7833
સ્મીતિ	-10.7836
▁સિલા	-10.7837
▁પઞ્ચસત	-10.7839
▁યોગાવચર	-10.7841
▁પહોતિ	-10.7842
વાહન	-10.7842
▁નિરત્થક	-10.7842
ટ્ઠિક	-10.7843
લક્ખણેન	-10.7846
સમ્ભવ	-10.7846
▁સંસય	-10.7847
▁ઘાન	-10.7847
▁લોકિયા	-10.7848
ુદ	-10.785
▁છટ્ઠો	-10.7851
ુર	-10.7851
▁વીરિયિન્દ્રિયં	-10.7852
▁ભગિની	-10.7853
ેય્યામ	-10.7855
▁આસવસમ્પયુત્ત	-10.7855
▁સઙ્ઘાદિસેસ	-10.7858
▁રૂપિય	-10.7861
ન્ત્ય	-10.7862
▁ઉગ્ગ	-10.7862
ખીણાસવ	-10.7863
▁કલાપ	-10.7865
▁રૂપક્ખન્ધ	-10.7865
▁આપજ્જ	-10.7866
▁પેચ્ચ	-10.7868
એત્થ	-10.7871
તપ	-10.7871
▁પુપ્ફાનિ	-10.7877
▁મન્તે	-10.7878
▁હા	-10.788
િતસ્સ	-10.788
ાદિમ્હિ	-10.7887
ાવચર	-10.7887
પુરે	-10.7889
▁અલોભ	-10.789
▁પઠમેન	-10.789
▁સન્ધ	-10.7898
▁ભાજન	-10.79
ામસે	-10.7901
ેતુન્તિ	-10.7905
▁પસન્ના	-10.7906
▁પરિભુઞ્જતિ	-10.7906
▁ભાસિત	-10.7908
▁ઘરાવાસ	-10.7909
યથાપિ	-10.791
▁પરા	-10.7911
વિય	-10.7913
▁દેવમનુસ્સેસુ	-10.7913
ઉદ્ધચ્ચકુક્કુચ્ચ	-10.7917
▁આચરિયા	-10.7922
▁પાટિકઙ્ખા	-10.7922
▁પનાહં	-10.7924
▁અતિક્કન્ત	-10.7927
▁ગોપ	-10.7927
▁છટ્ઠી	-10.7929
▁પરિબ્બાજક	-10.7929
▁સમુચ્છેદ	-10.7929
▁ચલ	-10.793
વિરોધ	-10.7933
▁સજ્જ	-10.7933
▁લોણ	-10.7933
▁પાપકમ્મ	-10.7934
▁કાયવિઞ્ઞાણસ્સ	-10.7937
▁વિહરતી	-10.7938
ન્તેસુ	-10.7939
▁યઞ્હિ	-10.7941
▁પચ્ચસ્સોસું	-10.7944
▁સઙ્ઘમજ્ઝે	-10.7946
▁ઇન્દ્રિયેસુ	-10.7946
▁યત્ર	-10.7946
ાકારો	-10.7949
વ્હય	-10.795
▁ગચ્છતી	-10.7956
▁કથિનં	-10.7958
▁રૂપાવચરાનં	-10.7958
મજ્જ	-10.7959
▁ધમ્મસ્સવન	-10.796
▁ચિતો	-10.7961
રોચ	-10.7961
▁અભિધમ્મે	-10.7963
▁પરિયાયો	-10.7967
▁અવિસેસેન	-10.797
▁મહાનુભાવ	-10.797
▁કરણે	-10.7972
સુત	-10.7973
▁ઘોર	-10.7975
પટિપદં	-10.7977
રુચિ	-10.7978
▁અહિ	-10.7978
▁ધુરં	-10.7979
▁પુનબ્ભવો	-10.7979
જાતિકા	-10.798
▁પચ્છાભત્તં	-10.798
કુમારો	-10.798
▁પૂજા	-10.7981
▁આનન્દં	-10.7986
▁અભવિસ્સ	-10.799
▁ઇસ્સ	-10.7991
▁સઙ્ખારો	-10.7994
▁ઝાના	-10.7994
▁કામાનં	-10.7997
▁મહબ્બલો	-10.7997
▁વિરુદ્ધ	-10.7997
▁અસ્સાદો	-10.7998
▁જાગર	-10.8001
▁આપુચ્છ	-10.8001
▁આવાસો	-10.8001
▁નાયં	-10.8003
▁નિગ્ગણ્હ	-10.8004
▁અઘ	-10.8005
ાનુબન્ધ	-10.8011
▁રજો	-10.8013
પ્પયોગ	-10.8013
▁વસ્સસત	-10.8014
▁વિસયે	-10.8015
▁બ્રાહ્મણાનં	-10.8016
ધાતૂતિ	-10.8017
કત્વા	-10.8022
▁ચતુવીસતિ	-10.8022
▁માતાપિતૂનં	-10.8023
▁દુર	-10.8023
▁અનુપ્પાદ	-10.8028
મક્ખિત	-10.803
વિસેસં	-10.8033
▁સંસારે	-10.8034
▁ધારય	-10.8037
▁સમઞ્ઞા	-10.8038
રહિત	-10.8039
અપિ	-10.8039
દેસે	-10.8043
કુસલત્તિકં	-10.8044
▁પટિજાન	-10.8046
▁અરૂપાવચર	-10.8046
▁વિભઙ્ગ	-10.8057
▁વિચાર	-10.8058
▁અઞ્ઞિન્દ્રિયં	-10.8059
સણ્ઠાનં	-10.806
▁ઓતાર	-10.806
▁નિયતો	-10.8062
ટ્ઠેનાતિ	-10.8063
▁પગ્ગણ્હ	-10.8065
▁લાભો	-10.8069
મન્તો	-10.807
▁સુપ	-10.8071
સત્થા	-10.8071
મતો	-10.8073
▁પભાસતી	-10.8073
▁વુચ્ચમાનો	-10.8074
▁નિસજ્જ	-10.8074
ડ	-10.8077
વિજ્જ	-10.808
ાયુક	-10.8084
તીહિ	-10.8084
▁આહચ્ચ	-10.8084
▁સમ્પત્તિં	-10.8086
સુભ	-10.8091
▁યેવ	-10.8092
▁યવ	-10.8093
▁નિયામ	-10.8102
▁બહુતરા	-10.8103
▁પરિયાદાય	-10.8103
▁મતિ	-10.8104
▁સંસન્દન્તિ	-10.8105
▁મૂલે	-10.8109
જીવિત	-10.8111
▁મનિન્દ્રિયઞ્ચ	-10.8112
▁ભાતા	-10.8112
▁સેખ	-10.8112
એતે	-10.8114
▁ખણં	-10.8119
નિન્ન	-10.812
▁અહઞ્ચ	-10.812
માદિ	-10.8122
▁અન્તં	-10.8123
▁પરામસ	-10.8124
▁સન્તુટ્ઠો	-10.8126
▁પરિકમ્મં	-10.8132
▁મહી	-10.8133
ઘોસ	-10.8135
▁અમિત્ત	-10.8135
ૂપપત્તિ	-10.8136
▁વેધ	-10.8139
▁નપુરેજાતપચ્ચયા	-10.8142
▁એકજ્ઝં	-10.8142
લાભી	-10.8143
▁બહુધા	-10.8146
▁કપ્પતિ	-10.8148
પરિસુદ્ધ	-10.8148
અત્તનો	-10.8149
▁અનુપ્પન્ના	-10.8152
▁ધોવિત્વા	-10.8153
અઞ્ઞાતાવિન્દ્રિય	-10.8153
▁સીઘ	-10.8158
▁પરિપૂરેતિ	-10.8158
▁પરિસં	-10.8158
▁રૂપઞ્ચ	-10.8159
િતાતિ	-10.8159
ન્તોતિ	-10.8163
▁છન્દરાગો	-10.8163
▁આરોહ	-10.8165
માતા	-10.8168
નાના	-10.8169
▁અધિવચન	-10.8171
▁વિસુદ્ધિ	-10.8173
▁કમ્મપથ	-10.8176
જલ	-10.8176
ેય્યાથ	-10.8176
પલિબોધ	-10.8181
પૂજાય	-10.8183
▁ઓલમ્બ	-10.8185
ખણ	-10.8186
▁ધમ	-10.8189
વિમુત્તિ	-10.819
▁ઞાણાનિ	-10.8191
પાઠ	-10.8192
▁૧૫૬	-10.8195
▁મહગ્ઘ	-10.8197
▁વગ્ગો	-10.8198
દેવો	-10.8199
▁આકાસાનઞ્ચાયતનં	-10.82
ાવરણ	-10.82
▁અવિતથ	-10.8201
અતીત	-10.8203
▁લીન	-10.8209
ેથા	-10.8216
મદ્દ	-10.8217
સેવ	-10.8219
કુલા	-10.822
▁નાપરં	-10.8223
▁ઇત્થત્તાયા	-10.8225
▁અજાનન્તો	-10.8226
સાટક	-10.8227
▁વિદ	-10.8228
ત્તભાવ	-10.8229
▁ઉટ્ઠહ	-10.8229
▁સિક્ખિતબ્બ	-10.8229
▁ઇચ્છન્તિ	-10.8232
▁વિન્દ	-10.8234
▁લુદ્દ	-10.8235
▁અનનુ	-10.824
▁સેક્ખા	-10.8244
▁ઉત્તાનત્થમેવાતિ	-10.8246
▁વિજ્જતી	-10.8247
▁વિરાગા	-10.8247
▁પાતુભવન્તિ	-10.8247
વસા	-10.8249
મટ્ઠ	-10.8253
▁રુક્ખા	-10.8254
▁થેરાનં	-10.8254
▁વાયમ	-10.8258
ાદિઅ	-10.8259
▁યાચન	-10.8259
નિયામ	-10.8259
▁અબ્ભુતં	-10.826
▁પરિહાયન્તિ	-10.8261
▁યથ	-10.8261
િસ્સન્તી	-10.8262
▁યોજેતબ્બો	-10.8263
▁પણ	-10.8264
દહ	-10.8264
▁પયોજનં	-10.8265
▁વિમુચ્ચતિ	-10.8266
▁પટિગ્ગહિત	-10.8267
રોપ	-10.8267
▁અચક્ખુકાન	-10.8269
▁ગણ્હથા	-10.8271
▁કરણીયો	-10.8271
વાદિ	-10.8272
▁ભિક્ખ	-10.8277
▁વિસાખ	-10.8278
▁રમણીય	-10.828
▁કિલેસો	-10.828
ાભાવા	-10.828
▁અપેક્ખ	-10.8281
મઞ્ચ	-10.8283
▁કપ્પેતિ	-10.8284
▁પાતુ	-10.8284
▁૧૪૧	-10.8285
▁વિતક્કવિચારાનં	-10.8287
▁કઙ્ખ	-10.8287
્વા	-10.8289
ાનિસંસ	-10.829
ાદયોપિ	-10.829
▁પાવ	-10.8291
▁નિક્ખન્તો	-10.8292
▁અરહતિ	-10.8292
▁વિસ્સજ્જન	-10.8296
▁સઙ્ખારપચ્ચયા	-10.8298
ઉપોસથ	-10.8301
જે	-10.8301
▁ઘાનિન્દ્રિયઞ્ચ	-10.8303
▁વેળુવને	-10.8303
પેય્યાલ	-10.8303
▁નિદ્દોસ	-10.8305
પ્પત્તં	-10.8307
▁૧૫૦	-10.8309
▁અનન્તરં	-10.8311
ાબાધ	-10.8311
▁ફાલ	-10.8313
▁રાજગહં	-10.8322
ેભિ	-10.8322
▁કરોહી	-10.8324
▁થેરે	-10.8325
▁ઉજું	-10.8325
▁પયોજન	-10.8331
▁નેત્વા	-10.8335
▁અરૂપાનં	-10.8337
▁૧૪૮	-10.8337
▁ઠિતિયા	-10.834
▁વુત્તેપિ	-10.834
▁સંસરન્તો	-10.8342
▁પહીનં	-10.8343
▁અજાતસત્તુ	-10.8343
▁સામી	-10.8346
સંકિલેસ	-10.8347
પદત્થ	-10.8348
સુત્તન્ત	-10.8349
ભાગિય	-10.8349
▁નિક્ખિત્ત	-10.835
▁પકિણ્ણક	-10.835
▁વૂપસમા	-10.8353
▁દુચ્ચરિત	-10.8354
▁ઉપ્પજ્જમાના	-10.8355
પ્પમાણો	-10.8355
▁આરભિ	-10.8358
▁ચિત્તુપ્પાદ	-10.8359
પાદિન્નુપાદાનિય	-10.836
▁અસઙ્ખતા	-10.8364
અસુક	-10.8366
ગવ	-10.8366
▁આકાસો	-10.8369
દક્ખિણ	-10.8371
તિઆદીહિ	-10.8371
▁સંવિજ્જમાના	-10.8374
નખ	-10.8377
▁અસઙ્ખ્યેય્ય	-10.8378
પોરિસ	-10.8384
યસ્મા	-10.8384
▁અમચ્ચા	-10.8387
▁પુગ્ગલિક	-10.8388
▁પેસેત્વા	-10.839
▁જાનતો	-10.8391
▁ભવિસ્સસિ	-10.8392
નિકાય	-10.8392
મહં	-10.8393
રટ્ઠે	-10.8398
▁યાવદેવ	-10.8399
તિસ્સો	-10.8401
▁મનુઞ્ઞ	-10.8402
▁ભવિસ્સામિ	-10.8402
▁ધમ્માયતનઞ્ચ	-10.8402
▁ડંસ	-10.8405
▁રજન	-10.8406
▁દીઘં	-10.8407
સામ	-10.8407
▁કોસજ્જ	-10.8408
▁એકવીસ	-10.8409
સત્તો	-10.8413
▁સંસગ્ગ	-10.8413
▁કિલેસેહિ	-10.8416
▁અધિમત્ત	-10.8418
તબ્બં	-10.8418
િયન્તિ	-10.842
સમુદયા	-10.842
નિબ્બત્ત	-10.8422
▁અત્ર	-10.8422
ળા	-10.8423
વઙ્ક	-10.8424
▁ઉપરૂપરિ	-10.8425
▁નપ્પજાનાતિ	-10.8425
▁આઘાત	-10.8427
▁વિભત્તા	-10.8428
▁પરિભુઞ્જિતું	-10.8428
▁કુપ્પ	-10.8429
▁ધીર	-10.8431
▁ચતુવોકાર	-10.8434
▁પાસાદિક	-10.8435
▁સનિદસ્સન	-10.8435
▁એવમ	-10.8439
▁રસં	-10.844
વિવેક	-10.8443
▁અવિગત	-10.8443
▁અતીતારમ્મણ	-10.8444
▁લક્ખણાનિ	-10.8445
▁મોર	-10.8446
▁અદ્દસા	-10.8448
ાસને	-10.8451
▁સમતિક્કમ	-10.8453
ધો	-10.8454
▁યસ્સા	-10.8455
▁નઅહેતુક	-10.8457
▁તજ્જ	-10.8461
▁નોચિત્ત	-10.8463
▁સઙ્ગહિત	-10.8463
સમ્પદં	-10.8464
તદ	-10.8464
▁કપ્પિયં	-10.8466
▁પક્કોસાપેત્વા	-10.8467
▁સમાસો	-10.8469
▁એકત્થ	-10.847
▁ઉત્તરા	-10.8471
▁નિપત	-10.8472
▁પુરિમબુદ્ધ	-10.8472
સિત	-10.8473
▁ઉપટ્ઠાક	-10.8474
▁૧૪૨	-10.8475
ત્તુ	-10.8477
▁લોહિતક	-10.8478
▁આરકા	-10.8479
▁ભિક્ખૂસુ	-10.8483
▁બન્ધનં	-10.8487
▁મુનિન્દ	-10.849
▁સુદ્ધિં	-10.8496
નિચ્ચ	-10.8496
▁ઉસભ	-10.8498
▁પરિસુદ્ધં	-10.8499
▁પદીપ	-10.8499
કાદિ	-10.8502
▁સમગ્ગા	-10.8504
િતાય	-10.8505
▁વિભત્ત	-10.8505
ચિત્તેસુ	-10.8506
▁પરિહર	-10.8506
▁સમ્મપ્પઞ્ઞાય	-10.8507
▁ઓર	-10.8508
▁અધિગતો	-10.8508
હેતૂ	-10.8509
માય	-10.8509
▁દન્ધ	-10.8509
▁બુદ્ધપૂજાયિ	-10.8509
▁રૂપાદિ	-10.851
પાચિત્તિય	-10.8511
▁વિસ્સજ્જેત્વા	-10.8514
▁પટિલોમ	-10.8516
સન્થત	-10.8517
▁ઉપસમ્પન્નો	-10.8517
▁દિન્નો	-10.8518
▁તાર	-10.8518
▁એકંસ	-10.8521
▁પચ્ચન્ત	-10.8523
પીઠ	-10.8524
▁છવિ	-10.8524
વિરાગ	-10.8524
ાવયવ	-10.8524
▁પવેસ	-10.8525
▁સઙ્કપ્પ	-10.8526
▁વેવચન	-10.8527
સન્ન	-10.8528
▁વિભાવ	-10.8529
▁વિન્દતિ	-10.8529
▁મહામોગ્ગલ્લાન	-10.8529
ત્થમ્ભ	-10.8531
વિહારં	-10.8532
▁રિત્ત	-10.8535
▁કક્ખળ	-10.8535
▁વિહારસ્સ	-10.8536
▁દસબલ	-10.8537
લોકુત્તર	-10.854
પ્પચ્ચય	-10.8541
કપ્પો	-10.8542
દે	-10.8545
▁અકુસલમૂલ	-10.8546
▁૧૪૪	-10.8548
▁સમ્પજાનકારી	-10.8549
▁દિસાસુ	-10.855
સંકિલેસિકો	-10.855
બન્ધનં	-10.855
▁ઉપ્પજ્જિસ્સન્તિ	-10.8551
▁વીથિ	-10.8553
▁હેમ	-10.8555
▁વદમાનો	-10.8555
▁સેનાપતિ	-10.8556
▁કારેતિ	-10.8557
▁વિપસ્સ	-10.8557
ક્ખિત્ત	-10.8558
▁૧૪૭	-10.8558
▁અસેખ	-10.8563
▁ધમ્મદેસનાય	-10.8564
▁ચતુક્કં	-10.8568
▁તેજ	-10.8569
નામેન	-10.8569
કાતબ્બ	-10.8571
દુક્કટ	-10.8575
▁વેરં	-10.8576
▁રૂપી	-10.8578
િમ	-10.8579
તિઆદિકા	-10.8579
ત્થાયાતિ	-10.8582
▁નાન	-10.8582
▁પહાતબ્બસ્સ	-10.8583
▁પાદા	-10.8584
▁નિબ્બાને	-10.8585
રક્ખિત	-10.8589
▁નદિં	-10.8589
▁તિરો	-10.8589
▁અવહર	-10.859
▁માતલિ	-10.8591
▁યોગિના	-10.8591
▁૧૪૩	-10.8591
▁પટિવિજ્ઝ	-10.8593
▁અગમ	-10.8593
▁ચતુરાસીતિ	-10.8594
▁ઇચ્ચેવ	-10.8595
▁તેસઞ્ચ	-10.8595
▁અવસ્સં	-10.8597
માનેન	-10.8599
▁મનોમય	-10.86
▁પુમે	-10.8601
સન્તુટ્ઠ	-10.8603
▁સઙ્ગીતિ	-10.8603
ચિણ્ણ	-10.8604
▁ઉપાસકા	-10.8605
▁પઞ્ચમી	-10.8605
ાયતનં	-10.8607
▁સુખસહગત	-10.8608
▁સુકત	-10.8609
▁ઇમાહિ	-10.861
િદ્ધિ	-10.861
▁ઉદ્ધટ	-10.8612
મ્બુ	-10.8612
▁વેનેય્ય	-10.8613
▁દસસુ	-10.8613
▁છેદન	-10.8617
સચ્છિકિરિયાય	-10.8617
પુરિસિન્દ્રિયઞ્ચ	-10.8617
▁તેલં	-10.8617
▁દૂત	-10.8619
▁મઞ્ચપીઠ	-10.862
પુબ્બા	-10.862
▁દમ્મી	-10.8621
▁પેત્તિવિસય	-10.8621
▁અહોસી	-10.8622
▁સુવ	-10.8623
▁ધાર	-10.8624
▁બહુસ્સુત	-10.8624
▁દીપે	-10.8625
સ્સામીતિન્દ્રિયં	-10.8626
▁વુટ્ઠિતો	-10.8628
▁પરિહાનિ	-10.8628
▁તથાગતે	-10.8628
▁ખલ	-10.8631
વિસયો	-10.8631
પારાજિક	-10.8631
નિય	-10.8633
સોમનસ્સ	-10.8636
બુદ્ધિ	-10.8638
સમુટ્ઠાના	-10.864
લે	-10.8641
▁નાવં	-10.8643
▁સબ્બકાલં	-10.8645
અપરેહિપિ	-10.8646
ૂપગ	-10.8647
રુદ્ધ	-10.8649
▁કાતુ	-10.865
ઞ્ઞાત	-10.8652
▁અવેચ્ચપ્પસાદેન	-10.8652
▁પંસુકૂલ	-10.8652
સમીપે	-10.8654
કપ્પે	-10.8654
▁અદિન્નાદાન	-10.8656
▁અભિજાન	-10.8657
▁અગ્ગં	-10.8657
▁પકતત્ત	-10.8659
▁અવિજ્જાપચ્ચયા	-10.8661
▁સતતં	-10.8667
▁ઓક્કમ	-10.8667
▁ભિજ્જ	-10.8668
સુદ્ધ	-10.8674
પરિસાય	-10.8675
▁આમસતિ	-10.8676
પરિગ્ગહ	-10.8678
▁પટિક્ખિપિત્વા	-10.8681
▁નિરન્તરં	-10.8682
▁ભવતીતિ	-10.8683
કમ્મટ્ઠાનં	-10.8684
▁સુઞ્ઞ	-10.8684
બ્રાહ્મણો	-10.8688
▁ભિન્દતિ	-10.869
▁તાદિસે	-10.8691
દૂસ	-10.8693
ેસ્સન્તિ	-10.8694
▁વેર	-10.8698
▁અઞ્ઞતરેન	-10.8702
▁કરણીય	-10.8704
ાદીનઞ્ચ	-10.8704
ન્તેહિ	-10.8705
▁જહિત્વા	-10.871
▁અન્ન	-10.8712
▁ઇધાતિ	-10.8713
સમાસ	-10.8714
▁કતાધિકારો	-10.8715
ેકદેસ	-10.8715
▁અકાલ	-10.8715
ુક્ક	-10.8717
▁ભિય્યોભાવાય	-10.8717
ુપ્પત્તિયા	-10.8718
▁જાનાસિ	-10.8719
મનોવિઞ્ઞાણધાતુ	-10.872
▁જાયતે	-10.8721
▁સહસ્સાનિ	-10.8721
▁કટત્તારૂપાનં	-10.8724
સહસ્સં	-10.8725
ઞ્જન	-10.8726
સુખુમ	-10.8728
▁ઉપધિ	-10.8729
▁પદુમં	-10.8734
▁૧૪૬	-10.8736
વિનિમુત્ત	-10.8737
▁પથવિયા	-10.874
▁વિવરિત્વા	-10.874
▁વિવિત્ત	-10.8743
▁સન્નિસિન્ના	-10.8743
▁વિજ્જ	-10.8743
▁ભવિતું	-10.8748
▁પરિયેસતિ	-10.8749
વાક્ય	-10.875
▁ભુત્વા	-10.875
▁અરિયમગ્ગો	-10.8751
▁અકાર	-10.8756
▁અવસિટ્ઠ	-10.876
▁સમનુપસ્સામિ	-10.8761
નીયો	-10.8762
સઙ્ખાતાય	-10.8762
▁સિક્ખાય	-10.8763
▁દહરો	-10.8763
િત્થાતિ	-10.8764
▁સુઞ્ઞં	-10.8765
▁ધારયામી	-10.8766
▁ઉબ્બ	-10.8766
▁કરોતી	-10.8767
ાનુપસ્સી	-10.8769
સહાય	-10.8769
ધાન	-10.877
▁જિવ્હાય	-10.877
▁અસુર	-10.8773
▁ભસ્સ	-10.8774
▁લોલ	-10.8775
▁ઉપયોગવચનં	-10.8778
કિત્તન	-10.8783
▁ગન્થા	-10.8783
▁ધારણ	-10.8786
▁સાધ	-10.8787
▁યેનાયસ્મ	-10.8788
▁રવ	-10.8789
▁પતિટ્ઠહિ	-10.8791
▁સહત્થા	-10.8791
▁આજીવ	-10.8792
▁આપજ્જતીતિ	-10.8795
▁અધિમોક્ખ	-10.8796
▁સીલાનિ	-10.8798
▁નાવાય	-10.8799
▁મેતં	-10.8799
ઞ્ઞુ	-10.8801
▁નાસક્ખિ	-10.8802
▁સારણીયં	-10.8803
▁મગ્ગપચ્ચય	-10.8803
▁લક્ખ	-10.8807
પધાન	-10.8808
પુઞ્જ	-10.8809
▁વિપસ્સતિ	-10.8811
રુળ્હ	-10.8811
વુટ્ઠાન	-10.8814
▁થોમ	-10.8815
અવ	-10.8817
િયાતિ	-10.8818
▁અદોસો	-10.8819
વ્હો	-10.8819
▁અદ્ધાનં	-10.882
▁ગાવ	-10.882
▁તુટ્ઠ	-10.882
▁રાજપુત્ત	-10.8822
▁મગ્ગઞાણ	-10.8822
▁હિદં	-10.8822
▁અસં	-10.8823
▁સમાપત્તિયો	-10.8826
▁અલઙ્કત	-10.8828
▁સહેતુકં	-10.8828
ટીકા	-10.883
▁ટ	-10.8832
▁પક્ખન્દ	-10.8834
▁તિહેતુક	-10.8834
▁આકાસેન	-10.8836
ાનંયેવ	-10.8836
તાદિસો	-10.8842
▁યોજેતબ્બા	-10.8842
▁સમ્મોદનીયં	-10.8844
▁નકમ્મપચ્ચયા	-10.8845
સઙ્ખ્ય	-10.8847
રહિતં	-10.885
તાર	-10.885
▁ચક્ખુસમ્ફસ્સ	-10.8853
▁પરિવત્તેત્વા	-10.8855
▁સુત્તસ્સ	-10.8857
▁સક્કચ્ચ	-10.8859
▁પુથૂ	-10.8859
સીમાય	-10.886
▁આદિસદ્દેન	-10.886
▁ઞાતી	-10.8862
રજ્જુ	-10.8864
▁નયન	-10.8864
▁અવણ્ણ	-10.8866
▁વચ	-10.8869
▁તીર	-10.887
▁બ્રહ્મવિહાર	-10.8872
ગ્ગો	-10.8873
▁વિરૂપ	-10.8874
▁અરહન્તાનં	-10.8874
▁સુપ્પતિટ્ઠિત	-10.888
▁નિહીન	-10.8883
▁તદુભયં	-10.8885
▁રાજકુમાર	-10.8886
▁તત્રાપિ	-10.8886
▁સહજાતો	-10.8888
▁સાદિયતિ	-10.8889
કોટિયો	-10.8889
▁ગિલાનસ્સ	-10.889
ગન્તબ્બ	-10.8892
▁૧૪૯	-10.8893
▁સાસવ	-10.8894
▁૧૬૦	-10.8894
મન્દ	-10.8895
▁રતો	-10.8896
▁પારમિયો	-10.8896
▁સંસ	-10.8897
▁દિય	-10.8898
▁રથં	-10.8902
▁નિધ	-10.8906
▁ચક્કં	-10.8909
▁પારિ	-10.891
▁તઞ્ચે	-10.8912
▁થિનમિદ્ધ	-10.8914
સન્	-10.8914
▁છારત્તં	-10.8915
ટ્ઠક	-10.8915
રુણ	-10.8916
પચ્ચુપટ્ઠાના	-10.8917
▁યુજ્જ	-10.8918
▁સોભન	-10.8922
પરિહાર	-10.8922
▁મહપ્ફલં	-10.8924
▁અનુપ્પન્નસ્સ	-10.8924
▁મુટ્ઠિ	-10.8926
▁સચક્ખુકાન	-10.8926
▁મનુસ્સો	-10.8927
▁ઉપટ્ઠિત	-10.8929
▁એદિસ	-10.893
▁બીજં	-10.8932
▁વેમતિકા	-10.8937
▁આસું	-10.8938
▁પટિસંવેદેતિ	-10.8938
▁દુતિયેન	-10.8939
▁સ્વાયં	-10.8939
નામં	-10.894
▁એકચ્ચસ્સ	-10.8941
પિટક	-10.8943
▁કરે	-10.8945
▁કુક્કુચ્ચ	-10.8946
▁દોસા	-10.8947
સાલા	-10.895
સમ્ફસ્સ	-10.8952
▁ઉપસઙ્કમિ	-10.8952
▁વિપસ્સી	-10.8955
▁ભારો	-10.8955
▁લા	-10.8955
▁બ્રહ્મલોક	-10.8956
▁ઓક્કન્ત	-10.8958
લોહ	-10.8958
▁જનસ્સ	-10.896
લોભ	-10.8961
▁ઓકાસે	-10.8962
▁મુની	-10.8962
▁સમ્મસન	-10.8967
માસે	-10.8968
▁સીલવન્ત	-10.8969
▁વિચિકિચ્છાસહગતે	-10.8969
સપ્પાય	-10.8971
▁તિટ્ઠેય્ય	-10.8972
એત્તક	-10.8972
▁કેવલઞ્ચ	-10.8973
સઞ્ઞાવેદયિતનિરોધ	-10.8974
▁પિટ્ઠ	-10.8974
▁ખગ્ગ	-10.8974
▁ઉપસમ્પન્ન	-10.8975
૧૩	-10.8976
▁પોસો	-10.8976
▁પવારણાય	-10.8977
▁સહેતુકા	-10.8977
▁નઅકુસલ	-10.8981
▁પરલોક	-10.8982
▁અનિયતો	-10.8985
વિવટ્ટ	-10.8986
▁ભબ્બો	-10.8987
િન્દ્રિયા	-10.899
▁સત્તમી	-10.8993
▁અનુત્તર	-10.8995
વચને	-10.8996
ેસિં	-10.8996
▁પઞ્ચધા	-10.8998
જપ્પ	-10.8999
▁સન્થત	-10.8999
▁વિદૂ	-10.9001
જિ	-10.9004
ાયા	-10.9004
▁રતનત્તય	-10.9004
▁ઉત્તરિં	-10.9005
▁સમનન્તરપચ્ચય	-10.9005
િસ્સર	-10.9006
▁પિટક	-10.9007
▁અજ્ઝત્તિક	-10.9007
પરિળાહ	-10.9013
િયમાનં	-10.9014
નિર	-10.9014
સત્તિ	-10.9016
▁માનાનુસયં	-10.9017
▁લોકનાયકં	-10.9017
▁કાલમકાસિ	-10.902
▁૧૪૫	-10.9021
બુજ્ઝ	-10.9021
▁સલ્લેખ	-10.9021
વિરહિત	-10.9026
યક્ખ	-10.9026
▁સિદ્ધં	-10.9027
▁ગરુકં	-10.9031
સિરિ	-10.9031
▁ઉટ્ઠહિત્વા	-10.9031
કાયં	-10.9032
પુપ્ફં	-10.9033
પરિસ	-10.9034
▁જીવં	-10.9034
▁પુલ્લિઙ્ગ	-10.9035
▁ઉપસમ્પદ	-10.9039
ુત્તમ	-10.9039
▁મત્તિકા	-10.9041
▁આદ	-10.9042
▁પુનદિવસે	-10.9042
▁જાતક	-10.9044
▁ભુસં	-10.9045
▁પવત્તમાન	-10.9045
▁મિત્તો	-10.9046
▁ઉપેક્ખાસહગતં	-10.9046
▁તમ્બ	-10.9047
▁ઉપજ્ઝાયો	-10.9047
સ્મિઞ્ચ	-10.9053
▁જીવતિ	-10.9055
લેપ	-10.9055
▁દુગ્ગન્ધ	-10.9061
▁પટિક્કૂલ	-10.9061
▁નુપ્પજ્જતીતિ	-10.9063
સમાપત્તિયા	-10.9064
▁ગઙ્ગાય	-10.9064
▁ચતુધા	-10.9065
હદય	-10.9066
દિસો	-10.9068
સસ્સ	-10.9069
થૂપ	-10.9069
▁ભાજ	-10.907
નિસિન્ન	-10.9071
સમોધાન	-10.9073
▁દિટ્ઠિગતં	-10.9078
વાસો	-10.9078
ફરણ	-10.9081
▁સેક્ખો	-10.9082
નિવારણ	-10.9083
▁પગુણ	-10.9085
પરિયોસાને	-10.9085
▁સઙ્ખારક્ખન્ધ	-10.9086
▁અપ્પણિહિત	-10.9087
સમ્પ	-10.9088
▁પઞ્ઞં	-10.9089
દીહિ	-10.9089
લિક	-10.909
▁અઞ્ઞમ્પિ	-10.909
▁પરત્થ	-10.9094
▁ગજ	-10.91
▁સભાવો	-10.9101
▁વિઞ્ઞાણઞ્ચાયતનં	-10.9106
ચિત્તે	-10.9107
▁ખીરં	-10.9109
▁ભાવય	-10.911
▁અપ્પહાય	-10.9114
ગ્ગે	-10.9115
▁રજત	-10.9117
િકસ્સ	-10.9121
▁૧૫૭	-10.9121
▁મહાસમુદ્દે	-10.9121
▁અય્ય	-10.9123
▁ચેતોવિમુત્તિ	-10.9127
▁એકોવ	-10.9127
▁પરિઞ્ઞ	-10.9127
▁ચોદના	-10.9129
▁નિબ્બિદા	-10.9129
▁રુક્ખસ્સ	-10.9131
ાધિપ્પાયો	-10.9131
▁અસપ્પુરિસ	-10.9133
▁વિસ્સાસ	-10.9134
▁સુપિન	-10.9135
▁પરિયન્ત	-10.9136
▁દુક્ખો	-10.9137
▁૧૫૩	-10.9139
▁પરિયાપુણ	-10.914
ૂપગા	-10.914
▁નિપ્ફન્ન	-10.9141
▁અત્થેન	-10.9143
▁સન્થવ	-10.9144
▁સુત્તેન	-10.9145
▁કમેન	-10.9146
નામકો	-10.9147
▁સરતિ	-10.9147
▁અરહત્તમગ્ગેન	-10.9147
▁વિભઙ્ગે	-10.9147
▁સોતાપન્ન	-10.9149
▁પુબ્બણ્હસમયં	-10.9149
▁મક્કટ	-10.9151
▁કરુણાય	-10.9152
▁સમાગમો	-10.9153
▁સીમં	-10.9153
▁દેથ	-10.9155
સમ્પદાય	-10.9156
▁બહુલ	-10.9156
▁યાવકાલિક	-10.9156
ુદ્ધ	-10.9157
ચ્છેદન	-10.9166
▁સુપણ્ણ	-10.9166
▁પવત્તિત	-10.9167
▁પતતિ	-10.9173
દેસનાય	-10.9174
▁અભિવાદ	-10.9174
▁ઉપ્પજ્જમાન	-10.9178
લતા	-10.9181
▁સઙ્ખારેસુ	-10.9181
▁પલ	-10.9184
▁ગચ્છતો	-10.9187
વાપિ	-10.9188
▁ભુજ	-10.9188
▁કરોન્તીતિ	-10.9191
▁સમાદિય	-10.9192
▁ધમ્માભિસમયો	-10.9193
▁અગમંસુ	-10.9193
▁દુસ્સીલો	-10.9194
ગલ	-10.9196
વેગ	-10.9198
વિનયો	-10.9201
▁કલહ	-10.9203
▁૧૫૯	-10.9204
પટિપાટિયા	-10.9205
▁આરદ્ધ	-10.9206
▁પરિસુદ્ધા	-10.9206
▁સાસવા	-10.9207
ગન્ધો	-10.9209
▁વિવાદો	-10.921
▁આણત્તિ	-10.9211
▁સેદ	-10.9213
સમત્થ	-10.9213
▁મહાનુભાવો	-10.9214
▁પરિપુણ્ણં	-10.9215
સંયોજનં	-10.9217
ગણો	-10.9221
▁કેનટ્ઠેન	-10.9224
▁વિઞ્ઞાણપચ્ચયા	-10.9225
▁સત્થં	-10.9226
િતોતિ	-10.9226
▁૧૫૫	-10.9228
ટો	-10.9229
તત્તા	-10.9231
▁સન્તેપિ	-10.9232
▁નિપ્	-10.9232
સતેહિ	-10.9233
ભાગો	-10.9234
ુપચ્છેદ	-10.9234
ાનુગત	-10.9236
ુલ	-10.9237
▁તદુપ	-10.9238
સુર	-10.9241
▁વિનસ્સતિ	-10.9241
▁સૂ	-10.9241
મહત્ત	-10.9242
▁ચક્ખુધાતુ	-10.9245
▁૧૫૪	-10.9245
▁સમ્પયુત્તપચ્ચય	-10.9246
▁ઉપ્પજ્જમાનં	-10.9247
▁નેક	-10.9247
▁બહુસ્સુતા	-10.9248
ભી	-10.9251
પ્પકાસન	-10.9252
▁એવરૂપે	-10.9253
▁વિઞ્ઞાય	-10.9253
▁અટ્ટ	-10.9257
ભણ્ડં	-10.926
▁પસ્સતી	-10.9261
મોક્ખ	-10.9262
▁ગચ્છામ	-10.9262
▁ચવિત્વા	-10.9264
કટાહ	-10.9264
▁કચ્ચાન	-10.9265
સોતં	-10.9267
▁પારિસુદ્ધિ	-10.9269
પાતુભાવ	-10.9269
▁વજિર	-10.927
કચ્ચિ	-10.9271
▁અરિયસ્સ	-10.9272
▁કન્તા	-10.9273
▁તાદી	-10.9275
▁આરદ્ધવીરિયો	-10.9281
▁યથાભતં	-10.9282
▁આદિકમ્મિકસ્સાતિ	-10.9283
▁પૂજય	-10.9283
▁પટિનિસ્સજ્જ	-10.9289
▁પાકતિક	-10.929
▁નપ્પ	-10.9292
▁નવવિધ	-10.9292
સદ્દે	-10.9293
કોટિયા	-10.9294
નયન	-10.9295
▁કુરુ	-10.9295
યતે	-10.9296
રસ્સ	-10.9298
▁પરિનિબ્બુતે	-10.9298
ભુત્ત	-10.9299
સન્તાપ	-10.93
▁નવુતિ	-10.9301
▁અમર	-10.9303
▁અમ્મ	-10.9304
▁જાય	-10.9306
▁બ્યાકર	-10.9309
વિર	-10.931
જનપદ	-10.931
▁૧૫૧	-10.9311
▁નિટ્ઠા	-10.9313
▁યેપિ	-10.9314
▁ઉપગતો	-10.9314
▁ઇદ્ધિપાદ	-10.9315
▁પરિયોસાનં	-10.9315
ગોચરો	-10.9315
વિધાનં	-10.9315
▁સમાપજ્જતિ	-10.9316
▁અપ્પમત્તક	-10.9317
▁કિસ	-10.9318
▁કાળક	-10.9319
મયો	-10.9321
સભાવત્તા	-10.9322
▁ભઞ્જ	-10.9323
ભેસજ્જપરિક્ખાર	-10.9329
▁તિતિક્ખ	-10.9331
તયો	-10.9331
▁અચેલક	-10.9332
▁આયસ્મન્તો	-10.9333
ગણન	-10.9334
▁સદ્ધમ્મં	-10.9335
સમણો	-10.9336
ગ્ગહિત	-10.9337
▁સિદ્ધ	-10.9339
▁પરિનિબ્બાય	-10.9339
વિઞ્ઞેય્ય	-10.934
▁આપજ્જિત્વા	-10.9342
▁અપ્પં	-10.9342
▁પરિમાણ	-10.9346
▁ઉમ્મત્તકસ્સ	-10.9346
યિત્થ	-10.9346
▁પરિનિબ્બુત	-10.9346
▁વલ્લિ	-10.9346
ચય	-10.9349
▁સતિન્દ્રિયં	-10.9353
િન્દ્રિયાનિ	-10.9356
▁વસનટ્ઠાનં	-10.9356
પદેહિ	-10.9356
બહુલ	-10.9357
વચનસ્સ	-10.9358
સન્તોસો	-10.9359
▁૧૬૫	-10.9361
ળક	-10.9361
નીયા	-10.9362
▁લુ	-10.9363
▁સુનખ	-10.9365
▁૧૫૮	-10.9365
▁પરિજાનન્તિ	-10.9367
▁વિતક્કવિચાર	-10.9367
▁મુણ્ડ	-10.9367
▁તદનન્તરં	-10.9368
▁અકા	-10.937
▁પવત્તિયા	-10.9372
▁લીનત્થપ્પકાસના	-10.9372
સુખાય	-10.9372
▁આરમ્મણપચ્ચયો	-10.9373
▁થાવર	-10.9373
યન્તીતિ	-10.9375
▁કુલપુત્તો	-10.9375
ત્થેરવત્થુ	-10.9378
▁કોટ્ઠાસે	-10.9378
સન્તાને	-10.938
▁સન્તાપ	-10.9381
▁પેમ	-10.9381
▁વાસં	-10.9383
▁લોકોતિ	-10.9383
▁પણ્ડક	-10.9385
▁સામિસ	-10.9385
વગ્ગસ્સ	-10.9386
▁ઇત્થિં	-10.9386
થો	-10.9388
તબ્બા	-10.9389
▁અપ્પવત્તિ	-10.9391
ચત્તાલીસ	-10.9393
▁પઞ્ચાલ	-10.9393
▁દન્ધાભિઞ્ઞં	-10.9396
▁આગતે	-10.9396
▁ભક્ખ	-10.9398
ૂર	-10.9401
▁ઠા	-10.9404
▁મઞ્ઞથ	-10.9405
▁દિટ્ઠિગત	-10.9405
▁પટિપજ્જતિ	-10.9408
▁અટ્ઠમો	-10.9409
▁માતુલ	-10.9411
પ્પહાર	-10.9411
▁વાદં	-10.9412
▁તુલ્ય	-10.9412
▁પુરં	-10.9412
હત્થા	-10.9413
▁તેભૂમક	-10.9415
▁વિસોધ	-10.9416
▁લદ્ધો	-10.9418
સમાચાર	-10.9419
▁મહાભૂતાનં	-10.9419
▁લતા	-10.942
▁પચ્ચયં	-10.942
ાનુસય	-10.9423
ીભૂત	-10.9425
તસ્મિં	-10.9425
ેકવચન	-10.9425
િનિયા	-10.9426
▁અકુપ્પ	-10.9427
▁ઞાતો	-10.9432
ઉપાદાનવિપ્પયુત્ત	-10.9433
ાનુપસ્સના	-10.9434
▁હિસ્સ	-10.9435
▁વેદિતબ્બોતિ	-10.9437
▁સચ્છિકતા	-10.9439
▁અનવ	-10.9439
નાળિ	-10.944
▁અસપ્પાય	-10.9441
▁નિય્યાન	-10.9441
પરિય	-10.9442
▁સરા	-10.9443
▁આદર	-10.9443
▁ઠિતત્તા	-10.9445
▁સઙ્ઘાદિસેસા	-10.9446
ાધિટ્ઠાન	-10.9447
▁પરિણામ	-10.945
▁આવટ્ટના	-10.945
▁સિઙ્ગાલ	-10.9451
દદ	-10.9452
ારહો	-10.9452
▁સઙ્ખા	-10.9452
સાગર	-10.9454
▁ભિક્ખુનીતિ	-10.9454
માગમ્મ	-10.9454
ત્થેરઅપદાનં	-10.9456
▁અધિગમાય	-10.9458
▁અભાવો	-10.9458
વત્થુક	-10.9459
▁યુવ	-10.946
▁સુઞ્ઞો	-10.9462
▁ઞાણન્તિ	-10.9462
વતો	-10.9462
▁દસબલસ્સ	-10.9464
▁બુદ્ધપ્પમુખ	-10.9464
▁સમાધિં	-10.9469
ન્	-10.9471
▁ઞાણવિપ્પયુત્ત	-10.9473
▁નાયકો	-10.9473
તાલ	-10.9473
▁ભવન્ત	-10.9474
ાપનં	-10.9475
પટિસંયુત્ત	-10.9475
પટ્ઠાન	-10.9479
▁પઞ્ઞત્ત	-10.9479
▁ઉક્કંસ	-10.9479
▁પૂવ	-10.9479
▁કથેન્તિ	-10.9482
▁પોરાણા	-10.9482
▁નટ્ઠ	-10.9484
▁પટિલાભ	-10.9487
▁પરિવુતો	-10.949
મુનિ	-10.9491
▁જનક	-10.9492
▁અવિતક્ક	-10.9492
સન્નિપાત	-10.9493
▁વિનિપાત	-10.9495
▁બોધિયા	-10.9495
ૂપમ	-10.9501
▁સેસેસુ	-10.9503
▁નગ્ગ	-10.9504
▁નિક્ખિત્તો	-10.9506
▁વિમોક્ખા	-10.9506
વાચકો	-10.9508
પરાધ	-10.9508
▁લોકિયં	-10.9508
▁પાચીન	-10.9508
▁છબ્બગ્ગિયે	-10.9509
▁સમ્પજાન	-10.9509
▁સિક્ખાપદે	-10.951
▁અન્તોગધ	-10.951
▁રૂપાવચરા	-10.9511
▁અનિદસ્સનસપ્પટિઘ	-10.9512
▁લહુક	-10.9513
▁સિક્ખં	-10.9515
▁ભગિનિ	-10.9519
▁મેથુનધમ્મ	-10.9522
▁પારગૂ	-10.9523
પિણ્ડપાત	-10.9527
▁પવત્તેતિ	-10.9527
▁ઉક્ખિત્ત	-10.953
આરમ્મણ	-10.9531
▁પીતિસુખં	-10.9533
▁દિટ્ઠિયો	-10.9537
વિહિત	-10.9538
▁ખેમં	-10.9539
દસ્સનવસેન	-10.954
▁અચિત્તક	-10.9541
પટિગ્ગહણ	-10.9542
માપજ્જ	-10.9543
▁ભિક્ખુસઙ્ઘેન	-10.9543
▁ઇદન્તિ	-10.9544
▁વુટ્ઠહ	-10.9545
▁અત્થવણ્ણના	-10.9545
▁જઙ્ઘ	-10.9549
▁પુચ્છન્તિ	-10.955
વિધિં	-10.955
ગુત્ત	-10.955
▁અનુગ્ગહ	-10.9551
એ	-10.9552
▁ણ્વુ	-10.9554
▁નક્ખમતિ	-10.9556
▁દુક્ખપટિપદં	-10.9557
▁સીદ	-10.9558
મિમં	-10.9559
▁સુભાવિત	-10.9559
▁માણવક	-10.9561
દીપક	-10.9562
▁ગલ	-10.9562
▁સુધા	-10.9562
▁લભેથ	-10.9565
મુખે	-10.9565
હંસ	-10.9565
▁કાયવિઞ્ઞાણં	-10.9565
▁પરામાસ	-10.9566
કદા	-10.9567
સઞ્છન્ન	-10.9568
મેસ	-10.9568
▁પાતિમોક્ખુદ્દેસ	-10.957
વિધા	-10.9572
▁પટિકૂલ	-10.9573
▁નિબદ્ધ	-10.9575
ગણા	-10.9575
▁પઞ્ચઙ્ગિક	-10.9577
▁સત્તસ્સ	-10.9579
▁ચોદિતો	-10.958
▁વિધુર	-10.958
▁દસ્સિત	-10.9582
ત્થોતિ	-10.9583
▁વિતક્કસ્સ	-10.9583
▁માનુસ	-10.9583
ગિરિ	-10.9584
▁તિણ્ણ	-10.9585
▁અઙ્ગાર	-10.9586
▁લબ્ભા	-10.9587
▁મેત્તચિત્ત	-10.9588
▁સાવત્થિં	-10.9589
▁પટિપજ્જિતબ્બ	-10.959
▁અજ્ઝોહારે	-10.9593
મક્ખ	-10.9599
▁અધિકાર	-10.9603
વિભાગો	-10.9605
▁સન્નિપતિત્વા	-10.9605
▁પુરત્થિમ	-10.9606
▁ઓળારિકં	-10.9608
▁પટિક્ખિપ	-10.9608
▁પમજ્જ	-10.9608
▁દુખ	-10.9609
▁૧૬૧	-10.9614
કારન્ત	-10.9616
અનિચ્ચ	-10.9617
જીવિતિન્દ્રિયઞ્ચ	-10.9618
કતમઞ્ચ	-10.9619
▁વધિત્વા	-10.962
▁નિગમ	-10.9621
▁દિ	-10.9621
▁નિયોજ	-10.9622
▁પરિચર	-10.9623
▁એકચ્ચં	-10.9625
▁કામગુણા	-10.9625
ભાવોતિ	-10.9627
▁ગતોતિ	-10.9634
▁અમ	-10.9635
▁ધુત	-10.9636
▁અનુઞ્ઞાતા	-10.9637
▁ઉદ્ધચ્ચસહગતે	-10.9644
સત્તાનં	-10.9645
▁અનુચ્છવિક	-10.9645
ચ્છિન્દ	-10.9646
▁ઇધાધિપ્પેત	-10.9647
▁પામોજ્જં	-10.9648
▁મુદિતા	-10.9649
▁પરિગ્ગહિત	-10.9649
▁ખિપ્પ	-10.965
▁ભાવનાપારિપૂરિ	-10.9652
▁પવત્તન	-10.9655
▁અસઙ્ખતં	-10.9655
▁જાતિયો	-10.9655
▁૧૬૭	-10.9656
વાદં	-10.9656
મુટ્ઠિ	-10.9656
▁લભિ	-10.9657
▁મિત્તા	-10.9659
▁નાથો	-10.9661
▁પિટ્ઠિતો	-10.9661
નિયત	-10.9662
▁તોસ	-10.9662
સંસટ્ઠ	-10.9663
▁સમ્પાદ	-10.9666
▁આરઞ્ઞિક	-10.9666
▁પરિબ્બાજકા	-10.9668
સંસગ્ગ	-10.9668
▁ઉપેક્ખ	-10.967
▁અદુક્ખમસુખા	-10.9672
▁મહાથેર	-10.9672
▁અનુસ્સરતિ	-10.9672
▁યુજ્ઝ	-10.9673
▁દુગ્ગત	-10.9677
▁ગચ્છન્તીતિ	-10.9677
▁રુક્ખે	-10.9677
▁ખાર	-10.9678
▁પઞ્હાવારો	-10.9681
▁બ્રાહ્મણે	-10.9684
ભૂતાય	-10.9684
▁સઙ્ખેપ	-10.9687
નયં	-10.9688
▁અનુપ્પન્ન	-10.9689
▁સત્તવિધ	-10.9689
▁પાતો	-10.9689
પુટ	-10.9691
▁સરણો	-10.9693
▁ઇચ્ચ	-10.9693
▁કેસઞ્ચિ	-10.9693
▁ચરમાનો	-10.9693
▁કાયગતાસતિ	-10.9695
▁યોનં	-10.9695
▁પદભાજને	-10.9696
▁વિઞ્ઞુતં	-10.9696
▁પોક્ખર	-10.9699
▁નિકન્તિ	-10.9699
▁પૂજેસિ	-10.9699
▁પરિઞ્ઞાત	-10.97
▁ખીણાસવા	-10.9706
▁લાભં	-10.9708
મેઘ	-10.9708
▁દિજ	-10.9708
સ્મિમ્પિ	-10.9709
કપ્પિય	-10.9709
સુઞ્ઞ	-10.9711
▁સંયોજનં	-10.9711
મુદ	-10.9713
▁પઞ્ઞત્તા	-10.9715
પત	-10.9716
પીત	-10.9717
▁પકત	-10.9719
સકં	-10.9724
▁સોધ	-10.9724
▁અયન્તિ	-10.9724
અવિજ્જા	-10.9725
વીસ	-10.973
સમઙ્ગિનો	-10.9731
ળ્હ	-10.9732
▁નિસીદન	-10.9733
▁તુચ્છ	-10.9734
સલાક	-10.9736
ાનુસારેન	-10.9738
▁વિપ્પ	-10.9739
▁ચક્ખુન્દ્રિય	-10.9739
અપ	-10.974
▁સમ્મન્તિ	-10.9741
▁સતિસમ્પજઞ્ઞ	-10.9742
▁અપ્પહીના	-10.9742
▁ઇદઞ્હિ	-10.9742
વીતિક્કમ	-10.9743
▁વિરજં	-10.9745
▁અનત્ત	-10.9746
▁વત્થાનિ	-10.9749
પણ	-10.9751
ચ્ચાદિના	-10.9755
▁નળ	-10.9758
ચ્છિ	-10.9759
નીત	-10.976
▁વેપુલ્લાય	-10.9764
▁કૂટાગાર	-10.9765
▁પભસ્સર	-10.9767
કાલેપિ	-10.9767
▁મચ્છરિય	-10.9769
તિટ્ઠ	-10.977
ચિત્તુપ્પાદ	-10.9771
▁નિદ્દિટ્ઠા	-10.9772
▁ઉચ્ચાર	-10.9773
▁વન્દન	-10.9774
▁મનસો	-10.9778
▁નિયતા	-10.9778
▁૧૭૬	-10.9781
નનુ	-10.9785
▁વચનીયો	-10.9788
યોજના	-10.9789
▁અઞ્ઞતરા	-10.979
▁પાતુભાવો	-10.9793
▁અઞ્ઞમઞ્ઞપચ્ચય	-10.9793
▁અચ્છરિય	-10.9794
પટિપન્ન	-10.9796
▁વેદનાપચ્ચયા	-10.9796
નામો	-10.9797
▁છિદ્દ	-10.9797
▁ઉપેક્ખકો	-10.9797
દામ	-10.9799
▁નિસિન્ને	-10.98
▁ઉદ્દિસિત્વા	-10.9801
▁આવુધ	-10.9801
▁અનુસ્સાવન	-10.9801
▁કામાવચરકુસલ	-10.9801
▁ઘટ્ટ	-10.9802
▁દેસેત્વા	-10.9802
▁દુસ્સીલ	-10.9803
વીર	-10.9803
સવ	-10.9803
સઞ્ઞિતા	-10.9804
અકુસલ	-10.9805
▁અભૂત	-10.9805
▁રુક્ખમૂલે	-10.9807
▁યસ્સાતિ	-10.9808
ચિત	-10.9809
▁રૂપેન	-10.9809
▁હત્થેહિ	-10.981
▁અરિયસચ્ચાનિ	-10.9811
▁લોમ	-10.9813
લક	-10.9813
વિહારો	-10.9813
▁કઙ્ખતિ	-10.9814
▁કણ્ડ	-10.9816
▁દુક્ખસમુદયો	-10.9816
મૂલકા	-10.9817
▁પચ્ચત્ત	-10.982
▁નિવેસ	-10.982
ૂહિ	-10.9823
દસહાયતનેહિ	-10.9826
▁૧૫૨	-10.9826
▁વિદિતા	-10.9826
▁ભોજનીયં	-10.983
▁સપ્પુરિસો	-10.9831
▁ઉય્યાનં	-10.9831
▁પચ્ચેક	-10.9831
▁વિભાવનિયં	-10.9834
▁પાતોવ	-10.9835
▁ભાગ	-10.9835
▁સતિં	-10.9836
▁પચ્ચવેક્ખિત્વા	-10.9838
▁પરિચ્છિન્દિત્વા	-10.9838
ાદીન	-10.9839
મત્તક	-10.984
▁યોધ	-10.984
▁અભિઞ્ઞેય્યા	-10.9842
▁પટ્ઠાન	-10.9844
ેન્તા	-10.9844
▁પલ્લઙ્કં	-10.9845
ગુણે	-10.9846
▁અકિરિય	-10.985
▁રોચ	-10.985
રહિતો	-10.985
સ્મ	-10.9851
▁વત્થુના	-10.9852
પલ્લઙ્ક	-10.9854
▁દુક્કરં	-10.9859
▁સમાહિતો	-10.9861
▁પવારિત	-10.9862
ગીત	-10.9862
▁પહાતબ્બહેતુકા	-10.9864
▁નાઞ્ઞ	-10.9867
ત્થેરસ્સાપદાન	-10.9867
▁બહલ	-10.987
▁ગતિયં	-10.9871
ચારિક	-10.9872
▁નસહેતુક	-10.9873
▁સીલસ્સ	-10.9873
પજ્જોત	-10.9875
▁પતિટ્ઠિતં	-10.9877
▁પિવિત્વા	-10.9877
▁વિસયો	-10.9878
▁વીતિવત્ત	-10.9879
▁ભવરાગાનુસયં	-10.988
▁અનાગામિમગ્ગ	-10.9881
▁ઇટ્ઠા	-10.9882
▁જટિલ	-10.9882
▁બ્યાકરેય્ય	-10.9883
▁૧૭૯	-10.9883
▁ગીત	-10.9885
થમ્ભ	-10.9886
▁કામચ્છન્દો	-10.9887
▁તિકિચ્છ	-10.9888
▁૧૬૨	-10.9888
▁સુતવા	-10.9889
▁ઉસ્સન્ન	-10.989
તીર	-10.989
ણ્ણવ	-10.9891
અઙ્ગ	-10.9893
▁ગન્ત્વાન	-10.9893
▁પીઠ	-10.9893
▁યથારુચિ	-10.9896
▁રૂપધાતુ	-10.9897
▁બોધિસત્તં	-10.9899
િચ્ચ	-10.99
ુપેક્ખા	-10.9902
▁નપુંસકે	-10.9902
▁અઞ્ઞાત	-10.9903
▁પત્તચીવરં	-10.9903
▁ધી	-10.9904
▁વિરજ્જ	-10.9904
▁દુમ	-10.9905
સિનેહ	-10.9905
▁૧૭૪	-10.9906
પુરેજાત	-10.9907
▁પરામસતિ	-10.9908
▁યથાભૂત	-10.9909
▁સદ્ધિન્દ્રિય	-10.991
▁સમ્મુખાવિનયેન	-10.9911
▁વિપાકસ્સ	-10.9911
▁તાસ	-10.9912
ટક	-10.9914
▁પાપકાનં	-10.9917
ાભિનિવેસ	-10.9918
▁છળભિઞ્ઞા	-10.9919
સમઙ્ગિ	-10.9921
▁મમાય	-10.9921
સુત્તવણ્ણનાય	-10.9924
▁અચ્છરિયં	-10.9925
▁ખુર	-10.9928
▁સુખુમં	-10.9931
▁લોકવિદૂ	-10.9932
સિતા	-10.9934
▁ધમ્માનુપસ્સી	-10.9934
▁૧૭૦	-10.9936
▁ઉગ્ગહેત્વા	-10.9937
▁ફુસતિ	-10.9939
▁બ્યત્ત	-10.994
ુટ્ઠ	-10.994
▁ઉટ્ઠાન	-10.994
▁સતાનિ	-10.9942
▁સુવિઞ્ઞેય્ય	-10.9943
▁કારે	-10.9944
ઘન	-10.9945
▁વીતરાગ	-10.9948
વિમાનં	-10.9949
▁યંનૂનાહ	-10.9949
▁વદેતિ	-10.9951
▁વિનિ	-10.9951
ત્થરણ	-10.9953
▁ઇચ્ચેવં	-10.9953
▁તપ્	-10.9955
▁ઇત્થિયં	-10.9956
▁ગન્તબ્બો	-10.9957
▁ભવન્તં	-10.9959
▁બદ્ધો	-10.996
ોભાસ	-10.9961
▁પરિચ્ચત્ત	-10.9962
▁પઞ્ચક્ખન્ધા	-10.9963
▁પમાદો	-10.9963
▁સંવચ્છર	-10.9964
કમ્મેન	-10.9964
▁પુરિસે	-10.9964
▁કિચ્છ	-10.9965
▁પિદહ	-10.9965
▁પતિટ્ઠહ	-10.9967
▁૧૬૯	-10.9968
▁ઇદમસ્સ	-10.9968
▁અદ્ધાન	-10.997
▁મણ્ડલ	-10.9971
▁ગન્ધા	-10.9972
પઞ્ઞત્ત	-10.9974
▁સોમનસ્સેન	-10.9974
રત્તં	-10.9976
▁વીતિસારેત્વા	-10.9977
▁નિક્ખમ્મ	-10.9977
▁ફલક	-10.9977
િમાનિ	-10.9983
▁સમન્નાગતત્તા	-10.9984
▁ગહટ્ઠ	-10.9985
▁પટિપત્તિયા	-10.9986
મત્થિ	-10.9986
વાસં	-10.9987
▁કામાવચરાનં	-10.9988
દિબ્બ	-10.9988
સઞ્ચેતન	-10.9988
પ્પવત્તિયા	-10.9988
▁વિધિ	-10.9991
▁ધા	-10.9991
ગહિત	-10.9992
▁ઠપિતો	-10.9993
▁આગતત્તા	-10.9995
▁યોપિ	-10.9996
પદટ્ઠાન	-10.9998
ેસ્વ	-11
સુન્દર	-11
▁પત્થનં	-11
▁સોતાપત્તિફલં	-11.0002
▁સાત	-11.0003
▁પન્થ	-11.0004
▁અનિચ્ચતા	-11.0005
દુબ્બલ	-11.0006
દન્તો	-11.0007
મુત્તમ	-11.0008
▁ખુદ્દ	-11.0008
ાયસ્મા	-11.001
વિચિત્ત	-11.0011
ીધ	-11.0012
▁સયમ્પિ	-11.0012
▁ફુસે	-11.0013
બ્બં	-11.0014
મકંસુ	-11.0014
▁મનોદ્વારે	-11.0014
▁કામવિતક્ક	-11.0016
▁બુદ્ધેન	-11.0016
▁આરમ્મણેસુ	-11.0016
▁પધાનં	-11.0017
▁નિદ્દિસિતબ્બ	-11.0019
▁નિરોધધમ્મ	-11.002
ગણ્હ	-11.0021
ગમા	-11.0021
▁નિબ્બત્તતિ	-11.0022
ાચયગામિનાપચયગામિ	-11.0025
▁તદેકટ્ઠ	-11.0025
સદ્ધમ્મ	-11.0025
સિલા	-11.0025
▁ઠપેતું	-11.0027
▁મનોવિઞ્ઞાણં	-11.0029
▁ચોદેતિ	-11.003
▁૧૭૩	-11.003
▁ઇત્થિન્દ્રિયઞ્ચ	-11.0031
▁નપુંસક	-11.0032
▁સેનં	-11.0033
▁ઉપેક્ખાસહગતા	-11.0037
ોકાસ	-11.0037
▁સુભદ્દ	-11.0038
▁એકોપિ	-11.0038
ધિક	-11.0041
▁સવ	-11.0042
▁ધમ્મકથિક	-11.0044
▁તજ્જા	-11.0044
▁વપ	-11.0045
▁નિબ્બત્તેત્વા	-11.0045
પણીત	-11.0047
નમેવ	-11.0048
▁અય્યા	-11.0049
▁કરોન્તી	-11.005
▁એકંસેન	-11.0053
▁ફરણ	-11.0054
▁પઞ્ઞત્તે	-11.0057
▁પચ્છિમા	-11.0057
સેતિ	-11.0058
▁પટિપાદ	-11.0062
▁અપ્	-11.0062
▁પસ્સિ	-11.0062
વિભવ	-11.0062
▁નન્દિ	-11.0065
મિત્તો	-11.0068
વુદ્ધિ	-11.0068
▁રજ્જુ	-11.007
સંસાર	-11.0073
▁સયમ્ભૂ	-11.0073
▁યોનિસોમનસિકાર	-11.0073
વિરહિતો	-11.0073
▁વિહેઠ	-11.0075
▁ભીતો	-11.0075
વિપ્પયુત્તપચ્ચયા	-11.0077
પુબ્બક	-11.0077
તેય્ય	-11.0078
▁અસ્મા	-11.0079
▁સુઞ્ઞતો	-11.0079
▁દ્વારેસુ	-11.0083
▁ઉપલબ્ભતીતિ	-11.0083
રાધ	-11.0085
▁મહાપુરિસો	-11.0086
▁ધમ્મસેનાપતિ	-11.0087
▁સમન્નાગતોતિ	-11.0091
▁ચિત્તવિપ્પયુત્ત	-11.0093
▁આધાર	-11.0096
▁ઇરિય	-11.0098
▁આકઙ્ખ	-11.0098
દાયકત્થેરઅપદાન	-11.0098
ભુઞ્જ	-11.01
ાવુધ	-11.0101
ેવાતિ	-11.0102
ુસ	-11.0103
▁પઞ્ચવીસતિ	-11.0104
▁પપત	-11.0105
કેસ	-11.0105
તુર	-11.0105
▁૧૬૪	-11.0105
▁અપસ્સ	-11.0106
▁અગ્ગસાવકા	-11.0106
વત્થા	-11.0108
ેત્વાતિ	-11.011
▁૧૭૫	-11.0111
▁અકુસલેહિ	-11.0111
▁આયૂહન	-11.0111
ક્ખિપ	-11.0112
▁ચિત્તન્તિ	-11.0113
▁તુલ	-11.0115
▁હેતુના	-11.0115
વોહારો	-11.0117
▁સક્કારં	-11.012
વિપ્ફાર	-11.012
▁પયોગો	-11.0121
▁નિધિ	-11.0121
▁અનિદસ્સન	-11.0122
▁નિક્ખમન્ત	-11.0124
▁અબ્યાકતઞ્ચ	-11.0124
▁આનુભાવેન	-11.0125
▁બુજ્ઝન્તીતિ	-11.0129
વિસુદ્ધિ	-11.0131
▁કાલઙ્કતો	-11.0132
▁સુભાસિત	-11.0132
▁અધિટ્ઠાનં	-11.0133
▁કતમ	-11.0135
▁ચરેય્ય	-11.0135
▁નિન્દ	-11.0135
▁ફુટ્ઠો	-11.0139
▁અપસ્સન્તો	-11.0139
વિભઙ્ગો	-11.014
મુખા	-11.0143
▁સમાપજ્જ	-11.0144
▁અઞ્ઞમઞ્ઞસ્સ	-11.0147
▁આરમ્મણતો	-11.0147
▁જાતે	-11.0148
▁સઙ્ઘભેદ	-11.0149
ભાણવાર	-11.015
▁કમ્મનિ	-11.0151
ાધિકરણ	-11.0153
▁સન્તાન	-11.0153
▁કાસિ	-11.0153
▁સિરી	-11.0158
▁ગમ્ભીરો	-11.016
▁ઉય્યાન	-11.016
▁યાપન	-11.016
▁દુતિયસ્સ	-11.0162
દારક	-11.0164
▁દુક્ખસચ્ચ	-11.0164
▁પરિવત્તન	-11.0166
▁અમ્બટ્ઠ	-11.0166
▁વિરાગો	-11.0167
▁વગ્ગા	-11.0167
દિટ્ઠી	-11.0167
▁વિસજ્જ	-11.0168
▁તી	-11.0168
▁મરિયાદ	-11.0169
▁ગહપતયો	-11.017
પક	-11.0171
▁દિબ્બં	-11.0175
▁પોત્થક	-11.0175
▁એત્થેવ	-11.0175
▁ખન્ધેસુ	-11.0175
▁૧૭૮	-11.0176
▁કલલ	-11.0176
સમ્માદિટ્ઠિ	-11.0177
▁અટ્ઠન્નં	-11.0178
▁પટિસઞ્ચિક્ખતિ	-11.0179
વિદૂ	-11.018
▁૧૭૨	-11.0181
▁એકેકસ્મિં	-11.0183
▁૧૬૬	-11.0183
સઙ્ઘાદિસેસ	-11.0184
▁અનુપાદાય	-11.0184
▁નાનત્તં	-11.0187
▁સુત્તન્તોતિ	-11.0188
▁પટિઘાનુસયં	-11.0188
▁આસીવિસ	-11.0189
િસ્સથ	-11.0191
▁સરાગ	-11.0192
▁વેદનાક્ખન્ધ	-11.0193
ગમને	-11.0195
પ્પસઙ્ગ	-11.0196
▁પજાનાતી	-11.0197
▁ઉક્ક	-11.0198
▁પાપિકા	-11.02
▁અઞ્ઞાસિ	-11.0204
▁પોરાણક	-11.0206
▁સકલસરીર	-11.0206
સદિસે	-11.0208
ન્તરા	-11.0209
▁પક્ખી	-11.021
▁વેળુરિય	-11.0211
▁દેવદત્ત	-11.0212
નિયા	-11.0212
બાહુ	-11.0213
હેતુકં	-11.0213
▁સમ્પયોગ	-11.0217
▁વિક્ક	-11.0217
પઞ્ચકં	-11.0218
▁ઘાનાયતનઞ્ચ	-11.0219
▁જન્તાઘર	-11.0219
▁બ્રહ્મે	-11.022
▁હનતિ	-11.0221
▁આતુર	-11.0222
▁સીમ	-11.0224
▁સુલભ	-11.0227
▁સમ્પહંસ	-11.0228
િસ્સસી	-11.0229
▁સાતં	-11.0229
▁અસ્સોસિ	-11.023
▁સબ્બાકારેન	-11.0231
કિત્તિ	-11.0231
મોચન	-11.0238
સમુટ્ઠિત	-11.0239
▁પારિપૂરિયા	-11.0239
▁અઙ્ગુલિ	-11.024
▁સક્કાર	-11.024
▁પઠમમગ્ગ	-11.024
▁૧૬૮	-11.0241
કત્ત	-11.0241
▁વટ્ટન્તિ	-11.0245
પાદે	-11.0246
▁અદિટ્ઠ	-11.0247
સંસન્દન	-11.0248
▁હીના	-11.0249
▁સકાય	-11.0252
ુપટ્ઠાન	-11.0253
▁આપત્તીતિ	-11.0253
ાદીનમ	-11.0255
ધમ્મેન	-11.0258
▁ગણ્હિત્વા	-11.026
કરણવસેન	-11.0261
▁અભિણ્હં	-11.0262
▁અસિત	-11.0263
▁યાચિત્વા	-11.0263
▁દુલ્લભ	-11.0263
▁તચ્છ	-11.0265
▁ન્હાય	-11.0269
▁સોકપરિદેવદુક્ખ	-11.0269
▁કુસલમૂલ	-11.0269
▁દાને	-11.0269
▁એકૂનવીસતિ	-11.0272
▁તુટ્ઠો	-11.0272
બ્ભન્તરે	-11.0274
▁ગન્થો	-11.0276
▁અરણં	-11.0278
▁તબ્બ	-11.0284
▁કલિ	-11.0284
▁ફસ્સં	-11.0286
ઉપાદાન	-11.0286
પાનં	-11.0286
▁ઉદ્દિટ્ઠ	-11.0287
▁વોદાન	-11.0288
▁પટિગ્ગહણ	-11.0289
▁નિબ્બિન્દ	-11.0291
▁ત્વમ્પિ	-11.0292
▁રૂપન્તિ	-11.0293
▁અરૂપં	-11.0293
પરાયણ	-11.0294
ગુમ્બ	-11.0297
▁સમનુપસ્સ	-11.0297
▁ઓસધ	-11.0297
▁તત્થાપિ	-11.0298
▁સન્નિ	-11.0299
બ્બિ	-11.03
પરિયોસાનં	-11.0301
એકનવુતિ	-11.0301
િત્થી	-11.0301
પાકાર	-11.0302
▁માલ	-11.0303
▁પોક્ખરણી	-11.0303
▁મુસાવાદા	-11.0304
▁આચયગામિ	-11.0308
▁અરહત્તે	-11.0312
▁પઞ્ચવિધ	-11.0313
▁ગચ્છન્ત	-11.0315
▁સમાદાન	-11.0316
▁કિલેસકામ	-11.0316
અપર	-11.0316
▁સમુચ્છિન્દ	-11.0319
ાદીનમ્પિ	-11.0322
યાચ	-11.0325
▁પૂજિતો	-11.0325
▁દોમનસ્સસહગત	-11.0327
▁પદા	-11.0328
▁સુચરિતં	-11.0329
ટા	-11.0329
ખેત્ત	-11.0331
કોસ	-11.0331
▁સમ્પજાનમુસા	-11.0331
▁આરઞ્ઞક	-11.0332
▁ચન્દિમા	-11.0334
▁વિરાગાય	-11.0335
▁પતિટ્ઠાતિ	-11.0339
▁પાપુણન્તિ	-11.0342
યાનિ	-11.0342
૧૮	-11.0342
▁પટ્ઠપ	-11.0344
▁વિરમ	-11.0345
▁વિજિત	-11.0347
તતિય	-11.0348
▁અચ્છિન્ન	-11.0354
▁ઓટ્ઠ	-11.0354
▁બ્યઞ્જનં	-11.0354
▁ખયં	-11.0354
▁સોળસહિ	-11.0354
હિત્વા	-11.0356
▁ઉપપન્નો	-11.0357
ત્થેરેન	-11.0358
▁સાવત્થિ	-11.036
▁બુદ્ધવચનં	-11.0361
ટ્ઠાનેસુ	-11.0362
સતે	-11.0364
કણ્ડં	-11.0364
પ્પકરણ	-11.0364
લેસ	-11.0364
▁દેવતાય	-11.0365
હચ્ચ	-11.0365
પરિયાયેન	-11.0366
▁સમ્માઆજીવો	-11.0367
લસ	-11.0368
▁નિવાસે	-11.0368
વુ	-11.0369
▁અત્થપટિસમ્ભિદા	-11.037
ઇમાય	-11.037
યન્તા	-11.037
▁દેતીતિ	-11.037
નકાલે	-11.0371
▁સિપ્પં	-11.0372
▁દ્વિન્નમ્પિ	-11.0372
▁સોતધાતુયા	-11.0373
ગ્ગણ્હ	-11.0373
▁ઉપ્પજ્જ	-11.0375
બીજં	-11.0375
▁લભેય્ય	-11.0376
▁ખીણા	-11.0377
▁સેવિતબ્બો	-11.0379
મધુ	-11.038
▁૧૮૪	-11.0381
▁ચેતનાય	-11.0385
નોતિ	-11.0386
▁ઉભયં	-11.0388
પટિક્ખેપ	-11.0391
▁અકતં	-11.0391
▁પાણા	-11.0393
ઙ્ગુલિ	-11.0395
▁ગહિતે	-11.0395
તુમ્હે	-11.0398
▁પદત્થ	-11.0399
ૂપાય	-11.0399
કરણતો	-11.04
▁અસ્સમં	-11.04
▁ચુતસ્સ	-11.04
▁અકુસલે	-11.0402
▁આવાસ	-11.0403
▁સોભતિ	-11.0405
▁આયત	-11.0405
જ્જન	-11.0406
▁સૂલ	-11.0407
▁એળકલોમ	-11.0409
▁દિટ્ઠા	-11.0409
▁અનિયત	-11.041
દાનિ	-11.0411
▁સપત્ત	-11.0413
વીરિયં	-11.0414
▁વિવિચ્ચ	-11.0415
▁અભિનિ	-11.0415
▁પસ્સે	-11.0418
▁તુણ્હસ્સ	-11.0418
▁સઙ્ખ્યં	-11.0421
▁થદ્ધ	-11.0422
વિમાન	-11.0424
▁સ્નેહ	-11.0424
પરિસં	-11.0425
▁ભુઞ્જિતું	-11.0427
▁સરસ	-11.0428
▁અત્તભાવો	-11.0428
નાનત્તં	-11.0429
સ્સસિ	-11.0429
▁માતુકુચ્છિ	-11.0432
▁નિય્યાનિકં	-11.0436
સૂરિય	-11.0436
▁પબ્બતં	-11.0437
▁નિસેધ	-11.0438
▁૧૮૧	-11.0438
▁કુપ્પતિ	-11.0439
▁આયતનં	-11.0439
ચ્છન્દ	-11.0439
▁પગ્ગણ્હાતિ	-11.0445
▁બાહિરા	-11.0445
▁પૂજં	-11.0449
▁થેરી	-11.0452
સમુદાય	-11.0453
▁તુલા	-11.0453
પથવી	-11.0455
▁સઙ્ગહિતં	-11.0455
વત્થૂસુ	-11.0457
▁ઇણ	-11.0458
કથન	-11.0463
િસ્સન્તીતિ	-11.0463
વસ્સિક	-11.0463
ભાવાય	-11.0464
▁મનાપં	-11.0464
▁સીલસમ્પન્નો	-11.0465
વિસમ	-11.0466
બ્યત્ત	-11.0468
▁મહાસત્તસ્સ	-11.0469
▁આરુય્હ	-11.0469
▁અન્તરન્તરા	-11.0469
વસી	-11.047
▁અગાર	-11.047
▁ઉપાહના	-11.0471
સંહિત	-11.0471
▁ગહપતિપુત્ત	-11.0474
▁લભતીતિ	-11.0475
ટ્ઠકથાયં	-11.0476
▁સીતલ	-11.0476
▁સાધેતિ	-11.0477
▁સત્તધા	-11.0477
▁છાદેતિ	-11.0478
▁ગમિસ્સ	-11.0479
▁તુય્હ	-11.0479
▁ગન્થસમ્પયુત્ત	-11.0479
▁નન્દી	-11.048
કટ	-11.0484
▁થિનમિદ્ધં	-11.0485
▁ઉદ્દેસં	-11.0488
મોગ્ગલ્લાન	-11.0488
▁સમ્ભવન્તિ	-11.0489
ૂનં	-11.0489
▁૧૬૩	-11.049
▁વન્ત	-11.0491
▁ઉત્તરાસઙ્ગં	-11.0491
▁મજ્ઝિમો	-11.0493
ાનુરૂપ	-11.0494
િઞ્ચ	-11.0497
▁દુક્કટમેવ	-11.0498
મણ્ડિત	-11.0498
રત	-11.0501
સદ્દાનં	-11.0501
▁એતાય	-11.0504
▁ગહણે	-11.0507
▁અત્તભાવં	-11.0508
ઘરં	-11.0509
સાધક	-11.0509
▁અસુદ્ધ	-11.0513
▁દુક્ખસ્સન્ત	-11.0513
▁ક્રિય	-11.0516
▁પટિસલ્લાન	-11.0518
કમ્મા	-11.0519
▁નુપલબ્ભતિ	-11.052
▁ઉતુસમુટ્ઠાનં	-11.0521
▁આમન્તેત્વા	-11.0521
▁પુટ્ઠા	-11.0522
▁નિપન્નો	-11.0523
ારમ્મણો	-11.0524
પુરેક્ખાર	-11.0525
▁તીસુપિ	-11.0528
▁મહાવીરો	-11.0529
▁છાયા	-11.053
કૂલ	-11.0531
▁અબ્યાપજ્જ	-11.0532
મ્પી	-11.0532
▁ગોચરો	-11.0532
ચિર	-11.0533
▁પટિલભિત્વા	-11.0533
▁પારિવાસિક	-11.0535
સન્નિભ	-11.0535
▁જનપદે	-11.0535
▁પચ્ચત્થિક	-11.0537
▁ઞાતીનં	-11.0537
▁તિવિધેન	-11.0538
▁એતમ્પિ	-11.0538
▁દાસિ	-11.0539
▁તીરં	-11.054
▁અપ્પક	-11.0541
વિઞ્ઞત્તિ	-11.0542
▁ગિહીનં	-11.0542
▁સમાધિસ્સ	-11.0543
▁આસવવિપ્પયુત્તો	-11.0543
▁પસવ	-11.0544
▁ગન્તબ્બ	-11.0545
▁અઞ્ઞેસુ	-11.0545
▁સબ્બત્થાતિ	-11.0545
▁મિગા	-11.0547
▁યથેવ	-11.0547
▁દારકા	-11.0547
ગઞ્છિ	-11.0548
▁પટિપ્પસ્સદ્ધિ	-11.0548
▁ગન્ધબ્બ	-11.0548
▁કરોન્તેન	-11.055
▁દત્વાન	-11.055
▁જગ્ગ	-11.0551
તલં	-11.0554
▁પક્ખિ	-11.0555
ાપયતિ	-11.0556
▁આદિના	-11.0557
▁દિન્ને	-11.0558
▁સપ્પચ્ચય	-11.0559
▁દિન્ના	-11.0559
▁નિમન્ત	-11.056
▁ભવન્તો	-11.0561
પટિભાન	-11.0564
પરિકમ્મ	-11.0565
▁બહુજન	-11.0568
▁લોકનાયકો	-11.057
▁અથેકદિવસં	-11.057
▁યથયિદં	-11.057
રૂપસ્સ	-11.0572
▁વિઞ્ઞાપે	-11.0575
▁પરિગ્ગહેત્વા	-11.0576
ધમ્મેહિ	-11.0577
▁૧૮૦	-11.0577
સંસય	-11.0578
▁આચયગામી	-11.0578
▁પજાનન્તિ	-11.0579
ુપગ	-11.0579
મરણં	-11.0579
▁સંવટ્ટ	-11.058
ઇચ્ચેતે	-11.058
▁હોન્ત	-11.0581
▁આનિસંસો	-11.0581
ાધિપ્પાયેન	-11.0582
▁ઇદ્ધિપાદા	-11.0583
▁અદિન્નાદાના	-11.0583
▁સીલક્ખન્ધ	-11.0584
સદિસમેવ	-11.0584
માનસા	-11.0585
▁અભાવિત	-11.0587
▁આકારેન	-11.0587
▁નાલં	-11.0591
▁પાપેત્વા	-11.0592
▁પક્કોસ	-11.0593
▁વિઞ્ઞૂનં	-11.0593
▁વત્તબ્બત્તા	-11.0593
દરથ	-11.0593
▁મનાયતનઞ્ચ	-11.0594
▁દુસ્સીલ્ય	-11.06
વિઘાત	-11.0604
દાસિ	-11.0606
▁ભિક્ખા	-11.0606
ટ્ઠપન	-11.0606
▁વેદિય	-11.0606
અગ્ગિ	-11.0606
સોધન	-11.0607
▁અપ્પમાણો	-11.0607
ેય્યો	-11.0607
▁નિરોધાય	-11.0608
એકં	-11.0608
▁ભવિસ્સન્તી	-11.061
▁૧૭૭	-11.061
ાદિનો	-11.061
વિચાર	-11.061
સુઞ્ઞત	-11.0612
▁બહુક	-11.0613
વેધ	-11.0616
▁નકામાવચર	-11.0618
▁વટ્ટતિયેવ	-11.0618
ધઞ્ઞ	-11.0618
કિચ્છ	-11.062
▁વેસાલિયં	-11.0621
▁અનભાવં	-11.0621
લિત્ત	-11.0622
▁પલિબોધ	-11.0625
મોચ	-11.0626
▁વિસ્સજ્જનં	-11.0628
કસ્સપ	-11.0628
▁આરામો	-11.063
▁હિતં	-11.0631
૧૬	-11.0633
▁વિસુજ્ઝતિ	-11.0633
▁નરૂપાવચર	-11.0638
યાનં	-11.0638
▁એકક્ખણે	-11.0642
▁કરણવચનં	-11.0642
▁હન્ત્વા	-11.0644
હમસ્મિ	-11.0644
▁અકુસલઞ્ચ	-11.0644
▁વિનિચ્છયં	-11.0645
નિસ્સયપચ્ચયેન	-11.0646
ાગમ	-11.065
પાતિમોક્ખ	-11.0652
ારમ્ભ	-11.0653
પલ	-11.0653
ન્દિ	-11.0653
▁રૂપાદીસુ	-11.0654
▁આરમ્ભ	-11.0657
▁સઞ્જાન	-11.0657
ચા	-11.066
▁પગ્ઘર	-11.0661
વાદે	-11.0661
વિહારી	-11.0662
▁ચેતસિકો	-11.0662
▁સન્નિધિ	-11.0662
▁મુખતો	-11.067
▁પુબ્બચરિતાપદાન	-11.0672
▁વિવટ્ટૂપનિસ્સય	-11.0672
▁આકઙ્ખમાનો	-11.0675
▁અવસ્સુત	-11.0677
રંસિ	-11.0678
▁એતિ	-11.0678
▁અપદાનં	-11.068
મતં	-11.0682
પરિવાસ	-11.0683
▁ખયો	-11.0683
▁આલપન	-11.0683
▁બદ્ધા	-11.0684
▁નાથ	-11.0685
▁નિમિત્તે	-11.0685
▁સેનાય	-11.0685
▁૧૮૩	-11.0686
▁પુબ્બકમ્મં	-11.0687
▁વાતા	-11.069
ચારો	-11.0692
સત્તા	-11.0693
▁પટિસઙ્ખા	-11.0695
ાવસાને	-11.0695
▁સુઞ્ઞતં	-11.0697
▁પટિસન્ધિયં	-11.0699
ગતસ્સ	-11.0701
▁કાયાનુપસ્સના	-11.0706
િકન્તિ	-11.0706
વચ	-11.0707
▁રમ્મ	-11.0708
પ્ફલ	-11.071
▁ઉપેક્ખાસહગત	-11.071
▁દેવિયા	-11.071
સઙ્ઘો	-11.0711
▁વાયામ	-11.0711
ભૂતાનં	-11.0712
▁લોકુત્તરો	-11.0713
▁સબ્બઞ્ઞુતં	-11.0714
▁કંસ	-11.0715
દાને	-11.0716
▁અન્ધકાર	-11.0717
વત	-11.0718
ક્ખો	-11.072
▁તિણ્ણો	-11.0721
ૂપનિસ્સય	-11.0724
▁કાતબ્બન્તિ	-11.0724
▁પસ્સાવ	-11.0725
આચરિય	-11.0725
દ્દિ	-11.0726
▁અક્ખીનિ	-11.0726
અહ	-11.0729
▁અચ્છિન્દ	-11.0731
ક્લેસ	-11.0731
▁ઉપગચ્છ	-11.0732
▁સુખન્તિ	-11.0734
▁અવીચિ	-11.0735
▁ચરિયા	-11.0739
કમ	-11.074
દૂર	-11.0742
▁મનોરમં	-11.0742
▁સંવણ્ણના	-11.0742
▁સાખ	-11.0744
રાજસ્સ	-11.0744
▁સઙ્ગામ	-11.0749
▁નિબ્બાનન્તિ	-11.0749
▁નહેતુઞ્ચ	-11.075
▁કપ્પતી	-11.075
ેથાતિ	-11.075
વિગ્ગહ	-11.0752
▁અભિક્કન્ત	-11.0756
▁કાયિકસ્સ	-11.076
▁સમ્પન્નો	-11.0762
ાસન્ન	-11.0763
▁વુત્તેસુ	-11.0766
▁સામિકો	-11.0767
માનોતિ	-11.0767
સન્તક	-11.0768
▁ગજ્જ	-11.0774
ઙ્ગો	-11.0775
▁સયમ્ભુ	-11.0775
▁પહીયન્તિ	-11.0776
▁વિસારદો	-11.0776
▁ઇસયો	-11.0778
▁વત્થબ્બં	-11.0778
▁પાતુભૂત	-11.0778
▁અદસ્સને	-11.0778
▁અપુચ્છિ	-11.078
▁આનન્તરિય	-11.078
▁અસઞ્ચિચ્ચ	-11.078
▁૧૯૦	-11.0782
ુનો	-11.0786
▁અપેત	-11.0786
ાદિન્નઅનુપાદાનિય	-11.0786
▁ભઙ્ગા	-11.0788
▁યાદિસો	-11.0788
▁રોગો	-11.0788
કમ્પન	-11.079
▁પચ્ચક્ખતો	-11.0791
▁૧૮૨	-11.0792
સન્નિસ્સય	-11.0793
▁ભવઙ્ગં	-11.0793
▁મનાપો	-11.0795
નિદસ્સન	-11.0796
દીપન	-11.0796
▁સોતિન્દ્રિયં	-11.0797
▁ઇત્તર	-11.0798
▁વેદેતિ	-11.0798
પરિચ્છિન્ન	-11.0799
સતિપટ્ઠાન	-11.08
▁બ્રહ્મુના	-11.08
યમાન	-11.0802
▁આવહ	-11.0803
▁ઇમમેવ	-11.0804
૧૪	-11.0804
ૂપસમ	-11.0808
▁છડ્ડિત	-11.0808
ચોળ	-11.0812
▁સઙ્ગાય	-11.0814
▁રુચ્ચતિ	-11.0814
વસન	-11.0814
કુચ્છિ	-11.0819
▁ઉપ્પન્નાનં	-11.0819
ટિ	-11.0819
ાનમેવ	-11.0819
▁લાભસક્કાર	-11.0824
અટ્ઠકથા	-11.0824
▁પરામટ્ઠ	-11.0825
▁રુચિર	-11.0825
યુગ	-11.0827
▁બ્રહ્મુનો	-11.0828
હિંસ	-11.0828
▁બજ્ઝ	-11.0829
▁હેસ્સતિ	-11.0831
▁કેવટ્ટ	-11.0831
▁ગય્હતિ	-11.0832
▁આયતનાનિ	-11.0837
▁સોકો	-11.0838
▁તત્તક	-11.0841
ગામં	-11.0841
કામાવચર	-11.0842
પબ્બજિત	-11.0843
▁સમુદ્દો	-11.0843
▁પરેસુ	-11.0846
ભાગેન	-11.0847
ચક્ખૂ	-11.0848
ચારિ	-11.085
▁કરોતો	-11.0851
▁મહાનાગ	-11.0855
▁નોચિત્તસમુટ્ઠાન	-11.0857
▁વુટ્ઠ	-11.0858
▁વચો	-11.0859
▁સુદ્ધાવાસાનં	-11.086
નિવાસ	-11.0865
▁નિરુદ્ધ	-11.0866
▁રોપ	-11.0867
▁અઞ્ઞાય	-11.0867
▁વુત્તસ્સ	-11.0871
▁સારિપુત્તસ્સ	-11.0871
▁ભુસ	-11.0872
▁બહૂહિ	-11.0872
▁અટ્ઠાન	-11.0873
▁મહાકસ્સપ	-11.0877
▁કતસ્સ	-11.0878
ારહં	-11.0878
ભાવેનેવ	-11.0878
સસ્સત	-11.0878
▁૧૭૧	-11.088
▁યુઞ્જ	-11.0882
અત્તા	-11.0883
▁રત્તો	-11.0883
▁આપત્તાધિકરણં	-11.0883
▁ઉપપજ્જન્તસ્સ	-11.0885
▁તત્રિદં	-11.0886
▁ઇહ	-11.0887
▁સુખિતો	-11.0889
▁વત્તતીતિ	-11.0889
▁વસન	-11.089
ાદ	-11.0891
▁વત્વાન	-11.0895
▁ઉદકસ્સ	-11.0896
▁ભાવન	-11.0896
▁આનુભાવ	-11.0899
▁ઞેય્યં	-11.09
ઞ્ઞે	-11.0901
▁સઙ્ગહિતો	-11.0902
▁૧૮૫	-11.0902
લક્ખણે	-11.0903
▁ગાવી	-11.0905
▁સમાનં	-11.0906
▁ચેતિયે	-11.0907
▁સિઙ્ગ	-11.0907
▁ધમ્મતો	-11.0909
▁બિલ	-11.0909
માતુ	-11.0909
▁અહેતુકા	-11.091
રામો	-11.0912
▁અરૂપાવચરે	-11.0914
છત્ત	-11.0915
▁અનભિરતિ	-11.0917
▁પકરણ	-11.0918
▁તમો	-11.092
▁સમ્માકમ્મન્તો	-11.0929
ત્થિકો	-11.0929
▁વત્થુસ્સ	-11.0931
▁અનોમ	-11.0932
▁વિનિધાય	-11.0932
▁અજ્ઝભાસિ	-11.0933
▁દન્તો	-11.0933
▁સઙ્ખેપત્થો	-11.0935
▁સઙ્કેત	-11.0937
▁પરિપક્ક	-11.0937
▁કારેન્તે	-11.094
▁દન્તા	-11.094
▁પત્તસ્સ	-11.094
▁સતિસમ્બોજ્ઝઙ્ગો	-11.0941
▁આસઙ્ક	-11.0941
▁અધિપતિપચ્ચયા	-11.0943
▁અટ્ઠંસુ	-11.0944
▁બ્રહ્મદત્તે	-11.0948
▁કુલેસુ	-11.0949
ુચ્ચ	-11.095
▁કનિટ્ઠ	-11.0951
પોસ	-11.0951
દસ્સનતો	-11.0951
ટ્ઠાનાનિ	-11.0953
▁બાલસ્સ	-11.0955
▁સન્તપ્પ	-11.0956
ફ	-11.0956
ચેત	-11.0957
▁તત્ત	-11.0958
▁યસં	-11.0958
▁ગરુભણ્ડ	-11.0959
▁તિખિણ	-11.096
▁વાળ	-11.096
▁પુબ્બેનિવાસં	-11.0961
પઞ્હે	-11.0961
▁કુસલે	-11.0961
▁વિપ્પસન્ન	-11.0964
ભિક્ખૂનં	-11.0966
પ્પટિપન્ન	-11.0966
ટ્ઠકથા	-11.0966
મક	-11.0967
૧૭	-11.0969
▁વચીભેદ	-11.0969
▁વોહારો	-11.0974
અલં	-11.0976
▁કુઞ્જર	-11.0977
નુગ્ગહ	-11.0978
▁પરિક્ખયા	-11.0978
▁સુખઞ્ચ	-11.098
ખીણા	-11.0981
▁આનાપાનસ્સતિ	-11.0981
પાસાદ	-11.0981
▁પરિહીન	-11.0983
▁તિરચ્છાન	-11.0984
અઞ્ઞં	-11.0984
રૂપૂપપત્તિયા	-11.0985
ત્યા	-11.0985
▁યાનં	-11.0985
પન્નો	-11.0986
▁નોઅવિગત	-11.0987
સણ્ઠિત	-11.0987
▁પઙ્ક	-11.0991
▁અભિસમ્બુદ્ધો	-11.0992
▁પચ્ચયેસુ	-11.0993
▁મગ્ગક્ખણે	-11.0994
▁પૂજેત્વા	-11.0995
▁સમુટ્ઠાનેન	-11.0996
તાપિ	-11.0998
▁કારકો	-11.0999
▁લભામિ	-11.0999
▁સુણોહિ	-11.1001
▁નોકિલેસ	-11.1001
સ્સામિ	-11.1002
▁વિધા	-11.1004
વિરુદ્ધ	-11.1004
સદિસત્તા	-11.1005
▁સેવતો	-11.1006
ગ્ગા	-11.1006
▁મુહુત્ત	-11.1009
▁સઙ્કમ	-11.101
▁આદિમ્હિ	-11.101
▁અપરા	-11.101
▁વદતીતિ	-11.1011
સમન્નાગતો	-11.1011
▁પજાનના	-11.1011
▁પચ્ચત્તં	-11.1012
▁પનેસા	-11.1013
▁પરિક્ખિત્ત	-11.1017
▁ખાદન્તિ	-11.1019
દાર	-11.1022
વજ્જિત	-11.1023
▁ભવરાગાનુસયેન	-11.1024
▁વીતરાગો	-11.1025
તિઆદીસુપિ	-11.1025
▁નિદ્દેસે	-11.1025
વેલ	-11.1026
▁હીનો	-11.1026
▁નિદ્દિસ	-11.1029
▁વુચ્ચમાન	-11.103
મચ્ચ	-11.1032
▁પુરા	-11.1032
▁કારિય	-11.1032
સત્તાહ	-11.1035
▁ઉપત્થમ્ભ	-11.1037
▁પોટ્ઠપાદ	-11.1038
▁કુસીત	-11.1039
દિવસતો	-11.1041
▁પિણ્ડપાતિક	-11.1042
સાવકો	-11.1043
▁આનીત	-11.1044
▁પવેસેત્વા	-11.1044
▁અલજ્જિ	-11.1044
▁પસીદતિ	-11.1044
મધિ	-11.1045
▁આપન્ના	-11.1045
ુન્તિ	-11.1045
જનન	-11.1046
તબ્બો	-11.1047
▁પટિચ્છન્નં	-11.1048
▁વટ્ટં	-11.1048
▁મહેસિના	-11.1051
▁માતુગામ	-11.1051
પિય	-11.1052
▁અનુસ્સવ	-11.1052
ેવં	-11.1052
▁કુસલેન	-11.1052
▁અધિટ્ઠિત	-11.1053
▁યોજે	-11.1053
લગ્ગ	-11.1054
દ્ધો	-11.1054
▁અનિયમ	-11.1055
▁ધીતરં	-11.1059
▁૧૯૬	-11.1061
▁નોગન્થ	-11.1064
▁અસુરા	-11.1065
▁ભવતણ્હા	-11.1065
ાપેન્તો	-11.1065
▁અનપેક્ખ	-11.1066
▁આપજ્જેય્ય	-11.1067
▁લિખ	-11.1068
ચે	-11.1068
▁આનિસંસં	-11.1068
દસ્સાવી	-11.1068
▁સવિતક્કં	-11.1069
▁નિરુજ્ઝ	-11.107
▁ઉપેતો	-11.107
ાદિભેદ	-11.1071
▁ઉપસંહર	-11.1072
▁પટિક્ખેપ	-11.1072
પતિત	-11.1074
▁ગચ્છન્તી	-11.1074
▁તથાગતા	-11.1076
▁ભૂમિં	-11.1079
સકુણ	-11.1079
▁કામગુણ	-11.1081
અનિચ્ચં	-11.1082
ત્થર	-11.1083
▁તેનેતં	-11.1083
હન્દ	-11.1085
▁સિક્ખાપદેસુ	-11.1085
▁ભેરિ	-11.1086
▁૧૮૯	-11.1086
▁અચ્ચય	-11.1086
▁વત્તુ	-11.1088
▁સુદ્ધિક	-11.1088
▁આવસ	-11.1089
▁ભદ્દિય	-11.1089
▁અત્થઙ્ગમો	-11.1091
▁ઇટ્ઠાનિટ્ઠ	-11.1092
▁અનેકપરિયાયેન	-11.1093
▁સતીતિ	-11.1093
▁૧૮૬	-11.1093
૧૯	-11.1094
▁ગાહાપેત્વા	-11.1095
▁પુઞ્ઞક્ખેત્તં	-11.1095
▁યોબ્બન	-11.1097
▁એકક	-11.1098
▁કતપુઞ્ઞ	-11.11
▁ઉપપજ્જન્તિ	-11.11
▁ઉપલક્ખણ	-11.1101
▁સઞ્ચેતનિકા	-11.1101
▁અપન	-11.1102
▁વુટ્ઠાનં	-11.1104
રૂળ્હ	-11.1104
▁દિબ્બા	-11.1105
▁સુવિસુદ્ધ	-11.1105
▁અપ્પચ્ચય	-11.1105
દારુ	-11.1106
▁ચારુ	-11.1106
▁વાયોધાતુ	-11.1107
ાવબોધ	-11.1108
▁અમનાપ	-11.1108
મપ્પ	-11.111
▁સવિતક્કસવિચારં	-11.111
▁બોજ્ઝઙ્ગે	-11.1111
▁અસમત્થ	-11.1111
▁હિરોત્તપ્પ	-11.1111
▁ઉપસમ્પદં	-11.1112
▁પરિવજ્જ	-11.1113
▁ઉપ્પજ્જમાનો	-11.1114
ચેતસિક	-11.1117
▁નિદસ્સનં	-11.1117
ગતાનં	-11.1118
ાભાવો	-11.1118
મલં	-11.112
ીકત	-11.112
▁ગણ્હન્તસ્સ	-11.112
▁રાજિનો	-11.1121
પરિયાપન્ના	-11.1123
▁વઞ્ચ	-11.1123
▁દિબ્બાય	-11.1124
▁હોથ	-11.1124
સઙ્ઘસ્સ	-11.1125
▁એત્તકા	-11.1126
▁પઠમાય	-11.1128
રણં	-11.1128
▁અનેકે	-11.1129
ઠિત	-11.113
▁યેસુ	-11.113
▁ગિલ	-11.1131
સઙ્ગહિત	-11.1132
તસ્માતિહ	-11.1132
▁પાપિમા	-11.1134
▁હેતુદુક	-11.1134
યોગા	-11.1134
કારિ	-11.1136
▁સખ	-11.1139
▁નિરોધસમાપત્તિ	-11.1143
▁રાજગહ	-11.1145
▁અનવસેસતો	-11.1145
▁દેવદૂત	-11.1147
▁મયમ્પિ	-11.1149
સંયોગ	-11.1149
પરો	-11.1149
▁યસસ્સિનો	-11.115
ાયેવ	-11.1151
▁ગિજ્ઝ	-11.1153
▁વિસ્સજ્જિત	-11.1153
▁નિચ્છ	-11.1155
નામરૂપ	-11.1157
▁સઙ્ઘિકં	-11.1158
▁પઞ્ઞપેતિ	-11.1158
▁દ્વન્દ	-11.1158
▁જટા	-11.1159
▁ધજ	-11.1159
▁અનુપસ્સના	-11.116
▁સમ્પદાન	-11.1162
વિન્દ	-11.1162
▁ભાવેતીતિ	-11.1162
▁સમુપ્પન્ન	-11.1165
ભયા	-11.1167
▁એત્તક	-11.1168
▁ઉદ્ધત	-11.1173
થામ	-11.1174
▁પરાભવ	-11.1176
▁પયુત્ત	-11.1181
▁તતોપિ	-11.1181
▁પુગ્ગલેન	-11.1182
તવ	-11.1184
▁અગચ્છ	-11.1185
▁અવિક્ખેપ	-11.1185
દોમનસ્સ	-11.1186
▁એતાદિસ	-11.1186
▁તિત્થ	-11.119
સદ્ધ	-11.119
▁સણ્ઠાન	-11.1194
▁ઇચ્છિતબ્બ	-11.1195
વિપાકા	-11.1196
▁ઇદમેત	-11.1196
ગામો	-11.1196
▁ઉભયમ્પિ	-11.1198
▁અરહતા	-11.1198
સમ્ભવો	-11.1198
▁વોદાનં	-11.1198
▁પઠમસ્સ	-11.1199
▁નાનુસેન્તિ	-11.12
▁મોઘમઞ્ઞ	-11.12
▁સત્તતિંસ	-11.1201
▁આપજ્જિં	-11.1201
▁ભુઞ્જેય્ય	-11.1202
▁ઉપ્પજ્જેય્યું	-11.1203
ઝ	-11.1203
▁વિપ્પટિસાર	-11.1203
▁લજ્જિ	-11.1203
▁અસમાહિત	-11.1204
▁૧૯૧	-11.1204
ાદીનવ	-11.1205
િય્યતિ	-11.1206
▁ઉદર	-11.1209
ન્તરાયો	-11.121
▁નહાય	-11.1211
▁અધિમુત્ત	-11.1211
▁પારુપિત્વા	-11.1211
▁સમ્પટિચ્છિત્વા	-11.1212
▁સહાયક	-11.1218
ાદીતિ	-11.1218
▁યત	-11.1219
▁પાદેન	-11.1219
નામકા	-11.1219
▁ચોદન	-11.122
▁દારકે	-11.122
ાપેતીતિ	-11.1221
▁ઉક્ખેપનીયકમ્મં	-11.1221
▁અનેન	-11.1222
કોધ	-11.1223
▁વેઠ	-11.1223
▁હેતુફલ	-11.1223
▁પઞ્ચવિઞ્ઞાણ	-11.1225
▁ઞાણસમ્પયુત્ત	-11.1227
▁છેક	-11.1229
ોપમા	-11.1229
▁દુક્ખિતો	-11.1234
▁ઉપપજ્જન્તી	-11.1236
દસ્સનો	-11.1237
▁અનુપસમ્પન્નસ્સ	-11.1237
▁બોધિં	-11.1237
▁વી	-11.1237
દલ	-11.1239
▁પબ્બજિ	-11.124
▁પણ્ડુ	-11.124
મઙ્ગ	-11.1241
▁કસિ	-11.1242
▁મહાબ્રહ્મા	-11.1242
પેતં	-11.1244
જવ	-11.1244
તક્ક	-11.1245
નાદ	-11.1245
▁ભિસિ	-11.1245
▁ભૂતગામ	-11.1246
ાપેસું	-11.1246
▁પતિટ્ઠ	-11.1246
વણ્ણનાય	-11.1247
માનાય	-11.1248
▁દણ્ડં	-11.1248
▁લજ્જી	-11.1249
▁ઠપેન્ત	-11.125
▁કમ્મન્તિ	-11.125
▁૨૦૭	-11.1254
▁નઅરણ	-11.1255
▁તુસિત	-11.1256
▁ગન્ધં	-11.1256
▁લભતે	-11.1257
ત્તક	-11.1258
▁તદઙ્ગ	-11.1259
▁અનત્થાય	-11.126
વાસિક	-11.126
▁મિચ્છત્તનિયત	-11.1262
▁ઉપટ્ઠહન્તિ	-11.1263
ગ્ગહ	-11.1263
▁ખાદતિ	-11.1263
▁સબ્રહ્મચારીનં	-11.1263
▁યોજનં	-11.1264
નિક્ખેપ	-11.1267
ાભિસઙ્ખાર	-11.1268
િનોતિ	-11.1268
▁કુસુમ	-11.1269
▁અઞ્ઞાતક	-11.127
▁પઠમજ્ઝાનં	-11.127
સમથ	-11.1271
▁નિવેસનં	-11.1272
▁અનુસેતીતિ	-11.1276
▁તાતા	-11.1276
▁મુસાવાદો	-11.1276
▁પરિળાહ	-11.1277
યઞ્ઞ	-11.1281
▁અકુસલમૂલં	-11.1282
િણ	-11.1283
▁આરદ્ધો	-11.1285
▁આપજ્જિ	-11.1285
▁સમાદહ	-11.1286
▁લબ્ભ	-11.1286
દેહ	-11.1287
▁દદાતિ	-11.1288
▁કુસલધમ્મ	-11.1289
તેસુ	-11.1291
સીહો	-11.1291
▁ગન્તુ	-11.1291
▁સબ્બઞ્ઞૂ	-11.1293
▁દજ્જ	-11.1294
પદવણ્ણના	-11.1295
▁અરિયસાવકસ્સ	-11.1295
પઞ્ઞત્તિયા	-11.1298
રમ	-11.1301
▁અનેકવિધ	-11.1302
ગાથાવણ્ણના	-11.1304
▁તિયોજન	-11.1305
▁અત્થઙ્ગમા	-11.1306
ભાવદસ્સનત્થં	-11.1307
▁દુબ્બચ	-11.1308
▁સચ્ચેન	-11.1308
અતિ	-11.1308
▁પણિધાય	-11.1309
▁ગણસ્સ	-11.1309
ટ્ઠકથાય	-11.1309
▁નાહોસિ	-11.1309
▁પસ્સથ	-11.131
▁સોમનસ્સજાતો	-11.131
▁વિભાવેતું	-11.1311
ધોવન	-11.1311
અનુપાદાનિયો	-11.1312
▁આગચ્છન્તં	-11.1312
▁અભિસઙ્ખાર	-11.1313
▁અક્ખાહિ	-11.1314
ભાગં	-11.1314
▁હેતુપચ્ચય	-11.1315
▁દદામિ	-11.1316
▁આસીસ	-11.1317
▁એકવિધ	-11.1317
▁છવ	-11.1318
પરિપુણ્ણ	-11.1319
ગાળ્હ	-11.1321
▁દૂરતોવ	-11.1321
▁સબ્બમેતં	-11.1324
▁દુબ્બણ્ણ	-11.1324
▁પાસાદં	-11.1324
▁માતુગામસ્સ	-11.1324
▁પારુપ	-11.1325
▁૧૯૩	-11.1325
હેવ	-11.1326
ાગત	-11.1326
▁પાણાતિપાતો	-11.1327
▁ઞાતકા	-11.1327
▁તિદસ	-11.1328
▁સમન્તપાસાદિકાય	-11.1331
▁કિલિટ્ઠ	-11.1331
▁કામતણ્હા	-11.1331
▁સન્નિપતિત	-11.1333
▁ભાસમાન	-11.1334
સૂલ	-11.1335
▁અંસ	-11.1336
▁જનતં	-11.1336
તથેવ	-11.1336
▁કુમ્ભકાર	-11.1338
▁ધમ્મતા	-11.1338
▁મુનિનો	-11.134
▁એકદેસં	-11.1341
▁પસવતિ	-11.1341
▁ભુ	-11.1341
▁આવાસા	-11.1343
▁૧૮૭	-11.1343
સહસ્સેહિ	-11.1344
▁પાકટમેવ	-11.1345
▁ચતુરસ્સ	-11.1346
▁દેવદત્તસ્સ	-11.1349
▁૧૯૫	-11.1349
નિસ્સરણ	-11.1349
▁અરૂપાવચરા	-11.135
▁સિદ્ધા	-11.1351
▁પરિક્ખેપ	-11.1351
ઙ્કુર	-11.1353
મનુસ્સા	-11.1355
▁અનુપઞ્ઞત્તિ	-11.1357
▁વિચરન્તિ	-11.1358
▁અનુરુદ્ધો	-11.1358
▁તિત્થિયા	-11.1359
▁ભણિત	-11.1364
▁રસાયતનં	-11.1365
▁સઙ્ખતા	-11.1367
▁નસ્સતિ	-11.1368
▁ભમ	-11.137
▁લપ	-11.137
પરિવત્ત	-11.1371
▁બહિદ્ધારમ્મણ	-11.1373
સિખ	-11.1375
▁તણ્હાદિટ્ઠિ	-11.1375
▁સમ્ભૂત	-11.1377
▁ભાસતો	-11.1378
▁જીર	-11.1378
▁સકત્થે	-11.138
▁પટિપ્પસ્સદ્ધ	-11.1382
▁રાજૂનં	-11.1384
▁દેન્તો	-11.1388
▁અનુકમ્પાય	-11.1388
▁અત્થકામ	-11.1389
▁દેહ	-11.1389
▁અટ્ઠકથાસુ	-11.1389
▁સુઞ્ઞતા	-11.1389
ફલા	-11.1389
▁રજનીય	-11.1391
ન્તિઆદીનિ	-11.1391
વસ્સાનિ	-11.1391
પરિક્ખિત્ત	-11.1393
▁નવમ	-11.1393
ુપાય	-11.1394
રાજાનો	-11.1395
▁વેદિતબ્બન્તિ	-11.1395
▁ઉપટ્ઠિતા	-11.1396
▁આકાસં	-11.1396
પાહં	-11.1396
▁પરિચ્ચાગ	-11.1398
▁અણ્ડ	-11.1399
▁યાતિ	-11.1399
▁નિરુદ્ધા	-11.1401
ગુહ	-11.1402
ત્તિકે	-11.1404
સમ્પયુત્તો	-11.1405
▁ચિન્તય	-11.1405
▁૧૯૮	-11.1405
▁મો	-11.1406
▁સિદ્ધો	-11.1407
દસક	-11.1407
વિગત	-11.1407
▁નવમો	-11.1408
▁નિસ્સ	-11.141
વીમંસ	-11.1411
▁કમ્માર	-11.1412
▁ખાદનીય	-11.1416
▁કરિત્વાન	-11.1418
▁ઉપચિનન્તો	-11.1419
▁વિપાકધમ્મધમ્મો	-11.1419
▁ઉદાયી	-11.142
▁કટિ	-11.142
▁સઞ્ઞી	-11.1421
▁મહાજનં	-11.1422
▁એત્તકેન	-11.1423
▁પસુ	-11.1423
▁પતિટ્ઠાપેસિ	-11.1425
▁કિલન્ત	-11.1427
▁અજાન	-11.1428
મુદુ	-11.1428
▁ખિપ્પમેવ	-11.1429
▁વિભૂત	-11.1432
▁મન્તા	-11.1433
▁પટિપન્ન	-11.1433
▁સમન્ત	-11.1433
▁ઉપાસ	-11.1435
▁સંસારો	-11.1436
▁આહટ	-11.1438
▁અપચ	-11.1445
▁કણ	-11.1449
બન્ધનેન	-11.145
▁વિસેસનં	-11.145
▁પરિયેસિત્વા	-11.145
▁અદિસ્વા	-11.145
▁કામો	-11.1451
અરૂપ	-11.1452
▁કુપિતો	-11.1452
▁રઞ્જ	-11.1453
સમણબ્રાહ્મણ	-11.1453
▁અપરિસુદ્ધ	-11.1454
▁ચતુર	-11.1454
પચ્ચુપટ્ઠાનં	-11.1455
વણ્ણેન	-11.1457
ચન્દન	-11.1458
▁ઠાનેન	-11.1458
િત્થિયો	-11.1459
▁એતદેવ	-11.146
દર	-11.1461
▁આસવક્ખય	-11.1462
નેક	-11.1462
▁ઝાનાનિ	-11.1464
▁પુનબ્ભવ	-11.1466
નાવ	-11.1466
▁અદસ્સનં	-11.1466
▁બુદ્ધસાસને	-11.1467
સમ્બોજ્ઝઙ્ગં	-11.147
▁સમ્બોધિ	-11.1471
▁ભિક્ખુનીહિ	-11.1472
ાચયગામિનાપચયગામી	-11.1474
▁તિકપાચિત્તિયં	-11.1474
▁અઘાનકાન	-11.1474
▁સુત્તન્તભાજનીય	-11.1475
▁સમ્મોદિ	-11.1475
▁ઓસાર	-11.1476
▁પસય્હ	-11.1477
▁ઞેય્ય	-11.1478
પરિયાપન્નં	-11.1479
ાભિસમય	-11.148
▁પેસિત	-11.1485
▁વેદેહ	-11.1487
મતી	-11.1488
▁આબાધો	-11.1489
▁મિન	-11.1492
પત્થના	-11.1493
▁હત્થપાસે	-11.1498
▁૨૧૫	-11.1498
▁તેનસ્સ	-11.1499
ચરિયં	-11.1499
▁મીય	-11.1499
મિચ્છા	-11.15
▁પત્તચીવર	-11.1501
▁અબ્ભા	-11.1502
▁વિપ્પમુત્તો	-11.1503
ચિન્ત	-11.1503
▁અરૂપી	-11.1505
▁વિભત્તો	-11.1508
છન્ન	-11.1508
▁અપ્પિય	-11.1511
▁પબ્બજિં	-11.1513
▁ચિત્તસમ્પયુત્ત	-11.1516
▁અજ્ઝાવસ	-11.1517
▁વેજ્જ	-11.1518
▁આહારસમુટ્ઠાનં	-11.1519
કુસુમ	-11.1521
▁કરિ	-11.1521
▁દાતબ્બા	-11.1521
▁સંવાસ	-11.1523
વચનીય	-11.1523
ઞ્હેતં	-11.1524
▁ભિક્ખુસઙ્ઘે	-11.1525
▁સંવરં	-11.1526
▁ગણ્હેય્ય	-11.1528
▁દિબ્બેહિ	-11.1528
▁ભિસ	-11.1529
▁તીહાકારેહિ	-11.153
▁યથાસુખં	-11.1531
▁નચ્ચગીત	-11.1531
▁ચોરો	-11.1532
▁પેતં	-11.1533
▁એતસ્મા	-11.1534
િતબ્બતો	-11.1534
▁જનિન્દ	-11.1536
▁સક્કોમિ	-11.1538
▁૨૨૦	-11.154
▁ભદ્દે	-11.154
▁અનાગામિફલ	-11.1541
▁વાયામો	-11.1543
▁અભિક્કન્તં	-11.1544
▁તિરચ્છાનયોનિ	-11.1544
▁વિસદ	-11.1546
▁સત્તમા	-11.1546
સમાગમ	-11.1546
▁પસાદેત્વા	-11.1548
▁તેત્તિંસ	-11.1548
▁૧૮૮	-11.155
ાભિમુખ	-11.1551
▁પેસલ	-11.1553
▁નિયુત્તો	-11.1554
▁ફસ્સા	-11.1555
વિસેસેન	-11.1556
▁૧૯૪	-11.1557
▁ઉપજ્ઝાયસ્સ	-11.156
▁વત્થુકામ	-11.1564
સપ્પિ	-11.1566
▁મહાયસો	-11.1568
▁પચ્છિમે	-11.1569
વાદિત	-11.157
▁વદામી	-11.1571
૧૫	-11.1574
▁દાયકો	-11.1575
▁ઓપ	-11.1576
▁આવજ્જનાય	-11.1579
▁વૂપસન્ત	-11.158
▁વેપુલ્લં	-11.158
ૂન	-11.1582
પ્પભવ	-11.1583
▁મહન્તેન	-11.1585
સગ્ગ	-11.1588
▁એવમત્થો	-11.1589
▁સમણધમ્મં	-11.1589
▁દ્વારે	-11.1591
▁પુરેભત્તં	-11.1593
કુસલતા	-11.1594
▁ચતુપ્પદ	-11.1594
▁તિલોક	-11.1596
▁સ્વે	-11.1596
સન્તો	-11.1596
▁લો	-11.1597
મુચ્ચ	-11.1598
ઉદ	-11.1599
▁ભુમ્મં	-11.16
િર	-11.16
▁સમાપજ્જિ	-11.1602
▁નિય્યાનિક	-11.1604
▁દ્વાસટ્ઠિ	-11.1605
ાગમો	-11.1607
ાનુકમ્પ	-11.1608
▁આરદ્ધવીરિય	-11.1608
▁ગુણો	-11.1609
▁અનેકેહિ	-11.1612
ેત	-11.1612
▁પમુદિત	-11.1612
▁૨૦૫	-11.1616
▁આરુપ્પ	-11.1619
▁સંવ	-11.1619
▁વિમુત્તં	-11.1619
સઞ્ઞોજન	-11.1619
▁મુત્તં	-11.1621
▁દટ્ઠબ્બ	-11.1622
▁ચાલ	-11.1622
સવો	-11.1622
રજ્જં	-11.1622
▁પાપકે	-11.1623
▁વિજ્જતીતિ	-11.1624
▁ચિત્તો	-11.1625
▁જાનિતબ્બં	-11.1626
▁સારમ્ભ	-11.1627
સમ્ભ	-11.1628
▁કેસે	-11.1628
કમ્મન્ત	-11.1629
▁સારજ્જ	-11.1629
▁વિહિંસા	-11.163
▁આવાસં	-11.1631
મિધ	-11.1632
▁ચક્ખાયતન	-11.1632
કોપ	-11.1633
▁કરોન્ત	-11.1636
▁આલોપ	-11.1636
દ્વાદસ	-11.1637
▁ધમ્માયતન	-11.1639
▁દણ્ડક	-11.164
▁અપ્પટિઘ	-11.164
▁નિવત્થ	-11.164
ુપોસથ	-11.1641
▁અત્થેસુ	-11.1643
▁મહતિયા	-11.1644
▁પચ્ચયાનં	-11.1645
▁દીપં	-11.1645
▁ઠાનમેતં	-11.1646
▁સન્તિકા	-11.1647
▁જલં	-11.1648
કૂજ	-11.1649
▁થલે	-11.1651
▁નુપ્પજ્જિસ્સતી	-11.1652
▁પઠમતરં	-11.1652
▁ગમિસ્સામિ	-11.1653
વિનિચ્છયકથા	-11.1653
▁અવિતક્કઅવિચારં	-11.1653
▁આરોચેત્વા	-11.1654
▁૧૯૨	-11.1655
ઉદ્ધ	-11.1655
▁ઓદન	-11.1655
સઙ્કપ્પ	-11.1659
▁માગધ	-11.166
ામિસ	-11.1661
અધમ્મ	-11.1661
▁ભવિતબ્બ	-11.1663
િતુકામા	-11.1663
▁મુતં	-11.1664
▁પટ્ટ	-11.1666
ભાણક	-11.1667
▁સમ્બોધ	-11.1668
રામ	-11.1668
▁વદામીતિ	-11.1669
▁વિત્થારિત	-11.1671
▁મરતિ	-11.1672
નીયે	-11.1673
▁પઞ્ચસતા	-11.1673
▁મહાસાવજ્જ	-11.1674
▁પાસાદે	-11.1674
▁ઓતિણ્ણ	-11.1676
પ્ફ	-11.1677
▁અસદિસ	-11.1677
ગુણો	-11.1677
▁નિવાસન	-11.1678
▁સદેવક	-11.1679
મસ	-11.168
▁કપ્પો	-11.1682
▁ગચ્છન્તા	-11.1682
▁અસમ્મોહ	-11.1683
▁ભવેય્યાતિ	-11.1683
▁૨૦૯	-11.1684
મત્તિકા	-11.1687
સારો	-11.1687
▁દવ	-11.1688
પુગ્ગલોકાસા	-11.1689
▁આરોપે	-11.1689
▁સક્યપુત્ત	-11.1696
યોજનં	-11.1697
સીમ	-11.1697
▁રુન્ધ	-11.1697
૪૦	-11.1697
▁સાણ	-11.17
▁તથાગતબલં	-11.17
ખાદનીય	-11.1701
▁સમુટ્ઠિતં	-11.1702
▁અક્કમ	-11.1703
▁વાણિજા	-11.1703
▁પિતરા	-11.1703
નાયક	-11.1704
▁અધિપ્પેતત્તા	-11.1707
▁નેરયિક	-11.1708
મણ્ડલે	-11.1708
નિગ્ગહ	-11.1709
▁અજાનિત્વા	-11.1709
▁૧૯૭	-11.1709
યાવતા	-11.1711
▁હિરિ	-11.1711
▁વુસિતં	-11.1712
મ્બર	-11.1714
▁કપિ	-11.1714
ણ્ઠ	-11.1714
▁પઞ્ચક	-11.1715
▁કમ્બલ	-11.1716
▁જેટ્ઠક	-11.1716
▁કસ્સપસ્સ	-11.1717
ુપટ્ઠ	-11.1718
▁અસદ્ધમ્મ	-11.1718
પુરં	-11.1718
ાદિઅત્થ	-11.172
▁ઉભોસુ	-11.172
▁આગચ્છેય્ય	-11.1722
▁ઉપદ્દવ	-11.1723
▁ગામન્તર	-11.1725
▁ચેતસિકા	-11.1725
લાભો	-11.1726
▁ઉપ્પજ્જતી	-11.1727
વાસે	-11.1727
▁અભિસમય	-11.1727
▁જાતિપચ્ચયા	-11.1727
▁નિરવસેસ	-11.1728
વિક્ખેપ	-11.173
સિખર	-11.1731
▁કલ્યાણં	-11.1731
અગ્ગ	-11.1732
▁તદનુરૂપ	-11.1733
▁ફુલ્લ	-11.1734
સાસનં	-11.1735
▁બાહા	-11.1735
▁સસ્સતો	-11.1737
દેસો	-11.1738
▁કથેતબ્બ	-11.1739
▁ઠિતેન	-11.174
પરામાસવિપ્પયુત્ત	-11.1741
▁અપ્પેકચ્ચ	-11.1741
વિમુત્તિઞાણદસ્સન	-11.1741
▁સેનાસનાનિ	-11.1741
▁અધિમુચ્ચ	-11.1743
▁અજ્ઝત્તિકા	-11.1745
▁નિદ્દિટ્ઠો	-11.1746
▁વસ્સસતં	-11.1746
▁૨૦૬	-11.1747
▁છેદ	-11.1747
▁પટિપન્ના	-11.1747
▁દુક્ખિત	-11.1749
▁અન્વ	-11.1749
▁પીણ	-11.1752
▁ભણન્તિ	-11.1753
▁અભવ	-11.1754
સઙ્ગીતિ	-11.1754
વેદનં	-11.1754
▁વિચિકિચ્છાય	-11.1754
▁રોસ	-11.1754
થિ	-11.1755
▁મુચ્છ	-11.1755
મત્તેનેવ	-11.1757
▁ઓરુય્હ	-11.1757
▁સમ્પજ્જતિ	-11.1758
▁જાનાથ	-11.1758
▁૨૦૦	-11.1762
▁પદહતિ	-11.1764
મારુય્હ	-11.1765
▁અધિટ્ઠાતબ્બ	-11.1765
▁સરદ	-11.1767
▁અનુયુત્તો	-11.1767
જાતિક	-11.1769
▁ચતુબ્બિધો	-11.1771
ચતુક્કં	-11.1772
ચિત્તાનં	-11.1775
▁રસે	-11.1777
વિપાકં	-11.1777
ગમો	-11.1779
નિદસ્સનં	-11.1779
▁અપુબ્બં	-11.178
▁ગુણવ	-11.1781
▁આગમનં	-11.1784
સાખા	-11.1784
▁અભિમુખ	-11.1784
▁ગણના	-11.1785
પુરિમ	-11.1785
પરક્કમ	-11.1789
▁ઇમિનાપિ	-11.1791
▁પાદેહિ	-11.1792
▁ધમ્મિયા	-11.1794
▁અચિર	-11.1794
તવે	-11.1797
▁વચનત્થો	-11.1797
રિયા	-11.1797
દાયકત્થેરસ્સ	-11.1797
▁ઉળારં	-11.18
▁દિટ્ઠિગતિક	-11.1804
યોપિ	-11.1805
ઘં	-11.1806
▁પાતિમોક્ખસંવર	-11.1808
▁નિગણ્ઠ	-11.1808
ઇરિયાપથ	-11.1808
▁અરિટ્ઠ	-11.1811
▁અહન્તિ	-11.1811
▁લોકિયો	-11.1812
વિપ્પયુત્તચિત્ત	-11.1813
▁સકદાગામિફલ	-11.1814
▁સપ્પાણક	-11.1814
▁ઉચ્ચાવચ	-11.1814
▁વિહઞ્ઞ	-11.1815
પાદો	-11.1817
સલ્લક્ખણ	-11.1818
દમ	-11.1818
ેમીતિ	-11.182
▁વીરિયારમ્ભ	-11.182
▁અદાસિં	-11.1821
મુત્તા	-11.1821
જ્ઝાય	-11.1823
▁ઉપ્પાદિત	-11.1823
▁અભિનિવેસ	-11.1824
▁સલ્લપ	-11.1825
નાસ	-11.1825
હટ	-11.1827
▁દિટ્ઠાનુસય	-11.183
▁અસ્સં	-11.183
સદ	-11.1831
▁પાયાસિ	-11.1832
▁ન્હાન	-11.1833
▁ઞત્તિયા	-11.1834
▁મૂલાનિ	-11.1834
રૂપજીવિતિન્દ્રિય	-11.1836
▁ન્હારુ	-11.1837
▁દન્તકટ્ઠ	-11.1837
▁દુક્ખનિરોધો	-11.1842
▁વીણા	-11.1843
▁કચ્છ	-11.1843
હાસ	-11.1844
▁રતનાનિ	-11.1846
પ્પભા	-11.1846
▁ભગ્ગ	-11.1848
ાનુપસ્સ	-11.1849
િંસૂ	-11.1849
▁ભુમ્મ	-11.185
▁સબ્બઞ્ઞુતઞ્ઞાણં	-11.185
▁કુમુદ	-11.1853
▁આચિક્ખિ	-11.1853
ધિકાર	-11.1854
▁પટિગ્ગહિતં	-11.1856
▁ધર	-11.1856
▁અદુ	-11.1857
▁દુમ્મ	-11.1857
▁સબ્બકિલેસ	-11.1857
▁વિજય	-11.1858
યાચન	-11.1858
િન્દ્રિયો	-11.1859
▁અપરિમાણ	-11.1861
▁અદ્દ	-11.1861
▁બિન્દુ	-11.1867
▁૨૧૩	-11.1868
▁થન	-11.1869
▁ભજતિ	-11.1873
▁ચીવરપિણ્ડપાત	-11.1874
▁પરિભુત્ત	-11.1875
ગત્ત	-11.1877
▁અનઞ્ઞસાધારણ	-11.1877
▁વિદિતો	-11.1879
▁આભુજિત્વા	-11.188
▁લોકસ્મિ	-11.1881
▁વદેય્યું	-11.1881
▁ચેતોસમ્ફસ્સજ	-11.1882
▁અભિનીહાર	-11.1884
મારો	-11.1885
▁ઉપસન્ત	-11.1885
▁પિપાસ	-11.1888
▁નદતિ	-11.1889
▁૨૨૮	-11.189
▁અઙ્ગજાતં	-11.1891
યુગં	-11.1894
પકરણ	-11.1894
▁યોજિત	-11.1894
▁ચીવરાનિ	-11.1896
▁ધારેન્તિ	-11.1899
▁નવહિ	-11.1901
▁ચેતિયસ્સ	-11.1902
પ્પત્તિ	-11.1903
▁છુપ	-11.1905
પ્પમાણા	-11.1905
▁કપ્પં	-11.1907
સચ્ચપરિયોસાને	-11.1908
▁પિત્ત	-11.1909
પરિયાદાન	-11.1911
ઘટના	-11.1912
ચેતનાય	-11.1912
▁નદિ	-11.1914
દુટ્ઠ	-11.1915
▁મનોરમા	-11.1915
ભાવતોતિ	-11.1919
▁પસીદ	-11.192
▁પદહ	-11.1921
સુણ	-11.1921
▁ભત્તુ	-11.1921
વસં	-11.1922
▁કિલ	-11.1923
▁૨૧૬	-11.1923
▁૨૩૪	-11.1924
▁નિરોધે	-11.1925
▁અબ્યાપાદ	-11.1928
▁યતિ	-11.1928
પચ્ચયસ્સ	-11.1928
▁વસ્સિકસાટિક	-11.1929
▁હદયે	-11.1929
સબ્ભાવતો	-11.193
▁અધિકં	-11.193
▁કયવિક્કય	-11.193
▁અગ્ગહેસિ	-11.193
▁પદચ્છેદો	-11.193
▁અભિધમ્મભાજનીય	-11.1931
▁પાદમૂલે	-11.1932
▁૨૩૬	-11.1933
▁આરુળ્હ	-11.1933
▁ઉપમાય	-11.1935
▁ધોત	-11.1937
▁સપ્પટિઘ	-11.1938
▁તાદિ	-11.1939
▁બલવતર	-11.194
▁મન્દો	-11.1942
▁સમુટ્ઠાનાદીનિ	-11.1943
▁વિરતો	-11.1944
વત્થુકથાવણ્ણના	-11.1945
▁આદાસ	-11.1945
વિસયં	-11.1947
▁સારાગો	-11.1948
▁૨૩૮	-11.195
અત્થે	-11.1951
▁સબ્બથાપિ	-11.1951
સમુટ્ઠાનો	-11.1953
▁૨૧૮	-11.1954
સીત	-11.1954
▁સન્તીરણ	-11.1955
▁સબ્બધિ	-11.1956
▁ખાદિત્વા	-11.1958
ેય્યુન્તિ	-11.1958
વિલ	-11.1963
▁પઞ્ચદસ	-11.1965
મિચ્ચાદિ	-11.1966
▁ઉપચયો	-11.1966
▁નેત્તિ	-11.1967
▁સુચરિત	-11.1967
▁પમુખ	-11.1968
▁અસક્કુણેય્ય	-11.197
▁અતીતો	-11.1976
દુગ્ગ	-11.1977
▁કામધાતુ	-11.1978
▁જલિત	-11.1978
▁વિપાકાનં	-11.1981
▁૨૦૩	-11.1983
▁ઉપકારક	-11.1984
▁૨૧૦	-11.1985
▁યસસ્સિ	-11.1986
સૂચિ	-11.1987
▁નિરોધસમાપન્ન	-11.1989
▁કામૂપસંહિતા	-11.199
▁ચિણ્ણ	-11.199
▁રુક્ખમૂલ	-11.199
▁ચઞ્ઞે	-11.199
▁અહિત	-11.1992
▁પસારેત્વા	-11.1992
▁યોગિનો	-11.1992
સાત	-11.1994
▁તથારૂપં	-11.1994
▁ક્રિયત્થા	-11.1995
▁દણ્ડેન	-11.1996
ભવઙ્ગ	-11.1997
▁મચ્ચુનો	-11.2
▁ભિન્ના	-11.2002
▁અનુભવિત્વા	-11.2002
મથ	-11.2002
▁કુણ્ડલ	-11.2003
ભાવઞ્ચ	-11.2003
▁સામઞ્ઞતો	-11.2006
ાદિક	-11.2007
▁કિંકારણા	-11.2008
ાદીનન્તિ	-11.201
ન્તસ્સાતિ	-11.2015
▁કુટ	-11.2018
▁અનેકાનિ	-11.202
▁અન્નપાન	-11.202
તુલ	-11.202
▁સિક્ખેય્ય	-11.2022
▁કાયદુચ્ચરિત	-11.2022
વચનો	-11.2022
બ્યાકરણ	-11.2025
▁મોહા	-11.2026
▁મહિ	-11.2026
લઙ્કાર	-11.2027
સોતાપત્તિફલાદીનિ	-11.2027
▁આજીવક	-11.2029
િતાનં	-11.2029
▁મજ્ઝિમા	-11.2029
▁નિરોધસચ્ચં	-11.2031
▁સેય્યા	-11.2031
▁ફલે	-11.2031
▁સમ્પયુત્તસ્સ	-11.2034
▁૧૯૯	-11.2038
▁વિમુત્તિયા	-11.204
ુદ્ધાર	-11.204
સેચન	-11.2041
▁આભતં	-11.2041
▁અજાનન્ત	-11.2041
▁તાવતિંસ	-11.2042
પલ્લવ	-11.2042
▁ભાવનામય	-11.2044
રાજિ	-11.2044
▁સેનાસને	-11.2044
ેસ્સામીતિ	-11.2046
▁પરિગ્ગણ્હ	-11.2046
▁પહારં	-11.2047
▁બાહિય	-11.2047
▁અરોગો	-11.2048
▁૨૩૭	-11.2048
▁મહિદ્ધિકો	-11.2048
▁અપ્પીતિક	-11.205
▁મજ્ઝિમં	-11.205
▁નિરન્તર	-11.205
▁૨૪૩	-11.2051
▁નિસીદાપેત્વા	-11.2052
▁પંસુકૂલિક	-11.2052
▁ભયાનક	-11.2054
▁નિમન્તેત્વા	-11.2054
▁અવિતક્કં	-11.2054
▁દીપિતા	-11.2055
▁કુસલચિત્ત	-11.2056
▁જિ	-11.2058
▁સુભં	-11.2058
▁વિભાવેતિ	-11.2058
▁અઞ્ઞતિત્થિયા	-11.2062
▁સુરામેરય	-11.2065
▁ઉસ્સુક્કં	-11.2065
▁યથાવુત્તં	-11.2065
▁વિસાખે	-11.2069
▁બ્યસન	-11.2069
▁૨૦૮	-11.207
પરિગ્ગહો	-11.207
▁નપ્પજહન્તિ	-11.207
▁સબ્બસત્તાનં	-11.207
સ્	-11.2072
▁આગતોતિ	-11.2072
ક્ખન્ધા	-11.2073
ૂપમો	-11.2073
▁ભવિસ્સ	-11.2074
▁દજ્જા	-11.2075
▁પરેન	-11.2075
▁રમ્મે	-11.2076
▁પરિમણ્ડલ	-11.2077
બ્રૂહ	-11.2077
▁ઉન્નત	-11.208
▁મઞ્ઞેય્ય	-11.2081
▁અનોત્તપ્પં	-11.2084
▁અયોનિસોમનસિકાર	-11.2085
▁દાનેન	-11.2085
▁પોથ	-11.2087
ભાજ	-11.2089
નિપાતો	-11.2089
▁દીપેન્તિ	-11.209
▁અપદાને	-11.209
▁નિસ્સરણઞ્ચ	-11.209
▁સમથા	-11.2093
▁અનુપાદા	-11.2093
▁વિઞ્ઞાણે	-11.2093
▁પચ્ચેકસમ્બુદ્ધો	-11.2094
▁૨૧૯	-11.2094
હેતુદુકં	-11.2096
▁વીમંસા	-11.2097
વુટ્ઠિ	-11.2098
પત્તા	-11.2099
િસ્સરો	-11.21
▁નામગોત્ત	-11.21
▁અવેક્ખ	-11.2101
▁વચ્ચ	-11.2103
▁નિબ્બાનાય	-11.2105
▁ઉપસન્તો	-11.2105
▁જીવિકં	-11.2106
▁ઉભિન્નમ્પિ	-11.2107
▁પણિધીતિ	-11.2107
▁ધમ્મસભાયં	-11.2107
▁મહીપતિ	-11.2107
▁પવત્તિયં	-11.2108
▁પુઞ્ઞકમ્મેન	-11.2109
▁તુવ	-11.2109
▁સમિદ્ધ	-11.211
▁પઞ્ચકામગુણ	-11.211
▁નારિયો	-11.2112
▁પરિક્ખિપિત્વા	-11.2113
▁૨૩૩	-11.2113
▁૨૩૦	-11.2114
▁પઞ્ચવોકારાનં	-11.2115
▁ગતિં	-11.2118
ય્યા	-11.2118
▁ગન્ધકુટિ	-11.2119
થુ	-11.212
▁રો	-11.212
▁સબ્બનામ	-11.2123
▁પતિરૂપ	-11.2124
▁ઘટેત્વા	-11.2125
▁અપરાધ	-11.2126
▁અન્તરાયો	-11.2127
ક્કમ્મ	-11.2128
▁૨૦૧	-11.2132
▁દટ્ઠું	-11.2133
ત્તન્તિ	-11.2133
▁હિતસુખ	-11.2138
▁વિપચ્ચ	-11.2138
▁સુદિન્ન	-11.2139
▁વિભાગ	-11.214
▁ચીવરેન	-11.2141
▁પટિક્ખેપો	-11.2142
▁વિગ્ગહ	-11.2142
▁અપરમ્પિ	-11.2144
▁નીવરણસમ્પયુત્ત	-11.2144
વિવરણ	-11.2145
પણિહિત	-11.2147
▁અનૂન	-11.215
▁નિગ્	-11.215
▁દેસેતબ્બ	-11.2151
વિભત્ત	-11.2153
કૂટં	-11.2153
▁નિકાય	-11.2155
વિનિચ્છયં	-11.2155
▁વિકિર	-11.2155
▁અરૂપાવચરાનં	-11.2156
▁વસ્સે	-11.2158
▁અગ્ગિક્ખન્ધ	-11.216
▁અગ્ગસાવક	-11.2162
દ્ધા	-11.2165
▁અગ્ગિવેસ્સન	-11.2166
▁સળાયતનં	-11.2167
▁વિબ્ભમ	-11.2168
▁સમૂહતા	-11.2168
▁પાતિ	-11.2169
▁ઉપ્પતિત્વા	-11.217
પટલ	-11.2171
▁ધમ્મવિચયો	-11.2171
▁૨૨૯	-11.2171
નિસ્સિતો	-11.2175
પ્પદેસે	-11.2177
દ્ધજ	-11.2177
▁તસ	-11.2181
▁કીદિસં	-11.2183
િકોતિ	-11.2184
સમ્મત	-11.2187
▁૨૦૪	-11.2187
ઉચ્ચ	-11.2188
▁દક	-11.2188
▁આચર	-11.2189
▁એત્તકમેવ	-11.2193
ભુજ	-11.2194
▁નિક્ખમતિ	-11.2194
▁સિયન્તિ	-11.2195
▁અક	-11.2196
▁સબ્બસઙ્ખાર	-11.2197
મદ્દન	-11.22
▁નોઉપાદાન	-11.2203
તાવ	-11.2205
▁હાય	-11.2206
રત્તિ	-11.2206
▁ફુટ્ઠસ્સ	-11.2207
▁સબ્બતો	-11.2207
▁અપ્પમત્તા	-11.2209
▁અપ્પવત્ત	-11.2209
▁આદાન	-11.2211
▁હન્તિ	-11.2211
▁ઇતીતિ	-11.2212
▁પીતિસમ્બોજ્ઝઙ્ગ	-11.2215
▁સમ્પટિચ્છન	-11.2215
▁કમ્મવાચાય	-11.2216
▁ઠપેતબ્બ	-11.2217
▁કુટિં	-11.2218
▁વિચરતિ	-11.2218
▁વિજાનાતિ	-11.2218
▁સમણબ્રાહ્મણાનં	-11.2219
▁એકવીસતિ	-11.222
▁ઉપાહન	-11.2222
▁તાદિસસ્સ	-11.2223
▁અન્તરં	-11.2223
સંવાસ	-11.2225
▁યાવતતિયં	-11.2226
▁વિઞ્ઞાતબ્બો	-11.2226
ઇચ્ચેવ	-11.2226
▁ઘમ્મ	-11.2227
▁પવત્તત્તા	-11.2228
▁પુચ્છિતા	-11.223
ેન્તેન	-11.223
ચત્તારિમાનિ	-11.2231
કિર	-11.2231
▁૨૦૨	-11.2232
▁અયમાયસ્મા	-11.2233
▁તૂરિય	-11.2233
▁૨૩૨	-11.2233
કમેવ	-11.2233
પથો	-11.2233
ાચરિયો	-11.2234
▁ઉદાહરણ	-11.2234
▁સંવત્તન્તી	-11.2235
▁સમાદિયિત્વા	-11.2235
▁ફોટ્ઠબ્બા	-11.2237
▁સારમ્મણ	-11.2238
ચ્ચેવ	-11.2238
ત્થિકા	-11.224
▁સઙ્ગહેત્વા	-11.2242
▁વરો	-11.2242
પવારણા	-11.2242
▁માતઙ્ગ	-11.2243
▁૨૧૨	-11.2244
▁કુટ્ઠ	-11.2244
▁અનુસન્ધિ	-11.2244
▁ધમ્મરાજા	-11.2244
▁સાવકે	-11.2246
▁કારુઞ્ઞ	-11.2249
▁૨૧૪	-11.2249
▁માતુગામેન	-11.2249
▁એવરૂપ	-11.225
▁નયિદં	-11.225
▁૨૧૧	-11.225
▁કાકો	-11.2252
▁નાળિ	-11.2252
ધાતુયો	-11.2252
▁દસ્સનીય	-11.2254
▁ચાહં	-11.2254
દિના	-11.2255
▁ચાપ	-11.2255
▁ઇમાસં	-11.2256
ગમનેન	-11.2256
▁૨૨૪	-11.226
એકો	-11.2262
▁નિમ્મ	-11.2262
▁આતપ	-11.2263
▁અભિન્ન	-11.2263
▁૨૨૧	-11.2263
વત્થૂ	-11.2263
મયે	-11.2263
▁પરામાસો	-11.2264
▁પાદેસુ	-11.2265
▁અધિમોક્ખો	-11.2267
ાવિ	-11.2268
વિવિત્ત	-11.2268
▁સીહનાદ	-11.227
નેતં	-11.2271
યોગ્ગ	-11.2273
નિદ્દિટ્ઠ	-11.2274
▁૨૨૫	-11.2275
▁સંયુત્ત	-11.2275
મદો	-11.2277
લબ્ભ	-11.2285
ાલિ	-11.2286
▁ચોળ	-11.2286
▁સુખવિપાક	-11.2287
▁ગુન્નં	-11.2287
▁પટિલાભો	-11.2289
▁સુત્તાનિ	-11.2289
▁કારણન્તિ	-11.229
પ્પચ્ચયા	-11.229
▁વવત્થપેતિ	-11.2291
▁અનુપસમ્પન્ન	-11.2291
▁દોસસ્સ	-11.2292
▁અત્તહિતાય	-11.2292
▁સમિદ્ધિ	-11.2292
▁વણ્ણવાદી	-11.2292
▁વિવદ	-11.2294
▁ભાસિસ્સામી	-11.2295
▁વત્તમાના	-11.2299
▁બ્યસનં	-11.2299
ુસ્સદ	-11.2299
▁મગ્ગસચ્ચઞ્ચ	-11.23
▁૨૨૬	-11.2301
▁દ્વિત્તં	-11.2301
▁પુચ્છિંસુ	-11.2301
પભેદ	-11.2304
▁અન્ધકારે	-11.2306
ઉતુ	-11.2307
▁૨૨૨	-11.2307
▁એતિસ્સા	-11.2308
યતી	-11.2309
▁પિહિત	-11.2309
▁પરિસાસુ	-11.231
ફલો	-11.2311
ોકાસો	-11.2312
▁કુસલઞ્ચ	-11.2313
▁ચતુરઙ્ગ	-11.2313
▁સચિત્તક	-11.2313
▁વક્ખામિ	-11.2316
▁અહિતાય	-11.2316
▁પતિત્વા	-11.2318
▁વદે	-11.2318
▁ધુન	-11.2319
▁અપરિપુણ્ણ	-11.2321
▁આરામં	-11.2322
જ્ઝો	-11.2325
સૂર	-11.2325
▁ગણ્હતો	-11.2325
ન્તેવ	-11.2327
▁ફલદાન	-11.2327
નિવેસન	-11.2329
▁વિનોદ	-11.233
▁અરૂપાવચરં	-11.233
વન્દન	-11.2331
▁તદનુ	-11.2331
▁વલાહક	-11.2332
મત્તન્તિ	-11.2333
હતો	-11.2333
પિટ્ઠે	-11.2334
▁બોધિપક્ખિય	-11.2334
પરં	-11.2335
▁જીય	-11.2338
▁૨૧૭	-11.234
ભાવેનાતિ	-11.2341
▁સુણન્તિ	-11.2342
▁મુત	-11.2344
ગરુક	-11.2344
▁પતિટ્ઠાપે	-11.2344
▁સોયેવ	-11.2345
ભરિત	-11.2345
▁પરિભુઞ્જિતબ્બ	-11.2346
▁વિદિત	-11.2346
▁કપિલ	-11.2347
મહાપુરિસલક્ખણ	-11.2347
▁ઉત્ત	-11.2348
▁વક્ક	-11.2349
▁ભરિયાય	-11.2349
▁હઞ્ઞ	-11.2349
ાદિવણ્ણના	-11.235
▁યત્તકં	-11.2351
પરિયાપન્નો	-11.2354
▁મહાપથવી	-11.2354
▁આનેઞ્જ	-11.2355
▁રાજકુલ	-11.2355
▁પેક્ખમાનો	-11.2355
ચ્છાદન	-11.2355
▁વિધમ	-11.2356
સાલાય	-11.2356
▁ઉપટ્ઠાકો	-11.2359
▁પરિક્ખીણ	-11.2359
▁વણ્ણા	-11.2359
▁નપ્પટિ	-11.236
▁કરણીયેન	-11.2362
▁દસાતિ	-11.2364
▁વત્તબ્બમેવ	-11.2364
▁આપુચ્છિત્વા	-11.2365
પારુત	-11.2366
▁૨૩૫	-11.2367
▁નિદ્દા	-11.2368
▁યત્તક	-11.2369
▁મહાવિહાર	-11.2369
▁પરિવેણ	-11.237
▁પહિતત્તો	-11.2371
▁સમ્માસમ્બોધિં	-11.2373
▁લેણ	-11.2373
ાચ	-11.2374
▁વિઞ્ઞેય્યં	-11.2374
▁ડ	-11.2375
▁પભાસ	-11.2377
▁ઉક્ખિત્તક	-11.2377
સમુદય	-11.2377
▁અપ્પેવ	-11.2379
▁સઞ્ચરિત્ત	-11.2379
ઇત્થિ	-11.238
▁સીતં	-11.2381
▁અપ્પસદ્દ	-11.2382
▁દાસો	-11.2383
િસુ	-11.2383
▁મહન્તે	-11.2384
▁વિસાલ	-11.2387
▁આભા	-11.2389
પ્પયોજન	-11.239
▁સઙ્ગણ્હ	-11.2391
▁આલ	-11.2393
▁સપરિવાર	-11.2394
સૂપ	-11.2394
▁પાપકો	-11.2395
બ્ભન્તર	-11.2395
મિત	-11.2395
સઙ્કેત	-11.2396
સનં	-11.2396
કિલેસો	-11.2396
સ્સરો	-11.2397
અત્થો	-11.2399
▁કિત્તાવતા	-11.24
▁વિક્ખેપ	-11.2403
તુકામો	-11.2403
દેય્ય	-11.2406
▁પપઞ્ચસૂદનિયા	-11.2408
▁પાતુરહોસિ	-11.2408
ઉપ્પન્ન	-11.2409
▁ઉટ્ઠા	-11.2409
▁સીલે	-11.2413
▁મોઘ	-11.2413
મણ્ડ	-11.2413
વતિયા	-11.2414
▁આવસથ	-11.2415
▁નોપરામાસ	-11.2415
▁૨૪૦	-11.2416
▁ઇદ્ધ	-11.2417
▁ચિત્તચેતસિકા	-11.2418
▁ઉપપજ્જેય્ય	-11.2419
વિસયત્તા	-11.242
▁તાવકાલિક	-11.242
▁સમ્મસ	-11.2421
▁એસના	-11.2421
▁૨૨૭	-11.2421
▁અરિયપુગ્ગલ	-11.2422
ધજ	-11.2423
▁પબ્બજિતસ્સ	-11.2423
▁સાધન	-11.2424
ાદિભાવેન	-11.2425
▁વિજ્ઝિત્વા	-11.2425
ાવહં	-11.2426
▁૨૨૩	-11.2427
▁આરોચેતિ	-11.2427
▁સઞ્જાનાતિ	-11.2433
ખીર	-11.2435
▁મનોવિઞ્ઞાણ	-11.2436
વિલાસ	-11.2437
▁નારદ	-11.2438
ધિપ્પેત	-11.2439
▁અચેતસિક	-11.2439
▁ધુરનિક્ખેપ	-11.2442
▁વત્તા	-11.2442
અન્તર	-11.2443
▁મહતી	-11.2444
▁અગ્ગિના	-11.2445
▁વિહેસ	-11.2445
▁ઉગ્ગહિત	-11.245
▁કુણપ	-11.2451
▁અહું	-11.2453
સમત્થતા	-11.2455
પાદા	-11.2456
▁પટિચ્ચસમુપ્પાદો	-11.2456
▁પટિપત્તિં	-11.2456
▁વિઞ્ઞેય્યો	-11.2456
▁સમ્પદા	-11.2459
▁ભાવેન	-11.2463
ાપયિ	-11.2463
▁ગુ	-11.2465
ળાર	-11.2465
▁લિચ્છવિ	-11.2469
▁વુદ્ધિં	-11.2469
▁આચરિયુપજ્ઝાય	-11.247
▁જાતિજરામરણ	-11.2471
▁દુટ્ઠુલ્લ	-11.2471
▁નપ્પજહતીતિ	-11.2472
ાહરણ	-11.2472
▁ભવિસ્સામી	-11.2472
▁પબ્બજ્જાય	-11.2474
▁ઉક્કણ્ઠ	-11.2474
પચ્ચનીયાનુલોમં	-11.2475
વિમાનવણ્ણના	-11.2476
▁રિ	-11.2478
▁પાદો	-11.2478
▁પકાસેસિ	-11.2478
ડિ	-11.2479
સમુદયં	-11.2481
▁પસ્સસિ	-11.2481
▁સદિસા	-11.2481
ધાતું	-11.2484
▁ભોતિ	-11.2484
ગમ્મ	-11.2485
વોહારેન	-11.2485
▁સમ્પજ્જ	-11.2485
▁આવરણ	-11.2486
ુણ	-11.2487
▁નોનીવરણ	-11.2488
બન્ધુ	-11.2488
▁મરણેન	-11.2489
▁સરં	-11.2489
સેક્ખ	-11.249
▁અજાનન્તસ્સ	-11.2491
ત્વાન	-11.2492
▁દુહેતુક	-11.2494
▁અનાથ	-11.2496
▁આસવસમ્પયુત્તો	-11.2501
▁નિટ્ઠં	-11.2504
તાદીહિ	-11.2505
▁અગ્ગે	-11.2506
▁દ્વેધા	-11.2506
નુલોમપચ્ચનીયં	-11.2509
▁સારિપુત્તત્થેર	-11.251
ભિન્દ	-11.2512
સદ્દતો	-11.2512
▁ચિન્તા	-11.2513
▁પુનપ્પુન	-11.2513
▁ખીયતિ	-11.2514
▁૨૩૯	-11.2515
▁કોટ્ઠાસો	-11.2515
▁પવેદ	-11.2516
વાસીનં	-11.2516
▁પરિયોસાને	-11.2516
▁અત્તાતિ	-11.2518
▁નિસીદિતબ્બં	-11.252
▁૨૩૧	-11.2521
▁સતિપટ્ઠાને	-11.2521
હેતુતો	-11.2523
▁વુટ્ઠાનસ્સ	-11.2524
▁કુલપુત્તા	-11.2525
મિચ્ચેવ	-11.2525
ભુય્ય	-11.2525
▁પવારણં	-11.2526
▁જીવિતે	-11.2526
▁પામોજ્જ	-11.2526
▁નયા	-11.2529
▁પરિહાર	-11.253
▁સમુટ્ઠાપ	-11.2531
▁પુટ	-11.2533
▁જાનાહિ	-11.2534
▁પાસાદો	-11.2535
▁પુરિસપુગ્ગલો	-11.2535
▁કરોમી	-11.2535
▁હેસ	-11.2536
▁ધિતિ	-11.2536
પતી	-11.2537
▁કારણે	-11.2537
▁ઉપ્પજ્જન	-11.2538
▁અકુસલવિપાક	-11.254
▁સઠ	-11.2542
▁દાસી	-11.2544
બ્યસન	-11.2545
▁એકવિધેન	-11.2547
▁સહસેય્ય	-11.2548
પુરિસા	-11.2551
▁પાણિનો	-11.2553
▁પુઞ્ઞેન	-11.2554
▁લાભસક્કારસિલોક	-11.2554
▁કુદાસ્સુ	-11.2554
નત્થો	-11.2559
▁મિત	-11.256
મુગ્ગ	-11.2562
▁લદ્ધનામ	-11.2564
ઘાતક	-11.2564
ભાજનં	-11.2565
▁ઉપવસ	-11.2567
▁ગણો	-11.2568
મરિયાદ	-11.257
▁પદેસં	-11.2572
▁નગરસ્સ	-11.2572
▁હતો	-11.2572
લ્ય	-11.2574
▁નિય્યાત	-11.2575
બહૂ	-11.2575
‘‘	-11.2575
ાધિપ	-11.2576
▁પતિટ્ઠાન	-11.2576
ક્ખમ	-11.2576
▁ગોત્રભુસ્સ	-11.2579
▁ખણિક	-11.2579
ેય્યાસી	-11.2582
▁સમ્બોધાય	-11.2584
▁અચ્ચિ	-11.2584
વિસેસા	-11.2585
▁પમત્ત	-11.2587
▁ઉદ્દ	-11.2588
નિપ્ફાદન	-11.2589
▁જિનં	-11.2591
વિસુદ્ધ	-11.2591
▁નિવેસન	-11.2591
▁કિસ્મિઞ્ચિ	-11.2592
▁પચિત્વા	-11.2592
▁બ્યત્તેન	-11.2592
▁પરિગ્ગહો	-11.2593
▁બાળ્હ	-11.2593
▁વયપ્પત્તો	-11.2595
▁ઉપાગમિ	-11.2596
▁તસ્મિઞ્ચ	-11.2596
એસો	-11.2596
સમુગ્ઘાત	-11.2596
▁પઠમપારાજિક	-11.2596
હતં	-11.2597
ગ્ગહણે	-11.2598
▁પબ્બજિસ્સામિ	-11.2598
ાહારો	-11.2598
બદ્ધો	-11.2599
▁તણ્હક્ખય	-11.26
વિપસ્સનાય	-11.2601
▁અગ્ગમગ્ગસમઙ્ગી	-11.2601
▁તેયેવ	-11.2604
▁સમે	-11.2605
▁ગણ્હિતું	-11.2607
વિતાન	-11.2609
▁દુલ્લભો	-11.261
▁અવસ્સ	-11.2613
▁વિવાદાધિકરણં	-11.2614
▁દુબ્ભિક્ખ	-11.2616
બ્રહ્મા	-11.2617
▁ગીવા	-11.2617
▁વિસેસેત્વા	-11.2618
કામં	-11.2619
▁મદ્દિ	-11.262
▁કોટ્ઠ	-11.2625
▁અભિરમ	-11.2625
▁ઉપસમ્પાદે	-11.2625
▁મહાસમુદ્દો	-11.2628
ગ્ઘનક	-11.2631
▁દેય્યધમ્મ	-11.2634
▁પરિક્ખારો	-11.2636
▁ઉપાદારૂપ	-11.2636
▁મહગ્ગતો	-11.2636
▁કાસાવ	-11.264
ગુળ	-11.2641
પચ્ચયેન	-11.2641
સારી	-11.2641
કમ્મન્તિ	-11.2642
▁અખણ્ડ	-11.2645
અચ્છરિયં	-11.2647
▁કુસલાબ્યાકત	-11.2648
▁લચ્છ	-11.2648
▁પારાજિકા	-11.265
ભાવિત	-11.2651
▁પટિભાનપટિસમ્ભિદ	-11.2652
▁યથાપિ	-11.2652
ચરિયાય	-11.2653
નવક	-11.2654
વસેનપિ	-11.2655
મજ્ઝત્ત	-11.2655
▁પટિસ્સુત્વા	-11.2656
▁આરાધ	-11.2656
▁ઝાનઙ્ગ	-11.2658
ગબ્ભો	-11.2658
▁પબ્બાજેતબ્બો	-11.2658
સરિક્ખ	-11.266
▁પટ્ઠપેત્વા	-11.2661
▁ઇતરથા	-11.2661
▁દમ્મિ	-11.2662
▁યકાર	-11.2662
▁વુત્તનયત્તા	-11.2662
▁કારણભૂત	-11.2663
▁સઉત્તર	-11.2665
▁અપ્પત્વા	-11.2666
▁રથેસભ	-11.2666
▁પેમં	-11.2667
સઙ્ખાતાનં	-11.2668
▁પચ્ચુપ્પન્ના	-11.2669
ન્થ	-11.2669
ાભિમુખો	-11.267
▁સમુદયસચ્ચઞ્ચ	-11.2671
▁વિરોચતિ	-11.2672
▁ફોટ્ઠબ્બં	-11.2672
▁કમ્મફલ	-11.2672
▁સમાસે	-11.2673
ત્તેપિ	-11.2677
▁નાનાકરણં	-11.2677
▁અનુસ્સતિ	-11.2677
▁પીતિસહગતો	-11.2678
▁મનુસ્સભૂતા	-11.2678
▁અસાર	-11.2679
નિરુત્તિ	-11.2679
ાહુ	-11.2681
▁જપ્પ	-11.2682
▁અસ્સદ્ધિય	-11.2683
પટિઞ્ઞં	-11.2683
▁ધારેન્ત	-11.2684
▁ભવનં	-11.2684
ઇચ્ચ	-11.2685
▁નદાદિ	-11.2685
▁દુગ્ગ	-11.2687
▁સૂરિયે	-11.2688
▁દિટ્ઠિગતાનં	-11.2689
▁૨૪૨	-11.2691
▁જેતવનં	-11.2691
▁મગ્ગહેતુક	-11.2691
▁નિસજ્જાય	-11.2692
▁સદિસં	-11.2695
સમ્મતો	-11.2695
ેસ્સતી	-11.2697
▁મોક્ખો	-11.2697
વિસયા	-11.2698
▁સમુદાચર	-11.2698
ાનો	-11.2698
▁આણાપ	-11.2699
▁સમ્મજ્જ	-11.27
▁પરલોકે	-11.27
મેવા	-11.2701
પરિદીપન	-11.2702
▁ભવરાગાનુસય	-11.2704
પરિવત્તન	-11.2705
▁કી	-11.2705
▁ઉણ્હં	-11.2707
પરિબ્બાજક	-11.2708
▁સચ્ચાનં	-11.2709
▁અનુરક્ખ	-11.271
ચમ્મં	-11.271
▁નામિકપદમાલા	-11.2711
મુટ્ઠ	-11.2711
▁પણિધિ	-11.2712
▁ચતુબ્બિધા	-11.2712
દેવી	-11.2712
ાગાર	-11.2714
▁સચ્છિકિરિયા	-11.2714
કહાપણ	-11.2714
▁સરીરસ્સ	-11.2715
▁ભાવનં	-11.2716
▁સન્તિટ્ઠતિ	-11.2719
▁અયઞ્હેત્થ	-11.2719
પ્પયોગો	-11.2719
▁સદ્દાયતનં	-11.272
િહ	-11.2721
પૂતિ	-11.2725
▁જાનિતું	-11.2726
પિતા	-11.2726
▁સારત્તો	-11.2727
▁સુત્તેસુ	-11.2728
▁રોહણ	-11.2728
▁સમાપત્તિયા	-11.2728
▁સાસવો	-11.2729
▁અરહતીતિ	-11.2733
▁સિથિલ	-11.2735
▁ખન્તિં	-11.2736
▁ગબ્ભં	-11.2737
▁સમ્માસમ્બુદ્ધા	-11.2737
▁પત્થનાય	-11.2738
પચ્છિમચિત્તસ્સ	-11.2739
▁સન્ન	-11.2739
▁વાતેન	-11.2739
▁રુચિ	-11.2739
▁અભ	-11.2742
▁નિરા	-11.2742
▁હરિ	-11.2743
ગામિની	-11.2743
▁સાનુસયોતિ	-11.2744
▁સીમાય	-11.2744
ુમ	-11.2744
▁વિસાખા	-11.2747
રઞ્ઞ	-11.2748
▁ધમ્મિકં	-11.2749
▁સમાપન્ન	-11.2749
▁૨૪૧	-11.2749
▁સસ્સતદિટ્ઠિ	-11.2749
▁દુક્ખસચ્ચઞ્ચ	-11.2749
બલવ	-11.275
▁ગન્થવિપ્પયુત્ત	-11.275
▁યદેવ	-11.2752
▁દ્વય	-11.2753
▁મઞ્ઞન્તિ	-11.2755
▁મહગ્ગતં	-11.2756
વિઞ્ઞાણં	-11.2756
▁અથોપિ	-11.2758
▁અટ્ઠિક	-11.2758
▁બારાણસિ	-11.2758
▁વમ્મિક	-11.276
▁સઙ્ખતં	-11.2762
વ્હે	-11.2768
▁વિક્ખમ્ભિત	-11.2769
લોકં	-11.2769
▁સમ્મત્ત	-11.2769
▁તદહુ	-11.2773
પદા	-11.2775
▁થુ	-11.2775
તરે	-11.2775
ાસનં	-11.2777
માનત્ત	-11.2778
િતેન	-11.2779
ક્કોસ	-11.2779
ધાતૂ	-11.2779
▁એકેકસ્સ	-11.278
▁વુત્તલક્ખણ	-11.2781
ચતુન્નવુતિ	-11.2782
પાવુરણ	-11.2782
દોસા	-11.2782
▁અનાગતારમ્મણ	-11.2783
▁ઇત્થિપુરિસ	-11.2783
અનન્તર	-11.2783
▁ગન્ધાયતનં	-11.2783
▁અન્તલિક્ખે	-11.2783
▁દ્વિક્ખત્તું	-11.2784
▁તબ્બિ	-11.2785
▁પરદાર	-11.2785
બિન્દુ	-11.2785
▁પથવીકસિણ	-11.2787
▁વિપ્પમુત્ત	-11.279
ક્ખેત્ત	-11.2793
▁હુ	-11.2793
▁કતકિચ્ચ	-11.2793
લપ	-11.2794
▁ઇધાવુસો	-11.2794
મયિ	-11.2795
▁કમ્મજ	-11.2798
વિરતિ	-11.2799
▁અસાત	-11.2804
▁કથન્તિ	-11.2804
▁અનુપ્પત્તા	-11.2806
તાળ	-11.2808
▁ઉપાસકં	-11.2808
બ્ભવ	-11.281
▁નિચ્ચલ	-11.281
▁મલં	-11.2811
સારં	-11.2815
▁ફુટ	-11.2819
▁સમાધિના	-11.2827
▁ગમિસ્સતિ	-11.2829
ચ્છાય	-11.2829
▁પાપે	-11.2829
કિરિયં	-11.2832
▁તિટ્ઠન્ત	-11.2832
▁ઇન્દ્રિયસંવર	-11.2833
▁સેતુ	-11.2833
સક્કો	-11.2835
▁હરન્તિ	-11.2836
લોલ	-11.2837
ઉપનિસ્સય	-11.2839
વિવાદ	-11.2841
ેય્યુ	-11.2841
▁મુદ્ધ	-11.2842
▁નપ્પજાનન્તિ	-11.2846
▁સણ્ઠાતિ	-11.2846
▁અસમ્ભિન્ન	-11.2846
▁વિચક્ખણો	-11.2846
▁પસન્નમાનસો	-11.2846
▁અનાવિલ	-11.2846
▁ઇસ્સરિયં	-11.2848
ધાય	-11.2848
▁ઉપટ્ઠપેત્વા	-11.2848
▁સંસયો	-11.2849
▁તિચીવર	-11.2849
▁રૂપધમ્મ	-11.285
▁માનત્ત	-11.285
▁પવિવિત્ત	-11.285
▁વિહિત	-11.2851
▁સક્કર	-11.2851
મૂલા	-11.2851
ઇતિપિ	-11.2851
▁પટિબલેન	-11.2852
▁યથાસમ્ભવં	-11.2855
સુક્ક	-11.2856
મનુસાસ	-11.2858
વિપાકો	-11.2859
▁સામણેરસ્સ	-11.286
પ્પત્તિયા	-11.2862
નન્ત	-11.2863
યામિ	-11.2865
▁અપરિયાપન્ના	-11.2865
▁પજહન્તો	-11.2866
સઙ્ગહં	-11.2867
અલ	-11.2867
વસ્સો	-11.2869
▁અજ્જેવ	-11.2873
▁પજહથ	-11.2874
▁સત્થુસાસન	-11.2875
▁અભિસમયો	-11.2876
▁છેકો	-11.2877
▁સાસપ	-11.2878
▁મિગો	-11.2879
▁કલહં	-11.288
ઞ્જલિ	-11.288
રણે	-11.2881
▁વિઞ્ઞાપેતિ	-11.2882
▁દેન્ત	-11.2882
પોતક	-11.2883
જય	-11.2884
▁ઉભોહિ	-11.2884
દસ્સના	-11.2889
▁કઙ્ખં	-11.2891
▁યાયં	-11.2892
▁પુબ્બા	-11.2893
▁આરા	-11.2895
▁ઇન્દ્રિયન્તિ	-11.2895
▁હોતૂતિ	-11.2896
▁ગાથાસુ	-11.2896
▁દર	-11.2896
▁કથિનુદ્ધારો	-11.2898
▁યમ્હિ	-11.2898
▁મત્થક	-11.2902
▁પચ્છાજાતે	-11.2902
વાચાય	-11.2902
▁રુપ્પન	-11.2905
▁પબ્બતા	-11.2905
▁ભજન્તિ	-11.2906
▁ગણં	-11.2906
પરિયોસાના	-11.2909
▁વિયાકાસિ	-11.291
▁કાયસુચરિત	-11.291
▁અનાસવ	-11.291
▁દલિદ્દ	-11.2911
▁રૂપારમ્મણં	-11.2911
સમઞ્ઞા	-11.2912
▁તૂલ	-11.2913
▁મરણસ્સ	-11.2913
ણ્ણો	-11.2913
▁સઙ્ખારુપેક્ખા	-11.2913
મૂલકે	-11.2914
▁મચ્છરિયં	-11.2915
▁એળક	-11.2916
▁પતિતં	-11.2916
▁કથન	-11.2916
વાણિજ	-11.2917
▁બ્રહ્મચરિયવાસો	-11.2917
દેવા	-11.2918
તુમ્હાકં	-11.2919
▁ઇદ્ધિવિધ	-11.292
▁આસા	-11.2922
▁મનોકમ્મં	-11.2922
▁કરિંસુ	-11.2924
▁પચ્ચુપ્પન્ને	-11.2926
▁પઠમમેવ	-11.2927
ાતિઆદીસુ	-11.2927
▁લિઙ્ગં	-11.2927
▁ગદ્રભ	-11.2928
▁માસો	-11.2929
▁પતિરૂપં	-11.2929
▁વન્દે	-11.2929
▁કિત	-11.2929
▁નુત્થ	-11.293
▁પિણ્ડપાતો	-11.2931
સન્ધ	-11.2932
▁સુદસ્સન	-11.2932
▁એવરૂપસ્સ	-11.2933
▁અચ્છાદ	-11.2934
▁સંસન્દ	-11.2936
▁આકાસધાતુ	-11.294
▁દિટ્ઠધમ્મ	-11.294
કુલપુત્ત	-11.2941
બ્યાધિ	-11.2948
સ્સામીતિ	-11.2948
▁વચનત્થં	-11.2949
પરિઞ્ઞા	-11.2949
▁ઉપગતા	-11.2951
▁પરામાસસમ્પયુત્ત	-11.2951
દ્વેમે	-11.2955
નિટ્ઠ	-11.2955
ગચ્છતિ	-11.2957
▁પુચ્છાય	-11.2958
▁પાટિહારિયં	-11.2959
સંવણ્ણનાય	-11.2961
▁સંવિદહ	-11.2961
▁બુદ્ધોતિ	-11.2963
▁દુપ્પઞ્ઞો	-11.2963
▁પોસે	-11.2963
▁અજ્ઝોહર	-11.2966
▁ઞાણદસ્સન	-11.2966
દીપના	-11.2967
▁વિક્ખમ્ભન	-11.2967
અસ	-11.2968
પુત્તં	-11.2972
ભક્ખો	-11.2973
▁સિસ્સો	-11.2973
▁કામચ્છન્દ	-11.2973
ાધિટ્ઠાનં	-11.2973
▁અનવકાસો	-11.2974
▁નઅરૂપાવચર	-11.2974
▁અઞ્ઞાતિકાય	-11.2975
ખો	-11.2976
▁ભોજનાનિ	-11.2976
ાનુસ્સતિ	-11.2977
▁અરુણુગ્ગમન	-11.2977
યન્ત	-11.2978
સરૂપ	-11.2979
▁પજાન	-11.298
▁તપ્પચ્ચયા	-11.298
ીયમાન	-11.2981
▁ભાગો	-11.2985
▁કપ્પેસિ	-11.2986
▁અરહતં	-11.2986
▁ભાયિ	-11.2987
▁સપ્પુરિસા	-11.2988
▁ઉપાદાના	-11.2988
▁ભવન્તીતિ	-11.299
▁દીપેન્તો	-11.2992
ગં	-11.2992
ૂપમં	-11.2993
▁વુટ્ઠિ	-11.2996
▁સોતવિઞ્ઞાણ	-11.2996
▁વિનાપિ	-11.2996
▁યક્ખા	-11.2997
▁નિમન્તિતો	-11.2999
ઞાત	-11.2999
▁સબ્બકામ	-11.3
ઙ્કરો	-11.3001
િત્થિ	-11.3002
ગ્ગહણેનેવ	-11.3002
અનિદસ્સનસપ્પટિઘો	-11.3003
▁કદ્દમ	-11.3004
▁ધોવન	-11.3005
▁અનોકાસ	-11.3006
▁વેપુલ્લ	-11.3006
▁એકદિવસ	-11.3007
▁વચને	-11.3007
▁પવારણ	-11.3007
▁અરુણ	-11.3007
ભગ્ગ	-11.301
▁છન્નો	-11.3011
▁બહુવિધ	-11.3011
▁અસ્સમે	-11.3014
સમન્નાગત	-11.3016
અટ્ઠાનમેતં	-11.3016
▁ચિત્તેકગ્ગતા	-11.3017
▁સમત્તં	-11.3017
વાદેન	-11.3021
▁અભૂતં	-11.3021
▁દુબ્ભ	-11.3023
▁અધિગચ્છ	-11.3024
લાય	-11.3028
▁દેસય	-11.3029
▁નિબ્બુત	-11.3031
સાસને	-11.3034
▁સલ	-11.3034
આદેસો	-11.3035
ુબ્ભ	-11.3035
▁વગ્ગુ	-11.3036
▁મત્તા	-11.3036
ોદય	-11.3037
ત્તમ	-11.3037
દ્દુ	-11.3039
▁દિય્યમાન	-11.3039
▁મુય્હ	-11.304
▁અનત્થં	-11.304
▁પઞ્ચવોકારં	-11.304
મત્તાનં	-11.3041
અબ્ભ	-11.3042
▁ફાસુક	-11.3042
▁વુત્તોયેવ	-11.3042
▁કાયા	-11.3045
▁અભિભૂ	-11.3045
▁કરિસ્સન્તિ	-11.3045
ોકાસં	-11.3046
પુથુજ્જન	-11.3047
▁ઞા	-11.3049
▁સંહર	-11.3049
કવાટ	-11.3049
▁અરિયાય	-11.3052
▁ઓભાસો	-11.3052
▁અન્તરાયા	-11.3053
▁માપેત્વા	-11.3058
▁અસક્કોન્તા	-11.3058
▁પીતિસહગતા	-11.3058
ક્રિય	-11.3058
▁સંવત્તતી	-11.3059
▁સમાધિયતિ	-11.3059
▁ઓદનં	-11.3059
▁ત્વઞ્ચ	-11.306
▁સક્કં	-11.3061
યાગુ	-11.3061
કરોતિ	-11.3062
▁સચ્છિકરોતિ	-11.3062
▁પવત્તિતં	-11.3062
પઞ્ઞં	-11.3065
▁કપણ	-11.3067
▁સ્મા	-11.3067
▁બન્ધના	-11.3068
▁સહજાતપચ્ચયા	-11.3069
ુત	-11.3072
▁સમયા	-11.3072
▁સોતેન	-11.3072
દબ્બ	-11.3075
▁દોણ	-11.3076
સમાયોગ	-11.3076
▁નિવિટ્ઠ	-11.3077
▁વિનયકમ્મ	-11.3078
▁યાથાવ	-11.3079
▁ભયતો	-11.308
▁એકાબદ્ધ	-11.308
ખત્તિય	-11.3082
▁વિવિધા	-11.3082
મિચ્ચ	-11.3082
▁પુચ્છિત	-11.3083
▁અજ્ઝત્તબહિદ્ધા	-11.3084
▁નાગરાજ	-11.3084
વિક્ખમ્ભ	-11.3087
▁વિરજ્જતિ	-11.309
▁ઝાનપચ્ચય	-11.3091
▁કુમારં	-11.3091
સમન્નાગતં	-11.3092
▁ચજ	-11.3093
લિત	-11.3097
▁અઞ્ઞતો	-11.3098
▁વિઞ્ઞાણન્તિ	-11.3098
▁દીપય	-11.3099
▁અનુમોદનં	-11.3103
ભાસા	-11.3104
▁પચ્ચનીયુદ્ધારો	-11.3104
▁મહેસક્ખ	-11.3104
▁સમોધાનપરિવાસ	-11.3105
વિરહિતં	-11.3105
▁અલજ્જી	-11.3105
▁અલભિત્વા	-11.3105
▁નેસાદ	-11.3105
▁દસાહ	-11.3105
▁અદંસુ	-11.3106
▁ખુજ્જ	-11.3107
▁ક્ય	-11.3107
▁આણાપેસિ	-11.3107
▁તસ્માતિહ	-11.3112
▁ધુત્ત	-11.3113
મહગ્ગત	-11.3113
▁કમ્મવિપાક	-11.3114
િયે	-11.3114
▁અગ્ગી	-11.3115
નિબ્બ	-11.3115
જનો	-11.3116
▁અસોક	-11.3117
માનાનં	-11.3117
નિવત્તિ	-11.3118
▁નિસીદિતું	-11.312
▁મનુસ્સેહિ	-11.3121
ુપ્પલ	-11.3122
▁વિસ્સજ્જેતિ	-11.3123
▁દિટ્ઠેન	-11.3125
▁દસ્સામિ	-11.3126
▁નિદ્દાય	-11.3132
▁નન્દો	-11.3133
▁દાતુ	-11.3133
પ્પસન્ન	-11.3134
▁સુદ્ધો	-11.3134
સૂકર	-11.3135
▁તુટ્ઠિ	-11.3135
▁સુખિતા	-11.3136
▁આવાટ	-11.3136
▁નિબ્બત્તન્તિ	-11.3138
▁દુક્ખવિપાક	-11.3139
ભીત	-11.3139
▁નવત્તબ્બ	-11.3139
ાહીતિ	-11.3139
▁મહાકસ્સપો	-11.3139
ગણના	-11.3139
▁પરિત્તા	-11.314
▁નિબ્બત્તં	-11.314
▁છડ્ડે	-11.3143
▁સમ્મુખાવિનયો	-11.3143
▁ભૂતાનિ	-11.3145
▁રમ્મં	-11.3145
▁અનુમાન	-11.3146
વિનિબન્ધ	-11.3148
▁આભત	-11.3148
▁ચક્ખાદિ	-11.3151
વેલાય	-11.3152
મનુયુત્તો	-11.3153
▁ખાયતિ	-11.3154
પૂજા	-11.3154
જાય	-11.3155
▁છિન્દતિ	-11.3156
▁સબ્બઞ્ચ	-11.3157
▁સમ્પતિ	-11.3158
▁મનોસમ્ફસ્સ	-11.3159
નલક્ખણા	-11.3161
▁વિજાય	-11.3161
▁ઉદ્ધચ્ચસહગતં	-11.3161
▁નિપ્ફાદે	-11.3164
▁કારયિ	-11.3165
▁કાયસંસગ્ગ	-11.3166
▁અય્યો	-11.3167
▁દાઠ	-11.3168
▁દયા	-11.3168
▁સામઞ્ઞફલ	-11.3168
▁પચ્છિમસ્સ	-11.3169
▁અલભન્તો	-11.317
▁નઅનાસવ	-11.317
▁મહાસુદસ્સન	-11.3171
▁પાપુણિંસૂતિ	-11.3171
▁પચ્ચવેક્ખમાનો	-11.3173
▁પુબ્બન્ત	-11.3173
▁પચ્ચવેક્ખણા	-11.3173
▁સુભા	-11.3174
▁મધુરં	-11.3174
▁દેવતે	-11.3175
▁અરૂપસઞ્ઞી	-11.3175
▁કરિસ્સામા	-11.3175
ઙ્ગાનિ	-11.3177
▁યમહં	-11.3177
આપત્તિ	-11.3179
▁લોકધાતુ	-11.318
ક્ખેપ	-11.3181
▁સક્કુણેય્ય	-11.3182
▁રુચ્ચ	-11.3182
▁છદન	-11.3183
▁ગેહસિત	-11.3184
▁ગત્ત	-11.3184
▁વત્તબ્બતં	-11.3186
▁કચ્ચાયન	-11.3189
વસિ	-11.3191
▁રૂપારમ્મણ	-11.3192
▁વક્ખામ	-11.3195
ખલ	-11.3195
▁નિય્યાતિ	-11.3195
▁ઉપમં	-11.3196
▁યાગું	-11.3197
કણ્હ	-11.3198
▁ઉરગ	-11.3199
વિભાવ	-11.3201
▁નરક	-11.3201
▁સુદ	-11.3204
વિજય	-11.3204
▁મગ્ગઙ્ગં	-11.3205
▁કોસલો	-11.3206
▁પરિતો	-11.3207
▁આઘાતો	-11.3207
▁કીળા	-11.3207
નિયામેન	-11.3207
▁પત્તબ્બ	-11.3208
પક્ખિક	-11.3208
િદ	-11.3208
સુક્કવિસ્સટ્ઠિયા	-11.321
▁અહૂ	-11.321
▁ઞાતક	-11.3214
અય્ય	-11.3214
▁પગ્ગહેત્વા	-11.3216
અજ્ઝ	-11.3222
▁નિબ્બિદાય	-11.3222
▁એકધમ્મ	-11.3223
ામા	-11.3227
કુતો	-11.3229
▁જેગુચ્છ	-11.3231
▁અતિસય	-11.3233
▁અનાદર	-11.3234
▁જાતરૂપ	-11.3234
▁કામભોગી	-11.3237
▁ગિલાના	-11.3237
▁આહિણ્ડ	-11.3237
ગઙ્ગ	-11.3237
▁ઉપદ્દુત	-11.3237
▁ચિત્તસ્સેકગ્ગતા	-11.3238
▁અનનુસ્સુતેસુ	-11.3239
▁યુવા	-11.324
▁ભે	-11.324
▁ઇદમ	-11.324
▁પણ્ડિતેહિ	-11.3241
ભાવદસ્સન	-11.3242
▁પિયરૂપં	-11.3244
▁ઓત્તપ્પં	-11.3244
▁યાદિસા	-11.3247
▁તાદિસા	-11.3247
નિસજ્જ	-11.3248
ુત્તમં	-11.325
▁હેતુસમ્પયુત્ત	-11.3251
▁અનુપ્પ	-11.3252
સઙ્ગાહક	-11.3253
▁ગોચરં	-11.3253
▁વેસ્સન્તરો	-11.3253
▁સન્થર	-11.3254
કિસ્સ	-11.3255
▁વસન્ત	-11.3255
▁રતા	-11.3257
વિસેસે	-11.3258
ન્તૂતિ	-11.3262
▁મૂલાય	-11.3262
▁સત્થાર	-11.3262
પઞ્હા	-11.3262
ત્તિંસ	-11.3264
તચ્છ	-11.3265
▁બાહ	-11.3266
▁ભયા	-11.3266
સને	-11.3269
▁મુહુત્તં	-11.3272
તન	-11.3273
વાચિ	-11.3273
▁મગધ	-11.3273
▁નિવત્તિત્વા	-11.3274
▁નિસ્સયપચ્ચય	-11.3275
▁ભવાભવ	-11.3277
▁રૂપાયતન	-11.3279
▁ગબ્ભો	-11.328
▁દસમ	-11.3282
▁વતાયં	-11.3282
નિરય	-11.3283
▁સુજાતો	-11.3283
પારિપૂરિ	-11.3284
▁સમોધાન	-11.3284
ગોચરા	-11.3285
બલા	-11.3286
▁અલત્થ	-11.3287
ચાલ	-11.3287
▁સીહસ્સ	-11.3288
્ત	-11.3288
▁જનપદેસુ	-11.329
ઇમ	-11.3291
▁સન્તીતિ	-11.3291
નદી	-11.3291
▁અધિગતં	-11.3292
▁અઞ્ઞથત્તં	-11.3292
▁પરિવારિતો	-11.3292
▁સમ્માદિટ્ઠિયા	-11.3292
▁વિભૂતં	-11.3294
▁અગ્ગફલ	-11.3295
▁ઉણ્ણ	-11.3296
▁બલેન	-11.3299
▁કપ્પાસ	-11.33
યમ	-11.3302
▁મુદુક	-11.3303
ટ્ઠીનિ	-11.3304
▁ભુમ્મત્થે	-11.3305
▁ભારં	-11.3305
▁તેવીસતિ	-11.3306
તાપન	-11.3306
▁એકગ્ગતા	-11.3308
બોજ્ઝઙ્ગ	-11.3309
▁લઙ્ઘ	-11.3309
▁પરિક્ખયં	-11.3311
▁કોધં	-11.3313
▁અજિન	-11.3313
▁વિદિતં	-11.3314
▁અસઞ્ઞ	-11.3315
▁સદેવકસ્સ	-11.332
▁જાનાતી	-11.3326
▁ગામસ્સ	-11.3326
▁ભિ	-11.3327
યટ્ઠિ	-11.333
▁પિતામહ	-11.3331
▁સઙ્ઘકમ્મ	-11.3333
▁જાનતા	-11.3334
અઞ્ઞમઞ્ઞપચ્ચયેન	-11.3336
▁ઉચ્છેદદિટ્ઠિ	-11.3336
▁દાય	-11.3337
▁પસ્સામી	-11.3339
▁રત્તિયો	-11.3342
મ્હસે	-11.3342
રોગો	-11.3343
▁વિપસ્સન	-11.3345
વચનતો	-11.3346
▁અક્ખાતા	-11.3346
વિકતિ	-11.3347
▁પરાજયો	-11.3347
સઞ્ઞિસ્સ	-11.3347
મિદ	-11.3348
સિક્ખા	-11.3348
ઞ્ચેતં	-11.3349
▁ચઙ્કમન્ત	-11.335
નવિપાકધમ્મધમ્મં	-11.3351
▁પારમી	-11.3352
▁વિતક્કં	-11.3352
▁કતોતિ	-11.3353
▁બ્રાહ્મણેન	-11.3353
વિજાનન	-11.3354
▁દારુણ	-11.3354
▁નિક્ખમન	-11.3356
▁નિસ્સજ્જ	-11.3356
▁સુતો	-11.3357
▁આદીનવઞ્ચ	-11.3357
ાભિરત	-11.3357
વિકલ	-11.3358
▁ધારેતુ	-11.3359
▁વુત્થ	-11.336
ાભિધાન	-11.3361
ન્વ	-11.3362
વાલ	-11.3362
રેતિ	-11.3363
કરે	-11.3364
▁સકુણો	-11.3365
ેકો	-11.3366
▁વિક્કિણ	-11.3368
જઞ્ઞ	-11.3368
▁તદહુપોસથે	-11.337
▁માગણ્ડિય	-11.337
▁ધમ્મિકો	-11.3371
▁ચિત્તસહભુ	-11.3371
▁કામાવચરો	-11.3372
ામાતિ	-11.3373
ત્તર	-11.3373
▁યાચક	-11.3373
▁માનુસક	-11.3374
કિલમથ	-11.3375
▁વુત્તમત્થં	-11.3375
▁મહન્તા	-11.3375
▁પટિચ્છાદેત્વા	-11.3376
▁પસીદિત્વા	-11.3378
▁અમોહ	-11.3379
▁ગવં	-11.3381
▁પટિગ્ગાહક	-11.3381
સીસં	-11.3381
▁પરિપાક	-11.3383
▁અભિસઙ્ખત	-11.3383
▁ખીય	-11.3385
ાયુ	-11.3386
અટ્ઠારસ	-11.3387
ગામિનો	-11.3388
▁અકાલે	-11.3388
▁ઞાપેતબ્બો	-11.3391
▁આદીનવા	-11.3391
▁વિબ્ભન્ત	-11.3391
નિદાના	-11.3391
▁વત્તબ્બન્તિ	-11.3392
લાભા	-11.3392
▁રુહ	-11.3392
▁સકદાગામિમગ્ગ	-11.3393
સયં	-11.3393
▁પસ્સિતું	-11.3398
દોમનસ્સુપાયાસા	-11.3398
▁અપરિક્ખિત્ત	-11.3398
▁અવિપ્પટિસાર	-11.34
▁પાસંસો	-11.34
▁ધમ્મપટિસમ્ભિદા	-11.3401
▁સુણન્તો	-11.3401
▁વિપ્પસન્નેન	-11.3401
▁અકારણ	-11.3402
ત્થમેવ	-11.3402
▁ભવપચ્ચયા	-11.3405
▁ખયે	-11.3407
ન્તરાય	-11.3408
ીયં	-11.3408
▁અટ્ઠઙ્ગુલ	-11.3409
▁અદસ્સન	-11.341
▁મારિસા	-11.3411
▁અજાનન	-11.3411
▁ઉપનિસ્સયો	-11.3412
▁પસંસન્તિ	-11.3412
▁મારં	-11.3413
▁યોગાવચરો	-11.3414
ગણ્ડ	-11.3414
▁તલ	-11.3415
વવત્થાન	-11.3416
પટિલાભો	-11.3421
્યં	-11.3422
ધિટ્ઠાન	-11.3423
ઞાણસ્સ	-11.3424
તુન્ન	-11.3425
▁સચ્છિકિરિયાય	-11.3425
▁અક્ખાત	-11.3427
ચલ	-11.3431
યસ	-11.3432
▁સમુગ્ઘાત	-11.3434
▁વેહાસં	-11.3435
▁કલ્લ	-11.3436
▁મહાપઞ્ઞો	-11.3437
▁અપચયગામી	-11.3438
▁મુટ્ઠસ્સતિ	-11.3438
▁કાનિચિ	-11.3438
▁યુગનદ્ધ	-11.3438
▁પટિવિરતા	-11.3439
▁આવ	-11.3439
ાદિભાવ	-11.3439
▁યાવદત્થં	-11.3439
▁દેવતાહિ	-11.344
▁દેસનાપરિયોસાને	-11.344
દન્તિ	-11.3441
▁ભિક્ખાચાર	-11.3442
ગુણેન	-11.3442
પબ્બતે	-11.3443
▁નસહજાતે	-11.3443
▁થી	-11.3443
▁પચ્ચનીયં	-11.3444
ાપી	-11.3445
▁નિબ્બાનધાતુયા	-11.3445
▁રસ્સત્તં	-11.3445
▁સુગ્ગહિત	-11.3445
રિત્વા	-11.3445
▁કપ્પસતસહસ્સ	-11.3446
▁મનુસ્સભૂતો	-11.3446
પચ્છા	-11.3447
▁એથ	-11.3448
બુદ્ધસ્સ	-11.3448
▁બુદ્ધગુણ	-11.3448
▁રુચિયા	-11.3448
▁અગારવો	-11.3449
▁ગેધ	-11.3449
▁તપ્પટિપક્ખ	-11.3449
▁ઉપનિધાય	-11.345
▁પણ્ડર	-11.3452
▁ઉપહત	-11.3452
લોકિય	-11.3453
ઙ્ગુટ્ઠ	-11.3454
▁સાધૂતિ	-11.3454
▁ઓપમ્મ	-11.3455
▁પચ્ચયાકાર	-11.3455
દાહ	-11.3457
▁અન્તરધાય	-11.3457
▁એકરસ	-11.3458
▁સેસાનં	-11.3458
▁ઉદયબ્બય	-11.3458
▁નહાન	-11.3459
▁ચતુત્થસ્સ	-11.3459
▁બ્રાહ્મણી	-11.346
કોવિદો	-11.3461
▁અધિટ્ઠહ	-11.3462
બહુલા	-11.3462
▁અભિભૂત	-11.3464
▁અનિયતા	-11.3464
▁અકામ	-11.3464
▁નિસ્સાર	-11.3465
▁વેરિ	-11.3467
▁અવધિ	-11.3467
દૂત	-11.347
આકાસ	-11.347
▁રુદ	-11.3472
▁સંસટ્ઠ	-11.3472
પઠમં	-11.3473
નકો	-11.3474
▁ગરુભણ્ડં	-11.3475
▁વિનાસં	-11.3475
▁સંવસ	-11.3475
સેલ	-11.3475
▁થુતિ	-11.3476
સંયુત્તે	-11.3482
▁પાચ	-11.3482
અનન્ત	-11.3483
તેજ	-11.3487
રાનં	-11.3489
▁કાસ	-11.3491
સેખ	-11.3493
▁લોમા	-11.3494
ભવો	-11.3494
▁નપુંસકલિઙ્ગ	-11.3494
▁પાટિહારિય	-11.3495
પયોગે	-11.3498
રોપન	-11.3499
મણ્ડપ	-11.35
▁પરિયુટ્ઠાન	-11.3504
▁ભેસજ્જાનિ	-11.3504
▁પાપિમ	-11.3505
કાસી	-11.3505
▁વિત્થત	-11.3505
▁મનસિકરોન્તો	-11.3506
▁મિથિલ	-11.3506
▁વૂપસમ્મતિ	-11.3506
▁દ્વાવીસતિ	-11.3506
ાદિભાવો	-11.3507
▁આપજ્જન્તિ	-11.3508
▁મહાપચ્ચરિયં	-11.3508
▁આભસ્સર	-11.3509
▁સમાપજ્જન	-11.3509
▁સુનક્ખત્ત	-11.351
▁અનુગત	-11.3511
ઉત્તર	-11.3512
▁પરિવેણં	-11.3512
▁ઉપનીત	-11.3513
▁સમુટ્ઠાપેતિ	-11.3514
ન્તરેન	-11.3515
નસીલો	-11.3515
▁પરિપૂરેન્તિ	-11.3515
▁મહત્ત	-11.3515
કરુણા	-11.3515
▁અસમ્પત્ત	-11.3517
કોટ્ઠાસે	-11.3518
મત્તિક	-11.3518
▁આણત્ત	-11.3518
▁અટ્ઠારસહિ	-11.3518
▁નિક્ખેપ	-11.3519
વિત્ત	-11.3519
▁કાયિન્દ્રિયં	-11.352
સેનો	-11.3521
એતદગ્ગં	-11.3521
▁ઉપાદાનિય	-11.3522
સિઙ્ગ	-11.3522
▁પીતિં	-11.3523
▁વસ્સૂપનાયિક	-11.3523
▁પત્થેતિ	-11.3525
▁પરિસુદ્ધો	-11.3525
▁કિમિ	-11.3526
▁મૂસિક	-11.3526
▁પટિસન્થાર	-11.3528
ત્તી	-11.3531
વિતક્કો	-11.3531
િકેન	-11.3531
ત્થી	-11.3533
સમ્મતા	-11.3533
▁ભવેય્યું	-11.3533
▁વિસુદ્ધિયા	-11.3534
▁સુખિનો	-11.3537
▁મહાવુત્તિ	-11.3537
▁સમ્મપ્પધાના	-11.3539
▁એકપદ	-11.3541
▁ગુહ	-11.3542
▁સઘાનકાન	-11.3542
▁પિયરૂપા	-11.3544
કસાવ	-11.3545
▁અવધારણ	-11.3545
▁પચ્ચેકબુદ્ધા	-11.3547
▁ખણો	-11.355
▁જટ	-11.3553
▁સુખદુક્ખં	-11.3553
▁ગહેતબ્બાનિ	-11.3556
સમાસો	-11.3557
મજ્ઝગ	-11.3558
▁સભિક્ખુકા	-11.3558
▁આનિસંસા	-11.356
▁સુકરં	-11.356
▁મારે	-11.356
પચ્ચુપ્પન્નં	-11.3561
લક્ખ	-11.3561
સમુદાચાર	-11.3562
▁કાયવિઞ્ઞત્તિ	-11.3563
▁અમિત	-11.3564
▁પુણ્ડરીક	-11.3567
▁અનાગામિસ્સ	-11.3568
▁પરિણત	-11.3569
▁અરિયસાવક	-11.357
દસ્સિ	-11.3572
▁હદયવત્થુ	-11.3572
▁અનધિ	-11.3574
▁નિરનુસયા	-11.3574
▁નઆસેવનપચ્ચયા	-11.3574
▁ભેરવ	-11.3575
▁અભિત્થવ	-11.3577
▁કરોસિ	-11.3577
પ્પહાનેન	-11.3577
નવિપાકધમ્મધમ્મ	-11.3578
▁અહિરિક	-11.3578
્પયુત્તલોભસહગત	-11.3579
સઙ્ઘાત	-11.3579
▁મહેસી	-11.358
▁સન્ધાયેત	-11.3581
▁નિવારે	-11.3582
▁આયતનેહિ	-11.3582
▁સમુદાચરન્તિ	-11.3582
▁સન્નદ્ધ	-11.3583
▁જાનિ	-11.3583
▁દેસેય્ય	-11.3586
▁ભણે	-11.3586
ભત	-11.3588
▁પિટકત્તય	-11.359
નક્ખત્ત	-11.359
વલાહક	-11.3591
▁પણ્ણાસ	-11.3591
ભગવતો	-11.3591
▁દમિળ	-11.3592
▁નામરૂપસ્સ	-11.3592
▁સુપિનં	-11.3593
▁તેમાસં	-11.3594
ચતૂહિ	-11.3595
▁તળાક	-11.3596
ચેતસો	-11.3596
પચ્ચુપટ્ઠાનો	-11.3596
▁રજ્જે	-11.3596
▁પચ્ચવેક્ખણઞાણ	-11.3597
▁અસક્કોન્ત	-11.3597
ુપ્પ	-11.3599
મુદ્દિક	-11.3599
સ્સરા	-11.3601
▁નિદ્દિટ્ઠં	-11.3601
▁પાદકજ્ઝાન	-11.3602
રૂપાનં	-11.3602
પ્પકારં	-11.3604
▁ભિન્નો	-11.3606
માનસં	-11.3607
સઙ્ખાતેહિ	-11.3609
સઞ્ઞિ	-11.3609
▁અભિભૂતો	-11.361
કમ્માનિ	-11.361
▁માતર	-11.361
▁અકપ્પિયં	-11.361
▁પજાપતિ	-11.3613
▁તથાવિધ	-11.3614
વસ્સસહસ્સાનિ	-11.3616
▁અનિચ્ચાનુપસ્સના	-11.3616
ાદિભેદે	-11.3617
અરહત્ત	-11.3618
▁પાતુભવતિ	-11.3619
▁ચમ્મં	-11.3621
▁વિતક્કે	-11.3622
▁આકઙ્ખતિ	-11.3623
ભજ	-11.3624
▁વિચિકિચ્છાસહગતં	-11.3627
▁વિચરન્ત	-11.3628
▁વિરાજ	-11.3628
મેતન્તિ	-11.3629
▁સબ્બાનિપિ	-11.363
ફાણિત	-11.3631
ઇચ્ચાદિના	-11.3632
▁આસવેહિ	-11.3633
પુબ્બભાગ	-11.3633
િયોતિ	-11.3634
▁ગણ્હાતીતિ	-11.3635
▁પરિઞ્ઞેય્ય	-11.3635
▁એકત્તં	-11.3635
જ્જુ	-11.3636
▁અગા	-11.3636
▁ચાતુમહારાજિક	-11.3636
▁સબ્બલોકે	-11.3637
▁વેદનાનં	-11.3638
▁અનાપત્તી	-11.3639
▁અવિપાક	-11.364
▁વિજ્જમાને	-11.364
તેજો	-11.3641
▁અગ્ગસાવિકા	-11.3643
ાતિઆદિ	-11.3643
▁અબ્ભાચિક્ખ	-11.3644
▁સેસપદેસુપિ	-11.3644
▁સત્તરતનસમ્પન્નો	-11.3644
▁પરિપૂરકારી	-11.3645
▁હન્દાહં	-11.3646
▁લહું	-11.3646
લોપે	-11.3647
▁અરિયવંસ	-11.3647
પદટ્ઠાના	-11.3649
▁એકદેસેન	-11.3649
▁દુમ્મનો	-11.3649
▁અભિસેક	-11.365
મપિ	-11.3651
ય્યો	-11.3651
▁ઉપપન્ના	-11.3652
▁ચતુસચ્ચધમ્મ	-11.3652
ાભરણ	-11.3652
▁અપાકટ	-11.3653
▁અભિસમ્બુદ્ધ	-11.3656
▁નિમન્તન	-11.3658
પેતવત્થુ	-11.3658
▁ગાળ્હ	-11.3659
▁પસિદ્ધ	-11.3661
યાય	-11.3661
▁પટિચ્છ	-11.3663
▁સંવિજ્જતિ	-11.3663
▁અનારમ્મણ	-11.3666
▁રાહુ	-11.3666
પુબ્બઙ્ગમ	-11.3666
હેતૂતિ	-11.3667
▁કુસલેહિ	-11.3667
યન્તં	-11.3667
▁પિસાચ	-11.3669
▁પચ્ચેસ્સ	-11.3669
▁અજ્જતગ્ગે	-11.3671
▁આસેવન	-11.3673
▁મહાકરુણા	-11.3673
મનસિકારો	-11.3674
▁પરિયોદાત	-11.3676
▁થોક	-11.3677
▁આયતનાનં	-11.3677
▁ગમિસ્સામી	-11.3677
▁સમન્તચક્ખુ	-11.3677
▁મયૂર	-11.3678
▁રંસિ	-11.3683
નન્દી	-11.3684
પુબ્બં	-11.3684
▁ઘંસ	-11.3684
▁નાવ	-11.3688
▁લોકનાથ	-11.3688
▁પય	-11.3689
મદાસિ	-11.369
અનાગત	-11.369
પરાયણો	-11.3691
ઘરે	-11.3697
▁મુગ્ગ	-11.3698
▁પટિનિસ્સગ્ગ	-11.3699
▁અનત્તમનો	-11.3699
ફલક	-11.3703
નકં	-11.3705
▁બ્રહ્મચારી	-11.3705
સમ્પત્ત	-11.3706
ટ્ઠાનન્તિ	-11.371
કતિચિ	-11.371
▁દોસેન	-11.3711
▁અત્થતકથિન	-11.3713
▁અધિવાસન	-11.3713
▁ગારય્હો	-11.3713
▁કતિપય	-11.3714
▁સિખી	-11.3714
▁ઉચ્છિજ્જ	-11.3714
▁પટિબલો	-11.3715
ન્તસ્સાપિ	-11.3715
▁પતિટ્ઠાપેત્વા	-11.3716
▁ધારેતીતિ	-11.3716
▁જહન્તિ	-11.3717
▁કમ્મવાચા	-11.3717
▁ઓસક્ક	-11.3722
▁ઇદ્ધિપાદં	-11.3722
▁તઞ્ઞેવ	-11.3722
▁કપિલવત્થુ	-11.3722
▁જેટ્ઠો	-11.3725
ાભિમુખં	-11.3726
▁અસન્તં	-11.3726
મચ્છરિય	-11.3727
▁વિહારા	-11.3727
વિભાવના	-11.3728
▁અબ્યાકતમૂલ	-11.373
ઉપાસક	-11.373
ભિક્ખવો	-11.3733
▁પતિટ્ઠાસિ	-11.3733
▁જહતીતિ	-11.3734
▁અવસાને	-11.3734
▁પરિયા	-11.3736
ાનિસંસા	-11.3737
મઞ્ઞાય	-11.3737
▁અપ્પમઞ્ઞા	-11.3738
▁કરોન્તે	-11.3738
▁નન્દિય	-11.3738
▁ઉપાયો	-11.3738
▁વુત્તેન	-11.3739
પટિપત્તિયા	-11.374
▁વિજમ્ભ	-11.374
▁નાળિકેર	-11.3743
▁દૂતં	-11.3745
▁પકાસેતિ	-11.3746
▁પકાસન	-11.3746
વતં	-11.3747
અય	-11.3748
ઇટ્ઠ	-11.3748
રત્તિં	-11.3749
▁૨૪૪	-11.375
▁ઇટ્ઠક	-11.375
▁વિઞ્ઞાણક્ખન્ધ	-11.375
▁કુસલવિપાક	-11.3752
▁અતિમાન	-11.3752
▁ચન્દિમસૂરિયા	-11.3754
▁અત્થઙ્ગત	-11.3754
▁પરમત્થો	-11.3754
ધિગત	-11.3754
▁પકારેહિ	-11.3755
પટિગ્ગાહક	-11.3756
દાયિકા	-11.3757
▁પસાદં	-11.3757
નામકં	-11.3757
▁સીલાદિગુણ	-11.3758
અના	-11.376
▁અપ્પમાદો	-11.376
▁તન્	-11.3761
દુક્ખસ્સ	-11.3762
▁સભાવેન	-11.3763
▁ચેતોપરિયઞાણસ્સ	-11.3765
▁સાગરો	-11.3766
▁સમ્બન્ધિતબ્બં	-11.3766
તેહિ	-11.3766
▁વિઞ્ઞાપન	-11.3768
▁સમેન	-11.3768
માગતં	-11.377
▁આદીસુ	-11.377
▁અકરોન્ત	-11.377
નાસિક	-11.3771
▁અસ્સુતવા	-11.3772
▁બ્યઞ્જને	-11.3772
કત્તુ	-11.3774
વયવ	-11.3775
▁દાનાનિ	-11.3775
મિઞ્જ	-11.3776
▁અસેસ	-11.3776
▁સુસમાહિત	-11.3779
▁સબ્બદુક્ખ	-11.378
▁રૂપસઞ્ઞા	-11.378
▁લિચ્છવી	-11.3783
▁સમ્પસ્સમાનો	-11.3783
▁અટ્ઠવિધ	-11.3783
▁ઉમ્મત્તિકાય	-11.3783
▁મેસો	-11.3784
▁દિટ્ઠિગતવિપ	-11.3785
▁અરોગ	-11.3786
▁ધારેતબ્બ	-11.3786
▁આરોચિત	-11.3786
▁અનિચ્ચાદિ	-11.3787
▁ગિર	-11.3787
▁ધમ્મરાજ	-11.3787
પરમં	-11.3789
▁ઠાનન્તિ	-11.3789
ધારા	-11.379
▁વિધાન	-11.379
▁સદેવમનુસ્સાય	-11.3792
▁અનુપસ્સતિ	-11.3792
ચ્છાદ	-11.3793
િયત્થેરઅપદાન	-11.3794
હિતં	-11.3794
▁પુરોહિત	-11.3796
▁ધઞ્ઞં	-11.3797
▁હેમન્ત	-11.3798
▁મન્દા	-11.3799
▁સંખિત્ત	-11.3801
પબ્ભાર	-11.3802
બાહિર	-11.3802
વેકલ્લ	-11.3802
તેતિ	-11.3806
ગુણેહિ	-11.3806
▁ફલેન	-11.3806
ાગન્ત્વા	-11.3809
▁સમનુભાસન	-11.3809
▁મેઘો	-11.381
▁પરિહરતિ	-11.381
▁વિવેકજં	-11.381
▁વિહત	-11.3811
પરિસ્સય	-11.3811
છક્ક	-11.3812
▁અબ્ભુતો	-11.3813
▁ભુઞ્જન્તસ્સ	-11.3813
નમો	-11.3814
▁ધમ્મારમ્મણ	-11.3815
▁મન્તિ	-11.3815
▁પજાનાતીતિ	-11.3818
જાતિયા	-11.3819
▁બ્યાપાર	-11.3819
▁બાહિરક	-11.3819
▁નિપકો	-11.3822
ચેતિયં	-11.3824
ક્ખણેયેવ	-11.3824
સટ	-11.3825
નિબ્બત્તક	-11.3825
▁૨૪૮	-11.3825
▁સિમ્હિ	-11.3827
▁વત્થૂહિ	-11.3829
ઙ્કો	-11.383
વણ્ણનાયં	-11.3832
▁ઠપેન્તો	-11.3834
▁ઝાનેન	-11.3836
▁યસ્સાયસ્મ	-11.3836
▁પરિપુણ્ણો	-11.3836
પરે	-11.3836
▁રા	-11.3837
હુત	-11.3838
▁સંવણ્ણ	-11.3839
▁અસેક્ખો	-11.3839
▁સિર	-11.3841
યન્તી	-11.3841
▁સન્દિટ્ઠિકં	-11.3842
▁ભયેન	-11.3843
▁થૂપં	-11.3843
ત્તસ્સ	-11.3844
▁મહાથેરો	-11.3845
▁દ્વીહ	-11.3845
▁જાનિતબ્બ	-11.3845
લાભિનો	-11.3846
ેય્યાથા	-11.3846
▁તાળ	-11.3846
ઇચ્છ	-11.3847
▁સમ્મતા	-11.3848
▁પરિસ્સય	-11.3848
ટ્ઠાનેયેવ	-11.3849
▁તત્તકં	-11.3849
દણ્ડો	-11.3849
▁ઇત્થ	-11.3851
▁વાહ	-11.3853
▁અહઞ્હિ	-11.3853
િન્દો	-11.3853
▁અઙ્કુર	-11.3855
▁કુદ્ધો	-11.3855
▁વિવેકનિસ્સિતં	-11.3856
▁કુતોચિ	-11.3856
ભરણ	-11.3856
▁ઉમ્માદ	-11.3857
▁ઉમ્મત્તક	-11.3857
▁ઇચ્ચેતં	-11.3859
▁વુત્તાનં	-11.3859
▁વસ્સસહસ્સાનિ	-11.3859
ભૂતાનિ	-11.386
▁વદન્તીતિ	-11.3862
▁વન્દિ	-11.3864
ાતિઆદિમાહ	-11.3864
▁વચસા	-11.3864
▁અપચ્ચં	-11.3865
▁યેભુય્ય	-11.3866
વિદ્ધંસન	-11.3866
▁અમૂ	-11.3867
▁રાગેન	-11.3868
મચ્છર	-11.3868
સમ્બન્ધો	-11.3869
વીથિયં	-11.3869
▁પિહ	-11.3869
▁મતે	-11.387
▁મેદ	-11.387
ગતેન	-11.3871
ાદીસૂતિ	-11.3872
▁ઠપન	-11.3873
▁અધિપ્પાયં	-11.3874
▁ભાગં	-11.3874
▁ઓક્કમતિ	-11.3875
▁પાણિના	-11.3877
▁અનેકસત	-11.3878
સમાધી	-11.3878
પરિક્ખેપ	-11.3878
▁પરિવાસ	-11.388
▁સીલાદિ	-11.3882
▁ઓતરતિ	-11.3882
સોળસ	-11.3886
▁અધમ્મં	-11.3886
▁યાપેતિ	-11.3887
▁સાધૂ	-11.3887
▁પાપુણિત્વા	-11.3891
ધૂમ	-11.3894
કિણ્ણં	-11.3895
▁સહાયો	-11.3895
ઇમાનિ	-11.3897
▁પુરક્ખતો	-11.3897
▁પસંસા	-11.39
▁સતિવિનય	-11.3901
▁સુમના	-11.3902
અમ્ભો	-11.3903
▁પસ્સતા	-11.3904
ટ્ઠિતો	-11.3905
▁એકાદસમં	-11.3905
▁રુહતિ	-11.3908
▁સેનક	-11.3908
▁સીલઞ્ચ	-11.391
▁કરોમ	-11.391
▁ભણ્ડાગારિક	-11.391
▁ગિમ્હ	-11.3911
▁પલાસ	-11.3911
▁સક્કાતિ	-11.3913
▁પાપાનિ	-11.3914
માનાતિ	-11.3915
ઇદ	-11.3916
▁ગતી	-11.3916
▁ઠિતોતિ	-11.3916
▁પતન્તિ	-11.3917
▁૨૬૫	-11.3918
પરિવુત	-11.3918
નાકારો	-11.3918
▁અગ્ગટ્ઠાન	-11.3918
ાદિગુણ	-11.3919
▁નિપજ્જિ	-11.3921
▁જચ્ચન્ધ	-11.3924
▁નવિપાકપચ્ચયા	-11.3924
▁તતુત્તરિ	-11.3924
ગ્ગેન	-11.3925
▁વિસ્સુતો	-11.3925
કુટિક	-11.3926
▁ધિ	-11.3926
▁ઉપપત્તિક્ખણે	-11.3927
મઞ્જ	-11.3927
▁દણ્ડો	-11.3928
▁અનિદસ્સનો	-11.3929
▁જાતોતિ	-11.3929
સમ્પયોગ	-11.393
ચરિતો	-11.3931
દિટ્ઠિયા	-11.3932
▁અનોત્તપ્પ	-11.3934
▁નોચિત્તસંસટ્ઠ	-11.3935
▁સુવિભત્ત	-11.3936
▁સમૂહો	-11.3939
▁અમ્હ	-11.3939
▁૨૬૩	-11.394
▁વીરો	-11.3943
▁નીવરણવિપ્પયુત્ત	-11.3943
બિમ્બ	-11.3943
▁આરોપ	-11.3944
▁ખેત્તે	-11.3944
▁પરિહાય	-11.3944
અભિક્કન્તં	-11.3945
▁એદિસો	-11.3945
▁વેલાયં	-11.3947
▁સન્થરિત્વા	-11.3947
વિભૂસિત	-11.3948
▁પટિસલ્લાના	-11.3948
૨૨	-11.3951
▁અપક્કમ	-11.3952
પચ્છિમ	-11.3952
▁ભિક્ખુસઙ્ઘ	-11.3953
▁નરાસભો	-11.3953
▁પચ્ચયભૂત	-11.3953
પયોગો	-11.3953
સમ્પદ	-11.3955
▁છક્ક	-11.3957
કોસલ્લ	-11.3957
▁વુત્તપ્પકારેન	-11.3957
▁અન્નં	-11.3959
સદિસાનિ	-11.396
▁મહાયસ	-11.3963
દિસાય	-11.3963
▁મેઘિય	-11.3964
▁સાતિસય	-11.3964
▁પનેતે	-11.3964
▁વવત્થિત	-11.3965
▁પીઠં	-11.3967
▁મચ્છો	-11.3968
▁આરામિક	-11.3968
▁૨૪૬	-11.3971
મસ્સાતિ	-11.3972
▁દીપઙ્કર	-11.3973
ેતબ્બન્તિ	-11.3973
▁ચલન	-11.3974
વતા	-11.3974
ચક્કવાળ	-11.3976
▁નિરનુસયોતિ	-11.3977
▁કથિને	-11.3978
▁નિચ્છય	-11.3978
ાદાય	-11.3979
▁અન્વા	-11.398
▁અપ્પિચ્છ	-11.398
વિરહિતા	-11.398
▁૨૪૫	-11.3982
▁આરોપિત	-11.3982
▁કાણ	-11.3984
▁અસમ્ભવતો	-11.3984
▁સેખિય	-11.3984
ાનઞ્ચેવ	-11.3985
કમ્પ	-11.3986
▁વિહિંસ	-11.3988
▁ઉપચિત	-11.3988
▁વાદિત	-11.3988
▁આમન્ત	-11.3989
▁ચેસ	-11.3989
ભાણી	-11.399
સેનાસનં	-11.399
િચ્છા	-11.399
▁પથવીકસિણં	-11.3991
▁સોવણ્ણ	-11.3993
▁વિસેસાધિગમ	-11.3993
પતિરૂપક	-11.3993
▁બહુતરં	-11.3993
▁સમાદપે	-11.3995
ધમ	-11.3995
▁ગાથાદ્વયમાહ	-11.3995
▁ચેતનાપણિધીહિ	-11.3995
▁તિવેદનન્તિ	-11.3996
▁નેસોહમસ્મિ	-11.3996
▁દુક્ખસ્સન્તકરો	-11.3997
▁નિલીય	-11.3997
▁સાતરૂપં	-11.3997
▁ભુઞ્જિતબ્બં	-11.3998
▁ફુસન	-11.3998
▁કતમેસં	-11.3998
રુક્ખે	-11.3999
મેય્ય	-11.3999
▁સોતાપન્ના	-11.4
િમ્હિ	-11.4
▁સઞ્જાનન	-11.4
વિતક્કવિચારમત્તા	-11.4
▁માતિકં	-11.4001
▁મુદિત	-11.4002
▁ગોતમી	-11.4002
▁તિટ્ઠતુ	-11.4004
▁ભગવન્તો	-11.4004
વારિ	-11.4005
▁સુખો	-11.4006
ાધીન	-11.4006
ઇચ્ચાયસ્મા	-11.4008
▁ઇચ્છામિ	-11.4009
ભવન	-11.4009
▁અનઞ્ઞથા	-11.4009
▁માતુયા	-11.401
ાપેક્ખ	-11.4011
▁કદલિ	-11.4012
▁ઠાનસો	-11.4014
▁પટિચ્છન્ના	-11.4015
▁સભિક્ખુકો	-11.4015
અજ્ઝત્ત	-11.4016
▁સુઞ્ઞા	-11.4016
▁ફરતિ	-11.4018
ચૂળ	-11.4018
હરણં	-11.4018
સામત્થિય	-11.4019
ઉપ્પાદ	-11.4019
તોવ	-11.402
▁ઇચ્છાય	-11.4021
▁પાપસ્સ	-11.4021
દીપનત્થં	-11.4022
▁આરોગ્ય	-11.4023
▁ગામા	-11.4024
▁રત્તિન્દિવ	-11.4024
સત્તમ	-11.4025
▁તુમ્હાક	-11.4025
પતન	-11.4029
▁વાચસિક	-11.403
જના	-11.4031
અન્ત	-11.4032
▁મારણ	-11.4033
▁અપ્પિચ્છા	-11.4033
▁પહિણ	-11.4035
▁અચરિ	-11.4036
ક્ખન્ધં	-11.4036
▁ઝાયતિ	-11.4037
▁ઉબ્ભ	-11.4038
▁કોસ	-11.4039
▁નીવરણે	-11.4039
કથિન	-11.4039
▁અનુમોદન	-11.4044
ાવહાર	-11.4045
▁સન્તોસ	-11.4045
▁પીતિસહગત	-11.4046
પરિસઙ્કિત	-11.4046
▁પરિભવ	-11.4047
▁જીવક	-11.4047
સમ્ભવા	-11.4048
▁દુપ્	-11.4049
▁અગ્ગહિત	-11.4049
▁દુબ્ભાસિત	-11.405
▁અપ્પિયો	-11.4051
હાનિ	-11.4051
▁અનુપ્પન્નાનં	-11.4054
▁અરક્ખિત	-11.4055
▁વળઞ્જ	-11.4055
▁અપણ્ણક	-11.4055
▁અરિયમગ્ગેન	-11.4059
યઞ્હિ	-11.4061
▁વટ્ટદુક્ખ	-11.4062
▁નિદ્દ	-11.4063
▁સુખાવહ	-11.4063
▁ફોટ્ઠબ્બે	-11.4066
▁કોધનો	-11.4067
▁યાવતાયુકં	-11.4067
▁બ્રાહ્મણમહાસાલ	-11.4067
▁અઞ્ઞાતાવી	-11.4067
▁અનાગતંસઞાણસ્સ	-11.4068
કતે	-11.4068
▁તબ્ભાવ	-11.4068
▁નિદ્ધારેત્વા	-11.4069
સમ્મતં	-11.407
▁પસ્સસિસ્સામી	-11.407
▁સલક્ખણ	-11.407
▁સમોધાનેત્વા	-11.4072
▁નિસ્સટ્ઠ	-11.4072
▁વસનટ્ઠાન	-11.4073
જરા	-11.4073
પ્યત્ર	-11.4074
▁પઞ્ચહાકારેહિ	-11.4075
▁દ્વિપદ	-11.4075
▁અનુસન્ધિં	-11.4076
▁ભાજનં	-11.4076
▁સાત્થિકા	-11.4076
▁મોઘપુરિસ	-11.4077
▁મચ્છેર	-11.4078
▁અપ્પમાણા	-11.4079
▁સારિપુત્તં	-11.4082
પરાજિત	-11.4082
▁મદ્દિત્વા	-11.4083
▁પવરો	-11.4084
▁આળવક	-11.4085
ઉપેક્ખા	-11.4085
▁ગવેસન્તો	-11.4085
▁હિમ	-11.4086
ફરુસ	-11.4087
▁દુપ્પઞ્ઞ	-11.409
▁તાવતા	-11.409
ણેય્ય	-11.4092
પરિયન્તં	-11.4093
ભિક્ખવે	-11.4093
▁અપરિયાપન્ન	-11.4094
ચતુર	-11.4094
▁મહબ્બલા	-11.4095
▁કામગુણેસુ	-11.4095
▁ઉપસંહરતિ	-11.4096
▁અધમ્મકમ્મ	-11.4097
▁૨૫૬	-11.4097
▁વિનટ્ઠ	-11.4097
ભેરિ	-11.4099
▁પરિત્તારમ્મણં	-11.4099
ભાજનીય	-11.4101
દસ્સિત	-11.4101
▁સૂચ	-11.4102
▁ઉપ્પજ્જનતો	-11.4103
દાયકં	-11.4105
▁કમલ	-11.4105
કિઞ્ચ	-11.4109
▁નિદ્દં	-11.4111
ાનાગત	-11.4112
▁કાયસઙ્ખાર	-11.4112
પૂજં	-11.4114
▁સુત્તપદ	-11.4114
▁સુખસહગતા	-11.4115
▁તથૂપમ	-11.4115
▁તેનાવુસો	-11.4115
▁ગણ્ઠિ	-11.4115
▁અદોસ	-11.4115
▁સામત્થિય	-11.4117
ભૂમક	-11.4118
▁બહૂસુ	-11.4119
બોધિસત્ત	-11.412
કહં	-11.412
▁આયાચ	-11.412
▁જેતવન	-11.4121
પિતુ	-11.4121
▁અસઙ્ગહિત	-11.4121
કરણત્થં	-11.4122
▁રથો	-11.4122
▁પક્કન્ત	-11.4123
▁સવિચારં	-11.4123
સરા	-11.4124
▁ઓતર	-11.4128
▁ગણભોજન	-11.4128
▁સલ્લક્ખે	-11.413
સ્મી	-11.413
બાલ	-11.4131
▁કુહક	-11.4131
નવુતિ	-11.4133
▁પો	-11.4134
▁અભિવાદન	-11.4134
▁માસા	-11.4135
▁તયોપિ	-11.4135
▁આદિકમ્મિક	-11.4137
▁પસ	-11.414
▁કાયચિત્ત	-11.414
▁વિકાલભોજન	-11.4141
▁સમાનસંવાસક	-11.4142
▁અનુગ્ગણ્હ	-11.4142
▁બુદ્ધાનુસ્સતિ	-11.4143
▁દુમ્મેધ	-11.4143
▁કિઞ્ચન	-11.4144
▁ભદ્દન્તે	-11.4144
તિસ્સત્થેરો	-11.4145
▁આગમિસ્સતિ	-11.4146
▁ઓસારણ	-11.4147
▁નિચ્છર	-11.4148
સક્કાર	-11.4149
કારિનો	-11.4151
▁વિઞ્ઞાયતીતિ	-11.4151
ભાવેપિ	-11.4152
▁કેનચિદેવ	-11.4152
▁અન્તરધાન	-11.4153
વરે	-11.4154
ક્ખન્ધે	-11.4154
▁સપ્પટિઘં	-11.4155
ાભિભૂ	-11.4155
પિટ્ઠ	-11.4155
▁મહગ્ગતા	-11.4156
▁યથાસકં	-11.4156
▁સિજ્ઝતિ	-11.4156
કુક્કુચ્ચ	-11.4157
દહન	-11.4158
▁સવિતક્ક	-11.4158
▁સલાક	-11.4159
▁અનિદસ્સનં	-11.4159
ભૂતપુબ્બં	-11.416
▁પુચ્છામ	-11.4161
▁ચત્તારોપિ	-11.4161
ત્થાનં	-11.4161
▁સાવસેસ	-11.4161
▁દારકો	-11.4162
▁વિસત્તિકા	-11.4163
ાવજ્જન	-11.4163
▁નહેતુપચ્ચયો	-11.4163
▁વિકપ્પન	-11.4164
▁ભવિતબ્બન્તિ	-11.4164
▁આપાયિક	-11.4164
▁૨૬૪	-11.4165
ાદીનીતિ	-11.4167
િમ્હા	-11.4169
ચ્ચા	-11.417
▁બ્યાકરણ	-11.417
▁જરામરણસ્સ	-11.4171
▁વોટ્ઠબ્બન	-11.4173
પદેસે	-11.4173
ુપ્પન્નં	-11.4174
ઞાણાનિ	-11.4177
▁તહં	-11.4178
▁પરિવારે	-11.418
▁ધેનુ	-11.4181
ઇચ્ચેવમાદી	-11.4182
▁ઉદપાદીતિ	-11.4183
▁સન્નિપતન્તિ	-11.4184
▁આયૂ	-11.4185
પુગ્ગલસ્સ	-11.4186
વિચિકિચ્છા	-11.4188
વિભાગેન	-11.4189
મચ્ચુ	-11.4191
▁વાલ	-11.4191
પરિપૂરણ	-11.4193
કુસલસ્સ	-11.4194
ભતો	-11.4196
વ્હ	-11.4196
▁રજનીયા	-11.42
▁વસ્સિક	-11.42
▁સબ્બસ્મિં	-11.4201
▁વિહ	-11.4201
કોસલ્લં	-11.4203
▁સુણન્ત	-11.4204
▁દણ્ડિ	-11.4207
▁અઙ્ગીરસ	-11.4208
નિજ્ઝાન	-11.4209
▁ઓવદતિ	-11.4209
▁સંવેજ	-11.4209
નાથ	-11.421
▁૨૬૯	-11.421
▁મરણધમ્મ	-11.4211
ફલાનિ	-11.4212
▁અગ્ગમક્ખાયતિ	-11.4213
▁પરિદીપિત	-11.4213
▁પવારેતબ્બં	-11.4213
▁અનાવાસો	-11.4214
અનાથપિણ્ડિક	-11.4214
સદિસતા	-11.4214
▁ફરુસા	-11.4216
પાળિયા	-11.4216
▁વિજ	-11.4216
▁પમુઞ્ચ	-11.4217
▁દેવમનુસ્સ	-11.4217
સહાયો	-11.4218
▁પરિમજ્જ	-11.4219
નિગ્ઘોસ	-11.4219
▁સલાકભત્ત	-11.4219
▁જનાનં	-11.4221
▁અલ્લીય	-11.4221
▁૨૮૦	-11.4221
▁નિસ્સિત	-11.4222
▁ગહિતાનિ	-11.4222
▁મિચ્છત્ત	-11.4224
▁વુત્તેહિ	-11.4225
▁એકાહપ્પટિચ્છન્ન	-11.4226
▁નિયમેત્વા	-11.4226
▁વિઞ્ઞૂહિ	-11.4228
સ્સન્તી	-11.4228
▁અધિટ્ઠાતિ	-11.423
▁અપાયેસુ	-11.4231
▁વઞ્ચન	-11.4232
ગોચરં	-11.4233
ાપેન્તસ્સ	-11.4234
▁દુક્ખસમુદય	-11.4234
હતા	-11.4235
યમાનં	-11.4236
▁દેવેહિ	-11.4237
▁સારમ્મણો	-11.4239
વહ	-11.424
▁૨૬૭	-11.4242
▁નિબ્બાય	-11.4244
▁અનાગામિ	-11.4246
▁રાગાદયો	-11.4249
▁અસ્સાદઞ્ચ	-11.4249
▁પટિપજ્જિ	-11.4249
સમ્ફસ્સો	-11.4251
▁સમન્નાગત	-11.4251
વણિજ્જ	-11.4251
▁અસ્સદ્ધ	-11.4251
▁પુમા	-11.4251
ગોચરે	-11.4251
ભં	-11.4254
▁કારય	-11.4255
▁તણ્હાપચ્ચયા	-11.4256
▁દુતિયદિવસે	-11.4256
▁ઉપટ્ઠાપે	-11.4257
ગય્હ	-11.4259
હાકારેહિ	-11.4259
▁એકાદસહિ	-11.4259
▁સુકતં	-11.426
૩૦	-11.426
પુગ્ગલં	-11.4262
▁તાણ	-11.4262
▁વિજ્જુ	-11.4263
▁પારમિં	-11.4263
સસ્સતો	-11.4263
દુક્ખા	-11.4264
▁નેક્ખમ્મં	-11.4265
▁ગણ્હથ	-11.4267
સરીરં	-11.4268
૫૦	-11.4269
▁પિસુણ	-11.4269
ાતિક્કમે	-11.4269
▁૨૫૮	-11.4273
▁પૂરેન્ત	-11.4274
ુજ્જન	-11.4276
▁વચીદુચ્ચરિત	-11.4276
▁વિસ્સ	-11.428
▁પઞ્ઞાબલં	-11.4286
▁ધતરટ્ઠ	-11.4286
▁અભાસથ	-11.4286
▁વચનમબ્રવિ	-11.4287
▁સણિકં	-11.4287
તાવસેન	-11.4288
પરેત	-11.4288
▁બ્રૂ	-11.429
▁સચિત્તકં	-11.4293
▁વણ્ણિત	-11.4293
▁માને	-11.4293
▁દસમો	-11.4293
▁કથય	-11.4293
▁વુત્તમેવત્થં	-11.4293
▁અભિનિવેસો	-11.4294
▁એતદગ્ગે	-11.4295
▁પુરિમાનિ	-11.4295
▁ઉત્તરો	-11.4295
ીયિત્થાતિ	-11.4295
સહિતં	-11.4297
▁સતા	-11.4298
રિત	-11.4299
પપઞ્ચ	-11.43
▁સામઞ્ઞં	-11.43
▁દસધા	-11.4302
▁સૂદ	-11.4303
▁પવિસન્તિ	-11.4304
▁ચિન્તિત	-11.4305
▁નિબ્બત્તિત	-11.4305
ૂનિ	-11.4306
▁સદ્દેન	-11.4306
ાદીનિપિ	-11.4306
સમ્ભૂત	-11.4307
પસ્સે	-11.4309
▁મહાભોગ	-11.4311
▁ચાર	-11.4312
મેવેતં	-11.4313
▁વોદાનસ્સ	-11.4313
▁પુથ	-11.4313
▁પુરેજાત	-11.4314
▁વસ્સસહસ્સ	-11.4314
▁તેવિજ્જ	-11.4315
સિના	-11.4316
▁ધંસ	-11.4316
સેવિત	-11.4316
કારકા	-11.4317
▁સમ્ભવતો	-11.4318
સમુજ્જલ	-11.4319
▁ઓપપાતિક	-11.432
▁પટિઞ્ઞાય	-11.4321
૨૩	-11.4322
▁વિપસ્સિ	-11.4323
ખિ	-11.4325
▁તતિયજ્ઝાન	-11.4326
પવિટ્ઠ	-11.4327
આરામ	-11.4327
પચ્ચનીક	-11.4328
▁વમ	-11.4328
▁જનતા	-11.433
▁આચિણ્ણ	-11.4331
દસકં	-11.4333
▁આગતાનિ	-11.4334
▁૨૬૬	-11.4335
▁૨૪૭	-11.4335
▁સદ્ધમ્મસ્સ	-11.4337
ન્દ્રિય	-11.4337
▁કટુક	-11.4338
૨૧	-11.4339
નુગ	-11.4339
ુભ	-11.434
પઞ્ચિમાનિ	-11.434
▁દહરા	-11.4341
▁સક્ખર	-11.4341
▁વિભત્તં	-11.4343
▁તચો	-11.4345
જ્જા	-11.4346
અડ્	-11.4347
વસેનાપિ	-11.4347
નિકાયટ્ઠકથાય	-11.4347
▁સિસ્સા	-11.4348
ારહા	-11.4352
સરીરો	-11.4353
▁નિદ્ધારિત	-11.4353
▁નિયમો	-11.4353
▁સભા	-11.4354
▁દેવરાજ	-11.4354
▁અવિજ્જાસવો	-11.4355
▁બન્ધતિ	-11.4355
▁અધિવાસે	-11.4355
▁રટ્ઠા	-11.4356
▁સિત	-11.4356
ધેય્ય	-11.4358
▁પરિવિતક્કો	-11.4359
▁ચવતિ	-11.4359
▁કબળ	-11.4359
▁સારો	-11.436
▁ભિક્ખુનુપસ્સય	-11.436
▁સાયન્હસમયં	-11.436
▁ઉમ્મુજ્જ	-11.4361
▁મહબ્ભય	-11.4361
▁નાનુસેતીતિ	-11.4361
▁જરં	-11.4361
મારબ્ભ	-11.4362
▁અનનુઞ્ઞાત	-11.4362
▁અરિયકન્ત	-11.4362
▁ફણ	-11.4363
▁મઙ્કુ	-11.4364
લટ્ઠિ	-11.4365
▁૨૬૨	-11.4367
▁સોધેત્વા	-11.4368
▁વદન્તસ્સ	-11.4371
સુમન	-11.4372
▁ભગ	-11.4375
▁અરિયમગ્ગં	-11.4377
▁મદ્દી	-11.4377
▁વાદે	-11.4378
▁સમુચ્ચય	-11.4379
ટં	-11.438
▁સમ્મુખીભાવ	-11.4381
▁આરક્ખં	-11.4383
▁સંવરાય	-11.4384
▁રૂપેસુ	-11.4385
▁કામસુખ	-11.4385
▁પણ્ડિતાનં	-11.4386
▁અરહત્તા	-11.4386
▁અમૂળ્હવિનય	-11.4387
▁તસ્સેવં	-11.4389
▁નિગ્ગત	-11.4391
પુપ્ફાનિ	-11.4392
▁અરિયેન	-11.4394
▁સામીચિ	-11.4394
▁કુટ્ટ	-11.4394
▁સબ્બધમ્મ	-11.4395
▁રક્ખણ	-11.4396
▁ઉપલબ્ભ	-11.4397
▁ઓવાદો	-11.4398
▁તેપિટક	-11.4398
સઙ્ખારા	-11.4399
▁ગન્થનિય	-11.4399
▁નિવારણ	-11.4399
▁ભાવિતં	-11.4403
▁સમાહિતે	-11.4404
▁આકિણ્ણ	-11.4405
▁પણ્ડ	-11.4406
▁જનેતીતિ	-11.4408
દોસં	-11.4408
▁વિપ્પકત	-11.4408
▁નમે	-11.4409
દસ્સનત્થ	-11.4411
▁સીહળ	-11.4411
ાયતનાનિ	-11.4412
▁આનાપાન	-11.4413
▁કમ્પતિ	-11.4415
▁પઞ્હસ્સ	-11.4415
▁કુસલકમ્મ	-11.4416
પીઠં	-11.4416
માગતો	-11.4418
▁નુપ્પજ્જિત્થાતિ	-11.4419
મૂ	-11.4419
▁એવમયં	-11.442
▁કામભવે	-11.4422
ગમે	-11.4423
પદેસો	-11.4425
પરિગ્ગહિત	-11.4425
સદ્ધો	-11.4427
▁પણીતા	-11.4428
▁વિતક્કઞ્ચ	-11.4428
▁આયુપ્પમાણં	-11.4428
▁૨૫૩	-11.4429
ાતિક્કન્ત	-11.4429
પાટિહારિય	-11.4431
આસવ	-11.4431
▁ઇદ્ધી	-11.4433
▁ઝાનાનં	-11.4433
▁સમિઞ્જિત	-11.4434
▁સણ્ઠપ	-11.4434
▁અબ્યાબજ્ઝ	-11.4435
▁વિલુમ્પ	-11.4435
ૂપસંહિત	-11.4435
▁બહવો	-11.4436
▁સઞ્ઞત	-11.4436
▁કાસિરાજ	-11.4436
▁અલભમાન	-11.4436
▁સલ્લક્ખ	-11.4436
▁અનાથપિણ્ડિકો	-11.4437
▁વિનિચ્છિન	-11.4437
▁પુરક્ખત્વા	-11.4437
▁અત્થુદ્ધાર	-11.4438
▁સુરાપાન	-11.4439
▁પરિસ્સયા	-11.444
▁અધમ્મકમ્મે	-11.4441
▁દસ્સય	-11.4442
▁અભાવં	-11.4442
ાયસ્મતો	-11.4442
રજન	-11.4442
▁સમાનત્થ	-11.4443
▁અઙ્ગપચ્ચઙ્ગ	-11.4443
▁મોચેત્વા	-11.4444
▁રટ્ઠપાલ	-11.4444
▁લોમં	-11.4444
▁પચ્ચવેક્ખ	-11.4446
સંયુત્તવણ્ણના	-11.4448
▁વયં	-11.4449
જુ	-11.445
▁ચક્ખુસ્સ	-11.445
▁વુત્તત્થમેવ	-11.4451
▁અસમ્મિસ્સ	-11.4453
દય	-11.4453
▁સારમ્ભં	-11.4454
▁સુસ્સૂસ	-11.4455
▁છદ્દન્ત	-11.4457
▁ચરિત	-11.4459
ગેહે	-11.4459
ફુલ્લ	-11.4461
▁પટિગ્ગહો	-11.4462
▁દમે	-11.4462
પીળન	-11.4463
પિલોતિક	-11.4464
મરિય	-11.4465
▁ચિત્તા	-11.4465
▁ભારદ્વાજ	-11.4466
પક્ખન્દ	-11.4468
▁પદેસુ	-11.4469
સુખેન	-11.447
સમ્બાધ	-11.4471
▁ગમિસ્સન્તિ	-11.4471
સારિપુત્ત	-11.4473
ાલુક	-11.4474
▁વણ્ણતો	-11.4475
અન્તો	-11.4475
પરિભોગો	-11.4476
▁સસઙ્ખાર	-11.4476
▁સોતાપન્નસ્સ	-11.4478
▁વિઞ્ઞાતં	-11.4478
▁બહૂપકાર	-11.4479
▁પટિહઞ્ઞ	-11.4479
ુગ્ગત	-11.4482
▁૨૪૯	-11.4482
▁સુખસહગતો	-11.4482
▁કીળન્તિ	-11.4483
દૂસક	-11.4483
▁ઞાતકે	-11.4483
યાપિ	-11.4484
કાયે	-11.4485
▁વરે	-11.4485
પલાસ	-11.4487
▁બ્રહ્માનં	-11.4487
ચ્છિદ્દ	-11.4488
અમ્મ	-11.4489
▁ધમ્મવિનય	-11.4489
▁પુચ્છેય્ય	-11.449
▁હરતિ	-11.4491
સમ્પિ	-11.4491
▁ગિલાનપચ્ચય	-11.4492
▁પટિબદ્ધ	-11.4492
અમ્બ	-11.4493
▁અમ્ભો	-11.4495
▁સુતા	-11.4498
વધ	-11.4498
▁૨૫૧	-11.4499
▁દીપિતો	-11.4499
▁મોહઞ્ચ	-11.45
પચ્ચયં	-11.45
▁બારાણસિં	-11.4503
કાયેન	-11.4508
ચ્છદ	-11.4508
▁ભાવિત્થ	-11.4508
સ્વાક્ખાત	-11.4509
▁વુચ્ચન્તે	-11.451
▁અવિપરિણામધમ્મ	-11.451
▁પોરિસાદ	-11.451
▁ઉપ્પાદેતબ્બ	-11.4511
▁નિબ્ભય	-11.4511
▁મિત્તામચ્ચ	-11.4511
▁અપરિસેસ	-11.4512
▁કલ્યાણમિત્તતા	-11.4512
▁ગણે	-11.4512
▁દાયાદો	-11.4512
▁તાવતિંસા	-11.4514
▁કોસમ્બિયં	-11.4515
▁સણ્ઠહ	-11.4515
સઙ્ખ્યા	-11.4515
▁વચીવિઞ્ઞત્તિ	-11.4516
▁અધિચિત્ત	-11.4517
▁સક્કત્વા	-11.4517
▁તદપિ	-11.4518
▁સતસહસ્સં	-11.4519
▁ઉદપાન	-11.452
ગીવ	-11.4521
▁બલિ	-11.4523
▁બન્ધને	-11.4523
▁પલ્લઙ્કેન	-11.4524
▁પજ્જલ	-11.4524
વત્તબ્બે	-11.4524
▁ચરિમ	-11.4525
પરમત્થ	-11.4525
▁પુત્તેહિ	-11.4526
▁બ્રહ્મઞ્ઞ	-11.4526
▁છિજ્જ	-11.4526
નામા	-11.4528
▁અનુમોદિત્વા	-11.4531
ઙ્ગાર	-11.4533
▁ધમ્મપદ	-11.4533
▁ઇચ્છસિ	-11.4534
ન્ધર	-11.4534
ધોત	-11.4535
▁ભણેય્ય	-11.4535
▁ગચ્છથ	-11.4536
▁લેડ્ડુ	-11.4537
દ્દસ	-11.4538
ટ્ઠાનિય	-11.4538
ાનમેતં	-11.4538
▁૨૫૯	-11.4539
▁સચ્છિકતં	-11.4539
▁પુબ્બસ્સ	-11.454
સિક્ખાપદઞ્ચ	-11.454
▁વિરોધ	-11.4545
▁સુસાન	-11.4546
▁હાનિ	-11.4546
સન્થર	-11.4548
ારોચન	-11.4548
બહુવચન	-11.4548
▁રટ્ઠવ	-11.4549
▁ભાસિતમ્પેતં	-11.455
▁અઙ્ગણ	-11.4552
▁સમ્મત	-11.4553
ાદીહીતિ	-11.4553
▁જાતિજર	-11.4553
ાદિકથા	-11.4554
▁ખીણાસવાનં	-11.4554
પ્પટિપત્તિ	-11.4558
▁મહાકસ્સપત્થેર	-11.4559
▁૨૫૭	-11.456
▁મહાભૂત	-11.4562
▁ણિ	-11.4562
▁મનુસ્સલોક	-11.4563
▁અન્તરધાયતિ	-11.4564
▁સમ્મત્તનિયત	-11.4564
▁સુપુપ્ફિત	-11.4565
ઙ્ગપઞ્હો	-11.4565
ભિસિ	-11.4566
ભાણિ	-11.4567
▁દેમા	-11.4568
▁સુવિમુત્ત	-11.4568
▁નિસ્સટ	-11.4569
રૂપી	-11.457
▁કોટિસતસહસ્સ	-11.457
▁પહાતબ્બહેતુકઞ્ચ	-11.457
ત્થીતિ	-11.4573
▁પણ્ડિતં	-11.4574
▁કિલમતિ	-11.4575
▁ધમ્મકમ્મે	-11.4575
પ્પટિસંવેદી	-11.4577
▁પતિસ્સ	-11.4578
▁જહાતિ	-11.4579
▁વીરિયબલં	-11.4582
▁એવમેત	-11.4582
▁સપ્પટિભય	-11.4586
▁ચિત્તસહભૂ	-11.4586
▁અગિલાનસ્સ	-11.4587
▁અપરન્ત	-11.4588
ભોગો	-11.4588
▁સદ્ધાદેય્ય	-11.4588
▁સંવિગ્ગ	-11.459
▁સગારવો	-11.4592
પરા	-11.4592
▁પવેધ	-11.4593
▁ઇજ્ઝતિ	-11.4594
▁આણાપેતિ	-11.4596
▁ભન્ત	-11.4597
▁૨૭૩	-11.4598
-‘	-11.4599
કન્દ	-11.4599
સંવેગ	-11.4599
▁પવસ્સ	-11.4599
▁ભગ્ગવ	-11.4599
વિદ્ધ	-11.4602
ભોજને	-11.4602
▁પવત્તમાનં	-11.4603
▁દસ્સેન્તિ	-11.4604
પકત	-11.4604
▁આપજ્જિતબ્બ	-11.4604
સંવત્તનિક	-11.4605
▁સુવણ્ણં	-11.4605
▁લમ્બ	-11.4605
વિપસ્સન	-11.4605
▁કથેતબ્બં	-11.4605
▁પવેસન	-11.4606
કિચ્ચા	-11.4606
▁સામઞ્ઞફલાનિ	-11.4608
પાતો	-11.4609
[...]
