<unk>	0
<s>	0
</s>	0
વ	-2.53238
,	-3.09061
।	-3.09891
▁વ	-3.38684
ਾ	-3.54853
ਂ	-4.03171
.	-4.10708
ਤਿ	-4.20606
▁‘‘	-4.41806
ੇ	-4.5231
▁ਨ	-4.62144
’’	-4.67179
▁ਚ	-4.69034
▁	-4.7562
ੋ	-4.85293
ਨ੍ਤਿ	-5.19581
ਸ੍ਸ	-5.22912
॥	-5.23542
▁–	-5.41447
▁ਅ	-5.457
▁ਏ	-5.4666
ੇਨ	-5.64924
▁ਹੋਤਿ	-5.68278
▁ਪਨ	-5.68823
ਤੋ	-5.80135
ਪੇ	-5.82607
▁ਤਂ	-5.83751
?	-5.84447
॰	-5.91044
▁ਤਤ੍ਥ	-5.93651
ਿ	-5.96989
▁ਪ	-5.99248
ਾਤਿ	-6.04351
▁ਸੋ	-6.0559
ਤ੍	-6.11016
▁ਨਾਮ	-6.13693
▁ਖੋ	-6.1544
-	-6.18882
▁ਦ੍	-6.21642
▁ਭਿਕ੍ਖ	-6.2383
▁ਭਗ	-6.24147
ਞ੍ਚ	-6.24398
ਪਿ	-6.25025
▁ਭ	-6.25079
ਸੇਨ	-6.27847
▁ਤਸ੍ਸ	-6.28457
▁ਤੇ	-6.29419
ਨ	-6.29687
’	-6.31652
ਾਨਂ	-6.39612
▁ਹਿ	-6.42409
ਭਾ	-6.4464
ਤਾ	-6.45335
ੁਤ੍ਤਂ	-6.49274
ਿਯ	-6.50461
ਣ੍ਣਨਾ	-6.55029
▁ਆ	-6.6032
▁ਅਤ੍ਥੋ	-6.62963
ਾਨਿ	-6.64583
ਯੇ	-6.66363
ਮੇ	-6.67792
ੇਹਿ	-6.69067
▁‘	-6.71994
;	-6.73259
▁ਦੇ	-6.74831
▁ਯਥਾ	-6.76537
▁ਧਮ੍ਮਾ	-6.77073
▁ਤੇਸਂ	-6.77141
▁ਸ	-6.77718
▁ਧਮ੍ਮੋ	-6.78152
ਾਯ	-6.79461
▁ਮੇ	-6.80019
ੇਸੁ	-6.8147
▁ਧਮ੍ਮਂ	-6.81724
ੀ	-6.8249
▁ਉਪ੍ਪਜ੍ਜਤਿ	-6.83416
ਨਂ	-6.83498
▁ਤੇਨ	-6.83831
▁ਅਯਂ	-6.8479
▁ਪਚ੍ਚਯੋ	-6.8514
▁ਸਾ	-6.8551
▁ਪਟਿਚ੍ਚ	-6.86965
▁ਨੋ	-6.94764
▁ਕਤ੍	-6.95057
▁ਯਂ	-6.95118
▁ਭਿਕ੍ਖੁ	-6.97788
▁ਏਕਂ	-6.99887
▁ਭਾ	-7.01928
▁ਯੋ	-7.01966
▁ਅਥ	-7.0242
▁ਏਤ੍ਥ	-7.03302
ਤ੍ਤਾ	-7.05841
▁ਤਥਾ	-7.06623
▁ਆਹ	-7.07561
▁ਤਸ੍ਮਾ	-7.09265
▁ਯਾ	-7.09451
▁ਭਨ੍ਤੇ	-7.10036
▁ਇਦਂ	-7.10623
▁ਤਤੋ	-7.11571
ਾਦਿ	-7.11617
ਿਤ੍	-7.1223
▁ਪਞ੍ਚ	-7.12432
ਯ	-7.15298
ਮ੍ਪਿ	-7.1613
▁।	-7.16516
▁ਤੀਣਿ	-7.18653
ਕੋ	-7.2007
▁ਚੇ	-7.22267
▁ਅਤ੍ਤਨੋ	-7.24762
ਸੁ	-7.25761
▁ਸੁ	-7.25969
ੁਚ੍ਚਤਿ	-7.28034
ਨੇ	-7.28104
ਕ	-7.29986
▁ਸਂ	-7.31367
▁ਇਧ	-7.33041
▁ਯਸ੍ਸ	-7.34793
▁ਯੇ	-7.36762
ਯਂ	-7.3717
ਾਨ	-7.37361
▁ਚਿਤ੍ਤਂ	-7.37586
▁ਅਤ੍ਥਿ	-7.38437
ਅ	-7.39111
▁ਤਸ੍ਮਿਂ	-7.40437
▁ਨਤ੍ਥਿ	-7.40659
▁ਮਹਾ	-7.40788
ਤ	-7.41942
ਨਾ	-7.42847
ਸ	-7.43611
▁ਪਰਿ	-7.43775
▁ਤਾ	-7.44067
ੋਤਿ	-7.44447
▁ਸਤ੍ਤ	-7.4503
▁ਹੋਨ੍ਤਿ	-7.45509
ਰ	-7.45965
▁ਇਤਿ	-7.47237
▁,	-7.50587
ਤੀਤਿ	-7.51351
ਤਾਯ	-7.51383
ਸਿ	-7.51931
ਯੋ	-7.52739
▁ਨਿਟ੍ਠਿਤਾ	-7.52963
ਦ੍	-7.52985
▁ਭਿਕ੍ਖੂ	-7.53194
ੁਸੋ	-7.53757
ਚਨਂ	-7.56385
ਤਂ	-7.56532
▁ਏਕ	-7.56638
ੇਤ੍	-7.57425
ਮ	-7.57484
▁ਨਿ	-7.58052
ਨ੍ਤੋ	-7.58225
ਤਿਆਦਿ	-7.58581
▁ਜੀ	-7.5954
▁ਕਿਂ	-7.60129
ਤ੍ਥੁ	-7.61082
▁ਪਟਿ	-7.61368
▁ਧਮ੍ਮ	-7.62945
▁ਧਮ੍ਮਸ੍ਸ	-7.6318
▁ਤ੍	-7.63647
ਾਪਿ	-7.63846
ਪ	-7.64989
▁ਹੇਤੁਪਚ੍ਚਯਾ	-7.65111
ਹਿ	-7.65193
ੇਤਿ	-7.65727
ਨ੍ਤਂ	-7.67271
ਮ੍ਹਿ	-7.68198
▁ਆਪਤ੍ਤਿ	-7.68435
ਕਂ	-7.68776
ੇਯ੍ਯ	-7.69009
ਹੁਤ੍	-7.69531
▁ਰੂਪਂ	-7.69844
ਗਨ੍ਤ੍	-7.70577
ਣ੍ਣ	-7.71149
▁ਇਮਿਨਾ	-7.71308
ਸਂ	-7.71363
▁ਦਿਸ੍	-7.73105
ਯਾ	-7.74805
ਸੁਤ੍ਤ	-7.74986
▁ਤ	-7.75495
ਰਂ	-7.75818
ਨਿ	-7.76347
▁ਯਤ੍ਥ	-7.76825
▁ਖਨ੍ਧਾ	-7.76932
ਡ੍	-7.77887
▁ਆਮਨ੍ਤਾ	-7.78269
ਕਾ	-7.78818
ਤ੍ਥ	-7.80514
▁ਇਮੇ	-7.8056
▁ਸਬ੍ਬ	-7.82225
▁ਇਮਂ	-7.84045
▁ਛ	-7.84638
ਕਥਾ	-7.84668
▁ਯੇਨ	-7.858
▁ਅਹੋਸਿ	-7.86563
▁ਸਦ੍ਧਿਂ	-7.87326
▁ਅਨ	-7.87607
▁ਹੋਤੀਤਿ	-7.88682
▁ਕਥਂ	-7.88737
▁ਅਹਂ	-7.88774
▁ਰਾਜਾ	-7.88889
▁ਆਸ	-7.9041
▁ਗਹੇਤ੍	-7.90943
▁ਨੇ	-7.91863
▁ਪੁਨ	-7.91937
▁ਹੇਤੁ	-7.92595
▁ਨੁ	-7.92698
ਦੇ	-7.92911
▁ਅਨੁ	-7.92934
▁ਸਿਯਾ	-7.93166
▁ਮਂ	-7.93434
▁ਤਯੋ	-7.93657
ਤੀ	-7.93927
▁ਚੀ	-7.94099
▁ਤਦਾ	-7.94448
▁ਮਮ	-7.94918
▁ਸਤਿ	-7.95141
▁ਉਪ	-7.9557
▁ਪਞ੍ਞਾ	-7.966
▁ਏਕੋ	-7.96783
ਤ੍ਤ	-7.97016
▁ਸਚੇ	-7.97373
ਸੇ	-7.99297
▁੧	-7.998
▁ਸੁਤ੍	-8.01622
▁ਇਦਾਨਿ	-8.02157
▁ਪੁਬ੍ਬੇ	-8.03177
▁ਓ	-8.03907
▁ਕਮ੍ਮ	-8.0415
▁ਸਤ੍ਥਾ	-8.04425
ਭ	-8.04755
▁ਅਟ੍ਠ	-8.06661
▁ਮਾ	-8.06839
ਤੇ	-8.08199
ੁਤ੍ਤ	-8.0841
ੇਦਨਾ	-8.09112
ਾਦੀਸੁ	-8.09141
▁ਪੁਗ੍ਗਲੋ	-8.09198
▁ਸਹ	-8.09346
ਿਹਰਤਿ	-8.09434
▁ਮਹਾਰਾਜ	-8.09674
▁ਸਬ੍ਬਂ	-8.11116
▁ਕਤਂ	-8.11545
▁ਪਚ੍ਚਯਾ	-8.1201
ਸੁਤ੍ਤਂ	-8.12592
▁ਦਸ	-8.12599
▁ਯਸ੍ਮਾ	-8.13047
ਸੋ	-8.13163
▁ਸਬ੍ਬੇ	-8.13208
▁ਤੁ	-8.13527
ਾਦੀਨਂ	-8.13823
▁ਚਤ੍ਤਾਰੋ	-8.14246
ਜੀ	-8.14352
ਿਤਂ	-8.15091
ਿਸ੍ਸਤਿ	-8.15367
ਏ	-8.15444
ੀਤਿ	-8.16016
▁ਠਪੇ	-8.16262
ਤ੍ਤਂ	-8.16553
ੁਤ੍ਤਾ	-8.16638
ਟ੍ਟਤਿ	-8.16903
ਗ੍ਗੋ	-8.17029
▁ਚਿਤ੍ਤ	-8.17049
▁ਅਭਿ	-8.17562
▁ਤੇਨਾਹ	-8.1796
ਨਾਯ	-8.18722
▁ਕੋ	-8.18864
ਿਕਾ	-8.18876
ਗ੍ਗ	-8.1904
▁ਦਸ੍ਸੇਤਿ	-8.2002
▁ਕਾਯ	-8.2036
▁ਆਰਬ੍ਭ	-8.20543
ਸਦ੍ਦੋ	-8.20573
▁ਲੋਕੇ	-8.20706
ਨੋ	-8.2145
ਤਿਆਦਿਨਾ	-8.2176
▁ਪਠਮਂ	-8.22444
ਦਿ	-8.22453
▁ਚਤ੍ਤਾਰਿ	-8.22663
▁ਪਚ੍ਚ	-8.23025
ੋਚ	-8.23243
▁ਨਹੇਤੁ	-8.23318
▁ਅਤ੍ਥ	-8.23407
ਤ੍ਤਬ੍ਬੇ	-8.23465
▁ਯੋਜਨਾ	-8.23625
▁ਖਨ੍ਧੇ	-8.23803
▁ਸਮ੍ਮਾ	-8.24261
▁ਕਿਰ	-8.24336
▁ਸਮਯੇ	-8.24573
ਿਤ	-8.24847
ਪ੍ਪ	-8.25269
▁ਦਿ	-8.25328
▁ਭਿਕ੍ਖੁਨੋ	-8.25408
ਾਰੋ	-8.25481
ੁ	-8.25522
▁ਏਤਂ	-8.25639
▁ਕਰੋਤਿ	-8.25674
▁ਪਥ	-8.27217
ਾਦਯੋ	-8.27277
ੇਦਿਤਬ੍ਬੋ	-8.27821
ਕੇ	-8.2783
ਦਨ੍ਤਿ	-8.27831
ਾਰ	-8.28092
▁ਕੇ	-8.28443
ਤ੍ਥਂ	-8.28572
ਿਂ	-8.2859
ਜ	-8.28654
ਰੋ	-8.28934
▁ਨਯੋ	-8.29225
ਚੀ	-8.29274
ਜ੍ਜ	-8.29701
ੁਤ੍ਤੋ	-8.30598
ਚ	-8.30624
▁ਚਕ੍ਖੁ	-8.31089
ਮਾ	-8.31876
▁ਸੀਲ	-8.31884
▁ਕਮ੍ਮਂ	-8.32033
▁ਇਮਸ੍ਮਿਂ	-8.32182
ਿਤਾ	-8.32312
▁ਦੁ	-8.32512
▁ਮਯਾ	-8.32707
▁੨	-8.3296
▁ਸਨ੍ਧਾਯ	-8.33025
ਤੁ	-8.33578
▁ਕਿਞ੍ਚਿ	-8.35089
੍	-8.35095
▁ਹੇ	-8.35266
ੇਪਿ	-8.3528
ਿਞ੍ਞਾਣਂ	-8.35338
▁ਆਯਸ੍ਮਾ	-8.35664
▁ਪਰਂ	-8.35809
ਾਦੀਹਿ	-8.36047
▁ਦੁਕ੍ਖਂ	-8.36202
▁ਦੁਕ੍ਖ	-8.36495
▁ਮਯ੍ਹਂ	-8.36869
▁ਅਸ੍ਸ	-8.37426
ਾਨੀਤਿ	-8.38612
ਥ	-8.39457
ਨ੍ਤੀਤਿ	-8.39843
ਿਜ੍ਜਾ	-8.39892
▁ਧਮ੍ਮੇ	-8.39923
▁ਪਰ	-8.40051
ਿਤਕ੍ਕ	-8.40088
▁ਸਮਨ੍ਨਾਗਤੋ	-8.40729
▁ਅਞ੍ਞਂ	-8.40957
ਸਾ	-8.4136
▁ਰੂਪ	-8.4231
▁ਭੋ	-8.42477
▁ਮਨੋ	-8.42767
▁ਗਚ੍ਛਤਿ	-8.42873
▁ਬੁਦ੍ਧ	-8.42928
ਪਰਿ	-8.4316
▁ਤਣ੍ਹਾ	-8.4331
▁ਸਮ੍ਬਨ੍ਧੋ	-8.43528
▁ਦਸ੍ਸੇਤੁਂ	-8.43715
▁ਚਾਤਿ	-8.43764
▁ਕਾਮਾ	-8.44025
▁ਇਤੋ	-8.44198
ਿਗਤੇ	-8.44431
ਿਯਾ	-8.44971
ਕਾਲੇ	-8.45475
▁ਦਿਟ੍ਠਿ	-8.45705
ਿਭਾ	-8.45781
▁ਥੇਰੋ	-8.46066
ਸ੍ਮਿਂ	-8.46762
▁ਯਦਿ	-8.46808
▁ਉਪ੍ਪਜ੍ਜਿਸ੍ਸਤਿ	-8.47461
ਨ੍ਤਸ੍ਸ	-8.47577
▁ਬਲ	-8.47776
▁ਸਮ	-8.4823
▁ਉਪ੍ਪਜ੍ਜਨ੍ਤਿ	-8.48942
▁ਏਤਦ	-8.49005
ੇਦਿਤਬ੍ਬਂ	-8.4907
ਾਦੀਨਿ	-8.4942
ਿਨਾ	-8.49979
ਾਰੇ	-8.50506
▁ਜਾਨਾਤਿ	-8.51114
▁ਦਸ੍ਸੇਨ੍ਤੋ	-8.52009
ਾਦ	-8.52138
▁ਸੁਖ	-8.52211
▁ਸਞ੍ਞਾ	-8.52367
ਮਿ	-8.52464
ਤ੍ਥਾਯ	-8.52803
੭	-8.53191
▁ਖਨ੍ਧਾਨਂ	-8.53413
▁ਫਲਂ	-8.53844
▁ਝਾਨਂ	-8.53912
▁ਤੇਸੁ	-8.54286
▁ਪਠਮ	-8.54534
ੇਨਾਤਿ	-8.54687
ਸੀ	-8.54755
ਿਤੁਂ	-8.54877
▁ਞਾਣਂ	-8.54893
▁ਚਿਤ੍ਤਸ੍ਸ	-8.55175
▁ਕੇਚਿ	-8.55564
▁ਰਞ੍ਞੋ	-8.55752
▁ਹੇਤੁਯਾ	-8.5582
ਿਤੋ	-8.55842
ਧਮ੍ਮ	-8.55868
੬	-8.56748
ਤ੍ਤਿ	-8.57092
ਟ੍ਟ	-8.5757
ਟ੍ਠੇਨ	-8.58023
▁ਅਭਾ	-8.58296
ੇਦਿਤਬ੍ਬਾ	-8.58319
▁੩	-8.58547
ਦਤਿ	-8.58703
▁ਕ	-8.58799
▁ਞਾਣ	-8.59418
▁ਕਸ੍ਮਾ	-8.59597
▁ਅਧਿ	-8.59662
ਤ੍ਤਤਿ	-8.59734
▁ਅਨ੍ਤੋ	-8.60148
▁ਸੇ	-8.60167
ਞ੍ਹਿ	-8.60207
▁ਰਾਜ	-8.60315
▁ਪਟ੍ਠਾਯ	-8.60345
▁ਦੁਤਿਯ	-8.60434
▁ਹੇਟ੍ਠਾ	-8.60814
▁ਸਙ੍ਘੋ	-8.60954
੩	-8.61113
▁ਬ੍ਰਾਹ੍ਮਣ	-8.6118
ੀਹਿ	-8.61718
▁ਸੁਖਂ	-8.61765
▁ਅਤਿ	-8.62022
ਚਨ	-8.62089
▁ਕੁਸਲਾ	-8.6213
ਲ	-8.62247
▁ਭਿਕ੍ਖੂਨਂ	-8.6229
▁ਦਤ੍	-8.6264
੪	-8.62986
ਾਸ	-8.63093
▁ਅਧਿਪ੍ਪਾਯੋ	-8.63882
▁ਜ	-8.63931
ਿਂਸੁ	-8.64093
▁ਬੁਦ੍ਧੋ	-8.64992
▁ਕਤਮੇ	-8.65145
▁ਤਤ੍ਰ	-8.65187
ੇਦਨਾਯ	-8.65246
ੁਤ੍ਤੇ	-8.65363
੫	-8.65646
੧	-8.65704
ਨ੍ਤਾ	-8.65855
▁ਤਾਨਿ	-8.65942
▁ਸਮਯੇਨ	-8.65969
ਹੇਤੁ	-8.65978
ਿਕ	-8.65993
ਹਂ	-8.66002
▁ਸਬ੍ਬਤ੍ਥ	-8.66071
▁ਪੁਚ੍ਛਾ	-8.66353
▁ਏਸ	-8.67243
ਿਧ	-8.67438
▁ਤੇਹਿ	-8.67567
▁ਪੁਰਿਸੋ	-8.67724
▁ਅਪ੍ਪ	-8.67747
▁ਫਲ	-8.67807
ਾਯਂ	-8.68217
▁ਅਤ੍ਤਨਾ	-8.68259
▁੪	-8.6837
▁ਸਤ੍ਤਾ	-8.68399
ਸਭਾ	-8.68601
▁ਚਕ੍ਕ	-8.68665
▁ਨਾਨਾ	-8.69079
▁ਦੁਕ੍ਕਟਂ	-8.69583
ਿਪਾਕ	-8.69587
▁ਉਪਸਙ੍ਕਮਿਤ੍	-8.69588
੯	-8.69637
ੀਸਤਿ	-8.6977
ਰੇ	-8.69955
▁ਨਿਸ੍ਸਾਯ	-8.70214
▁ਜਾਤਿ	-8.7029
▁ਤਸ੍ਸਾ	-8.70566
▁ਪਚ੍ਛਾ	-8.7073
▁੭	-8.70791
ਮਾਨੋ	-8.70993
ਙ੍ਗ	-8.711
੨	-8.71482
ਰੂਪਂ	-8.71528
▁ਮਗ੍ਗ	-8.71542
▁ਇਮਸ੍ਸ	-8.71967
▁ਅਨਾਪਤ੍ਤਿ	-8.72065
▁ਕਤ	-8.72516
ਕਮ੍ਮ	-8.72531
ਮਾਹ	-8.72591
▁ਕਾਮ	-8.72835
▁ਹੋਤੀ	-8.72951
ਅਯਂ	-8.73384
▁ਸਨ੍ਤਿਕੇ	-8.73647
▁ਕੁਸਲਂ	-8.73823
ਤ੍ਥੋ	-8.74063
ਨ੍ਤ	-8.74357
▁ਸਮਾਧਿ	-8.74518
ਦ	-8.74531
▁ਦਾਨਂ	-8.74555
▁ਸੇਸਂ	-8.74626
੮	-8.74898
▁ਏਸੇ	-8.75093
ਆ	-8.75215
▁ਬੁਦ੍ਧਸ੍ਸ	-8.75226
▁ਗ	-8.75644
ਨ੍ਤੇ	-8.75932
▁‘‘‘	-8.76058
▁ਪਸ੍ਸਤਿ	-8.76172
▁ਇਮਾ	-8.7626
▁ਤਥਾਗਤੋ	-8.76261
ਤ੍ਥੁਂ	-8.76384
ਣ੍ਣਂ	-8.76393
▁ਏਕਮਨ੍ਤਂ	-8.76715
ਚ੍ਛ	-8.76827
ਨ੍ਤੀ	-8.7691
▁ਮ	-8.76934
▁ਮਗ੍ਗੋ	-8.77431
▁ਬਹੁ	-8.7787
▁੫	-8.77907
ਤ੍ਥੁਸ੍ਮਿਂ	-8.78236
▁ਕੋਚਿ	-8.78264
▁ਚਤੁ	-8.78327
ਕਸ੍ਸ	-8.78755
ਿਧਾ	-8.78771
▁ਤੇਨੇ	-8.79019
▁ਪਦ	-8.79035
▁ਰੂਪਾ	-8.79614
▁ਨੀ	-8.79868
ਹ	-8.80963
▁ਅਤ੍ਥਂ	-8.81089
▁ਬ੍ਰਾਹ੍ਮਣੋ	-8.81555
ਤਿਆਦੀਸੁ	-8.81655
ਸਿਕ੍ਖਾਪਦ	-8.81736
ਸਦ੍ਦੇਨ	-8.81881
▁ਸਕ੍ਕਾ	-8.82015
▁ਆਰਮ੍ਮਣੇ	-8.82232
▁ਕਿਲੇਸ	-8.8225
ਿਞ੍ਞਾਣ	-8.82301
▁ਅਤ੍ਤਾਨਂ	-8.82617
ਟ੍ਠਾਨੇ	-8.82716
▁ਨਿਬ੍ਬਾਨਂ	-8.83022
▁੯	-8.83191
▁ਸਯਂ	-8.83199
ਾਹ	-8.83227
▁੮	-8.83229
ਲਂ	-8.83624
▁ਉਪਰਿ	-8.83691
▁ਸਮ੍ਭ	-8.83724
▁ਧਮ੍ਮੇਹਿ	-8.8378
ਕਿਂ	-8.83919
▁ਆਨਨ੍ਦ	-8.83919
ਚਰ	-8.83952
▁ਧਮ੍ਮਾਨਂ	-8.83969
▁ਪਞ੍ਞਾਯ	-8.84311
ਨੀ	-8.8467
▁ਏਤੇ	-8.84675
▁ਞਤ੍	-8.85028
▁ਆਦਿ	-8.85218
▁੬	-8.85389
▁ਪਤ੍ਤ	-8.85431
▁ਯਤੋ	-8.85612
▁ਉਪ੍ਪਜ੍ਜਿਤ੍ਥ	-8.85852
▁ਸਾਧੁ	-8.86025
ਿਕਂ	-8.86144
ਾਪੇਤ੍	-8.86325
▁ਲੋਕ	-8.86569
▁ਮਯਂ	-8.86608
ਾਦੋ	-8.86638
▁੧੦	-8.86639
ਿਨੋ	-8.86685
ਿਨ੍ਨਂ	-8.86847
▁ਅਕੁਸਲਾ	-8.86877
ਤਿਆਦਿਮਾਹ	-8.87511
▁ਗੁਣ	-8.87988
▁ਮਗ੍ਗਂ	-8.88136
▁ਗਾਥਾ	-8.88294
ਤ੍ਥਿਯਂ	-8.88368
ਾਮਿ	-8.88622
▁ਨਯੇਨ	-8.88768
ਿਸ	-8.89204
ਣ	-8.89367
▁ਭਿਕ੍ਖੁਨਾ	-8.89686
▁ਧਮ੍ਮੇਸੁ	-8.89777
ਿਹਾਰ	-8.89786
ਾਚਾ	-8.89807
▁ਸਭਾ	-8.89902
ਿਪਸ੍ਸਨਾ	-8.9017
▁ਇਮਾਨਿ	-8.90223
ੋਪਿ	-8.91115
ਾਹਂ	-8.9131
▁ਦਟ੍ਠਬ੍ਬਂ	-8.91365
▁ਦਸ੍ਸੇ	-8.91461
▁ਠਿਤੋ	-8.91517
▁ਇਮੇਹਿ	-8.91612
ਾਸੋ	-8.91935
ਾਸਂ	-8.92037
▁ਪਞ੍ਞਤ੍ਤਂ	-8.9237
ੀਸੁ	-8.9254
ਨ੍ਤਾਨਂ	-8.92634
ਿਸੇਸ	-8.92977
ਿਧਂ	-8.93103
ਤ੍ਤੇ	-8.93191
▁ਸਙ੍ਘਸ੍ਸ	-8.93463
ਤ੍ਤਬ੍ਬਂ	-8.9392
ਟ੍ਠਾਨਂ	-8.93948
ਾਚਾਯ	-8.94005
▁ਠਾਨਂ	-8.94123
▁ਤਾਯ	-8.94489
▁ਪਜਾਨਾਤਿ	-8.94637
▁ਪਹਾਯ	-8.94911
ਿਤਬ੍ਬਂ	-8.95174
▁ਕਾਲੇ	-8.95302
ਮ੍ਹਾ	-8.95828
▁ਚੇਤਨਾ	-8.9603
▁ਪਟਿਸਨ੍ਧਿਕ੍ਖਣੇ	-8.9608
▁ਦੁਤਿਯਂ	-8.96473
▁ਸ੍	-8.9697
’’॥	-8.97253
ਾਦੀ	-8.97403
ਣ੍ਣੋ	-8.97743
ਪਚ੍ਚਯਾ	-8.98098
▁ਯਥਾਭੂਤਂ	-8.98114
▁ਕਾਯਸ੍ਸ	-8.98169
▁ਸਾਸਨਂ	-8.98267
▁ਸਦ੍ਧਾ	-8.98284
ਭਿ	-8.98548
▁ਯਸ੍ਮਿਂ	-8.98658
ਪਟਿ	-8.98834
▁ਅਤ੍ਤ	-8.98887
▁ਪਚ੍ਚਯ	-8.98899
▁ਚਤੂਹਿ	-8.99244
ਞ੍ਚੇ	-8.99273
ਿਸੇਸੋ	-8.99553
▁ਗਾਥਮਾਹ	-8.99742
▁ਭਾਸਿਤਂ	-8.99986
ਿਕੋ	-9.00012
ਤੇਨ	-9.00029
▁ਸਤ੍ਥੁ	-9.00067
▁ਤਿਸ੍ਸੋ	-9.00164
▁ਉ	-9.00188
▁ਗਤੋ	-9.00192
▁ਬੁਦ੍ਧਂ	-9.00426
ਤ੍ਥੇ	-9.00714
▁ਸਕ	-9.008
ਸ੍ਸਾਤਿ	-9.00803
▁ਆਪਜ੍ਜਤਿ	-9.0093
▁ਉਪਸਮ੍ਪਜ੍ਜ	-9.01099
ਰੂਪ	-9.01123
▁ਤਥੇ	-9.01202
▁ਸਬ੍ਬੇਸਂ	-9.01342
▁ਦੇਤਿ	-9.01794
▁ਕਤਮੋ	-9.02086
▁ਇ	-9.02094
▁ਸਚ੍ਚ	-9.02112
▁ਕੇਨਚਿ	-9.02164
▁ਖਨ੍ਧ	-9.02703
▁ਕਾਤੁਂ	-9.02822
▁ਜਿ	-9.0311
▁ਏਤਮਤ੍ਥਂ	-9.03284
ਧ	-9.03493
▁ਆਰਮ੍ਮਣਪਚ੍ਚਯੇਨ	-9.03661
▁ਉਪਪਜ੍ਜਨ੍ਤਾਨਂ	-9.03984
▁ਸਙ੍ਖਾਰਾ	-9.04189
▁ਨਿਸਿਨ੍ਨੋ	-9.04246
▁ਉਦਕ	-9.04344
▁ਯਦਾ	-9.04441
▁ਕਤਮਂ	-9.04651
ਅਤ੍ਥਿ	-9.04833
▁ਕਾਰਣਂ	-9.04876
▁ਤੁਮ੍ਹੇ	-9.04963
ਕੇਨ	-9.04972
▁ਦ	-9.05149
▁ਧਾਤੁ	-9.05261
▁ਦੇਸਨਾ	-9.05303
▁ਪਨੇਤ੍ਥ	-9.05515
ਪਦ	-9.05603
▁ਪੁਬ੍ਬ	-9.05941
▁ਸੀਲਂ	-9.06519
▁ਦੁਕ੍ਕਟਸ੍ਸ	-9.06819
ਅਹਂ	-9.06843
▁ਪਾਚਿਤ੍ਤਿਯਂ	-9.07188
▁ਪਾਪ	-9.07302
▁ਆਦੀਨ	-9.07564
▁ਏਤੇਨ	-9.07644
ਚਿਤ੍ਤ	-9.08035
ਪੀਤਿ	-9.08037
▁ਨਿਰੁਜ੍ਝਤਿ	-9.08437
▁ਏਕਾ	-9.08456
▁ਅਮ੍ਹਾਕਂ	-9.08506
ਯਥਾ	-9.08556
ਮਹਾ	-9.08927
ਮੇਤਂ	-9.08963
ਿਸ੍ਸ	-9.08976
▁ਅਨੇਕ	-9.08997
ਚਿ	-9.09529
ਗ	-9.09763
▁ਮੁਸਾ	-9.09838
ਕਮ੍ਮਂ	-9.1008
▁ਕੁਸਲੋ	-9.10222
ਧਾਤੁ	-9.1024
▁ਅਤ੍ਥੇ	-9.10502
▁ਆਪਤ੍ਤਿਯੋ	-9.10628
ਿਯਂ	-9.10733
ਮਂ	-9.109
▁ਝਾਨ	-9.10984
▁ਤੀਹਿ	-9.11158
ਾਨਞ੍ਚ	-9.1139
ਟ੍ਠ	-9.11418
▁ਤਿਟ੍ਠਤਿ	-9.11593
ਸਤ੍ਤ	-9.11603
ਸਞ੍ਞਾ	-9.11761
ਿਸ੍ਸਨ੍ਤਿ	-9.11763
▁ਉਪਨਿਸ੍ਸਯਪਚ੍ਚਯੇਨ	-9.11784
ਟ੍ਠੋ	-9.11904
▁ਕਰੋਨ੍ਤਿ	-9.11995
ਰਣ	-9.12011
ਮਤ੍ਤਂ	-9.1225
▁ਕਪ੍ਪੇ	-9.12445
▁ਖੀਣਾਸ	-9.12467
ਿਪਾਕੋ	-9.12473
▁ਚਤਸ੍ਸੋ	-9.12548
ਿਤਕ੍ਕੋ	-9.12753
ਿਨਯ	-9.12823
▁ਗਹਪਤਿ	-9.12852
▁ਰੂਪਾਨਂ	-9.12865
ਤ੍ਤਨ੍ਤਿ	-9.12967
▁ਨਨੁ	-9.12969
ਨਾਮ	-9.13288
▁ਸਿ	-9.13316
▁ਬਹਿਦ੍ਧਾ	-9.13509
▁ਤਞ੍ਚ	-9.13941
ਿਸੁਂ	-9.14038
▁ਚਤੁਨ੍ਨਂ	-9.14137
▁ਤੀਸੁ	-9.14202
ਨ੍ਤਿਆਦਿ	-9.14217
ਕਾਨਂ	-9.14366
▁ਸਤ੍ਤਾਨਂ	-9.14805
▁ਅਰਹਤ੍ਤਂ	-9.14889
▁ਪਤ੍	-9.15006
▁ਨਿਰੁਜ੍ਝਿਸ੍ਸਤਿ	-9.15106
ਕਰਣ	-9.1518
ਨੁਭਾ	-9.15339
ਨਤੋ	-9.15373
▁ਲੋਕੋ	-9.15423
▁ਕਾਯੇਨ	-9.15618
ਸਨ੍ਤਿ	-9.1572
▁ਪਞ੍ਚਹਿ	-9.15752
▁ਸੇਸ	-9.15887
ਪੁਨ	-9.15976
▁ਠਾਨੇ	-9.16115
▁ਮਨੁਸ੍ਸਾ	-9.16157
ਾਨੀ	-9.16227
▁ਤਤਿਯਂ	-9.16256
ਞਾਣ	-9.1635
ਨਨ੍ਤਿ	-9.16465
ਫਲ	-9.16669
ੇਸਿ	-9.1667
ਦਾਨ	-9.16675
▁ਕਤ੍ਥ	-9.16676
ਿਸ੍ਸਜ੍ਜਨਾ	-9.16712
▁ਲਭਤਿ	-9.16794
▁ਪੁਰਿਸ	-9.16804
▁ਪਤ੍ਤੋ	-9.16926
ੁਤ੍ਤਤ੍ਤਾ	-9.17058
▁ਅਤ੍ਥੀਤਿ	-9.1706
▁ਸਬ੍ਬਸੋ	-9.17178
ੁਤ੍ਤਨਯੇਨੇ	-9.17243
ਚ੍ਚ	-9.17247
▁ਭਿਕ੍ਖੁਨੀ	-9.17278
ਿਸ੍ਸਤੀ	-9.17372
ਸਮ	-9.17449
ਕਾਯ	-9.175
▁ਉਦਕਂ	-9.17565
ਨ੍ਤੁ	-9.17596
▁ਦਟ੍ਠਬ੍ਬੋ	-9.17724
▁ਕਤਿ	-9.17886
ਮਸ੍ਸ	-9.18107
▁ਅਪਿ	-9.18293
ਯਤਿ	-9.18347
ੁਤ੍ਤਨ੍ਤਿ	-9.18586
▁ਆਸੇ	-9.18695
▁ਯ	-9.18738
ਸ੍	-9.18814
▁ਚਤੁਤ੍ਥਂ	-9.18825
ੇਨ੍ਤੋ	-9.18863
▁ਜੇਤ	-9.19067
ਇਦਂ	-9.19081
▁ਕੁਸਲ	-9.19094
ਿਮੁਤ੍ਤਿ	-9.19117
▁ਠਤ੍	-9.19172
▁ਨਿਸੀਦਿ	-9.19194
▁ਦਸ੍ਸਨੇਨ	-9.19235
▁ਚਤੂਸੁ	-9.19278
▁ਪਟਿਪਦਾ	-9.19726
ਤਸ੍ਸ	-9.19783
▁ਅਞ੍ਞਤ੍ਰ	-9.20005
▁ਏਕੇਨ	-9.2001
▁ਨਾਮਂ	-9.20249
▁ਉਪੇਕ੍ਖਾ	-9.20453
▁ਨਿਟ੍ਠਿਤਂ	-9.20471
▁ਕ੍	-9.21167
ਦਸ੍ਸਨੇਨ	-9.21277
ਸਤਿ	-9.21503
ਿਤਕ੍ਕਸ	-9.21518
▁ਭਿਕ੍ਖੁਂ	-9.21533
▁ਅਤ੍ਤਾ	-9.21626
ਿਜ੍ਜਤਿ	-9.21763
ਕਾਰ	-9.21862
▁ਨਤ੍ਥੀਤਿ	-9.21916
ਸੇਸਾ	-9.22182
▁ਪਾਠੋ	-9.22252
ਤੋਤਿ	-9.22428
▁ਸਾਰਿਪੁਤ੍ਤ	-9.22479
▁ਏਕਤੋ	-9.22561
▁ਚਪਰਂ	-9.22683
▁ਪਿ	-9.23041
▁ਕਥੇਸਿ	-9.23085
▁ਤਤ੍ਥੇ	-9.23312
ਿਪਾਕੇ	-9.23407
ਾਸੇ	-9.23409
ਮਾਨਾ	-9.23411
▁ਬ੍ਰਹ੍ਮ	-9.23484
▁ਪੁਰਿਮ	-9.23662
▁ਕਤਮਾ	-9.23695
ਦੁਕ੍ਖ	-9.237
ਸਮ੍ਭ	-9.23704
ਕਥਂ	-9.23843
▁ਯਥਾਹ	-9.24253
▁ਅਗ੍ਗ	-9.24387
ਸੀਤਿ	-9.24421
▁ਉਪ੍ਪਨ੍ਨਂ	-9.2453
ਿਚਾਰੋ	-9.24536
▁ਮਿਚ੍ਛਾ	-9.24612
▁ਇਮੇਸਂ	-9.24716
▁ਕਾਲ	-9.24824
ਦਾਮਿ	-9.24854
ਮਾਨ	-9.25
ਕਾਰੋ	-9.25034
ਮਗ੍ਗ	-9.25242
▁ਕੇਨ	-9.25255
ਿਹਾਰੇ	-9.25381
▁ਫਸ੍ਸੋ	-9.25393
▁ਰਾਗੋ	-9.25419
ਾਭਾ	-9.25537
▁ਪਞ੍ਞ	-9.25541
ਰਾਜਾ	-9.25541
ਬਲ	-9.25674
▁ਦਾਨ	-9.25693
▁ਗੋਤਮ	-9.25925
▁ਅਪ	-9.25972
▁ਗੋ	-9.26016
▁ਅਨਾ	-9.26051
▁ਅਞ੍ਞੋ	-9.26087
ਾਦਸ	-9.26162
▁ਅਨਾਸ	-9.26323
ਸਙ੍ਖਾਤਂ	-9.26361
ੂਪ	-9.26374
▁ਅਬ੍ਯਾਕਤੋ	-9.26376
▁ਕਾਲਂ	-9.26866
ੀਨਂ	-9.26981
▁ਬਹੂ	-9.2728
ਾਹਿ	-9.27407
ੇਤੁਂ	-9.277
▁ਚਕ੍ਖਾਯਤਨਂ	-9.27733
ਚਨੇਨ	-9.27955
▁ਚਕ੍ਖੁਨ੍ਦ੍ਰਿਯਂ	-9.2804
▁ਅਨੁਪ	-9.28273
▁ਸੁਤਂ	-9.28325
▁ਪਰਸ੍ਸ	-9.2843
ੀਰਿਯਂ	-9.28455
▁ਇਚ੍ਚਾਦਿ	-9.28574
ਚਨਤੋ	-9.28592
▁ਅਬ੍ਯਾਕਤਾ	-9.2875
ਸਦ੍ਦਸ੍ਸ	-9.28826
’’’	-9.29032
ਮਤ੍ਤ	-9.29033
ਿਹਾਰਂ	-9.29066
▁ਅਜ੍ਝਤ੍ਤਂ	-9.29101
▁ਦਸ੍ਸਨ	-9.29256
▁ਅਕੁਸਲਂ	-9.29374
▁ਪਾਲ਼ਿਯਂ	-9.29398
ਾਰਂ	-9.29468
▁ਪੁਞ੍ਞ	-9.29517
▁ਮੂਲ	-9.29572
ਿਨੀ	-9.29601
▁ਤਿਣ੍ਣਂ	-9.29626
▁ਤਸ੍ਸੇ	-9.29841
ਾਦਂ	-9.29848
▁ਬਹਿ	-9.29929
ਨ੍ਤੇਨ	-9.29975
ਸਞ੍ਞੀ	-9.30013
ਾਨਨ੍ਤਿ	-9.30208
▁ਸੇਯ੍ਯਥਾਪਿ	-9.30428
▁ਅਞ੍ਞ	-9.30477
▁ਅਰਹਤੋ	-9.30487
ਧਮ੍ਮਾ	-9.30542
ਰਾਜ	-9.30565
▁ਚੇਤ੍ਥ	-9.30583
ਧਮ੍ਮੋ	-9.30616
▁ਯਦਿਦਂ	-9.30667
▁ਗਚ੍ਛਨ੍ਤਿ	-9.30764
▁ਅਦਾਸਿ	-9.31154
ਸੀਲ	-9.31337
ਿਪਾਕਂ	-9.31353
▁ਉਪ੍ਪਜ੍ਜਤੀਤਿ	-9.31415
ੇਯ੍ਯੁਂ	-9.31481
▁ਰ	-9.31507
ਿਪ੍ਪਯੁਤ੍ਤੇ	-9.31764
ਨਿਦ੍ਦੇਸ	-9.31831
ਰੂਪਾ	-9.31845
▁ਕਰੋਨ੍ਤੋ	-9.31952
ੀਰਿਯ	-9.32019
▁ਨਿਬ੍ਬਾਨ	-9.32029
▁ਖਨ੍ਧਂ	-9.32046
▁ਮਾਣ	-9.32128
▁ਦੋਸੋ	-9.32152
▁ਅਹੇਸੁਂ	-9.32195
ੇਤੀਤਿ	-9.32204
ਾਨੁ	-9.32365
ਰਿ	-9.32562
ਲਕ੍ਖਣਂ	-9.32903
▁ਮਨੁਸ੍ਸ	-9.32929
▁ਅਯਮ੍ਪਿ	-9.32998
ਯਿਤ੍	-9.33105
▁ਅਗ੍ਗਿ	-9.33419
ਯਨ੍ਤਿ	-9.33429
▁ਤਦ	-9.33472
▁ਸਬ੍ਬਾ	-9.33723
ਤਿਪਿ	-9.339
ੇਦਨਾਕ੍ਖਨ੍ਧੋ	-9.33936
ਟ੍ਠਾਨ	-9.34187
▁ਮੁਖ	-9.34296
▁ਦਿਸਾ	-9.34387
▁ਹ	-9.34453
▁ਮਨਸਿ	-9.34519
ਿਧੇਨ	-9.34611
▁ਆਰਮ੍ਮਣ	-9.34781
▁ਪੁਰੇ	-9.34861
▁ਸੁਤ੍ਤਂ	-9.34943
ਸ੍ਸੁ	-9.34944
ੁਚ੍ਚਨ੍ਤਿ	-9.35012
▁ਗੋਤਮੋ	-9.35035
▁ਸਰ	-9.35049
▁ਸੁਟ੍ਠੁ	-9.3505
▁ਅਤ੍ਤਭਾ	-9.35072
▁ਸੁਤ੍ਤ	-9.35119
▁ਤਯਾ	-9.35179
▁ਮਜ੍ਝੇ	-9.35254
▁ਕਸ੍ਸਚਿ	-9.35271
▁ਬੋਧਿਸਤ੍ਤੋ	-9.3533
▁ਪੁਪ੍ਫ	-9.3542
ਗੁਣ	-9.35509
ੇਹੀਤਿ	-9.35528
ਰਾ	-9.35576
▁ਸਦਾ	-9.35674
▁ਅਜ੍ਜ	-9.35719
▁ਮੋਹੋ	-9.35767
▁ਏਕਸ੍ਮਿਂ	-9.35924
▁ਮਰਣਾ	-9.3596
▁ਕਾਯੋ	-9.36139
▁ਸਮਾਨ	-9.36142
▁ਇਨ੍ਦ੍ਰਿਯਾ	-9.36356
▁ਸਤੋ	-9.36462
ਿਯੋ	-9.36503
▁ਤਾਸਂ	-9.36529
▁ਨਿਬ੍ਬਤ੍ਤ	-9.36589
▁ਪਦਂ	-9.36669
▁ਪਸ੍ਸ	-9.36877
ਿਭ	-9.36922
▁ਅਰਿਯਸਾ	-9.37035
▁ਹੇਤੁਪਚ੍ਚਯੇਨ	-9.37143
ਲ਼	-9.37158
ੇਤ੍ਥ	-9.3721
▁ਨਹੇਤੁਪਚ੍ਚਯਾ	-9.37308
▁ਲੋਕਂ	-9.37358
ਇਧ	-9.37527
ਤ੍ਤੋ	-9.37556
▁ਪੁਤ੍ਤੋ	-9.37703
ੁਡ੍	-9.37764
▁ਅਤ੍ਥਤੋ	-9.37946
ਜਾਤਕ	-9.38137
▁ਉਪਾਦਾਯ	-9.38176
ਮੋ	-9.3839
ਸੇਸ	-9.38459
▁ਲਦ੍ਧ	-9.38492
ਦੇਯ੍ਯ	-9.38526
▁ਪਾ	-9.38565
▁ਕਮ੍ਮੇ	-9.38591
▁ਕਂ	-9.38598
▁ਸਕਲ	-9.38659
▁ਪਣਮਾਮ੍ਯਹਂ	-9.38949
▁ਪਣ੍ਡਿਤੋ	-9.38976
▁ਆਪਤ੍ਤਿਂ	-9.38976
ਭੂਤੋ	-9.38994
ਕ੍ਖ	-9.39056
▁ਤੇਨੁਪਸਙ੍ਕਮਿ	-9.39129
▁ਸਰੀਰ	-9.39299
▁ਸਮਥ	-9.39565
▁ਨਿਚ੍ਚ	-9.39569
▁ਆਦਾਯ	-9.39787
ਰਣਂ	-9.4
ਿਸਿਤ੍	-9.4001
▁ਪਞ੍ਞਤ੍ਤਿ	-9.40128
▁ਚਿਤ੍ਤੇਨ	-9.40158
▁ਗਾਮ	-9.40174
▁ਗਰੁਂ	-9.40188
▁ਪੁਚ੍ਛਿ	-9.40443
▁ਤਥਾਗਤਸ੍ਸ	-9.40759
▁ਪੁਗ੍ਗਲਸ੍ਸ	-9.40895
ੇਧ	-9.40926
▁ਸਰਣਂ	-9.41003
▁ਦੋਸ	-9.4106
▁ਯੇਸਂ	-9.41113
▁ਅਰੂਪਾ	-9.41127
▁ਤਤਿਯ	-9.41135
▁ਸਮ੍ਮਾਦਿਟ੍ਠਿ	-9.41532
ਟ	-9.41606
▁ਅਭਿਞ੍ਞਾ	-9.41615
▁ਜਾਤੋ	-9.41731
▁ਭੇਦਾ	-9.4177
▁ਏਤਸ੍ਸ	-9.41906
▁ਮਾਨ	-9.41926
▁ਧਮ੍ਮਦੇਸਨਂ	-9.42207
▁ਕਾ	-9.4221
▁ਨੇਸਂ	-9.42377
ਨ੍ਤਰ	-9.42437
ਾਸਿ	-9.42544
▁ਅਞ੍ਞੇ	-9.42603
▁ਸਚ੍ਚਂ	-9.42759
▁ਅਭਾਸਿ	-9.42768
ੁਂ	-9.42812
▁ਮਾਤਾ	-9.42862
ੇਸ	-9.4295
▁ਧਨ	-9.43123
ਚਰਂ	-9.43172
ਬ੍ਬ	-9.43236
▁ਸਮ੍ਮ	-9.43242
▁ਅਕਾਸਿ	-9.4341
▁ਅਭ	-9.43413
▁ਸੋਲ਼ਸ	-9.43424
ਸਬ੍ਬ	-9.43454
▁ਲ	-9.43491
ਸੁਖ	-9.43568
▁ਨਆਸ	-9.43657
▁ਸਙ੍ਘਂ	-9.43697
ਕ੍ਖਣੇ	-9.43746
▁ਲਕ੍ਖਣ	-9.43789
▁ਦੁਕ੍ਖਾ	-9.44006
▁ਸਮਣੋ	-9.44187
▁ਸਾਸਨੇ	-9.44302
ਏਕ	-9.44484
ਾਦਿਨਾ	-9.44485
▁ਲਬ੍ਭਤਿ	-9.44515
▁ਅਞ੍ਞਮਞ੍ਞਂ	-9.44746
▁ਕਰੇਯ੍ਯ	-9.44896
ਭੂਤਂ	-9.44956
ੇਕ	-9.45028
ਨ੍ਦ	-9.45075
▁ਪਰੇਸਂ	-9.45143
ਤਤ੍ਥ	-9.45146
▁ਪੁਨਪ੍ਪੁਨਂ	-9.45166
ਸਚੇ	-9.45391
ਨੇਨ	-9.45409
ਿਞ੍ਞਾਣਸ੍ਸ	-9.45413
▁ਆਸਿ	-9.45437
ਜਾਤਕਂ	-9.45473
▁ਕਾਰਣੇਨ	-9.45579
▁ਕੁਲ	-9.45659
▁ਸਦ੍ਦ	-9.45683
▁ਅਨਨ੍ਤਰਪਚ੍ਚਯੇਨ	-9.45811
ੁਤੋ	-9.45828
▁ਅਹੁ	-9.45835
▁ਨਾਗ	-9.45896
ਞ੍ਞੇ	-9.45919
ਰੂਪੋ	-9.45948
▁ਪੁਗ੍ਗਲਾ	-9.45965
▁ਅਕੁਸਲ	-9.46138
▁ਪਰੇ	-9.46385
▁ਸਕ੍ਕੋ	-9.46541
▁ਚਿਤ੍ਤਸਮੁਟ੍ਠਾਨਂ	-9.46574
ਪਤ੍ਤ	-9.46577
ਸੇਨੇ	-9.46606
▁ਕਪ੍ਪ	-9.4692
▁ਉਪ੍ਪਨ੍ਨ	-9.4701
▁ਦਾਨਿ	-9.47165
ਨਿਸ੍ਸਯ	-9.47272
▁ਸਮ੍ਮੁਖਾ	-9.47322
▁ਇਦ੍ਧਿ	-9.47323
▁ਪੀਤਿ	-9.47334
ਬੁਦ੍ਧ	-9.47468
ਕਪ੍ਪ	-9.47505
▁ਸਙ੍ਘ	-9.47511
ਸਦ੍ਦ	-9.47517
▁ਸੁਤ	-9.47565
▁ਕਾਰਣ	-9.47782
ਿਨਿਚ੍ਛਯੋ	-9.4779
▁ਦਿਸ੍ਸਤਿ	-9.47911
▁ਅਰਿਯ	-9.47969
ਤ੍ਤੀ	-9.47989
▁ਆਯਸ੍ਮਤੋ	-9.48114
▁ਸਾਸਨ	-9.48209
ਿਰਤੋ	-9.48262
ਸ੍ਮਾ	-9.48315
▁ਛਨ੍ਦ	-9.48349
ਕਰ	-9.48401
ੇਤਂ	-9.48501
▁ਪਞ੍ਚਨ੍ਨਂ	-9.48635
ਯਸ੍ਸ	-9.48713
ਿਭਙ੍ਗ	-9.48781
ੀਰ	-9.48795
ਪਞ੍ਞਾ	-9.48898
▁ਆਗਤੋ	-9.49017
ਤ੍ਥਿ	-9.49032
ਇਤਿ	-9.49088
▁ਦਿਟ੍ਠ	-9.49121
▁ਹਤ੍ਥ	-9.49136
▁ਰਜ੍ਜਂ	-9.49212
▁ਯੁ	-9.49212
▁ਤਮੇ	-9.49217
ਿਸ੍ਸਾਮਿ	-9.49312
▁ਅਪਿਚ	-9.49347
▁੧੧	-9.49411
▁ਏਤ੍ਥਾਤਿ	-9.49419
▁ਆਯਸ੍ਮਨ੍ਤਂ	-9.49435
▁ਹੋਨ੍ਤੀਤਿ	-9.49484
▁ਉਦਪਾਦਿ	-9.49616
ੇਦਨਂ	-9.49638
ੇਯ੍ਯਾਤਿ	-9.49695
ਿਸਯ	-9.49706
▁ਸਨ੍ਤਿਕਂ	-9.49821
ਨ੍ਦਿਤ੍	-9.49942
▁ਆਰਮ੍ਮਣਂ	-9.49945
▁ਤਿਣ	-9.50016
▁ਰਾਗ	-9.50067
ਸ੍ਸੇ	-9.50099
ਾਲ਼	-9.50187
▁ਏਕਾਦਸ	-9.50351
ਭੂਤਾ	-9.50419
▁ਆਰੋਚੇਸੁਂ	-9.50438
ਆਦਿ	-9.50476
▁ਸਨ੍ਤਿ	-9.50509
▁ਕਤ੍ਥਚਿ	-9.50544
▁ਸਕ੍ਕੋਤਿ	-9.50566
▁ਗਣ੍ਹਾਤਿ	-9.50606
▁ਸਮਾਨੋ	-9.50694
ੀਯਤਿ	-9.50755
ਪਞ੍ਚ	-9.50756
ੁਤ੍ਤਨਯੇਨ	-9.50773
▁ਅਡ੍	-9.51142
▁ਅਰਹਾ	-9.5127
▁ਸਨ੍ਤੋ	-9.51309
ਪਦਂ	-9.51397
ਆਰਮ੍ਮਣੇ	-9.51504
▁ਪਿਤਾ	-9.51522
ਦਿਟ੍ਠਿ	-9.51681
▁ਸਮ੍ਬਹੁਲਾ	-9.51681
ਪੁਤ੍ਤੋ	-9.51715
▁ਅਤ੍ਥਾਯ	-9.51752
ਿਨਯੋ	-9.51927
▁ਪਾਲ਼ਿ	-9.51929
▁ਦਿਬ੍ਬ	-9.51983
ਾਦੇਤ੍	-9.52192
ਕਾਲ	-9.52482
ਨਞ੍ਚ	-9.52491
▁ਦੀਘ	-9.52551
▁ਪਾਚਿਤ੍ਤਿਯਸ੍ਸ	-9.52598
▁ਥੇਰਸ੍ਸ	-9.52643
▁ਚੇਤਸਾ	-9.52822
▁ਠਿਤਾ	-9.52871
▁ਪਾਦ	-9.52895
ਾਮ	-9.52925
▁ਨਿਬ੍ਬਤ੍ਤਿ	-9.53025
▁ਦੁਗ੍ਗਤਿਂ	-9.53097
ੂ	-9.53214
ਦਸ੍ਸਨ	-9.53261
▁ਚਿਤ੍ਤਸਮੁਟ੍ਠਾਨਾਨ	-9.53326
▁ਏਤ੍ਤਾ	-9.53405
ਧਿ	-9.53407
▁ਸਦੇ	-9.5344
▁ਅਕੁਸਲੋ	-9.53471
ਿਤਤ੍ਤਾ	-9.53617
ਿਤੇ	-9.53722
▁ਬ੍ਰਹ੍ਮਚਰਿਯਂ	-9.53748
ਟ੍ਟਤੀਤਿ	-9.53865
▁ਉਪ੍ਪਾਦਕ੍ਖਣੇ	-9.53957
ਤੁਂ	-9.54
▁ਪਿਯ	-9.54079
ਜ੍ਜਨ	-9.54094
ਕਿਚ੍ਚ	-9.54105
▁ਨਿਚ੍ਚਂ	-9.54324
▁ਪਤ੍ਤਂ	-9.54341
▁ਸਨ੍ਤ	-9.54421
ਚਕ੍ਕ	-9.54545
▁ਸਹਜਾਤਪਚ੍ਚਯ	-9.54545
ਿਨਯੇ	-9.54563
ਤ੍ਥਾ	-9.54597
▁ਸਮਣ	-9.54643
▁ਮਨਸਾ	-9.54691
▁ਕਿਸ੍ਮਿਂ	-9.54794
▁ਦੁਕ੍ਖਸ੍ਸ	-9.54804
ੇਸੂਤਿ	-9.54817
▁ਯਞ੍ਚ	-9.54877
▁ਆਨਨ੍ਦੋ	-9.55033
ਚਰਾ	-9.55142
▁ਅਪ੍ਪਟਿ	-9.55181
▁ਉਦ੍ਧਂ	-9.55285
ਿਤਕ੍ਕਅ	-9.55416
ੀਸ	-9.55594
ਰੁ	-9.55628
▁ਆਹਰਿਤ੍	-9.55794
ਉ	-9.55843
▁ਭਿਕ੍ਖੁਨਿਯੋ	-9.55957
▁ਪਞ੍ਹਂ	-9.5597
੦	-9.5606
▁ਦਿਟ੍ਠੇ	-9.56096
ਯਿ	-9.56244
ਮਯਂ	-9.56428
▁ਏਸੋ	-9.5646
▁ਤਦੇ	-9.56617
ਹਾਰ	-9.56853
▁ਚੇਤੋ	-9.57053
▁ਪਰਿਜਾਨਾਤਿ	-9.57074
▁ਗਹੇਤਬ੍ਬਂ	-9.57149
▁ਸਬ੍ਬੇਪਿ	-9.57243
▁ਕਥਾ	-9.57491
▁ਹਤ੍ਥਿ	-9.57542
▁ਪਚ੍ਛਿਮ	-9.57738
ਸਿਕ੍ਖਾਪਦਂ	-9.58107
ਪਰ	-9.58292
▁ਏਕਚ੍ਚੋ	-9.58339
ਯ੍ਯ	-9.58376
ਨੁ	-9.58385
ਿਤਿਨ੍ਦ੍ਰਿਯਂ	-9.58432
▁ਪੁਰਤੋ	-9.58442
ਪਚ੍ਚ	-9.58633
ਤ੍ਥਿਪਚ੍ਚਯੇਨ	-9.58675
ਿਨ੍ਦ	-9.58711
▁ਮੁਨਿ	-9.58762
ਯਤੋ	-9.5886
ਛ	-9.58924
▁ਦੀਪ	-9.59065
ਿਹਰਨ੍ਤੋ	-9.59157
ਿਕਾਨਂ	-9.59217
ਿਧੋ	-9.59266
▁ਮਨਿਨ੍ਦ੍ਰਿਯਂ	-9.59418
ਾਦਾ	-9.59545
▁ਧਮ੍ਮੇਨ	-9.596
ਸੇਨਾਤਿ	-9.59671
ੇਨੇ	-9.59686
▁ਰੇ	-9.59697
▁ਪੁਰਿਮਾ	-9.59778
▁ਅਞ੍ਞਤਰੋ	-9.59839
ੁਪ	-9.59848
▁ਅਨ੍ਤੇ	-9.5997
▁ਤੁਮ੍ਹਾਕਂ	-9.60135
▁ਸਿਕ੍ਖਾ	-9.60276
ਗਚ੍ਛ	-9.60361
▁ਧੋ	-9.60555
ਪਚ੍ਚਯ	-9.60585
▁ਦੀਪੇਤਿ	-9.60609
▁ਸੋਮਨਸ੍ਸਿਨ੍ਦ੍ਰਿਯ	-9.60695
▁ਦਿਨ੍ਨਂ	-9.60721
▁ਕਿਸ੍ਸ	-9.60776
▁ਹੋਤੁ	-9.61107
▁ਪਟਿਘਾਨੁਸਯ	-9.61114
ਿਪ੍ਪਯੁਤ੍ਤਾ	-9.61283
▁ਸੋਪਿ	-9.61364
▁ਉਭੋ	-9.61559
▁ਪਿਣ੍ਡਾਯ	-9.61611
੍ਹਾ	-9.61757
▁ਪਰਮ	-9.61848
▁ਤਮ੍ਪਿ	-9.61855
▁ਮਾਰ	-9.62001
▁ਅਧਿਪਤਿਪਚ੍ਚਯੇਨ	-9.62089
▁ਅਥਸ੍ਸ	-9.62172
ਿਪ੍ਪ	-9.62252
▁ਅਤੀਤਂ	-9.62265
ਤਾਤਿ	-9.62358
▁ਤੇਰਸ	-9.62482
▁ਏਸਾ	-9.62508
ਿਪ੍ਪਯੁਤ੍ਤੋ	-9.62625
▁ਰੂਪਾਯਤਨਂ	-9.62758
▁ਠਿਤ	-9.62776
▁ਗਾ	-9.62875
▁ਗਤਾ	-9.62887
▁ਆਪਤ੍ਤਿਯਾ	-9.62977
▁ਕਮ੍ਮਸ੍ਸ	-9.63044
ਲੋਕ	-9.63076
▁ਉਤ੍ਤਰ	-9.63111
▁ਅਙ੍ਗ	-9.63124
▁ਪਞ੍ਚਮਂ	-9.6316
▁ਪਨਸ੍ਸ	-9.63194
▁ਤਨ੍ਤਿ	-9.63248
▁ਅਨ੍ਤਰਾ	-9.63435
ਉਪ	-9.63589
▁ਗਨ੍ਧ	-9.63605
▁ਆਗਤ	-9.6368
▁ਬ੍ਰਾਹ੍ਮਣਾ	-9.63725
▁ਧਾਤੂਹਿ	-9.63805
ਗਤਂ	-9.6383
▁ਕਾਯੇ	-9.63865
▁ਪਹਾਤਬ੍ਬੋ	-9.6391
▁ਨੁਪ੍ਪਜ੍ਜਤਿ	-9.6394
ਿਤਬ੍ਬ	-9.63942
▁ਦੁਤਿਯੋ	-9.64057
▁ਜਾਤ	-9.64067
ਾਨਮ੍ਪਿ	-9.64071
ਕਰੋ	-9.64119
▁ਨਅਧਿਪਤਿਯਾ	-9.6415
ਣ੍ਣਾ	-9.64188
ਚਿਤ੍ਤਂ	-9.64223
ਨ੍ਤਿਆਦਿਨਾ	-9.64224
ਕਾਲੋ	-9.64237
▁ਮਹਨ੍ਤਂ	-9.6432
▁ਗਚ੍ਛ	-9.64328
ਗ੍ਗੇ	-9.64555
▁ਪੁਞ੍ਞਂ	-9.64564
▁੧੨	-9.64679
▁ਉਤ੍ਤਮ	-9.64693
▁ਸਮਯਂ	-9.64765
ਿਹਾਰੋ	-9.64799
▁ਪਕਤਿ	-9.648
ਕ੍ਖਿਪਿਤ੍	-9.64884
ਭੂਤ	-9.65096
▁ਸਮ੍ਪ	-9.651
▁ਅਟ੍ਠਕਥਾਯਂ	-9.65118
▁ਇਨ੍ਦ੍ਰਿਯ	-9.65118
ਾਚਂ	-9.65119
▁ਸੁਖਾਯ	-9.65225
ਸਮ੍ਪਨ੍ਨੋ	-9.65239
▁ਉਭਯ	-9.65336
▁ਕਰਿਤ੍	-9.65483
ਪਾਦ	-9.65487
ਿਚਿਕਿਚ੍ਛਾ	-9.65559
▁ਨਹੇਤੁਯ	-9.65633
ਨਿਦ੍ਦੇਸੋ	-9.65733
▁ਅਸ੍ਸਾਤਿ	-9.65806
ੁਤ੍ਤਞ੍ਹੇਤਂ	-9.65903
▁ਭਤ੍ਤ	-9.66034
▁ਗਤਿ	-9.66128
▁ਪੁਟ੍ਠੋ	-9.66191
▁ਪਜਹਤਿ	-9.66321
ਸਮਨਨ੍ਤਰੇ	-9.66369
▁ਪਬ੍ਬਜਿਤ੍	-9.66378
▁ਭਙ੍ਗਕ੍ਖਣੇ	-9.66489
▁ਲੋਕਸ੍ਸ	-9.66577
▁ਹਿਮ	-9.66726
ਚਿਤ੍ਤੋ	-9.66727
▁ਹੇਤੂ	-9.66806
▁ਕਰਣ	-9.66851
▁ਨਿਸੀਦਿਤ੍	-9.67011
▁ਭਿਕ੍ਖੁਨਿਯਾ	-9.67015
ਚਰੋ	-9.67031
▁ਕਾਯਂ	-9.67062
▁ਬਹੁਂ	-9.67139
ਿਨਿ	-9.67272
ਮਨ	-9.67386
▁ਅਸ	-9.6751
ਿਸਂ	-9.67551
▁ਕਰੋਤੀਤਿ	-9.6764
▁ਧਨਂ	-9.67799
ਙ੍ਕ	-9.67814
▁ਉਪ੍ਪਤ੍ਤਿ	-9.67825
▁ਚਤੁਤ੍ਥ	-9.67848
▁ਅਞ੍ਞਤਰਂ	-9.67867
▁ਧੁ	-9.67891
▁ਗਣ	-9.68008
▁ਜਾਤਾ	-9.68018
ਰਸ	-9.68072
ਾਰਮ੍ਮਣ	-9.68203
▁ਇਤ੍ਥੀ	-9.68303
▁ਸਮ੍ਪਯੁਤ੍ਤਕਾਨਂ	-9.68392
▁ਕੁਤੋ	-9.68466
ੁਤ੍ਤਿ	-9.68631
▁ਮਹਾਭੂਤੇ	-9.68632
▁ਕਤਾ	-9.69136
ਿਸ੍ਸਤੀਤਿ	-9.69144
▁ਉਪ੍ਪਾਦ	-9.69209
▁ਏਕਸ੍ਸ	-9.69229
ਭੇਦ	-9.69292
ਜ੍ਝ	-9.69332
▁ਬੋਧਿ	-9.69347
▁ਮੋਹ	-9.69398
▁ਕਮ੍ਮਪਚ੍ਚਯੇਨ	-9.69462
▁ਭਿਕ੍ਖੂਹਿ	-9.69483
▁ਸਙ੍ਖਾਰ	-9.69618
ਿਤਬ੍ਬੋ	-9.69666
ਿਕਾਯ	-9.69689
▁ਸੁਤ੍ਤੇ	-9.69702
▁ਨਿਰੁਜ੍ਝਿਤ੍ਥ	-9.69706
ਸਹਜਾਤ	-9.69732
▁ਠਿਤਂ	-9.69769
▁ਅਯਮੇ	-9.69806
ਮਾਦਿ	-9.6982
▁ਪੁਤ੍ਤ	-9.69846
▁ਨਿਮਿਤ੍ਤ	-9.69848
ਗ੍ਗਹਣੇਨ	-9.69887
▁ਰੁਕ੍ਖ	-9.69939
▁ਪਟਿਸਨ੍ਧਿ	-9.70025
▁ਲਿਙ੍ਗ	-9.70095
▁ਧਾਤੁਯੋ	-9.70124
▁ਸਙ੍ਘੇਨ	-9.7025
▁ਅਭਿਨਿ	-9.70324
ਮਗ੍ਗੇ	-9.70368
ਹੀ	-9.70509
▁ਯਾਨਿ	-9.70549
▁ਨਾਗਸੇਨ	-9.70566
▁ਖਨ੍ਧੋ	-9.70603
ਲਕ੍ਖਣ	-9.70622
▁ਗਨ੍ਥ	-9.70632
▁ਭਯਂ	-9.70689
ਪਥ	-9.70706
ਆਸ	-9.70765
ਸਮ੍ਪਤ੍ਤਿ	-9.70774
ਜ੍ਜਂ	-9.70835
▁ਸੋਤ	-9.70874
▁ਏਤਰਹਿ	-9.71021
▁ਪਧਾਨ	-9.71119
ਮੁਖ	-9.71196
੍ਯ	-9.712
ਮੁ	-9.71253
▁ਕਤੋ	-9.71347
▁ਖ	-9.71352
ਗ੍ਗਹਣ	-9.71383
▁ਨਾਮਾਤਿ	-9.71438
ਕੁਸਲਂ	-9.71446
▁ਨਗਰਂ	-9.71575
▁ਪਾਚਿਤ੍ਤਿਯ	-9.71621
▁ਅਸਞ੍ਞਸਤ੍ਤਾਨਂ	-9.71821
▁ਏਤੇਸਂ	-9.71822
ਕਿਚ੍ਚਂ	-9.71851
ਕੁਲ	-9.71986
ਪੇਤ੍	-9.72
ਓ	-9.72012
ਗਤੋ	-9.72123
▁ਪਾਦੇ	-9.72186
▁ਅਨੁਭ	-9.72302
ਿਯਾਤਿ	-9.72353
▁ਕੁ	-9.7238
▁ਆਚਰਿਯ	-9.72394
▁ਅਞ੍ਞੇਨ	-9.72447
▁ਕਿਞ੍ਚਾਪਿ	-9.72458
▁ਜਿਨ	-9.72628
ਭੂਮਿ	-9.72677
▁ਛਨ੍ਨਂ	-9.72709
▁ਭਿਯ੍ਯੋ	-9.72724
ਮੂਲ	-9.72736
▁ਗਾਥਾਯੋ	-9.72766
ਅਥ	-9.72769
▁ਰਸ	-9.72803
ਸ੍ਸਾਨਿ	-9.72817
▁ਸੇਨਾਸਨਂ	-9.72991
ਰਸ੍ਸ	-9.73082
ਿਮਾਨ	-9.73196
▁ਚਿਤ੍ਤੇ	-9.73299
ਗਮਨ	-9.73321
ਚਰੇ	-9.73353
ਮੇਤ੍ਥ	-9.73576
▁ਕਾਤਬ੍ਬਂ	-9.73696
ਾਨੁਭਾ	-9.73731
▁ਅਨ੍	-9.7377
▁ਸਮੁਟ੍ਠਾਤਿ	-9.73968
▁ਸੁਦ੍ਧ	-9.74133
ਿਗਤਨ੍ਤਿ	-9.74161
▁ਭੂਮਿ	-9.74416
▁ਸੁਕ੍ਕ	-9.74495
▁ਥ	-9.74537
▁ਰੂਪਕ੍ਖਨ੍ਧੋ	-9.74545
ਕਾਮ	-9.74594
ਤ੍ਥੇਰੋ	-9.74647
ਞ੍ਞ	-9.74714
▁ਸਾਰਿਪੁਤ੍ਤੋ	-9.74752
▁ਪਨੇਤਂ	-9.74859
▁ਜਾਨਨ੍ਤਿ	-9.74947
ਮਿਦਂ	-9.75
ਿਚਿਕਿਚ੍ਛਾਨੁਸਯ	-9.7515
ਤ੍ਤਨ	-9.75151
▁ਛਿਨ੍ਨ	-9.75234
▁ਪਾਤੁਭ	-9.75252
▁ਅਞ੍ਞਸ੍ਸ	-9.75357
ਮਤ੍ਤਮੇ	-9.75395
▁ਸੁਦਂ	-9.75428
ਜਾਤਿ	-9.75528
ਧਮ੍ਮਂ	-9.75658
ਤ੍ਤੁਂ	-9.75813
▁ਨੀਲ	-9.7596
ਲੋਕੇ	-9.75983
▁ਖੁਦ੍ਦਕ	-9.76047
▁ਪੂਰੇ	-9.76097
ਿਞ੍ਞਤ੍ਤਿ	-9.76136
▁ਦੁਕ੍ਖਾਯ	-9.76206
ਭਿਕ੍ਖੁ	-9.76274
▁ਮਗ੍ਗਸ੍ਸ	-9.76341
ਥਾ	-9.76364
▁ਸੀਹ	-9.76444
▁ਉਪਾਦਾਨ	-9.76546
ਪੁਚ੍ਛਾ	-9.76664
ੇਥ	-9.76692
ਪਟਿਸਮ੍ਭਿਦਾ	-9.76739
▁ਅਞ੍ਞਥਾ	-9.76749
▁ਜਨ	-9.7682
▁ਕਸ੍ਸ	-9.76873
▁ਅਬ੍ਯਾਕਤਂ	-9.76984
▁ਕਾਮਰਾਗਾਨੁਸਯੋ	-9.77062
▁ਆਯਤਿਂ	-9.77088
ਿਪ੍ਪਯੁਤ੍ਤ	-9.77095
ੇਲ਼ੁ	-9.7717
▁ਕਾਲੇਨ	-9.77239
▁ਸਮਤ੍ਤਾ	-9.7728
▁ਜਨਾ	-9.77354
ਿਤ੍ਥ	-9.77381
▁ਸਹਸ੍ਸ	-9.77487
ਤ੍ਤਤੀਤਿ	-9.77617
ਿਦਿਤ੍	-9.77829
▁ਅਟ੍ਠਾਰਸ	-9.77887
ਿਸੇਸੇਨ	-9.77951
ਿਗਤ	-9.77954
▁ਆਹਾਰੇ	-9.77966
▁ਨਪਚ੍ਛਾਜਾਤ	-9.78044
▁ਨਿਰੋਧ	-9.78052
ਗਤ	-9.78133
▁ਪੁਰਿਸਸ੍ਸ	-9.78271
▁ਗਾਥਾਯ	-9.78355
▁ਨਭਾ	-9.78364
▁੧੩	-9.78404
▁ਪਟਿਸਂ	-9.78447
▁ਅਭਿਭ	-9.785
▁ਨਿਰ	-9.78507
▁ਸਾਸ	-9.78554
▁ਰੂਪਸ੍ਸ	-9.78567
ੇਯ੍ਯਂ	-9.78665
ਸੁਤ੍ਤਾਦਿ	-9.78701
▁ਸਮ੍ਪਜਾਨੋ	-9.78736
▁ਤੁਯ੍ਹਂ	-9.7878
ਾਚ	-9.78867
▁ਮਰਣ	-9.78882
▁ਮਜ੍ਝਿਮ	-9.79004
▁ਚਾਪਿ	-9.79149
ਲਿ	-9.79155
ੇਤਬ੍ਬਾ	-9.79269
ਸਾਨੇ	-9.79305
ਕਰਣਂ	-9.79358
▁ਆਗਤਾ	-9.79411
▁ਹੇਤੁਂ	-9.79454
ਟ੍ਟਤੀ	-9.79544
▁ਕਤੇ	-9.79545
ਸ੍ਮਿ	-9.79679
▁ਪਸਾਦ	-9.79827
ਮਾਨਂ	-9.79926
▁ਰਾਜਾਨਂ	-9.80035
▁ਬ੍ਯਞ੍ਜਨ	-9.80055
▁ਅਸਤਿ	-9.80072
ਤਰ	-9.80185
▁ਮਣਿ	-9.80408
▁ਕਾਮੇ	-9.80416
▁ਫਸ੍ਸ	-9.80519
ਦ੍ਦ	-9.80563
ਦ੍ਧ	-9.80582
▁ਚੂਲ਼	-9.80608
ਸ੍ਸਾਪਿ	-9.80708
ਿਞ੍ਞਾਣਧਾਤੁ	-9.80749
ਸਮ੍ਪਯੁਤ੍ਤ	-9.80789
▁ਸਤ	-9.80843
ਦਾਨਂ	-9.80878
ਿਨ੍ਤੇਤ੍	-9.80897
ਪੁਤ੍ਤ	-9.80934
▁ਕਰ	-9.81015
ਕੇਹਿ	-9.81027
ਦੁ	-9.81168
▁ਅਰਞ੍ਞ	-9.81225
ਹੀਤਿ	-9.81308
ੁਦ੍ਧਿ	-9.81321
ਤ੍ਤਯ	-9.81365
▁ਪਠਮੋ	-9.81512
ਕਾਮਾ	-9.81576
ਸਾਧੁ	-9.81659
▁ਬਨ੍ਧ	-9.81682
ਧਾ	-9.81685
▁ਕਾਮਰਾਗਾਨੁਸਯ	-9.81718
▁ਞਾਣੇਨ	-9.81848
ਪਚ੍ਚਯੋ	-9.81872
▁ਚੇਤਸੋ	-9.81951
▁ਉਪ੍ਪਜ੍ਜਿਸ੍ਸਤੀਤਿ	-9.82
▁ਭੂਤ	-9.82092
ੋਹਾਰ	-9.82105
ੁਤ੍ਤਾਨਿ	-9.82125
▁ਖਨ੍ਧੇਹਿ	-9.82161
▁ਠਾਨੇਸੁ	-9.82169
ਂਸ	-9.82302
▁ਅਟ੍ਠਾਸਿ	-9.82305
ਦਸ	-9.82311
▁ਆਕਾਸੇ	-9.82328
▁ਸੇਯ੍ਯਥਿਦਂ	-9.82355
▁ਤਤ੍ਥਾਤਿ	-9.82374
ੇਸੁਪਿ	-9.82378
ਨੀਯ	-9.8239
▁ਪਟਿਪਨ੍ਨੋ	-9.82476
ਨਯ	-9.82483
▁ਧਮ੍ਮਾਯਤਨਂ	-9.82522
▁ਪਟਿਘਾਨੁਸਯੋ	-9.82538
ਸਨ੍ਤੋ	-9.82612
▁੧੪	-9.82617
▁ਪੁਚ੍ਛਤਿ	-9.82633
ਤੋਪਿ	-9.82722
ਪੁਪ੍ਫ	-9.82737
ਪਞ੍ਞਤ੍ਤਿ	-9.82766
▁ਲੋਕੁਤ੍ਤਰ	-9.82772
▁ਅਞ੍ਞਾ	-9.82821
ਗਨ੍ਧ	-9.82873
▁ਕਿਚ੍ਚ	-9.82887
ਿਜ੍ਜਾਯ	-9.82927
▁ਦੁਤਿਯੇ	-9.82968
ਪੁਬ੍ਬ	-9.83078
▁ਅਮ੍ਬ	-9.83204
ਸਾਰ	-9.83273
▁ਅਞ੍ਞਾਤਾ	-9.8331
▁ਸਾਮਿ	-9.8336
▁ਅਕਤ੍	-9.83377
ਰੇਨ	-9.83452
▁ਮਿਗ	-9.83467
ਤ੍ਥੇਰਗਾਥਾ	-9.83507
ਖ	-9.8353
▁ਦਣ੍ਡ	-9.83532
▁ਪਰਿਪੁਣ੍ਣ	-9.83562
▁ਲੋਕਿਯ	-9.83636
ਨਿਮਿਤ੍ਤ	-9.83652
ਦਂ	-9.83744
▁ਪਾਪਂ	-9.83782
▁ਅਙ੍ਗਾਨਿ	-9.83814
ਸਙ੍ਘ	-9.83837
▁ਇਤ੍ਥਿ	-9.83875
▁ਏਤਦਹੋਸਿ	-9.83939
▁ਨਿਸ੍ਸਗ੍ਗਿਯਂ	-9.84147
ਾਤ	-9.84512
▁ਨਪੁਰੇਜਾਤੇ	-9.84582
▁ਇਤ੍ਥਂ	-9.84656
▁ਉਤ੍ਤਾਨਮ	-9.84758
▁ਅਸਂ	-9.84854
ਞ੍ਚਾਤਿ	-9.84916
▁ਨਿਸ੍ਸਯ	-9.84954
ਬ੍ਭ	-9.8502
ਤਣ੍ਹਾ	-9.85041
▁ਉਪ੍ਪਨ੍ਨਾ	-9.85048
▁ਰਤ੍ਤ	-9.8506
ਭਨ੍ਤੇ	-9.85069
ਾਸੀ	-9.85094
▁ਅਤੀਤ	-9.85142
▁ਮਗ੍ਗੇ	-9.85179
▁ਰਤਨ	-9.85338
ਕਥਞ੍ਚ	-9.85418
ਿਸ੍ਸਾਮੀ	-9.85458
ੁਪ੍ਪਤ੍ਤਿ	-9.85487
▁ਨਕਮ੍ਮੇ	-9.8549
ਘ	-9.85661
▁ਪਹੀਨਾ	-9.85747
ਦੋਸ	-9.8576
▁ਸਤਂ	-9.85895
▁ਅਧਿਪਤਿਯਾ	-9.85908
▁ਸਚ੍ਚਾਨਿ	-9.85931
▁ਅਨਿਦਸ੍ਸਨਅਪ੍ਪਟਿਘ	-9.85935
ਬ੍ਯ	-9.8596
▁ਅਰਿਯਾ	-9.86005
ਚਨੇ	-9.86106
ਤੂ	-9.86116
▁ਸਙ੍ਘੇ	-9.86377
▁ਬੋਜ੍ਝਙ੍ਗਾ	-9.86386
▁ਦਿਟ੍ਠਿਯਾ	-9.86391
ਸਹਸ੍ਸ	-9.86412
▁ਹੀ	-9.86442
ਧਮ੍ਮੇ	-9.86456
▁ਬਾਲੋ	-9.86502
▁ਸਮਾ	-9.86562
▁ਪਣ੍ਡਿਤਾ	-9.86602
ੁਤ	-9.86607
▁ਪੁਰਿਸਿਨ੍ਦ੍ਰਿਯਂ	-9.86796
▁ਪਞ੍ਞਾਯਤਿ	-9.86829
▁ਉਤ੍ਤਰਿ	-9.86879
ਸਦਿਸਂ	-9.86984
ਤਦਾ	-9.86988
▁ਤਣ੍ਹਾਯ	-9.87018
ਾਭਿ	-9.87079
▁ਮਹ	-9.87123
▁ਪਾਪੁਣਾਤਿ	-9.87144
▁ਪਕਤੂਪਨਿਸ੍ਸਯੋ	-9.87322
▁ਉਪਨਿਸ੍ਸਾਯ	-9.87323
ਿਪਸ੍ਸਨਂ	-9.87326
▁ਗਮਨ	-9.8738
▁ਬਾਲ	-9.87452
▁ਸਞ੍ਞੋਜਨ	-9.87498
▁ਸਤ੍ਤਮਂ	-9.87533
▁ਪਹਾਨਾਯ	-9.87647
ਾਸਾ	-9.87663
▁ਜਾਤਿਯਾ	-9.87794
▁ਨਿਕ੍ਖਮਿਤ੍	-9.87874
ਦਸ੍ਸਨਂ	-9.87877
▁ਅਸਙ੍ਗਹਿਤਾ	-9.87878
ਤਰੋ	-9.87882
▁ਸਹਜਾਤ	-9.87964
ਕੁਸਲੋ	-9.87985
▁ਸਮ੍ਮਾਸਮ੍ਬੁਦ੍ਧ	-9.88025
▁ਆਮਨ੍ਤੇਸਿ	-9.88137
▁ਛਟ੍ਠਂ	-9.88141
ਿਮੁਤ੍ਤੋ	-9.8819
▁ਪਞ੍ਚਸੁ	-9.88222
▁ਗਹਿਤ	-9.88283
▁ਯੋਜੇਤਬ੍ਬਂ	-9.88304
▁ਭਿਨ੍ਨ	-9.88327
▁ਸਮ੍ਪਯੁਤ੍ਤਾ	-9.88513
ਮਨੋ	-9.88557
▁ਭਯ	-9.88558
▁ਜਿਨੋ	-9.88603
▁ਆਹਾਰ	-9.88614
ਭੋਗ	-9.88657
▁ਅਲਂ	-9.88675
▁ਕਦਾਚਿ	-9.88767
ਦਸ੍ਸਨਤ੍ਥਂ	-9.88922
ਤ੍ਤਿਂ	-9.89157
▁ਚਰਤਿ	-9.89202
▁ਅਨਿਚ੍ਚਤੋ	-9.89299
▁ਹੇਤੁਸ੍ਸ	-9.89377
▁ਤਸ੍ਸਤ੍ਥੋ	-9.89406
▁ਅਗਮਾਸਿ	-9.89473
ਮਤ੍ਤੇ	-9.89546
▁ਅਧਿਟ੍ਠਾਨ	-9.89568
▁ਉਪ੍ਪਨ੍ਨੋ	-9.89578
▁ਸਙ੍ਖ੍ਯਾ	-9.89589
ਿਚਾਰ	-9.89599
ਗ੍ਗਹਣਂ	-9.89603
▁ਪਿਤੁ	-9.89604
ਗਾਮ	-9.89666
ਹਤ੍ਥ	-9.89748
ਇਮੇ	-9.89748
▁ਉਪਾਲਿ	-9.89765
▁ਤਮਤ੍ਥਂ	-9.89769
ਿਸੁਦ੍ਧ	-9.89788
ਿਚਾਰਂ	-9.89801
▁ਨਗਰ	-9.8981
ਾਦਿਤੋ	-9.89838
▁ਤਤਿਯੋ	-9.89876
ਤਨ੍ਤਿ	-9.89965
▁ਸਬ੍ਬੋ	-9.90007
▁ਚਕ੍ਖੁਂ	-9.90082
ਰਤਨ	-9.90138
▁ਠਾਨ	-9.90144
▁ਇਮਾਯ	-9.90173
ਭਯ	-9.9018
▁ਪਹਾਨ	-9.90222
ੇਯ੍ਯਾ	-9.90249
▁ਸਮਨ੍ਤਤੋ	-9.90276
▁ਨਾਭਿਜਾਨਾਮਿ	-9.90285
▁੧੫	-9.90289
ਪੀ	-9.90353
▁ਉਪੇਕ੍ਖਿਨ੍ਦ੍ਰਿਯਂ	-9.90458
ਤਤੋ	-9.90516
▁ਖਣ	-9.90642
ਨਟ੍ਠੇਨ	-9.90672
▁ਜਾਤਂ	-9.90727
▁ਆਰਦ੍ਧ	-9.90739
ੁਤ੍ਤਮੇ	-9.90841
▁ਗਚ੍ਛਤੀਤਿ	-9.90915
ਾਯਾਤਿ	-9.90948
▁ਹੀਨ	-9.90957
▁ਬੁਦ੍ਧਾਨਂ	-9.91013
▁ਸੁਖਾ	-9.91015
ਿਸੁਦ੍ਧਿ	-9.91031
▁ਨਿਮਿਤ੍ਤਂ	-9.91125
▁ਪੁਚ੍ਛਿਤ੍	-9.91132
ੇਦ	-9.91166
▁ਗਹਿਤਾ	-9.91238
▁ਤਾਤ	-9.91249
▁ਚਿਨ੍ਤੇਸਿ	-9.91378
▁ਨਿਟ੍ਠਿਤੋ	-9.91388
ਿਭਤ੍ਤਿ	-9.91556
▁ਪਰੋ	-9.91558
▁ਚੇਤਂ	-9.91582
ਾਦਿਕੇ	-9.91602
ਅਨੁਜਾਨਾਮਿ	-9.91613
ਲਿਙ੍ਗ	-9.91643
▁ਕਿਲੇਸਾ	-9.91765
▁ਭਾਸਤਿ	-9.91774
▁ਪਚ੍ਛਿਮਾਨਂ	-9.91778
ਿਟ੍ਠ	-9.91876
▁ਚਨ੍ਦ	-9.91878
▁ਖਣੇ	-9.91903
ਸੁਖਂ	-9.92068
ਿਪਾਕਾ	-9.92073
ਿਤਕ੍ਕਂ	-9.92078
▁ਫਾਸੁ	-9.921
▁ਅਟ੍ਠਮਂ	-9.92293
ਪਸ੍ਸ	-9.92306
▁ਸੇਟ੍ਠ	-9.92363
ਨਤ੍ਥਾਯ	-9.92384
ਭਗ	-9.92394
▁ਅਤਿਰੇਕ	-9.92439
▁ਸਾਰ	-9.92452
▁ਸਯਮੇ	-9.92467
ਚ੍ਚਾਦਿ	-9.92483
▁ਕਥਞ੍ਚ	-9.92554
▁ਅਨੁਸਯਾ	-9.92556
ਾਰਾ	-9.92735
▁ਬੀਜ	-9.92745
▁ਆਯੁ	-9.9288
▁ਸੁਦ੍ਧਾ	-9.92887
▁ਯੋਨਿਸੋ	-9.92891
ਣ੍ਣੇਨ	-9.92988
▁ਅਯਮੇਤ੍ਥ	-9.92997
ਿਤ੍ਥਾਰੇਨ	-9.93014
▁ਏਤ੍ਥਾਪਿ	-9.93171
ਦਤ੍ਤੋ	-9.93184
▁ਕਾਲ਼	-9.93231
▁ਯੁਤ੍ਤ	-9.93338
▁ਦਿਨ੍ਨ	-9.9334
▁੨੨	-9.93347
▁੧੬	-9.93385
ਨਿਮਿਤ੍ਤਂ	-9.93402
▁ਘਟ	-9.93499
▁ਸਤ੍ਤਰਸ	-9.93576
▁ਸਞ੍ਞਾਕ੍ਖਨ੍ਧੋ	-9.93618
ਿਸੇਸਂ	-9.9364
▁ਅਹਮੇ	-9.93655
▁ਅਨ੍ਤ	-9.93701
ਤ੍ਤਬ੍ਬੋ	-9.93732
▁ਦੇਸੇਤਿ	-9.93751
▁ਲਭਿਤ੍	-9.93794
▁ਸੇਤ	-9.93829
▁ਸਮਂ	-9.93853
▁ਕਲ੍ਯਾਣ	-9.93982
ਭਤ੍ਤ	-9.94123
ਾਭ	-9.94129
▁ਯਕ੍ਖ	-9.94212
▁ਪਦੁਮ	-9.94247
▁ਕੇਸ	-9.9425
▁ਅਪਰ	-9.94291
ਹਾ	-9.94422
▁ਪਬ੍ਬਜਿਤੋ	-9.94425
▁ਸਰੀਰਂ	-9.94427
ੇਤਬ੍ਬਂ	-9.94498
▁ਪਞ੍ਞਿਨ੍ਦ੍ਰਿਯਂ	-9.9456
ਜਾ	-9.94589
▁ਗਾਮਂ	-9.94595
ਕਡ੍	-9.94715
▁ਇਧੇਕਚ੍ਚੋ	-9.94743
▁ਨਨ੍ਦ	-9.94752
▁ਮਹਾਸਤ੍ਤੋ	-9.94761
ਕਨ੍ਤਿ	-9.94805
ਸਙ੍ਖਾਤ	-9.94872
ਦਨ੍ਤੋ	-9.94914
ਾਪਨ	-9.94941
▁ਮਨਾਯਤਨਂ	-9.94961
ਞਾਣਂ	-9.94961
ੇਦਨਾਸੁ	-9.95033
▁ਮੇਤ੍ਤਾ	-9.95065
ਾਪੇਤਿ	-9.95079
▁ਉਪਲਬ੍ਭਤਿ	-9.95145
▁ਘਾਨਿਨ੍ਦ੍ਰਿਯਂ	-9.95236
▁ਮਰਣਂ	-9.95377
ਿਸਿ	-9.95395
▁ਸਤ੍ਥਾਰਂ	-9.95421
▁ਜਾਲ	-9.9543
▁ਕਾਯਸਙ੍ਖਾਰੋ	-9.95651
▁ਇਚ੍ਚੇ	-9.95718
▁ਪਚ੍ਚੁਪ੍ਪਨ੍ਨ	-9.95728
▁ਭੋਜਨਂ	-9.95735
ਿਸਯੇ	-9.95755
ਿਸ੍ਸਸਿ	-9.95855
ਨਤ੍ਥਿਯਾ	-9.95987
▁ਪੁਗ੍ਗਲ	-9.95987
ਾਦੇ	-9.96002
▁ਕਿਲੇਸੇ	-9.9604
▁ਅਕ੍ਖ	-9.96092
▁ਛਨ੍ਦੋ	-9.9614
▁ਪਹੀਨੋ	-9.96146
▁ਇਦਮ੍ਪਿ	-9.96151
ਨਯੋ	-9.96156
▁ਤਞ੍ਹਿ	-9.96197
▁ਜਾਤਕਂ	-9.96246
ਤ੍ਤਬ੍ਬਾ	-9.96266
ਗਾਥਾ	-9.96486
ਨਤ੍ਥਿ	-9.96505
▁ਦੋਮਨਸ੍ਸਂ	-9.96531
▁ਕਿਰਿਯਾ	-9.96576
ਬਨ੍ਧ	-9.96577
▁ਤਸ੍ਸੁਦ੍ਦਾਨਂ	-9.96633
ਸਚ੍ਚ	-9.96633
▁ਪਹਾਤਬ੍ਬਹੇਤੁਕੋ	-9.96699
ਮੁਖੇਨ	-9.96889
▁ਇਤ੍ਥਿਨ੍ਦ੍ਰਿਯਂ	-9.96889
ਸਮਾਧਿ	-9.97005
▁ਭਰਿਯਾ	-9.9702
▁ਪਰਤੋ	-9.97145
▁ਅਰਞ੍ਞੇ	-9.97149
▁ਪੁਞ੍ਞਾਨਿ	-9.97154
ਾਰੇਸੁ	-9.97155
ਨ੍ਤਿਆਦੀਸੁ	-9.97199
ਾਦਿਕਂ	-9.97375
▁ਗਤ	-9.97408
ਿਜ੍ਜਾਨੁਸਯ	-9.97438
ਾਸਿਨੋ	-9.97515
▁ਸਙ੍ਗਹ	-9.97536
▁ਸਦ੍ਦਂ	-9.97571
▁ਪੁਥੁ	-9.97615
ਸੇਯ੍ਯਥਾਪਿ	-9.97645
ਿਤ੍ਥਾਰਤੋ	-9.97668
▁ਮਨੁਸ੍ਸਾਨਂ	-9.97679
▁ਸਦ੍ਧਿਨ੍ਦ੍ਰਿਯਂ	-9.97732
▁ਦਟ੍ਠਬ੍ਬਾ	-9.97768
ਮਾਦਿਨਾ	-9.97814
▁ਆਹਾਰੋ	-9.97834
▁ਮਧੁਰ	-9.97862
▁ਏਤਸ੍ਮਿਂ	-9.97895
ਕਿਲੇਸ	-9.97942
▁ਸਙ੍ਗਹਿਤਾ	-9.97944
▁ਅਯ	-9.97968
▁ਚਕ੍ਖੁਨਾ	-9.97977
▁ਨਦੀ	-9.97998
▁ਦਸਮਂ	-9.98004
▁ਰੂਪਾਨਿ	-9.98019
▁ਏਤੇਨਾਤਿ	-9.98054
▁ਕਸ੍ਸਪ	-9.9806
▁ਚਰ	-9.98202
ਣ੍ਣਨਾਯ	-9.98264
▁ਅਤ੍ਤਨਿ	-9.98273
▁ਅਞ੍ਞਮਞ੍ਞ	-9.98409
ਾਦਿਭਾ	-9.98435
▁ਓਲੋਕੇ	-9.98514
▁ਪਾਣ	-9.98639
ਤ੍ਥੂਨਿ	-9.98676
▁ਨਿਰੋਧੋ	-9.98711
▁ਸਮੁਦਯੋ	-9.98735
ਚਰਾਨਂ	-9.98753
ਿਸੇਸਤੋ	-9.98793
▁੧੭	-9.9881
▁ਪਾਸਾਣ	-9.98849
▁ਗਣ੍ਹ	-9.98973
▁ਮਿਚ੍ਛਾਦਿਟ੍ਠਿ	-9.99004
ਅਨੁ	-9.99061
▁ਉਪ੍ਪਜ੍ਜਿਤ੍ਥਾਤਿ	-9.99086
ਚਕ੍ਖੁ	-9.99105
ਪਰਿਦੇ	-9.99121
ਕਾਰਣ	-9.99185
ੁਤ੍ਤਨਯਮੇ	-9.99282
▁ਬ੍ਰਾਹ੍ਮਣਸ੍ਸ	-9.99287
▁ਕਾਮੇਹਿ	-9.99312
▁ਭਤ੍ਤਂ	-9.99317
▁ਆਨੇ	-9.99323
▁ਇਮੇਸੁ	-9.99353
▁ਕਮ੍ਮੇਨ	-9.99376
▁ਇਤਰੇਸਂ	-9.99439
▁ਕਾਲੋ	-9.99498
ਿਦੂ	-9.99505
▁ਭੁਞ੍ਜ	-9.9958
▁ਪੁਚ੍ਛ	-9.99649
ਸੇਸਂ	-9.99683
▁ਪਠਮੇ	-9.99715
ੇਨਪਿ	-9.99743
▁ਸਿਕ੍ਖਾਪਦਂ	-9.99848
▁ਅਞ੍ਞਤ੍ਥ	-9.99912
▁ਸਹਜਾਤਂ	-9.9992
▁ਸਤ੍ਥ	-9.99935
ਗੋ	-10.0003
▁ਕਪ੍ਪਿਯ	-10.0004
ਙ੍ਗਂ	-10.0016
▁ਮਾਤੁ	-10.0019
▁ਮਨ੍ਤ	-10.003
▁ਤਹਿਂ	-10.0031
ਸਹਸ੍ਸਾਨਿ	-10.0042
▁ਦਾਤਬ੍ਬਂ	-10.005
▁ਸਮ੍ਮਾਸਮ੍ਬੁਦ੍ਧੋ	-10.0052
ਨ੍ਤਿਯਾ	-10.0058
ਤ੍ਤਿਯਾ	-10.0063
▁ਕਤਿਹਿ	-10.0078
ਲਕ੍ਖਣਾ	-10.0082
ਮਤ੍ਤੇਨ	-10.009
ੇਯੇ	-10.0095
ਾਦਿਨੋ	-10.0118
ਤਰਂ	-10.0119
▁ਅਨਨ੍ਤਰ	-10.0123
▁ਰਤ੍ਤਿਂ	-10.0128
ੇਸੋ	-10.0128
ਮਨੁਸ੍ਸ	-10.0129
ਿਮੁਤ੍ਤਿਂ	-10.0129
▁ਗਾਥਂ	-10.0129
ਯੇਨ	-10.0132
▁ਏਕਦਿ	-10.0137
ਭਣ੍ਡ	-10.0146
ਰਾਗ	-10.015
▁ਖਾਦ	-10.0156
ਿਜ੍ਜ	-10.0157
▁ਉਤ੍ਤਾਨਤ੍ਥ	-10.0161
▁ਲੋਭ	-10.0164
ਪ੍ਪਤ੍ਤੋ	-10.0168
▁ਯਾਯ	-10.017
▁ਪੁਗ੍ਗਲਂ	-10.0174
▁ਪਸ	-10.0174
ਣਂ	-10.018
ਿਲ	-10.0183
▁ਅਨਨ੍ਤਰੇ	-10.0185
ਿਨਿਚ੍ਛਯ	-10.0186
ਤ੍ਤਾਤਿ	-10.0193
ਆਦਯੋ	-10.0198
▁ਪਞ੍ਹਾ	-10.0204
ਿਪਸ੍ਸਨਾਯ	-10.0206
ਦੇਸ	-10.0211
▁ਪਕਾਸੇਨ੍ਤੋ	-10.0217
▁ਸੁਗਤ	-10.0221
ਾਰਣਾ	-10.0227
ਨਿਦ੍ਦੇਸੇ	-10.0229
ਾਲ	-10.0234
▁ਮੁਖਂ	-10.0236
ਚੀਸਙ੍ਖਾਰੋ	-10.0242
▁ਸਚ੍ਚਿਕਟ੍ਠਪਰਮਤ੍ਥ	-10.0244
▁ਅਪਰਭਾਗੇ	-10.0245
▁ਪਯੋਗੇ	-10.0247
ਸਰ	-10.0249
ਹੋ	-10.0249
▁ਕਤਮਾਨਿ	-10.025
▁ਸਮਣਬ੍ਰਾਹ੍ਮਣਾ	-10.025
▁ਸਗ੍ਗ	-10.0255
▁ਨਿਬ੍ਬਤ੍ਤੋ	-10.0258
▁ਮਾਨਾਨੁਸਯੋ	-10.0259
▁ਅਮਤ	-10.026
▁ਯਥਾਰਹਂ	-10.0275
▁ਕਾਮਧਾਤੁਯਾ	-10.0296
▁ਭਿਕ੍ਖੁਸ੍ਸ	-10.0301
▁ਉਦਾਹੁ	-10.0306
▁ਅਰਿਯੋ	-10.0328
ਸਦਿਸਾ	-10.0329
▁ਰਾਜਗਹੇ	-10.0329
ਕਤਮੇਹਿ	-10.0332
ਅਤ੍ਥ	-10.0339
▁ਨਸਮ੍ਪਯੁਤ੍ਤੇ	-10.0354
▁ਆਰਮ੍ਮਣਾਧਿਪਤਿ	-10.0356
▁ਪਚ੍ਛਿਮਭ	-10.0357
▁੧੮	-10.0366
ਇਮਂ	-10.0368
▁ਆਗਮ੍ਮ	-10.0373
ਤ੍ਥੇਰਸ੍ਸ	-10.0375
ਹਾਰੋ	-10.0377
▁ਰੂਪੇ	-10.0378
ਰਤ੍ਤ	-10.0388
ਪੁਞ੍ਞ	-10.0391
ਜ੍ਜੋ	-10.0404
▁ਸੋਮਨਸ੍ਸ	-10.0411
ਹਨ	-10.0412
▁ਏਕਾਯ	-10.0413
ਤ੍ਥੇਰ	-10.0414
ਧੋ	-10.0417
▁ਚੋਰ	-10.0419
▁ਗਿਹਿ	-10.0424
▁ਯੇਭੁਯ੍ਯੇਨ	-10.0446
ਲੋਮ	-10.0449
ਯੋਗ	-10.0452
▁ਪਾਰਾਜਿਕਂ	-10.0458
▁ਰਤ੍ਤਿ	-10.0466
▁ਸੇਸਮੇਤ੍ਥ	-10.0479
▁ਦੁਕ੍ਕਟ	-10.0479
▁ਜਲ	-10.048
▁ਸਦ੍ਧਾਯ	-10.0486
▁ਕਮ੍ਮਟ੍ਠਾਨਂ	-10.0488
ਚਿਤ੍ਤਸਮੁਟ੍ਠਾਨਞ੍ਚ	-10.0493
ਿਜ੍ਜਮਾਨ	-10.0493
▁ਮਗ੍ਗੇਨ	-10.0496
▁੧੯	-10.0498
ਸ੍ਸਿਦਂ	-10.05
ਿਪ੍ਪਯੁਤ੍ਤਂ	-10.0521
▁ਕੁਸਲਸ੍ਸ	-10.0522
ਮਹ	-10.053
ਸੂ	-10.0531
ਸਿਤ੍	-10.0534
ਰੀ	-10.0554
ਿਪ੍ਪਯੁਤ੍ਤਪਚ੍ਚਯੇਨ	-10.0557
ਾਕਾਰੇਨ	-10.0572
▁ਰਥ	-10.0573
▁ਸਦ੍ਦੋ	-10.0584
▁ਥੇਰ	-10.0588
ਸਹ	-10.0599
ਸਦਿਸੋ	-10.0604
ਕਾਰਣਂ	-10.0605
▁ਸੀਸ	-10.0612
ਕਾਰਸ੍ਸ	-10.0612
▁ਪਨ੍ਨਰਸ	-10.0615
੧੦	-10.0616
▁ਗਹਣਂ	-10.062
▁ਅਭਾਸਿਤ੍ਥਾਤਿ	-10.0621
▁ਯਥਾਕ੍ਕਮਂ	-10.0622
▁ਬੁਦ੍ਧਾ	-10.0623
ਸਞ੍ਞਾਯ	-10.0624
▁ਅਜ੍ਝਤ੍ਤ	-10.063
▁ਮਧੁ	-10.0637
▁ਤਿਂਸ	-10.0639
▁ਅਨਨ੍ਤ	-10.064
▁ਸਞ੍ਞਾਯ	-10.0641
▁ਠਪਿਤ	-10.0642
ਿਭਜਿਤ੍	-10.0644
▁ਅਤੀਤੇ	-10.0647
▁ਯੁਜ੍ਜਤਿ	-10.065
▁ਏਤੇਸੁ	-10.0651
▁ਪਰਿਯਾਯ	-10.0655
ੀਮਂਸ	-10.0655
ਕਾਰੀ	-10.0656
▁ਪਣ੍ਡਿਤ	-10.0658
▁੨੦	-10.0664
▁ਅਧੋ	-10.0667
▁ਗਰੁ	-10.0668
▁ਮਨ	-10.0668
ਸਮ੍ਪਤ੍ਤਿਯਾ	-10.0673
ਾਸਨ	-10.0683
▁ਪਚ	-10.0688
▁ਸਾਧਾਰਣ	-10.0703
▁ਕਥਿਤਂ	-10.0708
▁ਲੋਕਸ੍ਮਿਂ	-10.0715
ਕ੍ਖਨ੍ਧ	-10.0717
ਲ੍ਲ	-10.0719
▁ਪੁਰੇਜਾਤਪਚ੍ਚਯੇਨ	-10.0737
ਦੁਕ	-10.0739
▁ਲੋਭੋ	-10.0746
▁ਅਨੁਲੋਮ	-10.0746
ਗਾ	-10.075
▁ਮੁਤ੍ਤ	-10.0751
▁ਆਰੋਪੇ	-10.0751
▁ਪਬ੍ਬਤ	-10.0753
ਾਦੀਸੁਪਿ	-10.0758
ਦੋ	-10.0764
▁ਸਙ੍ਗਣ੍ਹਾਤਿ	-10.0773
▁ਗਚ੍ਛਨ੍ਤੋ	-10.0778
▁ਸਤ੍ਤੇ	-10.0779
▁ਉਦ੍ਦੇਸ	-10.0779
ਿਦ	-10.079
▁ਕੁਲੇ	-10.0792
▁ਸਮ੍ਪਯੁਤ੍ਤੋ	-10.0793
▁ਦੁਕ੍ਖਸਚ੍ਚਂ	-10.0793
ਘਾਤ	-10.0794
▁ਯਾਚ	-10.0798
▁ਅਨ੍ਤਰ	-10.0801
▁ਅਨ੍ਤਮਸੋ	-10.0803
▁ਸੇਸਾ	-10.0809
ਾਸਿਕਾ	-10.0809
ਦੁਕਂ	-10.0811
▁ਕੇਹਿਚਿ	-10.0814
ਟ੍ਠਿਤ	-10.082
ਜ੍ਝਾਨ	-10.0828
▁ਨਿਕ੍ਖਿਪ	-10.0836
▁ਅਸੁਭ	-10.084
▁੨੧	-10.0843
▁ਚਰਿਤ੍	-10.0844
▁ਨਿਰਯਂ	-10.0858
▁ਇਨ੍ਦ੍ਰਿਯਂ	-10.0859
▁ਘਾਨਾਯਤਨਂ	-10.0863
▁ਪਰਿਤ੍ਤ	-10.0863
ਲਾ	-10.0864
ਕੁਸਲ	-10.0865
▁ਕਥ	-10.0874
▁ਅਕ੍ਕੋਸ	-10.0884
▁ਏਕਚ੍ਚੇ	-10.0892
▁ਪਟਿਸੇ	-10.0894
ਿਸਮ	-10.0897
ਮਯ	-10.09
▁ਲਾਭ	-10.0901
▁ਮੇਧਾ	-10.0902
▁ਆਦਿਤੋ	-10.0903
▁ਹਦਯ	-10.0912
ਚਿਤ੍ਤਸ੍ਸ	-10.0925
▁ਉਦ	-10.0925
▁ਦੂਰੇ	-10.0928
ਿਞ੍ਞਾਣਕ੍ਖਨ੍ਧੋ	-10.093
▁ਰੂਪਧਾਤੁਯਾ	-10.0931
▁ਤਤਿਯੇ	-10.0933
▁ਗਚ੍ਛੇਯ੍ਯ	-10.0933
ਿਸੇਸਨ	-10.0934
ਪ੍ਪਟਿ	-10.0935
▁ਞਾਤਿ	-10.0938
▁ਸਾਮਞ੍ਞ	-10.094
ਿਚਾਰਾ	-10.094
ਨਤ੍ਥਂ	-10.0957
ਸਮ੍ਪਦਾ	-10.0958
▁ਮਿਤ੍ਤ	-10.096
ਿਪਾਕਨ	-10.0964
ੁਚ੍ਚਤੀਤਿ	-10.0968
ਨ੍ਤਿਪਿ	-10.0975
ਾਯਤਨ	-10.0986
▁ਸਞ੍ਞ	-10.099
ਿਰ	-10.0992
ਿਜ੍ਝ	-10.0995
ਞ੍ਜ	-10.0999
ਕਿਲੇਸਾ	-10.1003
▁ਕਰੁਣਾ	-10.1014
▁ਖਮ	-10.1022
ਸਤੋ	-10.1023
▁ਨੁਪ੍ਪਜ੍ਜਿਸ੍ਸਤਿ	-10.1028
▁ਤੇਪਿ	-10.1034
▁ਹਤ੍ਥੇ	-10.1035
▁ਯੇਹਿ	-10.1037
▁੨੩	-10.1042
ਭੇਦੋ	-10.1043
▁ਅਨਾਗਤ	-10.1044
ਮਲ	-10.105
▁ਸਮ੍ਮਾਸਮਾਧਿ	-10.105
ਗਾਰ	-10.1051
ਸਤਂ	-10.1055
▁ਪਟਿਜਾਨਾਤਿ	-10.1058
▁ਕਥਿਤਾ	-10.1063
▁ਜਾਯਤਿ	-10.1064
▁ਏਕਨ੍ਤ	-10.1065
ਸਤਾਨਿ	-10.1079
▁ਪਰਿਚ੍ਛੇਦੋ	-10.108
▁ਭੋਗ	-10.1082
ਰਾਸਿ	-10.1083
▁ਅਰਹਂ	-10.1084
ਿਹਰਾਮਿ	-10.1099
ਿਕ੍ਖੇਪੋ	-10.1099
▁ਬ੍ਰਹ੍ਮਚਰਿਯ	-10.1111
ਅਨ	-10.1112
ਹੇ	-10.1116
ਾਰੇਤ੍	-10.1117
▁ਇਮਿਸ੍ਸਾ	-10.1117
▁ਅਞ੍ਞੇਸਂ	-10.1122
▁ਹੇਤੁਪਚ੍ਚਯੋ	-10.1126
▁ਸਹਜਾਤਾ	-10.1126
ਬ੍ਰਹ੍ਮ	-10.113
ਸਮੁਟ੍ਠਾਨ	-10.1136
ਰਸਂ	-10.1144
▁ਸਮਨ੍ਤਾ	-10.1148
ਨਮ	-10.1148
ਮੁਪ	-10.1151
▁ਉਤੁ	-10.1154
ਦੀਪ	-10.1156
ਿਭਙ੍ਗੇ	-10.1158
▁ਨਉਪਨਿਸ੍ਸਯੇ	-10.1163
ਜਾਲ	-10.1165
ਿਰਾਗ	-10.1184
▁ਸਙ੍ਖਾਰਕ੍ਖਨ੍ਧੋ	-10.1188
▁ਸਰਣ	-10.1193
ਸਦਿਸ	-10.1202
ਰਣੇ	-10.1204
ਪਣ੍ਣ	-10.1212
▁ਹਞ੍ਚਿ	-10.1213
▁ਉਪਨਿਸ੍ਸਯੇ	-10.1219
▁ਪਰਿਯਾਯੇਨ	-10.1225
ਸਙ੍ਖਾਤਾ	-10.1225
ਤਞ੍ਚ	-10.1227
ਤ੍ਤਤੇ	-10.1231
ਸੇਯ੍ਯ	-10.1233
ਧਾਰ	-10.1241
▁ਜਾਨਾਮਿ	-10.1242
ਸੂਤਿ	-10.1243
ਾਪਤ੍ਤਿ	-10.1245
▁੨੪	-10.1251
▁ਕੋਧ	-10.1252
ਸਤ	-10.1254
▁ਗਹਿਤਂ	-10.1254
ਨਕ	-10.1256
▁ਖਗ੍ਗ	-10.1265
ਤ੍ਤਿਂਸ	-10.1267
ਕਤ	-10.127
ਸੁਂ	-10.1276
▁ਸਬ੍ਬਾਨਿ	-10.1282
▁ਅਨਿਚ੍ਚਂ	-10.1284
▁ਸਨ੍ਤੇ	-10.1291
▁ਰਕ੍ਖ	-10.1292
▁ਉਦਕੇ	-10.1294
▁ਸਿਯਾਤਿ	-10.1297
▁ਮਞ੍ਞੇ	-10.1298
ਿਹਰਨ੍ਤਿ	-10.1299
ਿਸਿਟ੍ਠ	-10.1301
▁ਸਤ੍ਤੋ	-10.1302
▁ਤੁਣ੍ਹੀ	-10.1306
▁ਸਙ੍ਗਹੋ	-10.131
▁ਬਾਹਿਰਂ	-10.1315
▁ਨਿਰਯ	-10.1316
▁ਮਾਤਾਪਿਤਰੋ	-10.1319
ਜਨ	-10.132
ਤਿਆਦੀਨਿ	-10.1322
ਕ੍ਕ	-10.1332
▁ਨਯ	-10.1334
ਮਨ੍ਤ	-10.1334
▁ਨਰੋ	-10.1335
▁ਅਧਿਪ੍ਪੇਤੋ	-10.1339
ਲੋ	-10.1339
ਰੁਕ੍ਖ	-10.134
▁ਸੀਸਂ	-10.1347
▁ਸਹਜਾਤੇ	-10.136
ਿਨਯਂ	-10.1375
▁ਏਤਸ੍ਸਾਤਿ	-10.1375
ਿਤ੍ਥਾਰ	-10.1381
▁ਕਮ੍ਮਟ੍ਠਾਨ	-10.1384
▁ਜਰਾ	-10.1389
▁ਕਾਤਬ੍ਬੋ	-10.1391
ਤ੍ਥੁਞ੍ਚ	-10.1393
ਜਂ	-10.1395
ੁਟ੍ਠਾਨ	-10.1399
▁ਲੋਹਿਤ	-10.1401
▁ਗਹਣ	-10.1402
ਾਰੇਨ	-10.1404
ਾਰਾਦਿ	-10.1407
▁ਤਿਟ੍ਠਨ੍ਤਿ	-10.141
ਨਝਾਨੇ	-10.141
ਾਪੇਸਿ	-10.1418
▁ਦਾਤੁਂ	-10.142
▁ਝਾਨੇ	-10.1421
ਿਪਤ੍ਤਿ	-10.1424
▁ਅਨੁਤ੍ਤਰਂ	-10.1429
▁ਪਤਿਟ੍ਠਾ	-10.1432
▁ਸਂਸਾਰ	-10.1436
▁ਪਾਰਾਜਿਕ	-10.1436
▁ਪਕਾਸ	-10.1437
▁ਪਾਰਿ	-10.144
ਮਮ	-10.1443
ੇਹੀ	-10.1444
ਕਿਰਿਯਾ	-10.1446
ਾਧਿ	-10.1448
▁ਕਾਮੇਸੁ	-10.1449
ਿਚਿਕਿਚ੍ਛਾਨੁਸਯੋ	-10.145
▁ਸਮਨ੍ਨਾਗਤਾ	-10.145
▁ਛਬ੍ਬਗ੍ਗਿਯਾ	-10.1454
ਧਮ੍ਮਾਨਂ	-10.1464
▁ਦਸ੍ਸਨਂ	-10.1468
▁ਆਰਮ੍ਮਣਪਚ੍ਚਯਾ	-10.1468
ਜਿ	-10.1477
ਗ੍ਘ	-10.1479
ਮ੍ਮ	-10.1479
▁ਇਤਰ	-10.1481
▁ਨਿਸ੍ਸਯੇ	-10.1486
▁ਅਰੂਪਧਾਤੁਯਾ	-10.1489
▁ਅਧਿਕਰਣਂ	-10.1489
▁ਪੁਣ੍ਣ	-10.1497
▁ਅਤ੍ਥਸ੍ਸ	-10.1501
▁ਆਚਿਕ੍ਖ	-10.1501
ਆਦੀਨਂ	-10.1507
▁ਮਙ੍ਗਲ	-10.151
ਾਮੀ	-10.1511
▁ਦਿਟ੍ਠਂ	-10.1513
▁ਮਨ੍ਦ	-10.1518
ਹਿਤ	-10.1519
▁੨੫	-10.1523
▁ਇਦਞ੍ਚ	-10.1524
▁ਪਬ੍ਬਜ੍ਜਾ	-10.1535
ੀਯ	-10.1536
ੀਤਿਕ੍ਕਮ	-10.1537
▁ਕਙ੍ਖਾ	-10.1537
▁ਸਮੁਦਯਸਚ੍ਚਂ	-10.1538
ਮ੍ਭ	-10.1539
ੂਪਸਮ	-10.1549
ਿਦੂਰੇ	-10.1555
▁ਪੁਤ੍ਤਂ	-10.1556
▁ਇਤ੍ਥਨ੍ਨਾਮ	-10.1558
ਦੇਸਿ	-10.1583
▁ਅਕਤ	-10.1585
▁ਨਾਗੋ	-10.1596
ਟ੍ਟਂ	-10.1596
▁ਅਨੁਸਾਸ	-10.1598
▁ਰੋਗ	-10.1599
▁ਬਾਹਿਰ	-10.1608
▁ਸਙ੍ਖਾਰੇ	-10.1611
▁੨੬	-10.1612
▁ਪਦਾਨਿ	-10.1613
▁ਨੇਤਂ	-10.1614
▁ਸੁਗਤੋ	-10.1616
ਰਿਤ੍	-10.1624
▁ਅਭਿਨਨ੍ਦਤਿ	-10.163
ਨਾਤਿ	-10.1632
ਪੁਰਿਸ	-10.1647
▁ਦਲ਼੍ਹ	-10.1653
ਾਯਾਮੋ	-10.1656
▁ਦਾਤਬ੍ਬੋ	-10.1657
ਤ੍ਤੇਨ	-10.1659
▁ਮੁਞ੍ਚ	-10.1662
▁ਕਰੋਨ੍ਤਸ੍ਸ	-10.1662
ਸਾਮਿ	-10.1664
▁ਚਿਤ੍ਤਸਙ੍ਖਾਰੋ	-10.1665
▁ਪਹਾਤਬ੍ਬਂ	-10.1666
▁ਅਜ	-10.1666
ਿਦੋ	-10.1668
▁ਹਨ	-10.1669
▁ਅਚ੍ਛ	-10.1671
▁ਬੋਧਿਸਤ੍ਤਸ੍ਸ	-10.1674
ਿਚ੍ਚੇ	-10.1677
▁ਸੀਤ	-10.1678
ਅਨਨ੍ਤਰੇ	-10.1685
▁ਛਸੁ	-10.1688
▁ਉਦ੍ਦਿਸ੍ਸ	-10.1696
ਪਞ੍ਹੋ	-10.17
ਰੂਪੇ	-10.1706
▁ਨੂਨ	-10.1707
▁ਪਰਿਸਾ	-10.171
ਅਭਿ	-10.1722
▁ਓਭਾਸ	-10.173
▁ਗਮ	-10.173
▁ਉਭਤੋ	-10.1735
▁ਪੁਰੇਜਾਤਂ	-10.1751
▁ਕਸਿਣ	-10.1758
▁ਪੁਥੁਜ੍ਜਨੋ	-10.1758
▁ਖ੍	-10.1761
▁ਆਰਾਮੇ	-10.1761
ੇਗ	-10.1763
ਦੇਸਨਾ	-10.177
▁ਆਗਤਂ	-10.1774
▁ਫੁਸ	-10.1776
▁ਨੇਕ੍ਖਮ੍ਮ	-10.1778
▁ਪਮਾਣਂ	-10.1782
ਰਣਾ	-10.1789
▁੮੩	-10.179
▁ਸੁਨ੍ਦਰ	-10.1794
▁ਬ੍ਯ	-10.1797
ਿਗ੍ਗਹੋ	-10.18
ਤ੍ਤਚੀ	-10.1802
▁ਪਕ੍ਖ	-10.1803
▁ਭੋਜਨ	-10.1804
ਤ੍ਤੇਤਿ	-10.1808
ਸੁਣਾਤੁ	-10.181
▁ਹਿਤ੍	-10.181
▁ਬ੍ਰਾਹ੍ਮਣਂ	-10.1811
ਨਮ੍ਪਿ	-10.1811
▁ਮਨੁਸ੍ਸੇਸੁ	-10.1816
ਤ੍ਯ	-10.182
▁ਸਨ੍ਧਾਯਾਹ	-10.182
▁ਅਦ੍ਧਾ	-10.1821
ਸਙ੍ਖਾਤੋ	-10.1831
ਕਾਨਿ	-10.1835
ਾਧਿਪਤਿ	-10.1835
ਾਸਿਕ	-10.1849
▁੨੮	-10.1849
▁ਦਾਸ	-10.1855
▁੨੭	-10.1856
ਫਲਂ	-10.1857
▁ਸਦਿਸ	-10.1859
ਸਞ੍ਞ	-10.1861
ਿਤ੍ਤਂ	-10.1862
▁ਆਪਨ੍ਨੋ	-10.1863
▁ਪਗ੍ਗਹ	-10.1868
▁ਅਧਿਪਤਿ	-10.1869
ਾਕਾਰ	-10.1871
ਿਮੋਕ੍ਖ	-10.1874
▁ਸਕ੍ਕ	-10.1881
▁ਹਰ	-10.1898
ਟ੍ਠਂ	-10.1906
ਪਾ	-10.1915
ਮਗ੍ਗੋ	-10.1919
▁ਨਿਰਯੇ	-10.192
▁ਸਮ੍ਪਤ੍ਤ	-10.1926
▁ਣ	-10.1934
▁ਸਚ੍ਛਿਕਤ੍	-10.1936
ਾਰਮ੍ਮਣਂ	-10.1939
▁ਅਨਤ੍ਥ	-10.1943
ਭੋ	-10.1944
▁ਮਂਸ	-10.1944
▁ਸਤ੍ਤਮੇ	-10.1945
▁ਖਤ੍ਤਿਯੋ	-10.1958
ਿਸਯੋ	-10.196
ਮ੍ਹ	-10.1963
▁ਝਾਨਸ੍ਸ	-10.1974
▁ਚਤੁਤ੍ਥੇ	-10.1983
ਮਞ੍ਞ	-10.1992
▁ਤਕ੍ਕ	-10.1992
ਮਂਸ	-10.1993
ਭਿਕ੍ਖ	-10.1996
▁ਇਦਮੇ	-10.1997
▁੨੯	-10.1998
ਸਙ੍ਖ	-10.2015
ਮੂਲਕ	-10.2023
▁ਯੋਜੇ	-10.2028
▁੭੪	-10.2029
▁ਧਾ	-10.2029
ੀਯਤੀਤਿ	-10.2039
▁ਸਟ੍ਠਿ	-10.204
▁੩੧	-10.2041
ਜ੍ਜਾ	-10.2049
▁ਪਗੇ	-10.205
▁੮੬	-10.2052
▁ਦਿਟ੍ਠਿਂ	-10.2055
▁ਰਟ੍ਠ	-10.2065
▁ਗਾਮੇ	-10.2067
▁ਹਂਸ	-10.2074
ਿਚ੍ਚ	-10.2082
▁ਮੂਲਂ	-10.2086
▁ਭਣ੍ਡ	-10.2101
ਕਾਯੋ	-10.2102
▁ਲਭ	-10.211
▁ਇਸਿ	-10.2111
▁ਮਾਰੋ	-10.2112
▁ਭਿਕ੍ਖੁਨੀਨਂ	-10.2113
▁੩੦	-10.2114
▁ਛਿਨ੍ਦਿਤ੍	-10.2115
ਧਨ	-10.2116
ਗਤਿ	-10.2117
▁ਅਨਿਚ੍ਚ	-10.2117
ੁਚ੍ਚਤੀ	-10.2118
ਮ੍ਪੀਤਿ	-10.2119
▁ਠਿਤਸ੍ਸ	-10.2127
ਦਣ੍ਡ	-10.2128
▁ਪਰਿਨਿਬ੍ਬਾਯਿਸ੍ਸ	-10.2132
▁੯੦	-10.2134
ਚਨਸ੍ਸ	-10.2135
▁ਉਸ੍ਸ	-10.2146
ਿਮੋਕ੍ਖੋ	-10.2151
ਪਕ੍ਖ	-10.2151
▁ਖਯ	-10.2152
ੁਚ੍ਚਤੇ	-10.2154
▁ਧ	-10.2154
ਿਰਤਿ	-10.2154
▁ਸੁਭ	-10.2159
ਿਜ੍ਜਾਨੁਸਯੋ	-10.2161
▁ਦੋਮਨਸ੍ਸ	-10.217
▁ਜਾਨਿਤ੍	-10.217
▁ਸਹਜਾਤਾਧਿਪਤਿ	-10.2175
▁ਪਸ੍ਸਾਮਿ	-10.2186
▁ਸਕਂ	-10.2187
▁ਮਹਾਭੂਤਂ	-10.2188
▁੧੦੦	-10.219
▁ਨਪ੍ਪਜਹਤਿ	-10.2193
▁ਗੀ	-10.2193
▁ਹਿਤ	-10.2195
▁ਇਚ੍ਛਤਿ	-10.2206
▁ਰਤ੍ਤਿਯਾ	-10.2207
▁ਆਸਨੇ	-10.221
ਮਯਾ	-10.2212
ਸਙ੍ਗਹ	-10.2213
ਯਮਾਨੋ	-10.2214
ਿਕ੍ਖੇਪ	-10.2215
▁ਪਾਤ	-10.2234
▁ਅਰੂਪੇ	-10.224
▁ਏਤਾਨਿ	-10.2242
▁ਅਮ੍ਹੇਹਿ	-10.2243
▁ਸਹੇਤੁਕ	-10.2246
▁ਸੁਚਿ	-10.2255
ਿਟ੍ਠੋ	-10.2261
ਲੋਪੋ	-10.2262
▁ਰਞ੍ਞਾ	-10.2263
ਇਨ੍ਦ੍ਰਿਯ	-10.2266
ਯਤੀਤਿ	-10.2266
▁੮੯	-10.2275
ੁਤ੍ਥ	-10.2276
▁ਇਧਾਪਿ	-10.2289
▁ਖਤ੍ਤਿਯ	-10.2291
▁ਸਦ੍ਧਮ੍ਮ	-10.2292
ਕੋਤਿ	-10.2294
▁ਅਮਤਂ	-10.2295
▁ਮਹਨ੍ਤ	-10.2299
▁ਛਹਿ	-10.231
ਬ੍ਰਾਹ੍ਮਣ	-10.2318
▁ਯੁਤ੍ਤਂ	-10.2319
ਝਾਨ	-10.233
▁ਅਨੁਕਮ੍ਪ	-10.2335
▁ਨਤ੍ਥੀ	-10.234
ਿਚਾਰਸ੍ਸ	-10.2342
▁ਦਸ੍ਸ	-10.2354
ਿਮਾਨਂ	-10.2359
ਚੇਤਨਾ	-10.2363
ਿਨੇਯ੍ਯ	-10.2369
▁ਨਮੋ	-10.2373
▁ਬ੍ਰਹ੍ਮਾ	-10.2373
▁ਕਥਾਯ	-10.2378
▁ਗੇਹ	-10.2382
ਉਪਾਦਿਨ੍ਨੁਪਾਦਾਨਿਯ	-10.2388
▁ਸਤਿਮਾ	-10.2392
▁ਸਞ੍ਜਾਤ	-10.2394
▁ਸਦ੍ਧਿ	-10.2397
ਦਾ	-10.2402
▁ਬਨ੍ਧਿਤ੍	-10.2408
▁ਸਹੇਤੁਕੋ	-10.2409
ਤਾਨਂ	-10.241
▁ਚਤੁਤ੍ਥੋ	-10.2411
ਗ੍ਗਂ	-10.2412
ਪਰਿਚ੍ਛੇਦ	-10.2413
▁ਸਮਣਾ	-10.2415
ਾਦਿਂ	-10.2416
ਲੀ	-10.2419
▁ਸੇਯ੍ਯੋ	-10.2421
▁ਸੇਨਾਸਨ	-10.2424
▁ਬ੍ਯਾਪਾਦ	-10.2432
ਮਤ੍ਤਮ੍ਪਿ	-10.2432
▁ਮੁਦੁ	-10.2434
▁ਇਚ੍ਛ	-10.2437
▁ਏਕੇ	-10.2438
▁ਸਮੋਧਾਨੇਸਿ	-10.2441
▁ਕਣ੍ਣ	-10.2444
▁ਸਤਿਯਾ	-10.2445
▁ਮਞ੍ਞਤਿ	-10.2446
▁ਅਞ੍ਞਮਞ੍ਞੇ	-10.2447
▁ਅਜ੍ਝਾ	-10.2459
▁ਅਭਿਞ੍ਞਾਯ	-10.2464
▁ਮਾਨੋ	-10.2471
▁ਲੋਪੋ	-10.2476
ਿਞ੍ਞੇਯ੍ਯਾ	-10.2479
▁ਛੇਤ੍	-10.2483
▁ਪਰਿਯੇਸ	-10.2484
▁ਉਪ੍ਪਾਦੇਤਿ	-10.2487
▁ਅਹੋ	-10.2494
▁ਤਥ	-10.2495
▁ਕੁਕ੍ਕੁਚ੍ਚਂ	-10.2499
▁ਅਯਞ੍ਚ	-10.25
ਰਞ੍ਞੋ	-10.2511
▁ਸਨ੍ਤਂ	-10.2513
▁ਪੁਗ੍ਗਲਾਨਂ	-10.2517
ਹਰਣ	-10.252
▁ਤਂਤਂ	-10.2529
▁ਅਨਿਚ੍ਚਾ	-10.253
ਅਹੋ	-10.2533
▁੭੦	-10.2538
ਮਾਰ	-10.2543
▁ਨਕੁਸਲੋ	-10.2544
ਰਥ	-10.2549
▁ਬਲਂ	-10.255
▁ਗਬ੍ਭ	-10.2554
▁ਪੁਨਬ੍ਭ	-10.2556
▁ਸੁਣਾਤਿ	-10.2557
▁ਤੇਲ	-10.2558
▁ਅਗ੍ਗਸਾ	-10.256
▁ਪੀਤ	-10.2562
ਗਾਹ	-10.2563
ਿਦ੍ਧ	-10.2563
▁ਸਬ੍ਬਥਾ	-10.2564
ਗਣ	-10.2568
ਕੀ	-10.2571
ਨਾਦਿ	-10.2573
▁੬੯	-10.2579
▁੮੮	-10.2581
ੇਦੀ	-10.2586
▁ਪੂਰ	-10.2589
ਰਤੋ	-10.2589
▁ਯੋਗਾ	-10.2591
▁ਝਾਪਿਤਾ	-10.2593
ਿਭਾਗ	-10.2598
ਗ੍ਗਾਹ	-10.2606
▁ਇਨ੍ਦ੍ਰਿਯੇ	-10.261
ੋਦਕ	-10.2615
ਪੁਗ੍ਗਲ	-10.2615
▁ਤਾਦਿਸਂ	-10.2617
▁ਭਣਤਿ	-10.2619
▁੭੨	-10.2619
▁ਪਰਿਸਾਯ	-10.2623
▁ਤਿਸ੍ਸ	-10.2627
▁ਕੁਸਲੇਸੁ	-10.2629
▁ਗਨ੍ਤੁਂ	-10.2631
▁ਸਭਾਗ	-10.2632
ਦਤ੍ਤ	-10.2633
▁ਪਸਂਸ	-10.2636
ਸਞ੍ਞਂ	-10.2644
▁ਅਕਪ੍ਪਿਯ	-10.2655
▁ਪਠਮਜ੍ਝਾਨ	-10.2658
▁ਥੇਰਾ	-10.2669
ਭੇਦਤੋ	-10.2671
ਣੋ	-10.2678
▁ਸਬ੍ਬਮ੍ਪਿ	-10.2682
▁ਨਿਪਾਤੋ	-10.2687
▁ਅਞ੍ਞੇਹਿ	-10.269
▁ਗਹੇਤਬ੍ਬੋ	-10.269
▁ਉਪ੍ਪਜ੍ਜਿ	-10.2691
▁੩੨	-10.2703
ਭੋਜਨ	-10.2707
▁ਸਬ੍ਬੇਸੁ	-10.2708
ਮ੍ਪ	-10.2713
ਕੁ	-10.2719
ਮਨੁਸ੍ਸਾਨਂ	-10.2727
▁ਅਨ੍ਧ	-10.2735
ਨ੍ਨ	-10.2737
▁ਤਿਕ	-10.2737
▁ਚੁਦ੍ਦਸ	-10.274
▁ਅਪ੍ਪਨਾ	-10.275
▁ਤਮ	-10.2756
▁ਮਗ੍ਗਸਚ੍ਚਂ	-10.2765
ਤ੍ਤਬ੍ਬ	-10.2766
ਨਿਦਾਨ	-10.2767
▁ਅਹ	-10.2769
▁ਅਨਾਗਤਂ	-10.2776
▁ਦਸ੍ਸਿਤੋ	-10.2777
▁੩੩	-10.2778
ਾਰਿਤੋ	-10.2779
▁ਇਚ੍ਛਾ	-10.2784
▁੮੭	-10.2793
ਪਾਲ਼ਿ	-10.2794
▁ਦਾਰੁ	-10.2802
▁ਗਰਹ	-10.2802
ਕਤਂ	-10.2802
▁੩੫	-10.2803
ੁਤ੍ਤਰ	-10.2803
▁ਇਰਿਯਾਪਥ	-10.2803
▁ਕਿਚ੍ਚਂ	-10.2805
ਸਬ੍ਬੇ	-10.281
▁ਪਮਾਦ	-10.2817
ਤ੍ਤਨਤੋ	-10.2818
▁ਅਸਂਕਿਲਿਟ੍ਠ	-10.2818
ਪਨ	-10.2819
▁ਪਣ੍ਣਤ੍ਤਿ	-10.2821
▁ਸਤ੍ਤਾਹਂ	-10.2824
ਤ੍ਤੇਤ੍	-10.2825
ਣ੍ਡ	-10.2827
▁ਪਹਾਤਬ੍ਬਾ	-10.2828
▁ਸਾਲ	-10.2828
ਕ੍	-10.2829
▁ਨਾਨੁਸੇਤਿ	-10.283
▁੭੭	-10.2834
ਰਿਯ	-10.2835
▁ਯਂਕਿਞ੍ਚਿ	-10.2838
▁ਅਗਾਰ	-10.2843
ਇਮਿਨਾ	-10.2846
ਸਙ੍ਖਾਤੇਨ	-10.2847
▁ਸਲ੍ਲਕ੍ਖੇ	-10.2849
▁ਕੁਸਲਾਨਂ	-10.2852
▁ਪਰਮਤ੍ਥ	-10.2854
▁ਕਤ੍ਤਾ	-10.2858
▁ਉਪ੍ਪਲ	-10.2858
ਆਦੀਸੁ	-10.2858
▁ਨਾਮਰੂਪ	-10.2859
▁੭੧	-10.2863
ਲਕ੍ਖਣੋ	-10.2864
ਮਜ੍ਝ	-10.2867
ਭੂਤੇ	-10.2877
ਪੁਗ੍ਗਲੋ	-10.2879
ਅਪ੍ਪ	-10.288
ਿਦਂ	-10.288
ਸਨ੍ਤ	-10.2882
▁ਆਗਮ	-10.2887
ਜ੍ਜੇ	-10.2888
ਯਞ੍ਚ	-10.2888
▁ਉਪੋਸਥਂ	-10.2888
▁ਥੇਰਂ	-10.2891
▁ਅਨੁਸੇਤਿ	-10.2892
▁ਏਤੇਹਿ	-10.2893
▁ਉਪੋਸਥ	-10.2899
ਗਤਾ	-10.2902
▁ਪਕ੍ਕਾਮਿ	-10.2905
▁ਹੇਤਂ	-10.2919
ਿਪਰੀਤ	-10.2925
▁ਜਨੋ	-10.293
▁ਕਾਕ	-10.2932
▁ਧਾਤੁਯਾ	-10.2935
ਨਸ੍ਸ	-10.2935
▁ਸੋਭ	-10.2935
▁ਪਹਾਨਂ	-10.2939
▁ਆਯਤਨ	-10.2947
ਬ	-10.2951
▁ਦਕ੍ਖਿਣ	-10.2952
▁ਸੁਣਾਥ	-10.2956
▁ਣੋ	-10.2959
▁ਅਹੋਸੀਤਿ	-10.2962
ਕਥ	-10.2968
▁ਅਨੁਲੋਮਂ	-10.297
▁ਉਪਮਾ	-10.297
ਨਯੇਨ	-10.2971
ੁਟ੍ਠ	-10.2974
ਬ੍ਯਞ੍ਜਨ	-10.2988
▁ਕਮ੍ਮਾਨਿ	-10.2989
▁੭੩	-10.2989
▁ਆਚਰਿਯੋ	-10.299
▁ਅਤਿਕ੍ਕਮਿਤ੍	-10.3002
▁ਸਿਕ੍ਖ	-10.3008
ਰਕ੍ਖ	-10.301
ਜਾਤ	-10.3013
▁ਚਿਰਂ	-10.3015
ਿਸ੍ਸਜ੍ਜਨ	-10.3018
ਸੀਸ	-10.3021
▁ਪਦਸ੍ਸ	-10.3026
▁ਇਤਿਪਿ	-10.3029
ਕਤਮੋ	-10.303
▁ਇਦਮ	-10.303
▁ਅਞ੍ਞਤਰ	-10.3031
▁ਪਰਿਭੋਗ	-10.3039
ਤ੍ਤਿਯਂ	-10.304
▁੩੪	-10.3045
▁ਅਚ੍ਚਨ੍ਤ	-10.3045
▁ਸਙ੍ਖ	-10.3046
▁ਉਣ੍ਹ	-10.3047
ਮਨੁ	-10.3049
ਕੋਟਿ	-10.3051
▁ਸਾਧੁਕਂ	-10.3051
▁ਆਮਿਸ	-10.3053
▁ਅਸ੍ਸਾਦ	-10.3057
▁੮੨	-10.3057
ਬਹੁ	-10.3058
▁ਅਨੁਜਾਨਾਮਿ	-10.3059
ਿਸ੍ਸਜ੍ਜੇ	-10.306
▁ਪਯੋਗ	-10.306
▁ਤਾਲ	-10.3063
▁ਨਗਰੇ	-10.3064
ਲਮ੍ਬ	-10.3065
▁ਸੋਤਂ	-10.3065
▁ਪੇਸ	-10.3069
▁ਕਞ੍ਚਿ	-10.3073
▁੬੮	-10.3075
ਨਾਗ	-10.3075
ਿਚਾਰਮਤ੍ਤ	-10.3087
ਨ੍ਤਿਆਦਿਮਾਹ	-10.3087
▁ਉਪਾਸਕੋ	-10.309
ਪਬ੍ਬਤ	-10.3095
ਾਰਣ	-10.3099
▁ਰਜ੍ਜ	-10.3106
▁ਮਤਾ	-10.3107
ੀਤ	-10.3108
ਅਞ੍ਞਮਞ੍ਞੇ	-10.3111
▁ਦਦੇਯ੍ਯ	-10.3112
▁ਮਚ੍ਛ	-10.3115
▁ਅਙ੍ਗੇਹਿ	-10.3117
▁ਦੇਸੇਸਿ	-10.3119
ਕਾਰੇਤ੍	-10.312
▁ਓਦਾਤ	-10.312
▁੩੭	-10.3121
▁ਧਞ੍ਞ	-10.3122
▁ਨਿਰੁਜ੍ਝਨ੍ਤਿ	-10.3125
▁ਪਾਕਟਂ	-10.3126
ਯੁ	-10.3126
▁ਛਨ੍ਦਂ	-10.3127
▁ਭਿਨ੍ਦਿਤ੍	-10.3127
ਠ	-10.3129
▁ਕਾਯਕਮ੍ਮਂ	-10.3136
ਿਤਬ੍ਬਾ	-10.3138
ਤਾਨਿ	-10.3138
▁੮੪	-10.3139
ਪਯੋਗ	-10.3142
ਿਤਬ੍ਬਨ੍ਤਿ	-10.3154
▁ਇਨ੍ਦ	-10.3155
ਾਰਿਕ	-10.3158
▁ਧੀਰੋ	-10.3165
▁ਨਾਮੇਨ	-10.3169
ਸਚ੍ਚਂ	-10.317
▁ਏਕੇਕ	-10.317
▁ਅਞ੍ਞੇਪਿ	-10.3173
▁ਖੀਰ	-10.3176
▁ਅਨਾਗਤੇ	-10.3177
ੇਕ੍ਖਣ	-10.3179
▁ਭਣ	-10.3194
▁ਲਦ੍ਧਾ	-10.3196
▁ਆਤਾਪੀ	-10.3201
ਿਨ੍ਦ੍ਰਿਯਂ	-10.3202
▁ਪਮਾਣ	-10.3214
ਤ੍ਤਮਾਨ	-10.3218
▁ਖਿਪ੍ਪਂ	-10.3224
▁ਅਰੂਪ	-10.3227
ਦੁਕ੍ਖਂ	-10.3229
▁ਦਸ੍ਸਿਤਾ	-10.3229
▁ਅਧਿਪ੍ਪੇਤਾ	-10.323
▁੩੬	-10.3231
▁ਭੇਸਜ੍ਜ	-10.3234
ਸਮ੍ਪ	-10.3235
▁ਉਭਿਨ੍ਨਂ	-10.3239
▁ਪੁਰਾਣ	-10.324
▁ਪਭਾ	-10.3241
▁ਸਂਯੋਜਨ	-10.3247
ਰਦ੍	-10.3247
▁ਪਾਪੁਣਿ	-10.325
ੇਦੇਤਿ	-10.3251
▁ਕਤ੍ਤੁ	-10.3252
▁ਖੀਣ	-10.3252
▁ਅਟ੍ਠਕਥਾ	-10.3254
▁ਅਰਿਯਮਗ੍ਗ	-10.3256
▁ਅਸੁਚਿ	-10.3257
▁ਦੇਸਨਂ	-10.3263
ਕਾਰਂ	-10.3264
▁ਆਗਚ੍ਛਤਿ	-10.3266
▁ਅਨਨ੍ਤਰਾ	-10.3272
▁ਹਤ੍ਥੇਨ	-10.3274
ਿਚਯੋ	-10.3275
ਿਧਿ	-10.3275
ਸਮਯੇ	-10.3276
▁ਇਟ੍ਠ	-10.3284
ੁਤ੍ਤਾਤਿ	-10.3289
▁ਕਣ੍ਹ	-10.3291
▁ਪਸ੍ਸਤੋ	-10.3293
ਬਨ੍ਧਨ	-10.3301
▁ਪਬ੍ਬਜਿਤ	-10.3304
▁੮੫	-10.3313
▁ਅਟ੍ਠਙ੍ਗਿਕੋ	-10.3315
▁ਗਹਿਤੋ	-10.3325
▁ਦਨ੍ਤ	-10.3328
ਿਪਾਕਧਮ੍ਮਧਮ੍ਮੋ	-10.3332
▁ਨਿਦਾਨ	-10.3339
▁ਕਿ	-10.3341
ੁਟ੍ਠਹਿਤ੍	-10.3349
▁ਕਾਰਣੇਹਿ	-10.3351
▁ਆਹਰਿ	-10.3353
▁ਖਮਤਿ	-10.336
▁ਉਦਾਨਂ	-10.336
ਸਙ੍ਖਾਰ	-10.3364
ਚਤੁ	-10.3366
▁ਸੁਪ੍ਪ	-10.3368
▁ਅਸ੍ਸਾਦੇਤਿ	-10.337
ਾਦੇਸੋ	-10.3372
▁ਰਸ੍ਸ	-10.3372
▁੩੯	-10.3376
ਤਬ੍ਬ	-10.3381
▁ਸੁਖੇਨ	-10.3382
▁ਇਨ੍ਦ੍ਰਿਯਾਨਿ	-10.3384
▁ਅਗ੍ਗਮਗ੍ਗ	-10.3385
ਸੇਤ੍	-10.3394
▁ਪੁਚ੍ਛਾਮਿ	-10.3399
ਨਾਹਂ	-10.3406
▁ਸਤ੍ਤਨ੍ਨਂ	-10.341
▁ਰਹੋ	-10.3413
ਮਤ੍ਤਾ	-10.3417
▁ਠਿਤਿ	-10.3417
ਾਕ੍ਯ	-10.3421
▁ਦੁਕ੍ਖਤੋ	-10.3424
▁ਅਕਂਸੁ	-10.3426
▁ਓਕਾਸਂ	-10.3426
▁ਪਰਿਤ੍ਤਂ	-10.3435
ਿਞ੍ਞਾਪੇ	-10.344
▁ਚੇਤਸਿਕ	-10.3449
▁ਸਗ੍ਗਂ	-10.345
▁ਮਗ੍ਗਾ	-10.3451
▁ਮਹਾਭੂਤਾ	-10.3453
▁ਪਟਿਗ੍ਗਹੇ	-10.3459
ਚਿਤ੍ਤੇਨ	-10.3463
▁ਪਰਿਪੂਰ	-10.347
▁ਸਰੀਰੇ	-10.347
ੁਦ੍ਧ	-10.3472
▁ਕਾਚਿ	-10.3474
▁ਜਨੇਤਿ	-10.3476
▁ਚਿਤ੍ਤਾਨਿ	-10.3477
▁ਅਪਾਯ	-10.3478
▁ਥੇਰੇਨ	-10.348
▁ਸਮਾਦਾਯ	-10.348
▁੪੧	-10.3482
ਕ੍ਖਤਿ	-10.349
▁੩੮	-10.35
ਾਗਤਂ	-10.3501
▁ਪਰਾਮਾਸ	-10.3507
▁ਪਸ੍ਸਨ੍ਤੋ	-10.3507
ਭੇਦੇਨ	-10.3509
▁ਤਥਾਪਿ	-10.351
▁ਸਮ੍ਪਯੁਤ੍ਤੇ	-10.3513
▁ਏਤ੍ਤਕਂ	-10.3519
ਤਮ	-10.3521
▁ਦੁਤਿਯਾ	-10.3527
ਨ੍ਤਰੇ	-10.3529
ਗ੍ਗਿ	-10.3531
▁ਕਥੇ	-10.3531
▁ਪਾਕਟੋ	-10.3534
ਆਹਾਰੇ	-10.3535
▁ਤਤ੍ਰਾਯਂ	-10.3543
ਮਾਸ	-10.3546
▁ਉਪਪਜ੍ਜਤਿ	-10.3547
▁ਅਤਿਕ੍ਕਮ	-10.3556
▁ਭੂ	-10.3559
ਸਞ੍ਞਿਨੋ	-10.3565
▁ਅਕੁਸਲਾਨਂ	-10.3565
▁ਇਤ੍ਥਿਯੋ	-10.3565
▁ਸਤਿਪਟ੍ਠਾਨ	-10.3567
▁ਸਨ੍ਤਕਂ	-10.3569
ੋਯੇ	-10.357
▁ਸਮ੍ਪਯੁਤ੍ਤਂ	-10.3575
▁ਅਨਤ੍ਤਾ	-10.3578
ਸ੍ਸੇਤਂ	-10.3578
▁ਚਰੇ	-10.3581
▁ਸਮ੍ਪਯੁਤ੍ਤ	-10.3583
ਿਮੁਤ੍ਤਿਯਾ	-10.3587
▁ਸੇਟ੍ਠੋ	-10.3587
▁ਛਿਨ੍ਦ	-10.3592
ੇਸਨ	-10.3592
▁ਪਣੀਤ	-10.3594
▁ਕਤ੍ਤਬ੍ਬ	-10.3595
ਭਾਗ	-10.3599
▁ਯਞ੍ਞ	-10.3602
▁ਪਾਤਿਮੋਕ੍ਖਂ	-10.3605
▁ਜਰਾਮਰਣਂ	-10.3606
ਿਮੁਤ੍ਤ	-10.3607
▁ਦੋਸਂ	-10.3607
▁ਇਤ੍ਥਿਯਾ	-10.3609
ਪ੍ਪਮਾਣ	-10.3609
▁੯੧	-10.3611
ਮਣ੍ਡਲ	-10.3611
▁੪੦	-10.3613
▁ਅਨਾਥਪਿਣ੍ਡਿਕਸ੍ਸ	-10.3618
▁ਲਕ੍ਖਣਂ	-10.3618
▁ਅਨਗਾਰਿਯਂ	-10.3621
▁ਭਦ੍ਦ	-10.3628
▁ਸਮ੍ਮਦ	-10.3634
ਮਜ੍ਝੇ	-10.3637
ਤ੍ਥਾਨਂ	-10.3638
▁ਮਤੋ	-10.364
▁ਸਮਾਪਤ੍ਤਿ	-10.3647
▁ਕਾਯਿਕਂ	-10.3648
▁ਰਾਜਾਨੋ	-10.365
ਪਾਤ	-10.365
ਾਰਹ	-10.365
▁ਆਕਾਸ	-10.3655
ਅਟ੍ਠ	-10.3657
▁ਘਾਨ	-10.3671
▁ਆਚਾਰ	-10.3675
▁ਦਿਸਂ	-10.368
ਿਤਨ੍ਤਿ	-10.3699
ਧੀ	-10.37
ਤਾਦਿ	-10.37
▁ਭਜ	-10.3704
▁੭੫	-10.3717
▁੯੫	-10.3718
▁ਅਨੁਪੁਬ੍ਬ	-10.3721
ਿਹਰੇਯ੍ਯ	-10.3722
ਰਸੋ	-10.3723
▁ਬਨ੍ਧਨ	-10.3724
▁ਸਾਮਂ	-10.3731
▁ਗਿਲਾਨ	-10.3733
▁ਪੁਬ੍ਬਭਾਗ	-10.3734
▁ਅਟ੍ਠਿ	-10.3737
▁ਆਕਾਰੇਹਿ	-10.3739
ਿਞ੍ਞੇਯ੍ਯਮੇ	-10.374
▁ਚਰਨ੍ਤਿ	-10.3748
▁ਹੇਟ੍ਠਿਮ	-10.375
▁ਪਚ੍ਚਯੇ	-10.3754
▁ਸਨ੍ਧਿ	-10.3756
▁ਕੀਲ਼	-10.3759
▁ਸੁਕ੍ਖ	-10.3763
▁੪੪	-10.3763
▁ਯ੍	-10.3767
▁ਖੇਤ੍ਤ	-10.3772
▁ਸਮੁਦ੍ਦ	-10.3778
▁ਇਤਰੇ	-10.3779
▁ਕਤਤ੍ਤਾ	-10.378
ਜੋ	-10.3783
ਸਂਯੁਤ੍ਤ	-10.3785
▁ਗਹੇਤੁਂ	-10.3788
ਮੀ	-10.3791
▁੪੩	-10.3791
▁ਦੁਬ੍ਬਲ	-10.3792
▁ਕਾਰੇਸਿ	-10.3796
ਕਾਲਤੋ	-10.3796
▁ਸਮ੍ਪਯੁਤ੍ਤਕਾ	-10.3799
▁੫੦	-10.3803
▁ਲਾਭੀ	-10.3804
ਸਙ੍ਖਾਤੇ	-10.381
▁ਕਿਲੇਸਾਨਂ	-10.3815
ਙ੍ਗੁਲ	-10.3816
▁ਆਮ	-10.3818
▁ਬਦ੍ਧ	-10.3833
▁ਦਿਬ੍ਬਚਕ੍ਖੁ	-10.3844
▁ਮਞ੍ਞਸਿ	-10.3845
▁ਕੋਟਿ	-10.3845
▁ਪਹੀਨ	-10.3845
▁੪੫	-10.3847
ਤ੍ਥੇਨ	-10.3848
ਸਤ੍ਥ	-10.3852
▁ਮਰ	-10.3862
▁ਪਟਿਸਮ੍ਭਿਦਾ	-10.3862
▁ਅਯਞ੍ਹਿ	-10.3864
▁੭੮	-10.3864
▁ਦੀਘਰਤ੍ਤਂ	-10.387
ਪਾਪ	-10.3871
ਿਕਾਰ	-10.3872
▁੪੨	-10.3873
▁ਹਿਤਾਯ	-10.3873
▁ਪਟਿਲਦ੍ਧ	-10.388
▁ਪਣੀਤਂ	-10.3883
▁ਛਟ੍ਠ	-10.3885
▁ਪਾਣਾਤਿਪਾਤਾ	-10.3888
▁ਜਨੇ	-10.3888
ਹਰਿਤ੍	-10.3889
ਿਚਿਨ	-10.3892
▁ਯੋਗ	-10.3895
▁੪੬	-10.3896
▁ਸਤ੍ਥੁਨੋ	-10.3897
▁੯੮	-10.3899
▁ਅਨੁਸੇਨ੍ਤਿ	-10.3903
▁ਕਾਮਂ	-10.3908
ੁਟ੍ਠਾਯ	-10.3913
▁ਪੁਰਿਸਾ	-10.3915
▁ਯਾਥਾ	-10.3918
ਨ੍ਨਂ	-10.3919
ਦਿਸਂ	-10.392
▁ਭਾਸਿਤਾ	-10.392
▁ਅਙ੍ਗਂ	-10.3924
▁ਪੁਰਿਸਂ	-10.3926
▁੪੯	-10.3933
▁ਅਨ੍ਤਰੇ	-10.3934
▁ਆਰਾਮ	-10.394
▁੪੭	-10.3941
▁ਭੇਦੋ	-10.3945
ਜਾਤੋ	-10.3946
▁ਮਤ	-10.3949
▁ਪਾਪਕਾ	-10.3953
ਿਸਤਿ	-10.3957
ਨੀਤਿ	-10.3958
▁ਦੁਸ੍ਸ	-10.3958
▁ਯਮਕ	-10.3959
▁ਭਣ੍ਡਂ	-10.3961
ਚਨਨ੍ਤਿ	-10.3964
ਸਮਾ	-10.3964
ਾਦੇਨ	-10.3965
▁ਸੋਕ	-10.3967
▁ਸਤ੍ਤਹਿ	-10.3968
ਤ੍ਥਿਨਿਦਾਨਂ	-10.397
▁ਭੁਞ੍ਜਤਿ	-10.397
ਰਨ੍ਤਿ	-10.3971
ਤ੍ਥਞ੍ਚ	-10.3972
▁ਇਤ੍ਥਨ੍ਨਾਮਸ੍ਸ	-10.3974
▁ਯਸੋ	-10.3977
ਮਕਾਸਿ	-10.398
ਮਾਨਸ੍ਸ	-10.3981
ਆਮ	-10.3988
ੇਸੇਤ੍	-10.3991
ਕ੍ਕਮ	-10.3995
ਪਰਿਭੋਗ	-10.3996
▁ਏਤੇਸਨ੍ਤਿ	-10.3997
▁ਸਿਕ੍ਖਤਿ	-10.4
▁ਅਧਿਕਰਣ	-10.4
ਸਮ੍ਬਨ੍ਧ	-10.4002
ਪੁਰਿਸੋ	-10.4004
▁ਕਥੇਤਿ	-10.4004
▁ਦਬ੍ਬ	-10.4008
ੇਮਤਿਕੋ	-10.401
▁ਮਹਾਨਾਮ	-10.4019
ੇਸਨਂ	-10.4022
▁ਭੂਮਿਯਂ	-10.4022
ੀਥਿ	-10.4023
▁ਦੇਸਨਾਯ	-10.4025
▁ਸਮਯ	-10.4029
ੇਤਬ੍ਬ	-10.4029
▁ਤਾਦਿਸੋ	-10.403
▁੮੦	-10.4031
▁ਆਪਤ੍ਤਿਸਮੁਟ੍ਠਾਨ	-10.4031
▁ਜਿਣ੍ਣ	-10.4032
▁ਅਤੀਤਾਨਾਗਤ	-10.4041
ਗਮਨਂ	-10.4044
▁ਸਙ੍ਖਂ	-10.4054
▁ਪਕਾਸਿਤਾ	-10.4057
▁ਉਪਟ੍ਠਾਨ	-10.4064
▁੯੨	-10.4066
▁ਯੁਤ੍ਤੋ	-10.4069
ਪ੍	-10.4073
▁ਯਸ	-10.4075
▁੯੩	-10.4082
ਪੁਰ	-10.4086
▁ਨਿਸਿਨ੍ਨਂ	-10.4087
ਾਧਿਕ	-10.4096
ਿਹ	-10.4098
▁ਯਨ੍ਤਿ	-10.41
▁ਸਙ੍ਖੇਪਤੋ	-10.4101
ਾਮੀਤਿ	-10.4105
ੀਯਤੇ	-10.4113
ਯੀ	-10.4116
ਭੂਮਿਯਂ	-10.4119
ਿਸ੍ਸਟ੍ਠ	-10.4121
▁ਦਿਟ੍ਠੋ	-10.4125
▁ਪਚ੍ਛਤੋ	-10.4127
ਯੋਜਨ	-10.4132
ਾਰਿ	-10.4136
ੁਤਿ	-10.4143
ਭਤ੍ਤਂ	-10.4148
ਕਾਲਿਕ	-10.415
▁ਨਿਕ੍ਕ	-10.4151
ਮਾਨੇ	-10.4151
▁ਉਪਪਰਿਕ੍ਖ	-10.4153
▁ਆਪਤ੍ਤੀਨਂ	-10.4157
ਕਤੋ	-10.4162
▁ਸਹਾਯ	-10.4167
▁ਸਕ੍ਕਚ੍ਚਂ	-10.4169
ਿਤਾਨਿ	-10.417
▁ਦੇਸ	-10.4171
ਬਲਂ	-10.4171
▁ਦਸਹਿ	-10.4174
▁ਏਕੂਨ	-10.419
ਟ੍ਟੇ	-10.4193
ਪਤ੍ਤੋ	-10.4199
ਾਟ	-10.42
▁੮੧	-10.4204
▁ਯਮ੍ਪਿ	-10.4205
ਸਮ੍ਮ	-10.4205
▁ਰਜ	-10.4216
▁ਦਲ਼੍ਹਂ	-10.4218
▁ਤਮਹਂ	-10.4223
ਭਯਂ	-10.4223
ਾਪੀਤਿ	-10.4224
ਿਨਯੇਨ	-10.4226
ਿਸਭਾਗ	-10.4228
▁ਗਨ੍ਤਬ੍ਬਂ	-10.423
▁ਪਞ੍ਚਮੇ	-10.4234
▁੯੬	-10.4234
ਯੁਤ੍ਤ	-10.4239
▁ਗਮਨਂ	-10.4241
▁ਰਮ	-10.4249
▁ਸਙ੍ਘਾਦਿਸੇਸਸ੍ਸ	-10.4251
ਸ੍ਸਾਮੀ	-10.4259
ਮਿਗ	-10.4272
▁ਦਿਬ੍ਬੇਨ	-10.4272
ਿਤ੍ਤ	-10.4278
ਯਨ੍ਤੋ	-10.4283
▁ਰਕ੍ਖਤਿ	-10.4286
ਲਸ੍ਸ	-10.429
▁ਪਪਞ੍ਚ	-10.4299
▁ਸਿਰਿ	-10.43
▁ਪਜਹ	-10.4302
▁ਦੇਨ੍ਤਿ	-10.4309
▁ਪਚ੍ਚਯਾਨੁਲੋਮਂ	-10.431
ਯਾਤਿ	-10.431
▁ਇਧੇ	-10.4313
▁ਮਦ੍ਦ	-10.4316
▁੫੫	-10.4317
ਰਾਗੋ	-10.4337
▁ਆਰੋਚੇਸਿ	-10.434
ਿਤੁਕਾਮੋ	-10.4341
ਸਮ੍ਪਤ੍ਤਿਂ	-10.4342
▁ਅਗ੍ਘ	-10.4345
▁ਅਹਮ੍ਪਿ	-10.4345
ਸਞ੍ਚ	-10.4354
ੁਤ੍ਤੋਤਿ	-10.436
▁ਭਿਕ੍ਖੁਸਙ੍ਘਸ੍ਸ	-10.4362
▁ਕਾਰਣਾ	-10.4365
▁ਕ੍ਰਿਯਾ	-10.4366
▁ਨਿਬ੍ਬ	-10.4366
▁੯੪	-10.4369
▁ਪਟਿਪਤ੍ਤਿ	-10.4373
▁ਅਪ੍ਪਮਾਦ	-10.4375
▁ਦਸ੍ਸਨਾਯ	-10.4375
▁ਕਾਮਭ	-10.4376
▁ਕਾਰਾਪੇ	-10.4376
ਪਾਕ	-10.4377
▁ਚਤੁਰੋ	-10.4377
ੇਕੋ	-10.4377
▁ਅਬ੍ਯਾਕਤਸ੍ਸ	-10.4379
▁ਪਿਣ੍ਡ	-10.4383
ਮਗ੍ਗਂ	-10.4384
ੇਦਿਤਬ੍ਬਾਨਿ	-10.4387
▁੪੮	-10.4389
▁ਅਥੋ	-10.4393
▁ਮਞ੍ਞ	-10.4396
▁ਤਮ੍ਹਾ	-10.44
ਾਨਿਪਿ	-10.44
ਿਚਾਰਮਤ੍ਤੋ	-10.4401
▁ਅਨਿ	-10.4403
▁ਪਹਾਤਬ੍ਬਹੇਤੁਕਂ	-10.4403
▁ਅਰਹਤ੍ਤ	-10.4403
▁ਕਾਤਬ੍ਬਾ	-10.4407
▁ਪਤ੍ਤੇ	-10.4409
ਚਰਿਯਾ	-10.4422
▁ਸਮ੍ਬੁਦ੍ਧੋ	-10.4425
▁ਕਚ੍ਚਿ	-10.4426
▁ਸਂਸਟ੍ਠੋ	-10.4426
▁ਉਚ੍ਚ	-10.4426
▁ਨਿਰੁਜ੍ਝਿਸ੍ਸਤੀਤਿ	-10.4426
ਪਦਾਨਂ	-10.4429
▁ਚਾਰਿਕਂ	-10.4431
ਿਸ੍ਸਾਮ	-10.4433
ਪਰਿਯਾਯ	-10.4437
▁ਅਪਰੇ	-10.4444
▁ਫਲਸ੍ਸ	-10.4447
▁ਅਟ੍ਠਙ੍ਗਿਕ	-10.4448
ਿਚਿਤ੍ਤ	-10.445
▁ਕਬਲ਼ੀਕਾਰੋ	-10.4458
ੇਕ੍ਖਤਿ	-10.4468
▁ਸਨ੍ਧਾ	-10.4468
▁ਇਮਮਤ੍ਥਂ	-10.4473
▁ਪਿਯਾ	-10.4476
▁ਤਰੁਣ	-10.4478
▁ਕਟਤ੍ਤਾਰੂਪਂ	-10.4482
▁ਆਲ਼	-10.4483
▁ਨੀਹਰ	-10.4483
ਟ੍ਟੋ	-10.4484
▁ਓਲੋਕੇਨ੍ਤੋ	-10.4486
▁ਨਿਰਨੁਸਯੋ	-10.4488
ਜਾਨ	-10.4489
ਸਮਾਪਤ੍ਤਿ	-10.4489
ਸਨ	-10.4491
ਿਞ੍ਞਾਤ	-10.4492
ਪ੍ਪਹਾਨ	-10.4493
ਣਿ	-10.4493
ਧਨਂ	-10.4495
▁ਤਦਤ੍ਥ	-10.4495
▁ਸਮੁਦਯ	-10.4497
▁ਪਚ੍ਚਯਚਤੁਕ੍ਕਂ	-10.4497
ਸਙ੍ਖਾਤਸ੍ਸ	-10.4499
ਿਸਦ	-10.45
▁ਸਪ੍ਪਿ	-10.4501
▁ਪਰੇਹਿ	-10.4506
ੀਰੋ	-10.4507
▁ਨਦਸ੍ਸਨੇਨ	-10.4508
▁ਜੇਟ੍ਠ	-10.451
ਾਚਤੋ	-10.4513
▁ਬਹੁਲਂ	-10.4514
▁ਪਾਰਾਜਿਕਸ੍ਸ	-10.4516
▁ਲਦ੍ਧਂ	-10.4517
ਸਂਯੋਜਨ	-10.4518
▁ਘਨ	-10.4521
▁ਸਾਮਣੇਰੋ	-10.4521
ਸਦ੍ਦਾ	-10.4522
▁ਕੁਸ	-10.4523
▁ਜਰਾਮਰਣ	-10.4523
▁ਮਂਸਂ	-10.4523
ਾਸਿਕੋ	-10.4528
▁ਨਿਦ੍ਦੇਸ	-10.453
ਿਕ੍ਖਮ੍ਭਨ	-10.4539
ਪੋ	-10.4539
ਸਸ੍ਸ	-10.4545
ਿਪ੍ਪਯੁਤ੍ਤਪਚ੍ਚਯਾ	-10.4547
ਮਨਸਿਕਾਰ	-10.4549
▁ਗੇਹੇ	-10.4549
ਸ੍ਸਾਮਿ	-10.4563
▁ਤਿਟ੍ਠ	-10.4563
▁ਪਞ੍ਚਮੋ	-10.4565
▁ਦਸ੍ਸੇਤੁਮਾਹ	-10.4568
▁ਲਾਮਕ	-10.4577
▁ਅਞ੍ਞਾਣ	-10.4578
ਕੁਲੇ	-10.4582
▁੫੧	-10.4584
ਿਧਾਨ	-10.4587
▁ਆਹਰ	-10.4589
ਤਬ੍ਬਂ	-10.4598
ਜਾਨਨ	-10.4599
▁ਘਰ	-10.4604
▁ਅਪੇਕ੍ਖ	-10.4607
ਯੁਤ੍ਤੋ	-10.4607
▁ਅਪਰੋ	-10.461
ਮ੍ਹੀਤਿ	-10.4614
ਿਮਂ	-10.4616
▁ਪਚ੍ਛਾਜਾਤਪਚ੍ਚਯੇਨ	-10.4618
▁ਸਮ੍ਪਨ੍ਨ	-10.4622
▁ਉਲ਼ਾਰ	-10.4624
▁ਲਦ੍ਧਿ	-10.4627
ਲਾਭ	-10.4629
ਸਮਂ	-10.463
ਤ੍ਥਸ੍ਸ	-10.4631
ਸਨਿਦਸ੍ਸਨਸਪ੍ਪਟਿਘਂ	-10.4632
▁ਅਨੁਪਾਦਿਨ੍ਨ	-10.4632
▁ਅਧਿਗਤ	-10.4639
▁ਤਿਣ੍ਣਨ੍ਨਂ	-10.4639
ਯਦਿ	-10.4642
▁ਕਥਿਤੋ	-10.4643
ਿਨ	-10.4646
▁ਛਨ੍ਨ	-10.4647
ਿਤਤ੍ਤਂ	-10.4647
▁ਇਤਰੋ	-10.465
▁ਸੁਦ੍ਧਂ	-10.465
ਤ੍ਤਭਾ	-10.4652
ਤ੍ਥੁਕਾ	-10.4654
▁੫੨	-10.4655
▁ਗੁਤ੍ਤ	-10.4656
▁ਆਰਦ੍ਧਂ	-10.4661
▁ਸੁਤਨ੍ਤਿ	-10.4664
▁ਬਹੁਲੀਕਤਾ	-10.4671
▁ਸਞ੍ਞਂ	-10.4673
ਨ੍ਤੇਹਿ	-10.4673
▁੧੧੫	-10.4673
▁ਉਪਯੋਗ	-10.4673
▁ਆਹਾਰਂ	-10.4677
▁ਤਥਾਗਤਂ	-10.4678
▁੫੪	-10.468
▁ਲਗ੍ਗ	-10.4684
ਚੋ	-10.4685
▁ਸੋਤਾਪਨ੍ਨੋ	-10.4699
ਸਮੁਟ੍ਠਾਨਂ	-10.4702
▁੯੯	-10.4702
ਿਸ੍ਸਂ	-10.4705
▁੭੯	-10.4706
ੇਤੀ	-10.4709
▁ਤਰ	-10.4712
▁ਗੇਹਂ	-10.4717
▁ਕੂਟ	-10.472
▁ਪਰਿਸੁਦ੍ਧ	-10.472
ੇਗੇਨ	-10.4722
ਰਜ	-10.4725
▁੧੧੦	-10.4725
ਸਮ੍ਪਯੁਤ੍ਤੋ	-10.4727
▁ਨਨਹੇਤੁ	-10.4732
▁ਲਬ੍ਭਨ੍ਤਿ	-10.4732
ਦਯੋ	-10.4737
▁ਪਚ੍ਚਤ੍ਤ	-10.474
ਰੂਪੇਨ	-10.4742
▁ਜਾਨਾਤੀਤਿ	-10.4744
ਿਕਪ੍ਪ	-10.4747
▁ਸੇਸੇਸੁਪਿ	-10.4748
▁੫੩	-10.4753
▁੭੬	-10.4755
▁ਕਤ੍ਤਰਿ	-10.4756
▁ਅਭਿਭੁਯ੍ਯ	-10.4761
▁ਸਮ੍ਮੁਤਿ	-10.4761
ਚੀਕਮ੍ਮਂ	-10.4763
ਦਨ੍ਤ	-10.4767
▁ਸਨ੍ਦ	-10.4769
ਲਦ੍ਧ	-10.4773
▁ਸਦ੍ਦਾ	-10.4774
▁ਪਿਣ੍ਡਪਾਤ	-10.4775
ੋਹਾਰੋ	-10.4776
▁ਕਾਯਤੋ	-10.4777
▁ਅਸ੍ਸੁ	-10.4779
▁ਤਮੇਨਂ	-10.4783
▁ਪਾਤੋ	-10.4784
ਰਾਗਾਨੁਸਯੋ	-10.4791
▁ਮੁਤ੍ਤੋ	-10.4793
▁ਸਙ੍ਕ	-10.4798
▁੧੦੮	-10.4802
▁ਨੀਹਰਿਤ੍	-10.4809
▁ਪੁਤ੍ਤਾ	-10.4809
▁ਅਦੁਕ੍ਖਮਸੁਖਾਯ	-10.481
▁ਕਰਣੀਯਂ	-10.4811
ਯਦਾ	-10.4817
ਪੇਕ੍ਖ	-10.4817
ਿਨ੍ਦ੍ਰਿਯ	-10.4818
ੁਤ੍ਤਮ੍ਪਿ	-10.4819
ਚਿਤ੍ਤਾ	-10.4819
▁ਪਨਾਯਂ	-10.4821
ੀਯਨ੍ਤਿ	-10.4821
▁ਖੇਮ	-10.4823
▁ਅਦ੍ਦਸ	-10.4827
▁ਅਲ	-10.4831
▁ਬ੍ਯਾਕਾਸਿ	-10.4832
▁ਪਿਯੋ	-10.4833
ਨ੍ਤੇਸੁ	-10.4835
▁ਤਿਕ੍ਖਤ੍ਤੁਂ	-10.4835
ਕਿਰਿਯ	-10.4842
ਿਪਰਿਣਾਮ	-10.4848
▁ਮੇਥੁਨ	-10.4865
▁ਪਰਿਨਿਬ੍ਬਨ੍ਤਾਨ	-10.4872
▁ਨਾਹਂ	-10.4874
ਬੀਜ	-10.4874
ਿਮਤਿ	-10.4877
▁ਸਚੇਪਿ	-10.4877
▁ਤਤਿਯਾ	-10.4881
▁ਸਤ੍ਥਰਿ	-10.4882
▁ਅਹੇਤੁਕਂ	-10.4887
▁ਚੇਤਿਯ	-10.4887
▁ਘਾਤ	-10.4889
ੀਰਿਯੋ	-10.4893
▁ਲਬ੍ਭਮਾਨ	-10.4893
▁ਠਪੇਸਿ	-10.4894
ਥਾਤਿ	-10.4896
ਰੋਗ	-10.4897
ਕਟ੍ਠ	-10.4899
ਗ੍ਗਾ	-10.4899
▁੫੭	-10.49
▁ਪਚ੍ਚੇਕਂ	-10.49
▁ਅਧਮ੍ਮ	-10.4904
▁ਏਕੇਨਾਯਤਨੇਨ	-10.4905
ੇਰਮਣੀ	-10.4906
ਦਿਟ੍ਠ	-10.4929
▁ਪਰਿਹਾਯਤਿ	-10.4932
▁ਅਰਹਨ੍ਤੋ	-10.4933
▁ਪਟਿਪਕ੍ਖ	-10.4934
▁ਗਾਰ	-10.4937
▁ਪਟ	-10.4938
ਮਾਣ	-10.4939
ਾਗਮ	-10.4942
▁ਪਤਿਤ	-10.4945
▁ਉਪੇਤਿ	-10.4947
▁੫੬	-10.4949
▁ਨਿਯਤ	-10.4955
▁ਉਦ੍ਧਚ੍ਚ	-10.4956
ਸਮ੍ਪਯੁਤ੍ਤਾ	-10.4958
▁ਸਿਪ੍ਪ	-10.4969
ਪਦਾਨਿ	-10.4972
▁ਸੁਖੁਮ	-10.4978
▁ਚਕ੍ਖੁਮਾ	-10.4978
▁ਮਹੇਸਿਨੋ	-10.4981
ਟੋ	-10.4987
▁ਪਸਨ੍ਨੋ	-10.4993
▁ਯਕ੍ਖੋ	-10.4996
ਾਭਿਨਿ	-10.4998
▁੧੦੩	-10.4999
ਾਰਣਂ	-10.5
ਿਨਾਸ	-10.5002
▁ਨਾਪਿ	-10.501
ਗਮ	-10.5013
▁ਦੂਰ	-10.5017
ਨਇਨ੍ਦ੍ਰਿਯੇ	-10.5018
▁ਚਿਤ੍ਤਞ੍ਚ	-10.5018
▁ਗੋਤਮਸ੍ਸ	-10.5019
▁ਬ	-10.5023
੍ਯਾ	-10.5023
ਰੂਪਾਨਿ	-10.5029
▁ਇਨ੍ਦ੍ਰਿਯਾਨਂ	-10.5029
▁ਅਸਿ	-10.5029
▁ਸਮਯੋ	-10.5031
▁ਚਮ੍ਮ	-10.5032
▁ਜਾਨਂ	-10.504
▁ਕੁਮਾਰੋ	-10.5041
▁ਦਿਟ੍ਠਿਗਤ	-10.5042
▁ਨਅਧਿਪਤਿਪਚ੍ਚਯਾ	-10.5043
▁ਮਾਤਿਕਾ	-10.5044
ਇਤੋ	-10.5046
▁ਪੁਥੁਜ੍ਜਨ	-10.505
ਬੋਧ	-10.5052
▁ਆਰੋਚੇ	-10.5056
ਿਧਾਯ	-10.5062
ਹਨ੍ਤਿ	-10.5064
ਭੂ	-10.5067
ਿਸ੍ਸਨ੍ਤੀ	-10.5072
ਿਭਾਗੋ	-10.5077
ਮ੍ਹੀ	-10.5078
▁ਪੇਤ	-10.5079
▁ਪਕ੍ਕ	-10.5086
ਨਗਰੇ	-10.509
ਨਿਰੋਧ	-10.5091
▁੧੦੭	-10.5092
▁ਸੁਗਤਿਂ	-10.5095
▁ਸਪ੍ਪ	-10.5098
▁ਕਾਮਰਾਗਾਨੁਸਯੇਨ	-10.51
▁ਜਾਨ	-10.5105
▁ਗੋਤ੍ਰਭੁ	-10.5109
▁ਸਤਿਪਟ੍ਠਾਨਾ	-10.5119
▁ਸਮੁਟ੍ਠਾਨ	-10.5122
▁ਨਆਰਮ੍ਮਣਪਚ੍ਚਯਾ	-10.5125
▁ਚਾਯਂ	-10.5128
▁ਪਸ੍ਸਿਤ੍	-10.5136
▁ਅਕ੍ਖਰ	-10.5145
▁ਸਬ੍ਬਦਾ	-10.5145
ੁਪ੍ਪਾਦ	-10.5152
▁ਕਾਯਾਯਤਨਂ	-10.5155
ਪੁਚ੍ਛ	-10.5155
ਿਞ੍ਞੇਯ੍ਯਂ	-10.5158
ਿਪਲ੍ਲਾਸ	-10.5161
▁ਓਕਾਸ	-10.5162
▁ਧਮ੍ਮਦੇਸਨਾ	-10.5164
ਿਚ੍ਛ	-10.5166
ਣੀ	-10.5166
▁ਸਤ੍ਤਾਹ	-10.5175
ਕੋਟ੍ਠਾਸ	-10.5175
ਮਣਿ	-10.5183
▁ਪਣ੍ਣ	-10.5185
▁ਤਾਦਿਸ	-10.5187
ਤਰਾ	-10.5187
▁ਕੁਮ੍ਭ	-10.5188
▁ਚਕ੍ਖੁਨ੍ਦ੍ਰਿਯਞ੍ਚ	-10.519
▁ਥੋਕਂ	-10.5193
ਕਿ	-10.5198
▁੧੧੨	-10.5198
▁ਮਾਸ	-10.5199
▁ਖਨ੍ਤਿ	-10.5201
▁੯੭	-10.5203
▁ਬੁਦ੍ਧੇ	-10.5203
ਤ੍ਤਮਾਨੇ	-10.5204
▁ਗਹ	-10.5205
▁ਤਬ੍ਬ	-10.5206
▁ਉਦ੍ਧਰ	-10.5206
▁ਆਹਾਰਪਚ੍ਚਯੇਨ	-10.521
▁ਤਿਕਂ	-10.5222
▁ਉਪਪਜ੍ਜ	-10.5223
ਦੁਤਿਯ	-10.5224
▁ਸਮਨ੍ਨਾਗਤਸ੍ਸ	-10.5226
▁ਉਭੋਪਿ	-10.5228
▁ਕਲ	-10.5238
▁ਪਰਿਸ	-10.5244
▁ਪੁਰੇਜਾਤੇ	-10.5245
▁ਸੁਮਨੋ	-10.5245
▁੧੦੧	-10.5248
▁ਆਗਚ੍ਛਨ੍ਤਿ	-10.5249
▁ਆਗਮਨ	-10.5253
▁ਨਿਸੀਦ	-10.5253
▁ਨਿਸਿਨ੍ਨਾ	-10.5253
ਸ੍ਮਿਨ੍ਤਿ	-10.5253
▁ਪੁਰਿਮਨਯੇਨ	-10.5253
ਸਞ੍ਞਾਨਾਸਞ੍ਞਾਯਤਨ	-10.5256
▁ਬਾਰਾਣਸਿਯਂ	-10.5261
ਸਙ੍ਕ	-10.5262
▁ਪਕਤਿਯਾ	-10.5264
ਨਗਰ	-10.5267
▁ਮਾਨਸਂ	-10.5269
ਨਿਬ੍ਬਾਨ	-10.5269
▁ਜਿਗੁਚ੍ਛ	-10.527
ਪਞ੍ਞ	-10.5271
▁੫੮	-10.5273
ਪਿਣ੍ਡ	-10.5275
▁ਨਅਬ੍ਯਾਕਤ	-10.5276
▁ਚਤੁਸਚ੍ਚ	-10.5279
▁ਹਾਰੋ	-10.528
▁ਨੋਉਪਾਦਾ	-10.5287
▁ਅਟ੍ਠਮੇ	-10.5287
ੀਸਤਿਯਾ	-10.5289
▁੬੩	-10.5299
▁ਹਦਯਂ	-10.53
▁ਚਿਰ	-10.5301
▁ਅਨਤ੍ਤਤੋ	-10.5302
ਯਿਂ	-10.5308
▁ਪਬ੍ਬਜ੍ਜਂ	-10.5308
ਕਾਰਣਾ	-10.5308
▁ਉਪਪਤ੍ਤਿ	-10.5309
▁ਪਞ੍ਚਹਙ੍ਗੇਹਿ	-10.5312
▁ਅਞ੍ਜਲਿਂ	-10.5314
ਾਨਮ	-10.5315
▁ਸਙ੍ਖਾਰਾਨਂ	-10.5319
▁੧੧੮	-10.532
▁ਖਣ੍ਡ	-10.5322
▁ਸਿਯੁਂ	-10.5323
▁ਪਤ	-10.5329
ਰਤਿ	-10.5333
▁ਪਕਾਸੇ	-10.5335
▁ਅਯਮਤ੍ਥੋ	-10.5338
▁ਸਸ੍ਸ	-10.5343
ਤ੍ਥੁਨਾ	-10.5343
▁ਇਤਰਸ੍ਸ	-10.5346
▁ਪਬ੍ਬਾਜ	-10.5347
▁ਸਾਧ	-10.5347
▁ਸਂਖਿਤ੍ਤੇਨ	-10.5348
ਾਨੁਪਰਿ	-10.5351
ਲੁ	-10.5357
▁੧੦੫	-10.5358
ਮਤ੍ਥ	-10.5359
▁ਅਨਿਟ੍ਠ	-10.5364
▁ਕਾਯਿਕ	-10.5364
▁ਸਰੇ	-10.5366
ਸਾਧਨ	-10.5367
▁ਫਰਿਤ੍	-10.5367
▁ਛਟ੍ਠੇ	-10.5369
ੇਨਾਪਿ	-10.5373
▁ਸੀਮਾ	-10.5373
ਮਹਾਰਾਜ	-10.5374
ੇਦਨ	-10.5378
ਘਟ	-10.5382
▁ਉਪ੍ਪਾਦੋ	-10.5383
▁ਅਞ੍ਞਤਰਸ੍ਮਿਂ	-10.5386
▁੧੧੬	-10.5391
ਮੇਤਸ੍ਸ	-10.5392
▁ਅਨੁਪੁਬ੍ਬੇਨ	-10.5394
ਸਨ੍ਤਾਨ	-10.5395
▁ਕਿਮਤ੍ਥਂ	-10.5396
▁ਇਦਾਨੇ	-10.5398
▁ਸੁਣ	-10.5399
▁ਗੋਚਰ	-10.5404
▁ਜਯ	-10.5412
ਬਲੇਨ	-10.5412
▁ਉਪ੍ਪਾਦੇ	-10.5413
▁ਬ੍ਯਾਧਿ	-10.5417
▁ਫ	-10.5419
▁ਛਤ੍ਤ	-10.5419
▁ਕਪਿਲ	-10.5426
▁ਮਤਂ	-10.5428
▁ਸੂਰਿਯ	-10.5432
ਾਲਙ੍ਕਾਰ	-10.5432
▁ਸਕਿਂ	-10.5434
▁ਅਨ੍ਤਰਘਰੇ	-10.5435
▁੧੦੨	-10.5438
ਸਾਨਂ	-10.5439
▁ਮਜ੍ਝ	-10.5441
▁ਅਕੁਸਲਸ੍ਸ	-10.5445
▁ਖਰ	-10.5445
ਮਾਹਂਸੁ	-10.5446
▁੬੭	-10.5449
ਤ੍ਤਿਤ੍	-10.5452
ਕੂਟ	-10.5458
▁ਦਸ੍ਸਿਤਂ	-10.5459
ਰਾਨਿ	-10.5459
ਤ੍ਤਞ੍ਚ	-10.5463
▁ਉਪਾਸਕ	-10.5463
▁ਆਹਂਸੁ	-10.5465
▁ਦਕ੍ਖਿਣਾ	-10.5465
▁ਦੁਟ੍ਠ	-10.5468
ਿਹਰਤੋ	-10.547
ਤਾਪਿ	-10.5473
ਸੁਤ੍ਤੇ	-10.5474
▁ਪਟਿਘ	-10.5475
ਕ੍ਖਾਮਿ	-10.5475
▁੬੦	-10.5476
▁ਕਟ੍ਠ	-10.548
ਕਿਰਿਯਾਯ	-10.5484
▁ਸਿਕ੍ਖਾਪਦ	-10.5484
▁ਅਰਿਯਂ	-10.5485
▁ਸੁਖਸ੍ਸ	-10.5491
ਸਮਾਨ	-10.5498
▁ਗਮ੍ਭੀਰ	-10.55
▁ਮਯਿ	-10.5501
ਿਨਿਚ੍ਛਯਂ	-10.5502
ਕਰਣੀਯ	-10.5506
▁ਇਤ੍ਥਿਲਿਙ੍ਗ	-10.5507
▁ਅਧਿਪ੍ਪੇਤਂ	-10.551
ਕਾਤਿ	-10.5511
▁ਉਟ੍ਠਾਯਾਸਨਾ	-10.5513
▁ਪਦੇਹਿ	-10.5513
ਸਨ੍ਧਿ	-10.5514
ਿਂਸੂਤਿ	-10.5514
▁ਨਾਮਰੂਪਂ	-10.5515
ਬਹੁਲੋ	-10.5518
ਤ੍ਤਿਤ	-10.5521
▁ਪਰਿਯਤ੍ਤਿ	-10.5527
▁ਝਾਯ	-10.5532
▁ਤਪ	-10.5536
ਮੁਤ੍ਤਮਂ	-10.5537
▁ਪਿਤਰਂ	-10.5539
▁ਉਜੁ	-10.554
▁ਇਤ੍ਥੀਨਂ	-10.554
▁ਮਾਸੇ	-10.554
▁ਮਾਤਰਂ	-10.5548
▁ਮਗ੍ਗਾਧਿਪਤਿ	-10.5549
▁ਕਾਰ	-10.555
▁ਅਨੁਕ੍ਕਮੇਨ	-10.5551
▁ਆਪੋਧਾਤੁ	-10.5551
ਾਕ੍ਯਂ	-10.5551
ਸਦ੍ਦਂ	-10.5554
▁ਕਥੇਨ੍ਤੋ	-10.5554
ਪਤਿ	-10.5558
▁੫੯	-10.5558
ਗ੍ਗਸ੍ਸ	-10.5561
ਸਾਸਨ	-10.5565
ਮਾਦੀਸੁ	-10.5567
▁ਦਕ੍ਖ	-10.5568
▁ਅਬ੍ਭ	-10.5568
▁ਯਜ	-10.5569
▁ਓਕ੍ਕਮ	-10.5574
▁ਪਕਾਰੇਨ	-10.5578
▁ਤਪ੍ਪ	-10.5584
▁੬੧	-10.5584
▁ਅਨਭਾ	-10.5589
ਿਪੁਲ	-10.5595
▁ਨਿਸ੍ਸਰਣ	-10.5597
ਿਪਾਕਸ੍ਸ	-10.5597
ਿਰੋਧ	-10.5603
ਿਚਾਰੇ	-10.5609
▁ਸਪ੍ਪੁਰਿਸ	-10.5613
▁੧੧੧	-10.5615
▁ਗਾਥਾਹਿ	-10.5617
▁ਲੋਕੁਤ੍ਤਰਂ	-10.5617
ਿਜ੍ਝਿਤ੍	-10.5618
▁ਞਤ੍ਤਿ	-10.5619
▁ਬਾਲਾ	-10.5619
▁ਮਕ੍ਖ	-10.5622
▁ਨਿਬ੍ਬਾਨਸ੍ਸ	-10.5622
ਸ੍ਸਪਿ	-10.5625
▁ਹੋਮਿ	-10.5626
ਮਾਲ	-10.5631
ਨਿਯਂ	-10.5633
▁ਪਤ੍ਤਕਲ੍ਲਂ	-10.5633
ੇਤਬ੍ਬੋ	-10.5638
▁ਚੁਤੋ	-10.5648
ਨੀਯੋ	-10.5651
▁ਪਤਿਟ੍ਠਾਯ	-10.5651
▁ਸੀਹੋ	-10.5654
ਮਦ	-10.5658
ਮ੍ਬ	-10.5661
ਗਮ੍ਭੀਰ	-10.5663
▁ਪਚ੍ਛਾਜਾਤਂ	-10.5663
ਕੇਸੁ	-10.5666
▁ਮਾਨਾਨੁਸਯਞ੍ਚ	-10.567
▁ਸੀਲੇਨ	-10.567
ਸਮਣ	-10.5671
▁੧੧੩	-10.5675
▁ਗਨ੍ਧੋ	-10.5687
ਮਿਤਿ	-10.5689
▁ਆਗਨ੍ਤੁਕ	-10.5691
▁ਪੁਗ੍ਗਲੇ	-10.5691
▁ਦਸਮੇ	-10.5692
▁ਓਤਾਰ	-10.5696
▁ਦਿਸ੍ਸਨ੍ਤਿ	-10.5697
▁ਕੋਧੋ	-10.5699
ਅਸ੍ਸ	-10.5699
ਸੀਲੋ	-10.57
▁ਮਚ੍ਚੁ	-10.5705
▁ਸਤ੍ਤਮ	-10.5708
▁ਨਿਸੀਦਤਿ	-10.571
ਣ੍ਣੇ	-10.5711
ਪਰਿਯਾਪਨ੍ਨ	-10.5711
▁ਗੁਣੇ	-10.5715
▁੬੫	-10.5716
ਬੋਧਿ	-10.5717
▁ਆਯਸ੍ਮਤਾ	-10.5723
▁ਅਚ੍ਚਯੇਨ	-10.5726
▁ਚੇਪਿ	-10.5727
▁ਲਭਨ੍ਤਿ	-10.5731
ਜਾਤਾ	-10.5732
ਤਥਾ	-10.5732
▁ਪਟਿਪਦਂ	-10.5734
ਸੁਪਿ	-10.5738
▁ਗਾਮੋ	-10.574
ੇਦਯਿਤਂ	-10.574
ਮਿਤ੍ਤ	-10.5742
ਹੇਤੁਕ	-10.5743
▁੬੪	-10.5743
▁ਭਾਸੇਯ੍ਯ	-10.5745
ਞ੍ਞੂ	-10.5747
▁ਮੇਤ੍ਤਾਯ	-10.5748
▁ਪੂਜੇ	-10.5748
▁ਸਤਸਹਸ੍ਸ	-10.575
ਪ੍ਪਤ੍ਤਾ	-10.5754
▁ਚਕ੍ਖਾਯਤਨਞ੍ਚ	-10.5757
▁ਨਿਸ੍ਸਗ੍ਗਿਯ	-10.5758
ਮਦ੍ਦ	-10.5758
▁ਪਚ੍ਚੁਪ੍ਪਨ੍ਨਂ	-10.576
▁ਸਬ੍ਬਞ੍ਞੁ	-10.5764
▁ਪਨਾਤਿ	-10.5765
▁ਜਹ	-10.5766
▁ਕਿਤ੍ਤਿ	-10.5767
ਸਕ੍ਕ	-10.5767
▁ਦੇਸੇ	-10.5768
▁ਪਾਕਟ	-10.5768
▁੬੨	-10.5769
▁ਗਣ੍ਹਨ੍ਤਿ	-10.5772
▁ਪਰਞ੍ਚ	-10.5776
▁ਮਾਨਤ੍ਤਂ	-10.578
ਿਚਿਕਿਚ੍ਛਾਸਹਗਤ	-10.578
▁ਕਿਞ੍ਚ	-10.5781
▁ਮਲ	-10.5785
▁ਅਗ੍ਗਿਂ	-10.5788
▁ਪਟਿਕ੍ਖਿਪਤਿ	-10.5794
ਸਮ੍ਮਾਸਮ੍ਬੁਦ੍ਧਸ੍ਸ	-10.58
▁ਅਭਿਞ੍ਞੇਯ੍ਯਂ	-10.5802
▁ਧਮ੍ਮਞ੍ਚ	-10.5805
ਸਿਯਾ	-10.5808
ਾਦਿਸ੍ਸ	-10.5809
▁ਪਗ੍ਗਯ੍ਹ	-10.5811
▁ਮਹਗ੍ਗਤ	-10.5812
ਦਿਸਾ	-10.5813
▁ਗਤੇ	-10.5813
ਪ੍ਪਭੇਦ	-10.5814
▁ਸਮ੍ਬੁਦ੍ਧਂ	-10.5814
ਤ੍ਰ	-10.5822
▁ਉਪ੍ਪਨ੍ਨਸ੍ਸ	-10.5824
▁ਪਿਯਂ	-10.5826
ਨ੍	-10.5828
▁ਮਹਾਸਾ	-10.5831
▁ਸਙ੍ਗ	-10.5835
▁ਜਾਨਨ੍ਤੋ	-10.5835
ਫਸ੍ਸ	-10.5838
▁ਦੁਗ੍ਗਤਿ	-10.584
▁ਜਨਪਦ	-10.5847
▁ਕਾਰਕ	-10.5851
▁ਅਸੇਕ੍ਖ	-10.5863
▁ਪਿਣ੍ਡਪਾਤਂ	-10.5866
▁ਚੇਤਸਿਕਂ	-10.5866
▁੧੦੬	-10.5867
▁੧੦੪	-10.5871
–-	-10.588
▁ਉਪ੍ਪਨ੍ਨੇ	-10.5883
▁ਨੁਪ੍ਪਜ੍ਜਿਤ੍ਥ	-10.5883
ਕਤਮੇ	-10.5886
ੁਤਂ	-10.5892
▁ਖਿਪ	-10.5893
▁ਉਪਸਮ੍ਪਦਾ	-10.5893
▁ਸੋਮਨਸ੍ਸਂ	-10.5894
▁ਪਦਕ੍ਖਿਣਂ	-10.5898
ਪ੍ਪਭ	-10.5901
ਪਞ੍ਞੋ	-10.5902
▁ਭੂਮੀਸੁ	-10.5902
ੇਸਨੇ	-10.5903
ਿਭਤ੍ਤ	-10.5904
▁੬੬	-10.5906
▁ਸਮਾਦਪੇਤਿ	-10.5907
▁ਘਰਾ	-10.5908
ਨਪਚ੍ਚਯਾ	-10.5908
ਿਞ੍ਞੂ	-10.5908
▁ਸਮ੍ਬਨ੍ਧ	-10.5908
ਿਸੇਸੇ	-10.591
ਭੂਤਸ੍ਸ	-10.5913
▁ਸਮਗ੍ਗ	-10.5913
▁ਇਤਰਂ	-10.5914
▁ਕਟਤ੍ਤਾ	-10.5914
▁ਅਨੋ	-10.5917
▁ਪੁਰ	-10.592
▁ਪਤ੍ਤਾ	-10.592
▁ਨਾਭਿ	-10.5922
▁ਮਾਨਂ	-10.5922
▁ਤਦਾਰਮ੍ਮਣ	-10.5922
▁ਪਰਿਜਾਨਾਤੀਤਿ	-10.5925
▁ਪਕ੍ਕਮਤਿ	-10.5926
ਯਮ੍ਪਿ	-10.5927
▁ਪਸ੍ਸਨ੍ਤਿ	-10.5928
▁ਭੇਦ	-10.5932
ਉਦਕ	-10.5938
ਿਟ੍ਠਾ	-10.5939
▁ਪਚ੍ਛਾਜਾਤਾ	-10.5941
▁ਉਦ੍ਧਚ੍ਚਂ	-10.5944
ਟ੍ਠਾ	-10.5949
ਤਿਯਾ	-10.5952
ਤ੍ਤਿਕ	-10.5953
ਕਙ੍ਖ	-10.5956
ਇ	-10.5961
▁ਆਕਾਰ	-10.5966
▁ਸਮੇਤਿ	-10.5967
▁ਅਨਰਿਯ	-10.5969
ਿਹਰ	-10.5971
ਮਤ	-10.5971
▁ਸੁਭਾ	-10.5976
▁ਦਿਸਾਯ	-10.5982
ਤ੍ਤਯਂ	-10.5982
ਿਸਯਂ	-10.5983
▁ਨਿਯਮ	-10.5984
▁ਸਂਕਿਲੇਸ	-10.5986
▁ਗਾਹ	-10.5987
▁ਪਾਕਟਾ	-10.5991
▁ਇਦ੍ਧਿਯਾ	-10.5991
▁ਕਨ੍ਤ	-10.6003
ਸੀਲਂ	-10.6004
ੁਤ੍ਤਸ੍ਸ	-10.6007
ਸਮਯੋ	-10.6008
ਨਨ੍ਦ	-10.601
▁ਸਬ੍ਬਾਪਿ	-10.6011
ੁਤਿਤੋ	-10.6011
ਤ੍ਥਾਨਿ	-10.6013
▁ਸਿਬ੍ਬ	-10.6015
▁ਠਿਤੇ	-10.6017
ਤ੍ਤਤੀ	-10.6018
▁ਨਿਸੀਦਿਂਸੁ	-10.6023
▁ਪਤਿਟ੍ਠਿਤ	-10.6025
▁ਪੀਤਿਯਾ	-10.6025
ਰੂਪਸ੍ਸ	-10.6026
▁ਸਯਨ	-10.6027
▁ਅਨੁਸਯ	-10.6028
ਅਟ੍ਠਕਥਾਯ	-10.603
▁ਸਨ੍ਨਿਪਾਤ	-10.6035
▁ਅਸ੍ਸਾ	-10.6038
ਸਮ੍ਪਿ	-10.6041
▁ਭੁਮ੍ਮ	-10.6046
▁ਮਞ੍ਚ	-10.6046
▁ਤਸ੍ਸਾਤਿ	-10.6049
ਿਸੁਦ੍ਧਿਮਗ੍ਗੇ	-10.6049
▁ਬ੍ਰੂਮਿ	-10.6049
ੁਧ	-10.6051
ਿਤ੍ਥਾਰੋ	-10.6052
▁ਲਹੁ	-10.6058
▁੧੧੭	-10.6059
ਲ੍ਲਿ	-10.606
ਨਿਸ੍ਸਿਤ	-10.6061
▁ਕਿਨ੍ਤਿ	-10.6062
▁ਥੁਲ੍ਲਚ੍ਚਯ	-10.607
▁ਮੁਚ੍ਚਤਿ	-10.6071
▁ਨਾਨਪ੍ਪਕਾਰ	-10.6075
▁ਸੂਚਿ	-10.608
▁ਅਮ੍ਹੇ	-10.6082
▁ਝਾਯੀ	-10.609
▁ਨਿਸਿਨ੍ਨ	-10.6091
ਦਿਸ	-10.6094
ਰਸਾ	-10.6094
ਿਦਿਤਾ	-10.6096
▁ਪਠਮਾ	-10.6099
▁ਪਤ੍ਥਯ	-10.6104
▁ਤਾਸੁ	-10.6105
ੂਪਮਾ	-10.6113
▁ਚਨ੍ਦੋ	-10.6117
▁ਸਦ੍ਦੇ	-10.6119
▁ਦੇਸਿਤਂ	-10.6123
▁ਘ	-10.6123
▁ਸਂਕਿਲਿਟ੍ਠ	-10.6127
ਨਾਨਿ	-10.6141
▁ਸਙ੍ਗਹਂ	-10.6143
ਦਨ	-10.6143
▁ਉਪ੍ਪਾਦਾਯ	-10.6144
ਗਾਥਾਯ	-10.6149
▁ਸਕਟ	-10.6154
▁ਥੂਪ	-10.6155
▁ਅਸਙ੍ਖਤ	-10.6157
ਿਮੁਤ੍ਤਂ	-10.6158
▁ਅਨਨ੍ਤਰੂਪਨਿਸ੍ਸਯੋ	-10.6159
ਞ	-10.6159
▁ਪਭ	-10.6166
ਾਹਾਰ	-10.6167
▁ਗੂਥ	-10.6168
▁ਅਪ੍ਪਮਤ੍ਤੋ	-10.617
▁ਹਿਰੀ	-10.6171
▁ਗਿਰਿ	-10.6171
ਸਪ੍ਪ	-10.6172
▁ਭਾਸ	-10.6173
▁ਪੁਤ੍ਤੇ	-10.6175
▁ਨਰ	-10.6177
▁ਅਟ੍ਠਹਿ	-10.6179
ਰੁਕ੍ਖੋ	-10.618
ਮਣ੍ਡਲਂ	-10.6181
ਾਦੀਨ	-10.6182
▁ਉਪਜ੍ਝਾਯ	-10.6193
▁ਸੇਸੋ	-10.6193
▁ਸਹਧਮ੍ਮਿਕ	-10.6194
ੂਤਿ	-10.6195
ਨਿਰੋਧੋ	-10.6197
ਖਨ੍ਧ	-10.6198
▁ਬਹੂਨਿ	-10.6203
▁ਥਿਰ	-10.6203
ਿਤੁ	-10.6204
ਧਾਰਣ	-10.6204
▁ਪਟਿਚ੍ਚਸਮੁਪ੍ਪਾਦ	-10.6206
▁ਅਹੇਤੁਕ	-10.6211
ਮਙ੍ਗਲ	-10.6214
▁ਅਨਾਗਾਮੀ	-10.6215
▁ਉਪਾਦਾ	-10.6219
ਗਾਮਿ	-10.6223
ਗਨ੍ਥ	-10.6228
ੀਧਾਤੁ	-10.6229
ਕਰਣੇਨ	-10.6231
ਦਾਯਕ	-10.6232
ਲੋਕੋ	-10.6234
▁ਭਿਕ੍ਖੂਤਿ	-10.6237
ਰਾਯ	-10.6237
ਿਕੇ	-10.6238
▁ਪਿਟ੍ਠਿ	-10.624
▁ਆਸਨਂ	-10.624
▁ਥਮ੍ਭ	-10.6241
ਨ੍ਤਰਂ	-10.6241
▁ਭਿਕ੍ਖੁਨਿਂ	-10.6242
▁ਰੂਪਾਰੂਪ	-10.6243
▁ਥਾਮ	-10.6243
ਕਰਣੇ	-10.6245
ਪਦੇ	-10.625
▁ਅਲ੍ਲ	-10.625
▁ਏਕਮੇ	-10.6252
▁ਚਤੁਕ੍ਕ	-10.6252
▁ਮਹਾਮੁਨਿ	-10.6257
ਗ੍ਗਾਹੋ	-10.6258
ਸਤਸਹਸ੍ਸ	-10.6259
▁ਉਪਨਿਸ੍ਸਯ	-10.6265
ਿਤਕ੍ਕਸ੍ਸ	-10.6267
ਪਕ੍ਖੇ	-10.627
ਾਪੇਤੁਂ	-10.627
▁ਦੇਹਿ	-10.6272
▁ਚਿਤ੍ਤਤੋ	-10.6274
ਕਾਲਂ	-10.6275
ਯਿਂਸੁ	-10.6277
ਕਤ੍ਤਾ	-10.6284
▁ਪਰਿਗ੍ਗਹ	-10.6284
▁ਉਕ੍ਕਟ੍ਠ	-10.6285
▁ਤੁਮ੍ਹੇਹਿ	-10.6286
ਪਟ	-10.6288
ਮਤ੍ਤਨੋ	-10.6291
▁ਸਾਨੁਸਯੋ	-10.6292
▁ਮੋਗ੍ਗਲ੍ਲਾਨ	-10.6298
ਨਗਰਂ	-10.6299
▁ਅਭਬ੍ਬੋ	-10.6301
▁ਅਨਿਮਿਤ੍ਤ	-10.6302
▁ਞਾਯ	-10.6302
ਕਤ੍ਥ	-10.6307
▁ਭੋਜ	-10.6311
▁ਸਬ੍ਬਸ੍ਸ	-10.6314
੍ਹਾਯ	-10.6316
▁ਸਤ੍ਥਾਰਾ	-10.6316
ਅਞ੍ਞਮਞ੍ਞ	-10.6318
ਪਞ੍ਞਾਯ	-10.6319
▁ਖਯਾ	-10.6319
ਜੇਤ੍	-10.6321
ਮੁਤ੍ਤ	-10.6323
ਜੇ	-10.6323
▁ਨਿਗ੍ਰੋਧ	-10.6324
ਲਭ	-10.6324
ਤਤ੍ਰ	-10.6325
▁ਸਮ੍ਪਤ੍ਤਿ	-10.6333
ਿਧਾਨਂ	-10.6334
ਯੁਂ	-10.6334
ਲਿਚ੍ਛ	-10.6335
▁ਪਦੇ	-10.6336
▁ਅਭਿਜ੍ਝਾ	-10.6336
▁ਉਟ੍ਠਾਯ	-10.6337
ੋਚੁਂ	-10.6337
▁ਗਣ੍ਹਿ	-10.6343
▁ਪਾਕ	-10.6344
▁ਸਮ੍ਮਾਸਤਿ	-10.6347
▁ਪਾਪਕਮ੍ਮਂ	-10.6347
ਾਸਨਂ	-10.6348
▁ਰੁਕ੍ਖੋ	-10.6348
▁ਅਪਰੇਨ	-10.6349
▁ਨਅਕੁਸਲੋ	-10.635
▁ਏਤੇਨੇ	-10.6354
ਬੁਦ੍ਧੋ	-10.6357
ਸਲ੍ਲ	-10.6358
ਕਲਾਪ	-10.6364
ਪ੍ਪਮਾਣਂ	-10.6364
▁ਅਪ੍ਪਹੀਨੋ	-10.6366
▁ਦੁਕ੍ਖਨ੍ਤਿ	-10.6366
▁ਥੁਲ੍ਲਚ੍ਚਯਂ	-10.6367
▁ਲੋਕਾ	-10.6369
▁ਸੁਖਦੁਕ੍ਖ	-10.6371
ਚਨ੍ਦ	-10.6372
▁ਮਨਸਿਕਾਰੋ	-10.6374
▁ਸਦ੍ਧਂ	-10.6376
▁ਸਲ੍ਲ	-10.6378
▁ਅਧਿਕ	-10.6379
▁ਪਞ੍ਹੋ	-10.6379
ਗਾਮੇ	-10.6379
ਤ੍ਤਨ੍ਤੀਤਿ	-10.6381
ਿਹਿਂਸਾ	-10.6382
▁ਪਟਿਪਾਟਿਯਾ	-10.6383
ਿਭਜ	-10.6383
▁ਸੋਹਂ	-10.6385
▁ਅਤ੍ਤਮਨੋ	-10.6387
ਿਦ੍ਧੋ	-10.6387
▁੧੧੯	-10.6388
▁ਮਹਾਪਥ	-10.639
▁ਸਮਤ੍ਥੋ	-10.6394
▁ਪਬ੍ਬਜਿਤਾ	-10.6396
ਚ੍ਛਿਨ੍ਦਿਤ੍	-10.6404
ਸਦਿਸਮੇ	-10.6404
▁ਪਦਟ੍ਠਾਨਂ	-10.6407
ਪਰਿਕ੍ਖਾਰ	-10.6408
▁ਆਰਬ੍ਭਾਤਿ	-10.6411
ਸਿਟ੍ਠ	-10.6411
ਲਾਹਕ	-10.6413
▁ਛਡ੍ਡ	-10.6413
▁ਕਮ੍ਮਾਨਂ	-10.6414
▁ਚਾਗ	-10.642
▁ਪਹਾਨਾ	-10.642
ਤੂਤਿ	-10.6422
▁ਮਹਤੋ	-10.6424
ਾਯਨ੍ਤਿ	-10.6424
▁ਥੂਲ	-10.6428
▁ਪਸ੍ਸਦ੍ਧਿ	-10.6432
▁ਭੋਗੇ	-10.6433
ਪੁਬ੍ਬੋ	-10.6434
▁ਬਾ	-10.6434
▁ਉਪਾਯੇਨ	-10.6435
▁ਉਪਾਸਿਕਾ	-10.6436
ਾਰਣਾਯ	-10.6437
▁ਤਿਰਿਯਂ	-10.6439
ਸਙ੍ਗਹੋ	-10.6439
▁ਅਤ੍ਥੀ	-10.6441
▁ਸੁਰ	-10.6441
ਗਣਨਾਯ	-10.6447
੍ਹ	-10.6448
ਿਜ੍ਜਾਪਚ੍ਚਯਾ	-10.6453
▁ਇਤਰਾ	-10.6455
▁ਜਾਯਨ੍ਤਿ	-10.6458
ਪਾਰਮਿ	-10.6459
▁ਉਪ੍ਪਜ੍ਜੇਯ੍ਯ	-10.646
▁ਆਲੋਕੋ	-10.6461
▁ਸਤਿਪਿ	-10.6471
▁੧੦੯	-10.6471
▁ਉਕ੍ਖਿਪਿਤ੍	-10.6477
▁ਕਥਿਨ	-10.6477
▁ਪਤ੍ਤਿਯਾ	-10.6478
ਅਜ੍ਜ	-10.648
▁ਚਤੁਬ੍ਬਿਧਂ	-10.6483
▁ਕਿਮ	-10.6489
’॥	-10.6493
▁ਪਟਿਲਭਿਸ੍ਸਨ੍ਤਿ	-10.6499
▁ਦੋਮਨਸ੍ਸਿਨ੍ਦ੍ਰਿਯ	-10.6502
▁ਯਾਚਤਿ	-10.6507
▁ਨਚ੍ਚ	-10.6508
▁ਅਨਞ੍ਞਾਤਞ੍ਞ	-10.6508
ਂਸੋ	-10.6514
ਿਹਾਰਸ੍ਸ	-10.6514
▁ਪਦੇਸੇ	-10.6515
▁ਪਞ੍ਚਮ	-10.6516
▁ਅਸੀਤਿ	-10.6519
▁ਅਰਿਯਾਨਂ	-10.652
ਕ੍ਖਰ	-10.6524
▁ਆਸਿਂ	-10.6524
ਕਤਾ	-10.6526
▁ਪਹੀਯਤਿ	-10.6528
▁ਪਟਿਞ੍ਞਾ	-10.6528
▁ਸਮਣਸ੍ਸ	-10.6528
▁ਅਸ੍ਸਾਸ	-10.6536
▁ਸਦ੍ਧੋ	-10.6539
▁ਸਮੀਪੇ	-10.6543
▁ਪਾਪਕਂ	-10.6546
▁ਨਿਦ੍ਦੇਸੋ	-10.6546
▁੧੨੦	-10.6549
ਮੂਲਕਂ	-10.6553
▁ਚੋਦ	-10.6554
▁ਅਸੁਕ	-10.6557
ਰਾਨਂ	-10.6558
▁ਮਗ੍ਗਫਲ	-10.6558
▁ਸਬ੍ਬਦਿਸਾ	-10.6559
ਤ੍ਥੁਸ੍ਮਿਨ੍ਤਿ	-10.6562
▁ਦੁਕ	-10.6562
ਸਿਤਾ	-10.6564
▁ਸਬ੍ਬਞ੍ਞੁਤਞ੍ਞਾਣ	-10.6566
ਪਹਾਨ	-10.6568
▁ਪਿਸੁਣ	-10.6572
▁ਨਿਕ੍ਖਨ੍ਤ	-10.6574
▁ਮਾਰਿਸ	-10.6575
ਨੀਲ	-10.6578
▁ਸੇਟ੍ਠਿ	-10.6578
ਨਾਨਤ੍ਤ	-10.6578
▁ਕਤ੍ਤਬ੍ਬਂ	-10.6585
ਿਯਮਾਨੋ	-10.6587
ਗੋਤ੍ਤ	-10.6589
ਹਰ	-10.6591
▁ਜਞ੍ਞਾ	-10.6591
▁ਸਹਸ੍ਸਂ	-10.6597
ਗਹਣ	-10.66
▁ਨਿਪਾਤ	-10.6601
ਸਮ੍ਭਾਰ	-10.6601
▁ਸੋਤਾਯਤਨਂ	-10.6603
▁ਅਟ੍ਠਮ	-10.6604
ਮਤ੍ਤੋ	-10.6609
▁ਝ	-10.6615
▁ਦਸ੍ਸੇਸਿ	-10.6618
ਿਮੋਕ੍ਖਂ	-10.6619
ਅਰਿਯ	-10.6619
▁ਭਣਨ੍ਤਸ੍ਸ	-10.662
▁ਸਮ੍ਪਤ੍ਤੇ	-10.6622
ਦਸ੍ਸਾ	-10.6628
੧੧	-10.6629
▁ਪਹਾਤਬ੍ਬ	-10.663
▁ਸੋਚ	-10.6632
ਾਪਯ	-10.6633
▁ਪਜਾ	-10.6641
▁ਨਤ੍ਥਿਯਾ	-10.6641
▁ਤਤਿਯਮ੍ਪਿ	-10.6641
ਪਠਮ	-10.6645
ਤਲ	-10.6646
▁ਪਯਿਰੁਪਾਸ	-10.6646
▁ਤਨੁ	-10.6647
▁ਉਪੋਸਥੋ	-10.6648
▁ਕਹਾਪਣ	-10.6649
▁ਖਨ੍ਧੇਨ	-10.6654
▁ਮਿਸ੍ਸਕ	-10.6654
▁ਇਨ੍ਦ੍ਰਿਯਪਚ੍ਚਯੇਨ	-10.6656
▁ਅਨੁਞ੍ਞਾਤਂ	-10.6667
▁ਦੁਕ੍ਕਟਸ੍ਸਾ	-10.6669
▁ਅਭਿਨਨ੍ਦ	-10.667
▁ਤੁਲ	-10.6672
▁ਆਸੀ	-10.6673
ੁਤਾ	-10.6675
ਸ੍ਸਸਹਸ੍ਸਾਨਿ	-10.6681
ਇਚ੍ਚੇ	-10.6682
ਜਿਰ	-10.6683
▁ਤਿਚੀ	-10.6686
ੁਤ੍ਤਪ੍ਪਕਾਰ	-10.6687
▁ਹਤ੍ਥਤੋ	-10.6687
ਚ੍ਛੇਦ	-10.6687
▁ਹੀਤਿ	-10.6689
▁ਸਮਨ੍ਨਾਗਤਂ	-10.6692
ਙ	-10.6693
▁ਹਤ੍ਥਪਾਦ	-10.6695
ਨਤਾ	-10.6701
▁ਸੋਤਾਪਤ੍ਤਿਫਲੇ	-10.6705
▁ਸਮੂਹ	-10.6708
▁ਨਿਬ੍ਬੁਤੋ	-10.6709
▁ਰੋਦ	-10.6709
▁ਮਮਂ	-10.6712
ਾਰਮ੍ਮਣਾ	-10.6718
▁ਯਾਨ	-10.6719
ਾਰੇਤਿ	-10.6719
ਸਕ	-10.6725
ਰੁਹ	-10.6728
▁ਗਿਹੀ	-10.6728
▁ਅਨੁਚ੍ਛ	-10.6732
ੇਰ	-10.6734
ਹਤਿ	-10.6735
▁ਛਡ੍ਡੇਤ੍	-10.6737
▁੧੨੩	-10.6738
▁ਨਿਨ੍ਨ	-10.6739
ਤ੍ਥੁਕ	-10.6739
▁ਏਕਿਸ੍ਸਾ	-10.6739
▁ਉਪਾਦਾਨਂ	-10.6741
▁ਸਮਾਪਤ੍ਤਿਂ	-10.6741
▁ਸਮੁਟ੍ਠਾਨੇਹਿ	-10.6746
ਧਮ੍ਮੇਸੁ	-10.6746
▁ਸਂਸਟ੍ਠਾ	-10.6749
ਿਨੋਦੇ	-10.6751
ੁਟ੍ਠਾਤਿ	-10.6753
ਸਾਮ	-10.6754
ਮਤਿ	-10.6758
▁ਭੋਨ੍ਤੋ	-10.6758
▁ਅਗਾਰਸ੍ਮਾ	-10.6762
ਰਟ੍ਠ	-10.6762
ਤਬ੍ਬੋ	-10.6763
ਅਨਾਪਤ੍ਤਿ	-10.6764
▁ਪੁਰਿਮਂ	-10.6765
ਮੋਹ	-10.6766
▁ਪਹਾਤਬ੍ਬਹੇਤੁਕ	-10.6769
ਕਥਞ੍ਹਿ	-10.6771
▁੧੧੪	-10.6775
▁੧੨੪	-10.6775
ਪਬ੍ਬ	-10.6778
ੇਸੂ	-10.6779
ਪਾਯ	-10.6783
▁ਅਤ੍ਤਤੋ	-10.6784
ਾਦਨ	-10.679
▁ਪਟ੍ਠਪੇ	-10.6792
▁ਕੁਸਲਤ੍ਤਿਕ	-10.6792
ਖਣ੍ਡ	-10.6793
ਪਦੁਮ	-10.6796
▁ਸੀਘਂ	-10.6796
ਪਞ੍ਚਮ	-10.6798
▁ਅਨਨੁ	-10.6804
▁ਦਾਰ	-10.6806
▁ਸੂਰਿਯੋ	-10.6812
▁ਸਸ੍ਸਤ	-10.6821
▁ਲੋਕਿਯਲੋਕੁਤ੍ਤਰ	-10.6822
▁ਪਾਰਂ	-10.6828
▁ਉਤ੍ਤਾਨ	-10.6829
ੇਮਿ	-10.6829
▁ਕੁਮਾਰ	-10.6829
ਸਮੂਹ	-10.6831
▁ਅਸਕ੍ਕੋਨ੍ਤੋ	-10.6832
▁ਸਮਾਸ	-10.6838
▁ਉਪਕਾਰ	-10.6839
ੋਕਾਰੇ	-10.6843
ਸੋਤ	-10.6846
▁ਕਾਮਰਾਗ	-10.6849
▁ਮਨਸਿਕਰੋਤੋ	-10.685
▁ਸੁਞ੍ਞਤ	-10.6853
▁੧੨੨	-10.6856
ਸ੍ਸਾਮ	-10.6858
▁ਮਹਤਾ	-10.6859
▁ਚੁਤਿ	-10.6859
▁ਸਕ੍ਕੋਨ੍ਤਿ	-10.6859
ਕਞ੍ਚ	-10.6866
▁ਕਰੋਥ	-10.6866
▁ਚਿਤ੍ਤਸਮੁਟ੍ਠਾਨ	-10.6867
ਿਪ੍ਫਾਰ	-10.687
▁ਨਿਸ੍ਸਰਣਂ	-10.6872
ਸਦ੍ਧਾ	-10.6873
▁ਚਤ੍ਤਾਲੀਸ	-10.6878
▁ਦੁਕ੍ਖੇ	-10.6882
▁ਦੋ	-10.6884
ੇਯ੍ਯਾਸਿ	-10.6884
▁ਯਾਗੁ	-10.6889
ਿਸ੍ਸਾਮੀਤਿ	-10.689
▁ਨਮਸ੍ਸ	-10.6892
▁ਉਪਚਾਰ	-10.6894
▁ਬ੍ਰੂਹਿ	-10.6895
ਚਮ੍ਮ	-10.6896
▁ਫੋਟ੍ਠਬ੍ਬਾਯਤਨਂ	-10.6898
▁ਮਨਂ	-10.6898
▁ਓਘ	-10.6898
ਤ੍ਥਨ੍ਤਿ	-10.6903
▁ਗਹੇਤਬ੍ਬ	-10.6903
▁ਪਰਿਭਾਸ	-10.6909
▁ਪੋਸ	-10.6917
▁ਮਨੋਧਾਤੁ	-10.692
ਬ੍ਯਾ	-10.6922
ਮਨ੍	-10.6924
▁ਨਿਰੁਜ੍ਝਤੀਤਿ	-10.6926
▁ਮੋਹਸ੍ਸ	-10.6931
ਿਜ੍ਜਮਾਨਾ	-10.6933
ਨਿਸ੍ਸਿਤਂ	-10.6933
▁ਪਾਣਿ	-10.6935
ਿਰਾਗਾ	-10.6937
ਿਘਾਤ	-10.6945
ਿਹਾਰੀ	-10.6949
▁ਸਾਮਣੇਰ	-10.6952
▁ਸਮੁਚ੍ਛੇਦ	-10.6954
ਸਾਯ	-10.6955
ਿਹਰਤੀ	-10.6958
▁ਆਹੁ	-10.6962
▁ਅਸਾਧਾਰਣ	-10.6964
ਪਟਿਪਕ੍ਖ	-10.6971
▁ਕਿਰਿਯਂ	-10.6973
▁ਪਾਚਿਤ੍ਤਿ	-10.698
▁ਪਾਣਾਤਿਪਾਤ	-10.6981
▁ਕੁਲਂ	-10.6982
ਪਟ੍ਟ	-10.6983
ਾਰਿਤਾ	-10.6985
▁ਓਲ਼ਾਰਿਕ	-10.6989
▁ਪਤਿਟ੍ਠ	-10.6989
ਕਾਸੋ	-10.6991
▁ਨਿਮਨ੍ਤੇ	-10.6999
▁ਉਪਾਯ	-10.6999
ਤਾਯਾਤਿ	-10.7002
▁ਧੁਰ	-10.7009
ਮਿਸ੍ਸਕ	-10.701
▁ਅਗ੍ਗਹੇਤ	-10.7012
▁ਦੇਸਿਤਾ	-10.7017
▁ਜੋਤ	-10.7019
ਤਸ੍ਮਾ	-10.702
▁ਗਯ੍ਹ	-10.702
ਾਸਕ	-10.7023
ਠਾਨ	-10.7025
ਧਮ੍ਮਸ੍ਸ	-10.7025
▁ਅਤ੍ਥਿਪਚ੍ਚਯ	-10.7027
ਸਮਙ੍ਗੀ	-10.7027
▁ਅਮੋਹੋ	-10.7027
▁ਸਹਸਾ	-10.7027
▁ਪਸ੍ਸਤੀਤਿ	-10.7032
ਲੋਹਿਤ	-10.7035
▁ਅਰਹਤ੍ਤਫਲ	-10.7039
ਕਥਾਯ	-10.704
ਸਾਲ	-10.7048
▁ਕਰਿਸ੍ਸਤਿ	-10.7049
▁ਞਾਤ	-10.705
▁ਨਪ੍ਪ	-10.7052
▁ਦਕ੍ਖਿਣਂ	-10.7054
▁ਦੇਸਿਤੋ	-10.7057
▁ਪਰਿਚ੍ਛੇਦ	-10.7063
ਗੁ	-10.7065
▁ਕਸ	-10.707
ਿਤੁਨ੍ਤਿ	-10.707
ਾਨੁਰੂਪਂ	-10.7076
ੋਪ	-10.7078
▁ਚਿਤ੍ਤਸਂਸਟ੍ਠ	-10.7082
▁ਪੁਬ੍ਬੇਪਿ	-10.7082
▁ਸਕੁਣ	-10.7083
ਤ੍ਤਨਂ	-10.7084
ਕਮ੍ਮਸ੍ਸ	-10.7087
ਚਨਾਨਿ	-10.709
ਹਤ੍ਥਿ	-10.7091
ਪ੍ਪਤ੍ਤ	-10.7094
ਾਰਿਤ	-10.7097
ਪਾਦਿਨ੍ਨੁਪਾਦਾਨਿਯੋ	-10.7098
▁ਪਟਿਪਜ੍ਜ	-10.7101
ਪਞ੍ਹ	-10.7101
▁ਪਟਿਪਦਾਯ	-10.7105
ਿਭੂਤ	-10.7106
ਸਰਿਤ੍	-10.7107
ੇਸੀ	-10.7108
ਿਜਾਨ	-10.7114
▁ਗੁਣਂ	-10.7117
▁ਦਹਰ	-10.712
ਸਿਦ੍ਧਿ	-10.712
▁ਚਨ੍ਦਨ	-10.7122
▁ਨਿਸਿਨ੍ਨਸ੍ਸ	-10.7123
ਦੀਘ	-10.7124
▁ਸੁਮੇਧ	-10.7124
ਸਰੀਰ	-10.7124
ਮਨੁਸ੍ਸਾ	-10.7126
▁ਭੂਮਿਯਾ	-10.7129
▁ਸਮ੍ਮੋਹ	-10.7129
▁ਤਣ੍ਹਂ	-10.713
▁ਉਦਕੇਨ	-10.713
ਿਮ੍ਹ	-10.7132
ੇਹਿਪਿ	-10.7132
ੋਸਿ	-10.7134
▁ਕਸ੍ਸਪੋ	-10.7139
ਪਟਿਲਾਭ	-10.714
▁ਆਸਨ੍ਨ	-10.7144
ਪੁਬ੍ਬੇ	-10.7144
ਭੇਦਂ	-10.7146
ਿਤਾਯ	-10.7146
▁ਦਸ੍ਸਨਤ੍ਥਂ	-10.7147
ਅਧਿ	-10.7148
ਸਟ੍ਠਿ	-10.7152
ਣ੍ਟ	-10.7152
ਸਮੁਦ੍ਦ	-10.7155
▁ਜਾਨੇਯ੍ਯ	-10.7155
ਿਹਿਤ	-10.7161
ਪ੍ਪਸਾਦ	-10.7161
ਦੂਤ	-10.7163
▁੧੨੧	-10.717
▁ਠਾਨੇਹਿ	-10.7172
▁ਨਿਰੁਤ੍ਤਿ	-10.7179
▁ਦੀਘੋ	-10.7179
▁੧੨੫	-10.7181
ੋਦਕਂ	-10.7183
▁ਚੁਨ੍ਦ	-10.7189
ਿਧੇ	-10.7192
ਮਾਨਸੋ	-10.7193
▁ਮਜ੍ਜ	-10.7194
▁ਰਾਗਸ੍ਸ	-10.7195
ਕ੍ਖਤ੍ਤੁਂ	-10.7197
▁ਆਲੋਕ	-10.7198
ਮਾਲਾ	-10.7202
▁ਪਸ੍ਸਾ	-10.7211
▁ਪਾਰ	-10.7213
▁ਸਮ੍ਪਾਦੇ	-10.7216
ਨ੍ਤ੍	-10.7222
ਅਞ੍ਞ	-10.7224
▁ਪਰਾਮਸ	-10.7226
▁ਪਚ੍ਚਕ੍ਖ	-10.7227
▁ਕਤਨ੍ਤਿ	-10.7228
▁ਅਸਨ੍ਤ	-10.7228
▁ਬੋਜ੍ਝਙ੍ਗ	-10.723
ਤਿਆਦਿਕਂ	-10.7234
▁ਕਟ	-10.7234
ਾਚਕੋ	-10.7235
▁ਅਬ੍ਯਾਕਤ	-10.7237
ਪਰਿਤ੍ਤ	-10.7238
▁ਤੀਰੇ	-10.7243
ਿਨ੍ਨ	-10.7244
ਚਤੁਕ੍ਕ	-10.7246
▁ਗੁਣਾ	-10.7246
▁ਦਿਟ੍ਠਾਨੁਸਯੋ	-10.7257
▁ਨਿਕ੍ਖਮ	-10.7259
▁ਦਕ੍ਖਿਣੇਯ੍ਯ	-10.7261
▁ਪਰਿਞ੍ਞਾਯ	-10.7261
ੇਨ੍ਤਸ੍ਸ	-10.7263
▁ਸਰੂਪਤੋ	-10.7267
▁ਭੋਤੋ	-10.7268
ਤ੍ਤਸ੍ਸ	-10.7269
▁ਸਮ੍ਮਾਸਮ੍ਬੁਦ੍ਧੇਨ	-10.7274
▁ਘਰੇ	-10.7275
ਿਰੋਚ	-10.7275
▁ਉਪਸਙ੍ਕਮ	-10.7275
▁ਕਾਯਕਮ੍ਮ	-10.7275
ਸਿਪ੍ਪ	-10.7277
ਦਾਨੇਨ	-10.7278
▁ਅਲਙ੍ਕਾਰ	-10.7281
▁ਮਹਾਜਨ	-10.7286
ਕ੍ਖਿਤ੍	-10.7289
ਸ੍ਸਤੀ	-10.7294
▁ਪੁਚ੍ਛਿਤੋ	-10.7296
▁ਪੁ	-10.7297
▁ਕਮ	-10.7299
▁ਮਿਸ੍ਸ	-10.7305
▁ਜੋਤਿ	-10.7305
ਾਨਨ੍ਤਰਂ	-10.7306
▁ਨਿਬ੍ਬਿਨ੍ਦਤਿ	-10.7307
▁ਅਯ੍ਯੇ	-10.7308
ਜਾਤਿਕੋ	-10.7309
▁ਘਰਂ	-10.731
▁ਤਿਬ੍ਬ	-10.7316
ਚਰਕੁਸਲ	-10.7319
ਨਮੇ	-10.7324
▁ਸਙ੍ਘਿਕ	-10.7327
▁ਪਾਲ਼ਿਯਾ	-10.733
ਤਸ੍ਮਿਂ	-10.733
ੇਸ੍	-10.7332
▁ਦੁਕ੍ਖੇਨ	-10.7335
▁ਅਨਾਪੁਚ੍ਛਾ	-10.7337
▁ਅਤਿਕ੍ਕਮ੍ਮ	-10.734
▁ਹਤ੍ਥਂ	-10.7343
ਤ੍ਥੂਸੁ	-10.7345
▁ਸਦਿਸੋ	-10.7346
▁ਸਙ੍ਕਪ੍ਪ	-10.7353
▁ਪੁਬ੍ਬਭਾਗੇ	-10.7353
▁ਪਞ੍ਞਤ੍ਤਨ੍ਤਿ	-10.7354
▁ਸਰਣਗਮਨ	-10.7354
▁ਆਦਿਂ	-10.7356
▁ਗਚ੍ਛਾਮਿ	-10.7356
ਲੋਕਂ	-10.7358
▁ਅਧਿਗਮ	-10.7363
ਸਮੋ	-10.7365
ਿਜਾਨਨ	-10.7366
ਿਤੇਨ	-10.7367
▁ਨਿਸਜ੍ਜ	-10.7368
▁ਦੁਕ੍ਖਕ੍ਖਨ੍ਧਸ੍ਸ	-10.737
▁ਮਹਾਜਨਸ੍ਸ	-10.737
▁ਪਾਸਾਦ	-10.7371
▁ਕਿਲਮ	-10.7371
▁ਕਰਿਸ੍ਸਾਮਿ	-10.7373
ਰੂ	-10.7374
ਕਾਮੋ	-10.7376
▁ਘੋਰ	-10.7376
▁ਅਰਿਯਸਚ੍ਚਂ	-10.7383
▁ਨਦਿਯਾ	-10.739
ਪਞ੍ਞਾਸ	-10.7393
▁ਪਟਿਭਾਨ	-10.7397
ਿਦਿਤ	-10.7398
▁ਗਮਨੇ	-10.7401
▁ਸੁਤ੍ਤਨ੍ਤ	-10.7403
ਏਤਂ	-10.7403
▁ਆਕਾਸਾਨਞ੍ਚਾਯਤਨ	-10.7404
▁ਰਸ੍ਸੋ	-10.7405
▁ਪਚ੍ਚਯੇਹਿ	-10.7406
ਦੁਕ੍ਖਨਿਰੋਧਗਾਮਿਨੀ	-10.7409
▁ਅਟ੍ਠਸੁ	-10.7409
ਞ੍ਚਾਪਿ	-10.7412
▁ਉਭਯਤ੍ਥ	-10.7414
ਪਦਸ੍ਸ	-10.7418
▁ਸਨ੍ਤੁਟ੍ਠੋ	-10.7418
▁ਮਦ	-10.7421
▁ਪਸਨ੍ਨ	-10.7424
ਾਨਞ੍ਹਿ	-10.7424
▁੧੨੮	-10.7425
▁ਨਕ੍ਖਤ੍ਤ	-10.7425
▁ਸਕਲਂ	-10.7428
▁ਪਟਿਚ੍ਛਾਦੇ	-10.7429
▁ਸੁਮਨ	-10.7429
▁ਸੋਧੇ	-10.7431
ਦੂਸ	-10.7432
▁ਨਚਿਰਸ੍ਸੇ	-10.7432
ਮੀਤਿ	-10.7434
▁ਬੁਦ੍ਧੁਪ੍ਪਾਦੇ	-10.7436
ਤੁਕਾਮੋ	-10.7438
▁ਪਚ੍ਚਯਪਚ੍ਚਨੀਯਂ	-10.7441
▁ਅਞ੍ਞਸ੍ਮਿਂ	-10.7442
▁ਦੁਚ੍ਚਰਿਤਂ	-10.7443
▁ਅਮਿਤ੍ਤ	-10.7443
▁ਆਕਿਞ੍ਚਞ੍ਞਾਯਤਨ	-10.7443
ਾਮਹਂ	-10.7445
▁੧੨੬	-10.7445
▁ਉਪਰਿਮ	-10.7448
ਿਕਾਲੇ	-10.7449
▁ਫਲਸਮਾਪਤ੍ਤਿ	-10.746
ਿਚਾਰਾਨਂ	-10.7462
ਿਲਾਸ	-10.7464
ਕੁਮਾਰ	-10.7466
ਕਮ੍ਮਟ੍ਠਾਨ	-10.7467
ਪੁਣ੍ਣ	-10.7468
▁ਪੁਰਿਸਾਨਂ	-10.7468
▁ਸਮਨੁਪਸ੍ਸਤਿ	-10.7469
▁ਅਸ੍ਸਾਸਪਸ੍ਸਾਸ	-10.7473
▁ਕਨ੍ਦ	-10.7477
ਿਪ੍ਪਟਿਸਾਰ	-10.7477
▁ਗਾਮਣਿ	-10.7477
ਦੁਸ੍ਸ	-10.7478
ਿਭਙ੍ਗੋ	-10.7482
ਰਕ	-10.7485
▁੧੨੭	-10.7487
ਾਨਨ੍ਤਰ	-10.7488
ਜਨਕ	-10.7489
ਹੋਤਿ	-10.749
▁ਉਤ੍ਤਮਂ	-10.749
ਚੋਰ	-10.7491
▁ਪਤ੍ਥਨਾ	-10.7492
▁ਸੂਰ	-10.7492
▁ਪਰਿਚ੍ਚਜ	-10.7503
▁ਅਗ੍ਗੋ	-10.7509
ਸਮ੍ਪਨ੍ਨ	-10.751
ਿਸੋ	-10.7514
▁ਬੁਜ੍ਝ	-10.7514
▁ਸਹਬ੍ਯਤਂ	-10.7515
ਿਕਾਤਿ	-10.7517
੍ਹੋ	-10.7519
ਮੁਖਂ	-10.7521
▁ਲਕ੍ਖ	-10.7525
ਪੇਤ	-10.7529
▁ਸਮ੍ਭਾ	-10.7532
ਗੁਣਂ	-10.7535
▁ਚਤੁਬ੍ਬਿਧ	-10.7535
ਮਤ੍ਥਂ	-10.7536
ੁਟ੍ਠਾਨਂ	-10.7537
ਰਮਾਦਾਯ	-10.7543
ਤਾਹਿ	-10.7546
ਿਚਰ	-10.755
▁ਅਨੁਤ੍ਤਰੋ	-10.7555
▁ਸੂਕਰ	-10.7555
▁ਸਜ੍ਜ	-10.7556
ਿਹਿਤਂ	-10.7557
▁ਕਦਾ	-10.7557
▁ਪਦਟ੍ਠਾਨ	-10.7557
ਪਰਿਸਾ	-10.7558
▁ਮਾਨਾਨੁਸਯੇਨ	-10.756
▁ਉਪਟ੍ਠਾਨਂ	-10.7562
▁ਸਙ੍ਖਤ	-10.7573
ਚਾ	-10.7574
▁ਸਤ੍ਤਸੁ	-10.7576
▁ਮੋਕ੍ਖ	-10.7578
▁ਪੁਤ੍ਤਦਾਰ	-10.7579
ਾਪੇਯ੍ਯ	-10.7579
▁ਮਨ੍ਤੇ	-10.7584
ੇਨ੍ਤੀਤਿ	-10.7586
▁ਨਾਸ੍ਸ	-10.7587
▁ਅਪਰਿਯਾਪਨ੍ਨੇ	-10.7588
▁ਉਪਾਦਿਨ੍ਨ	-10.7591
ੋਕਾਰਭ	-10.7592
ਟ੍ਠਕ	-10.7595
ਹੀਨ	-10.7595
▁ਅਪ੍ਪਮਾਣ	-10.7595
ਕਣ੍ਡ	-10.7598
▁ਪਬ੍ਬਤੋ	-10.7599
ਕ੍ਖਮਾਨ	-10.7599
▁ਪਦੇਨ	-10.7601
▁ਖਤ੍ਤਿਯਾ	-10.7603
ਹਤ	-10.7604
ਸਮ੍ਪਯੁਤ੍ਤਂ	-10.7605
▁ਜਾਨਨ	-10.7611
ਾਸੇਤਿ	-10.7614
▁ਉਚ੍ਛੁ	-10.7614
ਿਪੁਲਂ	-10.7615
ਿਤਸ੍ਸ	-10.7616
▁ਗਿਲਾਨੋ	-10.7623
ਾਦਿਕਾ	-10.7625
ੇਕ੍ਖਨ੍ਤਿ	-10.7625
▁ਭਿਨ੍ਦ	-10.7626
▁ਯਾਚਿਤੋ	-10.7627
▁ਦਸਨ੍ਨਂ	-10.7628
▁ਉਪਟ੍ਠ	-10.7629
ਪੁਰੇ	-10.7631
▁ਸਨ੍ਥ	-10.7633
ਹੁ	-10.7636
▁ਫੋਟ੍ਠਬ੍ਬ	-10.7637
ਚਰਣ	-10.7638
▁ਉਪਪਜ੍ਜਿ	-10.7638
ਮਧੁਰ	-10.7641
ਲ਼ਿ	-10.7641
ੁਟ੍ਠਿਤੋ	-10.7643
▁ਭੁਞ੍ਜਿਤ੍	-10.7644
▁ਅਸਮ	-10.7645
▁ਸਦ੍ਦਹ	-10.7647
▁ਭਿਕ੍ਖੁਸਙ੍ਘਂ	-10.7647
ਟ੍ਠਿਤਿ	-10.7651
ਕਾਰਕ	-10.7653
ਿਸਾਣਕਪ੍ਪੋ	-10.7656
▁ਉਪੋਸਥਕਮ੍ਮਂ	-10.7659
▁ਸੇਨਾ	-10.766
▁ਠਾਨਾਨਿ	-10.7661
▁ਉਪੇਕ੍ਖਾਯ	-10.7663
ਾਸੇਟ੍ਠ	-10.7665
▁ਹੋਤੂ	-10.7669
▁ਪਾਤਿਮੋਕ੍ਖਸ	-10.7672
ਪਟਿਬਦ੍ਧ	-10.7673
▁ਤਦਞ੍ਞ	-10.7673
▁ਰਾਹੁਲ	-10.7674
ਮਚ੍ਛ	-10.7677
ਪੂਰ	-10.768
ਤ੍ਥੇਰਸ੍ਸਾਪਦਾਨ	-10.768
▁ਪਟਿਗ੍ਗਣ੍ਹਾਤਿ	-10.7681
▁ਕੋਪ	-10.7681
ਦੀਨਂ	-10.7689
▁ਲੋਹ	-10.769
▁ਸਬ੍ਬੇਨ	-10.7693
ਪਦੇਨ	-10.7694
▁ਏਹਿ	-10.7694
ਗਰੁ	-10.7695
ਸਮ੍ਪਨ੍ਨਾ	-10.7696
▁ਲੂਖ	-10.7699
ਪਟਿਮਣ੍ਡਿਤ	-10.7701
▁ਅਦ੍ਧ	-10.7708
ਭੂਤੇਨ	-10.7715
▁ਕਰੋਹਿ	-10.7715
▁ਕਞ੍ਞਾ	-10.7716
▁ਸੁਤੇਨ	-10.7721
ਕਰਂ	-10.7722
▁ਅਰੂਪਿਨੋ	-10.7724
ਕੁਮ੍ਭ	-10.7725
ਮਯ੍ਹਂ	-10.7726
ਆਦੀਨਿ	-10.7729
▁ਪੁਥੁਜ੍ਜਨਾ	-10.7729
ਿਮਲ	-10.7731
ਪਨੇਤ੍	-10.7732
▁ਦੇਸਿਤ	-10.7737
▁ਸੁਗਤਿ	-10.7739
ਭਾਣ	-10.7741
▁ਆਚਰਿਯੇਨ	-10.7742
▁ਤਾਪਸ	-10.7746
ਸਿਕ੍ਖ	-10.7754
ਯੋਗੋ	-10.7755
ਚੁਣ੍ਣ	-10.7758
▁ਭੁ	-10.7758
▁ਯਮ	-10.7762
▁ਅਨੁਬਨ੍ਧ	-10.7762
▁ਪੁਪ੍ਫਂ	-10.7762
ਛਨ੍ਦ	-10.7764
ਿਰੁਦ੍ਧ	-10.7766
ਤਿਣ	-10.7769
▁ਪਸਾਰੇ	-10.7771
ਤ੍ਤਿਕਂ	-10.7772
▁ਕਞ੍ਚਨ	-10.7774
▁ਪਰਿਕ੍ਖਾਰ	-10.7782
ਪਾਣ	-10.7783
▁ਅਰਹਨ੍ਤ	-10.7784
ੇਤੇ	-10.7786
ਕਾਸਾ	-10.7786
▁ਅਤ੍ਤਮਨਾ	-10.7788
▁ਮੁਤ੍ਤਾ	-10.7789
ੁਪ੍ਪਾਦਨ	-10.7792
▁ਮੇਥੁਨਂ	-10.7793
▁ਪੇਸੇਸਿ	-10.7794
ੇਰਂ	-10.7794
ਪਰਿਯਨ੍ਤ	-10.7795
▁ਠ	-10.7806
▁ਅਯਮ	-10.7806
▁ਨਾਨਾਕ੍ਖਣਿਕਾ	-10.7806
ਸਾਧਾਰਣ	-10.7807
▁ਗੋਣ	-10.7809
ਭੋਜਨਂ	-10.7811
ਲਞ੍ਚ	-10.7812
ਸੋਭ	-10.7821
ਚ੍ਛਰ	-10.7823
▁ਤੇਨਾਤਿ	-10.7824
▁ਅਪਚ੍ਚ	-10.7825
▁ਬਹੁਸ੍ਸੁਤੋ	-10.7827
▁ਬੁਦ੍ਧਿ	-10.7828
▁ਧਨੁ	-10.7831
ਿਪਸ੍ਸਿਸ੍ਸ	-10.7835
ਦਾਮ	-10.7835
▁ਪਾਨੀਯਂ	-10.7836
▁ਉਦ੍ਦਿਸ	-10.784
▁ਪਟਿਚ੍ਚਸਮੁਪ੍ਪਨ੍ਨ	-10.784
▁ਆਯ	-10.784
▁ਸਾਗਰ	-10.7842
▁ਹੀਨਂ	-10.7844
▁ਤਿਕ੍ਖ	-10.7844
ਕ੍ਖਣ	-10.7852
▁ਪਞ੍ਞਪੇਨ੍ਤਿ	-10.7853
ਸਮ੍ਪਨ੍ਨਂ	-10.7854
▁ਰਤਨਂ	-10.7854
▁ਸਮ੍ਬੁਦ੍ਧ	-10.7855
▁ਉਕ੍ਖਿਪ	-10.7856
ਨ੍ਦੇ	-10.7857
▁ਮੁ	-10.7862
▁ਅਞ੍ਞਾਣਂ	-10.7869
▁ਇਮ	-10.7869
▁ਗੋਤਮਂ	-10.7874
▁ਦਿਟ੍ਠਧਮ੍ਮਿਕ	-10.7875
ਤ੍ਥੁਕਥਾ	-10.7885
▁ਸੀਲੇਸੁ	-10.7887
▁ਤਾਦਿਨੋ	-10.7897
ਟ੍ਠਾਨਤੋ	-10.7897
▁ਪਾਤਿਮੋਕ੍ਖ	-10.7898
▁ਬੋਧ	-10.79
▁ਉਗ੍ਗਤ	-10.79
▁ਪਰਿਭ	-10.7901
ਹਤ੍ਥੋ	-10.7906
▁ਮਾਯਾ	-10.7908
ਸਾਮਞ੍ਞ	-10.7911
ਮਾਦਾਯ	-10.7918
▁ਦੇਸੇਸ੍ਸਾਮਿ	-10.7919
ਾਰਾਮ	-10.792
▁ਅਬ੍ਭਨ੍ਤਰ	-10.792
ਚਤ੍ਤਾਰੋ	-10.7921
▁ਸਪ੍ਪਾਯ	-10.7921
▁ਅਧਿਪ੍ਪਾਯੇਨ	-10.7928
▁ਉਪੇਕ੍ਖਿਨ੍ਦ੍ਰਿਯ	-10.7931
▁ਸੇਲ	-10.7934
▁ਹੋਨ੍ਤੁ	-10.7934
ਏਹਿ	-10.7936
▁ਠਪਿਤਾ	-10.7937
▁ਆਰਮ੍ਮਣਪੁਰੇਜਾਤਂ	-10.7937
▁ਪਰਿਕਮ੍ਮ	-10.7938
▁ਲਬ੍ਭਤੀਤਿ	-10.7938
▁ਪਰਿਬ੍ਬਾਜਕੋ	-10.7939
▁ਸੋਣ	-10.7939
▁ਗਣ੍ਹਨ੍ਤੋ	-10.7941
ਯਮਕ	-10.7945
▁ਦੂਰਤੋ	-10.7949
▁ਪਕ੍ਖਿਪ	-10.795
▁ਸੋਭਨ	-10.7951
▁ਕਰਣੀਯਾ	-10.7952
▁ਸਮਤਿਕ੍ਕਮ੍ਮ	-10.7953
ਯਸ੍ਮਿਂ	-10.796
▁ਸਨ੍ਨਿ	-10.7962
ਸਮ੍ਮੁਤਿ	-10.7963
ਮੁਤ੍ਤੋ	-10.7963
ਿਪ੍ਪਯੁਤ੍ਤਚਿਤ੍ਤ	-10.7964
▁ਸਮੋ	-10.7965
▁ਕਿਰਿਯ	-10.7967
ਤ੍ਤਿਨੋ	-10.797
▁ਪਰਮਤ੍ਥਤੋ	-10.7971
ਭਿਕ੍ਖੂ	-10.7973
▁ਫੁਸ੍ਸ	-10.7974
ਕਭਾ	-10.7975
ੀਤਰਾਗੋ	-10.7976
▁ਧੀਤਾ	-10.7978
▁ਪੁਥੁਜ੍ਜਨਸ੍ਸ	-10.798
ਉਤ੍ਤਰਿਮਨੁਸ੍ਸਧਮ੍ਮ	-10.7985
ਪਟਿਸਂਯੁਤ੍ਤ	-10.7989
▁ਭੋਜਨੇ	-10.7994
▁ਯਦ	-10.7996
ਕੁਸਲਾ	-10.7997
▁ਰਟ੍ਠਂ	-10.8005
ਿਞ੍ਞੇਯ੍ਯ	-10.8006
ਾਕਾਰਂ	-10.8008
▁ਅਭਿਧਮ੍ਮ	-10.8014
▁ਜਨਂ	-10.8014
▁ਜਮ੍ਬੁਦੀਪ	-10.8014
▁ਅਦਿਨ੍ਨਂ	-10.8016
ਕਾਲ਼	-10.8016
▁ਆਰਮ੍ਮਣੂਪਨਿਸ੍ਸਯੋ	-10.8018
▁ਏਕਤ੍ਤ	-10.8022
▁ਸਨਿਦਸ੍ਸਨਸਪ੍ਪਟਿਘ	-10.8025
▁ਭਾਰ	-10.8026
▁ਅਨੁਰੂਪ	-10.8031
ਚਾਰ	-10.8034
▁ਕਥਿਤ	-10.8037
▁ਚਿਨ੍ਤ	-10.8039
▁ਦੁਕ੍ਕਰ	-10.8039
▁ਏਕਦੇਸ	-10.8041
ਯੋਗੇਨ	-10.8043
▁ਕਰੋਨ੍ਤਾ	-10.8047
▁ਸਸ	-10.8047
▁ਪੁਤ੍ਤਸ੍ਸ	-10.8047
▁ਥੁਲ੍ਲਚ੍ਚਯਸ੍ਸ	-10.8049
▁ਦਾ	-10.805
▁ਪਕ੍ਖਿਤ੍ਤ	-10.805
ਨਿਬ੍ਬ	-10.8054
ੁਤ੍ਤਞ੍ਹਿ	-10.8054
▁ਚੁਤਾ	-10.8056
▁ਦਾਤਬ੍ਬ	-10.8059
▁ਅਰਞ੍ਞਂ	-10.806
ਾਚਕ	-10.8068
ਏਸ	-10.8069
ਞ੍ਚੇਤ੍ਥ	-10.807
▁ਮਹਾਜਨੋ	-10.8071
▁ਪਚ੍ਚਯਭਾ	-10.8075
ਾਹਨ	-10.8076
▁ਸਜ੍ਝਾਯ	-10.8076
ਸਮ੍ਬੋਜ੍ਝਙ੍ਗੋ	-10.8077
▁ਕਰਿਸ੍ਸਾਮੀ	-10.8077
ਿਸ੍ਸਾ	-10.8078
▁ਨਿਦਾਨਂ	-10.8082
ਨੇਯ੍ਯ	-10.8085
▁ਅਨੁਜਾਨ	-10.8086
ਪਤ੍ਤਂ	-10.8087
▁ਇਸ੍ਸਰੋ	-10.8087
▁ਸਾਪਿ	-10.8088
▁ਇਸ੍ਸਾ	-10.809
ਆਦੀਹਿ	-10.8094
▁ਪਟਿਲਭਤਿ	-10.8094
▁ਪਞ੍ਹੇ	-10.8095
▁ਹਰਿਤ	-10.8097
ਮੁਖੋ	-10.8098
▁ਸਰੋ	-10.8098
▁ਮਹਾਦਾਨਂ	-10.81
▁ਪਰਿਨਿਬ੍ਬੁਤੋ	-10.8101
▁ਉਪ੍ਪਜ੍ਜਿਤ੍	-10.8109
▁ਪਰਿਨਿਬ੍ਬਾਨ	-10.8111
▁ਆਦਿਯ	-10.8114
ਮਰ	-10.8117
▁ਅਸ੍ਮਿਂ	-10.8117
▁ਕਰਣਂ	-10.8119
▁ਸਿਰਸਾ	-10.8122
▁ਮਨਾਪ	-10.8124
▁ਪੂਜ	-10.8126
▁ਸਮਥੋ	-10.8127
ਸਭਾਗ	-10.813
▁ਅਸੇਸ	-10.8133
▁ਪਸ੍ਸਂ	-10.8138
ਸਙ੍ਗ	-10.8138
▁ਪੂਤਿ	-10.8142
ਾਸੀਤਿ	-10.8146
ਣਾ	-10.8149
▁ਉਪਧਿ	-10.815
▁ਸਨ੍ਤਕ	-10.8152
ਨਿਪਾਤ	-10.8153
▁ਸੋਤਾਪਤ੍ਤਿਫਲ	-10.8158
▁ਮਾਲਾ	-10.816
ਤ੍ਥੂਹਿ	-10.816
ਸੀਸੇਨ	-10.8161
ਰੋਪਨ	-10.8163
▁ਭੋਗਾ	-10.8164
ਦਤੀਤਿ	-10.8168
ਨਿਸ੍ਸਿਤਾ	-10.8171
ਟ੍ਠਿ	-10.8179
ਿਜ੍ਜਤੀ	-10.8181
▁ਯੁਤ੍ਤਾ	-10.8184
▁ਮੇਤ੍ਤਂ	-10.8186
ਦਾਯ	-10.8186
ਸਮਯ	-10.8187
ਿਟ੍ਠਂ	-10.8188
▁ਅਦਤ੍	-10.8191
▁ਏਕਮ੍ਪਿ	-10.8192
ਰਹ	-10.82
ਪ੍ਪਕਾਰ	-10.8202
▁ਛਨ੍ਦਰਾਗ	-10.8202
▁ਧਮ੍ਮਚਕ੍ਕਂ	-10.8202
▁ਪੁਰਤ੍ਥਿਮ	-10.8204
▁ਮਨਾਪਾ	-10.8205
▁ਆਹਾਰਾ	-10.8205
ਾਯੋ	-10.8207
ਪਾਦਕ	-10.8209
▁ਬਾਹੁ	-10.8209
▁ਪੋਰਾਣ	-10.8209
▁ਨਾਨਤ੍ਤ	-10.8209
▁ਉਜ੍ਝਾਯਨ੍ਤਿ	-10.8213
▁ਪਹਰ	-10.8214
▁ਪੁਬ੍ਬਾਪਰ	-10.8216
ਸਙ੍ਗਹਿਤ	-10.8218
ੂਪਸਨ੍ਤ	-10.8221
ਾਚਾਹਿ	-10.8229
▁ਪਞ੍ਞਾਸ	-10.8229
ੇਧੋ	-10.8232
▁ਦੇਸੇਨ੍ਤੋ	-10.8233
ਕਤਮਾ	-10.8233
ਯਤ੍ਥ	-10.8235
ਪਣ੍ਡਿਤੋ	-10.8236
▁ਸਮੁਦਾਯ	-10.824
ਮਭਿ	-10.8243
▁ਘੋਸ	-10.8245
▁ਹੋਨ੍ਤੀ	-10.8245
ਧੁਰ	-10.8248
ਪਕ੍ਕ	-10.825
▁ਅਭਿਞ੍ਞੇਯ੍ਯੋ	-10.8251
ਸਮਾਦਾਨ	-10.8256
ਾਯਮ	-10.8256
ਿਸ੍ਸਾਮਾ	-10.8259
▁ਕਾਮੇਸੁਮਿਚ੍ਛਾਚਾਰ	-10.826
▁ਪਞ੍ਚਿਨ੍ਦ੍ਰਿਯਾਨਿ	-10.826
▁ਆਪੋ	-10.8263
▁ਸਬ੍ਬਾਸ	-10.8264
ੇਸਂ	-10.8266
ਿਪ੍ਪਯੁਤ੍ਤਸ੍ਸ	-10.8272
▁ਅਧਮ੍ਮੇਨ	-10.8273
▁ਮੁਖੇਨ	-10.8276
▁ਸਙ੍ਘਾਦਿਸੇਸੋ	-10.828
▁ਹਾਰ	-10.829
▁ਤਣ੍ਡੁਲ	-10.8295
ੁਤ੍ਤੇਪਿ	-10.8296
▁ਯੋਗੋ	-10.8297
ਪਸਾਦ	-10.8298
▁ਸਣ੍ਹ	-10.83
▁ਨੋਚਿਤ੍ਤ	-10.83
▁ਪਂਸੁ	-10.8302
▁ਯੋਜਨ	-10.8302
ਪਾਲ	-10.8309
▁ਅਜ੍ਝਾਸਯ	-10.8309
▁ਪਕਾਸਿਤੋ	-10.8312
▁ਉਸ੍ਸਾਹ	-10.8313
▁ਪਦਾਨਂ	-10.8315
ਿਦਾ	-10.8316
ਸੇਟ੍ਠ	-10.8317
▁ਸਿਸ੍ਸ	-10.8323
ਤ੍ਥੁਪੁਰੇਜਾਤਂ	-10.8324
▁ਅਪਚਯਗਾਮਿ	-10.8324
ਚੇਤਿਯ	-10.8326
▁ਅਹੋਸਿਂ	-10.8331
▁ਫਲਸਮਾਪਤ੍ਤਿਯਾ	-10.8332
ਸ੍ਮਿਞ੍ਹਿ	-10.8332
ਸ੍ਸਾਮੀਤਿ	-10.8336
▁ਦਹ	-10.834
▁ਰੁਕ੍ਖਂ	-10.8351
▁ਖੇਤ੍ਤਂ	-10.8355
▁ਸਮਾਗਤਾ	-10.8355
ਕਸ੍ਮਾ	-10.8359
ਪਚ੍ਚੁਪਟ੍ਠਾਨਾ	-10.8363
ਾਰੇਨ੍ਤਿ	-10.8363
▁ਅਪਰਿ	-10.8363
▁ਮਤ੍ਥਕੇ	-10.8363
▁ਇਤ੍ਥਨ੍ਨਾਮੋ	-10.8365
ਅਤ੍ਤ	-10.8367
▁ਸੇਯ੍ਯਂ	-10.8369
ਸੇਸਤੋ	-10.837
ਮਨਾ	-10.837
▁ਕੁਲਾਨਿ	-10.8373
ਿਨਿਂ	-10.8374
ਸਹਿਤ	-10.8376
ਿਜਯ	-10.8379
▁ਸਮ੍ਮਾਆ	-10.838
▁ਕੁਜ੍ਝ	-10.838
▁ਤਾਪਸੋ	-10.8381
▁੧੩੦	-10.8383
ਨਿਚ੍ਚ	-10.8385
▁ਨਾਸ	-10.8385
ਕ੍ਰਿਯਾ	-10.8385
ਾਦਕ	-10.8386
▁ਅਤ੍ਥਾ	-10.8386
▁ਇਸ੍ਸਰ	-10.8387
▁ਧਾਤੂਨਂ	-10.8389
▁ਭਦ੍ਰ	-10.8392
▁ਦੁਤਿਯਮ੍ਪਿ	-10.8392
▁ਅਨਾਪਤ੍ਤੀਤਿ	-10.8392
ਪਰਿਯਾਯੋ	-10.8393
▁ਕੁਸਲਾਕੁਸਲ	-10.8394
ੁਟ੍ਠਿ	-10.8395
▁ਸਮਾਪਨ੍ਨਸ੍ਸ	-10.8395
▁ਅਨਞ੍ਞ	-10.8399
ਗਤੇ	-10.8401
▁ਖਾਦਨੀਯਂ	-10.8401
ਕ੍ਖਨ੍ਧੋ	-10.8404
ਿਨੋਦਨ	-10.8404
▁ਭੂਤਂ	-10.8407
▁ਆਚਰਿਯਸ੍ਸ	-10.8409
▁ਸਮਥੇਹਿ	-10.8411
▁ਪਬ੍ਬਜ੍ਜ	-10.8416
ਬੁਦ੍ਧਿ	-10.8418
ਕਮ੍ਪਿ	-10.8419
ਕ੍ਕਮੇਨ	-10.8419
ਸਥ	-10.8421
▁ਦੁਰ	-10.8432
ਨ੍ਦਿ	-10.8434
▁ਦੁਕ੍ਕਟਨ੍ਤਿ	-10.8436
▁ਨਸਰਣ	-10.8438
ਪਨ੍ਨ	-10.8445
▁ਰਾਗਂ	-10.8446
ਪਾਰਮੀ	-10.8446
▁ਪੁਰਿਸੇਨ	-10.8447
▁ਪਟਿਚ੍ਛਨ੍ਨ	-10.845
▁ਅਮੂਲ਼੍ਹ	-10.8451
ਿਨਂ	-10.8452
▁ਮਲ੍ਲ	-10.8457
ਦੋਸੋ	-10.846
▁ਤਥਾਗਤੇਨ	-10.846
▁ਪਰਿਞ੍ਞਾ	-10.8462
ਗਬ੍ਭ	-10.8463
▁ਨਿਰੁਜ੍ਝਿਸ੍ਸਨ੍ਤਿ	-10.8464
▁ਆਰਭਤਿ	-10.8464
▁ਅਹੇਤੁਕਪਟਿਸਨ੍ਧਿ	-10.8466
▁ਮਞ੍ਞਮਾਨੋ	-10.8467
ਜਾਤਂ	-10.8467
▁ਕਥੇਤੁਂ	-10.8467
▁ਧਨੇਨ	-10.8468
ਪਾਨ	-10.847
▁ਪਸਾਦੋ	-10.847
ਸਹਗਤ	-10.8471
▁ਪੂ	-10.8471
▁ਚੁਣ੍ਣ	-10.8473
ਞ੍ਜਨ	-10.848
▁ਨਾਗਰਾਜਾ	-10.8483
▁ਉਪਸਗ੍ਗ	-10.8486
ਾਯਮਤਿ	-10.8487
▁ਤਿਤ੍ਥਿਯ	-10.8488
▁ਉਟ੍ਠਿਤ	-10.8488
▁ਨਾਮਾਨਿ	-10.8489
▁ਗਹਿਤਤ੍ਤਾ	-10.849
ਪਟਿਪਤ੍ਤਿ	-10.8492
▁ਪਰਿਭੁਞ੍ਜ	-10.8495
▁ਏਤਾਯਾਤਿ	-10.8499
▁ਜਰਾਯ	-10.8499
ਨਿਕਾਯ	-10.8509
ਬ੍ਰਹ੍ਮਚਰਿਯ	-10.851
▁ਕਯਿਰਾ	-10.851
▁ਸਮ੍ਪਟਿਚ੍ਛ	-10.8514
▁ਭੇਸਜ੍ਜਂ	-10.8516
▁ਸਮਨ੍ਨਾਗਤੇਨ	-10.8517
ਪਣ੍ਡਿਤ	-10.8517
ਦਮਾਨੋ	-10.8518
▁ਞਾਣਸ੍ਸ	-10.8519
▁ਅਰਹਤ੍ਤਮਗ੍ਗ	-10.8519
ਜ੍ਝਾ	-10.8521
ਰਣੋ	-10.8522
ਦਿਨ੍ਨ	-10.8525
ਕਾਰੇਨ	-10.8526
ਤ੍ਤਾਨਿ	-10.8526
▁ਅਬ੍ਭਨ੍ਤਰੇ	-10.8531
▁ਨਖ	-10.8534
ਜ੍ਝਾਸਯ	-10.8537
▁੧੨੯	-10.8543
▁ਫਰ	-10.8547
ਿਧਿਂ	-10.8548
▁ਕੁਕ੍ਕੁਟ	-10.8555
▁ਪਚ੍ਛਿਮਂ	-10.8559
▁ਸਤ੍ਤਮੋ	-10.8564
▁ਜਮ੍ਬੁ	-10.857
▁ਸਮ੍ਮਪ੍ਪਧਾਨ	-10.8572
▁ਉਗ੍ਗ	-10.8577
▁ਅਨੁਯੁਞ੍ਜ	-10.8577
ਦਿਤ੍	-10.8579
▁ਸੀਸੇ	-10.8579
▁ਪਭੁਤਿ	-10.8582
▁ਪਬ੍ਬਤੇ	-10.8582
▁ਸਮਾਧਿਸ੍ਮਿਂ	-10.8587
੨੦	-10.8588
ਕਮ੍ਮੇ	-10.8588
▁ਰਤ੍ਤਿਨ੍ਦ	-10.8593
▁ਯਾਚਿ	-10.8593
▁ਰਾਸਿ	-10.8594
ਸਮ੍ਮਾ	-10.8595
▁ਚੋਰਾ	-10.8595
ਿਸੇਸਨਂ	-10.8596
▁ਸੁਨ੍ਦਰਂ	-10.86
▁ਪਰਮਂ	-10.8602
ਕਾਰੇ	-10.8603
▁ਬਲਾਨਿ	-10.8605
▁ਸਮ੍ਪਜਾਨਮੁਸਾ	-10.8605
▁ਸੁਦ੍ਧਿ	-10.8605
ਧਾਯ	-10.8606
ਿਪਲ੍ਲਾਸੋ	-10.8606
▁ਅਚ੍ਚ	-10.8607
▁ਹੋਹਿ	-10.8607
ਕਨ੍ਤ	-10.8609
ਿਨ੍ਦੋ	-10.861
▁ਉਗ੍ਗਣ੍ਹ	-10.8612
▁ਅਰ	-10.8614
▁ਅਰਣੋ	-10.8615
ਧਰੋ	-10.8615
ਾਨਮਿਨ੍ਦੋ	-10.8615
▁ਬ੍ਯਾਪਾਦੋ	-10.8617
▁ਗੋਤ੍ਤੇਨ	-10.8619
ਾਦਾਧਿਕਰਣਂ	-10.8619
▁ਅਨੁਸ੍ਸਰ	-10.8619
▁ਪਚ੍ਚਯੁਪ੍ਪਨ੍ਨ	-10.8622
ਇਚ੍ਚਾਦਿ	-10.8622
ਾਸਕੋ	-10.8623
▁ਪਨੇਸ	-10.8628
▁ਉਪਸਮ	-10.863
▁ਠਾਨਾ	-10.863
▁ਸਬ੍ਬੇਹਿ	-10.8632
▁ਮਾਨੁਸਂ	-10.8633
▁ਰਤਿ	-10.8634
▁ਥਿਨਮਿਦ੍ਧ	-10.8634
ਧਿਕ	-10.8635
▁ਅਭਿਕ੍ਕਨ੍ਤ	-10.8636
▁ਉਪ੍ਪਜ੍ਜਨਕ	-10.8638
▁ਛਬ੍ਬਿਧ	-10.864
▁ਸਾਦਿਯ	-10.8642
▁ਅਦੁਕ੍ਖਮਸੁਖਂ	-10.8648
▁ਅਧਿਪ੍ਪਾਯ	-10.8648
▁ਨਿਕ੍ਖਮਿ	-10.8652
▁ਸਞ੍ਚਿਚ੍ਚ	-10.8653
ਕਰਾ	-10.8658
▁ਹਤ੍ਥੀ	-10.8658
ੇਸੀਤਿ	-10.866
ਾਹੀ	-10.8662
ਿਸ੍ਸਜ੍ਜਨਂ	-10.8663
▁੧੪੦	-10.8664
▁ਧਾਤ੍	-10.8664
ਾਸੀਨਂ	-10.8666
▁ਸੀ	-10.8666
▁ਪੇਤ੍ਤਿ	-10.8668
ਤ੍ਤਮਾਨਾ	-10.8669
ਪਚ੍ਚਯੇ	-10.867
ਪੁਤ੍ਤਾ	-10.8672
ਿਰਾਗੋ	-10.8674
▁ਇਮਾਨੇਤ੍ਥ	-10.8676
▁ਕਰੋਮਿ	-10.8677
▁ਉਦਾਨੇਸਿ	-10.8678
ਿਞ੍ਞਾਣਞ੍ਚਾਯਤਨ	-10.8678
▁ਸਮ੍ਮਤਿ	-10.8679
▁ਯੁਗ	-10.8684
ਿਭਤ੍ਤਾ	-10.8684
▁ਅਨਾਗਤਾ	-10.8695
▁ਅਨੁਰੁਦ੍ਧ	-10.8697
ਟ੍ਠੇ	-10.8698
ਣ੍ਹ	-10.8702
ਇਦਾਨਿ	-10.8704
▁ਤਿਰਚ੍ਛਾਨਗਤ	-10.8704
▁ਗਚ੍ਛਨ੍ਤੇ	-10.8709
ਿਰਤਾ	-10.871
▁ਨਿਪਾਤਮਤ੍ਤਂ	-10.8713
ੁਤ੍ਤੇਸੁ	-10.8713
▁੧੩੫	-10.8714
▁ਉਪਾਦਾਨਸਮ੍ਪਯੁਤ੍ਤ	-10.8714
▁ਉਪਾਦਾਰੂਪਂ	-10.8715
ਿਭਾਗੇਨ	-10.8716
ਪ੍ਪਹਾਨਂ	-10.8716
▁ਕੁਬ੍ਬ	-10.872
▁ਗੁਲ਼	-10.8722
ੁਤ੍ਤੇਨ	-10.8723
▁ਮਾਰਸ੍ਸ	-10.8724
▁ਅਹੇਤੁਕੋ	-10.8727
▁ਪਹੀਨਤ੍ਤਾ	-10.8729
ਆਹਾਰ	-10.8731
ੀਤਿਨਾਮੇ	-10.8731
▁ਸਮ੍ਬਹੁਲੇ	-10.8741
ਿਗਤਪਚ੍ਚਯਾ	-10.8742
ਾਪਦਾਨਂ	-10.8742
▁ਮਨੁਸ੍ਸਲੋਕੇ	-10.8743
▁ਯਦਿਪਿ	-10.8748
▁ਗਣ੍ਡ	-10.8759
▁ਅਨੁਸ੍ਸਾ	-10.8761
ਕਾਰਕੋ	-10.8764
▁ਕੁਟਿ	-10.8764
▁ਗਤਂ	-10.8765
▁ਭਿਕ੍ਖੁਨਿ	-10.8767
ਪਾਸਾਦ	-10.8769
▁ਰਸੋ	-10.8774
ਭਯੇਨ	-10.8775
▁੧੩੭	-10.8776
▁ਅਚ੍ਛਰਾ	-10.8778
ਪ੍ਪਚ੍ਚਯੋ	-10.878
▁ਅਮੁ	-10.8781
▁ਪਰਕ੍ਕਮ	-10.8782
ਿਰਾਜ	-10.8782
ਪਰਿਯੋਸਾਨ	-10.8784
▁੧੩੩	-10.8791
▁ਅਨੁਪ੍ਪਤ੍ਤੋ	-10.8794
ਮਨੁਸ੍ਸੇਸੁ	-10.8794
▁ਪਣ	-10.8794
▁ਉਰ	-10.8796
ਚਰਿਯ	-10.8797
▁ਉਟ੍ਠਾਨ	-10.8802
▁ਮਤ੍ਤ	-10.8805
▁ਧਮ੍ਮਧਾਤੁ	-10.8805
ਪਞ੍ਚਿਮੇ	-10.8806
ਿਞ੍ਞੇਯ੍ਯੋ	-10.8809
▁ਕੋਸਿਯ	-10.8813
ਤ੍ਥੇਰਅਪਦਾਨਂ	-10.8813
▁ਇਮਞ੍ਚ	-10.8816
ਸਿਤ	-10.8816
▁ਮਨਸਿਕਾਰ	-10.8816
ਸਿਦ੍ਧ	-10.8817
▁ਆਰਕ੍ਖ	-10.8818
▁ਮੋਹਂ	-10.882
▁ਪਲਾਯ	-10.8821
▁ਏਕਨ੍ਤੇਨ	-10.8821
▁ਮੇਘ	-10.8824
ਲੋਪ	-10.8827
▁ਤਿਧਾ	-10.8827
▁ਖਿਯ੍ਯਨ੍ਤਿ	-10.8828
▁ਕਾਰਿਤੇ	-10.8831
▁ਉਦ੍ਧਚ੍ਚਸਹਗਤੋ	-10.8832
▁ਪੁਨਪਿ	-10.8835
▁ਸਮਾਪਨ੍ਨੋ	-10.8838
▁ਫਲਾਨਿ	-10.8848
ਿਹਾਰਿਕ	-10.885
▁ਕਮ੍ਮੁਨਾ	-10.885
▁ਸਮਾਧਿਨ੍ਦ੍ਰਿਯਂ	-10.8851
▁ਸਕ੍ਕਾਯਦਿਟ੍ਠਿ	-10.8853
▁ਸੀਹਨਾਦਂ	-10.8855
▁ਅਪ੍ਪਮਾਣਂ	-10.8855
▁ਸਾਸਨਸ੍ਸ	-10.8855
▁ਅਯੁਤ੍ਤ	-10.8858
▁ਛਤ੍ਤਿਂਸ	-10.8865
ਦਸ੍ਸੀ	-10.8868
▁ਤੇਜੋ	-10.8868
▁ਸੇਸਾਨਿ	-10.8871
▁ਅਨਾਦਰਿਯਂ	-10.8872
ਸਨ੍ਥ	-10.8872
▁ਪਰਿਪੁਚ੍ਛ	-10.8876
▁ਸਿਕ੍ਖਾਪਦਾਨਿ	-10.8878
▁ਪਸ੍ਸੇਯ੍ਯ	-10.8881
▁ਇਸ੍ਸ	-10.8881
▁ਪੁਮ	-10.8883
ਞ੍ਞਂ	-10.8885
▁ਪਾਣਂ	-10.8891
ਪ੍ਯ	-10.8892
ਚ੍ਛਨ੍ਨ	-10.8898
▁ਦਸ੍ਸਾਮੀ	-10.8899
▁ਸੋਕਪਰਿਦ	-10.8899
ਞ੍ਞੋ	-10.8902
ਲਯ	-10.8906
ਾਤਪਾਨ	-10.8906
ਿਨਿਪਾਤਂ	-10.8908
ਉਦ੍ਧਚ੍ਚਕੁਕ੍ਕੁਚ੍ਚ	-10.8908
▁ਤੇਜੋਧਾਤੁ	-10.8908
▁ਅਤਿਕ੍ਕਨ੍ਤ	-10.8911
ਯਮਾਨਾ	-10.8915
▁ਸਾਯਂ	-10.8916
▁ਧਮ੍ਮਕਥਂ	-10.8919
▁ਏਤਾ	-10.892
ਪਞ੍ਚਹਿ	-10.8922
▁ਅਯਮਸ੍ਸ	-10.8923
ਸੁਦ੍ਧਿ	-10.8926
▁ਪਰਿਤ੍ਤੋ	-10.8928
▁ਠਪਿਤਂ	-10.8928
▁ਸਤ੍ਤੁ	-10.8929
ਦਹ	-10.8935
▁ਸਂਯੋਗ	-10.8935
ਸਣ੍ਠਾਨ	-10.8937
ਿਞ੍ਞਾਣਪਚ੍ਚਯਾ	-10.894
ਮੂਲਂ	-10.8941
▁ਪਞ੍ਹ	-10.8942
▁ਕਲਹ	-10.8942
▁ਅਸ੍ਸੁਤ	-10.8948
▁ਜਾਯ	-10.8949
ਲਕ	-10.8949
▁ਧਾਤੂ	-10.895
▁ਭਿਕ੍ਖੁਸਙ੍ਘੋ	-10.8951
▁ਸਗ੍ਗੇ	-10.8954
▁ਤੇਸਮ੍ਪਿ	-10.8954
▁ਸਂਯੋਜਨਾਨਿ	-10.8955
ਾਦਿਭੇਦਂ	-10.8955
▁ਤਸ੍ਸਾਪਿ	-10.8956
▁ਮਾਤੁਗਾਮੋ	-10.8956
▁ਪਟਿਗ੍ਗਣ੍ਹ	-10.8957
▁ਨਿਬ੍ਬਤ੍ਤੇ	-10.8958
▁ਓਤ੍ਤਪ੍ਪ	-10.8959
ਰਤਨਂ	-10.8963
▁ਧੁਤਙ੍ਗ	-10.8965
ਸਨ੍ਤਾ	-10.8969
▁ਜਨ੍ਤੁ	-10.8972
▁ਆਪਨ੍ਨ	-10.8974
▁ਪਰਿਚ੍ਛਿਨ੍ਨ	-10.8978
▁ਮੁਞ੍ਚਿਤ੍	-10.8981
▁ਗਰੁਕ	-10.8981
▁ਉਪ੍ਪਜ੍ਜਨ੍ਤੀਤਿ	-10.8988
ਮੁਦ	-10.8988
▁ਕੁਹਿਂ	-10.8988
ਿਹਰਤੀਤਿ	-10.8991
ਇਮਸ੍ਮਿਂ	-10.8992
▁ਪਸਾਦੇ	-10.8992
▁ਆਗਚ੍ਛ	-10.8992
▁ਹੇਤ੍ਥ	-10.8993
▁ਦੇਹਂ	-10.8993
▁ਮਹਨ੍ਤੋ	-10.8995
▁੧੩੨	-10.8995
ਸਾਧੂ	-10.8997
▁ਬਾਧ	-10.9
▁ਸਂਯੋਜਨਾਨਂ	-10.9002
ਸਞ੍ਞਾਨਾਸਞ੍ਞਾਯਤਨਂ	-10.9002
▁ਅਭਯ	-10.9004
ਟ੍ਟਨ੍ਤਿ	-10.9005
▁ਗਙ੍ਗਾ	-10.9005
▁ਪਰਿਯੋਸਾਨ	-10.9007
ਿਗ੍ਗਹ	-10.9007
▁ਤੇਸਨ੍ਤਿ	-10.9009
ਭਾਜਨ	-10.9009
▁ਉਦਾਨ	-10.901
▁ਓਤਰਿਤ੍	-10.901
▁ਅਦ੍ਦਸਂ	-10.9011
ਯੁਤ੍ਤਂ	-10.9012
▁ਲੋਹਿਤਂ	-10.9016
▁ਪੁਚ੍ਛਨ੍ਤੋ	-10.9017
▁ਗਚ੍ਛਨ੍ਤਂ	-10.9019
੧੨	-10.9022
▁ਫਸ੍ਸਪਚ੍ਚਯਾ	-10.9023
▁ਛਤ੍ਤਂ	-10.9025
▁ਤਾਹਿ	-10.9025
▁ਪਠਮੇਨ	-10.9026
ਚਿਤ੍ਤਾਨਿ	-10.9027
▁ਧੀਰਾ	-10.9029
ਮਨ੍ਤੋ	-10.903
ਨਭਾ	-10.9031
ਯੋਨਿ	-10.9031
▁ਤਿਲ	-10.9032
▁ਪੂਰਿਤ	-10.9033
ਤ੍ਤਕ	-10.9034
▁੧੩੮	-10.9034
ਨਪਚ੍ਚਯੇਨ	-10.9035
▁ਉਪਟ੍ਠਾਤਿ	-10.9035
▁ਏਕੇਕਂ	-10.9037
ੇਲਾਯਂ	-10.9039
ਸਬ੍ਬਂ	-10.904
▁ਤਿਟ੍ਠਤੀਤਿ	-10.9041
▁ਚਰਨ੍ਤੋ	-10.9041
ਯੋਗੇ	-10.9043
▁ਅਨੁਮੋਦ	-10.9046
▁ਆਪ	-10.9047
ਿਜ੍ਝਨ	-10.9047
▁ਮਨੁਸ੍ਸੇ	-10.9051
ਸਨ੍ਨ	-10.9051
ਹਙ੍ਗੇਹਿ	-10.9052
▁ਦਧਿ	-10.9057
▁ਸਨ੍ਤਾਨੇ	-10.9057
▁ਖਜ੍ਜ	-10.9064
▁ਨਿਬ੍ਬਾਨਞ੍ਚ	-10.9064
▁ਸਪ੍ਪੀਤਿਕ	-10.9066
▁ਰਾਗਾਦਿ	-10.9069
▁ਸੋਤਾਪਤ੍ਤਿਮਗ੍ਗ	-10.907
▁ਪਟਿਸਨ੍ਧਿਂ	-10.9074
▁ਪੁਰੇਜਾਤਸ੍ਸ	-10.9074
▁ਤਥਾਗਤ	-10.9077
▁ਖਲੁ	-10.9081
ਕੁਟਿ	-10.9081
▁ਧਮ੍ਮਿਕ	-10.9082
ੋਦਾਨ	-10.9084
▁ਭਗ੍ਗ	-10.9085
ਗੇਹ	-10.9086
▁ਜਾਤਿਂ	-10.909
ਰਟ੍ਠੇ	-10.9093
▁ਰਕ੍ਖਿਤ	-10.9094
▁੧੩੪	-10.9095
▁ਤਦੁਭਯ	-10.9096
ਿਧਮ੍ਪਿ	-10.9096
▁ਬ੍ਰਹ੍ਮਲੋਕੇ	-10.9096
ਚਕ੍ਕਂ	-10.9097
▁ਸਾਰਥਿ	-10.9099
ਪਟਿਚ੍ਛਨ੍ਨ	-10.9101
▁ਚਤੁਤ੍ਥਜ੍ਝਾਨ	-10.9102
ਸਂਯੁਤ੍ਤਂ	-10.9104
ਸਙ੍ਖੇਪ	-10.9105
▁ਮਹਲ੍ਲਕ	-10.9106
▁ਅਭਿਜ੍ਝਾਦੋਮਨਸ੍ਸਂ	-10.9107
ਪਮਾਣ	-10.9112
ਪਾਸ	-10.9114
▁ਪਰਾਭ	-10.9114
▁ਮਯ	-10.9115
ਸੀਹ	-10.9116
▁ਦੇਹੀ	-10.9117
▁੧੩੧	-10.9121
▁ਆਬਾਧ	-10.9123
ਮਜ੍ਝਿਮ	-10.9124
▁ਪਾਦਂ	-10.9129
▁ਸਿਨੇਹ	-10.913
▁ਕਿਤ੍ਤ	-10.9133
▁ਅਚ੍ਛਿਨ੍ਨ	-10.9133
▁ਸਮਾਦਿਨ੍ਨ	-10.9136
ਾਦੀਤਿ	-10.9137
▁ਰਾਧ	-10.9138
ੇਤੁਕਾਮੋ	-10.9139
▁ਪਜਾਯ	-10.9142
ਿਪਾਚੇਨ੍ਤਿ	-10.9142
▁ਸੁਖੁਮਾ	-10.9142
ਿਸਾਖ	-10.9144
ਪੂਰਣ	-10.9144
ਜਾਨਿਤ੍	-10.9148
▁ਧਾਰੇਤਿ	-10.9148
ੇਕ੍ਖਣਾ	-10.9149
▁ਧੂਮ	-10.9149
▁ਥੇਯ੍ਯ	-10.915
ਸਹਸ੍ਸਂ	-10.9152
ਸੁਭ	-10.9152
▁ਅਨ੍ਤਰਾਮਗ੍ਗੇ	-10.9154
▁ਤਣ੍ਹ	-10.9155
▁ਮਹਾਮੋਗ੍ਗਲ੍ਲਾਨੋ	-10.9155
▁ਪਦੇਸ	-10.9158
ੁਸ	-10.9161
▁ਪਤਿਟ੍ਠਿਤਾ	-10.9163
ਤ੍ਥੁਮ੍ਹਿ	-10.9165
ਿਜ੍ਜਂ	-10.9165
ਚਾਰੀ	-10.9167
ਭਙ੍ਗ	-10.9167
ਗੋਚਰ	-10.9175
▁੧੩੬	-10.9176
▁ਲਿਖਿਤਂ	-10.9179
ਿਤਿਨ੍ਦ੍ਰਿਯਞ੍ਚ	-10.918
ਸੋਕ	-10.918
ਧਰ	-10.9182
▁ਪੁਞ੍ਞਕਮ੍ਮ	-10.9183
▁ਥਾ	-10.9186
ਭਾਰ	-10.9187
▁ਅਯੋਨਿਸੋ	-10.9188
ਞਾਣੇਨ	-10.9188
ਜਿਨ	-10.9189
▁ਅਗਾਰਂ	-10.9189
▁ਚਣ੍ਡਾਲ	-10.9192
▁ਅਜ੍ਝਤ੍ਤਿਕਂ	-10.9193
▁ਦਿਟ੍ਠਧਮ੍ਮਸੁਖ	-10.9194
▁ਇਸ੍ਸਰਿਯ	-10.9196
ਿਞ੍ਞਾਯਤਿ	-10.9199
ਾਨਮਿਨ੍ਦ	-10.9202
▁ਪਰਿਞ੍ਞਾਤ	-10.9205
▁ਪਕ੍ਖੇ	-10.9206
▁ਤਯਿਦਂ	-10.9207
▁ਨਿਰੋਧਾ	-10.9212
▁ਚੇਤੇਤਿ	-10.9214
ਿਨਿਪਾਤ	-10.9214
ਙ੍ਕੋ	-10.9215
▁ਹਿਂਸ	-10.9222
▁ਭਿਤ੍ਤਿ	-10.9222
ਦਣ੍ਡਕ	-10.9223
▁ਭੂਤਾ	-10.9224
▁ਚੇਤਿਯਂ	-10.9225
▁ਕਾਤਬ੍ਬ	-10.9229
▁ਸਬ੍ਬੇਸਮ੍ਪਿ	-10.9232
▁ਅਲੋਭੋ	-10.9242
▁ਸਲ਼ਾਯਤਨ	-10.9244
ਿਸ੍ਸਜ੍ਜਿਤ	-10.9245
ਿਨ੍ਦਤਿ	-10.9248
▁ਸਮਤ੍ਥ	-10.9248
▁ਉਚ੍ਚਾ	-10.925
ਮਹਂ	-10.9255
▁ਪਞ੍ਚਦ੍	-10.9257
ਸਮਤ੍ਥ	-10.9261
▁ਲੋਕਿਯਾ	-10.9264
▁ਕਾਰੇਤਬ੍ਬੋ	-10.9264
▁ਅਞ੍ਞਤਰਸ੍ਸ	-10.9265
▁ਕੁਲਗੇਹੇ	-10.9266
▁ਉਤ੍ਤਮੋ	-10.9267
ਮਾਹੁ	-10.9268
▁ਸਮ੍ਮਾਸਙ੍ਕਪ੍ਪੋ	-10.9268
ਾਯੋਧਾਤੁ	-10.9268
ਤ੍ਤਾਯ	-10.9275
▁ਸੋਚਤਿ	-10.9277
ਸਮਾਪਤ੍ਤਿਯਾ	-10.9285
▁ਗਚ੍ਛਨ੍ਤਸ੍ਸ	-10.9285
▁ਕੇਸਾ	-10.9285
ਨ੍ਤੋਤਿ	-10.9285
▁ਸੇਕ੍ਖ	-10.9286
▁ਪਠਨ੍ਤਿ	-10.9286
▁ਆਕਿਞ੍ਚਞ੍ਞਾਯਤਨਂ	-10.9288
▁ਪਤਿਟ੍ਠਿਤੋ	-10.9289
ਾਕਾਰੋ	-10.9291
ਤ੍ਥੁਕਂ	-10.9291
ਸਨ੍ਨਿਸ੍ਸਿਤ	-10.9293
ੇਲਾਯ	-10.9296
ਭੇਦੇ	-10.9297
ਿਸੁਦ੍ਧਿਯਾ	-10.9298
▁ਸੁਖੀ	-10.9299
▁ਉਗ੍ਗਹ	-10.9301
▁ਸਬ੍ਬਲੋਕ	-10.9303
▁ਸਙ੍ਖੇਪੋ	-10.9306
▁ਪੁਚ੍ਛਿਤਬ੍ਬਤ੍ਤਾ	-10.9308
ਤਾਦਿਸੋ	-10.9308
ਪਿਟ੍ਠਿ	-10.9308
▁ਯੋਨਿ	-10.9309
▁ਆਪਦਾਸੁ	-10.931
▁ਅਞ੍ਞਾਤਕ	-10.9311
▁ਸਕ੍ਕਸ੍ਸ	-10.9313
▁ਸਤ੍ਤੇਸੁ	-10.9317
▁ਸਮੇਨ੍ਤਿ	-10.9319
▁ਉਟ੍ਠ	-10.932
▁ਬਹੂਨਂ	-10.9324
▁ਅਪਾਯਂ	-10.9325
▁ਲੋਣ	-10.9326
ਟਂ	-10.9327
ਦਾਸ	-10.9328
ਾਧਿਪ੍ਪਾਯ	-10.9328
▁ਆਮਨ੍ਤੇ	-10.9328
▁ਸੇਟ੍ਠਂ	-10.9329
▁ਪਞ੍ਞਤ੍ਤੋ	-10.9331
▁ਸਮਾਪਜ੍ਜਿਤ੍	-10.9331
▁ਸੀਮ	-10.9335
ਚਰਸ੍ਸ	-10.9337
▁ਗੋਤ੍ਤ	-10.9339
–	-10.9339
ਮਜ੍ਜ	-10.9343
ਗ੍ਗੇਨ	-10.9344
▁ਗੁਣੇਹਿ	-10.9347
▁ਹਾ	-10.9354
▁ਭਾਸਿਤਸ੍ਸ	-10.9355
▁ਬੋਧਿਸਤ੍ਤ	-10.9355
▁ਚਙ੍ਕਮ	-10.9357
▁ਮੋਚੇ	-10.9358
ਇਮਸ੍ਸ	-10.936
▁ਫੁਟ੍ਠ	-10.936
▁ਭਿਜ੍ਜਤਿ	-10.9362
▁ਇਦ੍ਧ	-10.9362
▁ਸਮਣਂ	-10.9363
ਸਨਟ੍ਠਾਨਂ	-10.9364
ਧਾਨ	-10.9368
▁ਨਿਸ੍ਸਯੋ	-10.937
ਅਦ੍ਧਾ	-10.937
▁ਏਤਨ੍ਤਿ	-10.9371
▁ਚਰਣ	-10.9371
▁ਘਾਨਂ	-10.9371
ਞ੍ਛ	-10.9378
ਿਸੇਸਾ	-10.9378
ਪਟਿਗ੍ਗਹਣ	-10.9378
▁ਤਮ੍ਹਿ	-10.9378
▁ਅਸਮ੍ਭ	-10.938
▁ਅਪਰਾਪਰਂ	-10.9382
▁ਕਾਯਾਨੁਪਸ੍ਸੀ	-10.9382
ਨਸਨਿਦਸ੍ਸਨਸਪ੍ਪਟਿਘ	-10.9383
ੇਸ੍ਸਨ੍ਤਿ	-10.9384
▁ਓਲ਼ਾਰਿਕਾ	-10.9387
ਾਦਿਕੋ	-10.9388
ਯੁਤ੍ਤਾ	-10.9391
ਸਬ੍ਭਾ	-10.9393
▁ਸਿਕ੍ਖਿਤਬ੍ਬਂ	-10.9395
ਰੋਧ	-10.9396
▁ਨਿਰੋਧਂ	-10.9404
ਭੇਸਜ੍ਜ	-10.9406
▁ਸਗਾਰ	-10.9407
▁ਸਾਖਾ	-10.9409
▁ਨਿਪਨ੍ਨ	-10.9411
▁ਅਪ੍ਪਣਿਹਿਤ	-10.9412
▁ਆਸਨ	-10.9412
▁੧੩੯	-10.9414
▁ਰੂਪਞ੍ਚ	-10.9415
▁ਅਨ੍ਤਿਮ	-10.9416
ਮੋਚ	-10.9418
▁ਤੇਨੁਪਸਙ੍ਕਮਿਂਸੁ	-10.942
ਿਮ	-10.9423
▁ਸਕਦਾਗਾਮੀ	-10.9424
ਿਮੇ	-10.9429
▁ਰੂਪਾਯਤਨਞ੍ਚ	-10.9429
▁ਪਟਿਕ੍ਕਮ	-10.943
▁ਚਿਤੋ	-10.9434
▁ਸੁਪ	-10.9437
▁ਮੁਖੇ	-10.944
▁ਅਰਣ	-10.9442
▁ਅਦਾ	-10.9444
ਿਜ੍ਜਨ੍ਤਿ	-10.9445
ਪਦਤ੍ਥ	-10.9448
▁ਆਲਪਤਿ	-10.9451
▁ਪਞ੍ਚਸਤ	-10.9453
▁ਮਤ੍ਥਕਂ	-10.9455
▁ਪਾਠ	-10.9456
ਰਤਾ	-10.946
▁ਸਤ੍ਤਮੀ	-10.9461
ੇਤੁ	-10.9464
▁ਮਯ੍ਹ	-10.9465
ਦਾਯਕੋ	-10.9466
ਕਾਰਾ	-10.9467
▁ਸਙ੍ਘਾਦਿਸੇਸ	-10.9472
▁ਛਟ੍ਠੋ	-10.9472
▁ਭਾਜਨ	-10.9473
ਿਤਿਨ੍ਦ੍ਰਿਯ	-10.9474
ਾਦਿਮ੍ਹਿ	-10.9475
▁ਸਦ੍ਧ	-10.9475
▁ਨਿਰੁਜ੍ਝਿਤ੍ਥਾਤਿ	-10.9477
ੀਰਿਯਿਨ੍ਦ੍ਰਿਯਂ	-10.9481
▁ਪੁਪ੍ਫਾਨਿ	-10.9481
ਤ੍ਤਾਨਂ	-10.9482
▁ਪਜਹਤੀਤਿ	-10.9484
▁ਓਕਾਸੋ	-10.9485
ਪਾਸਾਣ	-10.9487
ਰਾਦਿ	-10.9488
ਿਤਕ੍ਕਾ	-10.9489
▁ਧਾਰੇਯ੍ਯ	-10.949
ਨੀਤ	-10.949
ੇਹੇ	-10.9491
ਰਾਧ	-10.9492
ਮਾਯ	-10.9493
▁ਪਸਨ੍ਨਚਿਤ੍ਤੋ	-10.9493
ਿਪਸ੍ਸੀ	-10.9494
▁ਅਘ	-10.9495
ੁਤ੍ਤਮ	-10.9497
▁ਨਿਬ੍ਬਤ੍ਤਾ	-10.9506
ਚਨੋ	-10.9509
ਅਮ੍ਹਾਕਂ	-10.9511
▁ਸਙ੍ਖਾਰੋ	-10.9515
ਾਯਾਮ	-10.9517
ਣ੍ਣਨਾਯਂ	-10.9517
▁ਆਨਨ੍ਦਂ	-10.9518
ਸਤ੍ਤੋ	-10.9523
▁ਆਘਾਤ	-10.9523
ਦਨ੍ਤਾ	-10.9524
▁ਸਕ੍ਖਿ	-10.9526
ਪਤ੍ਤਿ	-10.9527
ਿਪਾਕਾਨਂ	-10.9528
ੁਪ੍ਪਨ੍ਨ	-10.9528
▁ਏਤ	-10.9532
▁ਪਟਿਜਾਨ	-10.9535
ਸਾਮਣੇਰ	-10.9536
▁ਅਤੀਤਾ	-10.9538
▁ਪਞ੍ਞਤ੍ਤ	-10.9538
ਖੀਣਾਸ	-10.954
ਪਰਿਚ੍ਚਾਗ	-10.954
ੀਚਿ	-10.9543
▁ਪਰਿਭੁਞ੍ਜਤਿ	-10.9544
ਦਸ੍ਸ	-10.9548
ਪਦੇਸ	-10.9551
▁ਕਪ੍ਪਤਿ	-10.9551
▁ਸਨ੍ਤਾ	-10.9554
ਤ੍ਯਾਦਿ	-10.9554
ਰਜ੍ਜ	-10.9554
ਣੇ	-10.9561
▁ਆਰ	-10.9566
ੇਦਨਨ੍ਤਿ	-10.9568
ਪਰਿਲ਼ਾਹ	-10.957
ਮੂਲਕਾ	-10.9572
▁ਅਸ੍ਸਾਦੋ	-10.9573
▁ਪਚ੍ਚਸ੍ਸੋਸੁਂ	-10.9574
▁ਪਾਪਕਮ੍ਮ	-10.9576
▁ਪੇਚ੍ਚ	-10.9577
ਟ੍ਟਨਾ	-10.9577
ਸ੍ਮੀਤਿ	-10.9581
▁ਧੀਰ	-10.9584
▁ਸਙ੍ਘਮਜ੍ਝੇ	-10.9585
ਤ੍ਤਿਤੋ	-10.9587
▁ਪਲ	-10.9588
▁ਇਨ੍ਦ੍ਰਿਯੇਸੁ	-10.959
ਿਮੁਚ੍ਚਤਿ	-10.9594
ਦੀਪਕ	-10.9598
ਤੇਸਂ	-10.9599
ੇਲ	-10.9601
ਯਸ੍ਮਾ	-10.9602
▁ਕਾਮਾਸ	-10.9602
▁ਪਚ੍ਛਾਭਤ੍ਤਂ	-10.9603
▁ਅਯੋ	-10.9604
ਭਾਗੇ	-10.9606
ਲੋਚਨ	-10.9606
ਸਹਗਤਾ	-10.9607
ਯਥਾਪਿ	-10.9608
▁ਛਟ੍ਠੀ	-10.9608
▁ਚਣ੍ਡ	-10.9609
▁ਅਭਿਧਮ੍ਮੇ	-10.961
▁ਗਚ੍ਛਤੀ	-10.961
▁ਨਿਪਜ੍ਜ	-10.961
ੋਕਾਰਾਨਂ	-10.9611
ਾਯਪਿ	-10.9611
▁ਤਚ੍ਛ	-10.9613
ਮਾਤਿਕਾ	-10.9614
▁ਪਟਿਕ੍ਖਿਪ	-10.9618
▁ਸਕੇ	-10.9618
▁ਦਿਟ੍ਠਧਮ੍ਮ	-10.9618
▁ਸਖਾ	-10.9619
▁ਮੋਦ	-10.962
ੇਦਨਾਪਚ੍ਚਯਾ	-10.962
▁ਗਜ	-10.9621
ਮਰਣ	-10.9624
▁ਮਹਬ੍ਬਲੋ	-10.9625
▁ਧੁਰਂ	-10.9625
ਟ੍ਟਕ	-10.9631
▁ਭਗਿਨੀ	-10.9635
▁ਅਪ੍ਪੇ	-10.9635
▁ਉਪਟ੍ਠਪੇ	-10.9638
▁ਡ	-10.9638
▁ਗਿਲ	-10.9641
▁ਅਭਿਕ੍ਕਮ	-10.9641
ਤ੍ਤਤ੍ਤਾ	-10.9641
▁ਅਪਨੇ	-10.9642
▁ਪਨਾਹਂ	-10.9647
▁ਪਾਟਿਕਙ੍ਖਾ	-10.9647
ਮਞ੍ਚ	-10.9648
▁ਤਪੋ	-10.9648
▁ਪਰਿਯਾਯੋ	-10.9651
▁ਪਹੋਤਿ	-10.9652
▁ਉਪਟ੍ਠਹ	-10.9652
▁ਭਙ੍ਗ	-10.9654
▁ਪੁਮੇ	-10.9655
ੂਪਸਮਾ	-10.9655
ਪਰਿਚ੍ਛੇਦੋ	-10.9658
▁ਕਥਿਨਂ	-10.966
▁ਹਤ	-10.9663
ਰਕ੍ਖਿਤ	-10.9664
▁ਸਂਸਯ	-10.9664
▁ਯਤ੍ਰ	-10.967
▁ਨਿਗ੍ਗਹ	-10.9674
▁ਗਹੇਤਬ੍ਬਾ	-10.9675
▁ਬ੍ਰਾਹ੍ਮਣਾਨਂ	-10.9677
ੁਚ੍ਚਮਾਨੋ	-10.9677
▁ਪਬ੍ਬਜ	-10.9678
▁ਲਾਭੋ	-10.9678
▁ਕਾਮਾਨਂ	-10.9678
ਜਾਤਕੇ	-10.968
▁ਬ੍ਯਾ	-10.9682
▁ਪਗ੍ਗਣ੍ਹ	-10.9683
ਿਞ੍ਞਾਣੇ	-10.9684
▁ਖਣਂ	-10.9692
▁ਬਹ	-10.9695
▁ਨਿਯਤੋ	-10.9695
▁ਬਹੁਤਰਾ	-10.9699
▁ਕਾਸਾ	-10.9699
ਸਨ੍ਤਤਿ	-10.97
▁ਪਭਾਸਤੀ	-10.9701
▁ਸੁਰਾ	-10.9701
▁ਅਕ੍ਖਿ	-10.9701
ਿਕ੍ਕਯ	-10.9702
ਿਪਾਕਪਚ੍ਚਯ	-10.9705
▁ਪੁਨਦਿ	-10.9709
▁ਸਮਾਨਾ	-10.9714
▁ਯਞ੍ਹਿ	-10.9718
ਏਤ੍ਥ	-10.9722
ਿਮੋਕ੍ਖਾ	-10.9722
▁ਉਰੁ	-10.9725
ੇਸ੍ਸਤਿ	-10.9727
ਪ੍ਪਤ੍ਤਂ	-10.9727
ਯਾਨ	-10.9728
▁ਮਾਤਾਪਿਤੂਨਂ	-10.9731
▁ਪਸਨ੍ਨਾ	-10.9736
▁ਪਰਿਯਾਦਾਯ	-10.9737
▁ਮਨਿਨ੍ਦ੍ਰਿਯਞ੍ਚ	-10.974
▁ਹੇਮ	-10.974
▁ਪਮੋਦ	-10.9742
ਕੁਸਲਤ੍ਤਿਕਂ	-10.9743
▁ਸਂਸਨ੍ਦਨ੍ਤਿ	-10.9744
▁ਸਮ੍ਪਤ੍ਤਿਂ	-10.9746
▁ਪੂਰਣ	-10.9746
▁ਪਾਨੀਯ	-10.9747
▁ਕਲਾਪ	-10.9749
ਸਿਰਿ	-10.975
▁ਞਾਣਾਨਿ	-10.9751
▁ਬਹੁਧਾ	-10.9752
▁ਨਾਰੀ	-10.9753
▁ਅਮਨੁਸ੍ਸ	-10.9755
▁ਉਦ੍ਧਰਿ	-10.9757
▁ਅਹਞ੍ਚ	-10.9761
▁ਛਨ੍ਦਰਾਗੋ	-10.9761
▁ਆਹਚ੍ਚ	-10.9762
ਿਦਿਤਂ	-10.9764
▁ਅਞ੍ਞਿਨ੍ਦ੍ਰਿਯਂ	-10.9767
ਿਭਤ੍ਤਂ	-10.9767
ਯਤੇ	-10.9768
▁ਨਪੁਰੇਜਾਤਪਚ੍ਚਯਾ	-10.9771
ਿਸਾਣ	-10.9771
▁ਅਚਕ੍ਖੁਕਾਨ	-10.9772
ਸਯਨ	-10.9778
▁ਰੂਪਾਦਿ	-10.9778
▁ਗਲ	-10.978
▁ਪਰਿਪੂਰੇਤਿ	-10.9783
ਸਮਥ	-10.9784
▁ਯਥ	-10.9785
▁ਫਰੁਸ	-10.9788
▁ਪਰਿਕਮ੍ਮਂ	-10.9788
ਧਰਾ	-10.9788
▁ਅਰਿਯਸਚ੍ਚ	-10.9788
▁ਤਿਰਚ੍ਛਾਨ	-10.9791
▁ਕਣ੍ਟਕ	-10.9792
▁ਆਕਾਸਾਨਞ੍ਚਾਯਤਨਂ	-10.9796
▁ਦੁਤਿਯਜ੍ਝਾਨ	-10.9796
ਨਿਯਤ	-10.9797
ਕ੍ਖਯ	-10.9798
ਤੇਲ	-10.9803
▁ਕੋਸਲ	-10.9806
ਚਤੁਤ੍ਥ	-10.9806
▁ਪਾਕਾਰ	-10.9808
ਿਪਤ੍ਤਿਯਾ	-10.9809
ਤ੍ਥੇਰਅਪਦਾਨ	-10.9809
ਿਪਾਕਧਮ੍ਮਧਮ੍ਮਂ	-10.981
ਤਲੇ	-10.9816
▁ਸਂਸਾਰੇ	-10.982
▁ਕੁਚ੍ਛਿਤ	-10.9825
ਿਸ੍ਸਨ੍ਤੀਤਿ	-10.9826
ਕ੍ਕਮੋ	-10.9827
▁ਕਪ੍ਪੇਤਿ	-10.9829
▁ਪਰਿਸਂ	-10.9832
ਕਲ੍ਯਾਣ	-10.9835
▁ਅਰਹਤਿ	-10.9836
▁ਮੂਲੇ	-10.9841
▁ਆਸਯ	-10.9841
ਪੁ	-10.9843
▁ਸਮਾਦਿਯ	-10.9846
ਸਮ੍ਪਦਾਯ	-10.9848
▁ਪਯੋਜਨਂ	-10.9849
ਾਰਮ੍ਮਣੇ	-10.9851
▁ਹਿਸ੍ਸ	-10.9853
▁ਇਚ੍ਛਨ੍ਤਿ	-10.9853
▁ਸਾਲਿ	-10.9854
ਭਿਨ੍ਨ	-10.9854
▁ਕੁਚ੍ਛਿ	-10.9857
▁ਅਨਭਿ	-10.9859
ੇਠ	-10.9868
ਫ	-10.987
▁ਬ੍ਰਹ੍ਮਲੋਕ	-10.9874
ਕੀਲ਼	-10.9877
ਕਥਾਯਂ	-10.9877
▁ਨਿਕ੍ਖਿਤ੍ਤ	-10.9878
ੁਤ੍ਤਾਨਂ	-10.9878
▁ਕਮ੍ਮਪਥ	-10.9878
▁ਪਕ੍ਕੋਸਾਪੇ	-10.988
▁ਧੁਤ	-10.9884
▁ਨਿਕ੍ਖਨ੍ਤੋ	-10.9885
▁੧੫੬	-10.9885
▁ਯੋਜੇਤਬ੍ਬੋ	-10.9886
ਾਸਨੇ	-10.9888
▁ਨਿਦ੍ਦਿਟ੍ਠ	-10.989
ਜ੍ਜਿਤ	-10.9892
ਅਤ੍ਤਨੋ	-10.9894
▁ਅਜਾਨਨ੍ਤੋ	-10.9898
ਿਰੋਧੋ	-10.9901
▁ਪੀਲ਼	-10.9905
▁ਖਿਪ੍ਪ	-10.9906
ਤਿਆਦੀਹਿ	-10.9908
ਿਮਾ	-10.9908
ਪਟਿਪਦਾ	-10.991
▁ਸਨ੍ਤਤਿ	-10.9914
ਾਨੁਲੋਮ	-10.9915
ਕਣ੍ਣ	-10.9916
ਸੇਨਾਸਨ	-10.9918
▁ਅਦਿਨ੍ਨਾਦਾਨ	-10.9923
▁ਅਰਹ	-10.9925
ੇਲਾ	-10.993
▁ਸਙ੍ਗਹਿਤ	-10.9931
ੂਪਪਤ੍ਤਿ	-10.9934
▁ਨਾਪਰਂ	-10.9934
▁ਘਾਨਿਨ੍ਦ੍ਰਿਯਞ੍ਚ	-10.9935
▁ਇਤ੍ਥਤ੍ਤਾਯਾ	-10.9935
ਚ੍ਛਿਨ੍ਨ	-10.9937
▁ਣ੍	-10.9941
ਚ੍ਛਾਯ	-10.9945
ੇਦਨੀਯਂ	-10.9947
▁ਦੂਸ	-10.9948
▁ਏਕਤ੍ਥ	-10.9951
ਚਤ੍ਤਾਰੋਮੇ	-10.9953
▁ਕਰਣੀਯੋ	-10.9954
▁ਆਕਾਸੋ	-10.9955
▁ਸਙ੍ਖਾਰਪਚ੍ਚਯਾ	-10.9958
▁ਪਰਿਹਾਯਨ੍ਤਿ	-10.996
▁ਪੂਜਾ	-10.9961
ਹਮਸ੍ਮਿ	-10.9961
ਪਥੇ	-10.9961
ਕੁਮਾਰੋ	-10.9962
▁ਅਬ੍ਭੁਤਂ	-10.9966
ੁਦ੍ਦੇਸ	-10.9967
ੇਸ੍ਸਾਮੀ	-10.9967
ਸਙ੍ਖਤ	-10.9967
▁ਸਮਤਿਕ੍ਕਮ	-10.9968
ਉਪੋਸਥ	-10.9968
▁ਦੀਘਂ	-10.9968
▁ਆਚਿਕ੍ਖਿ	-10.997
▁ਅਜਾਤਸਤ੍ਤੁ	-10.9973
▁ਸਂਸਰਨ੍ਤੋ	-10.9973
▁ਏਕਜ੍ਝਂ	-10.9976
▁ਠਿਤਿਯਾ	-10.9977
ਪੂਜ	-10.9978
ਤਿਸ੍ਸੋ	-10.9978
▁ਲੋਕੁਤ੍ਤਰਾ	-10.998
▁੧੫੦	-10.9985
▁ਮਤ੍ਤਿਕਾ	-10.9988
▁ਰਸਾ	-10.9989
▁ਸਂਸ	-10.9989
▁ਮਹਿ	-10.999
▁੧੪੮	-10.9991
▁ਪਾਸਾਦਿਕ	-10.9996
ਪਞ੍ਚਕ	-10.9999
▁ਛਾਯਾ	-10.9999
▁ਦਿਨ੍ਨੋ	-11.0004
▁ਉਜੁਂ	-11.0005
ਜਲ	-11.0005
▁ਸਿਕ੍ਖਿਤਬ੍ਬ	-11.0005
▁ਮਤਿ	-11.0005
ਸੇਟ੍ਠਿ	-11.0007
▁ਰਾਜਗਹਂ	-11.001
▁ਪਾਨ	-11.0013
▁ਪਰਿਸੁਦ੍ਧਾ	-11.0013
ੇਯ੍ਯਾਕਰਣ	-11.0017
ਤਿਂਸ	-11.0017
▁ਅਰੂਪਾਨਂ	-11.0017
ਿਸੁ	-11.0019
▁ਸਿਲਾ	-11.0021
ਪ੍ਪਚ੍ਚਯ	-11.0023
▁ਧਮ੍ਮਾਯਤਨਞ੍ਚ	-11.0027
▁ਪਹੂਤ	-11.0029
ਾਚਾਰ	-11.0034
▁ਨਾਯਂ	-11.0041
ਬਦ੍ਧ	-11.0043
▁ਭੁਤ੍	-11.0047
ਙ੍ਗਣ	-11.0047
▁ਕਰਣੇ	-11.0048
▁ਕਿਲੇਸੋ	-11.005
▁ਪਟਿਗ੍ਗਹਿਤ	-11.0052
▁ਥੇਰੇ	-11.0053
▁੧੪੧	-11.0053
▁ਅਨਨ੍ਤਰਂ	-11.0053
▁ਪਰਿਭੁਞ੍ਜਿਤੁਂ	-11.0054
▁ਮਨੁਞ੍ਞ	-11.0055
ਪਚ੍ਚੁਪ੍ਪਨ੍ਨ	-11.0059
▁ਲਕ੍ਖਣਾਨਿ	-11.0059
▁ਬਨ੍ਧਨਂ	-11.006
ਣ੍ਣਨਂ	-11.0066
▁ਦੁਚ੍ਚਰਿਤ	-11.0066
▁ਅਪਗਤ	-11.0069
ਾਰੇਹਿ	-11.007
▁ਰਸਂ	-11.007
▁ਸਮਾਸੋ	-11.0071
ਾਚੋ	-11.0073
▁ਧਮ੍ਮਦੇਸਨਾਯ	-11.0074
▁ਕਰੋਹੀ	-11.008
▁ਮਹਗ੍ਘ	-11.0084
ਿਹਾਰੇਨ	-11.0084
▁ਕਪ੍ਪਿਯਂ	-11.0091
ਅਸੁਕ	-11.0092
ੇਦਿਯ	-11.0093
ਿਨ੍ਦ੍ਰਿਯਾ	-11.0093
ੇਦਨੀਯ	-11.0095
▁ਸੇਕ੍ਖਾ	-11.0096
ਪਾਣਿ	-11.0096
▁ਕਿਲੇਸੇਹਿ	-11.0097
▁ਅਦ	-11.01
ਤ੍ਥਾਨ	-11.0102
ਸਤ੍ਥਾ	-11.0102
▁ਆਰਕਾ	-11.0105
▁ਉਪਸਮ੍ਪਨ੍ਨੋ	-11.0105
ਿਚਯ	-11.0105
ਿਹਾਸਿ	-11.0107
▁ਜਾਗਰ	-11.0108
▁ਪਹੀਨਂ	-11.0108
ਸਤ੍ਤਾ	-11.0108
▁ਸਨਿਦਸ੍ਸਨ	-11.0109
▁ਕਕ੍ਖਲ਼	-11.0112
▁ਪਰਿਸੁਦ੍ਧਂ	-11.0114
▁ਡਂਸ	-11.0115
▁ਲਜ੍ਜ	-11.0115
ਿਞ੍ਞਾਣਧਾਤੁਯਾ	-11.0115
▁ਨਰਾ	-11.0117
ਚਰਿਤ	-11.012
ਜਾਤਿਕਾ	-11.0121
ਪਰਿਸੁਦ੍ਧ	-11.0121
▁ਆਰਭਿ	-11.0122
▁ਸਮ੍ਪਰਾਯਿਕ	-11.0123
▁ਮੁਨਿਨ੍ਦ	-11.0125
▁ਚਤੁਕ੍ਕਂ	-11.0125
▁ਅਚਿਰ	-11.0126
ਤੀਹਿ	-11.0126
ੁਜ੍ਜ	-11.0128
▁ਕਾਰੇਤਿ	-11.0129
▁ਤਨ੍ਤ	-11.0132
▁ਆਰੋਹ	-11.0136
▁ਰਿਤ੍ਤ	-11.0137
▁ਸਮ੍ਮਪ੍ਪਞ੍ਞਾਯ	-11.0137
▁ਨਪ੍ਪਜਾਨਾਤਿ	-11.0137
▁ਸਾਮੀ	-11.0138
▁ਆਨਿਸਂਸ	-11.0138
▁ਬੁਦ੍ਧਪੂਜਾਯਿ	-11.0138
ਿਕਨ੍ਤਿ	-11.0139
▁ਉਦਯ	-11.0143
ਪ੍ਪਮਾਣੋ	-11.0146
ਾਸਯ	-11.0146
ਪਟਿਪਦਂ	-11.0149
ਲਾਭੀ	-11.015
▁ਸੁਞ੍ਞ	-11.0151
▁ਜਾਨਤੋ	-11.0152
▁ਨਾਗਾ	-11.0156
ਪਕ	-11.0157
▁ਸੁਦ੍ਧਿਂ	-11.0158
▁ਉਪ੍ਪਜ੍ਜਮਾਨਾ	-11.0159
▁ਏਕਚ੍ਚ	-11.0159
▁ਯਦੇ	-11.016
▁ਥੇਰਾਨਂ	-11.0164
▁ਅਮਚ੍ਚਾ	-11.0166
ਗਮ੍ਮ	-11.0166
ਰੇਯ੍ਯ	-11.0168
ਸਂਸਾਰ	-11.0169
ਧਾਤੁਯਾ	-11.0171
▁ਪਹਾਤਬ੍ਬਸ੍ਸ	-11.0173
▁ਉਪਰੂਪਰਿ	-11.0179
▁ਸਮ੍ਪਜਾਨਕਾਰੀ	-11.0179
▁ਉਪ੍ਪਜ੍ਜਿਸ੍ਸਨ੍ਤਿ	-11.018
▁ਦੂਤ	-11.0181
▁ਗਿਲਾਨਸ੍ਸ	-11.0182
▁ਪੁਰਿਮਬੁਦ੍ਧ	-11.0183
ਿਤੋਤਿ	-11.0185
ਿਨਸ੍ਸ	-11.0185
ਰਜ੍ਜੁ	-11.0189
ਸਾਸ	-11.0192
▁ਅਞ੍ਞਤਰੇਨ	-11.0193
▁ਦਸਸੁ	-11.0193
▁੧੪੨	-11.0199
▁ਸਹਸ੍ਸਾਨਿ	-11.0202
▁੧੪੭	-11.0203
▁ਆਪੁਚ੍ਛ	-11.0204
▁ਅਧਿਗਤੋ	-11.0207
▁ਦਮ	-11.0212
▁ਪਤਿਟ੍ਠਹਿ	-11.0212
▁ਉਦ੍ਧਟ	-11.0213
▁ਟ	-11.0214
ਾਦਯੋਪਿ	-11.0214
ਾਰਹੋ	-11.0215
ਿਪਸ੍ਸਤਿ	-11.0217
▁ਸੇਨਾਪਤਿ	-11.0217
▁ਤਞ੍ਚੇ	-11.0218
▁ਮਾਤਲਿ	-11.022
▁ਦਨ੍ਧ	-11.0221
ਚਤ੍ਤਾਲੀਸ	-11.0222
ਨ੍ਦਨ	-11.0222
ਾਧਿਗਮ	-11.0224
▁ਯੋਗਿਨਾ	-11.0225
ਨਾਮਯ	-11.0225
▁ਇਮਾਹਿ	-11.0226
▁ਭਿਕ੍ਖੂਸੁ	-11.0232
ਿਚਰਤਿ	-11.0241
ਭੇਦਾ	-11.0243
▁ਪਭੇਦ	-11.0243
▁ਅਸਙ੍ਖਤਾ	-11.0243
ਦੇਤਿ	-11.0243
▁ਯੇਨਾਯਸ੍ਮ	-11.0243
▁੧੪੪	-11.0245
▁ਪਰਲੋਕ	-11.0247
ਯ੍ਹ	-11.0252
ਭਦ੍ਦ	-11.0252
▁ਅਨੁਪ੍ਪਨ੍ਨਾ	-11.0253
ਰਾਜਸ੍ਸ	-11.0253
ਘਰ	-11.0254
▁ਤੇਸਞ੍ਚ	-11.0255
▁ਪੁਗ੍ਗਲਿਕ	-11.0255
▁ਆਦਿਤ੍ਤ	-11.0259
▁ਉਪਟ੍ਠਾਕ	-11.0259
ਾਥ	-11.026
▁ਚਤੁਰਾਸੀਤਿ	-11.026
ਕਰਣਤੋ	-11.0261
▁ਦਿਸਾਸੁ	-11.0262
▁ਸਾਮ	-11.0265
ਤਾਤ	-11.0266
▁ਪਹਾਰ	-11.0267
▁ਖਿਤ੍ਤ	-11.0269
▁ਭਿਨ੍ਦਤਿ	-11.027
▁ਅਗ੍ਗਂ	-11.027
▁ਅਨਿਚ੍ਚਾਦਿ	-11.0271
ਗੂ	-11.0271
▁ਸੂਪ	-11.0275
ੇਚ੍ਚਪ੍ਪਸਾਦੇਨ	-11.0275
▁ਦੁਤਿਯੇਨ	-11.0276
▁ਸਖ	-11.0278
▁੧੪੩	-11.0278
ਅਪਰੇਹਿਪਿ	-11.0279
▁ਮਗ੍ਗਪਚ੍ਚਯ	-11.0281
▁ਪਦੀਪ	-11.0282
▁ਪਦੁਮਂ	-11.0283
▁ਦਮ੍ਮੀ	-11.0283
▁ਏਤ੍ਤਕਾ	-11.0283
▁ਸਤਤਂ	-11.0285
ਬ੍ਰਾਹ੍ਮਣੋ	-11.0287
ਾਚਰਿਯ	-11.029
▁ਅਮਰ	-11.0291
ਸਮ੍ਪਦਂ	-11.0291
ਤ੍ਤੇਯ੍ਯ	-11.0296
ਤ੍ਥੇਰਂ	-11.0298
ਸਮੀਪੇ	-11.0299
▁ਛਿਦ੍ਦ	-11.0299
▁ਅਕੁਸਲਮੂਲ	-11.0301
ਕਪ੍ਪੋ	-11.0304
ਸੀਮਾ	-11.0305
ਿਯਮਾਨੇ	-11.0308
▁ਅਸੁਰ	-11.0309
ਿਹਾਰਾ	-11.0314
ਿਞ੍ਞਾਣੇਨ	-11.0317
ਗਾਮੀ	-11.032
ਤਿਆਦਿਕਾ	-11.0321
▁ਸੁਤ੍ਤਸ੍ਸ	-11.0321
ਅਤ੍ਥਿਯਾ	-11.0324
ਜਨ੍ਤਿ	-11.0325
ਰਾਗਾਨੁਸਯਂ	-11.0326
▁ਪਞ੍ਚਮੀ	-11.0327
▁ਨਿਬ੍ਬਾਨੇ	-11.0329
ੁਪਾਦਿਨ੍ਨੁਪਾਦਾਨਿਯ	-11.033
▁ਦਿਟ੍ਠਾ	-11.0333
▁ਰਜਨ	-11.0334
▁ਸੀਘ	-11.0338
ਮਾਤਾ	-11.0339
▁ਅਲੋਭ	-11.034
ਅਪਿ	-11.0341
▁ਮਾਰੇ	-11.0341
▁ਆਣਾ	-11.0342
▁ਦਸਬਲ	-11.0342
ੇਦਂ	-11.0346
▁ਅਜ੍ਝ	-11.0347
▁ਆਮਸਤਿ	-11.0349
ਰੋਹ	-11.035
▁ਜਾਯਤੇ	-11.035
▁ਪਰਿਹਾਨਿ	-11.0351
▁ਭਞ੍ਜ	-11.0351
▁ਤਾਦਿਸੇ	-11.0355
▁ਤੇਲਂ	-11.0355
▁ਅਮਚ੍ਚ	-11.0358
▁ਸਂਸਨ੍ਦ	-11.0358
▁ਕਾਸਿ	-11.0359
▁ਉਪਸਙ੍ਕਮਿ	-11.0359
▁ਉਟ੍ਠਹਿ	-11.036
ਨਕਾਲੇ	-11.036
ਸਚ੍ਛਿਕਿਰਿਯਾਯ	-11.0361
▁ਸਿਕ੍ਖਾਯ	-11.0363
ਿਜਾਨਾਤਿ	-11.0363
▁ਚਿਤ੍ਤੁਪ੍ਪਾਦ	-11.0365
ਕਸੁਤ੍ਤ	-11.0366
▁ਸਨ੍ਨ	-11.0366
ਲਕ੍ਖਣੇਨ	-11.0368
ਾਨਨ੍ਦ	-11.0371
ਮਤ੍ਥੋ	-11.0373
▁ਤਥਾਗਤੇ	-11.0373
ਚੇ	-11.0376
ਪੁਰਿਸਿਨ੍ਦ੍ਰਿਯਞ੍ਚ	-11.0377
▁ਕਤਾਧਿਕਾਰੋ	-11.0378
▁ਧਾਰਯ	-11.0381
▁ਗਚ੍ਛਾਮ	-11.0382
ਿਹਤ	-11.0382
▁ਅਹੋਸੀ	-11.0383
ਪਰਿਗ੍ਗਹ	-11.0383
ਨਿਬ੍ਬਤ੍ਤ	-11.0384
ਿਦ੍ਧਾ	-11.0386
ਯ੍ਯੋ	-11.039
▁ਆਚਰਿਯਾ	-11.0391
▁ਉਸਭ	-11.0392
▁ਸਮਨੁਪਸ੍ਸਾਮਿ	-11.0392
▁ਪਕ੍ਕਮ	-11.0393
▁ਧਾਰਯਾਮੀ	-11.0393
▁ਸੁਖਸਹਗਤ	-11.0394
▁ਕਟਤ੍ਤਾਰੂਪਾਨਂ	-11.0394
▁ਪਟਿਕੂਲ	-11.0396
▁ਸਤ੍ਤਿ	-11.0397
ਯਾਨਿ	-11.0399
▁ਤੁਸਿਤ	-11.04
▁ਸਬ੍ਬਕਾਲਂ	-11.04
▁ਆਪਜ੍ਜਤੀਤਿ	-11.0408
▁ਤੀਰ	-11.0413
ਸ੍ਸਾਮੀਤਿਨ੍ਦ੍ਰਿਯਂ	-11.0417
ਪਤ੍ਤਿਯਾ	-11.042
▁ਦਹਰੋ	-11.0421
ਯੋਗਤੋ	-11.0422
▁ਸਙ੍ਖੇਪ	-11.0424
▁ਪੇਕ੍ਖ	-11.0425
▁ਅਦ੍ਧਾਨਂ	-11.0426
ਾਯਨ	-11.0427
▁ਉਪਕ੍ਕਮ	-11.0429
ਾਜ	-11.043
▁ਸਮਾਪਤ੍ਤਿਯੋ	-11.043
▁ਸਨ੍ਨਿਸਿਨ੍ਨਾ	-11.0433
▁ਮਹਾਮੋਗ੍ਗਲ੍ਲਾਨ	-11.0434
▁ਆਕਾਸੇਨ	-11.0435
▁ਪਸੇਨਦਿ	-11.0436
ੂਪਗ	-11.0438
▁੧੪੬	-11.0438
ਸਮ੍ਫਸ੍ਸ	-11.0443
ਰਹਿਤ	-11.0443
ਞ੍ਞਾ	-11.0446
▁ਸਹਜਾਤੋ	-11.0447
ੂਪਸਮੋ	-11.0447
ਬਨ੍ਧਨਂ	-11.0448
▁ਹਿਦਂ	-11.0448
▁ਸੀਲਾਨਿ	-11.045
ਸਕਂ	-11.0454
▁ਅਦੋਸੋ	-11.0455
▁ਗੋਪ	-11.0457
ਲਙ੍ਕਤ	-11.0462
▁ਪਰਿਯੇਸਤਿ	-11.0462
▁ਸਿਞ੍ਚ	-11.0463
▁ਤੇਭੂਮਕ	-11.0466
▁ਸਾਰਣੀਯਂ	-11.0469
▁ਕਰੁਣਾਯ	-11.0469
▁ਜਨਸ੍ਸ	-11.047
▁ਕਾਲ਼ਕ	-11.0471
▁ਅਨਤ੍ਤ	-11.0471
ਿਞ੍ਞਾਣਞ੍ਚਾਯਤਨਂ	-11.0471
▁ਸਹਤ੍ਥਾ	-11.0472
▁ਜਾਨਾਸਿ	-11.0473
ਪੁਞ੍ਜ	-11.0474
▁ਸਮ੍ਮੋਦਨੀਯਂ	-11.0474
▁ਨਕਮ੍ਮਪਚ੍ਚਯਾ	-11.0476
ਜਹਿਤ੍	-11.0478
▁ਅਭਿਸਙ੍ਖਾਰ	-11.0478
▁ਸਾਦਿਯਤਿ	-11.0479
ਾਦੀਨਞ੍ਚ	-11.0479
▁ਉਪਦ੍ਦ	-11.0479
▁ਪਾਪੁਣ	-11.0482
▁ਪੁਥੂ	-11.0486
▁ਮੇਤਂ	-11.0487
ਧੁ	-11.0487
▁ਪਹ	-11.0488
ਤ੍ਥਿਂ	-11.049
▁ਞ	-11.049
▁ਕਾਰਿਤ	-11.0491
▁ਮਨੁਸ੍ਸੋ	-11.0492
ਿਤਕ੍ਕੇ	-11.0492
ਿਨਯਧਰ	-11.0494
ਪਰਿਸਾਯ	-11.0494
▁ਪਚ੍ਚੇਕਬੁਦ੍ਧ	-11.0495
▁ਨੀਚ	-11.0496
▁ਸਚ੍ਚਾ	-11.0497
▁ਅਰਹਨ੍ਤਾਨਂ	-11.0498
▁ਪਟਿਜਗ੍ਗ	-11.0498
ਭਾਗਿਯ	-11.05
▁ਸਹੇਤੁਕਂ	-11.05
ੇਸ੍ਸਾਮਿ	-11.05
▁ਮਹਪ੍ਫਲਂ	-11.05
▁ਕਲ੍ਯਾਣਮਿਤ੍ਤ	-11.0503
ਤਾਲ	-11.0504
ਿਰਹਿਤ	-11.0505
▁ਤਦੁਭਯਂ	-11.0506
▁ਸਮਗ੍ਗਾ	-11.0507
▁ਯੁਦ੍ਧ	-11.0508
▁ਅਰਹਤ੍ਤਮਗ੍ਗੇਨ	-11.0512
ਗੁਣਾ	-11.0513
▁ਨਦਿਂ	-11.0514
▁ਨਾਸਕ੍ਖਿ	-11.0518
▁ਨਿਰਨ੍ਤਰਂ	-11.0518
▁ਪੋਸੋ	-11.0523
ਨਾਨਾ	-11.0523
ਇਚ੍ਚੇਤ	-11.0525
ਪਰਮ	-11.0527
▁ਪਾਚੀਨ	-11.0529
▁ਉਬ੍ਭ	-11.0529
▁ਅਨੁਪ੍ਪਨ੍ਨਸ੍ਸ	-11.0529
▁ਉਣ੍ਣ	-11.0531
ਅਕੁਸਲ	-11.0534
▁ਗਣ੍ਹਥਾ	-11.0535
ਦੀਸੁ	-11.0536
ਸਙ੍ਖਾਤਾਯ	-11.0537
▁੧੪੯	-11.0537
▁ਤਦਭ	-11.0537
ਹੇਤੂ	-11.0539
ਮੇਤ	-11.054
▁ਬੀਜਂ	-11.0541
▁ਛਾਰਤ੍ਤਂ	-11.0543
▁ਸਚਕ੍ਖੁਕਾਨ	-11.0545
ਿਸਾਲ	-11.0553
ੇਯ੍ਯਾਮ	-11.0553
ਪ੍ਪਭਾ	-11.0558
ਸਮੁਦਯੋ	-11.0562
▁ਓਕਾਸੇ	-11.0562
▁ਰਾਜਪੁਤ੍ਤ	-11.0563
ਯਕ੍ਖ	-11.0564
ਬਹੁਲ	-11.0565
▁ਇਦ੍ਧਿਪਾਦ	-11.0568
ਤ੍ਤੀਤਿ	-11.0569
ਰਣੇਨ	-11.0571
▁੧੬੦	-11.0574
ਪਟਿਸਨ੍ਧਿ	-11.0575
▁ਉਤ੍ਤਰਿਂ	-11.0576
▁ਪਞ੍ਚਧਾ	-11.0577
▁ਕੁਕ੍ਕੁਚ੍ਚ	-11.0578
▁ਉਕ੍ਕਂਸ	-11.0579
▁ਯੋਜੇਤਬ੍ਬਾ	-11.0579
▁ਅਧਿਮੁਚ੍ਚ	-11.058
ੁਪ੍ਪਤ੍ਤਿਯਾ	-11.0583
▁ਕਿਸ	-11.0583
▁ਅਨੁਸ੍ਸ	-11.0584
▁ਰੂਪੀ	-11.0584
▁ਪਾਰਮਿਯੋ	-11.0587
ਿਪ੍ਪਸਨ੍ਨ	-11.0588
▁ਕਰੋਤੀ	-11.059
ਨਾਸ	-11.0593
ੇਦਿਤਬ੍ਬੋਤਿ	-11.0594
▁ਰਤੋ	-11.0596
▁ਪਿਟਕ	-11.0596
▁ਰਾਜਕੁਮਾਰ	-11.0597
▁ਨੇਤ੍	-11.0599
▁ਮਹਾਸਮੁਦ੍ਦੇ	-11.0599
▁ਅਨਿਯਤੋ	-11.0601
ੁਕ	-11.0602
▁ਸੁਤ੍ਤੇਨ	-11.0603
ੁਸ੍ਸ	-11.0604
ੇਦਯਿਤਨਿਰੋਧ	-11.0606
▁ਸਮਞ੍ਞਾ	-11.0609
ਦਿਸੋ	-11.0609
▁ਮੁਨੀ	-11.0611
ਕਾਸਿ	-11.0612
▁ਪਲਿ	-11.0612
ਪਰਿਮਾਣ	-11.0612
ਨਾਮੇਨ	-11.0616
▁ਅਰਿਯਮਗ੍ਗੋ	-11.0617
▁ਹਨ੍ਦ	-11.0621
ਮਂਸਂ	-11.0623
▁ਨਅਹੇਤੁਕ	-11.0626
▁ਆਸੁਂ	-11.0626
▁ਨਿਹੀਨ	-11.0631
▁ਓਰ	-11.0633
▁ਸਮਨਨ੍ਤਰਪਚ੍ਚਯ	-11.0634
ਾਸਨਾ	-11.0634
▁ਅਲਙ੍ਕਤ	-11.0635
ਰਞ੍ਞ	-11.0636
ਗ੍ਗੁ	-11.0636
▁ਨਅਕੁਸਲ	-11.0637
▁ਸਲ੍ਲੇਖ	-11.0637
▁ਅਨ੍ਨ	-11.0639
▁ਨਯਨ	-11.0639
▁ਤੁਲ੍ਯ	-11.064
ਪ੍ਪਟਿਸਂ	-11.0641
੍ਹਂ	-11.0642
▁ਉਪਾਸਕਾ	-11.0645
ਗਿਰਿ	-11.0646
ਿਜ੍ਝਤਿ	-11.0646
▁ਰਥਂ	-11.0646
▁ਮਾਨਾਨੁਸਯਂ	-11.0647
▁ਪਾਸ	-11.0648
▁ਗਰੁਕਂ	-11.065
▁ਇਦ	-11.0654
ਕੁਲਂ	-11.0656
ਿਚਿਕਿਚ੍ਛਾਸਹਗਤੇ	-11.0657
ਏਕਂ	-11.0659
ਾਸਾਯ	-11.066
▁ਆਦਿਸਦ੍ਦੇਨ	-11.0661
▁ਸਕ੍ਕਾਯ	-11.0661
▁ਲੋਕਨਾਯਕਂ	-11.0662
▁ਇਨ੍ਦ੍ਰਿਯਸਂ	-11.0662
▁ਦੁਟ੍ਠੁਲ੍ਲ	-11.0669
▁ਉਪੇਕ੍ਖਾਸਹਗਤਂ	-11.0673
ਮਥ	-11.0674
ਰੋਤਿ	-11.0674
▁ਅਤ੍ਥੇਨ	-11.0677
ੂਪਸਮੇ	-11.0677
ਸਾਨ	-11.0678
ਂਸੇ	-11.0679
▁ਗਙ੍ਗਾਯ	-11.0682
ਪਦਾਨ	-11.0685
ਥੂਪ	-11.0685
ਜ੍ਜਿਤਾ	-11.0687
▁ਭਾਸਿਤ	-11.0688
ਮਤ੍ਥਕੇ	-11.0689
▁ਸੇਤਿ	-11.0689
▁ਕਰਣੀਯ	-11.0689
▁ਅਮ੍ਮ	-11.0691
▁ਸੇਕ੍ਖੋ	-11.0692
ਿਨਿਧਾਯ	-11.0692
ਾਤਿਕ੍ਕਮ	-11.0695
ਨੀਯਂ	-11.0703
▁ਰੁਕ੍ਖਸ੍ਸ	-11.0704
▁ਅਸਪ੍ਪੁਰਿਸ	-11.0705
ਯਾਮ	-11.0706
▁ਸਙ੍ਖਾ	-11.0711
▁ਉਪਜ੍ਝਾਯੋ	-11.0711
▁ਖਲ	-11.0712
ਸਂਕਿਲੇਸ	-11.0714
ਸਤੇਹਿ	-11.0717
ਿਮੁਤ੍ਤਿਞਾਣਦਸ੍ਸਨ	-11.0717
▁ਕਯ	-11.0718
▁ਯਥਾਸਮ੍ਭ	-11.0719
ਨਾਮਕੋ	-11.072
▁ਝਾਨਾ	-11.0723
ਦਸਹਾਯਤਨੇਹਿ	-11.0724
ਲੇਪ	-11.0724
ਲੋਭ	-11.0725
▁ਰੁਕ੍ਖਾ	-11.0727
ਦੇਸੇ	-11.0728
ਾਦਿਕਥਾ	-11.0728
ਿਭਾਗਂ	-11.0729
▁ਸਙ੍ਖਾਰਕ੍ਖਨ੍ਧ	-11.073
ਤਯੋ	-11.073
▁ਮਿਤ੍ਤੋ	-11.0731
▁ਇਧਾਤਿ	-11.0734
▁ਸਤ੍ਤਸ੍ਸ	-11.0734
▁ਲੋਕੁਤ੍ਤਰਧਮ੍ਮ	-11.0734
ਯਾਨਂ	-11.0734
▁ਮੋਰ	-11.0739
▁ਦਿਸ	-11.0739
▁ਪਲ੍ਲਙ੍ਕ	-11.0741
ਚਿਤ੍ਤੇਸੁ	-11.0742
▁ਸਰਤਿ	-11.0742
▁ਨੁਪ੍ਪਜ੍ਜਤੀਤਿ	-11.0743
▁ਨਿਦ੍ਦੋਸ	-11.0744
▁ਤਿਟ੍ਠੇਯ੍ਯ	-11.0745
▁ਸਰੂਪ	-11.0745
▁ਨਾਧਿ	-11.0747
▁੧੪੫	-11.0748
▁ਤਤ੍ਰਾਪਿ	-11.0751
▁ਭੁਸਂ	-11.0751
ਸਙ੍ਘਸ੍ਸ	-11.0752
ਸੇਸੋ	-11.0752
▁ਏਕਚ੍ਚਸ੍ਸ	-11.0753
ਪਲ	-11.0753
ਦਨ੍ਤਸ੍ਸ	-11.0753
ਿਸ੍ਸਸੀ	-11.0755
▁ਪਣਾਮ	-11.0756
▁ਕਮੇਨ	-11.0757
▁ਸੁਞ੍ਞਂ	-11.0759
ਿਕਸ੍ਸ	-11.0759
ਿਨਸ੍ਸਤਿ	-11.076
▁ਅਞ੍ਞਮ੍ਪਿ	-11.076
▁ਸਿਦ੍ਧਂ	-11.0765
੧੩	-11.0766
▁ਭਬ੍ਬੋ	-11.0768
▁੧੫੭	-11.0771
ਾਨੁਰੂਪ	-11.0772
▁ਸਮਾਗਮੋ	-11.0774
▁ਕਾਲਮਕਾਸਿ	-11.078
ੋਹਾਰੇਨ	-11.0784
ਿਸਯਾ	-11.0786
▁ਅਪ੍ਪਹਾਯ	-11.0787
▁ਲੋਕੋਤਿ	-11.0791
ਗੀ	-11.0794
▁ਮਹੀ	-11.0795
▁ਯੇਪਿ	-11.0801
ਣ੍ਣਸ੍ਸ	-11.0803
▁ਫੁਸਿ	-11.0804
▁ਗਚ੍ਛਤੋ	-11.081
ਨਿਯੋ	-11.0811
▁ਭੁਜ	-11.0813
ਰਹਿਤਾ	-11.0813
ਰਹਿਤਂ	-11.0813
▁ਸਮ੍ਪਯੁਤ੍ਤਪਚ੍ਚਯ	-11.0815
▁ਠਪੇਤਿ	-11.082
▁ਦਸਮ	-11.0821
▁ਸਹੇਤੁਕਾ	-11.0822
▁ਪੁਬ੍ਬਣ੍ਹਸਮਯਂ	-11.0823
ੇਮਤਿਕਾ	-11.0824
▁ਅਜ੍ਝਤ੍ਤਿਕ	-11.0825
▁ਅਨਿਦਸ੍ਸਨਸਪ੍ਪਟਿਘ	-11.0826
▁ਨਿਬ੍ਬਿਦਾ	-11.0828
▁੧੫੩	-11.0828
▁ਪਤਤਿ	-11.0829
▁ਅਨ੍ਤਂ	-11.083
▁ਕੂਟਾਗਾਰ	-11.0834
▁ਏਕਕੋ	-11.0834
▁ਸਙ੍ਖਾਰੇਸੁ	-11.0837
ਹਦਯ	-11.0838
▁ਦਿਟ੍ਠਿਗਤਂ	-11.0838
▁ਗਾਹਾਪੇ	-11.0841
ਤ੍ਥਮ੍ਭ	-11.0844
ਦੀਪਨ	-11.0844
ਲਿਕ	-11.0844
ਤ੍ਥਾਯਾਤਿ	-11.0847
▁ਜਾਤਕ	-11.0848
▁ਸੇਯ੍ਯਾ	-11.0849
▁ਰਜਤ	-11.085
▁ਕੇਨਟ੍ਠੇਨ	-11.085
▁ਖੀਰਂ	-11.085
▁ਸੀਮਂ	-11.085
▁੧੫੯	-11.0851
ਸੁਞ੍ਞਤ	-11.0853
▁ਮਕ੍ਕਟ	-11.0856
ਸਨ੍ਤਾਨੇ	-11.0856
▁ਸਪਰਿ	-11.0858
ਸੇਨਪਿ	-11.0859
ਮਿਮਂ	-11.0859
▁ਪਕਿਣ੍ਣਕ	-11.0859
ੇਯ੍ਯਾਥ	-11.0863
ਪਕਾਰ	-11.0866
ਛਤ੍ਤ	-11.0867
▁ਧਮ੍ਮਾਭਿਸਮਯੋ	-11.0867
▁ਮਗ੍ਗਾਰਮ੍ਮਣ	-11.0871
▁ਉਪਗਤੋ	-11.0875
ਮਨ੍ਦ	-11.0875
▁ਤੇਜ	-11.0876
▁ਭਿਕ੍ਖੁਨੀਤਿ	-11.0877
ਕਚ੍ਚਿ	-11.0879
▁ਕਰੋਨ੍ਤੀਤਿ	-11.088
ਚ੍ਛੇਦਨ	-11.088
ਾਦੀਨਮ	-11.0882
ਮਗ੍ਗੇਨ	-11.0883
▁ਅਰਤਿ	-11.0884
▁ਤਾਲਾ	-11.0885
▁ਸਨ੍ਤੇਪਿ	-11.0886
▁ਅਞ੍ਜਨ	-11.0888
ਿਨੀਤ	-11.0889
ਸਮਣੋ	-11.089
ਿਰਮ	-11.0891
▁ਸੇਦ	-11.0892
▁ਪਰਿਯੋਸਾਨਂ	-11.0893
▁ਨਿਪ੍ਫਨ੍ਨ	-11.0894
▁ਅਧਮ੍ਮੋ	-11.0894
▁ਨਹੇਤੁਞ੍ਚ	-11.0896
▁ਮਹਾਰਾਜਾ	-11.0896
ਕਣ੍ਟਕ	-11.0898
ਕਸਾ	-11.0901
▁੧੫੫	-11.0901
ੇਲ਼ੁਰਿਯ	-11.0902
▁ਸੁਪਣ੍ਣ	-11.0903
ਿਞ੍ਞਾਪਨ	-11.0908
▁ਪਰਿਪੁਣ੍ਣਂ	-11.0908
▁ਅਚੇਲਕ	-11.0909
▁ਅਗਮਂਸੁ	-11.0912
▁ਯਥਾਭਤਂ	-11.0912
▁ਆਦਿਕਮ੍ਮਿਕਸ੍ਸਾਤਿ	-11.0913
▁ਚਤੁਧਾ	-11.0917
ਿਪਸ੍ਸਨ	-11.092
ੇਪੁਲ੍ਲਾਯ	-11.0923
▁ਅਨਿਯ੍ਯਾਨਿਕ	-11.0926
▁ਫਰਣ	-11.0927
ੇਕਦੇਸ	-11.0929
▁ਸਦ੍ਧਮ੍ਮਂ	-11.093
▁ਤਿਣ੍ਣ	-11.093
▁ਆਪਜ੍ਜਿਤ੍	-11.0931
ਕਾਯਂ	-11.0932
▁ਕਚ੍ਚਾਨ	-11.0933
▁ਸਮਾਪਜ੍ਜਤਿ	-11.0934
▁ਪਤ੍ਥ	-11.0935
▁ਲਦ੍ਧੋ	-11.0937
ਅਤੀਤ	-11.0938
▁ਚੇਤ	-11.094
ੇਣ	-11.0946
▁੧੫੪	-11.0948
ੇਧਾ	-11.0948
ਿਦ੍	-11.0949
▁ਉਮ੍ਮਤ੍ਤਕਸ੍ਸ	-11.0949
ਿਸਾਰਦੋ	-11.0949
ਸਦ੍ਦੇ	-11.0953
ਅਨਿਚ੍ਚ	-11.0954
▁ਪਰਿਨਿਬ੍ਬੁਤੇ	-11.0954
ੁਤ੍ਤੇਹਿ	-11.0955
▁ਕਨ੍ਤਾ	-11.0956
▁ਪਰਿਜਾਨਨ੍ਤਿ	-11.0957
ਪਟਿਪਾਟਿਯਾ	-11.0957
▁ਪਰਤ੍ਥ	-11.0957
ਤ੍ਤੁ	-11.0957
▁ਉਪ੍ਪਜ੍ਜਮਾਨ	-11.0959
▁ਚੋਦਨਾ	-11.096
▁ਤਿਤਿਕ੍ਖ	-11.096
▁ਪਰਿਯਾਪੁਣ	-11.0963
ਨ੍ਧ	-11.0967
▁ਹੁ	-11.0967
ਨਤ੍ਥ	-11.0967
▁ਪਸਤ੍ਥ	-11.0969
ਟ੍ਠਾਨਿਯ	-11.097
▁ਪੁਰਂ	-11.0972
▁ਤੁਟ੍ਠ	-11.0975
▁ਦੁਸ੍ਸੀਲੋ	-11.0977
ਨਿਦਾਨਂ	-11.0983
ਰੁਚਿ	-11.0983
ਕ੍ਖਿ	-11.0984
ਸਪ੍ਪਾਯ	-11.0984
ਸੀਭਾ	-11.0985
▁ਪਰਿਞ੍ਞ	-11.0986
ਸਤੀਤਿ	-11.0986
ਾਨੁਗਤ	-11.0986
ਿਤ੍ਥਾਤਿ	-11.099
ਾਦਿਅ	-11.0991
▁ਪਸ੍ਸਤੀ	-11.0992
ਚਨੀਯੋ	-11.0992
▁ਲਪ	-11.0992
▁ਤਾਦੀ	-11.0993
▁ਅਟ੍ਠਕਥਾਯ	-11.0993
▁ਦੁਕ੍ਖੋ	-11.0994
ਸਞ੍ਛਨ੍ਨ	-11.0997
▁ਇਤ੍ਥਿਂ	-11.0998
▁ਆਯਸ੍ਮਨ੍ਤੋ	-11.0999
▁ਧਾਤ	-11.1
▁ਲੀਨਤ੍ਥਪ੍ਪਕਾਸਨਾ	-11.1002
▁ਦਨ੍ਧਾਭਿਞ੍ਞਂ	-11.1002
ਨਾਮਂ	-11.1002
ਿਰਜਂ	-11.1007
ਨਿਯਾਮੇਨ	-11.1008
ਕਦਾ	-11.1008
ਸੁਖਾਯ	-11.1014
ਨ੍ਧਕਾਰ	-11.1017
▁ਮਞ੍ਞਥ	-11.1019
ਮਹਤ੍ਤ	-11.1021
▁ਆਰਮ੍ਮਣਪਚ੍ਚਯੋ	-11.1021
ਸਨ੍ਤਾਪ	-11.1021
▁ਚਕ੍ਖੁਧਾਤੁ	-11.1022
▁੧੫੮	-11.1022
ਦਿਸ੍	-11.1022
▁ਸਤਿਨ੍ਦ੍ਰਿਯਂ	-11.1025
ਾਦਿਤ	-11.1025
▁ਅਰਿਯਸ੍ਸ	-11.1026
▁ਸਿਦ੍ਧ	-11.1026
▁ਪਟਿਕ੍ਕੂਲ	-11.1031
▁੧੬੫	-11.1033
▁ਅਟ੍ਠਮੋ	-11.104
ਸਾਲਾ	-11.104
▁ਮਹਾਭੂਤਾਨਂ	-11.104
ਮਿਚ੍ਛਾ	-11.1044
▁ਉਪ੍ਪਜ੍ਜਮਾਨਂ	-11.1044
▁ਕੋਟ੍ਟ	-11.1044
▁ਪਰਿਣਾਮ	-11.1047
ਗਿਲਾਨ	-11.105
▁ਸਙ੍ਘਾਟਿ	-11.105
▁ਕੁਲਪੁਤ੍ਤੋ	-11.1051
▁ਖਾਰ	-11.1053
▁ਨਲ਼	-11.1057
ਿਜ	-11.1057
ਭਣ੍ਡਂ	-11.1058
ਦੇਸਨਾਯ	-11.1062
▁ਸਿਕ੍ਖਾਪਦੇ	-11.1062
▁੧੫੧	-11.1062
▁ਸੁਞ੍ਞੋ	-11.1064
▁ਭਾਰੋ	-11.1064
ੇਲਂ	-11.1073
ਿਧਮ	-11.1076
▁ਗਤੋਤਿ	-11.1077
▁ਞਾਤੋ	-11.1081
▁ਤਦਨਨ੍ਤਰਂ	-11.1081
▁ਅਸੇ	-11.1082
▁ਸੁਨਖ	-11.1084
▁ਮਾਤੁਲ	-11.1086
▁ਦੋਸਾ	-11.1089
▁ਪਟਿਪਜ੍ਜਤਿ	-11.109
▁ਦੁਗ੍ਗਤ	-11.1091
▁ਰਾਜਗਹ	-11.1091
▁ਸਤ੍ਥਂ	-11.1092
ਸਰਣ	-11.1092
ਸ੍ਸਤੀਤਿ	-11.1092
▁ਕਿਸ੍ਮਿਞ੍ਚਿ	-11.1092
ਸੋਮਨਸ੍ਸ	-11.1094
▁ਨਾਯਕੋ	-11.1094
▁ਠਿਤਤ੍ਤਾ	-11.1094
ਿਪਾਕਪਚ੍ਚਯਾ	-11.1096
▁ਸਮਾਧਿਂ	-11.1096
▁ਕੋਟ੍ਠਾਸੇ	-11.1098
▁ਨਿਰਾਮਿਸ	-11.11
▁ਖੇਮਂ	-11.11
▁ਲੋਕਿਯਂ	-11.11
▁ਉਦ੍ਧ	-11.1101
ਸਮੋਧਾਨ	-11.1103
ਸਦ੍ਧਮ੍ਮ	-11.1103
▁ਭਿਕ੍ਖੁਸਙ੍ਘੇਨ	-11.1104
▁ਦਸਬਲਸ੍ਸ	-11.1104
ਾਹੋ	-11.1105
ਗੋਚਰੋ	-11.1107
▁ਞਾਣਨ੍ਤਿ	-11.1109
▁ਉਕ੍ਕ	-11.111
▁ਨਿਕ੍ਖਿਤ੍ਤੋ	-11.1111
ਮਿਤ	-11.1112
▁ਯਥੇ	-11.1112
ਤ੍ਤਨ੍ਤੀ	-11.1114
ਥੇਰ	-11.1115
ਤ੍ਥਰਿਤ੍	-11.1116
▁ਬੋਧਿਯਾ	-11.1117
▁ਅਭੂਤ	-11.1117
▁ਦੇਥ	-11.1121
▁ਅਚ੍ਛਾਦ	-11.1122
▁ਪਰਿਚ੍ਛਿਨ੍ਦ	-11.1124
ਾਦਾਯ	-11.1127
ਸਾਗਰ	-11.1128
ੇਸਾ	-11.1128
▁ਜਨਕ	-11.1128
ਸਂਸਗ੍ਗ	-11.1133
▁ਲੁਦ੍ਦ	-11.1133
▁ਸਨ੍ਨਿਪਤਿ	-11.1135
ਮਹਨ੍ਤ	-11.1135
▁ਛਬ੍ਬਗ੍ਗਿਯੇ	-11.1138
▁ਪੁਚ੍ਛਨ੍ਤਿ	-11.1139
▁ਜਰ	-11.114
▁ਸਿਙ੍ਗਾਲ	-11.114
▁ਦੇਥਾ	-11.1141
▁ਸੇਸੇਸੁ	-11.1144
ਿਞ੍ਞਾਣਨ੍ਤਿ	-11.1148
ਟਾ	-11.1149
▁ਕੁਸੀਤ	-11.1149
▁ਸਚ੍ਛਿਕਤਾ	-11.1151
▁ਪਣ੍ਡਕ	-11.1151
ੇਦਿ	-11.1151
ਬੀਜਂ	-11.1152
ਗਤਸ੍ਸ	-11.1154
ਤਦ	-11.1157
ਕ੍ਖਿਪ	-11.1157
ਤ੍ਥੋਤਿ	-11.1158
ਧਿਤ੍	-11.1161
▁ਤਿਰੋ	-11.1162
▁ਅਕੁਪ੍ਪ	-11.1162
ਡ੍ਡ	-11.1166
▁ਸਿਕ੍ਖਂ	-11.1168
▁ਪਿਦਹ	-11.1168
ਸਿਤੁਂ	-11.1169
ਨ੍ਤੋਪਿ	-11.117
▁ਸਕ੍ਕਚ੍ਚ	-11.1171
▁ਯੋਨਂ	-11.1171
▁ਅਪ੍ਪਹੀਨਾ	-11.1176
ਤ੍ਤਬ੍ਬਤ੍ਤਾ	-11.1176
ਿਕ੍ਖਮ੍ਭਿਤ	-11.1176
▁ਰੂਪੇਨ	-11.1179
▁ਅਯ੍ਯ	-11.118
ਸਤੀ	-11.1181
▁ਬੁਦ੍ਧਪ੍ਪਮੁਖ	-11.1184
ਦੁਕ੍ਕਟ	-11.1184
▁ਨਕ੍ਖਮਤਿ	-11.1185
▁ਦੁਕ੍ਖਪਟਿਪਦਂ	-11.1186
▁ਸਂਸਟ੍ਠ	-11.1187
ਿਰਾਗਾਯ	-11.1188
ਸਹਾਯ	-11.1188
▁ਲਭੇਥ	-11.1189
ਤਸ੍ਸਾ	-11.119
▁ਧਜ	-11.1191
▁ਇਦਨ੍ਤਿ	-11.1196
▁ਅਨੁਸ੍ਸਰਤਿ	-11.1196
▁ਕਰੋਥਾ	-11.1196
▁ਪਾਤਿਮੋਕ੍ਖੁਦ੍ਦੇਸ	-11.1197
▁ਸਙ੍ਘਾਦਿਸੇਸਾ	-11.1198
ਿਞ੍ਞਾਯ	-11.1199
▁ਅਜ੍ਝੋਹਾਰੇ	-11.1201
▁ਸਮਨ੍ਨਾਗਤੋਤਿ	-11.1204
ਯਨ੍ਤੀਤਿ	-11.1207
ਿਨ੍ਨਮ੍ਪਿ	-11.1211
ਾਦਿਨ੍ਨਅਨੁਪਾਦਾਨਿਯ	-11.1216
ਿਰੂਪ	-11.1219
ਮੂਲੇ	-11.1222
▁ਪਟਿਪਜ੍ਜਿਤਬ੍ਬ	-11.1224
▁ਚੋਦਿਤੋ	-11.1224
ਦਰਥ	-11.1227
▁ਮਣ੍ਡ	-11.1228
▁ਕੋਟ੍ਠਾਸ	-11.1229
ਚਿਤ੍ਤੁਪ੍ਪਾਦ	-11.1235
▁ਕਿਲ	-11.1235
ੀਹ	-11.1239
ਦੁਬ੍ਬਲ	-11.124
▁ਛਲ਼ਭਿਞ੍ਞਾ	-11.1242
▁ਏਤ੍ਤਕੇਨ	-11.1243
▁ਤੁਚ੍ਛ	-11.1247
▁ਏਕਚ੍ਚਂ	-11.1247
▁ਅਪ੍ਪਂ	-11.1248
▁;	-11.1251
ਸ੍ਸਿਕਸਾਟਿਕ	-11.1252
▁ਯੋਪਿ	-11.1254
▁ਉਦਰ	-11.1255
▁ਕਙ੍ਖ	-11.1262
▁ਪਾਰਗੂ	-11.1265
▁ਮੇਥੁਨਧਮ੍ਮ	-11.1267
▁ਸੁਪ੍ਪਤਿਟ੍ਠਿਤ	-11.1268
▁ਓਲ਼ਾਰਿਕਂ	-11.1268
ਚਤੁਨ੍ਨ	-11.1268
▁ਚਰਿਯਾ	-11.1269
ਿਚਰਨ੍ਤਿ	-11.1269
ਚ੍ਛੋ	-11.1269
ਰਾਮ	-11.127
▁ਅਪ੍ਪਹੀਨ	-11.1273
▁ਉਦ੍ਧਚ੍ਚਸਹਗਤੇ	-11.1273
▁ਮੁਦਿਤਾ	-11.1274
ਪੋਰਿਸ	-11.1275
ਗਲ	-11.1277
▁ਸਨ੍ਥਤ	-11.1278
ਿਞ੍ਞੁਤਂ	-11.1279
▁ਨਿਸੀਦਨ	-11.1281
▁ਧਮ	-11.1281
▁ਤਦੁਪ	-11.1281
ਪਲਿਬੋਧ	-11.1282
▁ਪਚ੍ਚਯਂ	-11.1283
ਤ੍ਥੁਸ੍ਸ	-11.1283
▁ਕਥੇਨ੍ਤਿ	-11.1284
▁ਘਾਯ	-11.1284
▁ਪਿਟ੍ਠਿਤੋ	-11.1285
▁ਮਣ੍ਡਲ	-11.1285
▁ਨਾਥੋ	-11.1286
▁ਦੁਤਿਯਸ੍ਸ	-11.1287
▁ਜਾਤਿਯੋ	-11.1287
ਿਤਾਤਿ	-11.1288
▁ਨਿਗਣ੍ਠ	-11.129
▁ਸਂਯੋਜਨਂ	-11.1291
▁ਪੀਤਿਸੁਖਂ	-11.1295
ਸੁਤ	-11.1296
▁ਮੁਚ੍ਚ	-11.1299
ੁਪਚ੍ਛੇਦ	-11.1303
ਨਾਮੋ	-11.1303
▁ਲਤਾ	-11.1304
ਨਿਯਮ	-11.1304
▁ਗਨ੍ਥਾ	-11.1313
ਭੂਤਾਯ	-11.1315
▁ਆਰਞ੍ਞਿਕ	-11.1317
ਮਤੋ	-11.1321
ਿਸੁਜ੍ਝਤਿ	-11.1323
▁ਇਧਾਧਿਪ੍ਪੇਤ	-11.1323
▁ਕਾਯਗਤਾਸਤਿ	-11.1325
▁ਕਮ੍ਮਭ	-11.1326
▁ਸਰਣੋ	-11.1327
ਿਭੂਤਂ	-11.1328
▁ਥਦ੍ਧ	-11.1328
▁ਨਿਬਦ੍ਧ	-11.1329
ਅਙ੍ਗ	-11.1333
▁ਰਜੋ	-11.1334
▁ਨਿਟ੍ਠਾ	-11.1334
ਗੁਤ੍ਤ	-11.1335
▁ਪੂਜੇਸਿ	-11.1335
ਟ੍ਠਕਥਾ	-11.1336
▁ਅਕ	-11.1338
▁ਅਸਙ੍ਖਤਂ	-11.1338
▁ਅਨੁਞ੍ਞਾਤ	-11.1338
▁ਨਿਰੋਧੇ	-11.1341
▁ਧਾਰਣ	-11.1345
ਪਾਤੁਭਾ	-11.1346
▁ਨਪੁਂਸਕੇ	-11.1347
▁ਸਮ੍ਮਨ੍ਤਿ	-11.1348
▁ਅਧਿਗਮਾਯ	-11.1349
ਪਤ੍ਥ	-11.1351
ਪਧਾਨ	-11.1351
ਾਨੁਯੋਗ	-11.1354
▁ਪਮਜ੍ਜ	-11.136
▁ਉਪਨ	-11.1364
▁੧੬੧	-11.1364
ਏਤੇ	-11.1365
▁ਦਿਯ	-11.1367
ਕ੍ਕਨ੍ਤ	-11.1368
ਰਣਸ੍ਸ	-11.1371
▁ਭਾਤਾ	-11.1373
▁ਨਿਗ੍ਗਣ੍ਹ	-11.1376
▁ਚਰਮਾਨੋ	-11.1377
ਕਤਮਞ੍ਚ	-11.1377
ੂਪਚਾਰ	-11.1378
▁ਕੁਰੁ	-11.1381
▁ਕਙ੍ਖਤਿ	-11.1382
▁ਰੁਕ੍ਖੇ	-11.1385
▁ਯੁਜ੍ਝ	-11.1387
▁ਮਚ੍ਛਰਿਯ	-11.1389
▁ਸਂਯਮ	-11.1389
▁ਦਿਟ੍ਠਿਯੋ	-11.1391
▁ਏਕੀਭ	-11.1393
▁ਅਨੁਗ੍ਗਹ	-11.1393
▁ਠਾ	-11.1393
▁ਪਟਿਲਾਭ	-11.1394
▁ਮੁਣ੍ਡ	-11.1395
▁ਸਦ੍ਧਮ੍ਮਸ੍ਸ	-11.1395
▁ਕਰੇ	-11.1397
▁ਸੁਪਿਨ	-11.1398
▁ਦਸ੍ਸਿਤ	-11.1402
▁ਉਚ੍ਛੇਦ	-11.1403
▁੧੬੭	-11.1404
ਾਨੁਪਸ੍ਸਨਾ	-11.1405
▁ਲਾਭਂ	-11.1406
▁ਮਾਨੁਸ	-11.1406
▁ਸਿਨੇਰੁ	-11.1407
▁ਪਜ੍ਜ	-11.1409
▁ਉਪੇਕ੍ਖਕੋ	-11.1413
ਚ੍ਚਾਦਿਨਾ	-11.1415
▁ਪਲ੍ਲਙ੍ਕਂ	-11.1419
ਗ੍ਗਹਿਤ	-11.142
ਸਞ੍ਚੇਤਨਾ	-11.1422
▁ਪਰਿਗ੍ਗਹਿਤ	-11.1424
▁ਨਿਦਸ੍ਸਨ	-11.1425
ੁਸਿਤ	-11.1426
▁ਦੁਸ੍ਸੀਲ	-11.1426
ਨਨੁ	-11.1426
▁ਸਪ੍ਪੁਰਿਸੋ	-11.1427
ਮਟ੍ਠ	-11.143
▁ਦੁਕ੍ਖਸਮੁਦਯੋ	-11.1431
▁ਅਰਿਯਸਚ੍ਚਾਨਿ	-11.1432
▁ਅਯਨ੍ਤਿ	-11.1433
ਨਾਪਾਰਿਪੂਰਿ	-11.1435
ੀਤਰਾਗ	-11.1436
ਕਿਲਿਟ੍ਠਸਂਕਿਲੇਸਿਕ	-11.1437
▁ਫਲਕ	-11.1438
▁ਦੁਖ	-11.1439
ਕਾਯਾ	-11.1443
ਮਕ੍ਖ	-11.1443
▁ਉਕ੍ਖਿਤ੍ਤ	-11.1444
▁ਮਨਸੋ	-11.1445
▁ਮਜ੍ਝਤ੍ਤ	-11.1446
ਮੇਕ	-11.1446
▁ਰੁਕ੍ਖਮੂਲੇ	-11.1448
ਕ੍ਖਿਤ੍ਤ	-11.1449
▁ਦੇਸੇਤ੍	-11.1449
▁ਪਾਮੋਜ੍ਜਂ	-11.145
▁ਪਭਸ੍ਸਰ	-11.145
▁ਚਕ੍ਖੁਨ੍ਦ੍ਰਿਯ	-11.1451
▁ਨਿਪਤ	-11.1451
▁ਗਣਨ	-11.1451
▁ਲਬ੍ਭਾ	-11.1452
▁ਅਚਲ	-11.1452
▁ਅਦਿਟ੍ਠ	-11.1454
▁ਭੋਜਨੀਯਂ	-11.1454
ਕਾਦਿ	-11.1456
▁ਦੀਪੇ	-11.1457
▁ਬਦ੍ਧੋ	-11.1457
▁ਗਾਥਾਦ੍	-11.146
ਸਿਕ੍ਖਾਪਦੇ	-11.146
▁ਯਤ	-11.146
ਰਾਮੋ	-11.1461
ਧਾਤੂਤਿ	-11.1461
▁ਸਤਾਨਿ	-11.1464
▁ਸਮਾਹਿਤੋ	-11.1465
ਪ੍ਪਯੋਗ	-11.1466
▁ਪੋਰਾਣਾ	-11.1467
▁ਸਮਾਦਾਨ	-11.1468
ਸਞ੍ਹਿ	-11.1468
▁ਹੇਤੁਸਮ੍ਪਯੁਤ੍ਤ	-11.147
ੀਰਿਯੇਨ	-11.147
▁ਕੋਸਜ੍ਜ	-11.147
▁ਨਿਬ੍ਬਤ੍ਤਤਿ	-11.147
ਸ੍ਮਿਮ੍ਪਿ	-11.1472
ਾਸਾਨਂ	-11.1473
ਗੀਤ	-11.1479
▁ਏਯ੍ਯ	-11.1479
▁ਸਂਸਗ੍ਗ	-11.1481
ਚਨਾ	-11.1484
▁ਪਟਿਗ੍ਗਹ	-11.1486
ੇਭਿ	-11.1487
ਗਨ੍ਧੋ	-11.1489
▁ਪਾਦਾ	-11.1491
▁ਸੋਮਨਸ੍ਸੇਨ	-11.1494
ਗਣੋ	-11.1495
▁ਸਞ੍ਞੀ	-11.1497
ਨ੍ਤ੍ਯ	-11.1499
▁ਅਦੁਕ੍ਖਮਸੁਖਾ	-11.15
ਬਾਹੁ	-11.1501
▁ਪਟਿਪਾਦ	-11.1502
▁ਅਭਿਞ੍ਞੇਯ੍ਯਾ	-11.1502
▁ਨਸਹੇਤੁਕ	-11.1504
▁ਦੁਕ੍ਕਰਂ	-11.1507
▁ਗਚ੍ਛਨ੍ਤੀਤਿ	-11.1508
ਮਕ੍ਖਿਤ	-11.1508
ੀਤਿਸਾਰੇਤ	-11.151
▁ਭਗਿਨਿ	-11.1511
ਾਤੇਨ	-11.1512
ਭੁ	-11.1512
▁ਇਦਞ੍ਹਿ	-11.1513
▁ਅਧਿਮੋਕ੍ਖ	-11.1513
▁ਜਟਿਲ	-11.1514
ਨਿਸ੍ਸਰਣ	-11.1515
ਜ੍ਜਿ	-11.1516
ੂਪਾਯ	-11.1517
ਾਨਿਸਂਸ	-11.1517
▁ਗਤਿਯਂ	-11.1519
▁ਨਨ੍ਦੀ	-11.1519
ਣਿਕ	-11.1521
▁ਪਚ੍ਚਤ੍ਥਿਕ	-11.1521
ਨਿਸ੍ਸਨ੍ਦ	-11.1521
▁ਰੂਪਧਾਤੁ	-11.1521
ਕਾਸ	-11.1522
ਮਾਰੁਯ੍ਹ	-11.1524
▁ਪਦਭਾਜਨੇ	-11.1527
▁ਤਿਹੇਤੁਕ	-11.1528
▁ਪਮਾਦੋ	-11.1528
ਪੀਤ	-11.153
▁ਅਬ੍ਯਾਪਾਦ	-11.153
ਰਤ੍ਤਂ	-11.1531
ਮੋਦ	-11.1532
▁ਅਦ੍ਧਾਨ	-11.1533
ਰਮ	-11.1534
▁ਪਞ੍ਞਂ	-11.1539
ਸਂਕਿਲੇਸਿਕੋ	-11.1539
ਾਪਨਂ	-11.154
▁ਸੀਦ	-11.1541
▁ਸਯ	-11.1542
ਨਿਨ੍ਨ	-11.1545
▁ਅਨਪੇਕ੍ਖ	-11.1545
▁ਸਤਿਂ	-11.1546
ਕਮ੍ਮੇਨ	-11.1548
ਸਿਲਾ	-11.1551
▁ਪਾਪਕਾਨਂ	-11.1552
ਬੁਜ੍ਝ	-11.1554
▁ਬਹਲ	-11.1554
▁ਅਚ੍ਛਰਿਯਂ	-11.1555
▁ਫੁਸਤਿ	-11.1555
ੇਦਨਾਕ੍ਖਨ੍ਧ	-11.1558
੧੮	-11.1559
▁ਬ੍ਯਾਕਰੇਯ੍ਯ	-11.1562
ਪ੍ਪਤ੍ਤਿਯਾ	-11.1563
▁ਧਮ੍ਮਾਨੁਪਸ੍ਸੀ	-11.1563
ੀਣ	-11.1565
ਚ੍ਚਂ	-11.1565
▁ਬੁਦ੍ਧੇਨ	-11.1566
▁ਘਟੇ	-11.1566
▁ਤਦਙ੍ਗ	-11.1566
▁ਸੁਖੁਮਂ	-11.1568
ਦਤ੍ਤਸ੍ਸ	-11.1569
▁੧੫੨	-11.157
▁ਪਚ੍ਚੇਕ	-11.1575
ਿਨਾਸਂ	-11.1576
▁ਫਸ੍ਸਾ	-11.1577
ਾਪੀ	-11.1577
▁ਆਪਜ੍ਜ	-11.158
▁ਅਨੁਪ੍ਪਨ੍ਨ	-11.1582
ਿਮ੍ਹਿ	-11.1584
▁ਅਨੁਪ੍ਪ	-11.1584
▁ਪਤਿਟ੍ਠਿਤਂ	-11.1586
ਭੁਜ	-11.1586
ਪੁਤ੍ਤਂ	-11.1587
ਸਣ੍ਠਾਨਂ	-11.1589
▁ਬੋਧਿਸਤ੍ਤਂ	-11.159
▁ਪਨ੍ਥ	-11.159
ਦੀ	-11.1592
▁ਮਘ	-11.1594
ਿਜ੍ਜਤੀਤਿ	-11.1595
ਘੋਸ	-11.1596
ਰੂਪਾਨਂ	-11.1596
▁ਇਤ੍ਥਿਯਂ	-11.1596
▁ਹਤ੍ਥੇਹਿ	-11.1597
▁੧੭੬	-11.1597
ਾਧਿਟ੍ਠਾਨ	-11.1601
ਦਿਬ੍ਬ	-11.1602
ਪਰਿਯੋਸਾਨੇ	-11.1602
ਦੀਹਿ	-11.1602
ਿਰਹਿਤੋ	-11.1604
▁ਸਦ੍ਧਿਨ੍ਦ੍ਰਿਯ	-11.1605
▁ਕੇਸਞ੍ਚਿ	-11.1607
▁ਨਿਕ੍ਖਮ੍ਮ	-11.1607
▁੧੬੨	-11.1608
▁ਉਪੇਕ੍ਖ	-11.1609
▁ਅਕਾ	-11.1611
▁ਉਯ੍ਯਾਨਂ	-11.1612
▁ਠਪਿਤੋ	-11.1613
▁ਸੋਤਾਪਤ੍ਤਿਫਲਂ	-11.1613
ਪ੍ਪਹਾਰ	-11.1616
ਸੁਨ੍ਦਰ	-11.1616
ਾਰਮ੍ਭ	-11.1617
▁ਪਾਟਿਦੇਸਨੀਯ	-11.1618
▁ਯਥਾਰੁਚਿ	-11.1619
▁ਬਹੁਸ੍ਸੁਤ	-11.1623
ਹਤ੍ਥਾ	-11.1626
▁ਕਾਮਚ੍ਛਨ੍ਦੋ	-11.1628
▁ਸਰਾ	-11.1633
▁ਅਨਾਗਾਮਿਮਗ੍ਗ	-11.1635
▁ਸਯਮ੍ਪਿ	-11.1635
ਦਸ੍ਸਨਤੋ	-11.1637
▁ਏਕਾਹ	-11.1637
ਹਂਸ	-11.1637
▁ਸੇਯ੍ਯ	-11.1638
ਚਿਤ੍ਤੇ	-11.1638
▁੧੭੪	-11.1643
▁ਏਕੋਪਿ	-11.1645
ਯਿਤ੍ਥ	-11.165
▁ਪਞ੍ਚਕ੍ਖਨ੍ਧਾ	-11.1651
▁ਉਪ੍ਪਤ	-11.1651
ਿਰਜ੍ਜ	-11.1653
ਾਚਯਗਾਮਿਨਾਪਚਯਗਾਮਿ	-11.1655
ਪੁਟ	-11.166
▁ਇਤ੍ਥਿਨ੍ਦ੍ਰਿਯਞ੍ਚ	-11.166
▁ਗਨ੍ਤਬ੍ਬੋ	-11.166
▁ਅਭਿਜਾਨ	-11.1661
▁ਉਸ੍ਸਨ੍ਨ	-11.1662
▁੧੬੯	-11.1663
▁ਚੋਦੇਤਿ	-11.1666
ਸਮ੍ਭੂਤ	-11.1667
▁ਪਤ੍ਥਨਂ	-11.1668
▁ਇਦਮਸ੍ਸ	-11.167
ਚਨਮੇਤਂ	-11.1674
ਿਜ੍ਜਾਸ	-11.1674
ਦਤੋ	-11.1678
▁ਧਮ੍ਮਕਥਿਕ	-11.1678
▁ਸੁਭਾਸਿਤ	-11.1678
▁ਛੇਦਨ	-11.168
▁ਤੁਮ੍ਹ	-11.1683
▁ਸਿਰੀ	-11.1686
ਸ੍ਸਸਤ	-11.1689
▁ਪਞ੍ਞਤ੍ਤਾ	-11.1689
▁ਅਦ੍ਦਸਾ	-11.169
▁ਨਿਪਜ੍ਜਿ	-11.1691
ਕਮ੍ਮਟ੍ਠਾਨਂ	-11.1691
▁੧੭੦	-11.1693
ੀਣਾ	-11.1694
▁ਨਿਦ੍ਦਿਟ੍ਠਾ	-11.1694
▁ਸੁਭਦ੍ਦ	-11.1696
▁ਜਙ੍ਘ	-11.1696
ਸਣ੍ਠਿਤ	-11.1697
▁ਯਸ੍ਸਾਤਿ	-11.1699
▁ਸਚ੍ਛਿਕਿਰਿਯਾਯ	-11.17
▁ਆਰਮ੍ਮਣੇਸੁ	-11.1701
ਗਹਿਤ	-11.1701
▁੧੭੯	-11.1704
▁ਗਮ੍ਭੀਰੋ	-11.1704
▁ਤਦੇਕਟ੍ਠ	-11.1704
▁ਅਧਿਕਾਰ	-11.1705
ਜ੍ਜੇਨ	-11.1708
▁ਤਦਨੁ	-11.1708
▁ਸਮਨ੍ਨਾਗਤਤ੍ਤਾ	-11.1709
▁ਮਿਤ੍ਤਾ	-11.171
▁ਉਪਲਬ੍ਭਤੀਤਿ	-11.171
▁ਜਲਿਤ	-11.1711
▁ਧਮ੍ਮਸੇਨਾਪਤਿ	-11.1712
▁ਸੁਞ੍ਞਤੋ	-11.1712
▁ਪਞ੍ਞਤ੍ਤੇ	-11.1714
▁ਠਪੇਤੁਂ	-11.1718
▁ਮਹਾਪੁਰਿਸੋ	-11.1719
▁ਸਕ੍ਯ	-11.172
ਾਨਾਤਿ	-11.172
▁ਭਕ੍ਖ	-11.1721
▁ਨਿਰੋਧਧਮ੍ਮ	-11.1722
▁ਅਞ੍ਞਮਞ੍ਞਸ੍ਸ	-11.1722
▁ਪੋਤ੍ਥਕ	-11.1723
ਤ੍ਥੇਸੁ	-11.1723
▁ਲੋਹਿਤਕ	-11.1723
ਜ੍ਜਨਂ	-11.1725
▁ਫੁਸੇ	-11.1725
▁ਚਿਤ੍ਤਨ੍ਤਿ	-11.1726
▁ਕਿਚ੍ਛ	-11.1727
ਿਨਯਸ੍ਸ	-11.1727
▁ਪਟਿਪਤ੍ਤਿਯਾ	-11.173
ਸਮਾਸ	-11.1733
▁ਪਯੋਗੋ	-11.1733
▁ਅਬ੍ਯਾਕਤਞ੍ਚ	-11.1735
ੀਸਤਿਮ	-11.1738
▁ਮੁਟ੍ਠਿ	-11.1738
ੀਕਤ	-11.1739
ੁਕ੍ਕ	-11.1739
ਕੇਸ	-11.1739
▁ਭੀਤੋ	-11.1739
ਸਿਨੇਹ	-11.1741
▁ਕਿਲੇਸਕਾਮ	-11.1742
ਸਤੇ	-11.1743
▁ਉਦ੍ਦਿਸਿ	-11.1743
▁ਅਚਿਤ੍ਤਕ	-11.1747
ਾਭਿਮੁਖ	-11.175
▁ਸਯਮ੍ਭੂ	-11.1751
▁ਉਪੇਕ੍ਖਾਸਹਗਤਾ	-11.1752
▁ਪਧਾਨਂ	-11.1753
▁ਸਨ੍ਤਾਨ	-11.1753
ੇਸਾਲਿਯਂ	-11.1753
▁ਦਿਬ੍ਬਂ	-11.1754
ਭੂਮਿਂ	-11.1755
▁ਬੁਜ੍ਝਨ੍ਤੀਤਿ	-11.1755
ਨ੍ਤਰਾਯ	-11.1756
▁ਇਚ੍ਛਿਤ	-11.1756
▁ਕਾਤੁ	-11.1762
▁ਯਂਨੂਨਾਹ	-11.1765
▁ਨਿਸਿਨ੍ਨੇ	-11.1767
▁ਪਰਿਚ੍ਚਤ੍ਤ	-11.1769
ਕ੍ਖਾ	-11.1769
▁ਪਟਿਘਾਨੁਸਯਂ	-11.177
ਸਨ੍ਨਿਪਾਤ	-11.177
ਟ੍ਠਾਨੇਸੁ	-11.1775
ਿਮੁਤ੍ਤਾ	-11.1776
ਪਰਿਯ	-11.1777
ਦਕ੍ਖਿਣ	-11.1777
ਿਲੋ	-11.1779
▁ਕਮ੍ਪ	-11.178
▁ਪਟਿਕ੍ਖਿਤ੍ਤ	-11.1783
▁ਲਭਿ	-11.1785
▁ਆਰਮ੍ਮਣਤੋ	-11.1788
▁ਤੇਨਸ੍ਸ	-11.179
ਿਯਮਾਨਾ	-11.1791
ਦਾਨਿ	-11.1791
ੇਨ੍ਤੀ	-11.1794
▁ਪਹਾਤਬ੍ਬਹੇਤੁਕਾ	-11.1795
▁ਗਣ੍ਹਿਤ੍	-11.1796
▁੧੬੪	-11.1797
ਪਟਿਸਂ	-11.1798
▁ਗਹਪਤਯੋ	-11.18
▁ਕਾਲਙ੍ਕਤੋ	-11.1801
ਦੇਯ੍ਯੁਂ	-11.1801
▁ਕਰੋਨ੍ਤੀ	-11.1801
▁ਆਗਤਤ੍ਤਾ	-11.1801
▁ਫਸ੍ਸਂ	-11.1802
▁ਪਸ੍ਸੇ	-11.1803
▁ਪਟਿਨਿ	-11.1804
ਤਪ	-11.1805
ਾਪੇਤੀਤਿ	-11.1806
▁ਨਿਯਤਾ	-11.1807
ਮਚ੍ਚ	-11.1807
▁ਏਕੇਕਸ੍ਮਿਂ	-11.1807
▁ਦੁਕ੍ਖਸਚ੍ਚ	-11.1807
ਦਾਸਿ	-11.181
▁ਪਾਰਿਸੁਦ੍ਧਿ	-11.1811
ਹਟ	-11.1812
▁ਪਿਟ੍ਠ	-11.1812
ਕਾਲੇਪਿ	-11.1812
▁ਸੁਤ੍ਤਨ੍ਤੋਤਿ	-11.1812
ਪਦਟ੍ਠਾਨ	-11.1813
▁ਪੂਜਯ	-11.1817
▁ਸਕ੍ਕਾਰਂ	-11.1818
ਮਿਸ੍ਸ	-11.182
▁ਅਕੁਸਲੇਹਿ	-11.1825
▁ਹਨਤਿ	-11.1827
▁ਅਨਿਦਸ੍ਸਨ	-11.1827
▁ਬ੍ਯਗ੍ਘ	-11.1828
▁ਅਨਿਚ੍ਚਤਾ	-11.1828
ਮਕਂਸੁ	-11.183
▁ਯਾਚਿਤ੍	-11.1831
▁ਞਾਤੀ	-11.1833
▁ਉਦ੍ਦਿਟ੍ਠ	-11.1836
▁ਫੁਟ੍ਠੋ	-11.1837
▁ਸੀਲਸ੍ਸ	-11.1838
▁ਸੋਤ੍ਥਿ	-11.184
▁ਕਲਲ	-11.184
▁ਤ੍ਯ	-11.1841
▁ਨਿਸੀਦਾਪੇ	-11.1842
ਗੁਣੇ	-11.1843
▁ਯਥਾਭੂਤ	-11.1843
ਅਨ੍ਤ	-11.1845
ਗਣ੍ਹ	-11.1846
▁ਘਾਨਾਯਤਨਞ੍ਚ	-11.1849
ਮਧੁ	-11.1851
▁ਅਪਸ੍ਸਨ੍ਤੋ	-11.1852
▁ਪਾਰਿਪੂਰਿਯਾ	-11.1853
▁ਪੂਜਂ	-11.1853
ਿਸੋਧੇ	-11.1855
▁ਜਨ੍ਤਾਘਰ	-11.1856
▁ਮਹਪ੍ਫਲ	-11.1858
▁ਚੇਤਨਾਯ	-11.1858
▁ਅਨੁਪਾਦਾਯ	-11.1859
▁ਬ੍ਯਤ੍ਤ	-11.186
ਹੇਤੁਕਂ	-11.186
▁ਪਜਾਨਾਤੀ	-11.1863
ਿਬ੍ਭਮ	-11.1865
▁ਬ੍ਰਾਹ੍ਮਣੇ	-11.1865
▁ਅਨਿਯਤ	-11.1869
▁ਹੇਤੁਨਾ	-11.187
▁ਆਪਤ੍ਤੀਤਿ	-11.1871
ਤੇਸੁ	-11.1871
ਿਚਾਰਞ੍ਚ	-11.1873
▁ਅਸ੍ਸਦ੍ਧ	-11.1876
▁ਅਧਿਟ੍ਠਾਨਂ	-11.1878
▁ਅਮ੍ਬਟ੍ਠ	-11.1879
▁ਆਯੂਹਨ	-11.1882
ਮਤੀ	-11.1883
▁੧੬੬	-11.1884
▁ਰੂਪਨ੍ਤਿ	-11.1884
ਿਚਾਰਮਤ੍ਤਂ	-11.1885
▁ਅਨੁਞ੍ਞਾਤਾ	-11.1887
▁ਸਬ੍ਬਾਕਾਰੇਨ	-11.1888
ਸੁਰ	-11.1888
ਨਿਯਾਮ	-11.189
ਪਾਰ	-11.1891
ਿਤਾਨਂ	-11.1891
▁ਆਰਭ	-11.1892
ਯੇਪਿ	-11.1893
ਿਹਿਂਸ	-11.1894
ਪੂਜਾਯ	-11.1895
▁ਸਮ੍ਪਜਾਨ	-11.1896
▁ਪਟਿਸਞ੍ਚਿਕ੍ਖਤਿ	-11.1897
▁ਅਗਮ	-11.19
▁ਭਿਯ੍ਯੋਭ	-11.19
▁ਅਸ੍ਸਮਂ	-11.19
ਮੁਟ੍ਠਿ	-11.19
▁ਪਰਿਬ੍ਬਾਜਕਾ	-11.1903
▁ਅਕ੍ਕਮ	-11.1904
▁ਅਟ੍ਠਨ੍ਨਂ	-11.1906
ਸੁਖੁਮ	-11.1908
▁ਕੁਪ੍ਪ	-11.1908
▁ਪਟਿਗ੍ਗਹਣ	-11.1911
▁ਆਤੁਰ	-11.1914
▁ਸੁਗਨ੍ਧ	-11.1915
▁ਸਾਤ	-11.1915
▁ਸਮਾਧਿਸ੍ਸ	-11.192
▁੧੭੩	-11.1921
▁ਯਾਪਨ	-11.1924
▁ਸੇਨਂ	-11.1924
▁ਤੁਟ੍ਠੋ	-11.1925
▁ਦਕ	-11.1927
▁ਅਭਿਣ੍ਹਂ	-11.1927
▁ਸੋਭਤਿ	-11.1927
ਿਪਾਕੇਨ	-11.1928
▁ਉਗ੍ਗਹੇ	-11.193
ਦਾਠ	-11.1932
ਮਯੋ	-11.1933
▁ਆਗਤੇ	-11.1934
▁ਪੋਰਾਣਕ	-11.1936
▁ਪੂਜਿਤੋ	-11.1937
▁ਉਪੇਕ੍ਖਾਸਹਗਤ	-11.1937
▁ਪਰਾਮਸਤਿ	-11.1938
▁ਤਮੋ	-11.1939
▁ਗਨ੍ਥੋ	-11.1941
▁ਅਞ੍ਞਾਸਿ	-11.1942
ੁਪਾਦਾਨ	-11.1942
▁ਪੁਞ੍ਞਕਿਰਿਯ	-11.1942
ਿਸਨ੍ਤਿ	-11.1943
▁ਨਿਮ੍ਮ	-11.1946
▁ਆਯਤਨਂ	-11.1947
▁ਸੁਚਰਿਤਂ	-11.1948
▁ਰੂਪਭ	-11.1949
▁ਜਾਤੇ	-11.1952
ਟ੍ਠੇਨਾਤਿ	-11.1952
▁ਅਨ੍ਤੋਗਧ	-11.1952
ਧਕ	-11.1954
▁ਅਞ੍ਞਤਰਾ	-11.1955
ਰਜ੍ਜਂ	-11.1955
▁ਆਰਞ੍ਞਕ	-11.1958
ਿਸ੍ਸਾਸ	-11.1959
ਸਹਸ੍ਸੇਹਿ	-11.196
ਸਂਸਨ੍ਦਨ	-11.1961
▁ਸਮ੍ਮਸਨ	-11.1961
ਨਿਰੋਧਾ	-11.1962
ਪੁਪ੍ਫਂ	-11.1963
ਸਾਰਥਿ	-11.1963
ੁਣ	-11.1964
ਰਹਿਤੋ	-11.1965
▁ਮਰਿਯਾਦ	-11.1967
ਦਾਰਕ	-11.1969
▁ਰੋਚ	-11.1973
▁ਪੋਕ੍ਖਰਣੀ	-11.1973
▁ਸਮੁ	-11.1973
ੀਤਿਕ੍ਕਮੋ	-11.1975
▁ਪਾਪੁਣਨ੍ਤਿ	-11.1975
ਣ੍ਣਮਯ	-11.1977
ਪ੍ਪਕਾਸਨ	-11.1978
▁ਖਨ੍ਧੇਸੁ	-11.1981
ਨਿਸ੍ਸਯਪਚ੍ਚਯੇਨ	-11.1981
ਿਦਿਤੋ	-11.1981
▁ਆਚਯਗਾਮਿ	-11.1983
▁ਬਨ੍ਧੁ	-11.1984
▁ਅਸਿਤ	-11.1985
▁ਧਰ	-11.1987
ਾਧਿਪ੍ਪਾਯੇਨ	-11.1989
▁ਪਕ੍ਖੀ	-11.1992
ਗ੍ਘਨਕ	-11.1993
▁ਸੂਲ	-11.1994
ਰਞ੍ਚ	-11.1995
▁ਖਯਂ	-11.1996
ਮਾਨੇਨ	-11.1996
▁ਸ੍ਨੇਹ	-11.1997
ਪਰਿਯੋਸਾਨਂ	-11.1997
▁ਸਾਤਂ	-11.1997
▁ਪਬ੍ਬਤਂ	-11.1999
▁ਨਿਪਨ੍ਨੋ	-11.1999
▁ਕੁਸਲਮੂਲ	-11.2
▁ਚੁਤਸ੍ਸ	-11.2
ਕ੍ਕਨ੍ਤਿ	-11.2001
ਤ੍ਥਬ੍ਬਂ	-11.2001
▁ਸੋਤਧਾਤੁਯਾ	-11.2002
▁ਅਨੁਤ੍ਤਰ	-11.2002
▁ਸਕਾਯ	-11.2004
▁ਦੋਮਨਸ੍ਸਸਹਗਤ	-11.2006
ਿਤਭਾ	-11.2006
▁ਅਮ	-11.2006
▁ਸਮ੍ਪਯੋਗ	-11.2007
ਸੇਤਿ	-11.2007
ਰੇਹਿ	-11.2007
ਾਪਯਤਿ	-11.2008
▁ਮਹੇਸਿ	-11.2009
▁ਮਨਾਪਂ	-11.201
ਿਪ੍ਪਮੁਤ੍ਤੋ	-11.2013
ਸਨ੍ਥਤ	-11.2013
▁ਪੁਰਿਸੇ	-11.2014
ੇਦਯਿਤ	-11.2016
▁੧੭੫	-11.2016
▁੧੭੨	-11.2018
▁ਰੂਪਕ੍ਖਨ੍ਧ	-11.202
▁ਮੇਤ੍ਤ	-11.202
ਿਕਾਰੋ	-11.2021
▁ਪਕਾਰ	-11.2021
ਹਤੋ	-11.2022
▁ਅਰਹਤ੍ਤੇ	-11.2022
ਨਖ	-11.2023
▁ਨਿਬ੍ਬਿਨ੍ਦ	-11.2025
ਸਤ੍ਤਾਨਂ	-11.2027
▁ਅਸ੍ਸੋਸਿ	-11.2027
▁ਏਕਕ੍ਖਣੇ	-11.2028
ੇਦਨਾਨਂ	-11.2032
▁ਅਚ੍ਛਰਿਯ	-11.2033
ੁਤ੍ਤਮਤ੍ਥਂ	-11.2034
ਖੇਤ੍ਤ	-11.2037
ਚਰੇਨ	-11.2039
▁ਉਦਾਯਿ	-11.204
ਮ੍ਬੁ	-11.2041
▁ਅਹਿ	-11.2042
ਸਮੁਦਯਾ	-11.2044
ਮਾਗਮ੍ਮ	-11.2046
ਕ੍ਖਨ੍ਧਕ	-11.2046
ਾਸੋਤਿ	-11.2046
▁ਤੁਣ੍ਹਸ੍ਸ	-11.2048
ਦੇਹਿ	-11.2049
▁ਸੋਯੇ	-11.2054
ਸੀਮ	-11.2056
▁ਸਙ੍ਕਮ	-11.206
▁ਕਰੋਨ੍ਤੇਨ	-11.2061
ਾਨੁਪਸ੍ਸੀ	-11.2063
ਭਾਗੋ	-11.2065
ਿਭਤ੍ਤੋ	-11.2067
▁੧੭੮	-11.2067
ਦਦ	-11.2067
▁ਅਙ੍ਗੁਲਿ	-11.2068
▁ਚਿਣ੍ਣ	-11.2069
▁ਚਨ੍ਦਿਮਾ	-11.2069
ਮਾਪਜ੍ਜ	-11.207
ਿਤ੍ਤੋ	-11.2071
▁ਦਯਾ	-11.2072
▁ਚਕ੍ਕਂ	-11.2073
ਭੂਤਾਨਂ	-11.2073
ਸਦ੍ਦਾਨਂ	-11.2075
▁ਯੋਨਿਸੋਮਨਸਿਕਾਰ	-11.2075
▁ਸੋਲ਼ਸਹਿ	-11.2076
▁ਸਨ੍ਥਰ	-11.2078
▁ਦਾਨੇ	-11.2078
ਇਮਾਯ	-11.2079
▁ਸਙ੍ਖ੍ਯਂ	-11.208
▁ਬਹੁਸ੍ਸੁਤਾ	-11.2081
▁ਲਭਤੀਤਿ	-11.2083
▁ਪਗ੍ਗਣ੍ਹਾਤਿ	-11.2083
▁ਅਰਣਂ	-11.2083
▁ਦੁਕ੍ਕਟਮੇ	-11.2085
ਸੀਲਾ	-11.2086
ਸਮੁਟ੍ਠਿਤ	-11.2086
▁ਕਤਰ	-11.2086
ਜ੍ਜਨਾਯ	-11.2089
▁ਸੀਲਸਮ੍ਪਨ੍ਨੋ	-11.2089
ਤ੍ਥੁਨੋ	-11.2089
▁ਨ੍ਹਾਯ	-11.2093
ਕ੍ਖਯੋ	-11.2099
▁ਉਭਤੋਭਾਗ	-11.21
▁ਕੁਪ੍ਪਤਿ	-11.2101
▁ਸਿਪ੍ਪਂ	-11.2101
ਲੋਹ	-11.2102
ਾਨੁਸਾਰੇਨ	-11.2104
▁ਦਿਜ	-11.2104
▁ਤੀਸੁਪਿ	-11.2104
▁ਨਿਪੁਣ	-11.2105
▁ਛਾਦੇਤਿ	-11.2106
▁ਨਿਯ੍ਯਾਨਿਕਂ	-11.2109
▁ਪਟਿਸਙ੍ਖਾ	-11.211
▁ਗੋਚਰੋ	-11.2111
ਸਨ੍ਤਸ੍ਸ	-11.2112
ਤ੍ਥਿਤ	-11.2114
ਮਾਦੀਨਿ	-11.2114
ਮਦ੍ਦਨ	-11.2115
▁ਅਸਮਤ੍ਥ	-11.2116
▁ਪੁਲ੍ਲਿਙ੍ਗ	-11.2116
▁ਪੋਸੇ	-11.2117
▁ਉਭਯਂ	-11.2117
ਿਞ੍ਞੂਨਂ	-11.2119
ਮਿਚ੍ਚੇ	-11.2121
ਕਪ੍ਪੇ	-11.2122
▁ਉਪਪਨ੍ਨੋ	-11.2122
ਪਾਨਂ	-11.2124
▁ਬ੍ਯਞ੍ਜਨਂ	-11.2124
▁੧੬੮	-11.2125
▁ਹਿਤਂ	-11.2126
▁ਸਙ੍ਗਹਿਤਂ	-11.2129
▁ਭੁਞ੍ਜਿਤੁਂ	-11.213
▁ਚਰੇਯ੍ਯ	-11.213
ੋਕਾਰਂ	-11.2133
▁ਬ੍ਰਹ੍ਮੇ	-11.2133
▁ਹਨ੍ਤ੍	-11.2135
▁ਪਟਿਲਭਿਤ੍	-11.2136
ਫਰਣ	-11.2136
▁ਗਨ੍ਥਸਮ੍ਪਯੁਤ੍ਤ	-11.2138
ਸਮੁਟ੍ਠਾਨਾ	-11.214
▁ਅਨੇਨ	-11.2141
▁ਨਿਰੋਧਾਯ	-11.2142
ਥੇਕਦਿ	-11.2145
ਕਣ੍ਡਂ	-11.2147
▁ਲਭੇਯ੍ਯ	-11.2148
ਧੀਤਾ	-11.215
▁ਉਪਸਮ੍ਪਨ੍ਨ	-11.215
ਟ੍ਟੂਪਨਿਸ੍ਸਯ	-11.215
▁ਆਰੁਯ੍ਹ	-11.2151
ਕੁਲਾ	-11.2152
▁ਨਿਯ੍ਯਾਨ	-11.2156
▁ਓਟ੍ਠ	-11.216
▁ਞਾਤੀਨਂ	-11.2162
ਾਪੇਨ੍ਤੋ	-11.2164
▁ਤੀਰਂ	-11.2164
ਕ੍ਖੋ	-11.2164
ਤੁਮ੍ਹੇ	-11.2166
▁ਨਾਨਤ੍ਤਂ	-11.2167
ਘਨ	-11.2167
▁੧੮੪	-11.217
▁ਆਦਿਨਾ	-11.2171
ਤ੍ਤਿਤਂ	-11.2172
▁੧੬੩	-11.2172
▁ਗਨ੍ਧਬ੍ਬ	-11.2172
ਕ੍ਕਮ੍ਮ	-11.2174
▁ਪਜਾਨਨ੍ਤਿ	-11.2175
▁ਸਚ੍ਚੇਨ	-11.2175
▁ਭੁਤ੍ਤਾ	-11.2176
▁ਦਨ੍ਤਾ	-11.218
▁ਓਪ	-11.2181
▁ਅਙ੍ਗਾਰ	-11.2184
▁ਉਪਗਤ	-11.2186
ਸਨਂ	-11.2189
ਯੋਜਨਾ	-11.219
▁ਪਤਿਟ੍ਠਹ	-11.2191
▁ਰੋਗੋ	-11.2194
▁ਉਦ੍ਦੇਸਂ	-11.2195
▁ਗਨ੍ਤਬ੍ਬ	-11.2196
▁ਅਕਤਂ	-11.2196
▁ਉਦਕਸ੍ਸ	-11.2197
▁ਉਤੁਸਮੁਟ੍ਠਾਨਂ	-11.2197
▁ਆਨਿਸਂਸੋ	-11.2199
▁ਯਥਯਿਦਂ	-11.2199
▁ਮਹਾਸਤ੍ਤਸ੍ਸ	-11.22
▁ਨੁਪਲਬ੍ਭਤਿ	-11.22
▁ਅਨ੍ਤਰਨ੍ਤਰਾ	-11.22
ਜਨਨ	-11.2203
ਨ੍ਤਨ੍ਤਿ	-11.2205
▁ਆਚਯਗਾਮੀ	-11.2206
▁ਲੋਕਨਾਯਕੋ	-11.2208
▁ਮਨਾਯਤਨਞ੍ਚ	-11.2208
ਮੋਗ੍ਗਲ੍ਲਾਨ	-11.2208
ਪਣੀਤ	-11.2209
▁ਨਾਲਂ	-11.2212
▁ਸਾਧੇਤਿ	-11.2212
ਮਤਂ	-11.2212
ਗਣਾ	-11.2213
▁ਸੁਲਭ	-11.2213
▁ਪਞ੍ਚਾਲ	-11.2214
▁ਗੀਤ	-11.2215
▁ਅਤ੍ਥਪਟਿਸਮ੍ਭਿਦਾ	-11.2215
ਸਾਖ	-11.2216
▁ਸਤ੍ਤਧਾ	-11.2216
ਬ੍ਯਾਕਰਣ	-11.2217
▁ਕਤਸ੍ਸ	-11.2219
▁ਮਨੋਰਮਾ	-11.222
▁ਅਨਾਰਮ੍ਮਣ	-11.222
ਪਾਠ	-11.2223
▁ਪਤਿਟ੍ਠਾਤਿ	-11.2224
▁ਉਸ੍ਸੁਕ੍ਕ	-11.2227
ੁਚ੍ਚਮਾਨ	-11.2228
▁ਚਲ	-11.2229
ਿਨੀਤੋ	-11.2232
ਸਮਾਚਾਰ	-11.2234
ੁਨੋ	-11.2235
ਕਸਿਣ	-11.2237
▁ਨਿਰਤ੍ਥਕ	-11.224
▁ਕਾਯਾਨੁਪਸ੍ਸਨਾ	-11.224
▁ਅਕੁਸਲਞ੍ਚ	-11.2241
ਕੋਟਿਯਾ	-11.2241
▁ਇਣ	-11.2241
▁ਅਚ੍ਛਿਨ੍ਦ	-11.2242
ਿਨਿਚ੍ਛਯਕਥਾ	-11.2245
▁ਘਾਤੇ	-11.2246
▁ਸਨ੍ਤਿਕਾ	-11.2246
▁ਅਞ੍ਞੇਸੁ	-11.2247
▁ਬਹੁਜਨ	-11.2247
▁੧੮੧	-11.2247
▁ਇਜ੍ਝ	-11.2249
▁ਏਤਮ੍ਪਿ	-11.2249
▁ਅਰੂਪਂ	-11.2251
ਸਗ੍ਗ	-11.2254
▁ਨਿਬ੍ਬਾਨਨ੍ਤਿ	-11.2257
▁ਅਦਿਸ੍	-11.2259
ਸਭ	-11.2261
▁ਮਜ੍ਝਿਮੋ	-11.2261
▁ਸਮ੍	-11.2262
ਸੁਞ੍ਞ	-11.2264
▁ਬਿਲ	-11.2265
ੇਪੁਲ੍ਲਂ	-11.2265
▁ਪਰਾਮਟ੍ਠ	-11.2267
▁ਜਨਪਦੇ	-11.2268
ਾਦੀਨਮ੍ਪਿ	-11.2268
▁ਗਿਹੀਨਂ	-11.227
▁ਕਾਮਗੁਣਾ	-11.2271
ਰਾਜਾਨੋ	-11.2272
ਿਸ੍ਸਥ	-11.2273
ਦਾਯਿਕਾ	-11.2273
ਾਦਿਤਾ	-11.2275
▁ਲਹੁਕ	-11.2276
ਿਕਪ੍ਪੇ	-11.2277
ਏਕਨ	-11.2279
▁ਪਟਿਲੋਮ	-11.2282
▁ਨਾਥ	-11.2282
▁ਖਯੋ	-11.2284
▁ਗਹਿਤੇ	-11.2287
▁ਗਹਪਤਿਪੁਤ੍ਤ	-11.229
ਪਰੋ	-11.229
ਾਚਰਿਯੋ	-11.2295
▁ਪਟਿਸੇਧ	-11.2295
ਿਲੋਕ	-11.2295
▁ਭਾਗ	-11.2298
▁੧੮੦	-11.2298
▁ਥੇਰੀ	-11.23
▁ਥਿਨਮਿਦ੍ਧਂ	-11.2301
▁ਪੁਬ੍ਬਚਰਿਤਾਪਦਾਨ	-11.2302
▁ਉਮ੍ਮੁਜ੍ਜ	-11.2302
▁ਮਨੋਰਮਂ	-11.2302
ੇਤੁਨ੍ਤਿ	-11.2302
ਸੂਰਿਯ	-11.2304
▁ਇਟ੍ਠਾ	-11.2306
ਸਨ੍ਤਕ	-11.2307
ਾਰਹਂ	-11.2307
▁ਸਨ੍ਨਿਧਿ	-11.2308
ਪਲ੍ਲ	-11.2308
▁ਆਕਙ੍ਖਮਾਨੋ	-11.231
ਚਾਰਿ	-11.2311
▁ਸਬ੍ਬਞ੍ਞੁਤਂ	-11.2312
ਟ੍ਟਿ	-11.2314
▁ਲੋਕੁਤ੍ਤਰੋ	-11.2314
▁ਚੇਤਸਿਕੋ	-11.2315
▁ਪਲਿਬੋਧ	-11.2319
▁ਉਤ੍ਤਰਾਸਙ੍ਗਂ	-11.2319
▁ਸੀਲਕ੍ਖਨ੍ਧ	-11.232
▁ਪਰਿਮਾਣ	-11.2321
ਿਹਾਰਾਯ	-11.2327
▁ਸਮ੍ਪਨ੍ਨੋ	-11.2329
ਸੁਤ੍ਤਨ੍ਤ	-11.2329
ਜ੍ਜਿਤ੍	-11.2331
ਾਦਸ੍ਸ	-11.2334
ਾਨੁਸਯ	-11.2336
ਲੇ	-11.2336
ਪੀਠ	-11.2336
▁ਅਞ੍ਞਾਯ	-11.2338
ਇਚ੍ਚੇਤੇ	-11.2339
ਪਰਿਯੇਸਨ	-11.234
ਨ੍ਤਸ੍ਸਾਤਿ	-11.2345
▁ਆਕਾਰੇਨ	-11.2346
ਸਂਯੋਗ	-11.2347
▁ਅਪ੍ਪਮਾਣੋ	-11.2347
ਮਿਧ	-11.2351
▁ਸੁਞ੍ਞਤਂ	-11.2358
▁ਕਾਯਿਕਸ੍ਸ	-11.236
▁ਕਾਤਬ੍ਬਨ੍ਤਿ	-11.236
ਚੇਤਸਿਕ	-11.2362
▁ਓਗਾਹ	-11.2362
▁ਪੁਬ੍ਬਕਮ੍ਮਂ	-11.2362
ੁਤੇ	-11.2362
▁ਉਪਗਚ੍ਛ	-11.2363
▁ਸਬ੍ਬਤ੍ਥਾਤਿ	-11.2363
▁ਸੋਕੋ	-11.2363
▁ਅਪਦਾਨਂ	-11.2366
▁ਹਸ	-11.2368
ਕਥਨ	-11.2368
▁ਅਕੁਸਲੇ	-11.2369
▁ਆਰਮ੍ਭ	-11.2369
ਪ੍ਪਤ੍ਤਿ	-11.2369
▁ਰੂਪਾਦੀਸੁ	-11.2371
▁ਤਿਣ੍ਣੋ	-11.2372
▁ਆਰਾਮੋ	-11.2372
▁ਇਮਮੇ	-11.2375
▁ਉਬ੍ਬ	-11.2378
ੋਦਾਨਂ	-11.2379
▁ਸਪਤ੍ਤ	-11.238
▁ਪਂਸੁਕੂਲ	-11.238
▁ਸਨ੍ਤਾਪ	-11.2381
▁ਸਮੁਦ੍ਦੋ	-11.2383
ਣ੍ਣਞ੍ਚ	-11.2384
ਗਮਨੇ	-11.2385
▁ਸੋਤਿਨ੍ਦ੍ਰਿਯਂ	-11.2386
ਰਾਪੇਤ੍	-11.2388
▁ਉਪਸਮ੍ਪਦ	-11.2388
▁ਰੂਪਿਯ	-11.2391
▁ਸਾਰਿਪੁਤ੍ਤਸ੍ਸ	-11.2391
ਅਨ੍ਤਰ	-11.2393
▁ਉਪ੍ਪਨ੍ਨਾਨਂ	-11.2394
▁ਭਙ੍ਗਾ	-11.2394
ਿਤ੍ਤੇ	-11.2394
ਤ੍ਥੁਕਤਾ	-11.2394
▁ਅਤ੍ਰ	-11.2395
▁ਸਾਮਿਕੋ	-11.2395
ਿਦ੍ਧਿ	-11.2397
▁ਞਾਣਦਸ੍ਸਨ	-11.2398
▁ਘਂਸ	-11.2399
ਮੇਘ	-11.2401
▁ਗਯ੍ਹਤਿ	-11.2402
ਿਧਸ੍ਸ	-11.2402
▁੧੭੭	-11.2403
▁ਸਯਮ੍ਭੁ	-11.2405
▁ਨਿਗਮ	-11.2405
▁ਇਟ੍ਠਾਨਿਟ੍ਠ	-11.2405
▁ਯਾਦਿਸੋ	-11.2406
▁ਬ੍ਰਹ੍ਮੁਨਾ	-11.2406
▁ਇਸਯੋ	-11.2406
▁ਆਨਨ੍ਤਰਿਯ	-11.2407
ਸੋਤਂ	-11.2407
ਮਰਣਂ	-11.2409
ਿਕ੍ਖੇਪਂ	-11.2411
▁ਲੋਮ	-11.2412
ਾਯੁਕ	-11.2412
▁ਗਨ੍ਧਾ	-11.2412
▁ਪਨੇਤ	-11.2412
ਨ੍ਦਨਾ	-11.2413
▁ਅਸਞ੍ਚਿਚ੍ਚ	-11.2414
੍ਹੇ	-11.2419
ਸਨਾ	-11.2421
▁ਨਿਕਨ੍ਤਿ	-11.2421
▁੧੮੩	-11.2423
▁ਇਤ੍ਤਰ	-11.2425
ਮੁਖੇ	-11.2428
ਸੁਦ੍ਧ	-11.243
ਮ੍ਮਿਕ	-11.2431
▁ਧੀ	-11.2432
▁ਤਸ੍ਮਾਤਿ	-11.2434
▁ਅਨ੍ਧਕਾਰ	-11.2434
▁ਅਪ੍ਪਤ੍ਤ	-11.2435
ਲ਼ਕ	-11.2435
▁ਤਤੋਪਿ	-11.2436
ਿਨਿਚ੍ਛਯੇ	-11.2437
▁ਪਟਿਪ੍ਪਸ੍ਸਦ੍ਧਿ	-11.2438
▁ਪਤ੍ਤਸ੍ਸ	-11.2441
▁ਪਠਮਸ੍ਸ	-11.2441
▁ਦਸਸਹਸ੍ਸ	-11.2444
▁ਸਮਾਨਂ	-11.2449
▁ਤਜ੍ਜ	-11.2451
▁ਇਹ	-11.2454
▁ਮਨਾਪੋ	-11.2455
ਦਾਨੇ	-11.2455
▁ਮੁਖਤੋ	-11.2456
▁ਯੋਧਾ	-11.2458
▁ਬਜ੍ਝ	-11.2458
▁ਰੁਚ੍ਚਤਿ	-11.2458
▁ਅਕ੍ਖੀਨਿ	-11.2462
▁ਹਾਸ	-11.2463
▁ਤਤ੍ਤਕ	-11.2463
ਪੁਰਂ	-11.2465
▁ਅਯ੍ਯਾ	-11.2466
ਿਧਿਨਾ	-11.2467
▁ਲਾ	-11.2468
▁ਬਾਲਸ੍ਸ	-11.247
▁ਪਾਤੁਭੂਤ	-11.2471
▁ਪਬ੍ਬਜਿ	-11.2472
▁ਹੇਸ੍ਸਤਿ	-11.2473
▁ਪਯੋਜਨ	-11.2473
ਯਨ੍ਤਾ	-11.2476
▁ਪਦਤ੍ਥ	-11.2477
▁ਸਮਨਨ੍ਤਰ	-11.2478
ਪਿਯ	-11.2482
▁ਪਰੇਸੁ	-11.2484
ਿਨੋਤਿ	-11.2484
ਨਿਰੁਤ੍ਤਿ	-11.2485
ਪਤ	-11.2488
▁ਪਟਿਸਨ੍ਧਿਯਂ	-11.2488
▁ਸਙ੍ਕੇਤ	-11.249
▁ਸੁਪ੍ਪਟਿ	-11.249
▁ਫਾਲ	-11.249
▁ਨਿਮਿਤ੍ਤੇ	-11.2491
▁ਬਹੂਹਿ	-11.2492
▁ਚਕ੍ਖੁਸਮ੍ਫਸ੍ਸ	-11.2493
▁ਤਤ੍ਥਾਪਿ	-11.2493
ਾਗਤ	-11.2494
▁ਅਦਿਨ੍ਨਾਦਾਨਾ	-11.2494
ਸ੍ਸਸਿ	-11.2494
▁ਰੁਚਿਰ	-11.2496
ਆਰਮ੍ਮਣ	-11.2496
▁ਪਗੁਣ	-11.2497
ਾਯੁ	-11.2502
ਪਰਿਚ੍ਛਿਨ੍ਨ	-11.2502
ਸਿਂਸੁ	-11.2502
ਪਰਿਕਮ੍ਮ	-11.2502
ਾਸੇਸਿ	-11.2505
ਪਞ੍ਚਕਂ	-11.2506
▁ਨੋਚਿਤ੍ਤਸਮੁਟ੍ਠਾਨ	-11.2508
ਤ੍ਤਮਾਨਂ	-11.2508
ਸਤਿਪਟ੍ਠਾਨ	-11.2508
ਿਚਿਕਿਚ੍ਛਾਯ	-11.251
▁ਪਰਿਯਨ੍ਤ	-11.251
ਮਿਤ੍ਤੋ	-11.2512
ਿਤ੍ਥਾਰਿਤ	-11.2512
▁ਕਟੁਕ	-11.2513
▁ਕਰੋਤੋ	-11.2513
▁ਪਚ੍ਚਕ੍ਖਤੋ	-11.2514
▁ਰੋਪ	-11.2514
▁ਉਪਪਜ੍ਜਨ੍ਤਸ੍ਸ	-11.2515
ਸਾਧਕ	-11.2516
▁ਨੋਕਿਲੇਸ	-11.2516
▁ਹੋਥ	-11.252
ਮੁਨਿ	-11.252
▁ਛਡ੍ਡਿਤ	-11.2521
▁੧੮੨	-11.2523
ਖਣ	-11.2523
▁ਬਾਹਾ	-11.253
ਪਰਾਯਣ	-11.2531
ਸਲਾਕ	-11.2531
▁ਅਧਿਪਤਿਪਚ੍ਚਯਾ	-11.2532
ਿਕਤਿ	-11.2532
▁ਕੁਸਲੇਨ	-11.2533
▁ਭੂਤਗਾਮ	-11.2535
▁ਹਿਰਞ੍ਞ	-11.2536
ਨਾਲ਼ਿ	-11.2539
ੋਪਮਾ	-11.2542
ਸਦਿਸੇ	-11.2543
ੁਸਿਤਂ	-11.2545
▁ਬਹੁਲ	-11.2545
▁ਕੁਲੇਸੁ	-11.2547
▁ਸੁਖਿਤੋ	-11.2548
▁ਉਪ੍ਪਜ੍ਜਨ	-11.2549
▁ਰਤ੍ਤੋ	-11.2549
ਿਜਹ	-11.2553
ਸਂਯੋਜਨਂ	-11.2554
▁ਕਾਮੋ	-11.2555
▁ਕਾਰਕੋ	-11.2555
▁ਬ੍ਰਹ੍ਮਦਤ੍ਤੇ	-11.2555
▁ਸੁਖਨ੍ਤਿ	-11.2556
▁ਸਤਿਸਮ੍ਬੋਜ੍ਝਙ੍ਗੋ	-11.2557
ਣ੍ਠ	-11.2557
▁ਮਹਾਨਾਗ	-11.2559
▁ਸਙ੍ਗਹਿਤੋ	-11.2559
ਹਚ੍ਚ	-11.2559
▁ਞੇਯ੍ਯਂ	-11.256
▁ਸੇਨਾਯ	-11.2561
▁ਪਹੀਯਨ੍ਤਿ	-11.2562
▁ਅਜ੍ਝਭਾਸਿ	-11.2562
▁ਬ੍ਰਹ੍ਮੁਨੋ	-11.2563
▁ਅਨੁਲੋਮਪੁਗ੍ਗਲੋ	-11.2563
▁ਗਹਣੇ	-11.2563
▁ਪਟਿਚ੍ਛਨ੍ਨਂ	-11.2564
ਚਨਤ੍ਥ	-11.2564
▁ਆਭੁਜਿ	-11.2567
ਨ੍ਤਰਾਯੋ	-11.2567
▁ਕਾਰੇਨ੍ਤੇ	-11.2569
▁ਉਤ੍ਤਰਾ	-11.257
ਪਕਤਿ	-11.2572
▁ਮਗ੍ਗਕ੍ਖਣੇ	-11.2572
▁ਸਮ੍ਮੋਦਿ	-11.2573
ਸਂਸਯ	-11.2574
ਿਤ੍ਥਾਰੇ	-11.2578
ਸਮ੍ਪਜਞ੍ਞ	-11.2578
ਿਹੇਸ	-11.2578
ਪਰਿਕ੍ਖੀਣ	-11.2578
▁ਪਕਤਤ੍ਤ	-11.2581
▁ਤਿਖਿਣ	-11.2582
ਰੁਣ	-11.2584
ਅਗ੍ਗਿ	-11.2585
▁ਸਮਾਦਪੇ	-11.2585
ਾਜੋ	-11.2587
▁ਸਙ੍ਗਾਮ	-11.2588
▁ਚੇਤਿਯੇ	-11.2588
ਿਞ੍ਞਾਣਕ	-11.2588
▁ਝਾਪੇ	-11.2589
ਾਗਮੋ	-11.259
ਰੁਲ਼੍ਹ	-11.2594
▁੧੯੦	-11.2597
▁ਸਮੁਟ੍ਠਾਨੇਨ	-11.2597
▁ਲਾਭਸਕ੍ਕਾਰ	-11.2598
ਲਕ੍ਖਣੇ	-11.2598
▁ਯੋਬ੍ਬਨ	-11.2599
▁ਆਯਤਨਾਨਿ	-11.2599
▁ਸਮ੍ਭੂਤ	-11.26
ਨਨ੍ਤ	-11.2601
ਸੀਮਾਯ	-11.2602
▁ਸਮ੍ਮਾਕਮ੍ਮਨ੍ਤੋ	-11.2602
ਗਤਾਨਂ	-11.2604
▁ਆਪਤ੍ਤਾਧਿਕਰਣਂ	-11.2605
ਤਥੇ	-11.2606
ੂਪਨਿਸ੍ਸਯ	-11.2607
▁ਆਣਤ੍ਤਿ	-11.2607
▁ਅਧਿਟ੍ਠਿਤ	-11.2607
▁ਆਲਯ	-11.2612
▁ਅਸਦ੍ਧਮ੍ਮ	-11.2612
▁ਗਣਸ੍ਸ	-11.2612
▁ਪਚ੍ਛਿਮਾ	-11.2613
▁ਅਭਿਸਮ੍ਬੁਦ੍ਧੋ	-11.2615
▁ਸਙ੍ਖੇਪਤ੍ਥੋ	-11.2617
▁ਅਟ੍ਠਂਸੁ	-11.2618
ਤਿਆਦੀਸੁਪਿ	-11.2622
ਯਪ੍ਪਤ੍ਤੋ	-11.2622
▁ਕਤਮ	-11.2623
▁ਉਦ੍ਧਤ	-11.2624
▁ਦਨ੍ਤੋ	-11.2626
▁ਸੁਣੋਹਿ	-11.2626
ਤ੍ਥਿਕੋ	-11.2627
▁ਲਭਾਮਿ	-11.2629
ਕਾਲਿਕਂ	-11.263
▁ਜਗ੍ਗ	-11.2634
▁ਪਾਦੇਨ	-11.2635
▁ਉਪਲਕ੍ਖਣ	-11.2635
ਿਤਥ	-11.2636
▁ਸਮ੍ਬਹੁਲਾਨ	-11.2637
ਪੁਰੇਜਾਤ	-11.2637
▁ਆਪਜ੍ਜਿਂ	-11.2638
▁ਇਦ੍ਧਿਪਾਦਾ	-11.2638
▁ਸਕ੍ਕਾਰ	-11.264
▁ਤਙ੍ਖਣ	-11.2642
▁ਅਪ੍ਪਚ੍ਚਯ	-11.2643
ਪਚ੍ਚੁਪਟ੍ਠਾਨੋ	-11.2644
ਆਚਰਿਯ	-11.2646
ਰਾਗਾਨੁਸਯੇਨ	-11.2646
▁ਯਸਂ	-11.2648
▁ਪਣ੍ਡੁ	-11.265
ਚਨਤ੍ਥੋ	-11.2655
▁ਮਾਲ	-11.2656
ਪਟਿਭਾਨ	-11.2657
▁ਸਮਾਨਸ	-11.2657
▁ਚੇਤਿ	-11.2658
ਟੀਕਾ	-11.2658
▁ਪਚ੍ਚਯੇਸੁ	-11.2659
੧੪	-11.2659
▁ਪਰਿਪਕ੍ਕ	-11.266
▁ਅਮਨਾਪ	-11.266
▁ਸੁਦ੍ਧਿਕ	-11.2661
▁ਆਦਿਮ੍ਹਿ	-11.2662
ਦਾਰੁ	-11.2663
ਿਸ੍ਸਜ੍ਜ	-11.2663
▁ਪਾਣਾ	-11.2664
ਿਸੁਦ੍ਧਂ	-11.2666
▁ਹੀਨੋ	-11.2668
▁ਪੋਟ੍ਠਪਾਦ	-11.2668
ਮਾਦੀਹਿ	-11.2668
ਪਟਲ	-11.2669
ਿਨਯੋਤਿ	-11.2669
ੇਸਨਾ	-11.267
ੀਰਿਯਾਰਮ੍ਭ	-11.2672
▁ਤਤ੍ਰਿਦਂ	-11.2674
▁ਸੁਧਾ	-11.2676
▁ਸੁਖਞ੍ਚ	-11.2676
▁ਮਹੇਸਿਨਾ	-11.2676
▁ਰਤਨਤ੍ਤਯ	-11.268
ਿਦਹ	-11.268
▁੧੮੫	-11.2687
▁ਨੋਗਨ੍ਥ	-11.2688
ਪੁਰੇਕ੍ਖਾਰ	-11.2688
▁ਪੁਟ੍ਠਾ	-11.2689
▁ਕਾਰਿਯ	-11.2689
▁ਖਾਦਨ੍ਤਿ	-11.269
▁ਨਿਦਸ੍ਸਨਂ	-11.2693
ਦਸਕਂ	-11.2693
ਕਿਚ੍ਛ	-11.2693
ਅਲਂ	-11.2694
ਾਤਿਆਦੀਸੁ	-11.2695
ਭਿਕ੍ਖੂਨਂ	-11.2699
ਤ੍ਥਿਯਾ	-11.2701
ਚਿਨ੍ਤ	-11.2701
ੀਧ	-11.2703
ਨਾਮਕਾ	-11.2703
▁ਉਦ੍ਦ	-11.2704
ਧਞ੍ਞ	-11.2707
▁ਪਕਰਣ	-11.2711
▁ਨਟ੍ਠ	-11.2711
ੀਰਿਯਸ੍ਸ	-11.2714
▁੧੭੧	-11.2716
▁ਬਦ੍ਧਾ	-11.2718
ਦਾਯਕਤ੍ਥੇਰਅਪਦਾਨ	-11.2718
ਅਞ੍ਞਂ	-11.2719
▁ਪੁਞ੍ਞਕ੍ਖੇਤ੍ਤਂ	-11.2721
▁ਉਪ੍ਪਜ੍ਜਮਾਨੋ	-11.2721
▁ਸਞ੍ਚੇਤਨਿਕਾ	-11.2722
▁ਪਾਕਟਮੇ	-11.2725
▁ਰਮਣੀਯ	-11.2725
▁ਤਮ੍ਬ	-11.2726
ਟ੍ਠਕਥਾਯਂ	-11.2727
▁ਉਪਪਜ੍ਜਨ੍ਤਿ	-11.2728
▁ਭੂਮਿਂ	-11.2728
▁ਦਿਬ੍ਬਾਯ	-11.273
▁ਬੋਜ੍ਝਙ੍ਗੇ	-11.2731
▁ਜਟਾ	-11.2733
▁ਆਨਿਸਂਸਂ	-11.2737
ਅਨਿਚ੍ਚਂ	-11.2738
▁ਅਦਸ੍ਸਨੇ	-11.274
ਪਾਰਿ	-11.2749
▁ਕਸਾ	-11.275
▁ਉਪੇਤੋ	-11.275
▁ਸਿਕ੍ਖਾਪਦੇਸੁ	-11.2754
ੁਰਣ	-11.2755
▁ਪਸੀਦਤਿ	-11.2755
▁ਮਾਤੁਗਾਮ	-11.2755
ਿਯ੍ਯਤਿ	-11.2756
ਲਾਪ	-11.2758
ਙ੍ਗੇ	-11.2759
ਿਪਚ੍ਚ	-11.2761
▁ਗਰੁਭਣ੍ਡ	-11.2762
▁ਪਰਿਹੀਨ	-11.2762
▁ਮਯਮ੍ਪਿ	-11.2762
▁ਰਾਜਿਨੋ	-11.2764
ਪਰਾਧ	-11.2764
▁ਤੇਨੇਤਂ	-11.2765
ਭਾਸਿਤ	-11.2767
▁ਠਿਤੇਨ	-11.2768
▁ਸਮਾਪਜ੍ਜਿ	-11.2768
▁ਆਪਜ੍ਜੇਯ੍ਯ	-11.277
▁ਹੇਤੁਦੁਕ	-11.2771
▁ਅਟ	-11.2771
▁੧੮੯	-11.2771
ਰਪਿਣ੍ਡਪਾਤਸੇਨਾਸਨ	-11.2775
▁ਦੇਤੀਤਿ	-11.2776
▁ਅਨੇਕਪਰਿਯਾਯੇਨ	-11.2776
ਅਨਾਸ	-11.2777
▁ਯਸਸ੍ਸਿਨੋ	-11.2778
ਕਿਰ	-11.2783
▁ਬੋਧਿਂ	-11.2785
ਧੁਨ	-11.2785
▁ਰਞ੍ਜ	-11.2785
▁ਖੀਣਾ	-11.2786
ਸਦਿਸਤ੍ਤਾ	-11.2788
ਮ੍ਪੀ	-11.2788
▁ਆਸਙ੍ਕ	-11.2789
▁ਗਚ੍ਛਥ	-11.279
▁ਦੁਕ੍ਖਿਤੋ	-11.2791
▁ਰੂਪਕਾਯ	-11.2792
▁ਪਟਿਬਾਹ	-11.2793
ਠਿਤ	-11.2794
▁ਯਾਨਂ	-11.2796
▁ਆਗਚ੍ਛੇਯ੍ਯ	-11.2796
▁ਗਿਜ੍ਝ	-11.2797
ਿਯਮਾਨ	-11.2798
▁ਯੇਸੁ	-11.28
ੇਸ੍ਸਨ੍ਤਰ	-11.2801
▁ਦਿਨ੍ਨੇ	-11.2806
▁ਗਚ੍ਛਨ੍ਤੀ	-11.2806
ਸਕੁਣ	-11.2807
ਟ੍ਠਾਨਾਨਿ	-11.2807
ਕਰੋਤਿ	-11.2807
▁ਦਾਸਿ	-11.2809
▁ਅਰਹਤਾ	-11.2809
▁ਮਿਨ	-11.2812
▁੧੯੬	-11.2813
ਕਤ੍	-11.2815
▁ਸਙ੍ਘਿਕਂ	-11.2819
▁ਪਾਣਾਤਿਪਾਤੋ	-11.2821
▁ਅਸੇਖ	-11.2822
▁ਨਅਰੂਪ	-11.2823
ਿਸਨ	-11.2824
▁ਅਨੁਪਸਮ੍ਪਨ੍ਨਸ੍ਸ	-11.2827
▁ਨਾਨੁਸੇਨ੍ਤਿ	-11.2829
▁ਦੁਮ	-11.283
▁੧੮੬	-11.2831
▁ਉਪ੍ਪਜ੍ਜੇਯ੍ਯੁਂ	-11.2832
▁ਪਠਮਾਯ	-11.2832
▁ਸਨ੍ਨਿਪਤਿਤ	-11.2833
▁ਪਕ੍ਕੋਸ	-11.2836
ਯਮਾਹ	-11.2837
▁ਲਭਤੇ	-11.2839
ਰਿਤੁਂ	-11.2842
▁ਤੋਸੇ	-11.2844
ੇਦਯ	-11.2845
▁ਉਕ੍ਖੇਪਨੀਯਕਮ੍ਮਂ	-11.2846
ਦੇਥ	-11.2847
ਾਪਯਿ	-11.2849
ਦਾਮੀ	-11.285
▁ਨਿਦ੍ਦੇਸੇ	-11.2851
ੂਪਮ	-11.2852
▁ਪਚ੍ਚਤ੍ਤਂ	-11.2853
▁ਸਤ੍ਤਤਿਂਸ	-11.2854
▁ਲੋ	-11.2855
ਚਾਰਿਕ	-11.2856
▁ਪਾਰੁਪਿ	-11.2857
ਦਸਕ	-11.2859
▁ਕਮ੍ਮਨ੍ਤਿ	-11.2859
ਪਞ੍ਹੇ	-11.2861
ਸਙ੍ਖ੍ਯ	-11.2863
▁ਹੇਤੁਫਲ	-11.2865
ਤ੍ਤਮਾਨੋ	-11.2865
▁ਉਪਟ੍ਠਹਨ੍ਤਿ	-11.2866
ਸਮ੍ਪਤ੍ਤ	-11.2866
ੇਰਿ	-11.2867
ਞ੍ਞਾਤ	-11.2869
▁ਯੋਧ	-11.2874
ੁਤ੍ਤਾਯ	-11.2876
ਸ੍ਸਸਤਂ	-11.288
▁ਧੀਤਰਂ	-11.2881
▁ਸਹਾਯਕ	-11.2881
ਿਚ੍ਛੇਦ	-11.2881
▁ਆਨੀਤ	-11.2882
▁ਪਟਿਕ੍ਖੇਪ	-11.2882
▁ਪਰਿਕ੍ਖਯਾ	-11.2883
▁ਪਞ੍ਞਪੇਤਿ	-11.2887
ੁਪੇਕ੍ਖਾ	-11.2888
ਤਤਿਯ	-11.2888
▁ਤਿਤ੍ਥ	-11.2889
▁ਤਥਾਰੂਪ	-11.2892
▁ਅਨੁਪਸ੍ਸਨਾ	-11.2895
ਨਮੋ	-11.2896
ਯਾਚ	-11.2896
▁ਗਣ੍ਹਨ੍ਤਸ੍ਸ	-11.2897
▁੨੦੭	-11.29
▁ਮਿ	-11.29
ਕਪ੍ਪਿਯ	-11.2901
▁ਅਨੁਸੇਤੀਤਿ	-11.2902
ੂਪਮੋ	-11.2902
▁ਗਣ੍ਹੇਯ੍ਯ	-11.2902
▁ਨਅਰਣ	-11.2902
ਟ੍ਠਪਨ	-11.2903
ਸਨਟ੍ਠਾਨ	-11.2904
ਤਸ੍ਮਾਤਿਹ	-11.2906
▁ਭੁਞ੍ਜੇਯ੍ਯ	-11.2906
▁ਨਿਸ੍ਸਿਤ	-11.2909
▁ਪਜਾਨਨਾ	-11.2909
▁ਰਜਨੀਯ	-11.2909
▁ਮਿਚ੍ਛਤ੍ਤਨਿਯਤ	-11.2911
▁ਚਿਤ੍ਤੋ	-11.2911
▁ਦਦਾਤਿ	-11.2911
ਸੀਹੋ	-11.2911
▁ਅਹੇਤੁਕਾ	-11.2913
▁ਅਨੁਰੁਦ੍ਧੋ	-11.2914
ਖੀਣਾ	-11.2914
▁ਸਞ੍ਜਾਨ	-11.2916
▁ਬਾਹਿਰਾ	-11.2918
ਪੁਬ੍ਬਾ	-11.2919
ਨ੍ਤਿਆਦੀਨਿ	-11.2921
▁ਪਨੇਸਾ	-11.2922
ਲ੍ਯ	-11.2922
ਮਾਸੇ	-11.2923
ਸਤ੍ਤਾਹ	-11.2924
▁ਉਭਯਮ੍ਪਿ	-11.2924
▁ਅਨੋਮ	-11.2924
ਤੁਕਾਮਾ	-11.2926
▁ਦਣ੍ਡਂ	-11.2927
▁ਦਾਰਕੇ	-11.2928
ਪਣ੍ਣਾਸ	-11.2929
ਿਸੇਸਾਧਿਗਮ	-11.293
▁ਅਧਿਮੁਤ੍ਤ	-11.293
ਰਤ	-11.293
▁੧੯੧	-11.2934
▁ਭਰ	-11.2935
▁ਉਪਟ੍ਠਿਤ	-11.2935
▁ਪਰਿਕਪ੍ਪ	-11.2936
ੀਭਾ	-11.2936
ਅਤ੍ਤਾ	-11.2937
▁ਸਮ੍ਪਟਿਚ੍ਛਿਤ੍	-11.2937
▁ਉਪਪਜ੍ਜਨ੍ਤੀ	-11.2938
▁ਪਟਿਪਨ੍ਨ	-11.2938
੧੬	-11.2938
▁ਮੋਘਮਞ੍ਞ	-11.2939
▁ਪਣਿਧਾਯ	-11.2939
▁ਸੋਮਨਸ੍ਸਜਾਤੋ	-11.2939
ਸਂਸਟ੍ਠ	-11.2942
▁ਪਠਮਜ੍ਝਾਨਂ	-11.2942
▁ਅਕ੍ਖਾਹਿ	-11.2942
▁ਚੋਰੋ	-11.2943
▁ਮੁਨਿਨੋ	-11.2943
▁ਸਮੇ	-11.2945
▁ਖੇਪੇ	-11.2945
▁ਪਾਤੁ	-11.2947
ਸੂਲ	-11.2947
▁ਏਕਦੇਸਂ	-11.2949
▁ਬਹੁਕ	-11.2949
▁ਸਤੀਤਿ	-11.2951
▁ਅਕੁਸਲਮੂਲਂ	-11.2952
▁ਹੀਨਾ	-11.2952
ਗੁਣੋ	-11.2955
▁ਦਦਾਮਿ	-11.2955
▁ਭੁਸ	-11.2955
ਮਧਿ	-11.2956
▁ਸਬ੍ਬਮੇਤਂ	-11.2959
ਸਙ੍ਕਪ੍ਪ	-11.296
ੇਗੋ	-11.2963
▁ਜਨਤਂ	-11.2963
ਤ੍ਤੇਪਿ	-11.2966
▁ਭਿਜ੍ਜ	-11.2969
▁ਅਨੁਸਨ੍ਧਿ	-11.2969
ਹਨ੍ਦ	-11.2971
▁ਕੁਸੁਮ	-11.2972
ਿਜਿਤ	-11.2973
▁ਕੁਸਲਧਮ੍ਮ	-11.2974
▁ਤਚ	-11.2975
▁ਠਾਨੇਨ	-11.2976
▁ਅਤ੍ਥਙ੍ਗਮੋ	-11.2976
▁ਦੁਕ੍ਖਸ੍ਸਨ੍ਤ	-11.2978
▁ਪਾਸਾਦਂ	-11.2978
▁ਕਾਮਤਣ੍ਹਾ	-11.2979
ੂਨਂ	-11.2979
▁ਯੋਜਨਂ	-11.2981
ਿਚਿਤ੍ਰ	-11.2982
▁ਖਾਦਤਿ	-11.2983
▁ਅਨੁਪਞ੍ਞਤ੍ਤਿ	-11.2984
ਜਾਨਾਤਿ	-11.2984
▁ਪਟਿਪ੍ਪਸ੍ਸਮ੍ਭ	-11.2985
▁ਭਣਿਤ	-11.2986
ਸਮ੍ਬੋਜ੍ਝਙ੍ਗਸ੍ਸ	-11.2986
ਦਤ੍ਥਂ	-11.2987
▁ਭਾਸਤੋ	-11.2987
ਤਿਕਾ	-11.2988
▁ਅਨਤ੍ਥਾਯ	-11.299
▁ਅਸਙ੍ਖ੍ਯੇਯ੍ਯ	-11.2991
ਿਜਹਿਤ੍	-11.2993
▁ਅਸੁਰਾ	-11.2993
ਞ੍ਚੇਤਂ	-11.2993
▁ਮਹਾਬੋਧਿ	-11.2995
▁ਅਸੁਦ੍ਧ	-11.2997
▁ਕੁਸਲੇ	-11.2998
▁ਞਾਣਸਮ੍ਪਯੁਤ੍ਤ	-11.2999
▁ਤਿਦਸ	-11.3
▁ਸਮਾਦਹ	-11.3002
ਿਪਨ੍ਨ	-11.3008
▁ਖਿਪ੍ਪਮੇ	-11.3011
▁ਨੋਅ	-11.3011
▁ਪਰਿਲ਼ਾਹ	-11.3013
▁ਲਜ੍ਜੀ	-11.3014
ਪਰੇ	-11.3015
ਤ੍ਥੇਰੇਨ	-11.3015
▁ਸਮਨ੍ਤਪਾਸਾਦਿਕਾਯ	-11.3016
ਨੁਗ੍ਗਹ	-11.3017
▁ਅਸਞ੍ਞ	-11.3017
▁ਪਾਰੁਪ	-11.3019
▁ਭਿਸਿ	-11.3021
▁ਮਾਤੁਗਾਮਸ੍ਸ	-11.3021
▁ਤੁਣ੍ਹੀਭ	-11.3022
▁ਅਤ੍ਥਕਾਮ	-11.3023
▁ਆਨਾਪਾਨਸ੍ਸਤਿ	-11.3023
▁ਨਸ੍ਸਤਿ	-11.3026
▁ਸਮ੍ਪਦਾਨ	-11.3029
ਿਚ੍ਛਾ	-11.303
ਿਪ੍ਪਯੁਤ੍ਤਞ੍ਚ	-11.303
ਦਨ੍ਤੀਤਿ	-11.303
ਿਗਰਹਿ	-11.3031
▁ਪੁਰਾ	-11.3031
ਭਾਗੇਨ	-11.3032
▁ਧਮ੍ਮਤੋ	-11.3033
▁ਅਨਾਗਾਮਿ	-11.3033
ਪਰਿਭਾ	-11.3038
▁ਝਾਨਾਨਿ	-11.3038
▁ਪੁਗ੍ਗਲੇਨ	-11.3041
▁ਗਜ੍ਜ	-11.3043
ਾਰੇਸਿ	-11.3046
▁ਨਾਮਿਕਪਦਮਾਲਾ	-11.3048
▁ਉਪਚਿਨਨ੍ਤੋ	-11.305
▁ਅਗਚ੍ਛ	-11.305
▁ਆਰੁਪ੍ਪ	-11.3052
▁ਪਾਪਿਮਾ	-11.3052
▁ਸਬ੍ਰਹ੍ਮਚਾਰੀਨਂ	-11.3056
▁ਸਬ੍ਬਞ੍ਞੂ	-11.3057
▁ਦਮੇ	-11.3057
▁ਅਨੁਕਮ੍ਪਾਯ	-11.3058
▁ਨਨ੍ਦਿ	-11.3062
ਾਨਮੇ	-11.3064
ਅਸ	-11.3065
ਅਪ	-11.3067
ਙ੍ਕੁਰ	-11.3068
▁ਅਰੂਪਭ	-11.3068
▁੧੯੫	-11.307
ਤਣ੍ਹ	-11.3075
▁੧੯੩	-11.3076
ਪਚ੍ਚੁਪਟ੍ਠਾਨਂ	-11.3077
▁ਸੇਖ	-11.3077
▁ਦਿਨ੍ਨਾ	-11.3078
▁੧੮੭	-11.3078
▁ਪਚ੍ਚਨੀਕ	-11.3079
▁ਅਪ੍ਪਟਿਘ	-11.3079
▁ਅਟ੍ਠਕਥਾਸੁ	-11.3081
▁ਸਕਤ੍ਥੇ	-11.3082
ਿਸ੍ਸਰੋ	-11.3083
ਪਦੇਹਿ	-11.3087
▁ਅਪੇਤ	-11.3088
▁ਆਪਜ੍ਜਿ	-11.3092
▁ਮਹਾਜਨਂ	-11.3092
ਿਚਾਰਮਤ੍ਤਾ	-11.3093
ਿਪ੍ਪਮੁਤ੍ਤ	-11.3096
▁ਪਰਿਕ੍ਖੇਪ	-11.3098
ਅਨੁਪਾਦਾਨਿਯੋ	-11.3099
▁ਦੁਬ੍ਬਣ੍ਣ	-11.31
▁ਗਨ੍ਧਂ	-11.31
▁ਸੁਕਤ	-11.3101
ਪਿਟਕ	-11.3103
ਾਚਯਗਾਮਿਨਾਪਚਯਗਾਮੀ	-11.3104
▁ਅਘਾਨਕਾਨ	-11.3104
▁ਸੁਤ੍ਤਨ੍ਤਭਾਜਨੀਯ	-11.3104
▁ਨਾਹੋਸਿ	-11.3105
▁ਬੁਦ੍ਧਸਾਸਨੇ	-11.3106
ਥਾਮ	-11.3107
▁ਨਿਰੁਦ੍ਧਾ	-11.3108
ਤਪ੍ਪ	-11.3108
▁ਸਿਦ੍ਧੋ	-11.3108
▁ਪਸ੍ਸਥ	-11.3108
▁ਰਾਜੂਨਂ	-11.3108
ਤੇਹਿ	-11.3109
▁ਪਸਯ੍ਹ	-11.3109
▁ਆਗਚ੍ਛਨ੍ਤਂ	-11.3111
▁ਅਣ੍ਡ	-11.3114
ੂਹਿ	-11.3114
ਦਾਮੀਤਿ	-11.3115
▁ਦਦ	-11.3117
ਨੇਸੁ	-11.3118
ੇਯ੍ਯੁਨ੍ਤਿ	-11.312
ੀਥਿਯਂ	-11.312
▁ਤਣ੍ਹਾਦਿਟ੍ਠਿ	-11.3121
ਪਰਿਕ੍ਖਿਤ੍ਤ	-11.3123
▁ਯਾਚਨ	-11.3125
ਿਭਤ੍ਤੀਨਂ	-11.3125
▁ਸਮ੍ਬੋਧ	-11.3126
ਸਞ੍ਞਿਤਾ	-11.3127
ਦਿਟ੍ਠੀ	-11.3127
▁ਖਾਦਨੀਯ	-11.3127
▁ਛੇਕ	-11.3131
▁ਤਿਕਪਾਚਿਤ੍ਤਿਯਂ	-11.3132
▁ਗਾਯ	-11.3132
▁੧੯੮	-11.3133
▁ਦਾਯਕੋ	-11.3133
▁ਨਿਯ੍ਯਾਨਿਕ	-11.3136
ਤਲਂ	-11.3139
ਚ੍ਛਨ੍ਦ	-11.314
▁ਕਪ੍ਪੋ	-11.3141
ਤਤਿਯਂ	-11.3141
▁ਆਰਦ੍ਧੋ	-11.3143
▁ਆਬਾਧੋ	-11.3145
▁ਰਜ੍ਜੁ	-11.3146
▁ਸਣ੍ਠ	-11.3147
ਾਤੀਤ	-11.315
▁ਮਹਾਬ੍ਰਹ੍ਮਾ	-11.3153
ਅਨੇਕ	-11.3158
▁ਖੁਦ੍ਦ	-11.3158
▁ਇਰਿਯ	-11.3158
▁ਰਸਾਯਤਨਂ	-11.316
▁ਪਤਿਟ੍ਠਾਪੇਸਿ	-11.3161
▁ਉਦਾਯੀ	-11.3161
▁ਤੀਹਾਕਾਰੇਹਿ	-11.3161
ੇਸ੍ਸਨ	-11.3162
ਸਨੇ	-11.3162
▁ਦਣ੍ਡਕ	-11.3165
ਕੁਸੁਮ	-11.3166
ਭਾਸ	-11.3167
▁ਕਿਲਨ੍ਤ	-11.3169
▁੨੧੫	-11.317
▁ਜਨਿਨ੍ਦ	-11.317
▁ਆਕਾਸਂ	-11.3171
▁ਪਬ੍ਬਜਿਂ	-11.3174
ਹਤਂ	-11.3174
▁ਧੋਤ	-11.3175
▁ਨਿਯੁਤ੍ਤੋ	-11.3177
ਚਰਿਯਂ	-11.3178
▁ਦਜ੍ਜ	-11.3178
▁ਭਿਕ੍ਖੁਸਙ੍ਘੇ	-11.3179
▁ਕੁਪਿਤੋ	-11.3181
▁ਮਹਾਯਸੋ	-11.3182
▁ਦਿਬ੍ਬੇਹਿ	-11.3183
▁ਆਪਨ੍ਨਾ	-11.3183
ਿਤ੍ਥਿਯੋ	-11.3183
▁ਸਿਦ੍ਧਾ	-11.3183
▁ਪਾਯਾਸਿ	-11.3184
ਦੋਮਨਸ੍ਸ	-11.3185
ਪਭ	-11.3185
▁ਚੇਤਿਯਸ੍ਸ	-11.3185
ੇਦਿਤਬ੍ਬਨ੍ਤਿ	-11.3187
ਾਲਯ	-11.3187
ਲਪਨ	-11.3187
ਪਬ੍ਬਜਿਤ	-11.3188
▁ਨਾਞ੍ਞ	-11.319
▁ਪਚ੍ਚਯਾਨਂ	-11.3191
▁ਕਣ	-11.3192
▁ਅਦਸ੍ਸਨਂ	-11.3192
▁ਹਤ੍ਥਪਾਸੇ	-11.3193
ਸੁਣ	-11.3197
ਯੁਗ	-11.3199
ੁਦ੍ਧਿਂ	-11.32
▁ਆਹਾਰਸਮੁਟ੍ਠਾਨਂ	-11.3202
ਰਮ੍ਭ	-11.3203
▁ਪਟਿਪ੍ਪਸ੍ਸਦ੍ਧ	-11.3204
▁ਕਣ੍ਡ	-11.3205
ਸਿਤਬ੍ਬ	-11.3206
ਗਨ੍ਤਬ੍ਬ	-11.3209
ਙ੍ਗੁਲਿ	-11.3211
ਮਚ੍ਛਰਿਯ	-11.3212
ਦੀਪਨਤ੍ਥਂ	-11.3212
ਞ੍ਹੇਤਂ	-11.3213
ਚ੍ਛਰੇ	-11.3215
▁ਅਪ੍ਪਸਾ	-11.3216
▁ਲੋਕਿਯੋ	-11.3217
ਰੇਸੁ	-11.3218
ੇਸਾਰਜ੍ਜ	-11.3218
▁ਆਕਙ੍ਖ	-11.322
▁ਉਪਜ੍ਝਾਯਸ੍ਸ	-11.3221
▁ਪਸ੍ਸਿ	-11.3223
▁ਚਤੁਰਸ੍ਸ	-11.3223
▁ਅਭਿਕ੍ਕਨ੍ਤਂ	-11.3224
▁੨੨੦	-11.3224
▁ਤਥਾਗਤਾ	-11.3224
ਿਭਾਗਤੋ	-11.3225
▁ਤਿਕਿਚ੍ਛ	-11.3226
ਯਮ	-11.3226
▁ਦੁਲ੍ਲਭ	-11.3227
▁ਅਪ੍ਪਿਯ	-11.3228
ਕਮ੍ਮੇਸੁ	-11.3232
▁ਸਙ੍ਗਣ੍ਹ	-11.3234
▁ਜਾਨਿਤਬ੍ਬਂ	-11.3235
▁ਸਕ੍ਕੋਮਿ	-11.3236
ਿਪਨ੍ਨੋ	-11.3236
▁ਸਬ੍ਬਭ	-11.3237
▁ਭਬ੍ਬ	-11.324
ਦਮ	-11.3243
▁ਅਨਿਯਮ	-11.3246
▁ਜਲਂ	-11.3247
ੀਮਂਸਾ	-11.3248
ਥਮ੍ਭ	-11.3248
ਸ੍ਸਨ੍ਤੇ	-11.3249
▁ਪੇਸਲ	-11.325
ੁਪਟ੍ਠਾਨ	-11.3251
▁ਨਪੁਂਸਕ	-11.3252
▁ਪੇਤਂ	-11.3253
▁ਤਿਲੋਕ	-11.3253
ਸਮੁਦਾਯ	-11.3254
▁ਪਟਿਸ੍ਸੁਤ	-11.3255
▁ਪਿਤਰਾ	-11.3256
▁ਪਾਸਾਦੇ	-11.3256
▁ਚੋਦਨ	-11.3259
▁ਆਹਟ	-11.326
ਾਣਿਜਾ	-11.3261
▁ਪੇਸਿਤ	-11.3261
ਤ੍ਤਾਭਾ	-11.3264
▁ਤਾਦਿਸਸ੍ਸ	-11.3264
ਲਿਤ	-11.3265
▁ਯੁਤ੍ਤਿ	-11.3266
ਙ੍ਗੋ	-11.3267
▁ਪੁਰੇਭਤ੍ਤਂ	-11.3268
▁ਸਮਣਧਮ੍ਮਂ	-11.327
▁ਮੁਤਂ	-11.327
▁ਕਪ੍ਪਂ	-11.3272
▁ਥਲੇ	-11.3273
▁ਨੁਪ੍ਪਜ੍ਜਿਸ੍ਸਤੀ	-11.3273
▁ਦੀਪਂ	-11.3275
ਕਿਲਮਥ	-11.3277
▁ਮਹਤਿਯਾ	-11.3277
▁ਠਾਨਮੇਤਂ	-11.3278
ਭੁਞ੍ਜ	-11.3278
▁ਪਚ੍ਛਿਮੇ	-11.3278
ਪੁਰਿਮ	-11.3281
▁ਹੇਤੁਪਚ੍ਚਯ	-11.3281
ੁਲ	-11.3283
▁ਚਿਨ੍ਤਯ	-11.3284
ਪ੍ਫਲ	-11.3285
▁ਗਚ੍ਛਨ੍ਤਾ	-11.3285
▁ਭਦ੍ਦੇ	-11.3285
▁ਪਙ੍ਕ	-11.3287
▁ਅਕਾਲ	-11.3289
ਸਯ	-11.3289
▁ਅਨੇਕੇਹਿ	-11.329
▁੨੦੫	-11.3291
▁ਚਿਤ੍ਤਸਮ੍ਪਯੁਤ੍ਤ	-11.3293
▁ਪਰਿਚਾਰ	-11.3294
▁ਸਾਰਮ੍ਮਣ	-11.3295
ਭਯਭੇਰ	-11.3296
▁ਏਤਸ੍ਮਾ	-11.3297
▁ਕੇਸੇ	-11.3298
▁ਏਕਂਸੇਨ	-11.3298
▁ਕੁਮ੍ਭਕਾਰ	-11.3301
▁ਸਲ੍ਲਪ	-11.3301
▁ਉਪਸਮ੍ਪਦਂ	-11.3302
ਮੁਸਾ	-11.3304
▁ਇਤ੍ਥ	-11.3306
ੇਕ੍ਖਮਾਨੋ	-11.3307
▁ਸੋਤਾਪਨ੍ਨ	-11.3308
▁ਅਨਾਗਾਮਿਫਲ	-11.331
▁ਰੁਨ੍ਧ	-11.3311
▁ਕਮ੍ਮਨਿ	-11.3312
▁ਨਾਨੁ	-11.3313
ਕ੍ਖਯਂ	-11.3314
▁ਲਿਖ	-11.3314
▁ਭਿਕ੍ਖੁਨੀਹਿ	-11.3314
▁ਮਾਪ	-11.3315
ਕੁਚ੍ਛਿ	-11.3316
▁ਇਮਿਨਾਪਿ	-11.3317
ੁਤ੍ਤਲਕ੍ਖਣ	-11.3318
▁ਉਪਕਾਰਕ	-11.332
ਾਯਮਤ੍ਥੋ	-11.332
▁ਸਾਖ	-11.332
▁ਯਥਾਸੁਖਂ	-11.3321
▁੨੦੯	-11.3325
ਚ੍ਚੇ	-11.3326
ਸਯੋ	-11.3326
▁ਤਥਾਗਤਬਲਂ	-11.3327
▁ਮਰਤਿ	-11.3328
ਲਾਬੁ	-11.333
▁ਨਚ੍ਚਗੀਤ	-11.333
▁ਸਮੁਟ੍ਠਿਤਂ	-11.3332
▁ਅਭਿਨ	-11.3332
▁ਨਿਨ੍ਦ	-11.3335
▁ਕਸ੍ਸਪਸ੍ਸ	-11.3335
ਸਨ੍ਤੋਸੋ	-11.3335
▁ਪਸੀਦ	-11.3336
▁ਰਾਜਕੁਲ	-11.3336
▁ਅਪਰਿਸੁਦ੍ਧ	-11.3338
▁੧੮੮	-11.3339
ਮਾਨਿ	-11.334
▁ਅਤ੍ਥੇਸੁ	-11.334
▁ਸੇਨਾਸਨਾਨਿ	-11.3341
▁ਗਮਿਸ੍ਸਾਮਿ	-11.3343
▁ਪਦਹਤਿ	-11.3343
ਦੁਟ੍ਠ	-11.3344
ਸਮਙ੍ਗਿ	-11.3345
▁ਅਰੂਪੀ	-11.3346
▁ਨਪ੍ਪਟਿ	-11.3347
▁ਤੇਤ੍ਤਿਂਸ	-11.3349
▁ਸਸ੍ਸਤੋ	-11.3349
ਤ੍ਥੂਨਂ	-11.3349
▁ਦਾਨੇਨ	-11.3351
▁ਕਥੇਤਬ੍ਬ	-11.3353
▁ਪਰਿਚ੍ਚਾਗ	-11.3354
▁ਉਭੋਸੁ	-11.3355
▁ਅਦਾਸਿਂ	-11.3357
▁ਚਤੁਪ੍ਪਦ	-11.3357
▁ਅਜ੍ਝਤ੍ਤਿਕਾ	-11.3358
ਅਹ	-11.3358
▁ਗੁਣੋ	-11.3359
ਨੋਤਿ	-11.3359
ਸਨ੍ਨਿਭ	-11.3361
▁ਞਾਤਕਾ	-11.3362
▁ਨਿਦ੍ਦਿਟ੍ਠੋ	-11.3362
ਤ੍ਥੁਤੋ	-11.3362
ਸਙ੍ਘਾਟ	-11.3364
ਪਾਹਂ	-11.3366
▁ਉਪਟ੍ਠਿਤਾ	-11.3366
ੇਲ਼	-11.3367
ਮਨ੍ਤਿ	-11.3368
▁ਉਯ੍ਯਾਨ	-11.3371
▁ਮਹਨ੍ਤੇਨ	-11.3372
▁ਪਾਦੇਹਿ	-11.3375
▁ਅਤੀਤਾਰਮ੍ਮਣ	-11.3376
▁ਓਦਨ	-11.3377
ਾਸਿਨੀ	-11.3379
▁ਸਪ੍ਪਚ੍ਚਯ	-11.3379
੧੫	-11.3379
ਿਚਕ੍ਖਣੋ	-11.338
ਯੋਪਿ	-11.3381
ਸਮ੍ਮਾਦਿਟ੍ਠਿ	-11.3381
ਸਾਮਞ੍ਞੇਨ	-11.3382
▁ਸਾਯ	-11.3384
▁ਓਰੁਯ੍ਹ	-11.3387
▁ਮਨ੍ਦੋ	-11.3388
ਰਾਗਾਨੁਸਯ	-11.3389
ਚੀਤਿ	-11.3391
▁ਅਧਿਟ੍ਠਹ	-11.3391
▁ਓਤਿਣ੍ਣ	-11.3392
▁ਅਧਿਪ੍ਪੇਤਤ੍ਤਾ	-11.3393
▁ਪੇਮ	-11.3393
▁੧੯੪	-11.3396
ਰਣਾਨਂ	-11.3396
▁ਅਨੁਯੁਤ੍ਤੋ	-11.3396
▁ਸਙ੍ਖਤਾ	-11.3396
ਜ੍ਜਨ੍ਤਿ	-11.3398
▁ਕੀ	-11.34
▁ਧਮ੍ਮਤਾ	-11.3401
▁ਅਨੇਕੇ	-11.3403
▁ਕੁਟ	-11.3404
ਧਂ	-11.3405
▁ਤਿਤ੍ਥਿਯਾ	-11.3406
▁ਗਾਮਨ੍ਤਰ	-11.3411
▁ਉਲ਼ਾਰਂ	-11.3412
▁ਅਪ੍ਪੇਕਚ੍ਚ	-11.3412
ਖੋ	-11.3413
▁ਨਿਚ੍ਛ	-11.3413
ਪ੍ਪਦੇਸੇ	-11.3414
▁ਕੁਮੁਦ	-11.3415
ਸਙ੍ਘੋ	-11.3416
ਪਰਿਯਾਪਨ੍ਨਾ	-11.3416
▁੧੯੨	-11.3417
ਚਨਤ੍ਥਂ	-11.3418
▁ਮੁਤ੍ਤਂ	-11.342
▁ਸੁਭਂ	-11.342
ਖਾਦਨੀਯ	-11.3421
▁ਕਤਪੁਞ੍ਞ	-11.3427
ਯਞ੍ਞ	-11.3427
ਚਨਮੇ	-11.3428
ਿਪ੍ਪਕਤ	-11.3429
ਅਟ੍ਠਕਥਾ	-11.343
ਾਦਿਗਣ	-11.3432
▁੨੦੬	-11.3432
▁ਅਹਨ੍ਤਿ	-11.3433
ਿਰੂਲ਼੍ਹ	-11.3436
ੇਰਮਣਿ	-11.3437
▁ਏਕੇਕਸ੍ਸ	-11.344
ਨਸਣ੍ਡ	-11.344
ਿਞ੍ਞਾਣਟ੍ਠਿਤਿ	-11.3442
ਪਰਿਪੁਣ੍ਣ	-11.3443
▁ਅਭਿਸਮਯ	-11.3447
▁ਭਜਤਿ	-11.345
ਿਨਿਮੁਤ੍ਤ	-11.345
ਿਦ੍ਧਂ	-11.345
▁ਭਣਨ੍ਤਿ	-11.3457
▁ਅਸ੍ਸਂ	-11.346
▁ਨ੍ਹਾਰੁ	-11.346
▁ਸਕਦਾਗਾਮਿਫਲ	-11.3461
▁ਚਤੁਬ੍ਬਿਧੋ	-11.3461
▁ਞਤ੍ਤਿਯਾ	-11.3462
▁ਦਨ੍ਤਕਟ੍ਠ	-11.3463
▁ਆਗਤੋਤਿ	-11.3467
ੇਦੇਹ	-11.3467
▁ਪਟਿਗ੍ਗਹਿਤਂ	-11.3467
▁ਰੁ	-11.3467
ਤ੍ਤੇਤਬ੍ਬ	-11.3467
ਨਿਯਾ	-11.3468
▁ਰੋਸ	-11.347
▁ਸਂਸਾਰੋ	-11.3471
▁ਕੁਹਨ	-11.3473
ਭੀ	-11.3474
ਪੇਤਂ	-11.3475
▁ਸਿਕ੍ਖੇਯ੍ਯ	-11.3476
ੋਟ੍ਠਬ੍ਬਨ	-11.3477
ਤ੍ਤਾਰੋ	-11.3477
ਏਕੋ	-11.3479
ਚ੍ਛਾ	-11.3479
ਗੁਮ੍ਬ	-11.3479
▁ਜਾਤਿਪਚ੍ਚਯਾ	-11.3481
ਾਦਿਅਤ੍ਥ	-11.3483
▁ਦਿਬ੍ਬਾ	-11.3486
▁ਕਪਿ	-11.3486
▁ਦੋਸਸ੍ਸ	-11.3487
▁ਦਣ੍ਡੇਨ	-11.3489
ਕਾਰਨ੍ਤ	-11.349
▁ਗਚ੍ਛਨ੍ਤ	-11.349
▁ਆਯਤ	-11.3492
ਅਪਰ	-11.3495
ਿਦ੍ਧਂਸ	-11.3496
▁ਯੋਜਿਤ	-11.3496
ਪਤੀ	-11.3498
ਜ੍ਝੋ	-11.3498
▁ਪਤੀ	-11.3499
▁ਦਿਟ੍ਠਾਨੁਸਯ	-11.3499
▁੨੦੦	-11.3502
▁ਚੇਤੋਸਮ੍ਫਸ੍ਸਜ	-11.3502
▁ਭੇਰ	-11.3503
▁ਸਙ੍ਖੇਪੇਨ	-11.3504
ਿਜ੍ਜਮਾਨੇ	-11.3507
▁ਰਤਨਾਨਿ	-11.3507
▁ਆਗਮਨਂ	-11.3507
▁ਪਠਮਤਰਂ	-11.351
੩੦	-11.351
ਤ੍ਤਨੇ	-11.351
ਨ੍ਤੂ	-11.3511
ਪਤ੍ਤਾ	-11.3513
▁ਅਙ੍ਗਜਾਤਂ	-11.3513
ਿਰਜ੍ਜਤਿ	-11.3514
ਕ੍ਕੋਸ	-11.3514
ਬਨ੍ਧਨੇਨ	-11.3515
▁ਦੁਕ੍ਖਨਿਰੋਧੋ	-11.3515
▁ਸਮ੍ਪਜ੍ਜਤਿ	-11.3523
▁ਤੁਯ੍ਹ	-11.3525
ਪਥਂ	-11.3529
ੁਤ੍ਥੋ	-11.3529
▁ਅਜਾਨਨ੍ਤਸ੍ਸ	-11.3529
▁ਕਲ੍ਯਾਣਂ	-11.3531
▁ਅਤੀਤੋ	-11.3537
▁ਅਕਾਰ	-11.3537
▁ਪਕ੍ਖਿ	-11.3538
▁ਜਾਨਾਥ	-11.3539
ਿਨਾਸੇ	-11.354
੧੭	-11.3543
▁ਲੋਕਸ੍ਮਿ	-11.3544
▁ਮੂਲਾਨਿ	-11.3545
▁ਗਣੇ	-11.3548
▁ਨੇਕ	-11.3551
▁ਕਮ੍ਬਲ	-11.3555
▁ਅਤੁਲ	-11.3555
▁ਸਾਰਜ੍ਜ	-11.3555
ਞਾਤ	-11.3555
ਸਨ੍ਤਂ	-11.3556
ਿਜ੍ਜੁ	-11.3557
▁ਅਭਿਧਮ੍ਮਭਾਜਨੀਯ	-11.356
▁ਸਬ੍ਬਥਾਪਿ	-11.356
▁ਨਿਦ੍ਧਾਰੇ	-11.3561
▁ਅਪੁਬ੍ਬਂ	-11.3562
▁ਉਪ੍ਪਜ੍ਜਤੀ	-11.3562
▁ਅਨਞ੍ਞਸਾਧਾਰਣ	-11.3564
▁ਦਿਟ੍ਠਿਗਤਿਕ	-11.3565
▁ਸਾਣ	-11.3565
ਖਿਲ	-11.3565
ਸਚ੍ਚਪਰਿਯੋਸਾਨੇ	-11.3566
▁ਧਮ੍ਮਿਯਾ	-11.3568
▁ਸਮੁਟ੍ਠਾਨਾਦੀਨਿ	-11.3571
▁ਪਟਿਪਨ੍ਨਾ	-11.3575
▁ਤਥਾਰੂਪਂ	-11.3577
ਪਰਿਯਾਪਨ੍ਨੋ	-11.3579
ਸਮੋਧਾਨਪਰਿ	-11.3579
▁ਸਙ੍ਗੀਤਿ	-11.3579
ਤ੍ਥੂ	-11.358
ਹਰਣਂ	-11.3583
ਿਚਾਰਣ	-11.3583
▁ਸਨ੍ਤੀਰਣ	-11.3584
ਅਸਂਕਿਲੇਸਿਕ	-11.3584
▁ਨਿਬ੍ਬਾਨਾਯ	-11.3585
▁ਦਸ੍ਸਨੀਯ	-11.3585
▁ਅਧਮ੍ਮਿਕ	-11.3586
▁ਬ੍ਯਸਨ	-11.3586
▁ਭੁਮ੍ਮਂ	-11.3587
▁ਗਤਿਂ	-11.3587
੧੯	-11.3588
▁ਸਾਰਾਗੋ	-11.3588
▁ਘਟ੍ਟੇ	-11.3589
ਚੇਤੋ	-11.3593
ਮਿਚ੍ਚਾਦਿ	-11.3594
▁੨੨੮	-11.3599
ਚਿਰ	-11.3599
ਧਜ	-11.3599
▁ਉਪਮਾਯ	-11.36
▁੨੧੩	-11.36
ਸਮੁਦਯ	-11.3601
ਰਣਸਮ੍ਪਯੁਤ੍ਤ	-11.3601
▁ਅਧਿਕਂ	-11.3602
▁੨੩੮	-11.3604
ਕ੍ਖਮ	-11.3606
ਕਸ੍ਸਪ	-11.3606
▁੨੧੮	-11.3607
▁ਅਭਿਨੀਹਾਰ	-11.3608
ਕਮ੍ਮਾ	-11.361
ਾਣ	-11.3611
▁ਹਦਯੇ	-11.3611
▁ਕੁਮਾਰਕ	-11.3613
▁ਛੇਦ	-11.3614
▁ਪਰੇਨ	-11.3614
▁੨੧੬	-11.3614
▁ਸੁਞ੍ਞਤਾ	-11.3615
ਿਞ੍ਞਾਤਂ	-11.3616
ਪਾਰਾਜਿਕ	-11.3617
ੁਟ੍ਠਾਪੇ	-11.3618
▁ਪਦਚ੍ਛੇਦੋ	-11.3619
▁ਨਿਰੋਧਸਮਾਪਨ੍ਨ	-11.3621
ੂਪਗਾ	-11.3623
ੁਪਟ੍ਠ	-11.3624
▁ਪਰਿਗ੍ਗਣ੍ਹ	-11.3624
▁ਮਚ੍ਚੁਨੋ	-11.3626
▁੨੩੬	-11.3629
ਿਨਾਪਿ	-11.3631
▁ਪਟਿਞ੍ਞ	-11.3631
ਨਯਨ	-11.3634
▁ਏਤ੍ਤਕ	-11.3635
▁ਭੇਰਿ	-11.3636
ੇਣਿਕ	-11.3637
▁ਮਞ੍ਞੇਯ੍ਯ	-11.3639
▁ਉਪ੍ਪਾਦਿਤ	-11.3639
▁ਸਬ੍ਬਧਿ	-11.3644
▁ਉਪਚਯੋ	-11.3647
ਬਿਨ੍ਦੁ	-11.3648
ਪਟਿਕ੍ਖੇਪ	-11.3649
ਮਣ੍ਡਿਤ	-11.3649
ਾਦਿਯ	-11.365
▁ਕੁਲਾ	-11.3651
ਹੇਤੁਦੁਕਂ	-11.3653
ਦਿਸ੍ਸ	-11.3653
ਸੇਸੁ	-11.3655
ਚਸਾ	-11.3655
▁ਰੁਕ੍ਖਮੂਲ	-11.3656
▁੨੧੦	-11.3658
ਪਾਕਾਰ	-11.3658
▁ਪਂਸੁਕੂਲਿਕ	-11.3659
▁ਅਸਕ੍ਕੁਣੇਯ੍ਯ	-11.366
▁ਜਿਤ	-11.366
▁ਸਮ੍ਪਯੁਤ੍ਤਸ੍ਸ	-11.3661
ੇਨੇਯ੍ਯ	-11.3663
ਪ੍ਪਕਰਣ	-11.3664
▁੨੩੪	-11.3664
▁ਉਪਾਹਨ	-11.3667
▁ਆਦਰ	-11.3667
▁ਕਿਲਿਟ੍ਠ	-11.3668
ਸੋਤਾਪਤ੍ਤਿਫਲਾਦੀਨਿ	-11.3669
ਚਿਤ	-11.367
▁ਨੋਉਪਾਦਾਨ	-11.3673
▁ਦੇਨ੍ਤੋ	-11.3673
ਮਯਿ	-11.3675
▁ਨਪ੍ਪਜਹਨ੍ਤਿ	-11.3677
▁ਅਗ੍ਗਹੇਸਿ	-11.3677
▁ਪਾਦਮੂਲੇ	-11.3678
▁ਅਪ੍ਪੀਤਿਕ	-11.3679
▁ਪੁਞ੍ਞਕਮ੍ਮੇਨ	-11.3681
▁ਨਿਰਨ੍ਤਰ	-11.3685
▁ਪਹਾਰਂ	-11.3686
ਤੁਮ	-11.3686
ਲਾਭੋ	-11.3686
ਮਾਪ	-11.3687
▁ਕਿਂਕਾਰਣਾ	-11.369
ਜ੍ਜਨਾ	-11.3691
ਸਮੁਟ੍ਠਾਨੋ	-11.3692
▁ਦੁਗ੍ਗਨ੍ਧ	-11.3693
▁ਨਿਸ੍ਸਰਣਞ੍ਚ	-11.3697
▁ਦੀਪੇਨ੍ਤਿ	-11.3697
▁੨੩੭	-11.3698
ਿਧੁਰ	-11.3699
▁ਯੋਗਿਨੋ	-11.3699
▁ਸਮਿਦ੍ਧ	-11.3703
▁ਦਾਤਬ੍ਬਾ	-11.3703
ਤ੍ਤਬ੍ਬਮੇ	-11.3703
ਮਤ੍ਤਿਕਾ	-11.3704
ਪਰਿਗ੍ਗਹੋ	-11.3704
ਿਲਪ	-11.3708
▁ਅਨੋਤ੍ਤਪ੍ਪਂ	-11.3709
ਸਿਤਬ੍ਬਂ	-11.3712
▁੨੦੩	-11.3713
ਕੁਸਲਤਾ	-11.3713
▁੧੯੭	-11.3713
▁ਪਞ੍ਚਦਸ	-11.3716
ਅਗ੍ਗ	-11.3716
▁ਰਮ੍ਮੇ	-11.3717
▁ਆਭਤਂ	-11.3718
▁ਪਚ੍ਚੇਕਸਮ੍ਬੁਦ੍ਧੋ	-11.3718
▁ਖੁਰ	-11.3719
▁ਪੋਕ੍ਖਰ	-11.3719
▁ਮਹਿਦ੍ਧਿਕੋ	-11.3719
▁ਉਪਸਨ੍ਤ	-11.3722
▁ਉਪ੍ਪਜ੍ਜ	-11.3722
ਘਰਂ	-11.3724
▁ਪਰਿਮਣ੍ਡਲ	-11.3724
▁੨੦੮	-11.3724
▁ਅਪਦਾਨੇ	-11.3725
ੁਟ੍ਠਾ	-11.373
ਗਾਮਂ	-11.373
▁ਮੋਚ	-11.3731
▁ਧਾਰੇਨ੍ਤਿ	-11.3732
▁ਖਾਦਿਤ੍	-11.3732
▁ਲੀਨ	-11.3732
▁੨੧੯	-11.3735
ਹਾਨਿ	-11.3735
▁ਅਪਰਿਮਾਣ	-11.3735
ਤ੍ਤਿਕਾ	-11.3735
▁ਮਞ੍ਚਪੀਠ	-11.3735
ਤ੍ਤੋਤਿ	-11.3735
▁੨੪੩	-11.3736
▁ਪਞ੍ਚਸਤਾ	-11.3736
▁ਅਹਿਤ	-11.3737
▁ਮਹੀਪਤਿ	-11.3737
▁ਅਬ੍ਭੁਗ੍ਗ	-11.3738
▁ਉਭਿਨ੍ਨਮ੍ਪਿ	-11.3739
ੁਪਗ	-11.374
▁ਨਾਰਿਯੋ	-11.3743
▁ਆਲੋਪ	-11.3743
▁ਕੁਸਲਞ੍ਚ	-11.3743
ਸਾਟਕ	-11.3745
▁ਮਨ੍ਤਾ	-11.3746
▁ਦੀਪਿਤਾ	-11.3749
ਕਿਣ੍ਣ	-11.375
▁ਪਰਿਗ੍ਗਹੇ	-11.3751
▁ਸੁਚਰਿਤ	-11.3751
▁ਕਾਰਣਨ੍ਤਿ	-11.3752
ਿਯੋਗ	-11.3753
ਚਿਣ੍ਣ	-11.3753
▁ਮਜ੍ਝਿਮਂ	-11.3761
▁ਅਦ੍ਦ	-11.3761
▁ਥਨ	-11.3763
▁ਪਣਿਧੀਤਿ	-11.3763
▁ਪਾਪਿਕਾ	-11.3763
ਭਕ੍ਖ	-11.3764
▁ਉਸ੍ਸੁਕ੍ਕਂ	-11.3764
▁ਸਤ੍ਤਮਾ	-11.3765
▁ਸਂਯੁਤ੍ਤ	-11.3768
▁ਅਕਿਰਿਯ	-11.3769
ਅਨਿਦਸ੍ਸਨਅਪ੍ਪਟਿਘ	-11.3769
ਟ੍ਠਕਥਾਯ	-11.377
▁ਨਿਰੋਧਸਚ੍ਚਂ	-11.3774
▁ਪਟਿਕ੍ਖੇਪੋ	-11.3775
▁ਕਸਿ	-11.3776
▁ਭਯਾ	-11.3777
▁ਸਲ਼ਾਯਤਨਂ	-11.3778
ਾਸਿਂ	-11.3778
▁ਪਰਿਬ੍ਬਾਜਕ	-11.3779
▁ਉਪਸਨ੍ਤੋ	-11.3781
ਿਕੋਤਿ	-11.3782
ਿਨ੍ਦ੍ਰਿਯਾਨਿ	-11.3784
ੁਨ੍ਤਿ	-11.3788
▁੧੯੯	-11.3789
ਾਲ਼ਂ	-11.3789
▁ਜੇਟ੍ਠਕ	-11.379
▁੨੩੩	-11.3794
▁ਕੁਣਪ	-11.3794
▁ਅਨੇਕਾਨਿ	-11.3794
▁ਅਯੋਨਿਸੋਮਨਸਿਕਾਰ	-11.3795
▁ਸਮਨ੍ਤ	-11.3795
▁ਪੀਤਿਸਮ੍ਬੋਜ੍ਝਙ੍ਗ	-11.3796
▁ਸਬ੍ਬਸਙ੍ਖਾਰ	-11.3798
▁ਛਾਦ	-11.3799
▁ਧਮ੍ਮਸਭਾਯਂ	-11.38
ਸਜ੍ਜ	-11.3801
ਤ੍ਤੇਸੁ	-11.3802
▁ਪਰਿਨਿਬ੍ਬੁਤ	-11.3802
ਿਸਮਂ	-11.3803
ਾਰਕ	-11.3803
▁ਹਿਤਸੁਖ	-11.3804
▁ਏਤਾਯ	-11.3805
▁ਕੀਦਿਸਂ	-11.3806
▁ਅਨ੍ਤਰਾਯੋ	-11.3806
ਤੇਯ੍ਯ	-11.3806
ਸੂਰ	-11.3809
▁ਸਮੂਹਤਾ	-11.381
ਿਰਦ੍ਧ	-11.3812
ੇਹਾਸਂ	-11.3812
▁ਅਞ੍ਞਤਿਤ੍ਥਿਯਾ	-11.3813
▁ਸਬ੍ਬਸਤ੍ਤਾਨਂ	-11.3813
ਚ੍ਚੋ	-11.3814
▁ਯਥਾਪਿ	-11.3815
ਕਮ੍ਮਨ੍ਤਿ	-11.3815
▁ਕਚ੍ਛ	-11.3815
▁ਦਟ੍ਠੁਂ	-11.3818
ੇਣਂ	-11.382
ਸਮ੍ਫਸ੍ਸੋ	-11.3823
▁ਪਬ੍ਬਜਿਤਸ੍ਸ	-11.3827
ਸ੍ਸੂਪਨਾਯਿਕ	-11.3828
ਚੇਤ	-11.3831
▁ਕੁਟ੍ਠ	-11.3832
▁ਹਨ੍ਤਿ	-11.3837
▁ਸਮਣਬ੍ਰਾਹ੍ਮਣਾਨਂ	-11.384
▁ਕੁਟਿਂ	-11.3841
▁ਦਜ੍ਜਾ	-11.3841
▁ਪਿਹਿਤ	-11.3841
ਾਯਸ੍ਮਾ	-11.3842
▁ਸਾਰਿਪੁਤ੍ਤਤ੍ਥੇਰ	-11.3844
ਟ੍ਟਿਤ	-11.3845
ੇਸ੍ਸਨ੍ਤਰੋ	-11.3845
ਏਤ੍ਤਕਮੇ	-11.3845
▁ਪਤ੍ਥੇ	-11.3847
ਦੇਸੋ	-11.3849
ਪਚ	-11.3851
▁ਸਿਯਨ੍ਤਿ	-11.3854
ਮਾਨੋਤਿ	-11.3857
▁ਨਿਸ੍ਸਕ੍ਕ	-11.3857
▁ਅਰੋਗੋ	-11.3857
ਣ੍ਦ	-11.3858
ਚੀਦੁਚ੍ਚਰਿਤ	-11.386
▁ਉਪਸਮ੍ਪਾਦੇ	-11.3863
▁ਅਨੂਨ	-11.3868
▁ਞੇਯ੍ਯ	-11.3869
▁ਸਾਮਞ੍ਞਤੋ	-11.387
▁ਗਣੋ	-11.3871
ੀਕਸਿਣ	-11.3872
▁ਕਾਰੁਞ੍ਞ	-11.3872
▁ਪਰਿਯੁਟ੍ਠਾਨ	-11.3873
▁ਪਤਿਟ੍ਠਪੇ	-11.3874
▁ਸਪ੍ਪਟਿਘ	-11.3874
▁ਅਟ੍ਠਾਨ	-11.3877
ਏਤ੍ਤਕ	-11.3878
▁ਧਮ੍ਮਰਾਜਾ	-11.3882
ਾਭਿਸਙ੍ਖਾਰ	-11.3883
ਿਸਯਤ੍ਤਾ	-11.3886
▁੨੦੪	-11.3888
ਧਮ੍ਮੇਨ	-11.3888
▁ਚਿਨ੍ਤਾ	-11.3888
▁ਗਮਿਸ੍ਸ	-11.3889
ਸਨ੍ਨਿ	-11.3891
▁ਪਠਮਮਗ੍ਗ	-11.3893
▁ਕਾਮਧਾਤੁ	-11.3893
▁ਸੀਹਨਾਦ	-11.3896
▁ਕ੍ਰਿਯਤ੍ਥਾ	-11.3896
ਯੋਜਨਂ	-11.39
▁ਸਮ੍ਪਟਿਚ੍ਛਨ	-11.3901
▁ਅਪਰਿਪੁਣ੍ਣ	-11.3901
ੇਕ੍ਖਣਞਾਣ	-11.3901
ਾਨੁਭ	-11.3902
ਿਕ੍ਖਿਤ੍ਤ	-11.3904
ਸਨ੍ਤਾਨਂ	-11.3904
ਿਰੋਚਤਿ	-11.3905
▁ਅਪਰਮ੍ਪਿ	-11.3907
▁ਦਾਸੋ	-11.3908
▁ਗਨ੍ਤੁ	-11.3908
ਪਾਮੋਕ੍ਖ	-11.3909
▁ਸਬ੍ਬਮੇ	-11.3911
ਿਦ੍ਧਂਸਨ	-11.3911
▁ਅਭਿਨਿਬ੍ਬਤ੍ਤ	-11.3911
ਦਨ੍ਤੀ	-11.3911
ਉਚ੍ਚ	-11.3913
▁ਅਧਿਮੋਕ੍ਖੋ	-11.3915
▁ਅਨ੍ਧਕਾਰੇ	-11.3915
ਿਕ੍ਖਤ੍ਤੁਂ	-11.3916
▁ਆਰਾਮਂ	-11.3916
▁ਗੁਨ੍ਨਂ	-11.3916
▁ਪਚ੍ਚਨੀਕਪੁਗ੍ਗਲੋ	-11.3917
▁ਮਤ੍ਥਕ	-11.3917
▁੨੩੦	-11.3918
▁ਸੁਤ੍ਤਾਨਿ	-11.3918
▁ਬ੍ਯਸਨਂ	-11.392
▁ਅਭਿਨ੍ਨ	-11.392
ਪਰਿਞ੍ਞਾ	-11.392
▁ਪਰਿਸਾਸੁ	-11.3921
▁ਅਤ੍ਤਹਿਤਾਯ	-11.3921
▁ਫਲਦਾਨ	-11.3922
ਤ੍ਤਨਾ	-11.3922
▁ਉਦਾਹਰਣ	-11.3923
▁ਨਨੋ	-11.3923
▁ਸਬ੍ਬਞ੍ਞੁਤਞ੍ਞਾਣਂ	-11.3924
ਦਬ੍ਬ	-11.3924
▁ਪਚ੍ਛਾਜਾਤੇ	-11.3925
▁ਨਿਦ੍ਦਾ	-11.3925
▁ਤਿਰਿਯ	-11.3925
▁ਅਤ੍ਤਾਤਿ	-11.3926
▁ਮਗ੍ਗਸਚ੍ਚਞ੍ਚ	-11.3927
▁ਪਾਦੇਸੁ	-11.3928
ਸਤ੍ਤਿ	-11.3929
▁ਉਪ੍ਪ	-11.3931
▁ਪੁਞ੍ਞੇਨ	-11.3932
ਤ੍ਥਪੇਤਿ	-11.3932
▁ਫੁਟ੍ਠਸ੍ਸ	-11.3933
▁ਮਨੋਮਯ	-11.3933
ਪਰਿਯੋਸਾਨਾ	-11.3934
▁ਸੇਨਾਸਨੇ	-11.3935
▁੨੦੧	-11.3936
▁ਮਾਤੁਕੁਚ੍ਛਿ	-11.3937
▁ਚੋਲ਼	-11.3938
▁੨੨੯	-11.3939
▁ਰਸੇ	-11.3944
▁ਭਰਿਯਾਯ	-11.3947
▁੨੧੪	-11.3949
ਾਤਿਕ੍ਕਨ੍ਤ	-11.3952
ਸਪ੍ਪਿ	-11.3952
ਾਤੁਰ	-11.3953
ਨਸਣ੍ਡੇ	-11.3957
▁ਤੂਰਿਯ	-11.3957
▁ਗਣ੍ਹਤੋ	-11.3957
▁ਭਿਕ੍ਖਾਚਾਰ	-11.3958
ੋਕਾਸ	-11.3959
▁੨੨੫	-11.3959
ਮਦੋ	-11.3963
▁ਨਿਕ੍ਖਮਤਿ	-11.3963
▁੨੧੨	-11.3965
ਪਿਤਾ	-11.3965
▁੨੨੪	-11.3966
▁ਪੀਠ	-11.3967
ਚਤ੍ਤਾਰਿਮਾਨਿ	-11.3967
ਪਾਤਿਮੋਕ੍ਖ	-11.3968
▁ਅਪ੍ਪਮਤ੍ਤਾ	-11.3969
▁ਯਤ੍ਤਕ	-11.397
▁ਅਹਿਤਾਯ	-11.3971
▁ਨੇਤ੍ਤ	-11.3973
ਿਕ੍ਕਿਣ	-11.3973
ਸੁਕ੍ਕ	-11.3974
ਪ੍ਪਧਾਨ	-11.3974
▁ਸਰੂਪੇਨ	-11.3975
▁੨੧੧	-11.3976
▁ਪਰਿਭੁਞ੍ਜਿਤਬ੍ਬ	-11.3976
▁ਦੇਸੇਤਬ੍ਬ	-11.3977
▁ਇਚ੍ਚ	-11.3979
ਿਂਸੂ	-11.3979
▁ਕਰਣੀਯੇਨ	-11.398
▁ਪਞ੍ਚਕਾਮਗੁਣ	-11.3981
▁ਓਸਧ	-11.3981
▁੨੧੭	-11.3983
▁ਇਤੀਤਿ	-11.3985
▁ਝਾਨਪਚ੍ਚਯ	-11.3986
▁ਅਯਮਾਯਸ੍ਮਾ	-11.3989
▁ਨਯਿਦਂ	-11.3991
▁ਲੇਣ	-11.3991
▁ਪਚਿਤ੍	-11.3993
ਿਞ੍ਞਾਤਬ੍ਬੋ	-11.3993
▁ਪਾਟ	-11.3995
ਜਨਪਦ	-11.3995
▁ਸਮ੍ਪਦਾ	-11.3996
ਾਲ਼ੇ	-11.3996
▁ਸਮ੍ਮਾਸਮ੍ਬੋਧਿਂ	-11.3998
ਚਿਤ੍ਤਾਨਂ	-11.3998
▁ਅਭਿਤ੍ਥ	-11.3999
▁ਚਤੁਰ	-11.4
ਨਿਦ੍ਦਿਟ੍ਠ	-11.4001
▁ਚੇਤਸਿਕਾ	-11.4003
▁ਕੋਟਿਸਤਸਹਸ੍ਸ	-11.4004
ਿਸਾਖੇ	-11.4004
▁ਪਟਿਨਿਸ੍ਸਜ੍ਜ	-11.4005
▁੨੦੨	-11.4006
ੁਤ੍ਤਿਨਾ	-11.4008
ਿਪਰਿਯਾਯੇਨ	-11.4009
▁੨੨੬	-11.4011
ਨੇਤਂ	-11.4015
▁ਨੋਨੀ	-11.4015
▁ਮਰਣੇਨ	-11.4016
ਲੋਕੁਤ੍ਤਰ	-11.4016
▁੨੩੨	-11.4018
ਤ੍ਥਮੇ	-11.4018
▁ਤੀ	-11.4019
▁ਏਤਿਸ੍ਸਾ	-11.4019
▁ਸੀਮਾਯ	-11.4021
▁ਉਗ੍ਗਹਿਤ	-11.4022
ਿਮਾਨਿ	-11.4022
ਗਂ	-11.4026
▁ਸੁਦਿਨ੍ਨ	-11.4028
▁ਪਪਞ੍ਚਸੂਦਨਿਯਾ	-11.4038
▁ਮਾਲਾਗਨ੍ਧ	-11.4039
▁ਬੁਦ੍ਧੋਤਿ	-11.4042
▁ਨੋਪਰਾਮਾਸ	-11.4045
ਯੋਗਾ	-11.4045
▁ਪੁਚ੍ਛਿਂਸੁ	-11.4046
▁ਭਾਸਿਸ੍ਸਾਮੀ	-11.4046
▁ਪਟਿਚ੍ਚਸਮੁਪ੍ਪਾਦੋ	-11.4048
ਾਦਾਧਿਕਰਣ	-11.405
ੁਟ੍ਠਾਨਸ੍ਸ	-11.4051
▁ਪਹਿਤਤ੍ਤੋ	-11.4053
▁ਦੀਘਾ	-11.4053
▁ਮੋਘ	-11.4054
▁ਫੋਟ੍ਠਬ੍ਬਾ	-11.4054
ਿਪਾਕਧਮ੍ਮਧਮ੍ਮਸ੍ਸ	-11.4056
▁ਪਤਿਤ੍	-11.4056
▁ਅਭਿਮੁਖ	-11.4057
▁ਉਪਪਜ੍ਜੇਯ੍ਯ	-11.4062
▁ਕਾਰੇ	-11.4062
ਪ੍ਪਚ੍ਚਯਾ	-11.4063
ਾਦੀਨਨ੍ਤਿ	-11.407
▁ਸੁਣਨ੍ਤਿ	-11.407
ਗੁਲ਼	-11.4071
ਅਤ੍ਥੋ	-11.4073
ਉਪ੍ਪਨ੍ਨ	-11.4073
▁ਥੁਤਿ	-11.4074
ਞ੍ਞਾਯ	-11.4075
ਲ਼ਞ੍ਜ	-11.4077
▁ਭਤ੍ਤੁ	-11.4078
▁ਉਪਟ੍ਠਾਕੋ	-11.4081
▁ਪਰਾਮਾਸੋ	-11.4083
▁ਸੀਹਸ੍ਸ	-11.4084
ਸਾਨਿ	-11.4085
ਿਪਸ੍ਸਿ	-11.4086
ਬ੍ਯਤ੍ਤ	-11.4089
▁ਹਞ੍ਞ	-11.409
▁ਕੋਟ੍ਠਾਸੋ	-11.409
▁ਚਾਲ	-11.409
▁ਪੇਕ੍ਖਮਾਨੋ	-11.4092
ਤੇਤਿ	-11.4094
ੇਠੇਤ੍	-11.4094
▁ਪਞ੍ਚਙ੍ਗਿਕ	-11.4094
ਝ	-11.4094
▁ਯਤ੍ਤਕਂ	-11.4095
▁ਪਰਿਭੁਤ੍ਤ	-11.4096
▁੨੩੫	-11.4096
▁ਕਮ੍ਮਾਰ	-11.4098
ਾਪਨਕ	-11.4099
ਰੂਪਾਯ	-11.4099
▁ਨਗ੍ਗ	-11.4099
▁ਨਪ੍ਪਜਹਤੀਤਿ	-11.4099
▁ਪਾਤੁਰਹੋਸਿ	-11.4099
▁੨੪੦	-11.41
▁ਜਾਤਿਜਰਾਮਰਣ	-11.41
▁ਆਨੇਞ੍ਜ	-11.41
ਰਿਕ	-11.4101
▁੨੨੨	-11.4106
ਾਪੇਸੁਂ	-11.4106
ਕੋਪਿ	-11.4109
▁ਮਿਤ	-11.411
ਪਟ੍ਠਾਨ	-11.4112
▁ਆਪੁਚ੍ਛਿਤ੍	-11.4113
ਿਭਜਨ	-11.4114
ਤਕਂ	-11.4118
ਟ੍ਠਿਕ	-11.4121
▁੨੨੩	-11.4124
ਚਨੀਯ	-11.4124
▁ਕੁਸਲਚਿਤ੍ਤ	-11.4126
ਪਥੋ	-11.4126
▁ਅਪੁਚ੍ਛਿ	-11.4127
ਮਾਨਾਯ	-11.4128
▁ਪਾਪਕੋ	-11.413
▁ਕਨਿਟ੍ਠ	-11.4132
▁੨੨੭	-11.4133
ਨਰ	-11.4133
ਾਸੇਸੁ	-11.4135
▁ਚਞ੍ਞੇ	-11.4137
▁ਮਹਤੀ	-11.4138
▁੨੨੧	-11.4139
▁ਪੁਨਪ੍ਪੁਨ	-11.4139
▁ਅਰਿਯਪੁਗ੍ਗਲ	-11.4141
ਬਾਹਿਰ	-11.4143
ਨੁਲੋਮਪਚ੍ਚਨੀਯਂ	-11.4144
ਿਪਾਕਧਮ੍ਮਧਮ੍ਮਾ	-11.4145
ੇਸਿਂ	-11.4146
▁ਨਿਸੀਦਿਤਬ੍ਬਂ	-11.4146
ਪਞ੍ਞਤ੍ਤ	-11.4147
ਕਿਲ	-11.4147
ਡ	-11.4147
ਸੇਨਾਪਿ	-11.415
▁ਸਮਾਸੇ	-11.4152
▁ਦਸਾਤਿ	-11.4155
ਕ੍ਖਤ੍ਤੁ	-11.4155
ਗਣ੍ਡ	-11.4157
▁੨੩੯	-11.4157
ੇਕਨਿਸ੍ਸਿਤਂ	-11.4157
ਤ੍ਤਬ੍ਬਤਂ	-11.416
ਿਰਤ੍ਤ	-11.4162
ਚਤੁਕ੍ਕਂ	-11.4162
ਲਬ੍ਭ	-11.4163
▁ਪੁਰਿਸਪੁਗ੍ਗਲੋ	-11.4164
ਮਤ੍ਥਿ	-11.4164
▁ਮਹਗ੍ਗਤੋ	-11.4165
ਨੇਕ	-11.4166
▁ਅਗ੍ਗਿਨਾ	-11.4167
▁ਇਮਾਸਂ	-11.4168
▁ਅਚ੍ਚਿ	-11.4168
▁ਸਤਿਸਮ੍ਪਜਞ੍ਞ	-11.4168
▁ਪਰਿਗ੍ਗਹੋ	-11.4169
ਕੂ	-11.417
▁ਗੋਤ੍ਰਭੁਸ੍ਸ	-11.4171
▁ਗਣਨਾ	-11.4172
▁ਸਰੀਰਸ੍ਸ	-11.4173
ਮੁਟ੍ਠ	-11.4174
▁ਕੁਦਾਸ੍ਸੁ	-11.4177
▁ਪਾਕਤਿਕ	-11.4177
ਮਾਦਯੋ	-11.418
▁ਪਾਸਾਦੋ	-11.4182
▁ਨਿਟ੍ਠਂ	-11.4182
▁ਭਿਨ੍ਨਾ	-11.4182
▁ਅਹੁਂ	-11.4183
▁ਸਮਿਦ੍ਧਿ	-11.4189
ਪਕਤ	-11.4189
▁ਧੁਰਨਿਕ੍ਖੇਪ	-11.4189
ਬਨ੍ਧੁ	-11.419
▁ਓਜ	-11.4191
▁ਸਞ੍ਜਾਨਾਤਿ	-11.4192
▁ਸਮ੍ਬੋਧਾਯ	-11.4193
੍ਯਂ	-11.4194
ਮਲਂ	-11.4197
▁ਨਯਾ	-11.4198
▁ਦਾਰਕਾ	-11.42
ਿਨਯਕਮ੍ਮ	-11.42
ੇਚ	-11.4201
▁ਮਹਨ੍ਤੇ	-11.4203
▁ਪਟਿਪਤ੍ਤਿਂ	-11.4203
▁ਪਣਾਮੇ	-11.4203
ਪਿਣ੍ਡਪਾਤ	-11.4204
▁ਸੀਤਂ	-11.4205
▁ਮਿਗੋ	-11.4207
▁ਸਬ੍ਬਦੁਕ੍ਖ	-11.4208
▁ਧਿਤਿ	-11.4209
▁ਅਸਾਰ	-11.421
ਪਚ੍ਚਨੀਯਾਨੁਲੋਮਂ	-11.4211
ਰਣਞ੍ਚ	-11.4211
ਸਮੁਦਯਂ	-11.4212
▁ਕਾਰਣਭੂਤ	-11.4212
▁ਪਰਾ	-11.4214
▁ਦਸਾਹ	-11.4214
ਿਹਰਥ	-11.4216
▁ਜਾਨਾਹਿ	-11.4218
▁ਅਨ੍ਤਰਂ	-11.4218
▁ਸਦਿਸਂ	-11.4219
▁ਅਨ੍ਨਪਾਨ	-11.4219
ਨਸੀਲੋ	-11.422
ੇਸਿਨੋ	-11.422
ਗਞ੍ਛਿ	-11.4221
ਪਰਿਸਂ	-11.4221
ਿਯਮਾਨਂ	-11.4221
▁ਨ੍ਹਾਨ	-11.4224
ਯਨ੍ਤੀ	-11.4224
▁ਪਰਿਕ੍ਖਾਰੋ	-11.4224
ਿਮੁਚ੍ਚ	-11.4224
ਮਤ੍ਤਨ੍ਤਿ	-11.4225
▁ਉਪਾਗਮਿ	-11.4226
▁ਮੁਦ੍ਧ	-11.4226
ਸਾਸਨਂ	-11.4227
▁ਕੁਸਲਾਬ੍ਯਾਕਤ	-11.4228
▁ਪਬ੍ਬਜਿਸ੍ਸਾਮਿ	-11.4231
▁ਬਹੁਕਾਰ	-11.4232
▁ਅਗ੍ਗਮਗ੍ਗਸਮਙ੍ਗੀ	-11.4232
▁ਦੁਬ੍ਭ	-11.4234
▁ਚਿਤ੍ਤਚੇਤਸਿਕਾ	-11.4236
ਿਸਾਖਾ	-11.4236
▁ਚਾਹਂ	-11.4238
▁ਰਾਮ	-11.4239
ਬਹੂ	-11.4242
▁ਸਿਨ੍ਧ	-11.4243
▁ਅਟ੍ਠਕ	-11.4245
▁ਪੁਟ	-11.4247
▁ਤਾਦਿ	-11.4249
ਅਲ	-11.4252
▁ਸਤਿਪਟ੍ਠਾਨੇ	-11.4253
ਭਾਣਕ	-11.4258
ਜਿਗੁਚ੍ਛ	-11.4261
ਸਮੁਗ੍ਘਾਤ	-11.4261
▁ਦੁਲ੍ਲਭੋ	-11.4261
ਘੋ	-11.4261
▁ਮਹਗ੍ਗਤਂ	-11.4261
▁ਖੀਯਤਿ	-11.4263
▁ਚਾਰੁ	-11.4263
▁ਸਮ੍ਬੋਧਿ	-11.4263
ਕਮ੍ਪ	-11.4264
▁ਮਹਾਸਮੁਦ੍ਦੋ	-11.4264
ਕੂਟਂ	-11.4264
ਜ੍ਜੇਯ੍ਯ	-11.4264
ਿਦ੍ਧਂਸੇ	-11.4265
▁ਉਟ੍ਠਹ	-11.4265
▁ਰੁਚਿ	-11.4269
▁ਬ੍ਯਤ੍ਤੇਨ	-11.427
▁ਕਾਮਗੁਣ	-11.427
ਕਮ੍ਪਨ	-11.427
ਭਿਸਿ	-11.4271
▁ਲਦ੍ਧਨਾਮ	-11.4274
ਮੁਤ੍ਤਾ	-11.4275
ਿਮਾਨੇ	-11.4275
ਗਨ੍ਤੁ	-11.4275
▁ਹਤੋ	-11.4276
ਧਮ੍ਮੇਹਿ	-11.428
▁ਅਪ੍ਪਸਦ੍ਦ	-11.428
ਭਿਨਿ	-11.428
▁ਖਣਿਕ	-11.4281
ਪਾਚਿਤ੍ਤਿਯ	-11.4282
ਿਤਕ੍ਕਞ੍ਚ	-11.4282
▁ਅਨਾਥ	-11.4283
▁ਮਹਾਥੇਰ	-11.4284
▁ਮਾਤੁਗਾਮੇਨ	-11.4284
ੂਪਸਮ੍ਮਤਿ	-11.4286
▁ਪਬ੍ਬਾਜੇਤਬ੍ਬੋ	-11.4287
ਪੁਬ੍ਬਕ	-11.4289
ਪ੍ਪਹਾਨੇਨ	-11.4289
▁ਮੋਕ੍ਖੋ	-11.4289
▁ਗਬ੍ਭਂ	-11.429
ੁਤ੍ਤਨਯਤ੍ਤਾ	-11.4291
ਨਿਪਾਤੋ	-11.4292
▁ਨਦਾਦਿ	-11.4292
▁ਰਥੇਸਭ	-11.4292
ਾਰਸ੍ਸ	-11.4293
▁ਪਠਮਪਾਰਾਜਿਕ	-11.4293
▁ਆਦਾਨ	-11.4294
▁ਯਤਿ	-11.4295
▁ਕਥਨ	-11.4295
▁ਸਉਤ੍ਤਰ	-11.4296
▁ਦਮ੍ਮਿ	-11.4297
ਾਹੁ	-11.4297
▁ਪੇਮਂ	-11.4297
ਗਮਨੇਨ	-11.4298
▁ਸਮੁਦਯਸਚ੍ਚਞ੍ਚ	-11.4298
ੁਤ੍ਤਪ੍ਪਕਾਰੇਨ	-11.4299
▁ਸਾਨੁਸਯੋਤਿ	-11.4301
▁ਅਚੇਤਸਿਕ	-11.4302
▁ਸਚ੍ਚਾਨਂ	-11.4304
ਉਪਾਦਾਨ	-11.4305
ਪਤ੍ਤੀ	-11.4306
▁ਮੋਹਾ	-11.4308
▁ਮਞ੍ਞਨ੍ਤਿ	-11.4309
ਾਰੇਤਬ੍ਬਂ	-11.4309
▁ਮਗ੍ਗਹੇਤੁਕ	-11.431
ਦਹਿਤ੍	-11.4311
▁ਰੋਹਣ	-11.4312
ੁਟ੍ਠਿਤ	-11.4313
▁ਪਬ੍ਬਜ੍ਜਾਯ	-11.4313
▁ਨਿਸਜ੍ਜਾਯ	-11.4316
ਖੀਰ	-11.4316
ਗੁਣੇਨ	-11.4317
▁ਮਨੁਸ੍ਸਭੂਤਾ	-11.4318
ਯਾਮਿ	-11.4319
▁ਮਰਣਸ੍ਸ	-11.432
▁ਸਮਾਪਤ੍ਤਿਯਾ	-11.4321
▁੨੩੧	-11.4322
▁ਸੁਤ੍ਤੇਸੁ	-11.4325
ਹਤੀਤਿ	-11.4329
ਮਕ	-11.433
▁ਅਨਭਿਰਤਿ	-11.4331
▁ਦਿਟ੍ਠਿਗਤਾਨਂ	-11.4331
ਪਾਦੋ	-11.4331
▁ਪਣਿਧਿ	-11.4333
▁ਅਥੋਪਿ	-11.4334
▁ਧਮ੍ਮਿਕਂ	-11.4336
▁ਪਸ੍ਸਸਿ	-11.4337
▁ਪਚ੍ਚਨ੍ਤ	-11.4337
ਰੂਲ਼੍ਹ	-11.4339
ਇਤ੍ਥਿ	-11.4339
▁ਮਹਾਕਸ੍ਸਪ	-11.4339
▁ਕਾਕੋ	-11.434
▁ਪਚ੍ਛਿਮਸ੍ਸ	-11.434
▁ਪਦੇਸਂ	-11.4343
▁ਪਤ੍ਥਨਾਯ	-11.4343
ਣ੍ਣੇਹਿ	-11.4343
▁ਕੁਲਪੁਤ੍ਤਾ	-11.4344
ਤ੍ਤਬ੍ਬਨ੍ਤਿ	-11.4345
▁ਸਬ੍ਬਤੋ	-11.4345
▁ਦੇਯ੍ਯਧਮ੍ਮ	-11.4345
▁ਯੁਞ੍ਜ	-11.4345
▁ਝਾਨਙ੍ਗ	-11.4345
ਨਾਮਰੂਪ	-11.4347
▁ਮੁਦੁਕ	-11.4348
▁ਸਨ੍ਤਿਟ੍ਠਤਿ	-11.4349
▁ਅਯਞ੍ਹੇਤ੍ਥ	-11.4349
▁ਫਲੇ	-11.4349
▁ਪੀਤਿਸਹਗਤੋ	-11.4351
ੀਸਤਿਮੋ	-11.4353
▁ਖਨ੍ਤਿਂ	-11.4356
▁ਪਾਣਿਨੋ	-11.4356
▁ਅਰਹਤੀਤਿ	-11.4357
▁ਅਤ੍ਥਙ੍ਗਮਾ	-11.4359
▁ਗਣਂ	-11.436
ਿਕ੍ਕ	-11.436
▁ਸਿਥਿਲ	-11.436
ਅਚ੍ਛਰਿਯਂ	-11.4362
ਿਸੋਧਨ	-11.4363
ਹਾਰਸਮ੍ਪਾਤ	-11.4364
ਿਪ੍ਪਟਿਸਾਰੋ	-11.4364
▁ਦੁਬ੍ਭਿਕ੍ਖ	-11.4366
▁ਪਕਾਸੇਸਿ	-11.4366
ਸ੍ਮ	-11.4367
ਿਯਾਕਾਸਿ	-11.4368
▁ਪਕ੍ਖਨ੍ਦ	-11.4369
ਜਾਯ	-11.4369
▁ਦਾਸੀ	-11.4371
▁ਇਨ੍ਦ੍ਰਿਯਨ੍ਤਿ	-11.4371
ਿਤ੍ਥੀ	-11.4372
▁ਨਗਰਸ੍ਸ	-11.4372
‘‘	-11.4373
ਜਾਤਿਕ	-11.4373
▁ਦੁਕ੍ਖਸਚ੍ਚਞ੍ਚ	-11.4373
▁ਸੂਰਿਯੇ	-11.4373
ਿਨਯਾ	-11.4374
▁ਫੋਟ੍ਠਬ੍ਬਂ	-11.4374
▁ਪੁਚ੍ਛਿਤਾ	-11.438
▁ਧਮ੍ਮਾਯਤਨ	-11.438
▁ਗਹਟ੍ਠ	-11.4382
▁ਸਾਰਤ੍ਤੋ	-11.4384
▁ਆਣਾਪੇ	-11.4386
ਤਾਹਂ	-11.4386
▁ਗਮਿਸ੍ਸਤਿ	-11.4387
▁ਸਬ੍ਬਧਮ੍ਮ	-11.4389
▁ਪੁਰੇਜਾਤ	-11.4391
ਪਰਿਬ੍ਬਾਜਕ	-11.4392
▁ਮਾਸੋ	-11.4392
▁ਭਿਸ	-11.4393
ਿਨਟ੍ਠ	-11.4394
▁ਲਬ੍ਭ	-11.4394
ਲਕ੍ਖ	-11.4394
▁ਪਠਮਮੇ	-11.4396
▁ਉਪਾਸਕਂ	-11.4396
▁ਲਜ੍ਜਿ	-11.4397
▁ਕਿਤ੍ਤਾ	-11.4397
▁ਉਕ੍ਕਣ੍ਠ	-11.4399
ਪਾਦੇ	-11.44
ਯੋਗ੍ਗ	-11.44
ਮਰਿਯਾਦ	-11.4404
ਸਙ੍ਖਾਤਾਨਂ	-11.4404
▁ਅਗ੍ਗਟ੍ਠਾਨ	-11.4407
▁ਨਿਯਾਮ	-11.4411
▁ਜਾਨਾਪੇ	-11.4411
ਯਮਾਨ	-11.4411
▁ਪਾਦੋ	-11.4412
ਧਮ	-11.4413
▁ਕਥਨ੍ਤਿ	-11.4415
ਨੁਦ	-11.4416
▁ਰਮ੍ਮ	-11.4416
▁ਤਥਾਗਤਪ੍ਪ	-11.4417
▁ਅਲਭਿਤ੍	-11.4418
▁ਅਬ੍ਭੁਤ	-11.442
ਚਲ	-11.442
ਿਞ੍ਞਾਤਬ੍ਬ	-11.4421
▁ਗਣ੍ਹਿਤੁਂ	-11.4422
▁ਅਨ੍ਤਲਿਕ੍ਖੇ	-11.4422
ੇਸਨ੍ਤੋ	-11.4423
ਪਭੇਦ	-11.4427
▁ਹਰਨ੍ਤਿ	-11.4427
▁ਨਾਨਾਕਰਣਂ	-11.4429
ਪਰਿਹਾਰ	-11.443
▁ਨਿਬ੍ਬੁਤ	-11.443
ਨ੍ਤੂਤਿ	-11.4432
▁ਰੂਪੂਪਪਤ੍ਤਿਯ	-11.4433
▁ਸਸ੍ਸਤਦਿਟ੍ਠਿ	-11.4433
ਚਾਰੋ	-11.4433
ਹੇਤੁਤੋ	-11.4435
▁ਅਨਾਗਤਾਰਮ੍ਮਣ	-11.4435
▁ਸਚ੍ਛਿਕਿਰਿਯਾ	-11.4436
ਮਸਿਕ੍ਖਾਪਦਂ	-11.444
▁ਸਦਿਸਾ	-11.4441
▁ਮਲਂ	-11.4441
▁ਏਸਨਾ	-11.4441
ਲੋਲ	-11.4442
ਏਸੋ	-11.4442
ਯਞ੍ਹਿ	-11.4443
ੇਕਂ	-11.4445
▁ਕਲਿ	-11.4447
▁ਉਪਸਂਹਰ	-11.4447
▁ਤੁਲਾ	-11.4447
▁ਸਂਸਯੋ	-11.4448
ਭਾਜਨਂ	-11.4451
▁ਉਣ੍ਹਂ	-11.4452
▁ਦੁਗ੍ਗ	-11.4452
▁ਹੋਤੂਤਿ	-11.4453
▁ਨਾਰਦ	-11.4453
ਤਣ੍ਡੁਲ	-11.4453
▁ਸੇਤੁ	-11.4456
੪੦	-11.4459
▁ਅਪ੍ਪਤ੍	-11.446
▁ਸਙ੍ਖਤਂ	-11.4464
ਇਤਿਪਿ	-11.4465
▁ਨਿਕਾਯ	-11.4469
▁ਪਰਿਯੋਸਾਨੇ	-11.447
ਧਿਗਤ	-11.4472
▁ਏਲ਼ਕ	-11.4475
▁ਨਪ੍ਪਜਾਨਨ੍ਤਿ	-11.4475
▁ਆਕਾਸਧਾਤੁ	-11.4476
▁ਪਸਨ੍ਨਮਾਨਸੋ	-11.4476
ਪਰਿਯਾਪਨ੍ਨਂ	-11.4476
▁ਜਾਨਿਤੁਂ	-11.4481
ਪਰਿਗ੍ਗਹਿਤ	-11.4482
▁ਉਪਾਹਨਾ	-11.4482
ਯਨ੍ਤ	-11.4485
ਤ੍ਥਰਣ	-11.4485
ਕਿਤ੍ਤਨ	-11.4485
ਿਸ੍ਸਟ੍ਠਿਯਾ	-11.4487
ਿਨਿਚ੍ਛਿਨ	-11.4488
▁੨੪੨	-11.4489
▁ਪਦਾਲ	-11.449
▁ਸੁਸਂ	-11.4491
ਬੋਧਨ	-11.4491
ਰੋਪੇਤ੍	-11.4492
ਿਹਞ੍ਞ	-11.4493
▁ਪਜਹਨ੍ਤੋ	-11.4493
▁ਯਸ੍ਸਾਯਸ੍ਮ	-11.4493
▁ਪਕਾਸਨ	-11.4493
ਸ੍ਸੁਤ	-11.4493
ਹਾਯ	-11.4494
▁ਪਿਣ੍ਡਪਾਤੋ	-11.4495
▁ਦਿਟ੍ਠੇਨ	-11.4495
▁ਪਟਿਭਾਨਪਟਿਸਮ੍ਭਿਦ	-11.4495
▁ਤਸ੍ਮਿਞ੍ਚ	-11.4496
ਦਸ੍ਸਿ	-11.4496
ਨਿਰ	-11.4496
ਤਾਦੀਹਿ	-11.4499
ਨਿਸ੍ਸਿਤੋ	-11.45
▁ਸਮਾਧਿਨਾ	-11.4504
▁ਸਮੁਚ੍ਛਿਨ੍ਦ	-11.4504
▁ਜਿਨਂ	-11.4505
▁ਸਣ੍ਠਾਤਿ	-11.4507
ਗਣਨ	-11.4509
▁ਬ੍ਰਹਾ	-11.451
ਅਞ੍ਞਮਞ੍ਞਪਚ੍ਚਯੇਨ	-11.4515
▁ਕਥਿਨੁਦ੍ਧਾਰੋ	-11.4517
▁ਲਾਭਸਕ੍ਕਾਰਸਿਲੋਕ	-11.4522
▁ਤੂਲ	-11.4523
▁ਇਸ੍ਸਰਿਯਂ	-11.4524
▁ਨਾਗਰਾਜ	-11.4525
ਪਣ	-11.4526
ਰਿਤਂ	-11.4527
▁ਅਭਿਰਮ	-11.4529
▁ਤਦਹੁ	-11.4529
ਿਰਹਿਤਂ	-11.453
▁ਮਚ੍ਛਰਿਯਂ	-11.453
▁ਅਨੁਸ੍ਸਤਿ	-11.453
ਸਦ੍ਦਤੋ	-11.4531
▁ਅਨੁਪ੍ਪਤ੍ਤਾ	-11.4531
▁ਕਪਣ	-11.4531
ਣ੍ਣਾਦਿ	-11.4531
ਮਪ੍ਪ	-11.4533
ੁਦ੍ਦ	-11.4533
ਮੇਯ੍ਯ	-11.4534
▁ਸਦ੍ਦਾਯਤਨਂ	-11.4536
▁ਸੁਦ੍ਧੋ	-11.4536
▁ਉਕ੍ਕਾ	-11.4536
▁ਏਕਧਮ੍ਮ	-11.4537
ਤ੍ਤਨੋ	-11.454
ਚਨਮਬ੍ਰ	-11.4541
▁ਮਾਨਤ੍ਤ	-11.4541
▁ਕਿਤ	-11.4542
▁ਪਰਿਤ੍ਤਾ	-11.4542
▁ਆਰੋਚੇਤਿ	-11.4543
ਅਨਨ੍ਤਰ	-11.4543
ਾਨੁਬਨ੍ਧ	-11.4544
▁ਇਤਰਥਾ	-11.4545
ਨਿਸਿਨ੍ਨ	-11.4546
ਘੋਸੋ	-11.4548
▁ਛੇਕੋ	-11.4549
▁ਪਰਲੋਕੇ	-11.455
▁ਓਮਸ	-11.4551
ਲਤਾ	-11.4551
ਸਿਕਂ	-11.4554
ਸ੍ਸਿਕ	-11.4555
ਸਮਞ੍ਞਾ	-11.4557
ਸਮਤ੍ਥਤਾ	-11.4557
ਤਰੇ	-11.4558
▁ਖਮਾਪੇ	-11.4561
ਸਸ੍ਸਤ	-11.4562
ਨ੍ਤਰੇਨ	-11.4564
▁ਛਨ੍ਨੋ	-11.4565
▁੨੪੧	-11.4565
ੇਣੀ	-11.4566
▁ਕਰੋਨ੍ਤੇ	-11.4567
▁ਤੇਯੇ	-11.4567
▁ਪਟਿਬਲੇਨ	-11.457
ਮਤ੍ਤੇਨੇ	-11.457
▁ਥੇਯ੍ਯਸਂ	-11.4571
▁ਕਂਸ	-11.4571
ਕਟ	-11.4572
▁ਫੁਟ	-11.4572
▁ਸਮਾਪਜ੍ਜ	-11.4572
ਡਿ	-11.4573
▁ਸਬ੍ਬਕਾਮ	-11.4574
▁ਓਭਾਸੋ	-11.4575
▁ਦੁਪ੍ਪਞ੍ਞੋ	-11.4575
ਲ਼ਾ	-11.4577
ਪਤਿਤ	-11.4578
ਨਕ੍ਖਤ੍ਤ	-11.4579
▁ਜਪ੍ਪ	-11.4582
ਤ੍ਤਮ	-11.4582
ਕ੍ਰਿਯ	-11.4583
▁ਪਰਿਨਿਬ੍ਬਾਯਿ	-11.4587
ਿਸ੍ਸਰ	-11.4588
ਸਾਧ	-11.4588
▁ਉਤ੍ਤ	-11.459
▁ਉਟ੍ਠਾਪੇ	-11.4593
▁ਰੂਪਾਰਮ੍ਮਣਂ	-11.4593
▁ਕਦ੍ਦਮ	-11.4594
▁ਦਲਿਦ੍ਦ	-11.4594
ਣ੍ਣਤੋ	-11.4595
ਮਨੁਸਾਸ	-11.4596
▁ਸਿਸ੍ਸੋ	-11.4597
ਯੁਗਂ	-11.4599
ਬ੍ਯਾਧਿ	-11.46
▁ਸਰਂ	-11.4602
▁ਪਰਮ੍ਮੁਖਾ	-11.4602
ਤੁਕਾਮਤਾਯ	-11.4602
▁ਸਮੋਧਾਨੇ	-11.4603
▁ਸਮ੍ਪਜ੍ਜ	-11.4604
▁ਕੁਮਾਰਂ	-11.4604
ਿਭਤ੍ਤਿਸ੍ਸ	-11.4605
▁ਗਨ੍ਧਾਯਤਨਂ	-11.4605
ਸੇਕ੍ਖਨਾਸੇਕ੍ਖ	-11.4605
▁ਅਰੁਣੁਗ੍ਗਮਨ	-11.4605
▁ਛਿਨ੍ਦਤਿ	-11.4605
ਿਮੋਕ੍ਖਮੁਖ	-11.4606
ਸਕ੍ਕੋ	-11.4607
▁ਅਞ੍ਞਾਤਿਕਾਯ	-11.4608
▁ਮਨੋਕਮ੍ਮਂ	-11.4611
▁ਞਾ	-11.4613
ਫਲੋ	-11.4613
ਕਿਸ੍ਸ	-11.4615
▁ਪਿਤ੍ਤ	-11.4615
ਾਚਾਚਿਤ੍ਤਤੋ	-11.4617
▁ਭਾਗੋ	-11.4617
ੋਹਾਰਂ	-11.4619
▁ਅਪਰਿਯਾਪਨ੍ਨਾ	-11.4619
▁ਰਹ	-11.4619
ਚੁ	-11.4624
ਭਰਿਤ	-11.4624
▁ਮੇਤ੍ਤਚਿਤ੍ਤ	-11.4627
ਕ੍ਖੇਤ੍ਤ	-11.4627
▁ਪਰਾਮਾਸਸਮ੍ਪਯੁਤ੍ਤ	-11.4629
▁ਭੋਤਿ	-11.463
▁ਸੁਮਙ੍ਗਲ	-11.463
▁ਮੁਤ	-11.4636
▁ਕਮ੍ਮਜ	-11.4636
▁ਪਤਿਤਂ	-11.4636
ਗਣਨਾ	-11.4637
▁ਕਾਰਣੇ	-11.4639
ਦ੍ਧੋ	-11.4643
▁ਪੁਚ੍ਛਾਯ	-11.4647
ਨ੍ਦਤਿ	-11.4648
ਪਭਾ	-11.4648
▁ਭੋਜਨਾਨਿ	-11.4651
▁ਪਤਿਰੂਪ	-11.4652
ਨਾਨਂ	-11.4653
▁ਨਿਯ੍ਯਾਤਿ	-11.4653
▁ਅਧਮ੍ਮਕਮ੍ਮ	-11.4655
▁ਸਮਤ੍ਤਂ	-11.4656
▁ਚਤੁਬ੍ਬਿਧਾ	-11.4657
ਨੇਤ੍ਤਿ	-11.4658
▁ਅਭਿਸਮਯੋ	-11.466
▁ਕਙ੍ਖਂ	-11.4661
▁ਪਟਿਸਨ੍ਥਾਰ	-11.4663
ਧੂ	-11.4663
ਥੁ	-11.4664
ਤ੍ਤੇਸਿ	-11.4666
▁ਅਗ੍ਗੇ	-11.4667
▁ਕਾਯਚਿਤ੍ਤ	-11.4668
ਨੀਯੇ	-11.4669
▁ਕਪ੍ਪੇਸਿ	-11.4669
▁ਕਾਯਸੁਚਰਿਤ	-11.467
▁ਭਜਨ੍ਤਿ	-11.4671
ਾਰਤੋ	-11.4672
ਚੀਕਮ੍ਮ	-11.4673
ਿਞ੍ਞਾਪੇਤਿ	-11.4673
▁ਸਚ੍ਛਿਕਰੋਤਿ	-11.4674
▁ਥੁ	-11.4674
ਮਸਿ	-11.4674
▁ਅਰਹਤਂ	-11.4678
▁ਓਦਨਂ	-11.4678
▁ਅਸਮ੍ਭਿਨ੍ਨ	-11.4679
ਤੁਮ੍ਪਿ	-11.468
ਚਕ੍ਖੂ	-11.468
ਯਮੇ	-11.468
▁ਦੋਣ	-11.468
▁ਚਿਤ੍ਤੇਕਗ੍ਗਤਾ	-11.4681
▁ਏਕਦੇਸੇਨ	-11.4682
▁ਮੁਯ੍ਹ	-11.4682
ਕੁਟਿਕ	-11.4682
▁ਗਦ੍ਰਭ	-11.4682
ਇਚ੍ਚ	-11.4683
▁ਯਕਾਰ	-11.4693
▁ਅਨਤ੍ਥਂ	-11.4693
▁ਅਪਰਾ	-11.4694
▁ਕਲਹਂ	-11.4698
ਕ੍ਕਂ	-11.4699
▁ਰੁਪ੍ਪਨ	-11.4699
▁ਬਿਨ੍ਦੁ	-11.4699
▁ਉਭੋਹਿ	-11.4699
▁ਮਿਗਾ	-11.47
ਸਂਸਟ੍ਠਸਮੁਟ੍ਠਾਨ	-11.4702
ਸਮਨ੍ਨਾਗਤੋ	-11.4702
▁ਨਿਮਨ੍ਤਨ	-11.4702
▁ਤਸ੍ਮਾਤਿਹ	-11.4702
ਮੁਤ੍ਤਮ	-11.4704
ਾਲੁਕ	-11.4705
ਮੁਗ੍ਗ	-11.4705
▁ਪਾਟਿਹਾਰਿਯਂ	-11.4708
▁ਸਾਮਣੇਰਸ੍ਸ	-11.4709
▁ਮਹਾਕਸ੍ਸਪੋ	-11.471
ਨਪੁਂਸਕ	-11.4711
ਫਲਾ	-11.4712
▁ਅਸ੍ਮਾ	-11.4713
▁ਯਮ੍ਹਿ	-11.4717
ਪਕਰਣ	-11.4719
▁ਰਮ੍ਮਂ	-11.4721
ਯਾਗੁ	-11.4723
▁ਕਰਿਸ੍ਸਾਮ	-11.4728
ੁਤ੍ਤਮਂ	-11.4728
▁ਸਣ੍ਠਾਨ	-11.473
▁ਅਨ੍ਤਰਾਯਾ	-11.4733
ਸ੍ਸਥ	-11.4733
ਣ੍ਣਾਨਿ	-11.4734
▁ਪਚ੍ਚਨੀਯੁਦ੍ਧਾਰੋ	-11.4734
▁ਅਞ੍ਞਮਞ੍ਞਪਚ੍ਚਯ	-11.4734
▁ਆਸੀਸ	-11.4736
▁ਪਾਮੋਜ੍ਜ	-11.4736
ਤੁਮ੍ਹਾਕਂ	-11.4738
▁ਠਪਨ	-11.474
▁ਨੇਸਾਦ	-11.4741
▁ਨਿਮਨ੍ਤਿਤੋ	-11.4741
▁ਕਰਿਂਸੁ	-11.4745
▁ਸਾਧਨ	-11.4745
ਕਚ੍ਛ	-11.4745
▁ਰੂਪਾਰਮ੍ਮਣ	-11.4746
ਣ੍ਣੁ	-11.4748
▁ਖੁਜ੍ਜ	-11.4748
ਭਕ੍ਖੋ	-11.4748
▁ਤਲ	-11.475
▁ਅਲਜ੍ਜੀ	-11.4751
▁ਸਮਾਧਿਯਤਿ	-11.4752
▁ਚਰਿਮ	-11.4754
ਸਙ੍ਗਹਂ	-11.4755
▁ਨਿਦ੍ਦਾਯ	-11.4756
▁ਬ੍ਰਾਹ੍ਮਣੇਨ	-11.4757
▁ਉਪਪਤ੍ਤਿਭ	-11.4757
▁ਅਜ੍ਜੇ	-11.476
ਪ੍ਪਮਾਣਾ	-11.4761
▁ਨਿਬ੍ਬਤ੍ਤਂ	-11.4761
ਯੇਯ੍ਯ	-11.4761
▁ਮਧੁਰਂ	-11.4762
▁ਦੀਪੇਨ੍ਤੋ	-11.4765
ਮੂਲਕੇ	-11.4766
▁ਅਨਿਚ੍ਚਾਨੁਪਸ੍ਸਨਾ	-11.4767
▁ਗਾਮਸ੍ਸ	-11.4769
▁ਅਞ੍ਞਤੋ	-11.4769
ਗੁਹ	-11.477
ਨਾਥ	-11.4772
▁ਕਤੋਤਿ	-11.4772
ਨ੍ਤਮੇ	-11.4773
ਸਞ੍ਞੋਜਨਸਮ੍ਪਯੁਤ੍ਤ	-11.4773
ਿਕੇਨ	-11.4774
ਚਨ੍ਦਨ	-11.4776
▁ਅਗ੍ਗੀ	-11.4776
▁ਅਰੁਣ	-11.4776
▁ਗਾਥਾਸੁ	-11.4776
▁ਤਪ੍ਪਚ੍ਚਯਾ	-11.4777
ਿਞ੍ਞਾਣਾਨਂ	-11.4778
ਤਕ	-11.4779
▁ਪੀਤਿਸਹਗਤਾ	-11.4781
▁ਉਚ੍ਚਾਰ	-11.4781
▁ਅਨੁਮੋਦਨਂ	-11.4782
▁ਨਿਚ੍ਚਲ	-11.4783
▁ਮੁਹੁਤ੍ਤਂ	-11.4784
ਪਚ੍ਛਿਮਚਿਤ੍ਤਸ੍ਸ	-11.4784
ਸੂਕਰ	-11.4786
ੁਦ੍ਧਾਰ	-11.4787
▁ਦੁਤਿਯਦਿ	-11.4787
▁ਅਰਿਯਾਯ	-11.4787
▁ਇਤ੍ਥਿਪੁਰਿਸ	-11.4788
▁ਪਤਿਰੂਪਂ	-11.4788
ਸਮੇ	-11.4789
ਨਿਦਸ੍ਸਨ	-11.4791
▁ਪਨ੍ਨ	-11.4791
▁ਦੁਦ੍ਦਸ	-11.4792
▁ਅਸਾਤ	-11.4794
ਕੁਟ	-11.4796
▁ਪਰਿਞ੍ਞੇਯ੍ਯ	-11.4796
ਿਕਲ	-11.4796
ਬ੍ਭਨ੍ਤਰੇ	-11.4797
▁ਸਕ੍ਕਂ	-11.4797
▁ਲਿਙ੍ਗਂ	-11.4799
▁ਕੋਸਲੋ	-11.4799
▁ਅਦਂਸੁ	-11.48
▁ਪਾਪੁਣਿਂਸੂਤਿ	-11.4801
▁ਅਰੂਪਸਞ੍ਞੀ	-11.4803
ਤਿਂਸਭ	-11.4803
ਉਪਾਸਕ	-11.4805
▁ਯਮਹਂ	-11.4806
ਜਨੋ	-11.481
▁ਆਘਾਤੋ	-11.4811
ਿਨਿਬ੍ਭੋਗ	-11.4812
▁ਕਚ੍ਚਾਯਨ	-11.4814
ਿਪ੍ਪਸਨ੍ਨੇਨ	-11.4815
▁ਅਸਪ੍ਪਾਯ	-11.4816
ਸੂਚਿ	-11.4817
▁ਕਾਯਸਂਸਗ੍ਗ	-11.4818
ਏਤ	-11.4818
ਕਣ੍ਹ	-11.4819
ੋਚਾਤਿ	-11.4822
▁ਨਿਰੁਦ੍ਧ	-11.4822
ਬ੍ਰੂਹ	-11.4823
▁ਭਯਤੋ	-11.4824
▁ਮਗ੍ਗਙ੍ਗਂ	-11.4827
▁ਪਟ੍ਠਾਨ	-11.4827
▁ਯਾਚਕ	-11.4828
▁ਦਸ੍ਸਾਮਿ	-11.4828
▁ਪਟਿਕ੍ਖਿਪਿ	-11.4828
ਗਤ੍ਤ	-11.4829
ਿਸਾ	-11.483
ਜ੍ਜੀ	-11.4831
▁ਗਬ੍ਭੋ	-11.4832
ਤਾਪ	-11.4832
▁ਨਿਬ੍ਬਿਦਾਯ	-11.4832
ਮੋਕ੍ਖ	-11.4833
▁ਕੋਧਂ	-11.4833
ਅਨਿਦਸ੍ਸਨਸਪ੍ਪਟਿਘੋ	-11.4833
ਸਨ੍ਤੀਤਿ	-11.4833
▁ਨਿਯੋਜੇ	-11.4834
▁ਸਮਾਪਨ੍ਨ	-11.4835
▁ਮੂਲਾਯ	-11.4836
ਤ੍ਤਕਥਾ	-11.4837
▁ਮਤ੍ਤਾ	-11.4838
ਸਮਾਗਮ	-11.4839
▁ਦੇਹ	-11.4841
▁ਸਲ	-11.4847
▁ਪਾਰਾਜਿਕਾ	-11.4847
ਰਗ	-11.4848
ਸੇਨਾਸਨਂ	-11.4849
ਕੋਟਿਯੋ	-11.485
▁ਓਤ੍ਤਪ੍ਪਂ	-11.4851
▁ਨਿਬ੍ਬਤ੍ਤਨ੍ਤਿ	-11.4851
ਰੋਪਿਤ	-11.4853
▁ਪਟਿਲਭ	-11.4855
ਕਮ੍ਮਿਕ	-11.4855
▁ਅਭੂਤਂ	-11.486
▁ਬ੍ਯਾਪ	-11.486
▁ਨਨ੍ਦੋ	-11.4862
▁ਯਾਗੁਂ	-11.4863
▁ਪਿਯਰੂਪਂ	-11.4863
ਣਿਜ੍ਜਾ	-11.4864
ਿਪਸ੍ਸਨਾਞਾਣ	-11.4866
▁ਚਿਤ੍ਤਸ੍ਸੇਕਗ੍ਗਤਾ	-11.4867
ਸਙ੍ਘਾਦਿਸੇਸ	-11.4867
▁ਅਨਨੁਸ੍ਸੁਤੇਸੁ	-11.4868
ਉਤੁ	-11.4868
ਤਾਪਨ	-11.487
▁ਮਾਨੁਸਕ	-11.4871
ਸਞ੍ਞਿਸ੍ਸ	-11.4873
▁ਆਣਾਪੇਸਿ	-11.4873
▁ਸੁਦਸ੍ਸਨ	-11.4873
ਮ੍ਬੁਜ	-11.4874
▁ਆਚਰ	-11.4874
▁ਗੇਹਸਿਤ	-11.4875
ਚਨੀਯਂ	-11.4875
▁ਅਨੁਪਾਦਾ	-11.4876
▁ਨਿਸੀਦਿਤੁਂ	-11.4879
▁ਗੋਚਰਂ	-11.488
ਿਹਾਯ	-11.4881
ਸੇਕ੍ਖਨਾਸੇਕ੍ਖੋ	-11.4882
▁ਅਹੂ	-11.4885
ਕ੍ਖੀ	-11.4885
ਿਸਙ੍ਕੇਤ	-11.4886
▁ਸਮ੍ਮਤ	-11.4887
ਧਾਨਂ	-11.4889
▁ਪਾਰਮੀ	-11.4889
▁ਅਤਿਸਯ	-11.489
▁ਉਰਗ	-11.489
▁ਕਾਮਭੋਗੀ	-11.489
▁ਖਾਯਤਿ	-11.4891
ਧੂਮ	-11.4891
ਉਦ	-11.4892
▁ਸਕ੍ਕੁਣੇਯ੍ਯ	-11.4894
▁ਏਕਾਬਦ੍ਧ	-11.4895
▁ਸਚਿਤ੍ਤਕ	-11.4895
▁ਸਙ੍ਘਭੇਦ	-11.4895
▁ਚਤੁਤ੍ਥਸ੍ਸ	-11.4895
▁ਚਕ੍ਖਾਦਿ	-11.4897
▁ਸਦ੍ਧਾਦੇਯ੍ਯ	-11.4897
▁ਫਾਸੁਕ	-11.4898
ਿਲੇਪਨ	-11.4899
▁ਸੋਤੇਨ	-11.4901
ਯਸ	-11.4901
▁ਸੁਜਾਤੋ	-11.4902
▁ਪਾਪਿਮ	-11.4902
ਕ੍ਖਾਮ	-11.4905
ਿਤਬ੍ਬਮ੍ਪਿ	-11.4905
▁ਕਰਿਸ੍ਸਨ੍ਤਿ	-11.4906
▁ਦੁਹੇਤੁਕ	-11.4907
▁ਉਪਮਂ	-11.4908
ਸਿਖ	-11.4909
▁ਅਜ੍ਝੋਹਰ	-11.4909
▁ਸੁਣਨ੍ਤੋ	-11.4909
▁ਜੇਗੁਚ੍ਛ	-11.491
ਮਹਗ੍ਗਤ	-11.4913
▁ਏਕਗ੍ਗਤਾ	-11.4913
▁ਉਦ੍ਧਚ੍ਚਸਹਗਤਂ	-11.4914
ਸਿਙ੍ਗ	-11.4914
ਟ੍ਟਨ	-11.4914
▁ਅਜ੍ਝਤ੍ਤਬਹਿਦ੍ਧਾ	-11.4916
ਧਿਗਮ	-11.4918
ਿਜਾਯ	-11.4918
▁ਕਾਰਯਿ	-11.4919
ਾਧਿਪ	-11.492
ਾਭਿਧਾਨ	-11.4923
ਿਸੇਸਸ੍ਸ	-11.4931
ਿਭਜ੍ਜ	-11.4931
▁ਨਿਧਿ	-11.4932
▁ਕਬਲ਼	-11.4933
ਤ੍ਥੇਤਿ	-11.4934
▁ਪਿਤਾਮਹ	-11.4936
ਆਪਤ੍ਤਿ	-11.4936
▁ਪਚ੍ਚਨੀਯਂ	-11.4937
▁ਸਾਮਞ੍ਞਫਲ	-11.4939
▁ਅਯ੍ਯੋ	-11.4939
ਸੇਸੇ	-11.4942
▁ਫਲੇਨ	-11.4943
ਿਚਰਨ੍ਤੋ	-11.4945
ੁਟ੍ਠਾਪਨ	-11.4946
▁ਲੋਲ	-11.4946
▁ਸੁਖਿਤਾ	-11.4946
ਰੋਗੋ	-11.4947
▁ਰੁਹ	-11.4949
▁ਬ੍ਰੂਹ	-11.495
▁ਅਪਲੋਕੇ	-11.4951
▁ਸੀਲਸਂ	-11.4953
▁ਏਕਕ	-11.4953
▁ਸਬ੍ਬਞ੍ਚ	-11.4957
ਿਕਰਣ	-11.4957
▁ਰਤਾ	-11.4958
▁ਪਰਾਜਯੋ	-11.4958
ਾਸਿਕਂ	-11.4958
▁ਸਕੁਣੋ	-11.4959
ਕਾਮਂ	-11.496
▁ਜਾਨਾਤੀ	-11.4962
▁ਆਰਾ	-11.4963
▁ਰਤ੍ਤਿਯੋ	-11.4964
▁ਤੁਟ੍ਠਿ	-11.4964
▁ਸਂਹਰ	-11.4964
ਿਨਿਬਨ੍ਧ	-11.4966
ੂਪਮਂ	-11.4966
▁ਹੇਸ	-11.4967
ਸਰੂਪ	-11.4969
▁ਅਧਿਗਤਂ	-11.4969
ਕੁਲਪੁਤ੍ਤ	-11.4971
▁ਭੂਤਾਨਿ	-11.4971
▁ਚੇਤੇ	-11.4972
ਤ੍ਤਿਕੇ	-11.4973
ਨ੍ਤਸ੍ਸਾਪਿ	-11.4974
▁ਮਹਨ੍ਤਾ	-11.4974
▁ਞਾਤਕ	-11.4974
▁ਸਮ੍ਮਾਦਿਟ੍ਠਿਯਾ	-11.4975
ਬੋਜ੍ਝਙ੍ਗ	-11.4975
▁ਜਨਪਦੇਸੁ	-11.4976
▁ਅਭਿਭੂ	-11.4978
▁ਨੁਤ੍ਥ	-11.4979
▁ਜਾਨਤਾ	-11.4979
▁ਅਗ੍ਗਫਲ	-11.4979
ੇਠਨ	-11.4981
▁ਅਞ੍ਞਥਤ੍ਤਂ	-11.4982
▁ਅਲਜ੍ਜਿ	-11.4983
▁ਆਭਤ	-11.4986
▁ਧਮ੍ਮਿਕੋ	-11.4986
ਫਰੁਸ	-11.4986
ਯਮਾਨਂ	-11.4987
▁ਪੁਚ੍ਛੇਯ੍ਯ	-11.4987
ਇਮ	-11.4987
ਾਕ੍ਖਾਤੋ	-11.4989
▁ਅਸਦਿਸ	-11.4989
▁ਯਾਯਂ	-11.499
▁ਅਨੀ	-11.4992
▁ਅਜ੍ਝੋਤ੍ਥਰ	-11.4996
▁ਜਾਤਰੂਪ	-11.4997
▁ਅਨਧਿ	-11.4997
ਪੋਤਕ	-11.4998
ਅਰੂਪ	-11.4998
▁ਤਦਹੁਪੋਸਥੇ	-11.5
▁ਮਾਗਣ੍ਡਿਯ	-11.5
▁ਅਲਭਨ੍ਤੋ	-11.5
▁ਚਿਤ੍ਤਸਹਭੁ	-11.5001
▁ਬੁਦ੍ਧਗੁਣ	-11.5001
ਅਯ੍ਯ	-11.5001
▁ਪਮੁਖ	-11.5002
ਘਟਨਾ	-11.5005
▁ਧਾਰੇਤੁ	-11.5005
ਙ੍ਗਾਨਿ	-11.5008
ਥੋ	-11.501
▁ਛਦਨ	-11.501
ਸਮਨ੍ਨਾਗਤਂ	-11.5011
▁ਪਾਸਂਸੋ	-11.5011
ਪਾਰਿਸੁਦ੍ਧਿ	-11.5012
▁ਮਗਧ	-11.5013
ਿਕਾਨਿ	-11.5014
ਮਤ੍ਤਸ੍ਸ	-11.5014
ਪ੍ਪਯੋਜਨ	-11.5014
▁ਨਦਿ	-11.5018
▁ਸਾਸਪ	-11.5019
ਗਾਮੋ	-11.5019
ਿਸ੍ਸੁਤੋ	-11.502
ਧਾਤੁਯੋ	-11.5023
▁ਸਮੁਗ੍ਘਾਤ	-11.5026
ਦੇਸਿਤ	-11.5026
ਪਯੋਗੇ	-11.5027
▁ਪਰਿਹਾਰ	-11.5029
▁ਲੋਕਧਾਤੁ	-11.503
ਪਚ੍ਛਿਮ	-11.5032
▁ਮਹਾਪਞ੍ਞੋ	-11.5032
ਾਤਿਆਦਿਮਾਹ	-11.5034
ਸਤਾ	-11.5034
ਨਾਮਕਂ	-11.5037
ਾਸਿਕੇਨ	-11.5039
▁ਪੀਤਿਂ	-11.5039
▁ਉਦਯਬ੍ਬਯ	-11.5039
ਗ੍ਗਹਣੇ	-11.5041
▁ਪਸੀਦਿਤ੍	-11.5045
ਪਠਮਂ	-11.5046
ਚਙ੍ਕਮ	-11.5048
ਸ੍ਸੂ	-11.5049
▁ਅਨਾਦਰ	-11.5049
▁ਉਪਦ੍ਦੁਤ	-11.505
ਨਪ੍ਪ	-11.5052
▁ਪਸਂਸਨ੍ਤਿ	-11.5055
▁ਪਣ੍ਡਿਤੇਹਿ	-11.5055
▁ਏਤਦੇ	-11.5056
ਞ੍ਜਲਿ	-11.5056
▁ਪਟਿਗ੍ਗਾਹਕ	-11.5056
ਗਮਾ	-11.506
▁ਮਨੁਸ੍ਸੇਹਿ	-11.506
▁ਦੁਪ੍ਪ	-11.506
ਪ੍ਪਟਿਪਨ੍ਨ	-11.5062
▁ਨੇਤ੍ਤਿ	-11.5064
▁ਸਮ੍ਮਤ੍ਤ	-11.5065
▁ਅਮੋਹ	-11.5066
ਸੂਪ	-11.5067
▁ਅਪਚਯਗਾਮੀ	-11.5068
▁ਮੁਟ੍ਠਸ੍ਸਤਿ	-11.5068
▁ਕਾਨਿਚਿ	-11.5068
▁ਆਕਿਰ	-11.5069
▁ਭੁਮ੍ਮਤ੍ਥੇ	-11.5071
▁ਅਕ੍ਖਾਤਾ	-11.5071
▁ਅਜਿਨ	-11.5073
▁ਨਸਹਜਾਤੇ	-11.5075
▁ਮਨੁਸ੍ਸਭੂਤੋ	-11.5075
▁ਅਞ੍ਞਾਤ	-11.5075
▁ਉਪਨਿਧਾਯ	-11.5076
▁ਯਾਦਿਸਾ	-11.5076
▁ਸਮ੍ਪਤਿ	-11.5077
▁ਰੂਪਾਯਤਨ	-11.5078
ਦੀਪਕਂ	-11.5079
▁ਨਹਾਨ	-11.5079
▁ਪਰਿਕ੍ਖਯਂ	-11.5081
▁ਅਧਿਮਤ੍ਤ	-11.5082
▁ਗੇਧ	-11.5085
▁ਸਰਸ	-11.5088
ੂਪਗਮਨ	-11.509
ਗ੍ਗਹਣੇਨੇ	-11.509
ਿਦੂਰ	-11.5091
▁ਸਕਲਸਰੀਰ	-11.5092
▁ਓਪਮ੍ਮ	-11.5094
▁ਆਪਜ੍ਜਨ੍ਤਿ	-11.5095
▁ਨਿਬ੍ਬਾਪੇ	-11.5095
ਲਿਤ੍ਤ	-11.5096
ਾਰਿਕਾ	-11.5098
ਧਾਰਣੇ	-11.5101
▁ਪਾਪਸ੍ਸ	-11.5102
▁ਸਮ੍ਮਸਿ	-11.5102
ਪਰਿਦੀਪਨ	-11.5102
▁ਲਸੁਣ	-11.5104
▁ਪਾਟਿਹਾਰਿਯ	-11.5105
ਸਨ੍ਤੇਨ	-11.5106
▁ਮਾਤਰ	-11.5108
▁ਨਪੁਂਸਕਲਿਙ੍ਗ	-11.5108
ਨ੍ਦਾਮਿ	-11.5109
ਆਦੀਨ	-11.511
ਤਕ੍ਕ	-11.5113
▁ਦੋਸੇਨ	-11.5114
▁ਖਨ੍ਧਕ	-11.5115
ਿਕਮ੍ਪ	-11.5116
▁ਮਾਰਂ	-11.5117
▁ਸੀਲੇ	-11.5119
▁ਲਙ੍ਘ	-11.5119
▁ਸਕ੍ਕਾਤਿ	-11.512
ਾਧਿਕਾਰ	-11.5123
▁ਸਮੇਨ	-11.5125
▁ਪਜਹਥ	-11.5126
ਪਚ੍ਚਯਸ੍ਸ	-11.5127
▁ਸਦ੍ਦੇਨ	-11.513
▁ਬਨ੍ਧਨਾ	-11.5131
ਮਣ੍ਡਪ	-11.5132
ਨਸਭਾ	-11.5134
▁ਮਨਸਿਕਰੋਨ੍ਤੋ	-11.5136
▁ਯੁਗਨਦ੍ਧ	-11.5136
▁ਆਹਿਣ੍ਡ	-11.5136
▁ਘਮ੍ਮ	-11.5137
▁ਦੇਸਨਾਪਰਿਯੋਸਾਨੇ	-11.5137
▁ਪਰਿਪੂਰੇਨ੍ਤਿ	-11.5138
ਰਾਹ	-11.5138
ਪਚ੍ਚੁਪ੍ਪਨ੍ਨਂ	-11.5138
ਮਾਨੁਸ	-11.5138
▁ਪਸ੍ਸਾਮੀ	-11.5138
▁ਰੁਚਿਯਾ	-11.5142
ਤ੍ਤਿਸ੍ਸ	-11.5142
▁ਰਸ੍ਸਤ੍ਤਂ	-11.5145
▁ਕਾਯਿਨ੍ਦ੍ਰਿਯਂ	-11.5146
ਪਰਂ	-11.5147
ਹਿਮ	-11.5148
▁ਦਰ	-11.5149
▁ਪਚ੍ਚੁਪ੍ਪਨ੍ਨੇ	-11.5151
▁ਸਣ੍ਠਪੇ	-11.5151
▁ਞਾਪੇਤਬ੍ਬੋ	-11.5152
▁ਸਕਦਾਗਾਮਿਮਗ੍ਗ	-11.5155
▁ਪਿਯਰੂਪਾ	-11.5156
ਮਪਿ	-11.5156
ਂਸੂਤਿ	-11.5156
ਗਾਮਿਨੀ	-11.5156
▁ਸੇਸਾਨਂ	-11.5156
▁ਸਘਾਨਕਾਨ	-11.5157
▁ਨਨ੍ਦਨ	-11.5157
▁ਆਭਸ੍ਸਰ	-11.5158
▁ਦਾਠਾ	-11.516
▁ਚਮ੍ਮਂ	-11.516
▁ਸੁਖਦੁਕ੍ਖਂ	-11.5161
▁ਅਨੁਪਦ	-11.5163
▁ਨਦਤਿ	-11.5163
ਸ੍ਮਿਞ੍ਚ	-11.5163
ਸਾਲਾਯ	-11.5164
ੁਦ੍ਧੋ	-11.5165
ਪ੍ਪਸਙ੍ਗ	-11.5165
▁ਬਾਤ੍ਤਿਂਸ	-11.5165
▁ਪਚ੍ਚਯਾਕਾਰ	-11.5166
ਚ੍ਛਾਦਨ	-11.5167
ਰਨ੍ਤੋ	-11.5167
ਗੋਚਰਾ	-11.5167
▁ਸਨ੍ਤੀਤਿ	-11.5167
ਨੀਯਾ	-11.5169
ਦੋਮਨਸ੍ਸੁਪਾਯਾਸਾ	-11.5169
▁ਸੁਖਿਨੋ	-11.517
▁ਅਜਾਨਨ	-11.5171
▁ਅਸ੍ਸਮੇ	-11.5171
▁ਗਹੇਤਬ੍ਬਾਨਿ	-11.5173
▁ਆਣਾਪ	-11.5173
▁ਭਯਦਸ੍ਸ	-11.5173
ੁਯ੍ਯਾਨ	-11.5175
▁ਮੁਚ੍ਛ	-11.5175
ਉਤ੍ਤਰ	-11.5176
ਟ੍ਠਾਨਨ੍ਤਿ	-11.5176
▁ਉਪਨਿਸ੍ਸਯੋ	-11.5178
ਰੇਤਿ	-11.518
▁ਆਯਤਨੇਹਿ	-11.5181
▁ਅਸਕ੍ਕੋਨ੍ਤਾ	-11.5181
▁ਅਹਿਰਿਕ	-11.5183
ਙ੍ਕਰੋ	-11.5188
ਅਟ੍ਠਾਰਸ	-11.5189
▁ਅਪਰਿਕ੍ਖਿਤ੍ਤ	-11.5191
ੋਕਾਸਂ	-11.5192
ਪ੍ਪਦੇਸ	-11.5192
▁ਬ੍ਰਾਹ੍ਮਣੀ	-11.5193
▁ਭਿਨ੍ਨੋ	-11.5194
ਿਪ	-11.5195
ੇਦਿਤੇ	-11.5195
▁ਸਾਗਰੋ	-11.5195
ਸਾਖਾ	-11.5198
▁ਆਰਾਧੇ	-11.5198
ਿਕ੍ਖਮ੍ਭੇ	-11.5198
▁ਸੀਲਞ੍ਚ	-11.5198
ਨਦੀ	-11.5198
▁ਖਣੋ	-11.5201
ੀਕਸਿਣਂ	-11.5201
▁ਸਭਿਕ੍ਖੁਕਾ	-11.5201
▁ਗੁ	-11.5201
▁ਅਟ੍ਠਾਰਸਹਿ	-11.5203
▁ਨਿਰਨੁਸਯਾ	-11.5204
ਿਲੁਮ੍ਪ	-11.5204
ਟ੍ਠੀਨਿ	-11.5205
▁ਕਰੋਸਿ	-11.5206
▁ਮੁਗ੍ਗ	-11.5207
ਫਲਕ	-11.5208
▁ਪਰਿਹਰਤਿ	-11.5209
▁ਅਕਪ੍ਪਿਯਂ	-11.5209
▁ਯਕ੍ਖਾ	-11.521
ਯਨ੍ਤੇ	-11.5211
▁ਤਪ੍ਪਟਿਪਕ੍ਖ	-11.5211
ਸੇਖ	-11.5211
▁ਸੁਨਕ੍ਖਤ੍ਤ	-11.5212
▁ਅਭਿਭੂਤ	-11.5213
ਗਰਹ	-11.5214
▁ਤਲ਼ਾਕ	-11.5215
▁ਠਿਤੋਤਿ	-11.5215
ਪਬ੍ਬਤੇ	-11.5216
ਤਿਂਸਾ	-11.5216
▁ਦਮਿਲ਼	-11.5216
▁ਪਿਟਕਤ੍ਤਯ	-11.5217
ਲੀਨ	-11.522
ਲਟ੍ਠਿ	-11.5222
▁ਪਜਾਪਤਿ	-11.5222
▁ਭਾਯਿ	-11.5223
▁ਸਮੁਟ੍ਠਾਪੇਤਿ	-11.5224
▁ਗਰੁਭਣ੍ਡਂ	-11.5224
ਏਤਦਗ੍ਗਂ	-11.5226
▁ਸਨ੍ਨਦ੍ਧ	-11.5227
▁ਸਬ੍ਬਾਨਿਪਿ	-11.5227
▁ਆਣਤ੍ਤ	-11.5229
▁ਅਸਮ੍ਪਤ੍ਤ	-11.523
▁ਇਟ੍ਠਕ	-11.523
▁ਲਹੁਂ	-11.5232
ੂਨ	-11.5234
ਬ੍ਰ	-11.5235
ਮਤ੍ਤਕ	-11.5237
▁ਖਯੇ	-11.5237
▁ਸਬ੍ਬਲੋਕੇ	-11.5237
ਕਮੇ	-11.5238
ਿਕਿਣ੍ਣ	-11.5238
▁ਅਭਿਭੂਤੋ	-11.5238
▁ਸਮ੍ਮਾਸਮ੍ਬੁਦ੍ਧਾ	-11.5239
▁ਨਾਮਰੂਪਸ੍ਸ	-11.5239
▁ਅਪ੍ਪਮਾਦੋ	-11.5242
▁ਤਾਤਾ	-11.5243
ਧਾਤੂ	-11.5243
▁ਪਰਮਤ੍ਥੋ	-11.5245
ਿਚਿਕਿਚ੍ਛਾਸਹਗਤਂ	-11.5247
▁ਭੇਸਜ੍ਜਾਨਿ	-11.5248
▁ਗਣ੍ਹਾਤੀਤਿ	-11.5248
▁ਕੁਣ੍ਡਲ	-11.5248
▁ਪਾਪਕੇ	-11.5249
▁ਆਕਙ੍ਖਤਿ	-11.525
▁ਸਾਧੂਤਿ	-11.5253
▁ਉਪਨੀਤ	-11.5253
ਸਾਦਿ	-11.5254
▁ਕਰੋਮ	-11.5255
▁ਕਿਮਿ	-11.5255
ਕਮ੍ਮਾਨਿ	-11.5256
ਚਤੂਹਿ	-11.5256
ਪਰਾਯਣੋ	-11.5257
▁ਅਦੁ	-11.5258
ਚੇਤਸੋ	-11.5259
ਯਤੀ	-11.5259
ੋਸ੍ਸਗ੍ਗ	-11.526
▁ਸਮੁਦਾਚਰਨ੍ਤਿ	-11.5262
▁ਪਸ੍ਸਿਤੁਂ	-11.5264
ਪੁਬ੍ਬਂ	-11.5266
ਯਟ੍ਠਿ	-11.5269
ਤ੍ਥਿਕਾ	-11.5269
▁ਕੁਸਲੇਹਿ	-11.5269
▁ਮੂਸਿਕ	-11.527
▁ਭੁਤ੍ਤ	-11.5271
ਦ੍ਧਜ	-11.5271
▁ਅਨਾਗਾਮਿਸ੍ਸ	-11.5272
ਸਰਣੋ	-11.5272
▁ਪਬ੍ਬਤਾ	-11.5273
ਿਪ੍ਪਯੁਤ੍ਤਲੋਭਸਹਗਤ	-11.5274
▁ਸਤ੍ਤਰਤਨਸਮ੍ਪਨ੍ਨੋ	-11.5274
ਸੁਖੇਨ	-11.5274
ਮਾਨਸਂ	-11.5274
▁ਓਲਮ੍ਬ	-11.5275
▁ਹਨ੍ਦਾਹਂ	-11.5275
▁ਮਹੇਸੀ	-11.5276
▁ਨਿਬ੍ਬਾਨਧਾਤੁਯਾ	-11.5277
ਸਾਮਤ੍ਥਿਯ	-11.5277
ੇਕਜਂ	-11.5278
ਜੇਯ੍ਯ	-11.5281
▁ਸਮਾਪਜ੍ਜਨ	-11.5281
ਤੇਜ	-11.5281
ਜਿਤ	-11.5282
▁ਜਹਨ੍ਤਿ	-11.5282
ੇਜ੍ਜ	-11.5283
▁ਝਾਨੇਨ	-11.5284
ਿਤਬ੍ਬਤੋ	-11.5285
▁ਮੁਦ੍ਧਾ	-11.5286
▁ਮਚ੍ਛੋ	-11.5286
▁ਤੇਮਾਸਂ	-11.5287
▁ਕਰਿਸ੍ਸਾਮਾ	-11.5291
ਤੇਜੋ	-11.5292
▁ਪਾਦਕਜ੍ਝਾਨ	-11.5292
ਦਾਹ	-11.5292
▁ਅਜ੍ਜਤਗ੍ਗੇ	-11.5293
▁ਨਿਕ੍ਖਮਨ	-11.5293
▁ਅਨਾਪਤ੍ਤੀ	-11.5294
▁ਪਸਾਦਂ	-11.5294
ੋਕਾਰਾ	-11.5296
ੋਹਰ	-11.5298
ਂਸਂ	-11.53
▁ਨਿਦ੍ਦਿਟ੍ਠਂ	-11.5302
▁ਚਾਪ	-11.5302
ਭਾਜਨੀਯ	-11.5303
ਿਞ੍ਞੂਹਿ	-11.5306
ਮੁਞ੍ਚ	-11.5306
ਭਾਰੋ	-11.5307
▁ਚਕ੍ਖਾਯਤਨ	-11.5309
▁ਸਮ੍ਮੁਖੀਭ	-11.5309
ਿਸ੍ਸਜ੍ਜੇਤਿ	-11.5311
ਮਾਤੁ	-11.5311
ਤ੍ਤੇਤੀਤਿ	-11.5312
ਆਕਾਸ	-11.5313
ਾਲਿਕ	-11.5313
▁ਮਹਾਪਚ੍ਚਰਿਯਂ	-11.5313
▁ਰੋ	-11.5315
▁ਬ੍ਰਹ੍ਮਚਾਰੀ	-11.5317
▁ਲੁ	-11.5317
ੁਪ੍ਪਲ	-11.5318
▁ਪਣ੍ਡਰ	-11.5318
▁ਓਕ੍ਕਨ੍ਤ	-11.5319
▁ਆਦਾਸ	-11.5319
▁ਅਨਤ੍ਤਮਨੋ	-11.5319
ਭੂਤਤ੍ਤਾ	-11.532
▁ਪਦਹ	-11.5321
ਖਤ੍ਤਿਯ	-11.5321
ਕੁਤੋ	-11.5323
ਚੇਤਨਾਯ	-11.5325
▁ਲੋਮਾ	-11.5325
▁ਅਟ੍ਠਙ੍ਗੁਲ	-11.5328
ਜ੍ਜਤਿ	-11.5328
▁ਦਾਨਾਨਿ	-11.5328
▁ਬਲੇਨ	-11.5329
ਹੇਤੂਤਿ	-11.5332
ੀਥਿਂ	-11.5335
▁ਪਰਿਣਤ	-11.5335
ਚ੍ਛਕ	-11.5335
ਸੀਸਂ	-11.5336
ਾਦਕੋ	-11.5337
▁ਉਪਹਤ	-11.5338
ੇਗਂ	-11.534
▁ਭਣੇ	-11.534
▁ਸਕ੍ਕਰ	-11.534
▁ਅਪ੍ਪਮਞ੍ਞਾ	-11.5341
ੁਤ੍ਤਞ੍ਚ	-11.5341
▁ਆਯਤਨਾਨਂ	-11.5341
▁ਓਰੋਹ	-11.5342
▁ਅਤ੍ਥਤਕਥਿਨ	-11.5343
▁ਗਾਰਯ੍ਹੋ	-11.5343
▁ਸੇਸਪਦੇਸੁਪਿ	-11.5343
ਾਮਸੇ	-11.5343
▁ਪਰਿਪੂਰਕਾਰੀ	-11.5344
▁ਸਿਖੀ	-11.5345
▁ਜਾਤੋਤਿ	-11.5346
▁ਮੇਸੋ	-11.5346
▁ਰਾਗੇਨ	-11.5346
▁ਰੂਪਸਞ੍ਞਾ	-11.5346
ਕਾਰਕਾ	-11.5346
ੁਚ੍ਚਨ੍ਤੇ	-11.5346
▁ਅਬ੍ਯਾਕਤਮੂਲ	-11.5348
ਗੁਣੇਹਿ	-11.5349
▁ਇਦ੍ਧਿਪਾਦਂ	-11.535
▁ਸਾਤ੍ਥਕ	-11.5351
▁ਓਸਕ੍ਕ	-11.5354
ੇਦੇਸਿ	-11.5355
▁ਬਾਰਾਣਸਿ	-11.5355
ਚਨੇਹਿ	-11.5356
ਨਿਦਸ੍ਸਨਂ	-11.5356
▁ਜਹਤੀਤਿ	-11.5359
ਾਰਾਨਂ	-11.5359
▁ਅਨਿਯਤਾ	-11.5361
ਕਰੇ	-11.5361
▁ਅਪਾਕਟ	-11.5362
▁ਗੁਹ	-11.5362
▁ਪਿਸਾਚ	-11.5362
ਨਨ੍ਦੀ	-11.5363
▁ਗਿਲਾਨਾ	-11.5363
▁ਅਨੁਗਤ	-11.5363
▁ਪਰਿਪੁਣ੍ਣੋ	-11.5367
▁ਉਪਾਯੋ	-11.5369
ਦਾਯਕਤ੍ਥੇਰਸ੍ਸ	-11.5369
ਰਣਾਨਿ	-11.537
▁ਨਿਸ੍ਸਜ੍ਜ	-11.537
▁ਥੂਪਂ	-11.5371
ਜਞ੍ਞ	-11.5375
▁ਅਨੋਤ੍ਤਪ੍ਪ	-11.5376
▁ਨਿਰੋਧਸਮਾਪਤ੍ਤਿ	-11.5377
ਮਾਗਤਾ	-11.5377
▁ਸਨ੍ਧਾਯੇਤ	-11.5378
▁ਪਰਿਸੁਦ੍ਧੋ	-11.5382
ਰੁਕ੍ਖੇ	-11.5383
▁ਅਭਿਸੇਕ	-11.5385
▁ਪਚ੍ਚੇਸ੍ਸ	-11.5385
▁ਧਞ੍ਞਂ	-11.5386
▁ਦੁਮ੍ਮਨੋ	-11.5387
ਸਙ੍ਗੀਤਿ	-11.5387
ਲੋਕਿਯ	-11.539
▁ਨਾਲ਼ਿਕੇਰ	-11.539
▁ਭਾਣ	-11.5392
▁ਸਮ੍ਬਨ੍ਧਿਤਬ੍ਬਂ	-11.5392
ਾਦਿਭੇਦ	-11.5392
▁ਦਾਤੁ	-11.5393
ਮਦਾਸਿ	-11.5399
ਤਿਰੇਕ	-11.5399
▁ਅਸਮ੍ਮੋਹ	-11.5403
ਕਿਲੇਸੋ	-11.5403
▁ਪਚ੍ਚੇਕਬੁਦ੍ਧਾ	-11.5403
ਿਰਹਿਤਾ	-11.5404
▁ਭਾਗਂ	-11.5405
▁ਪਤ੍ਤਿ	-11.5405
ਮਯੇ	-11.5407
▁ਪਚ੍ਚਯਭੂਤ	-11.5407
▁ਬੋਧਿਪਕ੍ਖਿਯ	-11.5407
▁ਪਟਿਚ੍ਛ	-11.5407
ੀਥਿਯਾ	-11.5407
ਮਨੁਸ੍ਸਾਯ	-11.5408
▁ਪਜਾਨਾਤੀਤਿ	-11.541
▁ਉਪਚਿਤ	-11.541
▁ਸਮ੍ਪਸ੍ਸਮਾਨੋ	-11.5413
▁ਉਮ੍ਮਤ੍ਤਿਕਾਯ	-11.5413
ਜਾਤਸ੍ਸ	-11.5413
ਆਪ	-11.5417
▁ਅਸੇਕ੍ਖੋ	-11.5417
▁ਧਾਰੇਤੀਤਿ	-11.5418
ਸਙ੍ਖਾਤੇਹਿ	-11.542
▁ਸੇਸਪਦ	-11.5423
▁ਆਧਾਰ	-11.5424
▁੨੪੪	-11.5428
▁ਪਟਿਸ੍ਸ	-11.543
▁ਪਾਪਾਨਿ	-11.543
▁ਅਪ੍ਪਕ	-11.5432
▁ਅਮਿਤ	-11.5432
▁ਪਸੁ	-11.5434
▁ਦੂਤਂ	-11.5435
▁ਸਹਾਯੋ	-11.5435
ਲਗ੍ਗ	-11.5435
▁ਏਲ਼ਕਲੋਮ	-11.5436
▁ਨਿਪਕੋ	-11.5438
ਿਭੂਸਿਤ	-11.5439
ਸਮ੍ਬਨ੍ਧੋ	-11.544
ਚੇਤਿਯਂ	-11.5442
▁ਭਯੇਨ	-11.5442
ਭੂਤਾਨਿ	-11.5443
▁ਆਨਿਸਂਸਾ	-11.5443
▁ਪਰਿਯੋਦਾਤ	-11.5447
▁ਪਕਾਰੇਹਿ	-11.5447
ਸੋਧਨ	-11.5451
ਮਨੁਯੁਤ੍ਤੋ	-11.5451
▁ਜੇਟ੍ਠੋ	-11.5454
▁ਪਰਿਸ੍ਸਯ	-11.5455
▁ਅਸਕ੍ਕੋਨ੍ਤ	-11.5455
▁ਅਬ੍ਭੁਤੋ	-11.5455
ਞ੍ਚੁਪਾਦਾਨਕ੍ਖਨ੍ਧਾ	-11.5456
▁ਝਾਯਤਿ	-11.5457
ੁਬ੍ਬ	-11.5457
▁ਸੁਕਰਂ	-11.5458
▁ਹੋਨ੍ਤ	-11.5458
▁ਸਨ੍ਦਿਟ੍ਠਿਕਂ	-11.5459
▁ਅਮ੍ਹ	-11.546
ਨਿਕਾਯਟ੍ਠਕਥਾਯ	-11.546
▁ਥੋਕ	-11.5462
ਇਚ੍ਚਾਦਿਨਾ	-11.5462
▁੨੪੮	-11.5462
▁ਸਪ੍ਪੁਰਿਸਾ	-11.5463
▁ਬਾਹਿਰਕ	-11.5463
ਸਦ੍ਧ	-11.5464
ਭੋਜਨੇ	-11.5464
▁ਪਟਿਸਲ੍ਲਾਨਾ	-11.5467
ਪਬ੍ਭਾਰ	-11.5467
ੇਮਤ੍ਤਤਾ	-11.5467
ਿਜ੍ਜਮਾਨਂ	-11.5468
▁ਸਨ੍ਤਪ੍ਪ	-11.547
ਪਰਿਭੋਗੋ	-11.5472
▁ਮਜ੍ਝਿਮਾ	-11.5472
▁ਅਰੋਗ	-11.5473
▁ਪਟਿਬਲੋ	-11.5474
▁ਧਮ੍ਮਪਟਿਸਮ੍ਭਿਦਾ	-11.5475
੨੩	-11.5476
੨੨	-11.5478
▁ਪੁਮਾ	-11.5478
ਸੋਲ਼ਸ	-11.5479
▁ਨਿਦ੍ਦਿਸਿਤਬ੍ਬ	-11.5481
▁ਫੋਟ੍ਠਬ੍ਬੇ	-11.5481
▁ਅਧਿਪ੍ਪਾਯਂ	-11.5482
▁ਪੀਠਂ	-11.5483
ਿਕਾਲਭੋਜਨ	-11.5484
▁ਨਿਦ੍ਧਾਰਿਤ	-11.5485
▁ਸਿਮ੍ਹਿ	-11.5485
ੇਕਲ੍ਲ	-11.5487
▁ਅਙ੍ਗੁਲ	-11.5488
ੇਣਿ	-11.5489
▁ਆਦੀਸੁ	-11.549
▁ਮੇਘਿਯ	-11.5494
▁ਸਮੂਹੋ	-11.5496
▁ਅਰਿਯਮਗ੍ਗੇਨ	-11.5496
ਨ੍ਦ੍ਰਿਯ	-11.55
▁ਅਨੁਪ੍ਪਾਦ	-11.5501
▁ਸੁਤ੍ਤਪਦ	-11.5502
ਾਧੀਨ	-11.5503
▁ਕੁਦ੍ਧੋ	-11.5503
ਞ੍ਚਿਦਂ	-11.5504
ੇਨ੍ਤਾ	-11.5505
ਪੁਙ੍ਗ	-11.5506
▁ਸਮ੍ਮਪ੍ਪਧਾਨਾ	-11.5508
▁ਪਤਿਟ੍ਠਾਸਿ	-11.5508
ਾਬਾਧ	-11.5508
▁ਮੋਘਪੁਰਿਸ	-11.5508
▁ਨਿਰਨੁਸਯੋਤਿ	-11.5509
ਸਰੋ	-11.551
▁ਹੇਤ	-11.5512
▁ਕਪ੍ਪਤੀ	-11.5512
ਸਮਾਨੋ	-11.5513
▁ਦੇਸੇਯ੍ਯ	-11.5517
ੇਯ੍ਯਨ੍ਤਿ	-11.5517
▁ਅਪਚ੍ਚਂ	-11.5518
ਿਸਜ੍ਜ	-11.5521
▁ਪਣ੍ਣਾਸ	-11.5521
▁ਪੀਣ	-11.5523
▁ਭੁਞ੍ਜਨ੍ਤਸ੍ਸ	-11.5523
▁ਏਦਿਸੋ	-11.5523
ਸਰਾ	-11.5525
▁ਅਰਿਟ੍ਠ	-11.5526
▁ਯਾਪੇਤਿ	-11.5527
ਿਞ੍ਚ	-11.5528
▁ਸਮਾਦਿਯਿ	-11.5528
ਕਰੁਣਾ	-11.5529
ਬਾਹ	-11.5529
ਪੁਤ੍ਤਸ੍ਸ	-11.553
▁ਉਮ੍ਮਾਦ	-11.553
▁ਅਙ੍ਕੁਰ	-11.553
▁ਧਾਰੇਨ੍ਤ	-11.553
ਸਦਿਸਾਨਿ	-11.5531
▁ਮੇਘੋ	-11.5531
▁ਅਸੋਕ	-11.5533
ਗਯ੍ਹ	-11.5534
▁ਅਹਞ੍ਹਿ	-11.5535
▁ਸੇਖਿਯ	-11.5536
▁ਏਕਾਦਸਮਂ	-11.5536
▁ਦਣ੍ਡੋ	-11.5536
▁ਅਭਿਰੁਹ	-11.5538
ਿਜਹਨ	-11.5539
ਕੋਟ੍ਠਾਸੇ	-11.5539
▁ਪੁਰਕ੍ਖਤੋ	-11.5542
▁ਨਿਦ੍ਦਿਸ	-11.5542
▁ਚਲਨ	-11.5544
▁ਰਜ੍ਜੇ	-11.5545
▁ਅਸਨ੍ਤਂ	-11.5545
ਾਭਿਮੁਖੋ	-11.5545
▁ਸਨ੍ਦਸ੍ਸੇ	-11.5545
▁ਮਹਾਥੇਰੋ	-11.5546
▁ਪਤ੍ਥੇਤਿ	-11.5547
▁ਚਾਤੁਮਹਾਰਾਜਿਕ	-11.5548
▁ਭਾਰਂ	-11.555
▁ਸਮਯਾ	-11.555
▁ਪਾਪੁਣਿਤ੍	-11.5553
▁ਗਮਿਸ੍ਸਾਮੀ	-11.5553
▁ਜਚ੍ਚਨ੍ਧ	-11.5554
▁ਪਰਿਕ੍ਖੀਣ	-11.5554
▁ਨਿਮੁਜ੍ਜ	-11.5554
ਇਮਾਨਿ	-11.5555
▁ਉਪਪਤ੍ਤਿਕ੍ਖਣੇ	-11.5556
▁ਛਕ੍ਕ	-11.5557
ਕਸਙ੍ਘੋ	-11.5557
▁ਅਧਮ੍ਮਂ	-11.5559
ਪਟਿਲਾਭੋ	-11.5559
▁ਉਪਗਤਾ	-11.556
ਿਨਾਸੋ	-11.5561
▁ਅਨੁਪਸ੍ਸਤਿ	-11.5562
▁ਠਾਨਨ੍ਤਿ	-11.5563
▁ਗਿਮ੍ਹ	-11.5564
ਿਹਰਨ੍ਤੀ	-11.5565
ਧਨੁ	-11.5566
▁ਸਮ੍ਪਰਿ	-11.5568
ਿਚਿਨਨ੍ਤੋ	-11.5571
▁ਚੇਤੋਪਰਿਯਞਾਣਸ੍ਸ	-11.5573
▁ਤਯੋਪਿ	-11.5576
▁ਅਦਿਨ੍ਨ	-11.5576
ਾਟਂ	-11.5576
▁੨੬੫	-11.5576
ਤ੍ਥੂਤਿ	-11.5577
▁ਨਰਾਸਭੋ	-11.5578
▁ਠਪੇਨ੍ਤੋ	-11.5581
▁ਯੇਭੁਯ੍ਯ	-11.5581
ਇਚ੍ਛ	-11.5581
ਾਦੀਸੂਤਿ	-11.5582
ਯਾਯ	-11.5582
▁ਨਿਸ੍ਸਾਰ	-11.5585
ੁਨਾ	-11.5586
ਧਿਪ੍ਪੇਤ	-11.5588
▁ਉਪਧਾਰੇ	-11.5588
ਿਸੁਦ੍ਧਿਮਗ੍ਗ	-11.5588
▁ਪਟਿਪਜ੍ਜਿ	-11.5589
▁ਤਤ੍ਤਕਂ	-11.5589
▁ਧਾਰੇਤਬ੍ਬ	-11.559
▁ਪਸ੍ਸਤਾ	-11.5591
ਤਰਿ	-11.5593
ਚੂਲ਼	-11.5593
▁ਸਞ੍ਜਾਨਨ	-11.5595
ਮ੍ਹਸੇ	-11.5596
▁ਅਨਿਦਸ੍ਸਨੋ	-11.5596
▁ਦੀਪਯ	-11.5598
▁ਥੋਮੇ	-11.5598
ਾਨੁਸਾਰ	-11.5598
ਲਙ੍ਕਰਿਤ੍	-11.5598
▁ਉਪਪਨ੍ਨਾ	-11.5598
▁ਦਾਨਾਦਿ	-11.5601
▁ਓਕ੍ਕਮਤਿ	-11.5602
▁੨੬੩	-11.5603
ਗਿ	-11.5603
ਅਯ	-11.5605
▁ਸਮੁਦਾਚਰ	-11.5605
ਰਿਯੋ	-11.5605
ਅਭਿਕ੍ਕਨ੍ਤਂ	-11.5606
ਇਰਿਯਾਪਥ	-11.5609
ਿਯਮੇਤ੍	-11.5609
ਦਣ੍ਡੋ	-11.561
▁ਮਾਤੁਯਾ	-11.5612
▁ਤਾਲ਼	-11.5613
ਾਤਿਕ੍ਕਮੇ	-11.5614
▁ਸਲਕ੍ਖਣ	-11.5615
ਸਮ੍ਪਯੋਗ	-11.5615
ਸਿਕਾ	-11.5615
ਟੀਕਾਯਂ	-11.5617
▁ਬਹੁਤਰਂ	-11.5617
ਾਰੇਤੁਂ	-11.5619
ਜਾਤਿਯਾ	-11.5622
▁ਤਾਦਿਸਾ	-11.5623
▁ਬ੍ਯਾਪਾਰ	-11.5624
▁ਨੇਸੋਹਮਸ੍ਮਿ	-11.5625
▁ਸਬ੍ਬਨਾਮ	-11.5625
▁ਚੇਤਨਾਪਣਿਧੀਹਿ	-11.5625
▁ਦੁਕ੍ਖਸ੍ਸਨ੍ਤਕਰੋ	-11.5626
ਾਸਸ੍ਸ	-11.5627
▁ਕਤਿਪਯ	-11.5627
▁ਸੀਲਾਦਿ	-11.5627
▁ਸਾਤਰੂਪਂ	-11.5628
ਾਲ਼ਮਿਗ	-11.5629
ਸਮ੍ਮਤਂ	-11.5629
▁ਮਾਤਿਕਂ	-11.5629
▁ਪਰਮ੍ਪਰ	-11.563
ਸਾਰਂ	-11.563
▁ਨਿਗਮੇ	-11.5631
▁ਅਕਾਰਣ	-11.5631
▁ਕਨਕ	-11.5631
ਭਾਣੀ	-11.5633
ਾਦੀਨੀਤਿ	-11.5633
▁ਕੁਤੋਚਿ	-11.5633
▁ਅਪ੍ਪਿਯੋ	-11.5634
ਇਧੇ	-11.5636
▁ਸਭਿਕ੍ਖੁਕੋ	-11.5641
▁ਕਥਿਨੇ	-11.5641
▁ਅਨੇਕਸਤ	-11.5643
▁ਨਿਚ੍ਛਯ	-11.5646
▁ਇਚ੍ਛਾਮਿ	-11.5646
▁ਤਬ੍ਭਾ	-11.5647
ਤ੍ਤਿਯ	-11.5648
▁ਮੋ	-11.5649
ਪਟਿਪਤ੍ਤਿਯਾ	-11.5649
▁ਮਹਾਯਸ	-11.565
▁ਪਰਿਤ੍ਤਾਰਮ੍ਮਣਂ	-11.5651
▁ਪਟਿਨਿਸ੍ਸਗ੍ਗ	-11.5656
▁ਸਂਖਿਤ੍ਤ	-11.5657
▁ਗੋਤਮੀ	-11.5657
▁ਮਹਤ੍ਤ	-11.5658
▁ਆਗਤਨਯੇਨ	-11.5659
ਪਿਟ੍ਠ	-11.566
ਪੁਗ੍ਗਲਂ	-11.566
▁ਕੋਧਨੋ	-11.5661
▁ਇਦਮੇਤ	-11.5662
ੁਪਾਯ	-11.5662
ਪਚ੍ਚਯੇਨ	-11.5662
▁ਇਤਰੀਤਰ	-11.5663
▁ਖੇਤ੍ਤੇ	-11.5664
ਅਤਿ	-11.5665
▁ਸਾਰਿਪੁਤ੍ਤਂ	-11.5667
ਭਿਞ੍ਞਾ	-11.5667
▁ਦੀਪਙ੍ਕਰ	-11.5668
▁ਨਿਯ੍ਯ	-11.5669
▁ਅਨੁਪ੍ਪਨ੍ਨਾਨਂ	-11.5669
ਕਤ੍ਤ	-11.5669
ਿਨਿਯੋ	-11.5671
ਸਨ੍ਤੇ	-11.5672
▁ਪੁਥ	-11.5677
ਬਿਮ੍ਬ	-11.5677
ਭਾਗਂ	-11.5678
ਅਭ	-11.5679
▁ਪੁਬ੍ਬਸ੍ਸ	-11.5679
ਕਿਰਿਯਂ	-11.5679
▁ਸੁਖੋ	-11.568
▁ਉਪਕ੍ਕਿਲੇਸ	-11.568
ਪੂਜਾ	-11.5681
▁ਦੁਬ੍ਭਾਸਿਤ	-11.5682
ਪੇਯ੍ਯਾਲ	-11.5683
▁ਬ੍ਯਾਕਰਣ	-11.5687
▁ਭੁਞ੍ਜਿਤਬ੍ਬਂ	-11.5688
▁ਆਰੋਪਿਤ	-11.5688
ਪ੍ਯਤ੍ਰ	-11.5689
▁ਸਮੋਧਾਨ	-11.569
▁ਸਾਧੂ	-11.5691
ਨ੍ਦਿਯੋ	-11.5694
ਤਿਆਦੀਨਂ	-11.5696
▁ਅਨ੍ਨਂ	-11.5699
ਦਾਯਕਂ	-11.57
ਆਰਾਮ	-11.5701
▁ਪਞ੍ਚਹਾਕਾਰੇਹਿ	-11.5702
▁ਪਸ੍ਸਸਿਸ੍ਸਾਮੀ	-11.5703
▁ਮਤੇ	-11.5704
▁ਸਾਤਿਸਯ	-11.5705
ਿਞ੍ਞਾਯਤੀਤਿ	-11.5706
ਹਰਿ	-11.5708
▁ਸਾਤ੍ਥਿਕਾ	-11.5709
ਪਰਿਯਾਯੇਨ	-11.571
▁੨੪੬	-11.5711
▁ਅਤ	-11.5711
▁ਸੁਰਾਮੇਰਯਮਜ੍ਜ	-11.5712
ਾਧਿਟ੍ਠਾਨਂ	-11.5712
▁ਫਰਤਿ	-11.5712
▁ਠਾਨਸੋ	-11.5713
▁੨੪੫	-11.5714
▁ਰੁਚ੍ਚ	-11.5714
▁ਓਸਾਰਣ	-11.5715
▁ਉਚ੍ਛਿਜ੍ਜ	-11.5715
▁ਰੁਹਤਿ	-11.5718
ਸੁਖਦੁਕ੍ਖ	-11.5718
▁ਕਟਿ	-11.5719
ੋਭਾਸ	-11.5719
ਸਂਯੁਤ੍ਤੇ	-11.5721
▁ਚਿਨ੍ਤਿਤ	-11.5721
▁ਉਪਸਂਹਰਤਿ	-11.5723
ਿਪਤ੍ਤਿਂ	-11.5725
▁ਸਕ੍ਕਤ੍	-11.5725
ਮਤ੍ਤਿਕ	-11.5726
▁ਸਮਥਾ	-11.5727
▁ਤਿਟ੍ਠਤੁ	-11.5728
ਭਯਾ	-11.5728
ਮਾਨਸਾ	-11.5731
▁ਅਕੋ	-11.5732
▁ਗਣਭੋਜਨ	-11.5734
▁ਕਤਮੇਸਂ	-11.5736
ਤਣ੍ਹਾਯ	-11.5739
ਤ੍ਥੀਤਿ	-11.5739
▁ਸ੍ਮਾ	-11.574
ਤਿਟ੍ਠ	-11.574
▁ਪੁਣ੍ਡਰੀਕ	-11.5743
▁ਪਸਂਸਾ	-11.5745
ਾਸਟ੍ਠਾਨ	-11.5746
▁ਅਲ੍ਲੀਯ	-11.5746
▁ਅਰਕ੍ਖਿਤ	-11.5748
ਹਿਂਸ	-11.5748
ਦਤ੍ਤੇਨ	-11.575
▁ਪੁਚ੍ਛਾਮ	-11.5751
▁ਰਥੋ	-11.5752
▁ਪਯੋਜੇ	-11.5752
ਿਪ੍ਪਯੋਗ	-11.5754
ਕ੍ਖਨ੍ਧੇ	-11.5756
▁ਸੁਪਿਨਂ	-11.5756
▁ਕਾਯਸਙ੍ਖਾਰ	-11.5756
▁ਮਾਰਿਸਾ	-11.5759
▁ਪਾਣਿਨਾ	-11.576
ਜਨਾ	-11.5761
ਸਮੁਦਾਚਾਰ	-11.5763
ਪਰਮਂ	-11.5763
▁੨੫੬	-11.5764
▁ਨਙ੍ਗਲ	-11.5764
▁ਬ੍ਯਾਕਰੋ	-11.5765
▁ਉਮ੍ਮ	-11.5766
▁ਉਤ੍ਤਰੋ	-11.5766
▁ਸਪ੍ਪਟਿਘਂ	-11.5766
▁ਬਹੂਸੁ	-11.5767
▁ਖਨ੍ਧਾਦਿ	-11.5768
ਨ੍ਦੋ	-11.5769
ਅਮ੍ਬ	-11.5769
▁ਅਨਾਗਤਂਸਞਾਣਸ੍ਸ	-11.577
ਤਾਯੁਕਂ	-11.577
ੇਦਗੂ	-11.5771
ਪਾਤੋ	-11.5772
▁ਮਹਬ੍ਬਲਾ	-11.5773
ਨਕੋ	-11.5773
ਧੇਯ੍ਯ	-11.5774
▁ਭਦ੍ਦਨ੍ਤੇ	-11.5775
ਕਿਤ੍ਤਿ	-11.5775
▁ਪਕਤ	-11.5776
ਰੂਪੀ	-11.5778
▁ਨਹੇਤੁਪਚ੍ਚਯੋ	-11.5785
▁ਪਕ੍ਕਨ੍ਤ	-11.5786
▁ਮਚ੍ਛੇਰ	-11.5786
▁ਬਨ੍ਧਤਿ	-11.5787
ਮਿਚ੍ਚ	-11.5787
ਨਾਕਾਰੋ	-11.5787
▁ਅਨੁਸਨ੍ਧਿਂ	-11.5787
ਕੋਸ	-11.5788
▁ਕਾਮਗੁਣੇਸੁ	-11.5789
▁ਸਿਜ੍ਝਤਿ	-11.579
▁ਸੋਤਾਪਨ੍ਨਾ	-11.579
▁ਗਣ੍ਹਥ	-11.579
ਨਯਂ	-11.5791
ਦਿਨਾ	-11.5791
▁ਕਮਲ	-11.5792
▁ਓਤਰਤਿ	-11.5793
▁ਦੁਮ੍ਮੇਧ	-11.5794
ਕਹਂ	-11.5795
ੂਰ	-11.5795
▁ਉਚ੍ਛੇਦਦਿਟ੍ਠਿ	-11.5798
ੁਨ੍ਨ	-11.5798
▁ਬ੍ਯਞ੍ਜਨੇ	-11.5798
▁ਧੇਨੁ	-11.5799
▁ਜਨਾਨਂ	-11.5799
ਪਚ੍ਚਯਂ	-11.58
ਮਾਰੋ	-11.5802
▁ਸਮ੍ਪਹਂਸੇ	-11.5803
▁ਤਪ੍	-11.5803
▁ਸਙ੍ਖਾਰੁਪੇਕ੍ਖਾ	-11.5804
ਕੁਕ੍ਕੁਚ੍ਚ	-11.5805
▁ਦੁਪ੍ਪਞ੍ਞ	-11.5806
ੋਦਾਨਸ੍ਸ	-11.5807
ਪੁਰਿਸਾ	-11.5807
ਿਸਤ੍ਤਿਕਾ	-11.5807
ਮਙ੍ਗ	-11.5809
ਫਲਾਨਿ	-11.581
▁ਸੁਕਤਂ	-11.581
▁ਬ੍ਰੂ	-11.581
ਕਤਰ	-11.5811
▁ਕਿਮਤ੍ਥ	-11.5813
▁ਇਚ੍ਛਾਯ	-11.5813
▁ਆਪਾਯਿਕ	-11.5815
ੇਦੇ	-11.5815
ਿਞ੍ਞਾਣਞ੍ਚ	-11.5815
ਣੇਯ੍ਯ	-11.5816
ਿਸੇਸੋਤਿ	-11.5818
▁ਹਤਾ	-11.5819
ਜਾਨਿ	-11.582
ਨਲਕ੍ਖਣਾ	-11.5821
ਜ੍ਝਂ	-11.5824
ਬੋਧੋ	-11.5825
▁ਸਪ੍ਪਾਣਕ	-11.5826
ਜ੍ਜੇਤਿ	-11.5827
ਮ੍ਹੇ	-11.5827
ਪਰਿਭੋਗੇਨ	-11.5832
▁ਦਾਰਕੋ	-11.5836
▁ਤਚੋ	-11.5836
▁ਅਪ੍ਪਮਾਣਾ	-11.5837
ਕਾਰਿਨੋ	-11.5838
▁੨੬੪	-11.5838
ਾਦਿਕ	-11.584
▁ਅਪਣ੍ਣਕ	-11.5842
▁ਅਗ੍ਗਮਕ੍ਖਾਯਤਿ	-11.5843
▁ਲਮ੍ਬ	-11.5843
▁ਪਰਿਦੀਪਿਤ	-11.5843
▁ਅਸ੍ਸਾਦਞ੍ਚ	-11.5844
▁ਦਸ੍ਸਯ	-11.5844
▁ਬੁਦ੍ਧਾਨੁਸ੍ਸਤਿ	-11.5844
ਅਮ੍ਭੋ	-11.5845
▁ਅਸਮਾਹਿਤ	-11.5847
▁ਮਦ੍ਦਿਤ੍	-11.5847
▁ਸਾਰਮ੍ਮਣੋ	-11.5848
ਭੂਮਕ	-11.5849
ਮ੍ਬਰ	-11.5851
▁ਤਹਂ	-11.5852
ਅਜ੍ਝਤ੍ਤ	-11.5852
▁ਆਗਮਿਸ੍ਸਤਿ	-11.5853
▁ਅਲਤ੍ਥ	-11.5853
▁ਨਿਸੇਧ	-11.5853
ਕੋਸਲ੍ਲ	-11.5854
▁ਕੁਹਕ	-11.5854
ਕੋਸਲ੍ਲਂ	-11.5854
ਿਜ੍ਝਿ	-11.5855
▁ਯਥਾਸਕਂ	-11.5857
▁ਆਦਿਕਮ੍ਮਿਕ	-11.5858
ਤ੍ਥੀ	-11.5858
ਚੋਲ਼	-11.586
▁ਸਬ੍ਬਸ੍ਮਿਂ	-11.586
▁ਅਨੁਮੋਦਨ	-11.5861
ਟ੍ਟਾ	-11.5861
▁ਸਮਿਞ੍ਜਿਤ	-11.5862
▁ਅਨਿਦਸ੍ਸਨਂ	-11.5863
▁ਮਯੂਰ	-11.5863
ਧਿਪ੍ਪਾਯ	-11.5865
▁ਗਹਿਤਾਨਿ	-11.5865
▁ਪਕਾਸੇਤਿ	-11.5872
▁ਅਚਰਿ	-11.5873
▁ਤਣ੍ਹਾਪਚ੍ਚਯਾ	-11.5873
ਮਣ੍ਡਲੇ	-11.5874
▁ਸਨ੍ਨਿਪਤਨ੍ਤਿ	-11.5876
▁ਪਨੇਤੇ	-11.5878
ੀਯਿਤ੍ਥਾਤਿ	-11.588
▁ਏਕਾਦਸਹਿ	-11.5884
▁੨੬੯	-11.5884
▁ਪੁਰਿਮਾਨਿ	-11.5885
ਿਕਪ੍ਪਨ	-11.5886
ਸਾਰੋ	-11.5887
▁ਦੁਕ੍ਖਨਿਰੋਧਗਾਮਿਨ	-11.5888
ਬੋਧਿਸਤ੍ਤ	-11.5888
ਦਤ੍ਤਂ	-11.5889
▁ਉਪ੍ਪਜ੍ਜਨਤੋ	-11.5891
▁ਧਾਰ	-11.5893
ਮਸ੍ਸੁ	-11.5893
▁ਸਚਿਤ੍ਤਕਂ	-11.5893
▁ਪਾਲ	-11.5894
ਮਾਰਬ੍ਭ	-11.5897
▁ਨੇਕ੍ਖਮ੍ਮਂ	-11.5898
▁ਨਯੋਤਿ	-11.5899
▁ਸਬ੍ਭਿ	-11.5902
▁ਪਰਿਸ੍ਸਾ	-11.5906
▁ਪਞ੍ਞਾਬਲਂ	-11.5908
▁ਮਰਣਧਮ੍ਮ	-11.5908
▁ਏਕਤ੍ਤਂ	-11.5908
▁ਪਚ੍ਛਿਮਚਿਤ੍ਤ	-11.5909
▁ਸਾਮਞ੍ਞਂ	-11.591
ਪਰਿਕ੍ਖੇਪ	-11.5911
ਾਯਤਨਂ	-11.5912
▁ਪਾਰਮਿਂ	-11.5914
▁ਮਨ੍ਤਿ	-11.5914
▁੨੮੦	-11.5914
ਨਿਬ੍ਬਤ੍ਤਕ	-11.5914
▁ਤਨੁਕ	-11.5915
ਸਂਹਿਤ	-11.5916
▁ਧਤਰਟ੍ਠ	-11.5916
▁ਪੁਰਕ੍ਖਤ੍	-11.5917
▁੨੫੮	-11.5918
▁ਪਪਤ	-11.5918
ਪਤ੍ਥਨਾ	-11.5919
▁ਅਦੋਸ	-11.5919
ਕਿਞ੍ਚ	-11.5919
▁ਪਮੁਞ੍ਚ	-11.5921
▁ਅਭਾਸਥ	-11.5921
▁ਪਚ੍ਚੁਪ੍ਪਨ੍ਨਾ	-11.5922
▁ਕਮ੍ਪਤਿ	-11.5922
ਸੁਖਾ	-11.5924
▁ਅਬ੍ਭਾ	-11.5925
▁ਸਙ੍ਖਿਪ	-11.5926
ਕਮ	-11.5928
ਜ੍ਜੁ	-11.593
▁ਅਧਿਟ੍ਠਾਤਿ	-11.593
▁੨੬੭	-11.5933
ਤਰਣ	-11.5935
ਗੋਚਰਂ	-11.5935
▁ਗਚ੍ਛੇ	-11.5938
▁ਮੁਚ੍ਚਿ	-11.5939
▁ਪਤਨ੍ਤਿ	-11.5942
▁ਅਭਿਰੁਹਿ	-11.5942
▁ਕਾਮੂਪਸਂਹਿਤਾ	-11.5942
ਯੀਤਿ	-11.5943
ਮੇਤਨ੍ਤਿ	-11.5945
▁ਉਦਪਾਦੀਤਿ	-11.5946
ਾਪੇਨ੍ਤਸ੍ਸ	-11.5949
▁ਰਮਤਿ	-11.595
ਰਜਨ	-11.5951
▁ਰਾਗਾਦਯੋ	-11.5952
ਟਕ	-11.5952
▁ਜਰਾਮਰਣਸ੍ਸ	-11.5953
ਨਿਰਯ	-11.5953
▁ਪਲਾਸ	-11.5954
ਸ੍ਸਨ੍ਤੀ	-11.5954
▁ਦਸਮੋ	-11.5956
▁ਸੁਞ੍ਞਾ	-11.5956
▁ਅਰਿਯਮਗ੍ਗਂ	-11.5958
▁ਏਕਾਹਪ੍ਪਟਿਚ੍ਛਨ੍ਨ	-11.5959
▁ਬ੍ਯਾਕਰ	-11.5962
▁ਗਤ੍ਤ	-11.5963
ਗਰੁਕ	-11.5964
ਾਭਿਸਮਯ	-11.5966
ਰੂਪੇਸੁ	-11.5967
▁ਦਸਧਾ	-11.5968
▁ਅਪਾਯੇਸੁ	-11.5974
▁ਪਞ੍ਹਸ੍ਸ	-11.5975
▁੨੪੭	-11.5976
▁ਰਜਨੀਯਾ	-11.5976
ਬਾਲ	-11.5978
▁ਪਟਿਞ੍ਞਾਯ	-11.5978
▁ਅਨੁਮੋਦਿਤ੍	-11.598
▁ਏਤਦਗ੍ਗੇ	-11.5981
ਸਯਂ	-11.5984
▁ਅਚ੍ਚਯ	-11.5984
ਾਥੇਰੀਗਾਥਾ	-11.5985
ਸਸ੍ਸਤੋ	-11.5986
▁ਅਭਿਸ	-11.5988
ੁਪੋਸਥ	-11.5989
ਸਰੀਰਂ	-11.599
▁ਸਾਯਨ੍ਹਸਮਯਂ	-11.599
▁ਮਹਬ੍ਭਯ	-11.599
▁ਨਾਨੁਸੇਤੀਤਿ	-11.599
▁ਸਣਿਕਂ	-11.5991
▁ਝਾਨਾਨਂ	-11.5992
▁ਸੀਹਲ਼	-11.5992
▁ਗਿਰ	-11.5994
▁ਜਾਨਿਤਬ੍ਬ	-11.5994
ਪਸ੍ਸੇ	-11.5995
▁ਪੀਤਿਸਹਗਤ	-11.5995
▁ਸਮਨ੍ਨਾਗਤ	-11.5996
▁ਆਗਮੇ	-11.5996
▁ਪਰਿਕ੍ਖਿਤ੍ਤ	-11.6
▁ਅਰਿਯੇਨ	-11.6
▁ਸੋਤਾਪਨ੍ਨਸ੍ਸ	-11.6002
ਪਾਲ਼ਿਯਾ	-11.6003
▁ਹਰਤਿ	-11.6004
▁ਸਾਰਮ੍ਭਂ	-11.6005
ੂਪਸਨ੍ਤਂ	-11.6006
▁ਅਪ੍ਪਿਚ੍ਛਾ	-11.6006
ਚ੍ਛਿਨ੍ਨੋ	-11.6006
ਚਤੁਰ	-11.6008
▁ਗਨ੍ਥਨਿਯ	-11.6011
▁੨੬੬	-11.6011
ਪਿਟ੍ਠੇ	-11.6012
ਸਦ੍ਧੋ	-11.6014
ਤੇਸਞ੍ਞੇ	-11.6016
ਉਦ੍ਧ	-11.6017
▁ਪਟਿਗ੍ਗਹੋ	-11.6017
▁ਤੇਪਿਟਕ	-11.6018
▁ਬ੍ਰਹ੍ਮਞ੍ਞ	-11.6019
▁ਸਮੁਚ੍ਚਯ	-11.6019
ਿਪਸ੍ਸ	-11.6021
ਿਮੁਤ੍ਤੀਤਿ	-11.6023
▁ਚਨ੍ਦਿਮਸੂਰਿਯਾ	-11.6024
ਦਤ੍ਥ	-11.6025
ਰਾਜਾਨਂ	-11.6026
▁ਮਦ੍ਦੀ	-11.6027
ਮੂਲਾ	-11.6027
ਿਪਾਕਤੋ	-11.6028
ਸਮੁਜ੍ਜਲ	-11.6029
ਸਮਨਨ੍ਤਰ	-11.6031
▁ਅਜਾਨਨ੍ਤ	-11.6033
▁ਜਨਤਾ	-11.6033
▁ਨੋਚਿਤ੍ਤਸਂਸਟ੍ਠ	-11.6036
ਨਕਂ	-11.6037
ਗੋਚਰੇ	-11.6041
▁ਅਨੁਪਰਿ	-11.6042
ਪਿਣ੍ਡਂ	-11.6043
ਿਨਾਭਾ	-11.6044
ਕਰਣਤ੍ਥਂ	-11.6044
ਿਰੁਦ੍ਧੋ	-11.6046
ਾਦੇਸੇ	-11.6047
▁ਆਗਤਾਨਿ	-11.6047
ਦਿਸੇਸੁ	-11.6052
ਉਪ੍ਪਾਦ	-11.6053
ਪਞ੍ਚਿਮਾਨਿ	-11.6053
▁ਕਲ੍ਯਾਣਮਿਤ੍ਤਤਾ	-11.6054
ੂਪਸਮਂ	-11.6055
▁ਕੁਕ੍ਕੁਰ	-11.6056
▁ਹਾਨਿ	-11.6056
▁ਨਿਦ੍ਦਂ	-11.6057
▁੨੬੨	-11.6057
ਤ੍ਯਾ	-11.6058
▁ਪੁਤ੍ਤਕ	-11.6058
▁ਰੂਪੇਸੁ	-11.6058
▁ਪਣ੍ਡਿਤਾਨਂ	-11.6059
▁ਨੇਰਯਿਕ	-11.6062
▁ਯਸਸ੍ਸਿ	-11.6063
▁ਸੁਖਸਹਗਤਾ	-11.6064
▁ਰਕ੍ਖਣ	-11.6066
▁ਨਿਗ੍ਗਤ	-11.6067
▁ਬ੍ਰਹ੍ਮਾਨਂ	-11.6067
▁ਅਨਨੁਞ੍ਞਾਤ	-11.6067
▁ਸੁਰਾਪਾਨ	-11.6068
▁ਨੁਪ੍ਪਜ੍ਜਿਤ੍ਥਾਤਿ	-11.6068
▁ਅਤ੍ਥੁਦ੍ਧਾਰ	-11.6068
▁ਭਾਜਨਂ	-11.6069
ਕਿਣ੍ਣਂ	-11.607
▁ਅਕੁਸਲੇਨ	-11.6071
ਸ੍ਮੀ	-11.6074
ਸਿਕ੍ਖਾ	-11.6075
▁ਨਾਸੇ	-11.6075
▁ਏਕੋਦਿਭ	-11.6078
▁ਮੋਹਞ੍ਚ	-11.6079
▁ਮਹਗ੍ਗਤਾ	-11.6079
▁੨੫੩	-11.6079
▁ਸਿਙ੍ਗ	-11.6082
ਸਮ੍ਮਤੋ	-11.6083
ਪਿਤੁ	-11.6085
ਭੇਰਿ	-11.6086
ਞਾਣਸ੍ਸ	-11.6087
▁ਚਤ੍ਤਾਰੋਪਿ	-11.6089
▁ਸੁਪੁਪ੍ਫਿਤ	-11.609
ਚ੍ਛਿ	-11.6092
ਧੂਪ	-11.6092
ੇਧਤਿ	-11.6092
▁ਞਾਤਕੇ	-11.6092
▁ਆਰਮ੍ਮਣਕਰਣ	-11.6093
▁ਇਚ੍ਚੇਤਂ	-11.6096
ਸਾਧਿਕ	-11.6099
ਿਭਤ੍ਤਿਯੋ	-11.6099
▁ਨਰਕ	-11.6099
▁ਕਾਰਯ	-11.6099
▁ਚੇਤਾਪੇ	-11.61
▁ਜਨੇਤੀਤਿ	-11.61
ਮਾਤਿਕ	-11.6101
ਸ੍ਸੁਤਾ	-11.6102
▁ਉਪਕ੍ਕਮਤਿ	-11.6103
▁ਪਦੇਸੁ	-11.6104
ਉਪਨਿਸ੍ਸਯ	-11.6105
▁ਬਾਰਾਣਸਿਂ	-11.6106
▁ਕੀਲ਼ਨ੍ਤਿ	-11.6108
▁ਸੂਦ	-11.6108
▁ਆਰੋਗ੍ਯ	-11.6109
▁ਸੁਚਿਣ੍ਣ	-11.611
ਪਰਾਜਿਤ	-11.6111
ਸਭੋ	-11.6112
▁ਨਿਸ੍ਸਟ੍ਠ	-11.6115
▁ਸਤਸਹਸ੍ਸਂ	-11.6115
▁ਭਣੇਯ੍ਯ	-11.6119
ਜਾਨਂ	-11.6121
▁੨੪੯	-11.6121
ਖਣ੍ਡਂ	-11.6122
▁ਉਗ੍ਘਾਟ	-11.6124
▁ਉਪਟ੍ਠਾਪੇ	-11.6124
ਸਿਸ੍ਸ	-11.6124
▁ਸੀਲਾਦਿਗੁਣ	-11.6124
▁ਬਹੂਪਕਾਰ	-11.6127
▁ਨਿਸ੍ਸ	-11.6128
▁ਅਨ੍ਤਰਧਾਯਤਿ	-11.6128
▁ਸੁਖਸਹਗਤੋ	-11.6129
ਲਙ੍ਕਾਰ	-11.6133
▁ਆਰਕ੍ਖਂ	-11.6133
ਚਸ੍ਸ	-11.6133
ਨਯੇ	-11.6134
▁ਅਤ੍ਥਙ੍ਗਤ	-11.6134
▁ਕਾਸਿਰਾਜ	-11.6136
▁ਗਮਿਸ੍ਸਨ੍ਤਿ	-11.6138
▁ਮਿਥਿਲ	-11.614
▁ਅਨਾਥਪਿਣ੍ਡਿਕੋ	-11.6141
▁ਦੁਸ੍ਸੀਲ੍ਯ	-11.6141
▁ਅਕਾਲੇ	-11.6141
▁ਪੋਰਿਸਾਦ	-11.6141
▁ਅਮ੍ਭੋ	-11.6141
▁ਦਾਯਾਦੋ	-11.6142
▁ਧਂਸ	-11.6142
ਲਾਭਾ	-11.6142
▁ਕੋਟ੍ਠ	-11.6143
▁ਕੋਸਮ੍ਬਿਯਂ	-11.6144
▁ਸਲਾਕਭਤ੍ਤ	-11.6145
▁ਅਗ੍ਗਹਿਤ	-11.6146
▁ਅਮਰਾ	-11.6147
ਹੇਤੁਭਾ	-11.6147
▁ਉਦਪਾਨ	-11.6148
▁ਨਿਪ੍ਫਾਦੇ	-11.6149
ਚਯ	-11.615
ਕਨਿਟ੍ਠ	-11.6152
▁ਅਙ੍ਗਪਚ੍ਚਙ੍ਗ	-11.6156
▁ਸਚ੍ਛਿਕਤਂ	-11.6157
ੀਮਂਸਤਿ	-11.6158
▁ਪਹੀਨੋਤਿ	-11.616
ਗੇਹੇ	-11.6161
ਸਮਾਸੋ	-11.6161
▁ਨਿਬ੍ਬਾਯ	-11.6161
▁ਸਰਦ	-11.6162
▁ਇਚ੍ਛਸਿ	-11.6162
▁ਅਸਮ੍ਮਿਸ੍ਸ	-11.6163
ਪ੍ਪਟਿਪਤ੍ਤਿ	-11.6164
▁ਪਲ੍ਲਙ੍ਕੇਨ	-11.6164
▁ਚਤੁਰਙ੍ਗ	-11.6164
ਪਰੇਤ	-11.6166
▁ਭਾਸਿਤਮ੍ਪੇਤਂ	-11.6168
▁ਮਾਸਾ	-11.6169
▁੨੫੯	-11.6171
ਨ੍ਤਤੋ	-11.6171
▁ਰੂਪਧਮ੍ਮ	-11.6171
ਿਨੇਤਿ	-11.6172
ੁਯ੍ਹ	-11.6172
ੁਗ੍ਗਤ	-11.6174
▁ਪਾਰਾਜਿਕੋ	-11.6175
ਤ੍ਤਿਆਕਾਰ	-11.6176
▁ਉਪ੍ਪਾਦੇਤਬ੍ਬ	-11.6177
▁ਤਦਪਿ	-11.618
▁ਸਮਾਹਿਤੇ	-11.6186
ਙ੍ਗਪਞ੍ਹੋ	-11.6187
ਮੁਖਾ	-11.6187
▁ਪਹਾਤਬ੍ਬਹੇਤੁਕਞ੍ਚ	-11.619
▁੨੫੧	-11.6191
▁ਤਤਿਯਜ੍ਝਾਨ	-11.6191
ਪਰਿਯਨ੍ਤਂ	-11.6193
▁ਉਦ੍ਦੇਸੋ	-11.6193
ਪਾਟਿਹਾਰਿਯ	-11.6194
▁ਅਨੁਞ੍ਞਾਤੋ	-11.6195
ਯੁਤ੍ਤੇਨ	-11.6196
੨੧	-11.6196
▁ਅਧਮ੍ਮਕਮ੍ਮੇ	-11.6197
ਾਧਿਪ੍ਪਾਯੋ	-11.6197
▁ਆਪਜ੍ਜਿਤਬ੍ਬ	-11.6199
▁ਸਮਾਨਤ੍ਥ	-11.6199
▁੨੫੭	-11.6201
ਣ੍ਣਿਤਂ	-11.6202
▁ਅਞ੍ਞਾਨਿ	-11.6203
▁ਸੀਤਲ	-11.6203
▁ਮਗ੍ਗਞਾਣ	-11.6204
▁ਆਯੁਪ੍ਪਮਾਣਂ	-11.6205
ਸਮ੍ਬਾਧ	-11.6205
ਯੁਤਂ	-11.6205
ਸਮਾਧੀ	-11.6206
▁ਦੀਪਿਤੋ	-11.6207
▁ਨਿਯਮੋ	-11.6207
ਸਨ੍ਧ	-11.6209
▁ਸਨ੍ਧ	-11.6209
ੀਰਿਯਬਲਂ	-11.621
▁ਸਚ੍ਛਿਕਾ	-11.6211
▁ਆਕਿਣ੍ਣ	-11.6211
ਾਰੇਪਿ	-11.6211
ਤ੍ਤਨਿਯ	-11.6213
▁ਸਮ੍ਮਤ੍ਤਨਿਯਤ	-11.6214
▁ਬਨ੍ਧਨੇ	-11.6215
ਇਟ੍ਠ	-11.6216
▁ਸੁਸ੍ਸੂਸ	-11.6216
▁ਅਗਿਲਾਨਸ੍ਸ	-11.6216
▁ਨਿਬ੍ਭਯ	-11.6217
ਗਤਿਕ	-11.6218
▁ਪੁਰਿਮੋ	-11.6218
▁ਜਰਂ	-11.6218
ਿਪਰਿਣਾਮਧਮ੍ਮਂ	-11.6218
▁ਜਹਾਤਿ	-11.6219
▁ਨਿਰੁਦ੍ਧੇ	-11.6219
▁ਪਟਿਹਞ੍ਞ	-11.6219
▁ਆਲੋਕਂ	-11.6223
▁ਚਿਤ੍ਤਸਹਭੂ	-11.6224
ਰਣਤੋ	-11.6226
-‘	-11.6226
ਰਣਞਾਣ	-11.6227
▁ਅਬ੍ਰ	-11.6231
▁ਸਾਮਞ੍ਞਫਲਾਨਿ	-11.6231
ਿਚਿਕਿਚ੍ਛ	-11.6232
▁ਸਮ੍ਮਤਾ	-11.6234
▁ਪਸਿਦ੍ਧ	-11.6234
▁ਆਭਾ	-11.6235
▁ਕੋਲ	-11.6237
▁ਕੁਜ੍ਝਿਤ੍	-11.6237
ਸਹਿਤਂ	-11.6238
▁ਸਾਰੋ	-11.6242
▁ਸਮਪ੍ਪ	-11.6242
ਪਚ੍ਚਯਭਾ	-11.6244
▁ਆਚਿਣ੍ਣ	-11.6245
ਸੇਟ੍ਠੋ	-11.6248
ਨਿਟ੍ਠਿਤ	-11.6249
ਦੁਕ੍ਖਸ੍ਸ	-11.6249
▁ਸਮੋਧਾਨਂ	-11.6251
▁ਤਦ੍ਧਿਤ	-11.6251
ੇਰੀ	-11.6252
▁ਸੂਚ	-11.6253
▁ਹਰਿ	-11.6254
▁ਨਿਪ੍ਪਰਿਯਾਯੇਨ	-11.6254
▁ਨਿਚ੍ਛਰ	-11.6255
▁ਦਾਯ	-11.6256
▁ਕਮ੍ਮਸ੍ਸਕਤ	-11.6257
ਸਰਿਕ੍ਖ	-11.6259
▁ਨਿਸ੍ਸਟ	-11.6262
ਸੇਯ੍ਯਂ	-11.6264
▁ਫਲਨ੍ਤਿ	-11.6264
ਸਾਮੀ	-11.6264
▁ਅਨ੍ਤਰਾਯੇ	-11.6266
ਪਰਿਸ੍ਸਯ	-11.6266
▁ਨਾਨਾਸਂ	-11.6268
▁ਭਦ੍ਦਿਯ	-11.6268
ਾਕਿਣ੍ਣ	-11.6268
ਕਪ੍ਪਨ	-11.6269
▁ਤਨ	-11.6271
▁ਸਪ	-11.6272
ਭਾਜਨੇ	-11.6272
▁ਓਭਾਸੇ	-11.6275
ਪਦੇਸੋ	-11.6276
▁ਕਿਲਮਤਿ	-11.6277
▁ਅਰਹਤ੍ਤਫਲਂ	-11.6279
ਿਜਿਤਾ	-11.6279
ਉਪੇਕ੍ਖਾ	-11.6279
ਿਧਾਪਿ	-11.6281
▁ਸ੍ਮਿਂ	-11.6282
▁ਸੁਮਨਾ	-11.6282
▁ਮੂਲ਼੍ਹੋ	-11.6283
▁ਸਬ੍ਬਕਿਲੇਸ	-11.6286
ਦਤੀ	-11.6286
ਸਮ੍ਪਾਦਨ	-11.6287
▁ਕੁਸਲਕਮ੍ਮ	-11.6289
ਪਣ੍ਡਕ	-11.6291
▁ਕਾਮਗੁਣੇ	-11.6292
▁ਞਾਤਂ	-11.6292
▁ਦੁਕ੍ਖਕ੍ਖਯਾਯ	-11.6292
▁ਅਨਤ੍ਥਸਂਹਿਤ	-11.6293
▁ਪਪ੍ਪੋਤਿ	-11.6293
ਕਤਿਚਿ	-11.6293
▁ਅਲਭਮਾਨ	-11.6293
▁ਇਮਮ੍ਹਾ	-11.6295
ਿਰੂਲ਼੍ਹਿਂ	-11.6296
▁ਪਾਣਾਤਿਪਾਤੀ	-11.6296
ਕਾਦਯੋ	-11.6297
ਸੇਲ	-11.6299
▁ਕਪਾਲ	-11.6299
▁ਅਙ੍ਗਣ	-11.63
▁ਸਮੀਪ	-11.6301
▁ਕਾਮਚ੍ਛਨ੍ਦ	-11.6301
▁ਸੁਤ੍ਤਨਿਪਾਤ	-11.6303
▁ਕਥੇਤਬ੍ਬਂ	-11.6304
▁ਧਮ੍ਮਚਕ੍ਕ	-11.6304
▁ਹੀਨਾਯਾ	-11.6305
ਮਨੁਸ੍ਸੇਹਿ	-11.6306
▁ਸਾਕਚ੍ਛ	-11.6307
▁ਮਨੋਰਥ	-11.6307
ਨਿਮ੍ਮਿਤ	-11.6307
▁ਰਾਜਾਪਿ	-11.6307
▁ਅਪਰਿਸੇਸ	-11.6308
ਅਮ੍ਮ	-11.6309
▁ਪਜਾਨਾਮਿ	-11.6313
ੇਦਯਤਿ	-11.6313
▁ਸੂਰੋ	-11.6313
ਿਪਕ੍ਕ	-11.632
▁ਪਰਿਪਾਕ	-11.6321
▁ਪਣ੍ਣਸਾਲ	-11.6321
▁ਚਰਿਤ	-11.6326
▁ਅਧਿਸੀਲ	-11.6327
ਾਹਨਂ	-11.6327
ੇਪੁਲ੍ਲ	-11.6328
ਚਰਜ੍ਝਾਨ	-11.6329
▁ਤਯਿ	-11.6329
ਆਪਤ੍ਤਿਂ	-11.6331
▁ਪਤ੍ਤੇਨ	-11.6332
▁ਮਹਾਲਿ	-11.6332
ਦਿਸਾਯ	-11.6332
ਚ੍ਛਿਦ੍ਦ	-11.6333
▁ਲੋਮਂ	-11.6334
▁ਅਹਿਰਿਕਂ	-11.6338
ਭੂਤਪੁਬ੍ਬਂ	-11.6339
▁ਪਰਿਸ੍ਸਯਾ	-11.6339
▁ਦਸਸਹਸ੍ਸੀ	-11.634
ਪਜ੍ਜੋਤ	-11.6343
ਚਾਗ	-11.6344
ਕਞ੍ਞਾ	-11.6345
ਪਾਦਿਨ੍ਨੁਪਾਦਾਨਿਯਂ	-11.6345
▁੨੫੨	-11.6345
ਿਨੀਤਾ	-11.6349
▁ਆਮਿਸਂ	-11.6349
ਰਾਜਿ	-11.6349
▁ਅਲਾਭ	-11.6351
▁ਤਾਰਕਾ	-11.6352
▁ਗਨ੍ਤੁਕਾਮੋ	-11.6354
▁ਸੇਮ੍ਹ	-11.6355
▁ਕੁਮਾਰਸ੍ਸ	-11.6357
ਨ੍ਤਾਨਿ	-11.6357
▁ਪੁਰਿਮੇਨ	-11.6359
▁ਤਤਿਯਸ੍ਸ	-11.6359
ੁਤ੍ਤਪ੍ਪਕਾਰਂ	-11.6361
▁੨੬੧	-11.6364
ਨਿਗ੍ਗਹ	-11.6365
▁ਕੁਟ੍ਟ	-11.6365
▁ਤਦਤ੍ਥਂ	-11.6365
▁ਫੁਲ੍ਲ	-11.6369
▁ਉਸੂਯ	-11.6369
▁ਜਾਤਸ੍ਸ	-11.637
ਅਹਮ੍ਪਿ	-11.637
ਨ੍ਤਰਾ	-11.637
▁ਅਪਰਨ੍ਤ	-11.6371
ਤਞ੍ਞੇ	-11.6371
ਮਾਨਾਨਂ	-11.6371
▁ਏਕਮੂਲਕ	-11.6372
▁ਪਾਪੁਣਿਂਸੁ	-11.6373
▁ਅਧਿਸੀਲਸਿਕ੍ਖਾ	-11.6373
▁ਅਜਾਨ	-11.6377
ਸਮ੍ਪਯੁਤ੍ਤਸ੍ਸ	-11.6379
▁੨੭੩	-11.638
▁ਖਿਲ	-11.6381
▁ਸਾਟਕ	-11.6382
ਬਾਧ	-11.6383
▁ਸੁਤੋ	-11.6384
▁ਸੁਖਸਹਗਤਂ	-11.6384
ਪੂ	-11.6384
▁ਬਿਮ੍ਬ	-11.6385
▁ਪਰਿਕ੍ਖੀਣਾ	-11.6386
▁ਅਧਿਚਿਤ੍ਤ	-11.6386
▁ਦੇਸੇਤੁਂ	-11.6386
▁ਅਪ੍ਪਮਤ੍ਤਕ	-11.6386
ਪਞ੍ਞਤ੍ਤਿਯਾ	-11.6387
ਾਕ੍ਯੇ	-11.6388
▁੨੫੫	-11.6389
▁ਧੁਤ੍ਤ	-11.6392
ਿਕੋਪ	-11.6393
ਦੂਰ	-11.6394
▁ਪਰਲੋਕਂ	-11.6394
▁ਰਾਗਾਦੀਨਂ	-11.6394
▁ਚਾਗੋ	-11.6399
ਨੁਕੂਲ	-11.64
▁ਆਦਿਯਤਿ	-11.6402
▁ਬ੍ਰਾਹ੍ਮਣਕੁਲੇ	-11.6403
▁ਬਾਹਂ	-11.6404
ਸਮਙ੍ਗਿਨੋ	-11.6405
▁ਅਣ੍ਡਜ	-11.6406
▁ਆਣਾਪੇਤਿ	-11.6407
ਸਙ੍ਖ੍ਯਾ	-11.641
ਅਤ੍ਥੇ	-11.641
ਭੂਤੇਹਿ	-11.6412
▁ਸੁਸਾਨ	-11.6413
▁ਚਲਿਤ	-11.6414
▁ਤਾਣ	-11.6416
▁ਨਿਸਜ੍ਜਂ	-11.6416
▁ਨਿਟ੍ਠਾਪੇ	-11.6416
▁ਚੇਸ	-11.6417
ਸਮਤਿਕ੍ਕਮ	-11.6417
▁ਸਮੁਪ੍ਪਨ੍ਨ	-11.6417
▁ਉਪਕ੍ਕਿਲੇਸੋ	-11.6418
▁ਉਯ੍ਯੋਜੇ	-11.642
▁ਦਸ੍ਸੇਤਬ੍ਬ	-11.6423
▁ਸੇਨਕ	-11.6423
ਗਚ੍ਛਥ	-11.6424
▁ਉਸ੍ਸਾਪੇ	-11.6425
▁ਅਚ੍ਛਰਿਯੋ	-11.6426
▁ਕਾਸ	-11.6427
▁ਧਮ੍ਮਕਮ੍ਮੇ	-11.6427
੍ਯਤੇ	-11.6428
ਾਚਸਿਕ	-11.643
ਜ੍ਜੇਸੁ	-11.6432
▁ਸਸਙ੍ਖਾਰ	-11.6433
▁ਮਙ੍ਗਲਂ	-11.6435
▁ਕਾਮਰਾਗੋ	-11.6436
ਕਾਯੇ	-11.6437
▁ਰਾਹੁਲੋ	-11.6438
ਨਤ੍ਥੋ	-11.6438
▁ਸਮ੍ਮਾਸਙ੍ਕਪ੍ਪ	-11.6438
ਛਿਦ੍ਦ	-11.6438
▁ਫਸ੍ਸਸ੍ਸ	-11.6439
▁ਕਾਲਸ੍ਸ	-11.644
ਞ੍ਞਮ੍ਪਿ	-11.6442
▁ਇਤਰਾਨਿ	-11.6442
ਿਭੂਸਨ	-11.6442
ਸਮ੍ਪਯੁਤ੍ਤਞ੍ਚ	-11.6442
▁ਉਪਗਚ੍ਛਤਿ	-11.6442
▁ਆਲਪਨ	-11.6444
ਾਮਿਸ	-11.6445
ਾਣਿਜ	-11.6445
▁ਆਰਮ੍ਮਣਸ੍ਸ	-11.6445
▁ਪੁਤ੍ਤੇਨ	-11.6446
▁ਅਪ੍ਪਟਿਨਿਸ੍ਸਗ੍ਗੇ	-11.6447
▁ਸਪ੍ਪਟਿਭਯ	-11.6447
ੁਧਂ	-11.6447
▁ਅਞ੍ਞਦਤ੍ਥੁ	-11.6447
▁ਸੋਣ੍ਡ	-11.6449
▁ਅਨੁਭੂਯ	-11.6451
ਿਤ੍ਥਿਯਾ	-11.6452
▁ਸੀਲਸਮ੍ਪਨ੍ਨ	-11.6453
ਿਧਮਨ	-11.6454
▁ਭਾਯਤਿ	-11.6454
▁ਮਗ੍ਗਙ੍ਗ	-11.6454
ਦਨ੍ਤੇਨ	-11.6455
▁ਪਣ੍ਡਿਤਂ	-11.6455
▁ਪਸਾਦਾਯ	-11.6456
ਿਚਿਨ੍ਤ	-11.6456
ਹਿਤਾਯ	-11.6456
▁ਧਮ੍ਮਚਾਰੀ	-11.6457
▁ਚਿਤ੍ਰ	-11.6457
▁ਅਨਾਗਾਮਿਫਲਂ	-11.6457
▁ਦੁਟ੍ਠੋ	-11.6457
ਿਸ੍ਸਰੇ	-11.6458
▁ਪਟਿਸਲ੍ਲਾਨ	-11.646
ਯੋਧ	-11.6461
▁ਸਕ੍ਖਰ	-11.6461
▁ਅਨੁਪਸਮ੍ਪਨ੍ਨ	-11.6461
▁ਜਨਪਦੋ	-11.6467
ਭਰਿਯਾ	-11.6467
▁ਯਞ੍ਞਂ	-11.6467
ਿਧਾਨਿ	-11.6468
▁ਮੇਦ	-11.6468
▁ਲੋਕਨਾਥ	-11.6473
▁ਮਹਾਪੁਰਿਸ	-11.6474
▁ਕਯਿਰ	-11.6474
ਾਭਿਮੁਖਂ	-11.6474
ਾਭਰਣ	-11.6474
▁ਦਹਤਿ	-11.6478
▁ਅਨਿਚ੍ਚਸਞ੍ਞਾ	-11.6478
▁ਸਂਕਿਲੇਸਿਕਾ	-11.6479
▁ਮਨੁਸ੍ਸਲੋਕ	-11.648
▁ਸਿਸ੍ਸਾ	-11.6481
ਕ੍ਲੇਸ	-11.6482
ਾਤਿਪਿ	-11.6485
▁ਪੁਟ੍ਠ	-11.6485
▁ਚਿਤ੍ਤਾਨਂ	-11.6486
▁ਨਿਟ੍ਠਿਤ	-11.6488
▁ਰੇਣੁ	-11.6489
▁ਗਿਜ੍ਝਕੂਟ	-11.6492
▁ਅਲੀਨ	-11.6494
▁ਦਿਟ੍ਠਾਨੁਸਯੇਨ	-11.6494
ਨਿਕ੍ਖਨ੍ਤ	-11.6496
▁ਸੁਜਾਤ	-11.6498
ਭੂਮ	-11.6501
▁ਪਦੁਮੁਤ੍ਤਰਸ੍ਸ	-11.6501
ਹਤ੍ਥਂ	-11.6503
▁ਚੁਦ੍ਦਸਮ	-11.6505
ਕੋਧ	-11.6505
ਪਲ੍ਲਙ੍ਕ	-11.6507
▁ਤੁਣ੍ਹੀਭੂਤ	-11.6507
▁ਧਮ੍ਮਨ੍ਤਿ	-11.6507
ਦੋਸਾ	-11.6511
▁ਅਚ੍ਚਨ੍ਤਂ	-11.6513
▁ਗਹੇਤਬ੍ਬੋਤਿ	-11.6513
ਮੇਤੇ	-11.6513
▁ਭਾਜੇ	-11.6515
▁ਅਸਞ੍ਞਸਤ੍ਤ	-11.6515
▁ਆਲਮ੍ਬ	-11.6515
▁ਪਜ੍ਜੋਤ	-11.6515
▁ਸਿਤਂ	-11.6516
▁ਪੁਤ੍ਤੇਹਿ	-11.6516
▁ਸਮੁਪ	-11.6516
▁ਮਦ੍ਦਿ	-11.6519
▁ਇਜ੍ਝਤਿ	-11.6519
ਖ੍ਯਾਤ	-11.652
ਸਹਸ੍ਸਾਨਂ	-11.6523
ਜਨਂ	-11.6523
ਇਤ੍ਥੀ	-11.6524
ਸਮਨ੍	-11.6524
▁ਅਨੁਪਸਮ੍ਪਨ੍ਨੇ	-11.6525
▁ਪਨਾਨਿਚ੍ਚਂ	-11.6525
▁ਸਮੁਤ੍ਤੇਜੇ	-11.6525
▁ਗਿਲਾਨੁਪਟ੍ਠਾਕ	-11.6525
▁ਪੁਕ੍ਕੁਸ	-11.6525
▁ਮਿਤ੍ਤਾਮਚ੍ਚ	-11.6525
▁ਪਯੁਤ੍ਤ	-11.6526
▁ਤਿਸ੍ਸਨ੍ਨਂ	-11.6526
▁ਸੋਤਧਾਤੁ	-11.6528
ਤ੍ਯਤ੍ਥੋ	-11.6528
▁ਭਰਿਯਂ	-11.6528
ਅਨ੍ਤੋ	-11.6529
▁ਤਣ੍ਹਕ੍ਖਯ	-11.6529
ਾਸਿਕਾਨਂ	-11.653
ਾਸਕਾ	-11.6531
▁ਪਟਿਕ੍ਕੋਸ	-11.6531
ਲੇਣ	-11.6532
▁ਸਣ੍ਠਹ	-11.6533
▁ਅਨੁਰਕ੍ਖ	-11.6536
▁ਸਰਭ	-11.6537
ਪਦੁਮੁਤ੍ਤਰੋ	-11.6537
ਣ੍ਣਾਨਂ	-11.6537
▁ਅਹੋਸਿਨ੍ਤਿ	-11.6537
▁ਤੇਮੇ	-11.6538
▁ਪਟਿਪੁਚ੍ਛਿ	-11.6539
▁ਮਨੋਹਰ	-11.6539
▁ਸਮ੍ਮੁਖ	-11.654
▁ਕ੍ਰਿਯ	-11.654
▁ਉਪਸਮ੍ਪਨ੍ਨਸ੍ਸ	-11.6543
▁ਉਪੇਤ	-11.6543
ਟੁਮ	-11.6546
▁੨੭੪	-11.6547
ਦਸ੍ਸਿਤ	-11.6547
▁ਚਕ੍ਖੁਸੋਤ	-11.6547
ਚਨਾਯ	-11.6548
ਿਸ੍ਸਜ੍ਜੇਸਿ	-11.6548
ਮਾਗਤਂ	-11.6551
▁ਥੋਮਨ	-11.6551
ਾਭਿਰਤ	-11.6552
▁੩੦੫	-11.6553
▁ਸਾਮਾ	-11.6553
▁ਕਲਂ	-11.6553
▁ਸਚ੍ਛਿਕਤ	-11.6555
▁ਰਚਿਤ	-11.6555
▁ਗਿਰਂ	-11.6555
ਾਣਿਜੋ	-11.6556
▁ਕਥਨਂ	-11.6556
▁ਇਤਰੇਨ	-11.6556
ਿਪਾਕਾਨਿ	-11.6557
ਿਭਾਗਾ	-11.6558
▁ਅਜ੍ਝਾਚਾਰ	-11.6562
▁ਉਪਾਦਿਨ੍ਨਂ	-11.6564
ਪੀਲ਼ਿਤ	-11.6565
▁ਉਪਾਸ	-11.6566
▁ਪਿਹ	-11.6566
▁ਅਨਾਗਤਮਦ੍ਧਾਨਂ	-11.6567
ਸਮਾਪਤ੍ਤਿਂ	-11.6567
▁ਅਭਿਧੇਯ੍ਯ	-11.6569
ਕਹਾਪਣ	-11.6572
ਰਂਸਿ	-11.6573
ਾਸਨ੍ਨ	-11.6574
ਿਹਿਤਾ	-11.6574
▁ਲਹੁਕਂ	-11.6576
▁ਧੁਨ	-11.6576
ਦੀਪਨਾ	-11.6578
ਿਤਕ੍ਖਯਂ	-11.6579
ਨ੍ਤਰਿਕ	-11.658
ਨਿਬ੍ਬੁਤ	-11.6581
ਤਾਦਯੋ	-11.6584
ਸਨ੍ਨਿਸ੍ਸਯ	-11.6587
ਪਞ੍ਞਂ	-11.6589
ਿਜਾਨਤ	-11.6592
ਕਤ੍ਤੁ	-11.6592
ਨਿਕ੍ਖੇਪ	-11.6593
ਪੂਜਂ	-11.6595
ਮਰਿਯ	-11.6597
▁੨੫੪	-11.6599
▁ਕਪ੍ਪਾਸ	-11.6601
▁ਚਤੁਤ੍ਥੀ	-11.6602
▁ਹਿਰੋਤ੍ਤਪ੍ਪ	-11.6603
ਸਞ੍ਞੀਨਾਸਞ੍ਞੀ	-11.6603
▁ਮਹਾਪੁਰਿਸਸ੍ਸ	-11.6603
▁ਮਾਤਾਪਿਤੂਹਿ	-11.6603
▁ਨਿਸ੍ਸਯਂ	-11.6604
ਿਸਟ	-11.6606
▁ਅਮਚ੍ਚੋ	-11.6608
ਗੋਚ੍ਛਕਂ	-11.6608
ਤੁਕਾਮਸ੍ਸ	-11.6609
▁ਭਣ੍ਡਨਕਾਰਕ	-11.6609
▁ਅਨੋਕਾਸ	-11.6609
▁ਨਿਦ੍ਦਿਸਤਿ	-11.6609
▁ਪਰਿਯੇਸਨ	-11.661
੍ਹਯ	-11.661
▁ਜਾਤਿਆਦਿ	-11.6611
▁ਅਪਰਿਮਾਣਾ	-11.6611
▁ਅਨੁਦ੍ਧਂਸੇ	-11.6614
ਪਦਾ	-11.6615
ਤਾਲ਼	-11.6616
▁ਸਯਨ੍ਤਿ	-11.6617
▁ਗਮਿ	-11.6617
ਨਿਸ੍ਸਯੇ	-11.6618
ਾਹੀਤਿ	-11.6619
▁ਆਯੁਸਙ੍ਖਾਰ	-11.6619
▁੨੭੦	-11.6619
▁ਦਹਰਾ	-11.6623
▁ਕਤਾਯ	-11.6624
ਆਗਮ	-11.6624
ੇਹਾਸ	-11.6624
ਣੁ	-11.6624
ਰਕਂ	-11.6625
▁ਮਹਪ੍ਫਲਾ	-11.6626
ਰਙ੍ਗ	-11.6628
▁ਗਣ੍ਠਿ	-11.6628
▁ਮਣ੍ਡਪ	-11.6628
▁ਧਾਤੁਸ੍ਸ	-11.6629
▁ਪਕ੍ਖਨ੍ਦਤਿ	-11.6633
▁ਅਪ੍ਪਹੀਨੋਤਿ	-11.6638
▁ਰਟ੍ਠੇ	-11.6639
▁ਦਟ੍ਠਬ੍ਬ	-11.6639
ਿਤ੍ਥਾਰਕਥਾ	-11.6639
▁ਹੇਤੁਮ੍ਹਿ	-11.664
▁ਫਰੁਸਂ	-11.664
▁ਧਮ੍ਮਦੇਸਨ	-11.6641
▁ਨਉਪੇਕ੍ਖਾਸਹਗਤ	-11.6642
ਾਦਿਕਸ੍ਸ	-11.6643
▁ਕਰਿਸ੍ਸਾਮੀਤਿ	-11.6644
▁ਏਕਚ੍ਚਾਨਂ	-11.6647
▁ਸਮ੍ਮਾਪਟਿਪਤ੍ਤਿ	-11.6647
ਸਾਲਂ	-11.6647
ਪਦੇਸੁ	-11.665
▁੨੬੦	-11.6653
▁ਸਞ੍ਞਤ	-11.6656
ੂਲ਼੍ਹ	-11.6656
▁ਅਨਿਸ੍ਸਿਤੋ	-11.6658
ਾਰਾਮੇ	-11.6659
▁ਅਨਾਰਮ੍ਮਣਂ	-11.6659
ਕਾਰਿਕਾ	-11.6661
▁ਸੋਤੁਂ	-11.6661
ੁਸ੍ਸਦ	-11.6662
▁ਪੁਣ੍ਣੋ	-11.6662
▁੩੦੩	-11.6663
ਦੁਕ੍ਕਟਂ	-11.6664
▁ਘਟ੍ਟਨ	-11.6665
ਅਧਿਪਤਿ	-11.6665
▁ਸਬ੍ਰਹ੍ਮਚਾਰੀ	-11.6666
▁ਪਹਰਿ	-11.6666
ਸਦਿਸਤਾ	-11.6668
▁ਬੁਦ੍ਧਾਨ	-11.6669
ਹਤ੍ਥੇਨ	-11.667
ਨਿਦਾਨਾ	-11.667
▁ਞਾਤੁਂ	-11.6672
▁ਪਟਿਪਨ੍ਨਸ੍ਸ	-11.6672
ਗਾਲ਼੍ਹ	-11.6672
ਲ਼ਾਰ	-11.6673
▁ਬਾਹੁਸਚ੍ਚ	-11.6676
ਚਨੇਸੁ	-11.6676
▁ਅਕੁਸਲਚਿਤ੍ਤ	-11.6677
ਜਯ	-11.6681
▁ਸਮੁਟ੍ਠਾਪੇਸੁਂ	-11.6683
▁ਪਹਾਤੁਂ	-11.6683
▁ਪਿਣ੍ਡਪਾਤਪਟਿਕ੍ਕ	-11.6683
ਇਧਾਹਂ	-11.6684
▁ਸਾਪੇਕ੍ਖ	-11.6684
▁ਅਧਿਗਚ੍ਛਤਿ	-11.6685
ਬ੍ਯਾਪਾਦ	-11.6686
ਪ੍ਪਭੇਦਂ	-11.6689
▁ਕਿਤ੍ਤਿਸਦ੍ਦੋ	-11.6691
ਅਜ੍ਝ	-11.6692
ੇਤਨ	-11.6692
▁ਉਪਾਦਾਨਪਚ੍ਚਯਾ	-11.6692
▁ਏਕਧਮ੍ਮਮ੍ਪਿ	-11.6692
▁ਦਿਸ੍ਸਮਾਨ	-11.6693
▁ਯਥਾਯੋਗਂ	-11.6693
ਿਹਰਨ੍ਤਂ	-11.6694
▁ਪਞ੍ਚਪਿ	-11.6695
▁ਦਕ੍ਖਿਣੇਨ	-11.6696
ਸਹਾਯੋ	-11.6696
▁ਤਿਚਿਤ੍ਤਂ	-11.6697
ਸਹਗਤਂ	-11.6697
ਸਮੂਹੋ	-11.6698
ਕਥਿਨ	-11.67
ਤ੍ਥੁਕਾਮ	-11.6701
▁ਉਕ੍ਕੁਟਿਕਂ	-11.6702
▁ਸਸ੍ਸਤਂ	-11.6703
▁ਥੇਯ੍ਯਚਿਤ੍ਤੇਨ	-11.6706
▁ਦੇਮਾ	-11.6707
▁ਇਦਮੇਤ੍ਥ	-11.6708
ਸਙ੍ਗਹੇਤ੍	-11.671
▁ਗਤਤ੍ਤਾ	-11.671
▁ਕਲ੍ਯਾਣਧਮ੍ਮ	-11.6711
▁ਅਪ੍ਪਕਾ	-11.6715
▁ਚਕ੍ਖੁਸ੍ਸ	-11.6717
▁ਅਕਾਰਨ੍ਤ	-11.6717
ਪਾਠੋ	-11.6717
ਨਿਕਨ੍ਤਿ	-11.6718
ਚਨਞ੍ਚ	-11.672
ਿਲੇਖ	-11.6721
▁ਕਿਤ੍ਤਕ	-11.6721
▁ਅਸ੍ਮੀਤਿ	-11.6723
▁ਸਂਕਿਲੇਸੋ	-11.6723
▁ਉਸੁ	-11.6724
▁ਫਲਾਫਲ	-11.6724
ਕੁਪ੍ਪ	-11.6724
▁ਨਿਰੋਧਸ੍ਸ	-11.6726
ਗਾਮਿਨੋ	-11.6726
ਮ੍ਪੇਤਂ	-11.6727
ਪ੍ਪਯੋਗੋ	-11.673
ਲ਼ੁ	-11.6732
ਿਪਚ੍ਚਤਿ	-11.6732
▁ਸਹਾਯਂ	-11.6733
▁੨੫੦	-11.6733
ਸਮ੍ਬੋਜ੍ਝਙ੍ਗਂ	-11.6734
▁ਨਿਸੇ	-11.6734
ਾਪਤ੍ਤਿਂ	-11.6735
ਠਾਨਂ	-11.6737
ਲੋਪੇ	-11.6737
▁ਸੁਕਤੇਨ	-11.6738
▁ਭੂਤੋ	-11.6738
ਕ੍ਖਨ੍ਧਾ	-11.6739
▁ਸਿਲੇਸ	-11.6741
ਾਨਞ੍ਚੇ	-11.6743
▁ਨਿਰੁਦ੍ਧਂ	-11.6744
▁ਦਾਤੁਕਾਮੋ	-11.6745
ਅਨਾਗਤ	-11.6745
ਕਿਮ	-11.6745
▁ਮਚ੍ਚੋ	-11.6745
ਪਰਿਚ੍ਛੇਦਂ	-11.675
ਸਦਿਸੇਨ	-11.675
ਰਞ੍ਞਾ	-11.6751
ਅਧਮ੍ਮ	-11.6751
ਹਿਤ੍	-11.6755
▁ਪਬ੍ਬ	-11.6756
ਦਹਨ	-11.6757
▁ਪਟੁ	-11.6758
▁ਇਦ੍ਧੀ	-11.6758
▁ਦੇਸੇਨ੍ਤਿ	-11.6761
▁ਬਹੁਲੀਕਤੋ	-11.6763
▁ਕਲਨ੍ਦਕ	-11.6763
▁ਨਿਰਯਪਾਲਾ	-11.6763
▁ਮਹਾਸਤ੍ਤਂ	-11.6764
▁ਚਰਿਤਂ	-11.6765
▁ਉਤ੍ਤਾਨਤ੍ਥਾਨ	-11.6766
▁ਉਪਪਨ੍ਨ	-11.6767
▁ਗੁਰੁ	-11.6767
▁ਤਦਹੇ	-11.6768
▁ਤਾਯਂ	-11.677
ਪਲਾਸ	-11.677
ੁਤ੍ਤਾਨੀਤਿ	-11.6771
▁ਨਾਗਂ	-11.6772
▁ਨਿਕ੍ਖਿਤ੍ਤਂ	-11.6772
▁ਅਦੁਕ੍ਖਮਸੁਖ	-11.6772
▁ਪਾਤਿਮੋਕ੍ਖੇ	-11.6774
▁ਹਸ੍ਸ	-11.6775
▁ਆਸਜ੍ਜ	-11.6775
▁ਅਦਸ੍ਸਨ	-11.6776
▁ਅਜ੍ਝਾਸਯਂ	-11.6777
▁ਫਾਲੇ	-11.6778
▁ਪਟਿਸਮ੍ਭਿਦਾਹਿ	-11.678
▁ਰੂਪਾਰੂਪਭ	-11.6783
ੋਦਕੇਨ	-11.6783
▁ਭਾਸਮਾਨ	-11.6783
ਿਦੇਹ	-11.6784
ਸਮਾਚਾਰੋ	-11.6784
▁ਜਾਯਮਾਨ	-11.6786
▁ਗਰੁਲ਼	-11.6787
▁ਅਦਿਨ੍ਨਾਦਾਨਂ	-11.6787
▁ਉਪ੍ਪਾਦਨ	-11.6788
ਿਧੋਪਿ	-11.6789
▁ਞਾਯਤਿ	-11.679
▁ਕਿਞ੍ਚੀ	-11.6791
ਕਟਾਹ	-11.6793
ਲੋਕੇਤ੍	-11.6794
▁ਅਨ੍ਧੋ	-11.6794
▁ਸਕ੍ਕੋਤੀਤਿ	-11.6794
ਪਕ੍ਖੋ	-11.6794
ਕੇਤਿ	-11.6796
ਾਦੀਨਿਪਿ	-11.6796
ਹਮਸ੍ਮੀ	-11.6797
▁ਸਮਾਹਿਤਂ	-11.6797
▁ਏਤ੍ਥਨ੍ਤਰੇ	-11.6798
▁ਮਹਲ੍ਲਕੋ	-11.6801
▁ਅਰਹਤ੍ਤਾ	-11.6801
ਜਨੇ	-11.6804
▁ਹੇਤੇ	-11.6804
▁ਤਿਦਿ	-11.6804
▁ਗਨ੍ਧੇ	-11.6807
▁ਨਾਟਕ	-11.6808
▁ਉਪਾਦਾਨਾ	-11.6808
▁ਅਸਮੋ	-11.681
▁ਸਙ੍ਘਾਦਿਸੇਸਂ	-11.6811
ਤ੍ਤਿਯੋ	-11.6811
▁ਅਨਾਮਸਿਤ	-11.6812
ਸਬ੍ਬਤ੍ਥ	-11.6812
ਨਾਭਿ	-11.6813
▁ਜਹਤਿ	-11.6813
ਿਸਦਿਸ	-11.6814
▁ਪਗ੍ਘਰ	-11.6815
▁ਮਤ੍ਤਂ	-11.6815
੫੦	-11.6815
▁ਮਮਾਯ	-11.6815
ੁਸ੍ਸਾਹ	-11.6819
▁ਬ੍ਰਾਹ੍ਮਣਮਹਾਸਾਲ	-11.6821
▁ਅਬ੍ਯਤ੍ਤ	-11.6823
ਪਦੇਸੇਨ	-11.6824
▁ਪਾਚਿਤ੍ਤਿਯਨ੍ਤਿ	-11.6826
ਕੁਣਪ	-11.6827
▁ਨੇਰਯਿਕੋ	-11.6829
▁ਦੁਲ੍ਲਭਾ	-11.6829
▁ਰਾਜਪੁਰਿਸ	-11.683
ਗਚ੍ਛਤਿ	-11.6831
▁ਕਪ੍ਪਿਯਕਾਰਕ	-11.6832
▁ਅਨਭਿਜ੍ਝਾ	-11.6834
ੇਥਾਤਿ	-11.6834
▁ਸਿਰ	-11.6834
ਕਦ੍ਦਮ	-11.6835
ਸਮ੍ਬੁਦ੍ਧ	-11.6838
▁ਸਨ੍ਥਤਂ	-11.6839
▁ਸਙ੍ਘਾਟਿਂ	-11.6839
▁ਸਮੁਦਯਞ੍ਚ	-11.6839
▁ਪਪਾਤ	-11.6842
▁ਯਨ੍ਤ	-11.6842
ਅਞ੍ਞਤ੍ਰ	-11.6842
▁ਅਭੂਤੇਨ	-11.6843
▁ਸਙ੍ਕਪ੍ਪੋ	-11.6843
▁ਨਾਮੁਪਟ੍ਠਾਕੋ	-11.6844
ਿਰਾਗਨਿਸ੍ਸਿਤਂ	-11.6845
ਿਞ੍ਞੁ	-11.6846
ੁਚ੍ਚਮਾਨਾ	-11.6846
▁ਤਤੁਤ੍ਤਰਿ	-11.6848
▁ਪਾਦਪ	-11.6848
▁ਚਿਤ੍ਤਸਮ੍ਪਯੁਤ੍ਤੋ	-11.6849
▁ਜੁਹ	-11.685
▁ਮਕ੍ਖਿਕਾ	-11.6851
▁ਦਸਕ	-11.6851
▁ਭਾਤੁ	-11.6852
▁ਸਕੇਨ	-11.6852
ਛਕ੍ਕ	-11.6853
ੇਯ੍ਯੁ	-11.6854
▁ਗਰੁਧਮ੍ਮ	-11.6855
ਭਿਕ੍ਖੁਨੀ	-11.6855
ਲਯਂ	-11.6856
▁ਪਹਿਣ	-11.6856
ਣਾਯ	-11.6856
ਕਾਯਸ੍ਸ	-11.6856
ਭੂਤਾਤਿ	-11.6857
ਹਿਤਂ	-11.6859
▁ਇਯ	-11.6859
▁ਨਾਯਤਨ	-11.686
▁ਤਸ	-11.686
▁ਮੋਗ੍ਗਲ੍ਲਾਨੋ	-11.6861
▁ਪੁਚ੍ਛਿਤਬ੍ਬ	-11.6862
▁ਪਾਪਧਮ੍ਮੋ	-11.6862
ਚਮ੍ਮਂ	-11.6862
ਮਿਦ	-11.6863
ਨਾਨਤ੍ਤਂ	-11.6863
▁੨੬੮	-11.6864
▁ਪਾਠਸੇਸੋ	-11.6867
▁ਬਹਿਦ੍ਧਾਰਮ੍ਮਣ	-11.6867
ਮਣ	-11.6868
▁ਪਞ੍ਞਾਚਕ੍ਖੁ	-11.687
ਿਚਯਸਮ੍ਬੋਜ੍ਝਙ੍ਗ	-11.687
ਤ੍ਤੀਨਂ	-11.687
▁ਦਾਨਾਦੀਨਿ	-11.6871
ਕ੍ਖਨ੍ਧਂ	-11.6871
ੇਯ੍ਯਾਕਰਣਂ	-11.6872
ਸਰੀਰੋ	-11.6872
▁ਸਮਸਮ	-11.6873
▁ਅਪਰਂ	-11.6873
▁ਚੁ	-11.6874
▁ਸਾਰਮ੍ਭ	-11.6874
▁ਦਿਸ੍ਸਤੀਤਿ	-11.6875
▁ਗੋਚਰਗਾਮ	-11.6875
ਪਟਿਲਾਭਂ	-11.6875
▁ਮਿਗਦਾਯੇ	-11.6875
ਗਹਨ	-11.6876
▁ਤੁਰਿਤ	-11.6878
▁ਦਣ੍ਡੀ	-11.6881
▁੨੭੯	-11.6883
▁ਣਿ	-11.6883
▁ਪਾਦਕਂ	-11.6885
ਿਸ੍ਸਜ੍ਜਨੇ	-11.6885
▁ਅਞ੍ਞਞ੍ਚ	-11.6886
▁ਪਾਪੇ	-11.6886
ਚਿਤਂ	-11.6887
▁ਪਸ੍ਸਦ੍ਧ	-11.6887
▁ਸੁਦ੍ਧਨ੍ਤ	-11.6887
▁ਸਿਤ	-11.6888
▁ਭਯਾਨਿ	-11.6889
ਪੁਚ੍ਛਨ	-11.6891
▁ਫਰੁਸਾ	-11.6893
▁ਲੋਪ	-11.6894
▁ਪਟਿਕ੍ਖਿਤ੍ਤਂ	-11.6895
▁ਪਾਦਤਲ	-11.6896
ਯੋਗਕ੍ਖੇਮ	-11.6897
▁ਬਾਹਿਰੋ	-11.6899
▁ਸਿਕ੍ਖਿਤ	-11.69
▁ਅਸਮਾਨ	-11.69
ਪ੍ਪਤਿਟ੍ਠ	-11.6902
ਟ੍ਠਿਤੋ	-11.6902
▁ਉਪ੍ਪਨ੍ਨੇਸੁ	-11.6903
ਾਯਤਨਾਨਿ	-11.6903
▁ਪਚ੍ਚਕ੍ਖਂ	-11.6905
▁ਭੋਤਾ	-11.6907
▁੨੭੬	-11.6907
ਾਰਿਤਂ	-11.6908
▁ਪਕਰਣੇ	-11.691
▁ਕਿਚ੍ਚਾਧਿਕਰਣ	-11.6911
▁ਕਿਰਿਯਾਬ੍ਯਾਕਤਂ	-11.6913
▁ਕਦਲਿ	-11.6914
ਿਭੂਸ	-11.6914
ਿਜ੍ਜੋ	-11.6914
ਭੂਮਿਕ	-11.6916
ਚਾਰਿਕਂ	-11.6916
▁ਇਚ੍ਛਿਤਬ੍ਬ	-11.6917
ਛਨ੍ਦੋ	-11.6918
ਯਨ੍ਤਂ	-11.6918
ਸੀਤ	-11.6919
ਸੇਹਿ	-11.692
▁ਅਸਪ੍ਪੁਰਿਸੋ	-11.6923
▁ਦੀਘਨਿਕਾਯ	-11.6923
▁ਸਰਾਗ	-11.6923
ਅਨੁਪ	-11.6923
▁ਆਰੋਹਪਰਿਣਾਹ	-11.6925
ਤੁਣ੍ਡ	-11.6925
▁ਯਮ੍ਪਿਦਂ	-11.6927
▁ਪਾਟਲਿਪੁਤ੍ਤ	-11.6927
▁ਬਹੁਲੀਕਰੋਤਿ	-11.6928
ਿਤ੍ਥਾਰੇਤਬ੍ਬਂ	-11.6928
▁ਗਬ੍ਭੇ	-11.6929
ਯੋਨਿਯਂ	-11.6929
▁ਕਰੀਯਤਿ	-11.6932
▁ਕੁਸੀਤੋ	-11.6932
ਨਾਲ਼	-11.6932
▁ਅਨਤਿਰਿਤ੍ਤ	-11.6932
▁ਅਮੁਤ੍ਰ	-11.6933
▁ਲਦ੍ਧੁਂ	-11.6933
ਪਹੀਨੋ	-11.6934
ਪ੍ਪਦੇਸੋ	-11.6934
ਚਰਦੇ	-11.6936
▁ਫੇਗ੍ਗੁ	-11.6937
▁ਕੂਪ	-11.6938
▁ਅਪ੍ਪਸਨ੍ਨਾਨਂ	-11.6939
ਾਰਾਨਿ	-11.6939
ਿਕਸਿਤ	-11.694
ਕਪ	-11.6941
ਪਦੇਸੇ	-11.6941
▁ਤਦੁਭਯਮ੍ਪਿ	-11.6942
▁ਜਾਨਿ	-11.6944
ਪਮਾਦਟ੍ਠਾਨਾ	-11.6945
▁ਅਙ੍ਗਜਾਤ	-11.6945
▁ਤਪਸ੍ਸੀ	-11.6945
ਪਰਿਯੁਟ੍ਠਾਨ	-11.6945
ਪਟਿਸਂਯੁਤ੍ਤੋ	-11.6947
▁ਦਿਬ੍ਬਸੋਤ	-11.6948
ਪੁਬ੍ਬਙ੍ਗਮ	-11.6948
▁ਪਰਿਹਾਯ	-11.6948
ਸਖ	-11.6949
ਮਾਗਤੋ	-11.6949
▁ਸਬ੍ਭਾ	-11.6951
ਞਤ੍ਤਿ	-11.6951
ਾਦਿਗੁਣ	-11.6951
ਾਦੇਤਿ	-11.6952
ਨਰਸਾ	-11.6953
▁ਕੁਞ੍ਜਰ	-11.6953
▁ਉਪਾਸਕਸ੍ਸ	-11.6953
ਾਨੁਸਨ੍ਧਿ	-11.6953
ਭਿਧੇਯ੍ਯ	-11.6954
ਪਰਕ੍ਕਮ	-11.6954
ੋਸਧ	-11.6954
▁ਕਤਿਕ	-11.6956
▁ਸਬ੍ਬਸਤ੍ਤ	-11.6958
ਿਤਞ੍ਚ	-11.6958
ਪਕ੍ਖਿਕ	-11.6958
ਿਲੇਪਨਂ	-11.6959
▁ਅਧਿਪਤਿਪਚ੍ਚਯੋ	-11.6961
▁ਅਨ੍ਧਕਾਰਂ	-11.6962
▁ਨਿਦਹ	-11.6962
ਭਗ੍ਗ	-11.6962
▁ਸਮ੍ਪੁਣ੍ਣ	-11.6964
▁ਅਨੁਪ੍ਪਤ੍ਤਿ	-11.6966
▁ਪੁਬ੍ਬਾ	-11.6966
▁ਕਿਰਿਯਤੋ	-11.6967
ਾਦਿਭੇਦੇ	-11.6967
▁ਪੀਤਿਸੋਮਨਸ੍ਸ	-11.6969
▁ਉਞ੍ਛ	-11.6969
▁ਉਪ੍ਪਤ੍ਤਿਯਾ	-11.697
▁ਗਣਨਾਯ	-11.6971
ਗਤਿਯਾ	-11.6972
▁ਜਨੇਤ੍	-11.6972
ਰਹੋ	-11.6973
ਅਡ੍	-11.6973
▁ਸਤ੍ਥੇਨ	-11.6975
ਚ੍ਛਦ	-11.6975
▁ਸਹਜਾਤਪਚ੍ਚਯਾ	-11.6979
▁ਮੁਚ੍ਚਤੀਤਿ	-11.6982
ਬੁਦ੍ਧਸ੍ਸ	-11.6982
▁ਭਾਗੇ	-11.6983
▁ਕਾਰਣਭਾ	-11.6985
▁ਭਾਤਰੋ	-11.6985
▁ਪਸ੍ਸੇਸੁ	-11.6986
▁ਮਹਿਨ੍ਦ	-11.699
▁ਲਕ੍ਖਣੇ	-11.6991
▁ਅਨ੍ਤਰਾਯ	-11.6991
▁ਅਨ੍ਤਰਾਭ	-11.6992
▁ਅਭਿਰਤਿ	-11.6992
ਦੋਸਂ	-11.6992
ਰੁਤ੍ਤਮ	-11.6993
▁ਅਸਞ੍ਞੀ	-11.6993
▁ਕਾਮੁਪਾਦਾਨ	-11.6996
ਿਮੁਤ੍ਤੋਤਿ	-11.6997
▁ਜਾਤਤ੍ਤਾ	-11.6998
ਪੇਯ੍ਯ	-11.7
ਦੇਹ	-11.7
ਿਕ੍ਕਮ	-11.7
▁ਏਥ	-11.7002
▁ਅਧੋਮੁਖ	-11.7002
ਸਮ੍ਪਦ	-11.7002
▁ਪਰਿਯਾਪਨ੍ਨਾ	-11.7002
▁ਸਮੁਦਯਂ	-11.7003
▁ਚਕ੍ਕਰਤਨ	-11.7004
ਰਤੀਤਿ	-11.7004
▁ਪੀਤਕ	-11.7004
▁ਬਹੁਲੀਕਤਤ੍ਤਾ	-11.7007
▁ਅਬ੍ਬੁਦ	-11.7007
ੀਸੁਪਿ	-11.7007
▁ਏਕਪ੍ਪਹਾਰੇਨ	-11.7007
▁ਉਦੁਮ੍ਬਰ	-11.7007
▁ਗਾਮਨਿਗਮ	-11.7007
▁ਹਤ੍ਥਪਾਸਂ	-11.7007
ਿਗਮੇਨ	-11.7008
▁ਰੋਪਿਤ	-11.7008
▁ਨਿਰੋਧਨਿਸ੍ਸਿਤਂ	-11.7008
ਿਨਿਪਾਤਧਮ੍ਮੋ	-11.7009
▁ਅਧਿਗਤਾ	-11.7009
▁ਬ੍ਰਹ੍ਮਜਾਲ	-11.7012
▁ਅਗਤਿਗਮਨ	-11.7012
▁ਮਾਗਧ	-11.7013
ਯੇਥ	-11.7013
▁ਕੀਦਿਸ	-11.7014
ੁਤ੍ਤਤ੍ਥਮ	-11.7015
▁ਮਹਾਪ	-11.7015
▁ਕਚ	-11.7016
▁ਰਟ੍ਠਾ	-11.7017
ਪ੍ਪਬਨ੍ਧ	-11.7019
▁ਪਞ੍ਚਸਿਖ	-11.7019
ਦਸ੍ਸਨੋ	-11.7019
▁ਸਮ੍ਪਤ੍ਤੋ	-11.702
▁ਕਿਞ੍ਚੀਤਿ	-11.702
▁ਮਣ੍ਡਨ	-11.702
ਹੇਯ੍ਯ	-11.7021
▁ਕਿਰਿਯਾਕਿਰਿਯ	-11.7022
ਪੀਠਂ	-11.7022
▁ਪਤ੍ਥਟ	-11.7022
▁ਅਨੁਰੂਪਂ	-11.7022
ਪਞ੍ਹਾ	-11.7023
ਪਾਪੁਣ	-11.7023
▁ਚਕ੍ਕਰਤਨਂ	-11.7024
▁ਸਿਦ੍ਧਤ੍ਥ	-11.7027
▁ਪਲਾਪ	-11.7027
▁ਅਰਹਤ੍ਤਮਗ੍ਗੋ	-11.7028
▁ਪੁਬ੍ਬਨ੍ਤ	-11.7028
▁੨੭੧	-11.703
▁ਅਨਾਦਿਯਿ	-11.7032
ਿਗਤਪਚ੍ਚਯੇਨ	-11.7034
ਸਙ੍ਖਾਰੋ	-11.7036
ਦਹਰ	-11.7038
▁ਪਭਾਸ	-11.7038
ਮੁਦੁ	-11.704
ਾਨਿਸਂਸੋ	-11.7042
▁ਅਟ੍ਠੁਪ੍ਪਤ੍ਤਿ	-11.7042
▁ਸਙ੍ਘਾਦਿਸੇਸੇਨ	-11.7042
▁ਪਾਦਾਸਿ	-11.7043
ਮਣ੍ਡ	-11.7043
▁ਮੁਤ੍ਤਿ	-11.7047
▁ਨਿਕ੍ਖੇਪ	-11.7047
▁ਆਭਰਣ	-11.7049
ਧਿਪਤੀ	-11.7049
ਸਮ੍ਪਨ੍ਨੇ	-11.7049
ੁਤ੍ਤਿਯਾ	-11.7051
▁ਉਪਨਿਸ੍ਸਯਪਚ੍ਚਯੋ	-11.7052
▁ਦੁਕ੍ਖਿਤ	-11.7052
▁ਅਨ੍ਤਰਧਾਯ	-11.7053
ਾਪਤ੍ਤਿਯੋ	-11.7055
▁ਨੀਚੇ	-11.7056
ਸੁਞ੍ਞਂ	-11.7056
▁ਸਮਨੁਭਾਸਨ	-11.7058
ੀਯਮਾਨੋ	-11.7059
▁ਆਦਿਚ੍ਚ	-11.7059
ਪੋਸ	-11.7059
ਸੇਕ੍ਖ	-11.7059
ਪਾਥ	-11.7059
▁ਸਙ੍ਗਤਿ	-11.7062
▁ਗਤਿਯੋ	-11.7062
ਿਪਦ	-11.7062
ਪਰਿਕਮ੍ਮਂ	-11.7063
▁ਨਿਬ੍ਬਾਨਾਰਮ੍ਮਣ	-11.7064
▁ਅਪ੍ਪਮੇਯ੍ਯ	-11.7064
ਜਿਣ੍ਣ	-11.7064
ਿਞ੍ਞਤ੍ਤਿਯਾ	-11.7066
▁ਪਞ੍ਚਙ੍ਗ	-11.7068
ੇਕ੍ਖਤੋ	-11.7069
ਭੋਗੋ	-11.7071
ਦਿਟ੍ਠਧਮ੍ਮਨਿਬ੍ਬਾਨ	-11.7072
▁ਦੇਸੇਤੁ	-11.7072
▁੩੦੭	-11.7074
▁ਏਤਾਸਂ	-11.7074
▁ਕੋਸ	-11.7082
▁ਅਞ੍ਞੋਪਿ	-11.7083
▁ਦਣ੍ਡਿ	-11.7085
ਸਕਲ	-11.7085
ਤੇਜੇਨ	-11.7087
ਦਿਟ੍ਠਿਯੋ	-11.7088
▁ਇਦਪ੍ਪਚ੍ਚਯਤਾ	-11.7089
▁ਸਚ੍ਚਿਕਟ੍ਠੋ	-11.709
▁ਆਦਿਕਮ੍ਮਿਕਾਯਾਤਿ	-11.709
ੁਤ੍ਤਨਯਾਨੁਸਾਰੇਨ	-11.709
▁ਅਟ੍ਠਿਮੇ	-11.7091
ਪਚ੍ਛਾ	-11.7091
ਗਚ੍ਛਿ	-11.7091
▁ਨਿਚ੍ਚੋ	-11.7092
▁ਜਾਨਾਮ	-11.7093
▁ਅਬ੍ਯਯ	-11.7093
ਿਸਮੇ	-11.7093
ਨਾਮਕੇ	-11.7094
▁ਅਭਿਸਿਞ੍ਚ	-11.7094
ਿਬ੍ਭਨ੍ਤ	-11.7094
▁ਅਸ੍ਸਦ੍ਧੋ	-11.7094
▁ਸਮ੍ਪਯੁਤ੍ਤਕਾਨਞ੍ਚ	-11.7095
▁ਪਸ੍ਸਾਸ	-11.7095
ਟ੍ਟਦੁਕ੍ਖ	-11.7096
੬੦	-11.7096
▁ਪਰਹਿਤਾਯ	-11.7099
ਦੀਪਨਤੋ	-11.7099
▁ਦਸ੍ਸੇਤੁ	-11.71
ਰਣਨ੍ਤਿ	-11.7102
▁ਯਸਸਾ	-11.7104
▁ਲੋਕੁਤ੍ਤਰਮਗ੍ਗ	-11.7104
ਿਮ੍ਹਾ	-11.7104
ਸਮ੍ਪਨ੍ਨਸ੍ਸ	-11.7105
ਿਸ੍ਸਟ੍ਠਿ	-11.7105
▁ਸਤ੍ਤਕ੍ਖਤ੍ਤੁਂ	-11.7105
ਦਿਤੋ	-11.7106
ਚਿਤ੍ਤਤਾਯ	-11.7107
▁ਚੋਦਕੇਨ	-11.7107
▁੨੮੩	-11.7108
ਰਾਜੂਨਂ	-11.7108
▁ਗਹਿਤਾਤਿ	-11.7108
▁ਛਿਜ੍ਜਤਿ	-11.711
ਦੁਗ੍ਗ	-11.7111
ਨਞ੍ਞੇ	-11.7112
ਿਸ੍ਸਟ੍ਠਿਂ	-11.7112
▁ਰਂਸਿ	-11.7112
▁ਉਪਤ੍ਥਮ੍ਭਕ	-11.7114
▁ਧਮ੍ਮਪਦ	-11.7115
ਾਸਿਤ	-11.7116
▁੩੦੦	-11.7116
▁ਫਣ	-11.7117
▁ਤਦਤ੍ਥਾਯ	-11.7117
ਸੁਰਾ	-11.7118
ਰੁਣੋ	-11.7118
ਿਗਤਾ	-11.7119
▁ਕਲ਼ੇ	-11.712
ਚਿਰਂ	-11.7122
ਿਪਾਕੋਤਿ	-11.7126
ਉਦ੍ਦ	-11.7126
▁ਕਲ੍ਯਾਣਮਿਤ੍ਤੋ	-11.7126
▁ਗੋਮਯ	-11.7127
▁ਛਮ੍ਭਿਤਤ੍ਤਂ	-11.7128
ਕੁਸਲਸ੍ਸ	-11.7129
ਨਿਸਜ੍ਜ	-11.7132
▁ਅਪਰਿਪੂਰ	-11.7133
▁ਪੁਰੇਜਾਤਪਚ੍ਚਯਾ	-11.7135
ਿਗਮ	-11.7136
ਗਹ	-11.7137
▁ਸਨ੍ਤਿਂ	-11.7138
▁ਰਤਿਂ	-11.7139
ਨੀਤਂ	-11.7139
ਨੇਨਾਤਿ	-11.714
▁ਕਲ੍ਲਂ	-11.7141
ਮਲ੍ਲ	-11.7141
▁ਯੇਨਾਤਿ	-11.7142
ੇਕੇ	-11.7144
▁ਭਾਸਨ੍ਤਿ	-11.7144
▁ਸਾਮਞ੍ਞਫਲਂ	-11.7146
▁ਅਸਾਤਂ	-11.715
ੁਟ੍ਠਿਤਾਯ	-11.715
ਪਾਰਿਪੂਰਿਯਾ	-11.7152
▁ਡਹ	-11.7152
▁ਸਯਨਂ	-11.7152
ਯੋਗ੍ਯ	-11.7156
▁ਏਕਨ੍ਤਸੁਖ	-11.7156
ਮਜ੍ਝਤ੍ਤ	-11.7157
▁ਖਯਾਯ	-11.7158
ਮਸ੍ਸਾਤਿ	-11.7158
▁ਪੇਤਾ	-11.7163
▁ਪਰਿਚਿਤਾ	-11.7164
ਗਤਾਯ	-11.7165
▁ਦਦਤੋ	-11.7166
▁ਹਿਰਿ	-11.7167
▁ਕਿਞ੍ਚੇਤ	-11.7167
▁ਧਮ੍ਮਿਕਾ	-11.7167
▁ਕਣ੍ਠ	-11.7168
▁ਮਰਣਸ੍ਸਤਿ	-11.7168
▁ਨਿਬ੍ਬੁਤਾ	-11.717
ਸਿਥਿਲ	-11.7171
ਿਜਾਤ	-11.7171
▁ਆਗਤਟ੍ਠਾਨੇ	-11.7171
▁ਆਪਾਥਂ	-11.7173
▁ਉਪਟ੍ਠਾਪੇਤਬ੍ਬੋ	-11.7173
▁੨੭੨	-11.7173
▁ਕੁਲਪੁਤ੍ਤਸ੍ਸ	-11.7174
▁ਅਪ੍ਪਮਾਣਾਰਮ੍ਮਣ	-11.7175
▁ਸਮਤ੍ਥਾ	-11.7176
ਿਯੋਤਿ	-11.7177
▁ਕਤਕਮ੍ਮਂ	-11.7177
ਮਣ੍ਡਨ	-11.7177
▁ਜਾਯਰੇ	-11.7178
▁ਸਮਾਧਿਬਲਂ	-11.7179
▁ਆਯਾਚਨ	-11.7179
ਰੁਦ੍ਧ	-11.718
▁ਕਾਸਾਯਾਨਿ	-11.7182
▁ਸਕ੍ਯਪੁਤ੍ਤ	-11.7182
ਪਮੁਖ	-11.7183
▁ਇਨ੍ਦ੍ਰਿਯਪਚ੍ਚਯ	-11.7185
ੀਹਾਯਤਨੇਹਿ	-11.7185
▁ਸਮੀਪਂ	-11.7185
▁ਸਤਤ	-11.7185
▁ਨਿਗਮਨ	-11.7185
▁ਗੋਤਮੇਨ	-11.7186
▁ਕਾਮੁਪਾਦਾਨਂ	-11.7186
▁ਤਸ੍ਮਿਮ੍ਪਿ	-11.7187
ਤੁਕਾਮੇਨ	-11.7188
▁ਸੇਸੇ	-11.7188
▁ਪਕਾਸਿਤ	-11.7188
▁ਸਮ੍ਪਿਣ੍ਡ	-11.7189
ਾਨਮੇਤਂ	-11.7191
▁ਚਕ੍ਖੁਮ	-11.7191
▁ਅਪ੍ਪਟਿਕੂਲ	-11.7193
ਗਿਲਾਨਪ੍ਪਚ੍ਚਯ	-11.7195
▁ਸੋਚੇਯ੍ਯ	-11.7196
▁ਯੋਗੇ	-11.7197
▁ਅਕੁਸਲਚਿਤ੍ਤਂ	-11.7199
ਲੋਕਾ	-11.72
▁ਸਾਮਿਕਂ	-11.72
ਸ੍ਸਿਕੋ	-11.7201
▁ਹਾਯ	-11.7201
▁੩੦੬	-11.7201
▁ਆਪਾਦ	-11.7203
ਤਿਸ੍ਸਤ੍ਥੇਰ	-11.7204
▁ਕੋਕਿਲ	-11.7205
ਯਤ੍ਤ	-11.7206
ਸਾਹਂ	-11.7207
ਅਜ੍ਝਤ੍ਤਂ	-11.7207
▁ਸਮਾਧਾਨ	-11.7209
▁ਸਨ੍ਦਿਟ੍ਠ	-11.721
▁ਪਞ੍ਞਾਪਨ	-11.7211
▁ਸਦ੍ਧਮ੍ਮੇ	-11.7214
▁ਇਟ੍ਠਾਰਮ੍ਮਣ	-11.7214
▁ਪਚ੍ਚੁਪ੍ਪਨ੍ਨੋ	-11.7214
▁ਸਿਨਿਦ੍ਧ	-11.7216
▁ਹੋਮ	-11.7216
▁ਦਦਮਾਨ	-11.7217
▁ਸਮਾਹਿਤ	-11.7218
▁ਪਲਾਯਿਤ੍	-11.7219
ਨਿਰੋਧਗਾਮਿਨੀ	-11.7221
ਿਕਤ੍	-11.7224
▁ਕਨ੍ਦਰ	-11.7226
▁ਜਟ	-11.7228
▁ਨਾਭਿਨਨ੍ਦਤਿ	-11.723
▁ਸਂਯੁਤ੍ਤਨਿਕਾਯ	-11.723
ਿਤਬ੍ਬੋਤਿ	-11.7231
▁ਗਿਲਾਨਪਚ੍ਚਯ	-11.7232
ਚਨਪਥ	-11.7232
▁੨੯੪	-11.7235
▁ਕਾਮਚ੍ਛਨ੍ਦਸ੍ਸ	-11.7235
▁ਓਕਾਸਤੋ	-11.7236
▁ਓਲ਼ਾਰਿਕੋ	-11.7237
▁ਉਪਜ੍ਝਾਯੇਨ	-11.7237
▁ਗਹਿਤੋਤਿ	-11.7238
ਸਨ੍ਤੀ	-11.7239
ਕਰਣਤ੍ਥਾਯ	-11.724
▁ਮੇਤ੍ਤਾਚੇ	-11.724
▁ਆਧਿਪਤੇਯ੍ਯ	-11.724
▁ਪਰਿਭੁਞ੍ਜਨ੍ਤਿ	-11.7241
▁ਰਕ੍ਖਾ	-11.7241
▁ਅਪ੍ਪਨਂ	-11.7241
▁ਹਿਤੇ	-11.7241
▁ਪਟਿਸਨ੍ਧਿਯਾ	-11.7244
ਾਦੀਹੀਤਿ	-11.7244
ਲਯੋ	-11.7245
ਾਰਿਤੇ	-11.7245
▁੨੮੪	-11.7247
ਿਕਪ੍ਪਨਾ	-11.7248
ਿਪਾਕਾਬ੍ਯਾਕਤ	-11.7248
ਪਣ੍ਣਤ੍ਤਿ	-11.7248
▁ਸਙ੍ਗਾ	-11.7249
▁ਜਾਨਿਤਬ੍ਬੋ	-11.7251
▁ਸਨ੍ਤੁਟ੍ਠਿ	-11.7255
ਆਦੇਸੋ	-11.7256
▁ਉਪਨਿਜ੍ਝਾਯ	-11.7257
▁ਖਦਿਰ	-11.7257
▁ਇਨ੍ਦਖੀਲ	-11.7257
▁ਉਦਿਕ੍ਖ	-11.7257
▁ਉਪ੍ਪਨ੍ਨਾਯ	-11.7258
▁ਸਙ੍ਗਮ੍ਮ	-11.7258
▁ਚਤੁਨ੍ਨਮ੍ਪਿ	-11.7258
▁ਅਪ੍ਪਟਿਕਮ੍ਮੇ	-11.7259
▁ਮਾਗਧੋ	-11.7259
▁ਸਮਤਿਕ੍ਕਮਾ	-11.726
▁ਅਪਚ	-11.726
ਦਾਹਰਣ	-11.7262
▁੩੦੪	-11.7262
▁ਸਾਕਿਯ	-11.7263
▁੨੯੯	-11.7263
ਙ੍ਗਸ੍ਸ	-11.7264
▁ਤਿਰਚ੍ਛਾਨਯੋਨਿ	-11.7264
▁ਦੁਗ੍ਗਹਿਤ	-11.7265
▁ਮਨੁਜ	-11.7265
▁ਸਪ੍ਪੋ	-11.7267
▁ਗਹਿਤਨ੍ਤਿ	-11.727
ਤੀਣਿ	-11.7271
▁ਅਸ੍ਸੋ	-11.7271
▁ਤਿਣਾਨਿ	-11.7271
▁ਸੁਪਰਿਸੁਦ੍ਧ	-11.7271
▁ਸਲਾਕ	-11.7272
▁ਕਾਰਣਮਾਹ	-11.7272
▁ਸੇਖੋ	-11.7272
ਪੂਜਿਤ	-11.7273
▁ਸਤ੍ਤਲੋਕ	-11.7273
▁ਅਚੇਤਨੋ	-11.7274
▁ਚਿਤ੍ਤਮ੍ਪਿ	-11.7277
ਲੋਣ	-11.7277
ਾਭਿਭ	-11.7279
▁ਨਲਾਟ	-11.728
ਤ੍ਤਮਾਨਸ੍ਸ	-11.7282
▁ਅਙ੍ਕੁਸ	-11.7284
ਧਾਰਣਂ	-11.7285
ੋਪਮਸੁਤ੍ਤ	-11.7286
▁ਸਮੂਹਨ	-11.7286
▁ਤੁਣ੍ਡ	-11.7288
ਦੁਮ	-11.729
▁ਤੇਸਞ੍ਹਿ	-11.729
▁ਗਮੇਤਿ	-11.729
▁ਪੁਪ੍ਫਿਤਾ	-11.7291
▁ਅਨਾਰਮ੍ਮਣੋ	-11.7292
ਤ੍ਤਯਿ	-11.7293
ਰਣੀਯ	-11.7293
ਕਰਣੀਯਂ	-11.7293
▁ਤਥਾਗਤੋਤਿ	-11.7294
ਦੁਕ੍ਖਾ	-11.7294
ਸਮ੍ਪਯੁਤ੍ਤਕਾਨਞ੍ਚ	-11.7294
▁ਏਕਚ੍ਚਾ	-11.7294
▁ਆਯਤਨਾ	-11.7295
▁ਸਾਮਿਕਸ੍ਸ	-11.7295
▁੩੧੦	-11.7295
▁ਦਸ੍ਸੇਨ੍ਤਿ	-11.7296
ਪਹਾਤਬ੍ਬ	-11.7297
ਮਾਨਾਤਿ	-11.7297
▁ਉਪਾਦਿਯ	-11.7298
ਪਰਮ੍ਪਰਾ	-11.7299
ਥਦ੍ਧ	-11.73
▁ਕਨ੍ਤਾਰ	-11.73
ਕਾਰਕੇ	-11.7301
▁ਗੁਹਾ	-11.7301
ਕਣ੍ਡੋ	-11.7303
▁ਆਰਮ੍ਮਣਪਚ੍ਚਯ	-11.7304
ਸ੍ਸਸਹਸ੍ਸ	-11.7305
▁ਤਚ੍ਛਂ	-11.7306
▁ਪਟਿਸੇਧੇ	-11.7307
ਨ੍ਤਾਪਿ	-11.7307
ਿਜ੍ਝਤੀਤਿ	-11.7308
▁ਤਿਸ੍ਸੋਪਿ	-11.7308
▁ਕੁਸਲਮੂਲਂ	-11.7308
▁ਅਸਙ੍ਖਾਰਿਕ	-11.7309
ਮਕ੍ਖਿਕ	-11.7311
▁ਕਿਣ	-11.7311
▁ਏਕਾਰਮ੍ਮਣ	-11.7311
▁ਅਖਣ੍ਡ	-11.7314
▁ਕਹਂ	-11.7315
▁ਪੁਚ੍ਛਿਤ	-11.7315
▁੨੭੭	-11.7315
▁ਨਿਗ੍ਗਹਿਤ	-11.7316
▁ਆਨਯ	-11.7318
▁ਸਰੇਨ	-11.7318
ਾਯਸ੍ਮਤੋ	-11.7321
▁ਅਨਪੇਕ੍ਖੋ	-11.7321
▁ਪਹਿਣਤਿ	-11.7324
▁ਆਚਰਿਯੁਪਜ੍ਝਾਯ	-11.7325
▁ਅਨਿਚ੍ਚੋ	-11.7325
▁ਪਰਿਚ੍ਚਜਿ	-11.7326
▁ਧਿ	-11.7329
ਸਿਤ੍ਥ	-11.7331
ਿਪਸ੍ਸਕ	-11.7332
ਤੁਲ੍ਯ	-11.7334
ਕ੍ਖਾਯ	-11.7334
ਚੇਲ	-11.7335
▁ਸਹੇਤੁਕਞ੍ਚ	-11.7336
▁ਨਾਮੇਤਂ	-11.7338
ਾਨੁਪ	-11.7338
ਾਦੋਤਿ	-11.7338
▁ਉਪਚਾਰਂ	-11.7338
ਰਣਾਦਿ	-11.7339
▁ਕੁਮਾਰਾ	-11.734
▁ਥੁਲ੍ਲ	-11.7341
▁ਆਯਾਮ	-11.7341
ਿਸੁਦ੍ਧਿਂ	-11.7341
ਨ੍ਤਿਯੋ	-11.7341
▁ਅਰਹਤ੍ਤਨਿਕੂਟੇਨ	-11.7341
▁ਪਾਰਿਪੂਰਿਂ	-11.7342
▁ਉਪੇਚ੍ਚ	-11.7342
▁ਖਿਪ੍ਪਾਭਿਞ੍ਞਾ	-11.7342
▁ਆਨਾਪਾਨ	-11.7343
▁ਸਾਧਾਰਣਾ	-11.7344
ਿਹਙ੍ਗਮ	-11.7344
▁ਗਮਿਕ	-11.7344
▁ਮਹਾਪਞ੍ਞ	-11.7345
▁ਰੁਕ੍ਖਮੂਲਂ	-11.7345
▁ਕਤਮਞ੍ਚ	-11.7346
ਪਾਟ	-11.7348
▁ਏਕਰਸ	-11.735
▁ਖਨ	-11.7351
ਿਨੋਦੇਤਿ	-11.7352
▁ਮਕ੍ਕਟੋ	-11.7352
▁ਸਮੁਟ੍ਠਾਨਾਦਯੋ	-11.7353
ਾਧਿਕਰਣ	-11.7353
▁ਲਦ੍ਧਬ੍ਬ	-11.7355
ਕ੍ਖਯਾ	-11.7355
▁ਲਹੁਤਾ	-11.7358
▁ਉਪਾਸਿਕਾਯ	-11.736
▁ਬਹੁਕਾ	-11.7361
ਿਞ੍ਞਤ੍ਤ	-11.7362
▁ਪਰਿਸੁਦ੍ਧੇ	-11.7362
ਪਯੋਗੋ	-11.7365
▁ਅਨੁਪਾਦਿਨ੍ਨੋ	-11.7368
▁ਧਮ੍ਮਦਿਨ੍ਨ	-11.7369
▁ਮਞ੍ਚੇ	-11.7369
▁ਪਰਿਕ੍ਖਾਰਂ	-11.737
▁ਦੀਪਿਤਂ	-11.7372
ਯਿਸ੍ਸਾਮਿ	-11.7373
▁੨੮੨	-11.7374
▁੩੦੧	-11.7374
▁ਹੁਤ	-11.7375
ਕਸੁਤ੍ਤਂ	-11.7378
▁ਲਭਨ੍ਤੋ	-11.738
▁ਸਾਤਿਸਯਂ	-11.7381
▁ਉਪਪਜ੍ਜਤੀ	-11.7382
▁ਗੁਮ੍ਬ	-11.7385
▁ਅਨਤਿਕ੍ਕਮ	-11.7387
▁ਬਿਮ੍ਬਿਸਾਰ	-11.7389
▁ਨਮਤਿ	-11.7389
▁ਮਿਗਰਾਜਾ	-11.7391
ਸਞ੍ਞੋਜਨ	-11.7392
▁ਦਿਟ੍ਠਾਸ	-11.7395
ਤਚ	-11.7396
▁ਤਦਨੁਰੂਪ	-11.7398
▁ਚਕ੍ਖੁਸਮ੍ਫਸ੍ਸਜਾ	-11.7398
▁ਅਜ੍ਝੋਹਰਣ	-11.7399
[...]
