<unk>	0
<s>	0
</s>	0
,	-2.87348
។	-3.99343
ំ	-3.9964
.	-4.04393
តិ	-4.20928
▁‘‘	-4.21475
’’	-4.45526
▁	-4.49986
▁ន	-4.55031
▁ច	-4.55115
ា	-4.59194
ោ	-4.65814
;	-4.75356
េ	-4.91477
ស្ស	-4.98003
▁វា	-4.9873
ន្តិ	-5.09883
▁–	-5.20915
េន	-5.3274
▁បន	-5.49068
តិ។	-5.53456
បេ	-5.62228
▁តំ	-5.6267
?	-5.63845
▁តត្ថ	-5.74202
..	-5.80006
▁ហោតិ	-5.8419
▁សោ	-5.85869
▁ឯវំ	-5.87918
បិ	-5.92776
▁ខោ	-5.95265
▁អ	-5.9622
តោ	-5.97071
-	-5.98278
ញ្ច	-6.01035
ានំ	-6.06726
▁ភិក្ខវេ	-6.07338
’	-6.08863
▁នាម	-6.10249
▁តស្ស	-6.10721
▁តេ	-6.11892
ន	-6.14968
ាតិ	-6.21121
▁ហិ	-6.22163
ានិ	-6.30104
េហិ	-6.32644
វ	-6.36787
ាយ	-6.47225
ំ។	-6.47415
េសុ	-6.50096
▁‘	-6.51478
▁ធម្មោ	-6.5741
▁មេ	-6.5809
▁តេសំ	-6.58837
▁ធម្មា	-6.58864
▁ធម្មំ	-6.61056
វសេន	-6.615
▁អយំ	-6.64216
▁តេន	-6.64813
▁ហោតិ។	-6.67386
ន្តិ។	-6.68454
▁យថា	-6.69194
នំ	-6.69992
▁បដិច្ច	-6.70028
ិ	-6.70769
▁អត្ថោ។	-6.72279
▁យំ	-6.74722
▁ភិក្ខុ	-6.76331
▁វិយ	-6.76974
▁ឧប្បជ្ជតិ	-6.78391
ោ។	-6.79324
▁ទ្វេ	-6.80784
▁។	-6.81459
▁យោ	-6.81471
ី	-6.81964
▁អថ	-6.82208
▁ឯត្ថ	-6.83217
▁នោ	-6.84794
▁ស	-6.85273
▁កត្វា	-6.86108
▁ឯកំ	-6.86527
▁តថា	-6.87037
▁តស្មា	-6.87451
ម្បិ	-6.88118
ាទិ	-6.88627
▁ភគវា	-6.88633
▁ភន្តេ	-6.89582
▁ឥទំ	-6.90622
ត្តា	-6.9155
▁តតោ	-6.91893
តា	-6.93132
▁វុត្តំ	-6.95696
ក	-6.98836
យ	-7.00717
▁អត្តនោ	-7.04494
▁វុត្តំ។	-7.10145
▁បច្ចយោ	-7.10287
មេវ	-7.10819
អ	-7.12953
ា។	-7.13034
▁អាហ	-7.13546
▁យស្ស	-7.14261
▁ឥធ	-7.1453
ោតិ	-7.14795
▁បញ្ច	-7.15963
▁ចិត្តំ	-7.17087
ម	-7.1934
▁សា	-7.19406
▁តីណិ	-7.20481
▁អត្ថិ	-7.20785
សុ	-7.2081
▁យេ	-7.21851
យេវ	-7.22528
កោ	-7.23002
▁តស្មិំ	-7.24559
តីតិ	-7.2686
▁នវ	-7.26894
យា	-7.27635
▁ឥតិ	-7.27967
▁សត្ត	-7.28444
▁ភិក្ខូ	-7.31643
យោ	-7.32901
នា	-7.3454
តាយ	-7.34597
▁និដ្ឋិតា។	-7.35397
ិត្វា	-7.3552
េតិ	-7.38292
▁កិំ	-7.3874
ម្ហិ	-7.38906
▁ឯវ	-7.39642
ហិ	-7.40962
▁ចេវ	-7.41501
ឌ្	-7.43038
▁មហា	-7.43496
យំ	-7.43615
▁ភគវតោ	-7.45329
▁នត្ថិ	-7.45532
▁ធម្មស្ស	-7.45943
▁សព្ព	-7.48021
▁អាបត្តិ	-7.48952
តំ	-7.49926
▁វុច្ចតិ	-7.50825
កំ	-7.52876
សិ	-7.54414
▁ហុត្វា	-7.55182
េយ្យ	-7.55513
▁ឥមិនា	-7.56232
▁យត្ថ	-7.56279
ន្តោ	-7.56459
▁ឯក	-7.56475
ស	-7.56881
▁រូបំ	-7.59313
▁ឥមេ	-7.59577
▁ធម្ម	-7.59964
▁យា	-7.60473
▁សុ	-7.61312
▁ប	-7.61432
▁វ	-7.6244
▁ហោន្តិ	-7.63477
▁ឥមំ	-7.63579
▁អាមន្តា។	-7.63854
▁បច្ចយោ។	-7.6459
▁ទិស្វា	-7.65947
▁ខន្ធា	-7.66101
កា	-7.66153
▁យេន	-7.66531
▁សទ្ធិំ	-7.67074
▁កថំ	-7.68454
▁រាជា	-7.68613
▁ហេតុ	-7.69783
▁ត្វំ	-7.69834
▁បុន	-7.72457
▁តយោ	-7.73058
▁អាវុសោ	-7.73118
▁មំ	-7.74063
▁នុ	-7.74739
▁អហំ	-7.75872
តី	-7.76022
▁សចេ	-7.77372
េ។	-7.77417
▁គហេត្វា	-7.77997
▁តទា	-7.78134
▁មម	-7.78293
▁ហោតីតិ	-7.79174
▁ឯកោ	-7.79376
▁១	-7.80012
សុត្តំ	-7.80049
▁ឆ	-7.80589
▁ភគវតា	-7.80707
▁ឥទានិ	-7.81936
▁អត្ថោ	-7.82226
▁សតិ	-7.82693
▁អនុ	-7.82829
▁មា	-7.83878
▁វិ	-7.83881
ប	-7.84129
▁សត្ថា	-7.84272
ាទីសុ	-7.84397
▁នាម។	-7.84554
ាទីនំ	-7.85928
▁ច។	-7.86093
សុត្តវណ្ណនា	-7.86183
▁បញ្ញា	-7.86509
▁បុគ្គលោ	-7.8689
▁សហ	-7.87289
និ	-7.87415
▁សិយា	-7.88604
នោ	-7.90157
ាបិ	-7.90411
▁សុត្វា	-7.90458
▁មហារាជ	-7.90526
▁បច្ចយា	-7.90683
▁សព្ពំ	-7.91083
េត្វា	-7.91466
▁យស្មា	-7.92856
តេ	-7.93921
▁ចត្តារោ	-7.94146
▁តាវ	-7.9506
ុ	-7.95689
សោ	-7.95913
ត្ថ	-7.96389
▁តេនាហ	-7.97965
▁នហេតុ	-7.98576
▁កតំ	-7.98893
ិកា	-7.99329
▁លោកេ	-7.99569
▁វត្វា	-7.99709
▁ទស	-7.99886
▁សព្ពេ	-7.999
តិអាទិ	-8.00682
ភាវំ	-8.0141
▁ហេតុបច្ចយា	-8.01566
▁អដ្ឋ	-8.01888
▁ខន្ធេ	-8.02797
▁ឧប	-8.02947
ាទយោ	-8.03333
▁សមយេ	-8.03754
▁កម្ម	-8.03923
សទ្ទោ	-8.04242
▁បុព្ពេ	-8.04425
▁ឯតំ	-8.04461
▁ចត្តារិ	-8.04541
▁កិរ	-8.04649
▁ចិត្ត	-8.0469
តិអាទិនា	-8.0545
▁គន្ត្វា	-8.05875
ាទីហិ	-8.05967
ភាវេន	-8.06076
▁អារព្ភ	-8.06906
▁វេទនា	-8.07518
ិត	-8.07766
▁ចេ	-8.09071
ីតិ	-8.09272
▁នេវ	-8.09743
ច	-8.09862
▁ឋបេត្វា	-8.09893
▁ភិក្ខុនោ	-8.10055
▁កោ	-8.11142
▁វត្តព្ពេ	-8.11611
៧	-8.11744
▁ឥមស្មិំ	-8.11825
▁កម្មំ	-8.11831
▁២	-8.12905
ត	-8.12978
▁សន្ធាយ	-8.1328
▁មយា	-8.13636
កថា	-8.13818
ានីតិ	-8.14018
▁បរំ	-8.14036
វិ	-8.14092
កាលេ	-8.14311
▁អស្ស	-8.14325
▁អហោសិ	-8.14328
▁កិញ្ចិ	-8.14443
ិយ	-8.14592
▁វិហរតិ	-8.15264
▁បដិ	-8.15494
▁អាយស្មា	-8.15558
▁បឋមំ	-8.16701
ន្តីតិ	-8.16709
▁មយ្ហំ	-8.16725
▁រូប	-8.16943
ស្មិំ	-8.17231
▁ភោ	-8.17387
▁ទុក្ខ	-8.17589
៩	-8.17593
▁អត្ថ	-8.17701
មា	-8.18248
ភាវោ	-8.18351
▁ភគវន្តំ	-8.18632
៣	-8.18752
▁ធម្មេ	-8.18776
▁យាវ	-8.19057
▁វត	-8.19748
ាទីនិ	-8.19764
▁តុ	-8.20075
▁អញ្ញំ	-8.20441
៥	-8.20486
េនាតិ	-8.20526
៤	-8.20619
៦	-8.21391
▁ទុក្ខំ	-8.21413
ធម្ម	-8.21435
▁វត្ថុ	-8.22125
▁ឥតោ	-8.22477
ិក	-8.22632
វា	-8.23203
៨	-8.23368
▁ទស្សេតុំ	-8.23531
▁ទស្សេតិ។	-8.24369
▁តណ្ហា	-8.24797
ថ	-8.24997
▁បឋម	-8.25243
១	-8.2546
▁វុច្ចតិ។	-8.25538
▁ថេរោ	-8.25571
ិំ	-8.25601
េបិ	-8.25748
ិយា	-8.25989
▁សម	-8.26022
▁យោជនា។	-8.26406
▁ពុទ្ធ	-8.26598
▁ចាតិ	-8.26989
▁ទិដ្ឋិ	-8.27116
ិតា	-8.27144
▁ហេតុបច្ចយា។	-8.27427
▁សម្មា	-8.27524
កេ	-8.27652
នេ	-8.27675
ត្ថាយ	-8.27959
▁វេទិតព្ពោ។	-8.28585
វគ្គោ	-8.28822
▁វា។	-8.28979
តុ	-8.2918
▁អន	-8.29572
ានិ។	-8.29674
តិអាទិ។	-8.30198
▁យទិ	-8.30589
▁ភវ	-8.3188
▁ទស្សេន្តោ	-8.31953
ដ្ឋេន	-8.31986
▁សមន្នាគតោ	-8.32067
▁ខន្ធានំ	-8.32575
ិតោ	-8.32642
វណ្ណនា	-8.3271
ិតុំ	-8.33015
▁ឈានំ	-8.33373
២	-8.33552
▁តេសុ	-8.33751
ត្ថំ	-8.34184
េវ	-8.3428
▁វុត្ត	-8.34301
▁ទេវ	-8.34822
េនេវ	-8.35219
▁រញ្ញោ	-8.35312
▁ចិត្តស្ស	-8.35386
▁ហេតុយា	-8.35424
▁តស្សា	-8.35568
▁ករោតិ	-8.35642
ាមិ	-8.35833
▁ព្រាហ្មណ	-8.35922
▁វសេន	-8.36049
ភាវ	-8.36853
ត្ត	-8.37322
▁សម្ពន្ធោ។	-8.37351
▁អន្តោ	-8.37659
▁រាជ	-8.37706
▁៣	-8.38214
▁វចនំ	-8.38254
▁ហេដ្ឋា	-8.38894
▁ហោន្តិ។	-8.39369
▁កស្មា	-8.39372
មានោ	-8.39429
▁ផល	-8.39519
រូប	-8.40264
▁បដ្ឋាយ	-8.40388
▁ឯស	-8.40389
▁កេចិ	-8.40766
ល	-8.4087
▁វេទិតព្ពំ។	-8.41464
ន្តា	-8.41564
▁ទុតិយ	-8.41863
▁ជាតិ	-8.41964
▁កាម	-8.42031
▁ភិក្ខូនំ	-8.42456
ហ	-8.4286
ន្តី	-8.42892
ិតំ	-8.42944
▁អាហ។	-8.42959
▁ហេវំ	-8.43011
▁បរ	-8.43063
▁តត្រ	-8.44263
យេ	-8.44314
ន្តស្ស	-8.44763
▁ពុទ្ធោ	-8.44776
▁ជានាតិ	-8.44892
▁កតមេ	-8.45179
▁តានិ	-8.45311
សំ	-8.45637
▁សមយេន	-8.45643
▁វដ្ដតិ។	-8.45652
▁វោ	-8.45716
▁កត	-8.45999
កម្ម	-8.46154
▁សុខំ	-8.46526
ញ្ចេវ	-8.47095
▁បច្ឆា	-8.47292
▁បុរិសោ	-8.47307
▁តេហិ	-8.47494
▁ញាណ	-8.4776
▁បរិ	-8.47855
▁អតិ	-8.47894
▁សញ្ញា	-8.47944
▁៤	-8.48058
០	-8.48152
ហេតុ	-8.48275
▁សត្តា	-8.48637
▁មគ្គ	-8.48713
▁ញាណំ	-8.48839
ាវ	-8.49116
សិក្ខាបទវណ្ណនា	-8.49265
▁ឧបសង្កមិត្វា	-8.49273
▁និស្សាយ	-8.49476
▁បុច្ឆា	-8.49733
▁ឯតទវោច	-8.49815
▁ឯវមេវ	-8.50393
ហំ	-8.50495
ប្ប	-8.50818
▁វេទនាយ	-8.51128
▁កុសលា	-8.5118
▁ឥមស្ស	-8.51608
ិ។	-8.51785
▁សព្ពត្ថ	-8.51842
▁ឧប្បជ្ជន្តិ	-8.51888
▁សុខ	-8.51906
▁ត	-8.5224
▁ហោតី	-8.523
រ	-8.52678
អយំ	-8.52799
▁តវ	-8.53005
▁៧	-8.53251
▁បញ្ញាយ	-8.53559
▁សេសំ	-8.53905
▁ទត្វា	-8.53979
▁ឯសេវ	-8.54361
▁ទានំ	-8.54395
▁ឧ	-8.54625
▁អភិ	-8.54659
▁វុត្តេ	-8.54888
▁ពុទ្ធស្ស	-8.54921
▁ឧប្បជ្ជតិ។	-8.55319
▁ឥមា	-8.55347
▁សង្ឃោ	-8.55392
▁‘‘‘	-8.55396
សា	-8.55444
▁បទ	-8.55512
▁អត្តនា	-8.56238
▁ឯកមន្តំ	-8.5635
បច្ចយា	-8.56762
▁៥	-8.57018
▁អានន្ទ	-8.57752
▁កោចិ	-8.5785
▁កុសលំ	-8.58113
ត្តំ	-8.58339
▁វុត្តា	-8.58379
▁បត្ត	-8.58463
▁តីណិ។	-8.58589
▁សមាធិ	-8.58642
▁អា	-8.58821
ជ្ជ	-8.58864
▁វេទិតព្ពា។	-8.58878
ជ	-8.58893
▁គច្ឆតិ	-8.58902
▁សន្តិកេ	-8.59182
ឯវំ	-8.59613
▁អត្ថំ	-8.59949
ស្សាតិ	-8.60087
▁អហោសិ។	-8.60173
▁បាប	-8.60272
▁៦	-8.60552
តិអាទីសុ	-8.60602
▁ឱ	-8.60641
▁អារម្មណេ	-8.6081
▁ក	-8.60889
▁សក្កា	-8.60911
ិំសុ	-8.61256
▁ឧបរិ	-8.61489
▁សយំ	-8.61565
▁ព្រាហ្មណោ	-8.61735
▁អប្ប	-8.61755
សទ្ទេន	-8.62082
▁អត្តានំ	-8.62397
▁តា	-8.6298
▁អធិប្បាយោ។	-8.63019
▁ធម្មេហិ	-8.63176
▁អកុសលា	-8.63204
វត្ថុ	-8.63367
កិំ	-8.63369
▁មគ្គោ	-8.63547
▁ធម្មានំ	-8.63782
▁យតោ	-8.64087
ស្សេវ	-8.64091
ម្ហា	-8.64563
ោបិ	-8.65202
▁សីល	-8.65341
▁តថាគតោ	-8.65485
ង្គ	-8.65491
ដ្ឋានេ	-8.65527
កថាវណ្ណនា	-8.66217
▁មយំ	-8.66247
េតីតិ	-8.66324
ញ្ហិ	-8.66718
▁៨	-8.66833
▁កាយ	-8.66906
▁ចីវរំ	-8.67084
▁វិញ្ញាណំ	-8.68152
▁មគ្គំ	-8.68174
▁ឧប្បជ្ជិស្សតិ	-8.68368
វណ្ណ	-8.68573
▁អវ	-8.68765
▁ញត្វា	-8.68938
▁៩	-8.68975
សី	-8.69082
▁ធម្មេសុ	-8.69319
▁នយេន	-8.69431
ចិត្ត	-8.69454
▁ភិក្ខុនា	-8.6955
▁ឥមានិ	-8.69897
▁នយោ។	-8.70335
ន្តំ	-8.70531
▁១០	-8.70713
ភាវតោ	-8.70714
▁នានា	-8.70803
▁សាធុ	-8.70869
▁បហាយ	-8.70916
▁ឥមេហិ	-8.71123
▁អាទិ	-8.71174
▁នត្ថិ។	-8.71317
▁បុរិម	-8.71522
តិអាទិមាហ។	-8.71774
▁;	-8.71959
▁ឯតេ	-8.71975
ភិ	-8.72286
សុត្ត	-8.72622
េតុំ	-8.72687
ដ្ឋ	-8.72721
▁និព្ពានំ	-8.72787
ណ	-8.72819
េសិ	-8.7316
ទ	-8.73417
▁វិនា	-8.73439
តោ។	-8.73554
ន្ត	-8.73625
▁ឋានំ	-8.7384
បទ	-8.74036
▁តាយ	-8.74565
▁វុត្តោ	-8.75271
▁កិលេស	-8.75281
▁បុព្ព	-8.7541
▁បដិសន្ធិក្ខណេ	-8.75481
▁សង្ឃស្ស	-8.75821
▁កាលេ	-8.75871
▁ពហុ	-8.76504
▁គាថា	-8.76605
▁ធាតុ	-8.76815
▁កាយស្ស	-8.77122
ផល	-8.77162
ត្ថោ	-8.77221
▁សទ្ធា	-8.77295
ោវ	-8.77426
▁និ	-8.77442
▁យថាភូតំ	-8.77442
▁បច្ចយ	-8.77763
▁យស្មិំ	-8.77993
▁បស្សតិ	-8.78399
ាយំ	-8.78525
▁ចតូហិ	-8.78647
▁វេ	-8.78889
សញ្ញា	-8.78976
ធាតុ	-8.79019
▁ឧទក	-8.79124
បីតិ	-8.79279
េន្តោ	-8.79291
▁វត្ថុំ	-8.79647
▁សាវត្ថិយំ	-8.79701
▁តិស្សោ	-8.79715
▁ទ្វិន្នំ	-8.79735
▁ពុទ្ធំ	-8.79747
▁ឯកា	-8.79809
ញាណ	-8.79967
▁ម	-8.80173
▁ទស្សេត្វា	-8.80457
▁ឧបសម្បជ្ជ	-8.8061
មហា	-8.80679
▁សព្ពេសំ	-8.80713
▁សត្ថុ	-8.80909
▁ចក្ខុ	-8.81077
មានា	-8.81374
▁កតមោ	-8.81438
អត្ថិ	-8.81956
ានី	-8.82554
ស្សុ	-8.82669
▁ឯតមត្ថំ	-8.82699
▁អត្ត	-8.82732
មគ្គ	-8.82938
ាទិវសេន	-8.82979
▁ទុក្កដំ	-8.83024
▁ចេតនា	-8.83125
▁អារម្មណបច្ចយេន	-8.83141
▁ឧបបជ្ជន្តានំ	-8.83222
▁តេនេវ	-8.83308
ានញ្ច	-8.83339
▁មនោ	-8.83394
ិកំ	-8.83591
ទិ	-8.83701
ិនោ	-8.83747
▁យទា	-8.84206
▁កតមំ	-8.84407
▁តុម្ហេ	-8.84555
ដ្ឋានំ	-8.84596
▁ឋិតោ	-8.84663
▁វណ្ណ	-8.84795
▁សីលំ	-8.84965
នតោ	-8.85156
▁ចតុ	-8.85168
▁គហបតិ	-8.85325
ាហិ	-8.85512
▁សង្ខារា	-8.8556
ន្តេ	-8.85575
▁បនេត្ថ	-8.85818
ដ្ឋោ	-8.85947
▁កាល	-8.86096
ិកោ	-8.86311
មាន	-8.86327
▁ឈាន	-8.86549
អហំ	-8.86589
▁វទន្តិ។	-8.86864
ាបេត្វា	-8.86931
សត្ត	-8.87035
▁ភិក្ខុនី	-8.87336
▁បវត្ត	-8.87421
▁ឯតេន	-8.87586
យថា	-8.87783
▁អវិគតេ	-8.87904
▁តថេវ	-8.87939
▁កាតុំ	-8.8796
▁ផលំ	-8.88139
ករណ	-8.88159
▁អម្ហាកំ	-8.88391
▁និសិន្នោ	-8.88557
▁នយោ	-8.88677
▁ទេតិ	-8.88754
▁អបិ	-8.88877
កស្ស	-8.89055
ានុ	-8.89117
▁ទដ្ឋព្ពំ។	-8.89163
ូ	-8.89184
▁កេនចិ	-8.89705
▁កុសលោ	-8.89926
នំ។	-8.89979
▁អាបត្តិយោ	-8.90201
▁សេស	-8.90307
▁សច្ច	-8.90402
▁តីហិ	-8.90429
▁ភវិស្សតិ	-8.90595
កេន	-8.90668
▁មូល	-8.90774
▁អវិជ្ជា	-8.90789
▁ទេវតា	-8.90833
▁ឧបនិស្សយបច្ចយេន	-8.91063
▁សុត្ត	-8.91294
▁ទេសនា	-8.91448
▁និព្ពាន	-8.91526
▁លោក	-8.91731
▁ចតស្សោ	-8.91918
បរិ	-8.92026
▁រូបានំ	-8.92065
បដិ	-8.92075
▁បុរិស	-8.92342
▁គោ	-8.92577
▁កតិ	-8.9259
ស្សា	-8.92634
បុន	-8.92673
▁ននុ	-8.92809
▁ពហិទ្ធា	-8.92883
▁តញ្ច	-8.92969
ិំសុ។	-8.93067
▁អត្តា	-8.9314
▁ចតុន្នំ	-8.93393
ត្ថេ	-8.93404
▁តីសុ	-8.93659
▁មនុស្សា	-8.93833
▁តត្ថេវ	-8.94099
▁លោកោ	-8.94182
តេន	-8.94358
▁សត្តានំ	-8.94534
កាយ	-8.94559
▁ការណំ	-8.94566
▁ទ	-8.94612
▁អរហត្តំ	-8.9481
ទាន	-8.9511
▁កាយេន	-8.95144
▁បញ្ចហិ	-8.95175
▁កប្បេ	-8.95385
នាម	-8.95497
ដ្ឋាន	-8.95539
▁កត្ថ	-8.95718
កម្មំ	-8.95747
▁បត្វា	-8.9587
ិយំ	-8.9645
▁បស្ស	-8.96543
▁ឧប្បជ្ជិត្ថ	-8.9666
▁អគ្គ	-8.96941
ាន	-8.97071
មត្ត	-8.97104
▁ចីវរ	-8.97141
▁សព្ពសោ	-8.9715
▁ទាន	-8.97505
▁ឧទកំ	-8.97542
▁វុត្តនយេនេវ	-8.97719
▁គុណ	-8.97758
▁ភវេ	-8.97911
▁សាសនំ	-8.97959
▁វាចាយ	-8.98316
▁វិស្សជ្ជនា	-8.98383
ូប	-8.98664
ឥទំ	-8.98674
▁ចតូសុ	-8.98721
▁ទស្សនេន	-8.98827
▁បដិបទា	-8.99013
▁ឋត្វា	-8.9909
ធ	-8.99376
▁យថាវុត្ត	-8.99436
ានន្តិ	-8.9962
▁ខន្ធ	-8.99751
▁ឯកេន	-8.99759
យេវ។	-9.00015
▁ទេវា	-9.0002
▁គាថមាហ	-9.00264
▁សារិបុត្ត	-9.0047
សម	-9.0048
▁កេវលំ	-9.00551
▁សុវណ្ណ	-9.00576
ក្ខ	-9.00719
▁វិសុំ	-9.01044
កថំ	-9.01109
▁អញ្ញ	-9.01477
ត្តា។	-9.01586
▁កេន	-9.01657
▁ឋានេ	-9.01808
▁ចបរំ	-9.0194
▁ឯកតោ	-9.02013
▁ឧបេក្ខា	-9.02098
វត្ត	-9.02413
▁យ	-9.02448
▁អារម្មណ	-9.02465
មត្តំ	-9.02498
▁អញ្ញត្រ	-9.02699
▁តស្សេវ	-9.02741
▁ភិក្ខុំ	-9.02827
▁កតមា	-9.02835
▁វុត្តា។	-9.02951
▁អនាបត្តិ	-9.02962
▁អត្ថីតិ	-9.03274
▁ភាវនាយ	-9.03292
សេ	-9.03318
▁បត្តោ	-9.03463
▁កប្ប	-9.03789
▁យថាហ	-9.03865
▁វុត្តន្តិ	-9.03878
មេ	-9.0407
ីនំ	-9.04265
▁ភាវេតិ	-9.0438
▁ឥមេសំ	-9.04439
▁ឧប្បន្នំ	-9.04629
េហីតិ	-9.04696
▁វត្ត	-9.04974
វិបាក	-9.05009
▁រាគោ	-9.05038
▁វិបស្សនា	-9.05141
▁ផស្សោ	-9.05174
▁កុសល	-9.05298
សីល	-9.05374
▁អព្យាកតោ	-9.05823
▁ទោសោ	-9.06116
▁អញ្ញោ	-9.06311
▁ទុក្កដស្ស។	-9.06331
នី	-9.06358
▁វត្តព្ពំ	-9.06653
▁ពហូ	-9.06796
ន្តុ	-9.06814
▁ករោន្តោ	-9.06943
▁ចក្ខាយតនំ	-9.06965
▁ពហិ	-9.06977
សទ្ទ	-9.0712
▁បុញ្ញ	-9.07199
▁បរស្ស	-9.07256
▁ចក្ខុន្ទ្រិយំ	-9.07416
ការ	-9.07486
▁អាគន្ត្វា	-9.07488
▁វទន្តិ	-9.07594
▁សុតំ	-9.07631
ទុក្ខ	-9.0769
▁កាលំ	-9.07732
▁ទ្វីហិ	-9.07892
សង្ខាតំ	-9.07972
▁វិនយ	-9.0805
សញ្ញី	-9.08069
▁គោតម	-9.08094
▁អត្ថិបច្ចយ	-9.08164
▁ទីឃ	-9.0817
គ្គ	-9.08276
ាហំ	-9.08418
▁អកុសលំ	-9.0843
ឡ	-9.08521
▁អជ្ឈត្តំ	-9.08836
▁ព្រហ្ម	-9.08863
▁វត្ថុស្មិំ	-9.08882
▁តិណ្ណំ	-9.09217
▁វដ្ដតិ	-9.09286
សុខ	-9.09319
▁បជានាតិ	-9.09402
▁បុប្ផ	-9.09516
▁បាឡិយំ	-9.09561
ាសិ	-9.09632
ិស្សតិ	-9.09684
▁អរហតោ	-9.09738
▁សេយ្យថាបិ	-9.09805
បច្ចយ	-9.09837
▁អត្ថេ	-9.10159
▁យទិទំ	-9.10209
សទ្ទស្ស	-9.10232
▁ចេត្ថ	-9.10337
ិយោ	-9.10449
េត្ថ	-9.10594
គុណ	-9.10611
រាជ	-9.10719
▁នត្ថីតិ	-9.10776
▁ឋិត	-9.10805
▁និព្ពត្ត	-9.10841
▁ខន្ធំ	-9.10987
នន្តិ	-9.1103
▁អភិញ្ញា	-9.11107
▁ឧប្បជ្ជតីតិ	-9.11209
▁ទោស	-9.12154
▁ទុតិយំ	-9.12227
ធម្មា	-9.12412
▁អយម្បិ	-9.12448
តស្ស	-9.1247
ធម្មោ	-9.12644
▁ទិដ្ឋ	-9.12648
▁ឧប្បន្ន	-9.12676
បត្ត	-9.12956
▁មរណា	-9.13043
ភវ	-9.13251
▁បុរេ	-9.13354
▁សទ្ទ	-9.13355
▁មនសិ	-9.13373
▁វទតិ។	-9.1365
ទេវ	-9.13751
▁សមាន	-9.13797
សិក្ខាបទំ	-9.13935
▁ឆន្ទ	-9.1399
នុ	-9.14068
▁វេទនាក្ខន្ធោ	-9.14192
▁អាគត	-9.14243
▁ទ្វីសុ	-9.14264
▁បាទ	-9.14341
▁តយា	-9.14357
រោ	-9.14553
▁គោតមោ	-9.14725
▁សុដ្ឋុ	-9.14741
▁កស្សចិ	-9.14743
▁ទិសា	-9.14864
▁សក្កោ	-9.15136
▁ពោធិសត្តោ	-9.152
▁វុត្តោ។	-9.15262
▁កម្មេ	-9.15491
▁វចន	-9.15497
ាភិ	-9.15598
▁កាយោ	-9.15607
▁មជ្ឈេ	-9.15627
ការោ	-9.15755
▁លក្ខណ	-9.15806
▁តាសំ	-9.15988
▁វិបាកោ	-9.1603
▁មាតា	-9.16129
វសេនេវ	-9.16183
▁លោកំ	-9.1628
▁ហេតុបច្ចយេន	-9.16407
▁នហេតុបច្ចយា	-9.16575
▁បុត្តោ	-9.16797
ជាតកំ	-9.16815
▁សង្ឃ	-9.16823
និស្សយ	-9.16863
▁សរ	-9.17061
▁គតោ	-9.17115
ន្តរ	-9.17287
▁វស្ស	-9.17287
តា។	-9.17561
▁សម្ពហុលា	-9.17738
▁កា	-9.17816
មិ	-9.17819
▁អត្ថតោ	-9.17988
▁បវត្តិ	-9.18192
▁ឧបាទាយ	-9.18288
ច្ច	-9.18297
▁អព្យាកតា	-9.18682
’’’	-9.18695
▁សតោ	-9.18745
▁កំ	-9.18841
▁វុត្តត្តា	-9.18874
▁ទុក្ខា	-9.18915
▁វរ	-9.18936
▁ពល	-9.19123
ស្មា	-9.19162
ិនី	-9.19206
កិច្ច	-9.19228
▁អវសេសា	-9.19242
▁ទស្សន	-9.19278
▁អាទាយ	-9.19508
▁អជ្ជ	-9.1952
ឥធ	-9.1974
▁ការណ	-9.19764
▁គរុំ	-9.19799
រូបំ	-9.19814
▁ធន	-9.20091
▁អាសិ	-9.20175
▁អាបត្តិំ	-9.20184
▁ផលំ។	-9.20243
▁មនុស្ស	-9.20299
▁សរណំ	-9.20317
ឯក	-9.20454
▁តថាគតស្ស	-9.20502
▁លទ្ធ	-9.2058
▁ឥ	-9.20621
រេ	-9.20717
ភូតោ	-9.2085
បញ្ញា	-9.20868
លក្ខណំ	-9.20898
▁សន្ត	-9.20916
▁ឯតស្ស	-9.20916
▁យេសំ	-9.20935
តិបិ	-9.20945
▁វិបាក	-9.21021
▁ហត្ថិ	-9.21096
▁តទ	-9.21161
▁សម្មាទិដ្ឋិ	-9.21187
ករ	-9.21367
ាទិនា	-9.21452
▁បុគ្គលស្ស	-9.21496
▁កុ	-9.215
▁គច្ឆ	-9.21538
▁និច្ច	-9.21545
▁ធម្មទេសនំ	-9.21552
េតំ	-9.21576
▁អញ្ញេ	-9.21587
▁នេសំ	-9.21871
▁គណ	-9.21874
សព្ព	-9.21982
តោតិ	-9.2199
▁វិជ្ជា	-9.22143
ីយតិ	-9.22182
▁ទ្វាទស	-9.22378
េយ្យាតិ	-9.22424
▁បតិ	-9.22591
ភូតំ	-9.22623
យន្តិ	-9.22829
▁ភេទា	-9.22848
▁វិញ្ញាណ	-9.23121
▁ករោន្តិ	-9.23261
▁សោឡស	-9.2339
▁ឥន្ទ្រិយា	-9.23541
▁សង្ឃំ	-9.23579
លោក	-9.23588
▁ចិត្តេន	-9.23607
▁សមណោ	-9.23897
▁សព្ពា	-9.23901
▁មាន	-9.23907
ភូតា	-9.24021
▁ភវំ	-9.24024
កាល	-9.24156
▁សាសន	-9.24207
▁នាគ	-9.24235
▁បីតិ	-9.24413
សចេ	-9.2456
▁អញ្ញមញ្ញំ	-9.24572
▁ហត្ថ	-9.24592
▁សក	-9.24595
▁បុនប្បុនំ	-9.24661
▁បរេសំ	-9.24752
▁អនន្តរបច្ចយេន	-9.25166
▁បុគ្គលា	-9.25319
រិ	-9.25382
▁សុត្តំ	-9.25384
▁ឯកស្មិំ	-9.25419
ពល	-9.25463
▁ភាសិតំ។	-9.25731
▁ចិត្តសមុដ្ឋានំ	-9.2584
ិតព្ពំ	-9.25911
▁សកល	-9.25917
▁កុល	-9.26003
គច្ឆ	-9.26137
▁តតិយ	-9.2625
▁កថេសិ។	-9.26673
▁បិយ	-9.26673
▁ទានិ	-9.26735
▁ទ្វិ	-9.26917
▁បិតា	-9.26933
ក្ខណេ	-9.26952
▁សរីរ	-9.26966
▁បរម	-9.27044
ភាវេ	-9.27301
រាជា	-9.27305
▁សទា	-9.27487
▁សន្តិ	-9.27646
▁បុត្ត	-9.27672
▁ទដ្ឋព្ពោ។	-9.27719
ឧ	-9.27807
▁តេនុបសង្កមិ	-9.2797
នេន	-9.28025
▁មុខ	-9.2812
▁បញ្ចន្នំ	-9.28166
▁អង្គ	-9.28288
▁អាយស្មតោ	-9.28296
▁បទំ	-9.28495
▁ឯត្ថាតិ	-9.28625
ឥតិ	-9.28679
ជ្ឈ	-9.28848
▁រជ្ជំ	-9.2887
▁អគ្គិ	-9.28876
▁អបិច	-9.28984
▁និរុជ្ឈតិ	-9.29137
▁បច្ច	-9.29284
ន្តេន	-9.29336
▁តិដ្ឋតិ	-9.29346
▁ការណេន	-9.29379
▁អឌ្	-9.29543
ិកាយ	-9.29603
▁សំ	-9.29615
▁ឥច្ចាទិ។	-9.29676
ជាតកវណ្ណនា	-9.2968
▁វីរិយំ	-9.2989
▁អាយស្មន្តំ	-9.29947
▁ឥន្ទ្រិយ	-9.29964
▁មារ	-9.29997
▁សន្តិកំ	-9.30002
▁សមានោ	-9.30228
ាម	-9.30357
អារម្មណេ	-9.30476
កប្ប	-9.30504
▁កត្ថចិ	-9.30511
ុប	-9.30607
គ	-9.30695
▁ទិព្ព	-9.30732
▁វិសេស	-9.30738
▁ជ	-9.30796
យិ	-9.30819
▁អរហា	-9.31242
▁ភាវនា	-9.31303
▁សន្តោ	-9.31343
▁និដ្ឋិតំ។	-9.31398
▁អត្ថាយ	-9.31598
▁អារម្មណំ	-9.31828
លក្ខណ	-9.31979
នវសេន	-9.32102
ភូត	-9.32238
▁មនសា	-9.32264
តត្ថ	-9.32277
▁សិក្ខា	-9.32299
រស	-9.3232
▁បណ្ឌិតោ	-9.32326
▁ឧទ្ធំ	-9.32366
▁សារ	-9.32394
▁ទុគ្គតិំ	-9.32503
▁សច្ចំ	-9.32524
▁សត	-9.32632
▁អកុសលោ	-9.32657
▁ជីវ	-9.32704
▁ចេតសា	-9.32744
តរ	-9.32753
▁និសីទិ។	-9.32765
▁ចិត្តសមុដ្ឋានាន	-9.32903
▁ថេរស្ស	-9.32958
▁បញ្ញត្តំ	-9.32983
▁អនុប	-9.33275
▁ព្រហ្មចរិយំ	-9.33284
▁ឧប្បាទក្ខណេ	-9.33389
▁គាម	-9.33512
កាម	-9.33536
មូល	-9.33568
▁ឧប្បជ្ជិស្សតិ។	-9.33642
សារ	-9.33684
▁បត្តំ	-9.33712
▁កិស្មិំ	-9.34054
▁និច្ចំ	-9.34129
▁ចតុត្ថ	-9.34302
▁បច្ឆិម	-9.34354
▁ភិក្ខុនិយោ	-9.34542
អាទិ	-9.34704
ឧប	-9.34718
▁លភតិ	-9.34733
▁គហិត	-9.34759
▁វដ្ដ	-9.34781
▁សុទ្ធ	-9.3483
▁យញ្ច	-9.34851
ិស្សន្តិ	-9.34949
▁១១	-9.34983
▁ឯកាទស	-9.3499
▁វិយ។	-9.35077
▁អានន្ទោ	-9.35157
▁បាឡិ	-9.35172
▁ឯសោ	-9.35288
▁អន្តរា	-9.35295
វស្ស	-9.35363
▁បញ្ហំ	-9.35426
េយ្យ។	-9.35455
▁នភាវនាយ	-9.35467
▁អាហរិត្វា	-9.35492
▁សហជាតបច្ចយ	-9.35573
▁ឯសា	-9.3571
េសូតិ	-9.35753
មន	-9.3578
▁សាសនេ	-9.35819
▁ជេតវនេ	-9.35822
▁នាមំ	-9.3583
▁ជីវិត	-9.3587
▁សមណ	-9.35946
▁មោហោ	-9.36062
▁វន	-9.36132
▁ឋិតា	-9.36161
េសិ។	-9.36351
▁គតិ	-9.36693
▁ទុក្ខស្ស	-9.36898
▁ទ្វយំ	-9.36977
ពុទ្ធ	-9.37019
▁បកតិ	-9.37128
ានម្បិ	-9.37141
បទំ	-9.37245
▁ខ	-9.3726
▁សព្ពេបិ	-9.37342
សម្បយុត្ត	-9.37348
▁ចរ	-9.37413
▁វចនតោ	-9.37458
កុល	-9.37607
មេវ។	-9.37657
▁ឯកច្ចោ	-9.37677
▁និរុជ្ឈិស្សតិ	-9.37706
ារម្មណ	-9.37936
▁មរណ	-9.37959
មុខ	-9.38105
▁បុរិមា	-9.3811
▁ឯវរូបំ	-9.38166
▁បុរតោ	-9.38238
▁សង្ខារ	-9.3829
ន្តិអាទិ	-9.38304
▁តន្តិ	-9.38455
គតំ	-9.38522
▁ព្រាហ្មណា	-9.38576
▁វិហរតិ។	-9.38579
▁ល	-9.38605
▁មនិន្ទ្រិយំ	-9.38681
▁វដ្ដតីតិ	-9.38714
បញ្ច	-9.3876
▁ឧត្តរ	-9.38789
▁តទេវ	-9.38828
នញ្ច	-9.38976
▁គន្ធ	-9.38979
ចិត្តោ	-9.39007
អា	-9.39037
▁អស	-9.3911
▁វិហរន្តោ	-9.3921
▁តុម្ហាកំ	-9.39341
▁អញ្ញតរោ	-9.39359
▁អតីត	-9.39374
▁វុត្តនយេន	-9.39382
សមនន្តរេ	-9.39427
▁សម្ម	-9.39469
▁ឧភយ	-9.39474
▁កាយេ	-9.39604
▁តតិយំ	-9.39655
▁សោមនស្សិន្ទ្រិយ	-9.39808
▁អប	-9.39828
ទិដ្ឋិ	-9.39862
▁ឧត្តម	-9.39949
▁ករោតិ។	-9.39955
▁កិស្ស	-9.4006
▁បដិឃានុសយ	-9.40097
សហស្ស	-9.40183
▁វិប្បយុត្តបច្ចយ	-9.40189
វចនំ	-9.40216
▁ឯត្តាវតា	-9.40293
▁បរេ	-9.4032
ចីវរ	-9.40325
▁មិគ	-9.40334
▁វិហារ	-9.40386
▁ភត្ត	-9.40397
▁កថា	-9.40433
▁បច្ចុប្បន្ន	-9.40485
ស្សាបិ	-9.40574
▁រុក្ខ	-9.4065
បាទ	-9.4083
វាទ	-9.40855
▁សុត	-9.40866
▁ហោតុ	-9.40903
▁ភវិស្សតិ។	-9.40989
▁ឧភោ	-9.40998
▁ផស្ស	-9.41065
▁តម្បិ	-9.41189
ិស្សាមិ	-9.41197
▁ទុ	-9.41282
▁បិណ្ឌាយ	-9.4129
▁ទិន្នំ	-9.41331
▁អធិបតិបច្ចយេន	-9.41337
វចន	-9.41446
▁អាសវា	-9.41458
▁អនេក	-9.41481
ិតព្ព	-9.41517
▁ហោន្តីតិ	-9.41969
▁ករេយ្យ	-9.4197
▁គច្ឆតិ។	-9.42055
ញ្ញ	-9.42093
ស្មិ	-9.42101
▁រូបាយតនំ	-9.4215
ិតេ	-9.42259
▁ភយ	-9.42321
▁វស	-9.42346
ដ	-9.4239
▁រាគ	-9.42413
បុព្ព	-9.42454
▁គ	-9.42455
▁បថវី	-9.426
▁ជីវិតំ	-9.42612
▁កម្មស្ស	-9.42614
រុ	-9.42756
ភិក្ខុ	-9.42809
មិវ	-9.42974
▁ភវន្តិ	-9.42996
▁កាយំ	-9.43092
▁ធាតូហិ	-9.43131
ចិត្តំ	-9.43174
ការណ	-9.43198
▁ពន្ធ	-9.43274
ិស្សាមី	-9.43308
▁សហស្ស	-9.43338
▁គណ្ហ	-9.4337
▁នអធិបតិយា	-9.4339
▁មោហ	-9.43412
▁បហាតព្ពោ	-9.4342
▁តេរស	-9.43456
▁ទ្វារ	-9.43482
▁សោបិ	-9.43522
▁ហ	-9.43537
▁អនាបត្តិ។	-9.43544
▁អាបត្តិយា	-9.43626
ត្ថេរោ	-9.43629
▁ភវិស្សតី	-9.43672
ករោ	-9.43742
វិសេស	-9.438
មស្ស	-9.43804
ទស្សន	-9.43834
▁ឥទ្ធិ	-9.43891
▁សមយំ	-9.44118
ញ្ចាតិ	-9.44267
ន្តិអាទិនា	-9.44289
▁អញ្ញថា	-9.44378
គត	-9.44481
▁សុខាយ	-9.44482
▁មហន្តំ	-9.44495
មយំ	-9.44608
▁បវិសិត្វា	-9.44639
▁អដ្ឋកថាយំ	-9.4467
▁វាចា	-9.44743
▁បុញ្ញំ	-9.44852
េថ	-9.44914
▁វីរិយ	-9.44925
▁បញ្ញត្តិ	-9.45022
មគ្គេ	-9.4504
▁អស្សាតិ	-9.45192
▁តមេវ	-9.45276
កិច្ចំ	-9.45332
▁អថស្ស	-9.45613
▁ពោធិ	-9.45642
▁ធម្មេន	-9.45708
▁ចវន្តានំ	-9.45729
េយ្យុំ	-9.45768
▁ភង្គក្ខណេ	-9.45839
▁វុត្តញ្ហេតំ	-9.4584
▁ហេតូ	-9.45868
បដិសម្ភិទា	-9.45868
▁បុដ្ឋោ	-9.4592
សីតិ	-9.45939
▁វន្ទិត្វា	-9.45944
ទោស	-9.45976
▁ទីប	-9.46002
បរ	-9.46032
▁និសីទិត្វា	-9.46116
▁វិស	-9.46419
▁អតីតំ	-9.4642
▁បធាន	-9.46437
សម្បត្តិ	-9.46805
▁ឧប្បាទ	-9.46876
▁គច្ឆន្តិ	-9.46906
ធម្មេ	-9.46906
▁ភិក្ខុនិយា	-9.47052
▁រស	-9.4709
ីហិ	-9.47195
▁អកុសល	-9.47296
▁ករោតីតិ	-9.4731
ាការ	-9.47312
▁អញ្ញតរំ	-9.47401
▁សុត្តេ	-9.47431
▁ឧប្បត្តិ	-9.47552
▁ឥត្ថី	-9.47592
▁សម្បយុត្តកានំ	-9.47679
នយ	-9.47686
ភេទ	-9.47692
▁បាចិត្តិយ	-9.47733
និទ្ទេសវណ្ណនា	-9.47823
▁កុតោ	-9.47903
ថា	-9.47915
▁ទស្សេតិ	-9.47964
េសុ។	-9.4802
▁អាបជ្ជតិ។	-9.48068
ធម្មំ	-9.48069
▁មហាភូតេ	-9.48126
▁ឯកស្ស	-9.48155
▁ធនំ	-9.48206
យតិ	-9.48395
មុ	-9.48429
▁មណិ	-9.48442
ហារ	-9.48586
▁កម្មបច្ចយេន	-9.48717
▁អាគតោ	-9.48784
▁ចតុត្ថំ	-9.48838
សហជាត	-9.48909
▁ជាតោ	-9.48914
▁ទិន្ន	-9.48975
▁វជ្ជ	-9.49024
▁ភាវោ	-9.49052
▁ឯវញ្ច	-9.49088
វារោ	-9.49159
▁ភិក្ខូហិ	-9.49222
បុប្ផ	-9.49269
▁លោកិយ	-9.49274
▁ភយំ	-9.49284
▁អញ្ញេន	-9.49289
កុសលំ	-9.49317
▁ឯវម្បិ	-9.49377
វគ្គ	-9.49418
ុំ	-9.49431
ភូមិ	-9.49488
▁ធាតុយោ	-9.49501
▁១២	-9.49524
▁បញ្ញត្តំ។	-9.49679
▁បសាទ	-9.49685
និមិត្ត	-9.49763
▁ជន	-9.49792
▁បាចិត្តិយស្ស។	-9.49796
▁នាមាតិ	-9.49926
▁អារោចេសុំ។	-9.49963
▁ភាវ	-9.49996
▁អដ្ឋារស	-9.50017
▁សង្ឃេន	-9.50175
សទិស	-9.50239
ច្ឆ	-9.50253
គតោ	-9.50336
▁នោវិគតេ	-9.50346
▁ខន្ធោ	-9.50398
▁ជីវិតិន្ទ្រិយំ	-9.50522
▁ចន្ទ	-9.50563
▁ចិត្តេ	-9.50576
▁នន្ទ	-9.50689
▁ឯតរហិ	-9.5072
មយ	-9.50795
ីយ	-9.50864
ជាតិ	-9.50941
▁អរិយសាវកោ	-9.5098
▁អសញ្ញសត្តានំ	-9.5107
▁វទតិ	-9.51144
▁អាបជ្ជតិ	-9.51351
ពន្ធ	-9.51383
▁វិហារំ	-9.51389
▁យានិ	-9.51446
▁នគរំ	-9.51453
▁វណ្ណោ	-9.51468
ាមី	-9.5148
▁មុនិ	-9.51598
គ្គហណេន	-9.51604
▁ឯតេសំ	-9.5175
▁បាទេ	-9.51797
▁ភូមិ	-9.51844
ត្វេវ	-9.51953
អថ	-9.52089
▁ជាត	-9.52266
កោ។	-9.52278
▁កិញ្ចាបិ	-9.52287
▁សិ	-9.52294
ភយ	-9.52351
▁ឆន្នំ	-9.52427
យតោ	-9.52434
▁គាថាយោ	-9.52469
▁ករ	-9.52667
ាយាតិ	-9.5268
កុសល	-9.52696
▁នវិប្បយុត្តេ	-9.52745
▁អភិវាទេត្វា	-9.52749
▁សេនាសនំ	-9.52769
▁កថ	-9.5291
▁នីល	-9.53101
េយ្យំ	-9.53104
▁បនស្ស	-9.53143
▁សមុដ្ឋាតិ	-9.532
នីយ	-9.53383
វារ	-9.53384
មានំ	-9.53496
▁បព្ពជិត្វា	-9.53537
▁ភូត	-9.53707
វរ	-9.53796
ត្វា	-9.54079
ក្ខន្ធ	-9.54093
និទ្ទេសោ	-9.54279
▁អញ្ញា	-9.54326
ឆ	-9.54353
▁បនេតំ	-9.54355
▁ភិយ្យោ	-9.54374
▁ខុទ្ទក	-9.54381
ភ	-9.54384
សិ។	-9.54429
ទេស	-9.54447
▁តិណ	-9.54465
វិប្បយុត្ត	-9.54537
គ្គហណ	-9.54544
យេវាតិ	-9.54604
េសុបិ	-9.5463
្យ	-9.54928
▁បដិវិរតោ	-9.5501
▁កស្ស	-9.55016
▁យុត្ត	-9.55054
▁ជនា	-9.55086
ទ្វារ	-9.5509
▁សុទំ	-9.55126
មេតំ	-9.5513
ន្ន	-9.55136
▁សារិបុត្តោ	-9.55216
▁រូបក្ខន្ធោ	-9.55355
▁វិហារេ	-9.55402
▁ឯវ។	-9.55437
ត្តយ	-9.55456
▁ឆិន្ន	-9.55463
▁និរោធ	-9.55465
▁ចាបិ	-9.55655
មោ	-9.55666
▁វិចិកិច្ឆានុសយ	-9.55752
▁បាចិត្តិយំ	-9.55779
អវិគត	-9.558
បី	-9.55818
យស្ស	-9.55818
▁អញ្ញស្ស	-9.55825
▁អរិយ	-9.55827
▁ព្យញ្ជន	-9.55905
▁ទុក្ខាយ	-9.55923
▁អវិ	-9.56261
▁អាយតិំ	-9.5632
▁សម្មាសម្ពុទ្ធ	-9.56326
▁សគ្គ	-9.56389
▁កាមរាគានុសយោ	-9.56557
▁ពហុំ	-9.56586
▁អព្យាកតំ	-9.56607
▁ទិវា	-9.56681
ាហ	-9.56692
▁រ	-9.56711
▁មគ្គស្ស	-9.56803
▁បាចិត្តិយំ។	-9.56898
ុប្បត្តិ	-9.56984
ទានំ	-9.57144
▁ទេវានំ	-9.57181
ហត្ថ	-9.57265
ទ្ធ	-9.57273
▁គាថាយ	-9.57338
▁បវត្តេ	-9.57472
វដ្ដ	-9.5756
▁បុថុ	-9.57708
កាលោ	-9.57816
▁ជិន	-9.57823
បញ្ញត្តិ	-9.57825
▁អាហារេ	-9.5783
▁កាលេន	-9.57923
▁អភាសិ	-9.57955
▁អយមេវ	-9.57973
បច្ឆាជាតេ	-9.58083
▁ចូឡ	-9.58109
▁តុយ្ហំ	-9.5815
▁ឯ	-9.5815
▁វទាមិ	-9.58186
▁ភវេយ្យ	-9.58201
▁វេទនំ	-9.5821
▁គហេតព្ពំ។	-9.58221
បច្ចយោ	-9.58395
▁បុច្ឆ	-9.58439
សម្បន្នោ	-9.58519
▁កតេ	-9.58525
▁នាគសេន	-9.58679
▁សម្បជានោ	-9.58785
▁លោកស្ស	-9.58832
▁និមិត្ត	-9.58857
គមន	-9.58864
▁វិបាកំ	-9.58891
▁តត្ថាតិ	-9.59014
▁បុរិសស្ស	-9.5902
▁ចោរ	-9.591
▁អសតិ	-9.59286
▁ហេតុំ	-9.5937
▁ចិន្តេត្វា	-9.5942
▁រូបស្ស	-9.59437
សមាធិ	-9.59476
វិហារ	-9.59479
▁សិយា។	-9.59489
ភាស	-9.5953
តាតិ	-9.59701
មិទំ	-9.59761
▁នេវទស្សនេន	-9.59801
ទស	-9.59915
▁កិច្ច	-9.59964
▁ខាទ	-9.60078
▁រាជានំ	-9.60087
▁បដិសន្ធិ	-9.60336
▁ទណ្ឌ	-9.6034
▁ឧទបាទិ	-9.60409
កានំ	-9.60417
សាធុ	-9.60446
▁កាមរាគានុសយ	-9.60477
▁វទេយ្យ	-9.60576
▁វិតក្កោ	-9.60632
▁អាហារ	-9.60735
▁បិតុ	-9.60788
▁ទិវសេ	-9.60856
▁វិតក្ក	-9.60868
ធិ	-9.60888
ាទិតោ	-9.60959
សូ	-9.61025
▁កាមេ	-9.61056
▁សីហ	-9.61091
រតន	-9.61197
▁ឧប្បជ្ជិស្សតីតិ	-9.6124
ភាវតោ។	-9.61417
▁ឋានេសុ	-9.61616
▁លោភ	-9.61643
▁ខន្ធេហិ	-9.61648
▁សេយ្យថិទំ	-9.61654
▁អយ	-9.61798
▁អធិ	-9.61826
▁ពលវ	-9.61833
▁១៣	-9.61846
▁ទុតិយេ	-9.61881
▁ធម្មាយតនំ	-9.619
ភត្ត	-9.61909
▁យក្ខ	-9.61912
▁ឧប្បន្នា	-9.62008
▁បដិឃានុសយោ	-9.62024
▁អាកាសេ	-9.62117
▁អរិយា	-9.62125
▁វដ្ដតី	-9.62139
បុច្ឆា	-9.62156
▁សុភ	-9.6217
មន្ត	-9.62189
▁ឧត្តរិ	-9.6225
▁មហ	-9.62252
វន	-9.62253
ញាណំ	-9.62291
▁ឥត្ថិ	-9.62301
េហី	-9.62311
▁បដិបន្នោ	-9.62484
មេវាតិ	-9.62504
▁សក្កោតិ	-9.62596
▁ញាណេន	-9.62785
ិតត្តា	-9.62847
មត្តមេវ	-9.62919
▁បច	-9.63014
▁គរុ	-9.6307
ាប	-9.63092
▁នអាសេវនេ	-9.63178
▁អនុលោម	-9.63254
▁អាចរិយ	-9.63308
ចិត្តស្ស	-9.63413
▁វីសតិ	-9.6343
ហេតុយា	-9.63522
▁រេ	-9.63538
▁មគ្គេ	-9.63687
▁បវត្តា	-9.63723
កត	-9.63724
▁នបុរេជាតេ	-9.63823
▁និស្សគ្គិយំ	-9.63859
▁ឥត្ថំ	-9.63882
តរោ	-9.63883
យិត្វា	-9.6405
▁ភវតិ	-9.64153
▁ឯតទហោសិ	-9.64207
▁ពាល	-9.64312
វុត្តិ	-9.6441
▁អាសវានំ	-9.64449
ភាវនា	-9.64474
▁ភិន្ន	-9.64488
សន្តិ	-9.64534
សូតិ	-9.64558
▁បទុម	-9.6462
▁ខណ	-9.64656
▁តថ	-9.64759
▁បណ្ឌិតា	-9.64783
▁នកម្មេ	-9.64784
▁បាបំ	-9.64921
▁វិចិកិច្ឆា	-9.64964
សុត្តាទិវណ្ណនា	-9.64986
វារេ	-9.65005
ជ្ឈាន	-9.6505
▁គណ្ហាតិ	-9.6508
▁អធិបតិយា	-9.65164
▁ចក្ខុំ	-9.65234
ភន្តេ	-9.6536
▁សេដ្ឋ	-9.65362
សរ	-9.65413
▁ឃដ	-9.65446
▁សភាវ	-9.65447
▁កេស	-9.65454
▁១៤	-9.65488
▁សង្ឃេ	-9.65508
▁សច្ចានិ	-9.65532
▁បវិស	-9.6556
▁មន្ត	-9.6556
បុត្ត	-9.6558
▁បហីនា	-9.65605
▁អកត្វា	-9.65725
កន្តិ	-9.65751
▁វិជ្ជតិ	-9.65753
▁អហុ	-9.65833
▁ទិដ្ឋិយា	-9.65951
▁តម	-9.65964
កិលេស	-9.65977
បុញ្ញ	-9.65979
គណ	-9.66026
▁អនាគត	-9.66032
▁បុរិសិន្ទ្រិយំ	-9.66057
▁គមន	-9.66101
▁អនិទស្សនអប្បដិឃ	-9.66205
បស្ស	-9.66226
▁រតន	-9.66242
មំ	-9.66281
▁សតំ	-9.66284
▁ពាលោ	-9.66473
▁លោកុត្តរ	-9.66528
គោ	-9.66529
▁បកតូបនិស្សយោ	-9.66562
▁ឋាន	-9.66573
កថញ្ច	-9.66619
▁បាឋោ	-9.66632
តោបិ	-9.66741
▁ឧបនិស្សាយ	-9.66828
ព្ព	-9.66845
▁ករិត្វា	-9.66915
▁ចេតសោ	-9.67061
▁បុគ្គល	-9.67086
▁នវិបាកេ	-9.67107
▁បហានាយ	-9.67145
▁អនា	-9.67156
▁ជាតិយា	-9.67179
រី	-9.67192
▁ជាតា	-9.67198
▁តណ្ហាយ	-9.6745
តទា	-9.67481
▁គត	-9.67588
កុសលោ	-9.67715
▁អលំ	-9.67731
ត្ថា	-9.6785
▁បញ្ចសុ	-9.67872
▁និក្ខមិត្វា	-9.67874
បច្ច	-9.67893
និទ្ទេសេ	-9.67923
▁ភុញ្ជ	-9.68006
▁អធិដ្ឋាន	-9.68022
▁វុច្ចន្តិ	-9.68051
សហស្សានិ	-9.68181
តូ	-9.68218
▁៥៩	-9.68249
▁អាមន្តេសិ	-9.68306
វគ្គវណ្ណនា	-9.68408
▁កទាចិ	-9.6848
▁វត្តុំ	-9.68489
នក	-9.68599
អាទយោ	-9.6861
▁បរិជានាតិ	-9.68638
▁រថ	-9.6864
▁អនិច្ចតោ	-9.68771
ត្តេ	-9.68781
▁វិសេសោ	-9.68862
▁តស្សត្ថោ	-9.68995
វសេនាតិ	-9.69015
ឥមេ	-9.69037
▁ឧបាលិ	-9.69134
▁តាត	-9.69192
▁កិលេសា	-9.69234
▁សមត្តា។	-9.69295
វេ	-9.69296
គន្ធ	-9.69367
ាទិកេ	-9.69395
▁ហី	-9.69466
កំ។	-9.69466
▁គតា	-9.69496
▁នាភិជានាមិ	-9.6952
ប្បត្តោ	-9.69593
▁គរហ	-9.69666
▁សមន្តតោ	-9.69675
ល្ល	-9.69754
▁វត្ថ	-9.69756
▁ហេតុស្ស	-9.69816
▁តមត្ថំ	-9.69825
ត្យ	-9.69853
▁ឧបេក្ខិន្ទ្រិយំ	-9.69869
មាស	-9.69923
ហីតិ	-9.69924
េនបិ	-9.69937
អត្ថ	-9.70042
▁ចក្កវត្តី	-9.70064
▁បរោ	-9.70131
▁រម	-9.70143
▁ឧប្បន្នោ	-9.70152
ពន្ធន	-9.70167
▁ឯកំ។	-9.70183
វត្ថ	-9.70189
▁យោជនា	-9.70248
▁អជ្ឈត្ត	-9.70248
▁បហាន	-9.70269
គាម	-9.70276
▁ភ	-9.70302
▁ទុតិយោ	-9.70356
េយេវ	-9.70515
អនុ	-9.70632
សហ	-9.70649
មត្តេ	-9.70711
▁គច្ឆតីតិ	-9.70728
សមុដ្ឋាន	-9.70918
▁ឥមាយ	-9.70964
▁បរិទេវ	-9.70993
តតោ	-9.71003
ិស្ស	-9.71092
▁បច្ឆិមានំ	-9.71123
អនុជានាមិ	-9.71156
▁បរិបុណ្ណ	-9.71158
ទុកំ	-9.71178
▁បុច្ឆិត្វា	-9.71249
▁អាគម	-9.71251
▁បជហតិ	-9.71282
▁អតិវិយ	-9.71313
▁អនុសយា	-9.71333
ក្ក	-9.71346
▁សព្ពោ	-9.71468
ឱ	-9.71532
▁និមិត្តំ	-9.71533
ភោ	-9.71537
▁និរ	-9.71546
ាទិកំ	-9.71583
ញ្ញេវ	-9.71622
▁សហជាត	-9.71657
កិរិយា	-9.71678
▁ថ	-9.71684
▁ពុទ្ធានំ	-9.71833
▁មហន្ត	-9.7189
▁ចេតំ	-9.71897
▁កាមាវចរ	-9.72004
▁និស្សយ	-9.72022
▁សយមេវ	-9.72122
▁ញាតិ	-9.72156
នដ្ឋេន	-9.72163
▁ខណេ	-9.72197
មល	-9.72283
▁ឯត្ថាបិ	-9.72287
▁យោនិសោ	-9.72292
ទា	-9.72313
មំស	-9.72369
ិត្ថ	-9.72372
ាបន	-9.72398
ឃ	-9.72432
▁អទាសិ។	-9.72452
▁យាច	-9.725
ត្ថិ	-9.72634
▁ជានន្តិ	-9.72744
▁អយមេត្ថ	-9.72832
ញ្ច។	-9.72919
វាតិ	-9.72933
▁សញ្ញាក្ខន្ធោ	-9.72993
▁ទុស្ស	-9.73023
▁វេទ	-9.73029
▁១៥	-9.73128
▁អប្បដិ	-9.73139
▁អាចិក្ខ	-9.7323
▁អតិរេក	-9.73247
វិញ្ញាណ	-9.73357
▁អហេសុំ	-9.73429
មនោ	-9.7351
រា	-9.73555
▁កថញ្ច	-9.73645
▁វាចំ	-9.73658
ាមីតិ	-9.73755
▁គាមំ	-9.73789
▁បញ្ញិន្ទ្រិយំ	-9.73908
ម្ហ	-9.73912
▁មជ្ឈិម	-9.73945
▁អាគតា	-9.73963
▁៥៧	-9.74018
▁ឥធេកច្ចោ	-9.7402
▁សរីរំ	-9.7407
▁មនាយតនំ	-9.74239
▁ឃានិន្ទ្រិយំ	-9.74263
ប្	-9.74408
វាទី	-9.74495
▁កិលេសេ	-9.74517
▁លភិត្វា	-9.74676
▁បព្ពជិតោ	-9.74795
▁ហីន	-9.74804
▁ឧបលព្ភតិ	-9.74816
មត្តេន	-9.74835
▁លិង្គ	-9.74871
▁ទុក្កដំ។	-9.74925
នត្ថិយា	-9.74944
▁សីស	-9.74959
▁កាយសង្ខារោ	-9.74978
▁មហាសត្តោ	-9.75002
▁កតោ	-9.75158
▁សម្ប	-9.75189
យោគ	-9.75196
ន្តានំ	-9.75203
ត្ថេរស្ស	-9.75232
▁រោគ	-9.75251
▁នទី	-9.75272
ាបេតិ	-9.75338
▁សត្តរស	-9.75399
▁សេត	-9.75428
▁សត្ថារំ	-9.75441
▁អន្ត	-9.75446
▁បហីនោ	-9.75497
▁វិត្ថារេន	-9.75514
នយោ	-9.75575
▁២២	-9.7558
▁បព្ពត	-9.75582
▁បាឋោ។	-9.75617
▁៥៦	-9.75646
ព្យ	-9.75736
▁តញ្ហិ	-9.75762
▁ភោជនំ	-9.75804
▁អាយុ	-9.75816
▁វណ្ណំ	-9.75868
សត	-9.75868
▁ឥទម្បិ	-9.75871
▁តស្សុទ្ទានំ	-9.75877
▁១៦	-9.75989
▁បហាតព្ពហេតុកោ	-9.76032
▁ឋិតំ	-9.76038
▁អរញ្ញេ	-9.7604
▁បរតោ	-9.7605
នេវ	-9.76066
មាហ	-9.76131
▁មិច្ឆាទិដ្ឋិ	-9.76148
▁ឥត្ថិន្ទ្រិយំ	-9.76155
▁តិំស	-9.76192
▁មរណំ	-9.76245
▁មធុរ	-9.76309
▁ជាតកំ	-9.76322
▁ទោមនស្សំ	-9.76353
▁វិវេក	-9.76383
▁គន្ថ	-9.76383
▁ភាស	-9.76514
▁គម	-9.76517
▁អក្ខ	-9.76527
ជន	-9.76543
▁ភរិយា	-9.76559
លក្ខណា	-9.76575
សេយ្យថាបិ	-9.76629
សុខំ	-9.767
▁ទិដ្ឋេវ	-9.76711
វេទនា	-9.7677
▁ឧតុ	-9.76771
ាសុ	-9.76773
▁សមំ	-9.76787
▁បុញ្ញានិ	-9.76796
▁អាហរ	-9.76851
▁វិគត	-9.76973
▁ឆន្ទោ	-9.77003
▁សទ្ធិន្ទ្រិយំ	-9.77056
▁ឯតស្មិំ	-9.77102
ន្តិអាទីសុ	-9.77102
សច្ច	-9.77115
▁រក្ខ	-9.77159
▁ក្វចិ	-9.77252
បយោគ	-9.7731
▁កស្សប	-9.7734
ជា	-9.77367
▁អត្តនិ	-9.77371
▁សុចិ	-9.77373
េហិ។	-9.77392
▁មុត្ត	-9.77441
▁អនុសាស	-9.77447
▁មនុស្សានំ	-9.77519
▁អវិជ្ជានុសយ	-9.77522
▁ចក្ខុនា	-9.77575
▁គហណ	-9.77585
និមិត្តំ	-9.77611
▁សទ្ទំ	-9.77617
▁រត្តិ	-9.77648
សង្ឃ	-9.77677
▁កតា	-9.77718
▁ឯតេនាតិ	-9.77732
សង្ខាត	-9.77791
សម្បត្តិយា	-9.77815
▁អញ្ញមញ្ញ	-9.77852
▁យាយ	-9.77875
▁ឧប្បជ្ជិត្ថាតិ	-9.77945
រាគ	-9.78047
▁អកាសិ។	-9.78053
▁រត្ត	-9.7809
▁គិហិ	-9.78111
ាទីសុបិ	-9.78135
▁នុប្បជ្ជតិ	-9.78149
▁រូបានិ	-9.78158
ករណំ	-9.78241
ទំ	-9.78255
▁វិវរ	-9.78274
▁ពីជ	-9.78297
▁ទីបេតិ។	-9.78333
▁អាហារោ	-9.78419
▁៦៧	-9.78591
▁ភត្តំ	-9.78622
▁សោមនស្ស	-9.78725
▁និរោធោ	-9.78768
▁វុ	-9.78779
▁ឥមេសុ	-9.78796
▁កាមេហិ	-9.78833
▁ទស្ស	-9.78835
▁ភាសិតំ	-9.78849
▁ឥតរេសំ	-9.78869
▁សមុទយោ	-9.78887
នត្ថិ	-9.78993
ភណ្ឌ	-9.79037
▁វស្សានិ	-9.79066
ការី	-9.79182
▁សហជាតំ	-9.79189
ចក្ខុ	-9.79279
▁វេទនាសុ	-9.7932
រត្ត	-9.79341
▁កាមា	-9.79422
▁បរិត្ត	-9.79542
▁តហិំ	-9.79553
ខ	-9.79606
▁យោជេតព្ពំ។	-9.79668
▁អហមេវ	-9.79674
ារម្មណំ	-9.79707
▁តរ	-9.79783
លិង្គ	-9.79862
▁អសំកិលិដ្ឋ	-9.79955
ាការេន	-9.79975
▁បិវ	-9.80005
▁ឱភាស	-9.80017
▁ព្រាហ្មណស្ស	-9.80018
បណ្ណ	-9.80069
▁កតិហិ	-9.80072
▁អញ្ញត្ថ	-9.80119
យ្យ	-9.8015
▁មេត្តា	-9.80371
▁និវត្ត	-9.80486
▁ទុក្កដ	-9.80534
▁គាថំ	-9.80596
▁កោធ	-9.80608
▁បឋមេ	-9.80616
▁សីត	-9.80705
▁មំស	-9.80712
▁ខត្តិយ	-9.80724
ជាន	-9.80773
▁វិត្ថារតោ	-9.80814
▁វិទិត្វា	-9.80841
មគ្គោ	-9.80892
▁ពុទ្ធា	-9.8093
▁សិក្ខាបទំ	-9.81003
▁សម្មាសម្ពុទ្ធោ	-9.81031
ការស្ស	-9.811
េតី	-9.81128
សតិ	-9.81152
▁វិមុត្តិ	-9.81222
▁រូបេ	-9.81267
▁១៧	-9.81303
▁បារាជិក	-9.8137
▁បាណ	-9.81437
នត្ថាយ	-9.81483
▁តុវំ	-9.81527
មី	-9.81533
▁៥៨	-9.8154
▁អាយតន	-9.81583
▁កាឡ	-9.81602
▁រត្តិំ	-9.81618
▁មិត្ត	-9.81668
▁សច្ចិកដ្ឋបរមត្ថ	-9.81679
▁អនន្តរេ	-9.81688
សីស	-9.81706
▁កតមានិ	-9.81764
▁ភវោ	-9.81813
▁មានានុសយោ	-9.81833
▁កម្មេន	-9.81846
សញ្ញាយ	-9.81888
▁ជាល	-9.81892
▁ជល	-9.81894
▁ឯវមាទិនា	-9.81906
មុខេន	-9.81946
▁បកាសេន្តោ	-9.82009
▁អាវិ	-9.82016
▁វទ	-9.82035
▁សញ្ញោជន	-9.82104
▁បយោគេ	-9.82145
▁វចីសង្ខារោ	-9.8216
▁កាមធាតុយា	-9.82173
▁ហរ	-9.8227
▁អបរភាគេ	-9.82308
▁លោហិត	-9.82313
▁វេទិតព្ពោ	-9.82343
▁បុគ្គលំ	-9.82363
▁តិស្ស	-9.8239
▁ឧទាហុ	-9.82453
យោ។	-9.82454
▁អរិយោ	-9.82525
▁សមណព្រាហ្មណា	-9.82613
▁រាជគហេ	-9.82695
▁នសម្បយុត្តេ	-9.82774
ឥមំ	-9.82853
ន្តិយា	-9.82857
▁មុខំ	-9.82888
▁អារម្មណាធិបតិ	-9.8293
តរំ	-9.82957
▁អម្ព	-9.82957
▁វិបាកេ	-9.82957
▁ឯវញ្ហិ	-9.82959
▁ឧបាទាន	-9.83031
▁អនវជ្ជ	-9.83035
▁កប្បិយ	-9.83117
▁កាលោ	-9.83148
▁និរុជ្ឈិត្ថ	-9.83187
▁សេសា	-9.83215
ធា	-9.83224
▁អាគម្ម	-9.83268
ីយតីតិ	-9.83292
នត្ថំ	-9.83314
េយ្យា	-9.83339
▁សម្មុខា	-9.83351
ាបត្តិ	-9.83361
▁វិបស្សនំ	-9.83406
▁កម្មដ្ឋាន	-9.83421
▁អរញ្ញ	-9.83458
▁បូរ	-9.83466
កតមេហិ	-9.83479
ចិត្តសមុដ្ឋានញ្ច	-9.83514
▁បាសាណ	-9.83521
▁ឋបិត	-9.8359
▁ឧទ	-9.83597
▁ទិស្សតិ	-9.83601
▁កិរិយា	-9.83622
▁ឯកន្ត	-9.83626
▁វិយាតិ	-9.8363
▁ហិត	-9.83649
▁ទិស្វាន	-9.8367
យុត្ត	-9.83701
▁ទេស	-9.8375
ក្កម	-9.83868
រំ	-9.83889
▁ឯវាតិ	-9.83942
េតព្ព	-9.83992
ដ្ឋំ	-9.8401
▁យេភុយ្យេន	-9.84013
▁៧០	-9.84022
▁៦១	-9.84082
▁រូបំ។	-9.84082
អន	-9.84155
▁ទេវោ	-9.84177
▁អនន្ត	-9.84283
▁សេសមេត្ថ	-9.84338
▁កេ	-9.84412
▁ខម	-9.84494
▁អកប្បិយ	-9.84528
សតានិ	-9.8453
ន្ទ	-9.84554
យំ។	-9.84555
▁បន្នរស	-9.84613
ិស្សំ	-9.84686
លា	-9.84746
សភាវ	-9.84783
▁ទូរេ	-9.84806
▁កម្មដ្ឋានំ	-9.84865
ទ្វយ	-9.84881
▁ឧប្បជ្ជន្តិ។	-9.8489
ភោគ	-9.84896
▁និព្ពត្តោ	-9.84906
▁តុណ្ហី	-9.84965
▁អបរ	-9.84976
▁មង្គល	-9.84995
▁សុខា	-9.85002
▁លភ	-9.85008
▁ភណ	-9.85029
▁បកាស	-9.85101
▁និសីទ	-9.85116
▁៦៥	-9.8512
ណំ	-9.85298
ស្សិទំ	-9.8533
កិលេសា	-9.85336
ភាគ	-9.8535
េនា	-9.8537
▁មុសា	-9.85403
▁ចិន្តេសិ	-9.85503
▁សទ្ធាយ	-9.85532
▁ឯកាយ	-9.85549
▁នគរ	-9.85558
▁កុសលស្ស	-9.85571
សុណាតុ	-9.85606
▁សម្បយុត្តា	-9.85631
▁ករុណា	-9.85633
រាសិ	-9.85749
▁សាធារណ	-9.85763
▁មាតុ	-9.85828
▁៨០	-9.85831
▁ឯតេសុ	-9.85963
បុគ្គល	-9.85985
▁ឧបោសថ	-9.85986
▁មធុ	-9.8602
រសោ	-9.86048
▁១៨	-9.86061
▁អនន្តរ	-9.86126
▁សញ្ញាយ	-9.86171
កោដិ	-9.86283
នាតិ	-9.86352
ធម្មានំ	-9.86364
▁សាវក	-9.86409
▁៦៦	-9.86431
គតិ	-9.86433
▁សំវរ	-9.86502
វិសយ	-9.86564
▁បុរេជាតបច្ចយេន	-9.86623
▁បុត្តំ	-9.86759
▁ឯវមេតំ	-9.86765
▁និរយ	-9.86819
លោម	-9.86868
▁មន	-9.86885
▁៥៥	-9.86892
បរិច្ឆេទ	-9.86913
▁៦៩	-9.86952
▁សមថ	-9.8697
▁១៩	-9.87088
▁ទឡ្ហ	-9.87123
▁៧៤	-9.87147
▁ភជ	-9.87192
▁ឥច្ឆ	-9.87197
▁គច្ឆេយ្យ	-9.8725
▁អន្តមសោ	-9.8728
▁សម្បយុត្តោ	-9.8732
▁សរណ	-9.87377
▁ឃានាយតនំ	-9.87382
ទីប	-9.87458
ិតុកាមោ	-9.87515
▁អតីតេ	-9.87539
▁កេហិចិ	-9.87544
▁កុលេ	-9.87565
រតោ	-9.87597
▁លោភោ	-9.87604
▁ទុក្ខសច្ចំ	-9.87645
▁វាបិ	-9.87654
ទុក	-9.87706
ាធិបតិ	-9.87799
វីរិយ	-9.878
▁អបាយ	-9.87801
តណ្ហា	-9.87853
▁គច្ឆន្តោ	-9.87858
▁បរិវារ	-9.87867
វជ្ជ	-9.87882
▁អមត	-9.87889
▁ហន	-9.87892
សទិសំ	-9.87927
មនុ	-9.88015
▁ភិក្ខុស្ស	-9.88029
▁វច្ឆ	-9.88084
ភោជន	-9.88092
▁ជិនោ	-9.88097
▁និរយំ	-9.88154
ិតំ។	-9.88194
▁នរោ	-9.88245
▁សទ្ទោ	-9.88319
ិស្សតី	-9.88328
▁សមា	-9.88353
▁នយ	-9.88393
ុត្តរ	-9.88401
▁៦០	-9.88535
▁រូបធាតុយា	-9.88571
ព្ភ	-9.88572
▁អជ	-9.88638
▁បរិវត្ត	-9.88673
▁នាមរូប	-9.88686
សង្ខាតា	-9.88698
▁អហេសុំ។	-9.88732
▁៦៨	-9.88805
សតំ	-9.88811
▁តតិយេ	-9.88839
▁មគ្គេន	-9.88839
▁បូរេត្វា	-9.88905
ទោ	-9.88912
▁២០	-9.88919
▁ចរតិ	-9.89002
▁អរូប	-9.8908
សេស	-9.89082
▁បព្ពជ្ជា	-9.8909
▁អទាសិ	-9.89091
ាយតន	-9.89178
ិតព្ពំ។	-9.89191
▁សាល	-9.89334
▁ឯកច្ចេ	-9.8941
▁សហជាតា	-9.89439
▁វិញ្ញាណក្ខន្ធោ	-9.89557
▁អភាសិត្ថាតិ។	-9.89689
▁ជរា	-9.898
ចារ	-9.89846
▁ទ្វិធា	-9.89901
វណ្ណំ	-9.89974
▁អក្កោស	-9.89991
▁អភាវតោ	-9.90038
▁សមន្តា	-9.90042
សម្បទា	-9.90136
▁លព្ភតិ	-9.90226
ទេសនា	-9.90234
កានិ	-9.90254
មញ្ញ	-9.90269
▁២១	-9.90375
▁បុច្ឆិ។	-9.90386
ឯវ	-9.9058
វិធ	-9.9062
ប្បដិ	-9.90659
▁មុញ្ច	-9.90686
▁សាមញ្ញ	-9.90721
▁យេហិ	-9.90726
▁ហត្ថេ	-9.90734
▁ឥមិស្សា	-9.90766
▁អរហំ	-9.90771
▁សេយ្យោ	-9.90803
វោ	-9.90842
រុក្ខ	-9.90854
▁នឧបនិស្សយេ	-9.90866
ការណំ	-9.90889
បុរិស	-9.90945
ភេទោ	-9.91004
▁ឧទ្ទិស្ស	-9.91016
▁មិច្ឆា	-9.91037
▁អធោ	-9.91068
▁អញ្ញេសំ	-9.91078
▁ឧទកេ	-9.91139
▁ហេតុបច្ចយោ	-9.91147
▁មច្ឆ	-9.91149
▁ទន្ត	-9.91151
▁ចតុត្ថំ។	-9.91165
ហា	-9.91271
▁ឥរិយាបថ	-9.91299
ឃាត	-9.91312
តន្តិ	-9.91327
▁ឈានេ	-9.9136
▁ហញ្ចិ	-9.91372
▁សង្ខារក្ខន្ធោ	-9.91505
▁ភាវិតា	-9.91541
មយា	-9.9166
▁ឧបនិស្សយេ	-9.91669
▁ហទយ	-9.91685
ន្តិបិ	-9.91744
▁ឧទ្ទេស	-9.91768
▁គិលាន	-9.91864
▁បច្ឆិមភវិកានំ	-9.92064
▁ជានាមិ	-9.92093
▁ទក្ខិណ	-9.92162
វតី	-9.92198
▁ភាសតិ	-9.92234
▁បុណ្ណ	-9.92365
▁បរិយាយេន	-9.92383
▁មន្ទ	-9.92484
▁២៣	-9.92506
▁ពាហិរំ	-9.92562
▁ចុទ្ទស	-9.92563
▁អនិច្ចំ	-9.92599
▁៩០	-9.92636
▁អកត	-9.92654
▁សហជាតេ	-9.9269
បន	-9.92692
▁សន្តេ	-9.92698
▁មញ្ញេ	-9.92708
កេហិ	-9.92751
▁កសិណ	-9.92792
នឈានេ	-9.92806
▁លាភ	-9.92852
▁ករណ	-9.92915
▁ឯកេក	-9.92935
▁មាតាបិតរោ	-9.92952
▁សព្ពានិ	-9.93046
▁អនត្ថ	-9.93054
គ្គាហ	-9.93104
▁អស្សាទ	-9.93136
▁តេនេវាហ	-9.93195
គ្គហណំ	-9.93257
▁សីសំ	-9.93259
▁អដ្ឋាសិ។	-9.93259
អាទីនំ	-9.93277
▁តេបិ	-9.93334
នាយ	-9.93341
▁ឯតស្សាតិ	-9.9337
▁អហ	-9.93574
កុ	-9.93615
មិច្ឆ	-9.93643
▁និស្សយេ	-9.93649
▁ឯវរូបោ	-9.93702
▁នេក្ខម្ម	-9.93738
▁សំសារ	-9.93747
បញ្ហោ	-9.93807
▁៨៦	-9.93813
ម្បីតិ	-9.93831
▁សង្ខារេ	-9.93855
ត្តោ	-9.93855
▁ឆព្ពគ្គិយា	-9.93954
▁បណ្ឌិត	-9.93961
ហី	-9.93987
▁វិចិកិច្ឆានុសយោ	-9.93991
▁៨៣	-9.94009
គតា	-9.94053
តិអាទីនិ	-9.94056
▁អនុត្តរំ	-9.9408
▁ទាតុំ	-9.94107
▁អរូបធាតុយា	-9.94134
ប្បវត្តិ	-9.94194
▁អភិញ្ញាយ	-9.94213
▁២៤	-9.94292
ហិត	-9.94313
ារ	-9.94328
▁អារម្មណបច្ចយា	-9.9433
▁វចនេន	-9.94419
▁បោស	-9.94438
▁៨៤	-9.94498
▁កាមេសុ	-9.94607
▁អព្ភ	-9.94718
ក្	-9.94808
▁អគមាសិ។	-9.94838
សមយេ	-9.94869
▁ឥត្ថន្នាម	-9.94878
មជ្ឈេ	-9.94886
▁អត្ថស្ស	-9.94913
▁អធិករណំ	-9.94962
▁វិហរ	-9.94981
▁នាស	-9.94984
មុប	-9.95055
▁សមុទយសច្ចំ	-9.95069
▁វន្ទ	-9.95124
▁បជានាតិ។	-9.95152
▁ទុតិយំ។	-9.95189
មនុស្ស	-9.95251
▁ឥទញ្ច	-9.95251
▁កត្តុ	-9.95254
▁វគ្គ	-9.95256
សង្ខ	-9.95259
នយេន	-9.95338
ត្រ	-9.95347
អភិ	-9.95423
▁បរិយាយ	-9.95427
▁ខយ	-9.9549
▁ខន្ធា។	-9.95502
▁នេតំ	-9.95511
▁សង្គហ	-9.95571
▁សុគតោ	-9.95601
ានេវ	-9.95601
ត្តាតិ	-9.95611
សទិសោ	-9.95682
អនន្តរេ	-9.95746
▁ឯវមេត្ថ	-9.95748
េក	-9.95821
▁និរុជ្ឈតិ។	-9.95904
▁ពោជ្ឈង្គា	-9.95915
▁វីមំស	-9.95957
▁ទិដ្ឋំ	-9.95963
នេ។	-9.95964
មាហ។	-9.95995
▁ចិត្តសង្ខារោ	-9.96004
▁បហាតព្ពំ	-9.9603
▁ឆសុ	-9.96042
▁ពាហិរ	-9.96074
▁៧១	-9.96078
▁២៥	-9.96206
▁ឯវមស្ស	-9.96215
▁សហេតុក	-9.96224
▁តក្ក	-9.96256
▁មុទុ	-9.96263
▁សទិស	-9.96265
▁ឧប្បជ្ជិត្ថ។	-9.96282
▁៧២	-9.96288
▁សត្តេ	-9.96293
លក្ខណោ	-9.96335
ីសុ	-9.96387
▁ភវិស្សន្តិ	-9.96407
▁បឋមោ	-9.96414
▁នូន	-9.9647
▁អធិវចនំ។	-9.96482
ជាតោ	-9.96513
សញ្ញ	-9.96518
▁សក្ក	-9.96525
▁បទានិ	-9.96546
▁លព្ភតិ។	-9.96547
▁ទេសេតិ	-9.96588
▁បញ្ញាយតិ	-9.96604
▁គតោ។	-9.96662
មហ	-9.96671
▁ភោគ	-9.96691
▁អភិនន្ទតិ	-9.96746
▁៧៥	-9.96818
▁អទ្ធា	-9.96824
▁៧៨	-9.96833
ណី	-9.96854
អវិតក្កវិចារមត្ត	-9.96895
▁ភណ្ឌ	-9.96934
▁បនាវុសោ	-9.96975
▁បរិបូរ	-9.96994
▁ករោន្តស្ស	-9.97027
មជ្ឈ	-9.97105
▁៧៦	-9.97121
▁សទ្ធម្ម	-9.97123
បក្ខ	-9.97137
▁វិភជិត្វា	-9.97185
▁២៦	-9.97193
គ្ឃ	-9.97236
បាប	-9.97274
▁បុថុជ្ជនោ	-9.97395
ុឌ្	-9.974
▁មនុស្សេសុ	-9.97416
កតំ	-9.97616
▁១០០	-9.97659
▁សង្គណ្ហាតិ។	-9.97683
▁កិ	-9.97711
▁និព្ព	-9.97721
ចេតនា	-9.97726
និទាន	-9.97737
▁ទស្សនំ	-9.97763
▁ហោតីតិ។	-9.97778
▁បរិសា	-9.97841
▁ឥសិ	-9.97861
▁៧៣	-9.97867
ទស្សនត្ថំ	-9.9795
▁សត្តមេ	-9.97984
អហោ	-9.97995
ណ្ឌ	-9.98003
ណិ	-9.98047
▁វិនិច្ឆយោ	-9.98065
▁បវ	-9.98161
▁វត្ថុញ្ច	-9.98164
▁យថារហំ	-9.98166
សុត្តេ	-9.98189
▁អនុបាទិន្ន	-9.9821
▁៧៩	-9.98259
គាថា	-9.98315
▁ឯវមេវំ	-9.98326
ផលំ	-9.98407
▁ឆិន្ទ	-9.98428
េតា	-9.98509
ចិ	-9.98567
▁ទេវទត្តោ	-9.98575
▁សិយាតិ	-9.98637
▁វត្តព្ពា	-9.98645
▁បមាណំ	-9.98666
▁តតិយំ។	-9.9867
▁ពោធិសត្តស្ស	-9.98673
▁បឋមជ្ឈាន	-9.98696
វិតក្ក	-9.98747
▁នេវវិបាក	-9.98772
▁ការេត្វា	-9.98802
▁សមណា	-9.9881
▁និរុជ្ឈិស្សតិ។	-9.98897
▁វនេ	-9.98922
វណ្ណោ	-9.98928
▁ឃរ	-9.99004
▁កោដិ	-9.99006
▁ចតុត្ថេ	-9.99008
សង្ខារ	-9.99052
▁សត្តោ	-9.99053
▁ព្រហ្មា	-9.99152
មម	-9.99176
▁២៧	-9.99195
▁បមាណ	-9.99212
▁អាបន្នោ	-9.99263
វគ្គេ	-9.99282
▁៨២	-9.99321
ទ្វយំ	-9.9933
▁តេល	-9.99344
ហន	-9.99396
ចិត្តា	-9.99424
កិ	-9.99436
▁៨១	-9.995
▁២៨	-9.99525
▁គាមេ	-9.9956
▁៨៨	-9.99623
▁សច្ឆិកត្វា	-9.99681
▁ភោជន	-9.99734
▁សកំ	-9.9977
▁ឯវមាហ	-9.99773
▁ខត្តិយោ	-9.99789
▁អធិករណ	-9.99802
▁ជាន	-9.99813
បុត្តោ	-9.99916
▁ហិត្វា	-9.99916
សង្ខាតោ	-9.9996
▁អគ្គមគ្គ	-9.99969
▁បញ្ចមំ។	-10.0001
ជាល	-10.0002
សម្ពន្ធ	-10.0006
េតុ	-10.001
▁៨៩	-10.0011
▁និទាន	-10.0029
ិតុ	-10.0036
▁អញ្ញតរ	-10.0039
តុំ	-10.0042
▁សម្	-10.0044
គា	-10.0048
វាស	-10.005
▁ឥន្ទ	-10.0056
ជាត	-10.0056
▁៦២	-10.0067
វិស	-10.0071
ទុ	-10.0073
▁អនាគតេ	-10.0085
▁ភិក្ខុនីនំ	-10.0086
ទស្សនំ	-10.0086
▁ពលំ	-10.0087
▁៧៧	-10.0088
▁២៩	-10.0098
▁អរូបេ	-10.0099
▁បស្សាមិ	-10.0104
▁សញ្ញ	-10.0104
កថ	-10.0112
▁បគេវ	-10.0117
▁ទោមនស្ស	-10.012
▁កត្វា។	-10.012
▁សន្ទ	-10.0123
▁៣១	-10.0126
▁អរិយមគ្គ	-10.013
ិទំ	-10.0133
▁មហាភូតំ	-10.0133
ទស្សនេន	-10.0134
▁បុច្ឆិ	-10.0138
បា	-10.0138
▁មារោ	-10.014
មណិ	-10.0141
វសេន។	-10.0142
ជំ	-10.0147
▁វធ	-10.0149
▁ទិដ្ឋិំ	-10.0149
▁វស្សំ	-10.015
ធារ	-10.015
▁រត្តិយា	-10.015
▁អាសនេ	-10.0151
ម្ម	-10.0159
▁ផុស	-10.0164
▁អវិជ្ជានុសយោ	-10.0165
▁ឯតានិ	-10.0174
▁អានេត្វា	-10.0175
ដ្ឋា	-10.0181
▁សត្តមំ។	-10.0191
បព្ពត	-10.0193
▁បដិបក្ខ	-10.0198
▁បក្ខ	-10.0203
កតា	-10.0204
▁វិជ្ជមាន	-10.0205
▁រហោ	-10.0206
▁មាណវ	-10.0211
▁បរិនិព្ពាយិស្ស	-10.0218
▁ឆិន្ទិត្វា	-10.022
▁អនិច្ចា	-10.0224
▁៣០	-10.0227
▁អម្ហេហិ	-10.0228
េមិ	-10.0231
សល្ល	-10.0232
▁អធិបតិ	-10.024
▁ឥធាបិ	-10.0243
សញ្ញិនោ	-10.0246
▁នត្ថី	-10.0247
▁អក្ខរ	-10.025
▁ឆហិ	-10.0261
▁អមតំ	-10.0265
▁ឈានស្ស	-10.0272
▁នមោ	-10.0272
▁វទាមិ។	-10.0273
មណ្ឌល	-10.0273
▁រញ្ញា	-10.0274
▁តំតំ	-10.0289
▁ថេរា	-10.0298
កាយោ	-10.03
ត្ថេរគាថាវណ្ណនា	-10.0302
▁បណ្ណ	-10.0302
▁អច្ឆ	-10.0304
▁យជ	-10.031
▁សេនាសន	-10.0311
▁អនុកម្ប	-10.0313
▁ពុជ្ឈ	-10.0313
ឥន្ទ្រិយ	-10.0315
▁អវសេស	-10.0319
មូលក	-10.0321
ាភាវតោ	-10.0337
▁ឥដ្ឋ	-10.0339
▁អាទិតោ	-10.0342
ិន្ទ	-10.0343
▁ឆដ្ឋំ។	-10.0346
តញ្ច	-10.0348
▁សដ្ឋិ	-10.0349
ារាម	-10.0349
ជវន	-10.0352
វិនយ	-10.0353
▁បឋមំ។	-10.0357
▁បរមត្ថ	-10.0357
▁សហេតុកោ	-10.0358
គាហ	-10.0358
ភាវស្ស	-10.0361
▁តតិយោ	-10.0362
▁សមោធានេសិ	-10.0364
▁អញ្ញមញ្ញេ	-10.0368
នម	-10.0375
▁វេទិតព្ពា	-10.0379
រថ	-10.0381
▁ឥធេវ	-10.0382
▁មូលំ	-10.0384
▁ត្វ	-10.0384
▁ជាតំ	-10.0387
▁ឱវាទ	-10.039
▁អតិក្កម	-10.0393
▁ពន្ធិត្វា	-10.0396
▁បសំស	-10.0413
▁គព្ភ	-10.0416
▁ឥតរ	-10.0417
▁៨៧	-10.0417
▁ចក្ក	-10.0417
▁តិក	-10.042
ចតុ	-10.0421
ិត្វាន	-10.0427
▁មាស	-10.043
▁សតិយា	-10.0434
▁កុក្កុច្ចំ	-10.0436
▁អាមិស	-10.0438
ិនា	-10.0447
ព	-10.0449
▁អន្ធ	-10.045
▁ឧណ្ហ	-10.0452
▁គេហ	-10.0459
▁ឧត្តានមេវ។	-10.046
▁កថាយ	-10.046
▁សន្តំ	-10.0462
▁បុគ្គលានំ	-10.0463
▁កណ្ណ	-10.0463
▁ទម	-10.0468
ាធិក	-10.0469
▁អនិច្ច	-10.0472
ម្ព	-10.0473
▁ចេតសិក	-10.0474
ាវុសោ	-10.0474
កោតិ	-10.0475
▁នកុសលោ	-10.0478
▁ឋិតស្ស	-10.0482
▁កល្យាណ	-10.0484
មារ	-10.0488
▁បវត្តតិ	-10.0494
▁បស្សន្តោ	-10.0497
▁សតិមា	-10.0501
▁ឥន្ទ្រិយេ	-10.0504
▁សំកិលិដ្ឋ	-10.0508
▁វរំ	-10.0511
▁សេវ	-10.0512
នាគ	-10.0515
▁បវត្តំ	-10.0516
▁ឈាបិតា	-10.0518
▁និដ្ឋិតោ។	-10.0519
▁បមាទ	-10.0521
▁អហោ	-10.0522
តម	-10.0523
មុត្ត	-10.0524
▁សុន្ទរ	-10.0524
▁៨៥	-10.0525
ទណ្ឌ	-10.0528
▁បដិលទ្ធ	-10.0536
▁មញ្ញ	-10.0536
▁ឯវរូបា	-10.0537
▁ឥច្ឆតិ	-10.0547
▁វិសយ	-10.055
▁សវន	-10.055
មត្តម្បិ	-10.0555
ពីជ	-10.0557
▁ភេសជ្ជ	-10.057
▁សព្ពថា	-10.0576
ព្រហ្ម	-10.058
▁កុសលេសុ	-10.0582
▁វិសេសតោ	-10.0583
១០	-10.0589
បុរ	-10.0594
▁អាកាស	-10.0596
▁គន្តុំ	-10.0597
▁តាទិសំ	-10.0607
▁បរិសាយ	-10.0607
លោបោ	-10.0609
▁អយញ្ច	-10.0611
ានម	-10.0615
កិរិយ	-10.0616
▁ពន្ធន	-10.0618
▁៣២	-10.0622
▁យថាក្កមំ	-10.0626
▁ទាស	-10.0628
▁បថវិំ	-10.0628
▁កុស	-10.0636
▁អសុភ	-10.0644
▁សប្បិ	-10.0653
▁ព្យ	-10.0661
ិតា។	-10.0667
▁អល	-10.0669
▁តិដ្ឋតិ។	-10.0679
វចនេន	-10.0682
▁៣៣	-10.0683
ចរ	-10.0689
សង្ខាតេន	-10.0691
▁សព្ពម្បិ	-10.0691
▁អាវជ្ជន	-10.0693
ការំ	-10.0704
▁បាកដ	-10.071
▁បរិភោគ	-10.071
▁អមុ	-10.0716
▁កត្តព្ព	-10.0724
▁ឥច្ឆា	-10.0725
▁គាហ	-10.0728
▁វិហរាមិ	-10.073
▁ថេរ	-10.0731
ឧបាទិន្នុបាទានិយ	-10.0731
ន្តិអាទិ។	-10.0733
▁ទទេយ្យ	-10.0733
▁អវត្វា	-10.0738
ិម្ហ	-10.0741
▁លោបោ	-10.0745
▁មគ្គសច្ចំ	-10.0746
▁កាក	-10.0746
▁អដ្ឋមំ។	-10.0747
ាទិំ	-10.0751
▁វិចរ	-10.0752
ជីវ	-10.0756
▁សព្ពេសុ	-10.0759
▁ណ	-10.0761
▁៣៥	-10.0762
យតិ។	-10.0768
▁ញាយ	-10.0769
▁សយ	-10.077
▁សុខុម	-10.0771
▁អញ្ញេហិ	-10.0774
អាទីសុ	-10.0775
▁អប្បនា	-10.0776
▁កុសលានំ	-10.0776
ចរិយា	-10.0781
▁បព្ពជិត	-10.0781
ជោ	-10.0785
កោដ្ឋាស	-10.0794
លិ	-10.0794
▁សត្តាហំ	-10.08
ឥមិនា	-10.0803
▁អនាគតំ	-10.0803
▁ហេតំ	-10.0804
▁សញ្ជាត	-10.0808
▁ទសមំ។	-10.081
▁អនិដ្ឋ	-10.0811
▁សោតំ	-10.0812
កុលេ	-10.0815
▁ថេរំ	-10.0817
ភេទតោ	-10.0819
▁យំកិញ្ចិ	-10.0824
▁បតិដ្ឋា	-10.0832
▁សោភ	-10.0832
▁ឯតេហិ	-10.0833
▁វុត្តនយមេវ។	-10.0838
ោប	-10.0841
▁លាភី	-10.0841
▁បជហ	-10.0841
▁អវិជ្ជាយ	-10.0844
▁មគ្គា	-10.0848
▁ខេម	-10.0852
▁វិវដ្ដ	-10.0856
▁ជិណ្ណ	-10.0857
▁សិក្ខ	-10.086
▁៥២	-10.0865
▁កិច្ចំ	-10.0869
ភូ	-10.0871
វូបសម	-10.0872
▁ជនោ	-10.0883
▁ឆដ្ឋ	-10.0884
ប្បមាណ	-10.0887
ធន	-10.0896
▁សំយោជន	-10.0898
▁ឧបមា	-10.0902
ទន្ត	-10.0906
▁នាគោ	-10.0912
▁ធាតុយា	-10.0919
▁ទារុ	-10.092
▁អដ្ឋិ	-10.0929
▁វាទ	-10.0929
▁វុច្ចន្តិ។	-10.0931
▁សតិបដ្ឋាន	-10.0934
កា។	-10.0939
សព្ពេ	-10.0939
▁បណីត	-10.0939
▁មានោ	-10.0942
▁ឯកទិវសំ	-10.0954
▁ទុវេ	-10.0955
▁វិវិច្ចេវ	-10.0957
ឈាន	-10.0958
▁រូបាវចរ	-10.096
▁៣៤	-10.0965
▁អជ្ឈ	-10.0966
▁ទុក	-10.0968
▁៥៣	-10.0968
មត្តា	-10.0971
នម្បិ	-10.0975
▁៩២	-10.0977
ធី	-10.098
▁បក្ខិបិត្វា	-10.0982
▁រជ្ជ	-10.0982
▁បហានំ	-10.0982
▁ចរិត្វា	-10.0983
▁សោក	-10.0983
អញ្ញមញ្ញេ	-10.0984
▁អតិក្កមិត្វា	-10.0984
▁បុរិសា	-10.0985
▁សាធុកំ	-10.0986
សច្ចំ	-10.0989
▁ចិរំ	-10.099
▁កម្មានិ	-10.0991
▁ឧបោសថំ	-10.0998
ចីវរំ	-10.0999
▁យមក	-10.0999
▁បាបុណ	-10.0999
▁ភវង្គ	-10.1001
កតមោ	-10.1005
▁នវមំ។	-10.1007
▁ឈាយ	-10.1012
វេរ	-10.1015
▁កញ្ចិ	-10.1017
▁បយោគ	-10.102
ចក្ក	-10.1025
▁៣៧	-10.1027
▁បិណ្ឌបាត	-10.1031
រញ្ញោ	-10.1033
▁សត្ថ	-10.1036
▁វោហារ	-10.104
▁រស្ស	-10.1041
▁អនុជានាមិ	-10.1041
▁វិជ្ជតិ។	-10.1044
▁មរ	-10.105
ារហ	-10.1057
▁នវ។	-10.1057
▁អង្គេហិ	-10.1058
ាហារ	-10.1061
▁ឧភតោ	-10.1063
▁អសិ	-10.1064
ទ្ទ	-10.1066
▁នាភិ	-10.1069
ូតិ	-10.1073
▁អាចរិយោ	-10.1075
▁៩១	-10.1078
▁អារោច	-10.1079
▁ហេដ្ឋិម	-10.1083
▁ភិន្ទិត្វា	-10.1086
▁ធម្មា។	-10.1086
ត្ថោ។	-10.1092
▁នគរេ	-10.1093
▁សរីរេ	-10.11
ទុក្ខំ	-10.11
ញ្ជ	-10.1102
▁សន្ធិ	-10.1102
▁អកាសិ	-10.1103
▁អាការ	-10.1105
▁បិណ្ឌ	-10.1107
រូបោ	-10.1111
▁ធីរោ	-10.1112
ព្យញ្ជន	-10.1116
▁ឋិតិ	-10.1116
▁សម្បត្ត	-10.1117
▁ភគវតិ	-10.1119
▁អច្ចន្ត	-10.112
▁ឧបាសកោ	-10.1126
គ្គិ	-10.1134
យុត្តោ	-10.1134
▁បទស្ស	-10.1134
▁ខីរ	-10.1134
▁បូជ	-10.1141
រូបា	-10.1144
▁៩៤	-10.115
▁ខិប្បំ	-10.115
▁៣៦	-10.115
សញ្ញំ	-10.115
យមានោ	-10.1154
▁ធញ្ញ	-10.1158
េស	-10.1159
▁អសាធារណ	-10.1164
▁ឥតិបិ	-10.1167
ភេទេន	-10.1168
▁កាយកម្មំ	-10.1168
▁អនន្តរា	-10.1168
▁ខីណាសវ	-10.1169
▁ឱកាស	-10.1172
ន្តរេ	-10.1173
▁អញ្ញេបិ	-10.1177
▁លភតិ។	-10.1181
▁ឧភិន្នំ	-10.1182
▁៥៤	-10.1184
▁អសុចិ	-10.1184
▁អវិក្ខេបោ	-10.1186
▁អាតាបី	-10.1188
▁អញ្ញាណ	-10.1188
▁វិនយេ	-10.1204
ហរ	-10.1207
▁អសង្គហិតា	-10.1215
▁ឯវមាទិ	-10.1217
ិមេ	-10.1217
▁បស្សតោ	-10.1218
▁វិនេយ្យ	-10.1219
ាលង្ការ	-10.1225
▁បាកដំ	-10.1228
ថ។	-10.1229
ប្បត្ត	-10.1237
នាហំ	-10.1246
ចិត្តេន	-10.1258
▁ទិស្សតិ។	-10.1271
▁កាតព្ពំ	-10.1273
សុវណ្ណ	-10.1278
យាតិ	-10.128
▁វាត	-10.1285
▁អស្សាទេតិ	-10.1296
▁និព្ពត្តិ	-10.1296
▁៣៩	-10.1297
▁អដ្ឋង្គិកោ	-10.1299
▁ឧទានំ	-10.1303
កាលតោ	-10.1309
សមុដ្ឋានំ	-10.1315
▁លទ្ធា	-10.1321
▁បុច្ឆាមិ	-10.1322
▁ពទ្ធ	-10.1323
នា។	-10.1323
▁ខមតិ	-10.1324
▁ទេសនំ	-10.1324
▁នាមំ។	-10.1325
សត្ថ	-10.1326
ឧទក	-10.1327
ង្ក	-10.1331
កឌ្	-10.1333
ីយតេ	-10.1334
▁វត្តព្ពំ។	-10.1336
▁ជិវ្ហា	-10.1336
▁ភេទ	-10.134
ប្បការ	-10.1341
▁ការណេហិ	-10.1342
▁មជ្ឈ	-10.1347
ត្តិក	-10.1347
េស្សាមី	-10.1349
នីតិ	-10.1354
ញ្ញូ	-10.1355
បុច្ឆ	-10.136
▁បរិត្តំ	-10.1368
▁ខណ្ឌ	-10.1369
▁អនត្តា	-10.1372
សមាបត្តិ	-10.1374
▁តប	-10.1374
េនាបិ	-10.1379
▁ចេតិយ	-10.1379
▁ទុក្ខតោ	-10.1379
▁មហាភូតា	-10.138
▁សម្មុតិ	-10.1381
▁វយ	-10.1381
▁កីឡ	-10.1381
▁សិក្ខាបទ	-10.1389
▁បដិសេវ	-10.139
▁ឥន្ទ្រិយានិ	-10.1392
▁ចរេ	-10.1393
▁ទដ្ឋព្ពា។	-10.1393
ច្ចាទិ។	-10.1394
▁បាបុណាតិ	-10.1398
▁បដិសម្ភិទា	-10.1398
▁៣៨	-10.1402
បាឡិ	-10.1405
▁ជនេ	-10.1408
អាហារេ	-10.1409
សង្គហ	-10.1409
▁ធ	-10.1416
▁កាចិ	-10.1418
▁ហត្ថេន	-10.1419
▁សត្តន្នំ	-10.1421
▁៤១	-10.1422
▁សមាទាយ	-10.1422
សមយោ	-10.1425
បុគ្គលោ	-10.1428
▁ឆន្ទំ	-10.1428
▁បារាជិកំ	-10.1433
▁វិន	-10.1434
▁សម្មទេវ	-10.1437
ិស្សតីតិ	-10.1439
▁បិដ្ឋិ	-10.1441
▁សម្បយុត្តេ	-10.1446
▁សីលវា	-10.1449
យតីតិ	-10.145
▁៩៥	-10.1451
▁បដិបត្តិ	-10.1456
▁សគ្គំ	-10.1457
▁សាវកា	-10.1457
▁ឱកាសំ	-10.1463
▁៩៨	-10.1466
បរិយាយ	-10.147
▁មហគ្គត	-10.1474
▁ថេរេន	-10.1474
ាថ	-10.1475
▁បុ	-10.1476
▁អន្តរេ	-10.1477
សិក្ខាបទ	-10.1477
▁អកុសលានំ	-10.1479
វស	-10.1482
ាបេតុំ	-10.1484
គាថាយ	-10.1488
▁តត្រាយំ	-10.1488
▁តិវិធ	-10.1494
▁សភាគ	-10.1497
▁សមុទ្ទ	-10.1498
▁ឯត្តកំ	-10.15
▁អល្ល	-10.1511
▁បវត្តតីតិ	-10.1517
យោជន	-10.1517
▁សម្បយុត្ត	-10.1519
▁បរិសុទ្ធ	-10.1519
▁និរយេ	-10.1522
▁វត្តព្ពោ	-10.1522
វំស	-10.1525
▁អាសេវនេ	-10.1531
▁ចិត្តានិ	-10.1533
ិតត្តំ	-10.1535
▁អារាម	-10.1537
លោ	-10.1538
▁ឥត្ថិយោ	-10.1539
▁៤០	-10.154
▁ខេត្ត	-10.154
រិយ	-10.1541
▁អនាថបិណ្ឌិកស្ស	-10.1542
មត្ថ	-10.1551
ន្តិអាទិមាហ។	-10.1554
▁សម្បយុត្តំ	-10.1559
▁ឥត្ថិយា	-10.1559
▁តប្ប	-10.1559
▁បដិបជ្ជ	-10.1563
▁បាណាតិបាត	-10.1566
▁៩៣	-10.1571
▁ការ	-10.1571
▁ព	-10.1573
▁កាយិកំ	-10.1582
អដ្ឋ	-10.1584
សមា	-10.1584
▁បវារណា	-10.1585
▁អនគារិយំ	-10.1585
▁សមាបត្តិ	-10.1591
▁បច្ចយេ	-10.1594
ស្សេតំ	-10.1595
▁អន្តរ	-10.1596
▁អស្សុ	-10.1597
▁រាជានោ	-10.1598
ការណា	-10.1599
វុត្ត	-10.16
▁អាសវ	-10.1603
▁សន្តកំ	-10.1604
▁ពហុលីកតា	-10.1607
▁វិសុទ្ធ	-10.161
សោត	-10.1613
▁ខីណ	-10.1613
រសំ	-10.1614
▁ទិសំ	-10.1615
▁បាតិមោក្ខំ	-10.1615
▁កត្តា	-10.1615
▁ចក្ខុវិញ្ញាណ	-10.1615
មគ្គំ	-10.1616
ចន្ទ	-10.1616
▁សេដ្ឋោ	-10.1623
និទ្ទេស	-10.1624
ានិបិ	-10.1624
ម្ភ	-10.1625
មេត	-10.1627
យន្តោ	-10.1627
▁មត	-10.1628
ិស្សសិ	-10.163
▁បស្សតិ។	-10.1641
▁ឧស្ស	-10.1651
▁អដ្ឋង្គិក	-10.1657
ប្បហាន	-10.1657
និស្សិត	-10.1662
ភូមិយំ	-10.1667
▁រជ	-10.1673
ត្ថញ្ច	-10.1679
▁ឯវមាហ។	-10.1681
បាល	-10.1682
▁៤៤	-10.1682
▁បាកដោ	-10.1683
▁ឥទមេវ	-10.1686
េន្តីតិ	-10.1689
▁ហិតាយ	-10.169
▁សាមំ	-10.169
▁វិសម	-10.1694
▁គហេតុំ	-10.1696
▁សុគត	-10.1696
ហោ	-10.1703
▁គហណំ	-10.1703
▁ទោសំ	-10.1704
▁សម្បយុត្តកា	-10.1707
កថា។	-10.1708
▁វសិ	-10.1709
▁នាមា	-10.1709
▁៤៣	-10.1709
សទិសា	-10.1712
បទានិ	-10.1715
ទិស	-10.172
▁គហិតា	-10.1721
▁អធិប្បាយោ	-10.1724
ិតព្ពោ	-10.1727
▁៥០	-10.1728
▁តថាបិ	-10.1729
ន្នំ	-10.1731
សម្	-10.1731
▁វារ	-10.1731
ជាតា	-10.1733
▁វិប្បយុត្តា	-10.1736
▁ជយ	-10.1739
▁សុណ	-10.1749
▁៤៥	-10.1749
លុ	-10.1753
▁កតត្តា	-10.1754
▁អាការេហិ	-10.1759
▁យោជេត្វា	-10.177
▁មញ្ញសិ	-10.1773
សំយោជន	-10.1774
មានេ	-10.1775
រក្ខ	-10.1778
▁សមន្នាគតា	-10.1779
▁ទីឃរត្តំ	-10.1783
▁៤២	-10.1791
▁អាលោក	-10.1794
▁ចក្ខុវិញ្ញាណំ	-10.1797
ភយំ	-10.1797
សិទ្ធ	-10.1798
▁បរិភាស	-10.1799
▁បាបកា	-10.1801
▁ទារ	-10.1803
ភាវោ។	-10.1805
▁អយញ្ហិ	-10.1806
▁បយិរុបាស	-10.1806
▁កណ្ហ	-10.1807
បរិភោគ	-10.1808
▁វិបស្សនាយ	-10.1809
▁កិលេសានំ	-10.1812
▁ទិព្ពចក្ខុ	-10.1822
សង្ខាតេ	-10.1825
▁អនុសេន្តិ	-10.1826
បដិច្ចវារាទិ	-10.1829
▁សវិតក្កសវិចារ	-10.1829
នវ	-10.1832
▁កថិត	-10.1834
▁ទិដ្ឋោ	-10.1837
▁៤៦	-10.1837
▁៤៩	-10.1838
ណា	-10.1838
▁យញ្ញ	-10.1839
▁១០៣	-10.1844
▁ចរន្តិ	-10.1846
▁១០២	-10.1849
កិរិយាយ	-10.185
បុរិសោ	-10.1853
▁៤៧	-10.1861
សាសន	-10.1863
▁អគ្ឃ	-10.1865
▁ជាយតិ	-10.1867
▁ទុព្ពល	-10.1868
▁សម្មាសមាធិ	-10.1874
▁ឥន្ទ្រិយំ	-10.1875
▁យទ	-10.1876
▁វិកប្ប	-10.1881
▁បណីតំ	-10.1886
▁សាវត្ថិនិទានំ	-10.1893
▁ជីវិតា	-10.1911
សយ	-10.1913
▁ជវន	-10.1915
▁ឥត្ថន្នាមស្ស	-10.192
េតេ	-10.192
ចរិត	-10.192
▁វុដ្ឋហិត្វា	-10.1921
▁វុត្តាតិ	-10.1922
បតិ	-10.1925
▁ព្រាហ្មណំ	-10.1927
▁ឱទាត	-10.1927
▁ឃ	-10.1929
▁ទក្ខ	-10.1931
▁វេមតិកោ	-10.1938
▁មជ្ជ	-10.1939
▁បរិស	-10.1942
▁តទត្ថ	-10.1946
▁ឆត្ត	-10.1947
ត្វ	-10.1948
▁សោច	-10.195
▁ជហ	-10.195
▁និក្ក	-10.1953
▁បុច្ឆតិ។	-10.1953
▁អរហត្ត	-10.1953
▁យសោ	-10.1953
▁ទព្ព	-10.1953
▁បុរិសំ	-10.1958
តាទិ	-10.1972
▁អតីតានាគត	-10.1975
▁ឯតេសន្តិ	-10.1977
▁អង្គំ	-10.1978
▁ភូមិយំ	-10.1978
▁អាបត្តិសមុដ្ឋាន	-10.198
▁មហានាម	-10.1981
▁ត្វេវ	-10.1983
▁កាមំ	-10.1984
សម្បន្ន	-10.1987
▁សត្តហិ	-10.1988
▁ភណ្ឌំ	-10.1991
▁សង្ខំ	-10.1991
▁យស	-10.1992
ទិវសេ	-10.2002
ាបេយ្យ	-10.2003
សទ្ទា	-10.2004
ប្បវត្ត	-10.2005
▁បីត	-10.2005
▁បញ្ចមេ	-10.201
▁ទេវបុត្តោ	-10.2011
▁សង្គហោ	-10.2013
▁និស្សរណ	-10.2017
▁យាវតា	-10.2025
▁និព្ពត្តិត្វា	-10.2025
សម្បត្តិំ	-10.2029
▁បដិជានាតិ	-10.2036
▁បវិដ្ឋ	-10.2036
មានស្ស	-10.2046
▁បច្ឆតោ	-10.2051
▁អភិភុយ្យ	-10.2052
▁វិហារោ	-10.2052
▁វុច្ចតី	-10.2055
▁តិដ្ឋ	-10.2056
ោសិ	-10.2062
▁សប្ប	-10.2065
ការក	-10.2068
▁បរិយត្តិ	-10.207
នគរេ	-10.2071
▁បត្ថ	-10.2071
និរោធ	-10.2076
▁អាបត្តីនំ	-10.2079
▁ភវិស្សតីតិ	-10.208
កុម្ភ	-10.2083
▁ភេទោ	-10.2084
▁សង្ខេបតោ	-10.209
▁វទេសិ	-10.2093
សរីរ	-10.2094
▁តាទិសោ	-10.2095
▁បក្ក	-10.2095
▁បត្តេ	-10.2095
▁តាទិស	-10.2096
▁សេ	-10.2098
បត្តោ	-10.21
▁សមុទយ	-10.2104
▁បរិនិព្ពាន	-10.2106
▁សក្កច្ចំ	-10.2107
▁៩៦	-10.2109
ដ្ឋិ	-10.2112
ឃដ	-10.2113
▁សស្ស	-10.2115
▁បុត្តា	-10.2115
ី។	-10.2121
▁ទេសនាយ	-10.2122
▁ការណា	-10.2126
▁និសិន្នំ	-10.2128
▁ទសហិ	-10.213
ឥ	-10.2139
▁លក្ខណំ	-10.214
▁តិដ្ឋន្តិ	-10.2142
▁នាមេន	-10.2143
▁កស	-10.2146
▁វសំ	-10.2146
▁និវាសេត្វា	-10.2147
▁តមហំ	-10.2147
▁អដ្ឋកថា	-10.2148
▁ភិក្ខុសង្ឃស្ស	-10.215
ទ្វេ	-10.2154
ករណេ	-10.2159
▁ទូរ	-10.2162
យុ	-10.2165
▁បាណាតិបាតា	-10.2169
▁វត្តមាន	-10.2171
ុប្បាទ	-10.2174
▁វិនាស	-10.2174
▁យន្តិ	-10.2175
បជ្ជ	-10.2181
ិំសូតិ	-10.2184
វិភត្តិ	-10.2184
▁អនុស្សរ	-10.2188
ពោធិ	-10.2197
▁សង្ខ	-10.2198
▁ទឡ្ហំ	-10.2198
▁សុរ	-10.2198
បញ្ញ	-10.22
▁តទារម្មណ	-10.2213
▁យម្បិ	-10.2214
អាម	-10.2219
▁ទ្វេបិ	-10.2223
▁នទស្សនេន	-10.2225
▁អាគច្ឆ	-10.2229
ប្បត្តា	-10.2233
▁១០៧	-10.2233
▁បច្ចយានុលោមំ	-10.2234
មទ	-10.2235
▁លហុ	-10.2237
▁ចម្ម	-10.2239
▁កន្ត	-10.2246
▁សហាយ	-10.2249
ាបទានំ	-10.2251
▁យាន	-10.2252
▁១១០	-10.2257
▁ទិព្ពេន	-10.2257
ិស្សតិ។	-10.226
បាក	-10.2263
នីល	-10.2263
សន្ធិ	-10.2264
▁ចតុរោ	-10.2267
▁វិជាន	-10.2274
▁តាល	-10.2278
▁អវិទូរេ	-10.2281
▁ឯតា	-10.2282
▁បច្ចក្ខ	-10.2285
យេន	-10.2287
▁បេស	-10.2288
▁នាបិ	-10.2291
▁ឆន្ន	-10.2293
▁៩៧	-10.2295
មង្គល	-10.23
▁វត្តព្ព	-10.2301
ភារ	-10.2303
▁សាវកានំ	-10.2308
▁៤៨	-10.2316
▁អប្បមាទ	-10.2317
▁និក្ខិប	-10.2318
▁ទេវលោកេ	-10.2321
ជានន	-10.2322
▁បាត	-10.2322
▁បារ	-10.2326
▁អហម្បិ	-10.2328
▁បហាតព្ពហេតុកំ	-10.2331
េសីតិ	-10.2346
▁គមនំ	-10.2348
▁និរុជ្ឈិស្សតីតិ	-10.2351
▁សំសដ្ឋោ	-10.2351
▁ទស្សនាយ	-10.2352
▁អព្យាកតស្ស	-10.2355
និបាត	-10.236
▁តម្ហា	-10.236
▁ភុញ្ជតិ	-10.2361
▁៦៣	-10.2365
កង្ខ	-10.2367
បញ្ញោ	-10.2371
▁ចតុសច្ច	-10.2371
បាន	-10.2372
សន្ត	-10.2374
▁សម្ពុទ្ធោ	-10.2376
▁កច្ចិ	-10.2378
▁សោត	-10.2385
▁យោជន	-10.2391
▁អង្គានិ។	-10.2394
▁ករោន្តិ។	-10.2395
បដ្ដ	-10.2397
ស្មិន្តិ	-10.2398
ស្សបិ	-10.2402
សមណ	-10.2407
ម្ប	-10.2409
▁ចារិកំ	-10.241
▁បញ្ចម	-10.2411
▁បហីន	-10.2415
▁រោទ	-10.2416
▁ទេន្តិ	-10.2419
▁សទ្ទហ	-10.2419
▁បច្ចយចតុក្កំ	-10.2421
▁នីវរណ	-10.2423
▁កង្ខា	-10.2426
▁មុសាវាទ	-10.2426
▁បុថុជ្ជន	-10.2428
▁ភវា	-10.243
▁បរេហិ	-10.2433
▁១០១	-10.2435
▁ជរាមរណ	-10.2436
សម្បយុត្តា	-10.244
▁វិហរេយ្យ	-10.2441
▁កពឡីការោ	-10.2445
▁ឥមមត្ថំ	-10.2445
▁នុប្បជ្ជិស្សតិ	-10.2447
▁សីមា	-10.2454
▁បុរាណ	-10.2457
▁ចេត	-10.2458
▁កដ្ឋ	-10.2459
កាមា	-10.2459
ម្ហីតិ	-10.2463
▁វិភត្តិ	-10.2468
▁ពហុលំ	-10.2473
▁ចិរ	-10.2475
ភូតេ	-10.2483
▁គម្ភីរ	-10.2489
បថ	-10.249
▁ជិគុច្ឆ	-10.249
▁១០៨	-10.2491
▁ឃន	-10.2491
វណ្ណា	-10.2493
▁អបរោ	-10.2496
▁ឋ	-10.2496
▁នីហរ	-10.2496
▁នានប្បការ	-10.25
▁អធិគត	-10.2503
▁៥១	-10.2503
▁លាមក	-10.2504
▁សូចិ	-10.2504
▁បរិក្ខារ	-10.2505
មិគ	-10.2507
▁ភិន្ទ	-10.2513
វទ	-10.2515
▁កាយតោ	-10.2521
មិតិ	-10.2523
▁បដិគ្គហេត្វា	-10.2532
▁លគ្គ	-10.2537
សនិទស្សនសប្បដិឃំ	-10.2538
▁ទស្សេតុមាហ	-10.254
▁បច្ឆាជាតបច្ចយេន	-10.2544
កុសលា	-10.2545
ព្រាហ្មណ	-10.2546
▁សាមណេរោ	-10.255
ិយមានោ	-10.2551
▁បញ្ចមំ	-10.2551
▁ជានិត្វា	-10.2553
ម្ហី	-10.2556
ិកា។	-10.2556
▁គេហេ	-10.2558
▁ទេសេ	-10.2558
▁លទ្ធិ	-10.2559
▁ទុក្កដស្សា	-10.2561
▁ឱលោកេន្តោ	-10.2563
▁តិណ្ណន្នំ	-10.2563
▁អព្យាកត	-10.2565
▁សទ្ទា	-10.2576
▁បហាតព្ពា	-10.2583
គម	-10.2585
▁ឧបការ	-10.2585
▁ថូប	-10.2588
▁បុរ	-10.2589
▁លទ្ធំ	-10.2589
▁បុព្ពភាគ	-10.2589
▁១០៤	-10.259
កត្តា	-10.259
កី	-10.259
ិតោ។	-10.2591
▁មំសំ	-10.2593
▁សមាស	-10.2593
▁៩៩	-10.2595
យិំ	-10.2595
ង្គំ	-10.2601
▁ឥតរោ	-10.2603
▁និសិន្ន	-10.2603
▁សោតាបន្នោ	-10.2604
▁ទុតិយា	-10.2606
▁អសីតិ	-10.2612
▁និស្សគ្គិយ	-10.2613
▁មោគ្គល្លាន	-10.2614
ុជ្ជ	-10.2615
មាល	-10.2616
វន្ត	-10.2618
▁ឯកត្ត	-10.2622
▁ផលស្ស	-10.2626
សុ។	-10.2632
ាចារ	-10.2632
នាទិ	-10.2634
▁ននហេតុ	-10.2636
▁យុ	-10.2641
▁អធម្ម	-10.2643
▁ឧឡារ	-10.2644
▁អភិធម្ម	-10.2647
ភត្តំ	-10.2647
▁កូដ	-10.2652
ណ្ណ	-10.2665
ិស្សាម	-10.2665
▁តថាគតំ	-10.2668
សរណ	-10.2668
▁ថិរ	-10.2672
▁វេឡុ	-10.2678
▁បដិឃ	-10.2679
▁តមេនំ	-10.2683
វិសេសោ	-10.269
▁សញ្ញំ	-10.2692
▁ភណតិ	-10.2693
▁វត្តំ	-10.2696
▁ជានាតីតិ	-10.2698
▁៦៤	-10.2699
កូដ	-10.2706
▁នាហំ	-10.2709
យទិ	-10.271
▁អាស	-10.2713
▁បនាយំ	-10.2713
▁កត្តរិ	-10.2717
▁អទ	-10.2719
▁សុទ្ធំ	-10.2721
វោហារ	-10.2722
▁អាហារំ	-10.2732
បដិវេធ	-10.2735
▁អហេតុក	-10.2735
▁សុណាតិ	-10.2739
គន្ថ	-10.274
ហរណ	-10.274
▁អទុក្ខមសុខាយ	-10.274
▁សម្ពន្ធោ	-10.2743
▁វិសិដ្ឋ	-10.2744
▁បលាយ	-10.2746
▁ខីណាសវោ	-10.2747
▁សទ្ធ	-10.2748
ច្ឆេទ	-10.2749
សញ្ច	-10.275
▁វិហរន្តិ	-10.275
▁មញ្ញតិ	-10.2751
សង្ខាតស្ស	-10.2753
▁តិក្ខត្តុំ	-10.2758
▁អស្សា	-10.2759
គាមិ	-10.2761
▁មហាវីរ	-10.2764
▁ទុដ្ឋ	-10.2774
▁ឥតរេ	-10.2774
▁បរិនិព្ពន្តាន	-10.2788
▁វណ្ណេន	-10.28
▁សវិតក្កសវិចារោ	-10.2801
▁វិសេសន	-10.2802
▁អាទីនវំ	-10.2802
▁បិយោ	-10.2807
▁ចាគ	-10.2815
▁កិត្តិ	-10.2817
▁នីហរិត្វា	-10.2817
▁១១២	-10.2821
▁ពុទ្ធេ	-10.2821
ត្តិ	-10.2825
▁កន្ទ	-10.2826
ទិសំ	-10.2828
▁ឯកេនាយតនេន	-10.2829
▁សត្ថរិ	-10.2831
▁បនាតិ	-10.2833
វាហ	-10.2833
សាធន	-10.2839
▁ធុវ	-10.2839
▁អហេតុកំ	-10.284
▁លព្ភមាន	-10.2845
▁និវាស	-10.2853
▁បច្ចេកំ	-10.2853
▁ឯត	-10.2859
នឥន្ទ្រិយេ	-10.2869
្យា	-10.2871
▁នមស្ស	-10.2871
ផស្ស	-10.2874
▁កថិន	-10.2875
▁ទុវិធ	-10.2878
▁វិនយោ	-10.2881
▁វិមោក្ខ	-10.2881
ិន្ទ្រិយ	-10.2882
▁មាណវោ	-10.2883
ាល	-10.2883
ោយេវ	-10.2883
▁និយត	-10.2885
▁វាច	-10.2887
បដិលាភ	-10.2888
▁មុត្តោ	-10.2892
▁ឱឃ	-10.2894
▁វូបសម	-10.2897
▁ក្រិយា	-10.2899
វនេ	-10.29
▁ទេវេ	-10.2901
▁សាវ	-10.2902
ភា	-10.2903
▁និក្ខន្ត	-10.2904
▁ឧបេតិ	-10.2907
ទិសា	-10.2907
▁អរហន្តោ	-10.2908
▁ធោវ	-10.291
▁សចេបិ	-10.2916
វត្ថុស្មិំ	-10.2917
សីលំ	-10.2922
▁គច្ឆន្តិ។	-10.2922
▁មច្ចុ	-10.2925
▁កេវល	-10.2925
មត្តោ	-10.2925
ដ្ដ	-10.2927
▁ផាសុ	-10.2933
▁ឧច្ច	-10.2933
▁វិញ្ញាត	-10.2934
▁១១៨	-10.2937
▁១០៥	-10.2938
យទា	-10.294
▁សុខេន	-10.2942
ករណីយ	-10.2942
▁តរុណ	-10.2954
▁ទ្វត្តិំស	-10.2954
▁វិត្ថារ	-10.2957
▁អនុបុព្ព	-10.2962
▁បាស	-10.2964
▁អវុត្ត	-10.2965
យិ។	-10.2967
▁សមុដ្ឋាន	-10.297
▁អថោ	-10.2972
ហីន	-10.2973
▁ករណីយំ	-10.2974
កាមោ	-10.2976
ភិន្ន	-10.2978
វារវណ្ណនា	-10.2979
▁សតិបដ្ឋានា	-10.2981
▁បសន្នោ	-10.2983
▁ឥន្ទ្រិយានំ	-10.2984
▁រដ្ឋ	-10.2985
▁អភាសិ។	-10.2986
▁យាវជីវំ	-10.2986
▁ចាយំ	-10.2989
សាមញ្ញ	-10.2989
▁គហិតំ	-10.299
▁ឧទ្ធរ	-10.299
▁ឧក្កដ្ឋ	-10.2991
▁អាគតំ	-10.2992
▁ជានំ	-10.2992
▁នអធិបតិបច្ចយា	-10.2995
ពលំ	-10.2999
▁កុម្ភ	-10.3
យេវា	-10.3
▁តស្មិំយេវ	-10.3004
▁កុមារោ	-10.3008
ាធិ	-10.3009
▁គេហំ	-10.3009
▁វិញ្ញត្តិ	-10.301
▁ធម្មវិនយេ	-10.3012
▁វុច្ចតីតិ	-10.3016
▁និដ្ឋិតំ	-10.302
ឥតោ	-10.302
▁យក្ខោ	-10.3021
▁កត្វាន	-10.3026
▁ចិត្តញ្ច	-10.3028
បហាន	-10.3029
▁ឱលោកេត្វា	-10.3032
បូរ	-10.3034
▁វិរោច	-10.3036
▁ហរិត	-10.3043
▁ទសវិធ	-10.3045
▁ភាវិត	-10.3045
▁បរិហាយតិ	-10.3046
▁កាមរាគានុសយេន	-10.305
▁កិម	-10.3052
ានន្ទ	-10.3053
▁កាយាយតនំ	-10.3054
▁អហំ។	-10.3055
▁បត្តា	-10.306
▁វិជ្ឈ	-10.306
▁សុគតិំ	-10.3061
▁សុខស្ស	-10.3062
និរោធោ	-10.3062
▁អសុក	-10.3063
▁បដ	-10.3065
កណ្ណ	-10.3066
ាទោ	-10.3066
▁អាទីនវោ	-10.3066
▁សុណាថ	-10.3068
បឋម	-10.3068
វសានេ	-10.3069
▁អដ្ឋមេ	-10.3071
ក្ខរ	-10.3071
បេក្ខ	-10.3073
វិបស្សនា	-10.3075
វចនំ។	-10.3076
▁នអារម្មណបច្ចយា	-10.3077
ហេតុក	-10.3081
នគរ	-10.3082
▁១១៤	-10.3087
▁កថេត្វា	-10.3087
រោគ	-10.3088
▁គោតមស្ស	-10.3088
▁ធម្មទេសនា	-10.3091
ភវេ	-10.3093
សីលោ	-10.3093
ភូតស្ស	-10.3102
▁ទា	-10.3104
▁សមយោ	-10.3105
▁សុមនោ	-10.3108
▁វិគតេ	-10.3113
▁ភទ្ទ	-10.3117
ឋ	-10.3117
តល	-10.3117
រាគោ	-10.3119
បទេ	-10.3121
▁សត្តាហ	-10.3122
▁ចក្ខុន្ទ្រិយញ្ច	-10.3122
ឯវមេវ	-10.3125
▁១១៥	-10.3126
▁ថោកំ	-10.3127
▁បុរេជាតំ	-10.3132
បរិវារ	-10.3134
▁ឧប្បាទេតិ	-10.3136
កាតិ	-10.314
ន្ធ	-10.3141
▁១១៦	-10.3143
▁អាហារបច្ចយេន	-10.3145
តរា	-10.3146
▁១១១	-10.3148
▁វិចារោ	-10.3149
▁សម្ពន្ធ	-10.3151
▁បុរេជាតេ	-10.3151
េតព្ពំ។	-10.3152
▁បដិប្បស្សម្ភ	-10.3153
▁បវត្តិំ	-10.3154
កិណ្ណ	-10.3155
កថាវណ្ណនា។	-10.3155
▁អារោបេត្វា	-10.3156
▁វិបុល	-10.3157
▁នោឧបាទា	-10.3158
កាលំ	-10.316
▁ឧទ្ធច្ច	-10.3163
▁សមន្នាគតស្ស	-10.3165
តថា	-10.3167
យី	-10.3169
បរិក្ខារ	-10.3171
សាល	-10.3171
▁តនុ	-10.3178
▁បដិច្ឆន្ន	-10.3178
វិហារេ	-10.3179
▁តិកំ	-10.3192
▁១០៩	-10.3201
▁នអព្យាកត	-10.3202
▁និគ្រោធ	-10.3202
▁ឧបសង្កម	-10.3203
▁សកិំ	-10.3205
▁វេទិតព្ពានិ។	-10.3206
▁ហំស	-10.321
▁គោត្រភុ	-10.3222
▁យាគុ	-10.3222
▁ទុគ្គតិ	-10.3224
▁វិរាគ	-10.323
▁ឯកេ	-10.3234
▁បញ្ចហង្គេហិ	-10.3235
▁១១៣	-10.3236
▁១១៩	-10.3239
▁បាណិ	-10.3244
▁សមថវិបស្សនា	-10.3244
▁នច្ច	-10.3252
ទ្វារេ	-10.3253
▁វិភជ	-10.3254
កដ្ឋ	-10.3255
▁ហទយំ	-10.3261
ពហុលោ	-10.3262
▁អនោ	-10.3262
▁ពារាណសិយំ	-10.3263
▁កាមរាគ	-10.3269
▁វិចារ	-10.327
▁អញ្ជលិំ	-10.327
▁អនត្តតោ	-10.3274
▁សង្ខារានំ	-10.3276
▁បកតិយា	-10.3276
▁ឧបាសក	-10.3277
▁មាសេ	-10.328
▁ពាលា	-10.3281
ធាតុយា	-10.3286
ទុតិយ	-10.3286
▁អយមត្ថោ	-10.3287
បញ្ញាស	-10.3289
▁អនិ	-10.3289
▁អវិតក្កអវិចារ	-10.3291
សម្ពោជ្ឈង្គោ	-10.3295
▁អរិយំ	-10.3297
▁ឧភោបិ	-10.3298
▁សរេ	-10.3305
▁សង្ខ្យាវារោ	-10.3308
គ្គំ	-10.3314
▁កិមត្ថំ	-10.3316
កុមារ	-10.3317
▁វុដ្ឋាយ	-10.3324
▁ទាតព្ពោ	-10.3327
ិច្ឆ	-10.3329
▁មានសំ	-10.3335
▁និគ្គហ	-10.3339
▁ផរិត្វា	-10.334
ត្តយំ	-10.334
បាត	-10.3345
▁និសិន្នា	-10.3346
▁យុត្តំ	-10.3348
▁សំខិត្តេន	-10.3349
▁បត្ថយ	-10.3353
▁បព្ពជ្ជំ	-10.3354
▁ចុតោ	-10.3358
▁អន្តរឃរេ	-10.3359
វេទ	-10.336
▁ឆដ្ឋេ	-10.3362
▁ចេបិ	-10.3365
▁បបញ្ច	-10.3368
▁អសង្ខត	-10.3372
▁ជានាតិ។	-10.3372
▁វចីកម្មំ	-10.3372
▁វុត្តប្បការ	-10.3374
▁អាគមន	-10.3376
▁ឧបាទា	-10.3376
▁និរុត្តិ	-10.3378
▁ចុន្ទ	-10.3379
▁គុណេ	-10.3382
ភូតេន	-10.3383
▁សម្មោហ	-10.3384
កតោ	-10.3387
សាមិ	-10.3389
▁ទ្វារំ	-10.3391
មិត្ត	-10.3393
▁១១៧	-10.3395
▁វិវិធ	-10.3396
▁និក្ខម	-10.3399
ខន្ធ	-10.3403
▁សិរិ	-10.3409
▁ឧប្បាទោ	-10.3411
▁វសី	-10.3413
▁វិស្សជ្ជ	-10.3413
▁អនុសយ	-10.3413
▁អនុបុព្ពេន	-10.3413
▁អញ្ញតរស្មិំ	-10.3415
▁ទដ្ឋព្ពោ	-10.3422
▁ចត្តាលីស	-10.3423
▁វុត្តានិ	-10.3425
មោហ	-10.3425
▁ទេតិ។	-10.3428
▁១០៦	-10.3433
▁សហជាតាធិបតិ	-10.3434
▁ឧដ្ឋាយាសនា	-10.3436
ភង្គ	-10.3437
មហារាជ	-10.3439
▁មាតិកា	-10.344
▁អកុសលស្ស	-10.344
▁អាសេវនបច្ចយ	-10.3443
ាទយោ។	-10.3445
ត្តិកំ	-10.3447
ិតុន្តិ	-10.3448
វាទោ	-10.3449
▁សមគ្គ	-10.3454
▁ភវន្តិ។	-10.3456
▁សង្ក	-10.3457
▁ឆេត្វា	-10.3457
▁មយិ	-10.3458
▁សាវកោ	-10.3458
▁បស្សិត្វា	-10.3459
▁ទសមេ	-10.346
▁វុត្តោតិ	-10.3463
▁មគ្គាធិបតិ	-10.3466
▁វិសេសោ។	-10.3466
ពុទ្ធោ	-10.3466
មេក	-10.3473
▁គវេស	-10.3476
▁កល	-10.3483
▁ឧបដ្ឋាន	-10.3485
ាទេសោ	-10.3486
▁នាមរូបំ	-10.3493
▁បទេហិ	-10.3494
▁បដិភាន	-10.3494
▁កាមាវចរំ	-10.3495
▁កថេន្តោ	-10.3496
▁រូបា	-10.3497
▁ព្យាធិ	-10.3497
▁ឥត្ថីនំ	-10.3498
▁បដិក្កម	-10.3504
ទយោ	-10.3514
ានុភាវេន	-10.3518
ិស្សាមីតិ	-10.3526
បារមិ	-10.3527
▁ភវរាគានុសយោ	-10.3528
▁វុទ្ធិ	-10.3533
ទីឃ	-10.3534
▁បត្តកល្លំ	-10.3541
▁ឧបបត្តិ	-10.3548
▁ហោមិ	-10.3548
▁ខិប	-10.3549
ចោរ	-10.3553
▁វត្តតិ	-10.3554
▁បញ្ញវា	-10.3558
អប្ប	-10.3562
ិំ។	-10.3565
▁និសីទិ	-10.3565
បិណ្ឌ	-10.3566
▁ខរ	-10.3566
▁សេយ្យ	-10.3566
▁មេធាវី	-10.3568
▁ឥត្ថិលិង្គ	-10.3569
▁គាថាហិ	-10.3572
្	-10.3574
▁មាតរំ	-10.3576
▁អគ្គោ	-10.3578
▁បេត	-10.358
▁ខន្តិ	-10.3583
▁បិតរំ	-10.3588
▁បតិដ្ឋាយ	-10.3588
▁លោកុត្តរំ	-10.3594
▁មានានុសយញ្ច	-10.3594
▁សូរិយ	-10.3597
▁វង្ក	-10.36
▁និន្ន	-10.3602
យញ្ច	-10.3603
▁សតសហស្ស	-10.3603
េន្តស្ស	-10.3604
ណោ	-10.3604
▁បការេន	-10.3604
▁សង្គ	-10.3606
▁គតេ	-10.3606
វាទា	-10.3607
▁កាតព្ពំ។	-10.3607
▁អាបោធាតុ	-10.3607
▁ឧប្បល	-10.3609
▁សុក្ខ	-10.3611
▁ភូ	-10.3612
▁ចតុក្ក	-10.3612
បក្ក	-10.3612
ប្បសាទ	-10.3612
ន្តរំ	-10.3612
គមនំ	-10.3613
▁ហិរី	-10.3616
▁បរិច្ឆេទ	-10.3616
▁ថូល	-10.3622
ូបមា	-10.3623
▁សំវត្តតិ។	-10.3624
▁ញាណំ។	-10.3624
▁ថុល្លច្ចយ	-10.3625
▁សីលេន	-10.3625
▁វិប្បយុត្តេ	-10.3627
ឯត	-10.363
▁អាគច្ឆតិ	-10.3632
▁លោកស្មិំ	-10.3635
▁វិហរតោ	-10.3645
មភិ	-10.3645
▁ពហុវចន	-10.3646
សាធារណ	-10.3646
▁ចុតិ	-10.3649
សទ្ទំ	-10.3656
▁លោកា	-10.366
▁សាមណេរ	-10.3662
▁តស្សាតិ	-10.3664
▁អច្ចយេន	-10.3666
▁មនាប	-10.3667
▁អនុក្កមេន	-10.3668
▁មល	-10.3669
▁ពោជ្ឈង្គ	-10.3673
▁អាយស្មតា	-10.3676
▁បត	-10.3679
▁បុគ្គលេ	-10.3681
▁បញ្ហា	-10.3683
▁វេរមណី	-10.3683
▁គហេត្វាន	-10.3685
▁ចក្ខាយតនញ្ច	-10.3686
▁សប្បុរិស	-10.3689
▁គាមោ	-10.369
▁ឧបចារ	-10.3692
▁អគ្គិំ	-10.3693
▁អភិនន្ទ	-10.3693
▁កិញ្ច	-10.3693
▁បដិបទំ	-10.3695
▁កម	-10.3697
និព្ពាន	-10.3698
សម្ម	-10.3698
▁វត្តតេ។	-10.3698
▁អន្តេ	-10.37
▁ឥទានេវ	-10.3701
▁ជនបទ	-10.3702
▁វីរ	-10.3711
▁អលង្ការ	-10.3713
▁ជរាមរណំ	-10.3716
ាយ។	-10.3724
បក្ខេ	-10.3728
▁បគ្គយ្ហ	-10.3729
▁បតិដ្ឋិត	-10.3734
▁កោធោ	-10.3737
▁អនុពន្ធ	-10.3738
បញ្ញាយ	-10.374
▁បរញ្ច	-10.374
▁មានត្តំ	-10.3741
▁បរិភុញ្ជ	-10.3744
▁សម្ពុទ្ធំ	-10.3752
វិភង្គ	-10.3754
កាសិ	-10.3756
▁សិប្ប	-10.376
▁សមាទបេតិ	-10.376
▁សត្តម	-10.3761
ោទក	-10.3761
ចរណ	-10.3765
▁អសេក្ខ	-10.3767
▁មយ	-10.3768
▁បជា	-10.3769
▁អធិក	-10.377
ណ្ហ	-10.3775
ាបេសិ។	-10.3776
▁សស	-10.3778
កថាយ	-10.3781
▁សយន	-10.3783
មនសិការ	-10.3789
សេន	-10.3791
បដិបក្ខ	-10.3792
▁អារាមេ។	-10.3794
▁គន្ធោ	-10.3795
▁ព្យាបាទ	-10.3798
ធនំ	-10.3801
▁បាតិមោក្ខ	-10.3805
▁ឯហិ	-10.3808
▁នេវសេក្ខនាសេក្ខ	-10.3808
យមក	-10.381
▁ទក្ខិណា	-10.3812
▁អរហន្ត	-10.3818
នោ។	-10.382
▁សីហោ	-10.3821
▁អរ	-10.3822
▁បច្ឆាជាតា	-10.3823
▁គូថ	-10.3823
▁វហ	-10.3823
▁ហារ	-10.3826
បាស	-10.3826
តត្រ	-10.3827
▁បទក្ខិណំ	-10.3828
លាភ	-10.3828
▁ភូមីសុ	-10.3831
ស្សាទ	-10.3833
▁អនញ្ញ	-10.3834
តីតិ។	-10.3841
សមាទាន	-10.3841
▁គិរិ	-10.3844
▁សេដ្ឋិ	-10.3845
▁ចេតសិកំ	-10.3845
▁សព្ពេវ	-10.3847
▁ឥតរា	-10.3848
សតសហស្ស	-10.3849
ិតន្តិ	-10.3849
▁ឧបសម្បទា	-10.3851
▁បរិជានាតីតិ	-10.3853
ប្បមាណំ	-10.3854
▁ឧប្បន្នេ	-10.3856
▁កដត្តា	-10.3858
▁ឧប្បន្នស្ស	-10.3859
▁តបោ	-10.3861
▁វសន្តិ	-10.3863
▁ពោធ	-10.3867
▁បឋមា	-10.3867
▁ឧបបជ្ជិត្វា	-10.3868
▁ឋិតេ	-10.3869
រសា	-10.3873
▁អវយវ	-10.3873
▁សមត្ថ	-10.3876
ិតានិ	-10.3878
ិតព្ពន្តិ	-10.3879
▁តេសំយេវ	-10.3881
▁ទេវេសុ	-10.3883
▁វេទយិតំ	-10.3884
▁ធម្មញ្ច	-10.3885
មុខំ	-10.3885
និរោធា	-10.3892
▁សមន្នាគតោ។	-10.3895
▁សុគតិ	-10.3896
▁យ្វាយំ	-10.3901
▁មេត្តាយ	-10.3903
▁ជានន្តោ	-10.3903
វិសយេ	-10.3903
▁មុ	-10.3905
ធម្មេសុ	-10.3905
▁បិណ្ឌបាតំ	-10.3907
ដ្ឋិត	-10.3909
▁ទទ	-10.3913
▁បច្ចុប្បន្នំ	-10.3914
▁បុត្តេ	-10.3916
ារម្មណា	-10.3918
វិភាគ	-10.3918
▁ឥទ្ធិយា	-10.3918
▁ឧទ្ធច្ចំ	-10.3919
វិតក្កវិចារមត្តោ	-10.3921
▁ឥតរំ	-10.3923
▁វាចតោ	-10.3924
លម្ព	-10.3925
▁អនវសេស	-10.3925
▁តាសុ	-10.3927
ហត្ថិ	-10.3934
▁ទេហិ	-10.3935
អដ្ឋកថាយ	-10.3935
▁ឈ	-10.3935
▁បស្សទ្ធិ	-10.3937
▁សព្ពាបិ	-10.3938
នានត្ត	-10.3938
បរិយាបន្ន	-10.3942
▁នប្បជហតិ	-10.3945
▁ឧបាយ	-10.3946
នតោ។	-10.395
▁ឱឡារិក	-10.3951
▁អភយ	-10.3958
▁បវត្តោ	-10.3959
មាលា	-10.3961
▁ទស្សិត	-10.3963
▁ឧគ្គត	-10.3964
▁មោទ	-10.3965
វាត	-10.3968
វិបល្លាស	-10.3969
▁បាក	-10.3969
▁បទេ	-10.3972
សង្គ	-10.3972
▁បីតិយា	-10.3972
▁ព្រូមិ	-10.3972
ត្ថេរ	-10.3974
▁អបនេត្វា	-10.3975
▁ឱវាទំ	-10.3976
▁ខយា	-10.3977
គាមេ	-10.3978
▁គហ	-10.3982
▁ចន្ទន	-10.3984
▁បហានា	-10.3988
ត្តេន	-10.3988
▁អាមន្តា	-10.3989
▁ទិសាយ	-10.3992
មានសោ	-10.3999
ក្ខត្តុំ	-10.3999
▁មទ	-10.4001
▁តិវិធំ	-10.4001
▁បាន	-10.4007
▁សោមនស្សំ	-10.4007
អាវុសោ	-10.401
▁ចរណ	-10.401
▁បដិច្ចសមុប្បាទ	-10.4017
▁បដិគ្គណ្ហ	-10.4018
▁បដិញ្ញា	-10.4022
▁មានំ	-10.4026
គម្ភីរ	-10.4026
នេយ្យ	-10.4028
▁ភាសិតា	-10.4028
▁លូខ	-10.4029
▁កិន្តិ	-10.4039
ត្ថស្ស	-10.4041
▁ឧទ្ធ	-10.4041
▁សាម	-10.4042
▁អភាវេន	-10.4043
យិត្វាន	-10.4046
▁វិចិកិច្ឆាសហគត	-10.4047
▁យុជ្ជតិ។	-10.4049
▁វារេ	-10.405
▁សព្ពស្ស	-10.4051
▁សត្ថុនោ	-10.4055
រុហ	-10.4055
▁បុរិមនយេនេវ	-10.4056
▁អាវាសេ	-10.4057
▁មហារាជា	-10.406
▁គោចរ	-10.4061
▁ទហរ	-10.4062
▁បព្ពជិតា	-10.4063
ិស្សាមា	-10.4064
ប្បភេទ	-10.4065
បុណ្ណ	-10.4069
វីថិ	-10.4071
▁បក្កម	-10.4071
▁តាបស	-10.4075
បាទក	-10.408
▁អនន្តរូបនិស្សយោ	-10.4083
▁ព្យា	-10.4084
▁វេទិតព្ពំ	-10.4088
▁អម្ហេ	-10.4089
▁ឧប្បាទាយ	-10.4089
▁ឧប្បជ្ជិ	-10.409
▁នវមេ	-10.4092
ីយន្តិ	-10.4095
▁សទ្ទេ	-10.4095
▁មតោ	-10.41
▁ឈាយី	-10.4101
▁បា	-10.411
–-	-10.411
▁អាសវវិប្បយុត្ត	-10.4111
▁សហធម្មិក	-10.4112
▁សម្បត្តិ	-10.4113
▁សមយ	-10.4116
មត	-10.4117
▁អរហត្តមគ្គ	-10.4118
▁សុត្វាន	-10.4118
▁អនុរូប	-10.412
េតព្ពំ	-10.412
▁កោសិយ	-10.4124
▁អប្បមត្តោ	-10.4125
▁អាសនំ	-10.413
▁ចិត្តតោ	-10.4135
▁ឧបជ្ឈាយ	-10.4136
▁ថម្ភ	-10.4137
▁អនាគាមី	-10.4139
▁វិញ្ញាណស្ស	-10.4145
▁១២០	-10.4146
ាបីតិ	-10.415
▁វិសុទ្ធិមគ្គេ	-10.415
សន្និស្សិត	-10.415
▁សម្បន្ន	-10.4151
សិក្ខ	-10.4153
▁ពហូនិ	-10.4154
▁បក្កាមិ។	-10.4155
▁និសីទតិ	-10.4156
ករណេន	-10.4164
ធុរ	-10.4165
▁វុទ្ធ	-10.4167
▁វសិត្វា	-10.417
▁ទេវមនុស្សានំ	-10.417
▁អដ្ឋហិ	-10.4171
វត្តំ	-10.4172
▁វទន្តោ	-10.4173
មិស្ស	-10.4173
▁បេក្ខ	-10.4175
តាយាតិ	-10.4176
នគរំ	-10.4178
េស្សាមិ	-10.4181
▁សិក្ខតិ	-10.4182
▁ភិក្ខុនិំ	-10.4184
មិស្សក	-10.419
▁ជនេតិ	-10.4193
▁ឥម	-10.4196
េតព្ពា	-10.4198
▁គហេតព្ពោ។	-10.4205
▁ខីណាសវស្ស	-10.4209
▁វាស	-10.4209
ពលេន	-10.4215
មនា	-10.4216
▁សម្មាសតិ	-10.4229
សុទ្ធិ	-10.423
▁អារព្ភាតិ	-10.423
ធារណ	-10.4231
▁ជោតិ	-10.4233
▁មក្ខ	-10.4233
▁រហ	-10.4234
ុទ្ទេស	-10.4234
បដិបត្តិ	-10.4234
▁សុខទុក្ខ	-10.4234
លំ	-10.4234
▁អភព្ពោ	-10.4236
មច្ឆ	-10.4238
សោភ	-10.4238
▁គហេតព្ព	-10.4245
▁បដិវេធ	-10.4245
ត្ថេន	-10.4248
កតមេ	-10.4249
អញ្ញមញ្ញ	-10.425
▁តុម្ហេហិ	-10.4255
▁កដ	-10.4255
▁អាវាសិកា	-10.4255
កត្ថ	-10.4257
▁អាសិំ	-10.4259
▁សង្គហំ	-10.4259
សុបិ	-10.426
▁ឧដ្ឋាយ	-10.426
ជ្ឈាសយ	-10.4261
▁មនោធាតុ	-10.4268
▁ទាតព្ពំ	-10.4269
ពហុ	-10.427
▁អយម	-10.427
▁ស្វេវ	-10.4274
បវត្ត	-10.4274
▁អបរិ	-10.4275
▁បញ្ហ	-10.4279
ាបេសិ	-10.4281
សហគត	-10.4282
▁អង្គានិ	-10.4283
▁នអកុសលោ	-10.4285
▁វិសេសេន	-10.4287
▁បាបកម្មំ	-10.4287
សាខ	-10.4287
រជ្ជ	-10.4287
ាទី	-10.4294
វិធាន	-10.4296
▁សត្ថារា	-10.4298
▁ភោគេ	-10.43
▁ចិត្តសំសដ្ឋ	-10.4304
▁អបរេន	-10.4306
▁មល្ល	-10.431
សិប្ប	-10.431
▁អត្តមនោ	-10.4311
មេត្ថ	-10.4311
វត្ថូនិ	-10.4313
មុត្តោ	-10.4319
ានន្តរ	-10.432
ោបម	-10.4322
▁អនុសេតិ	-10.4323
សមូហ	-10.4324
▁បរក្កម	-10.4327
អញ្ញ	-10.4332
ចម្ម	-10.4338
▁មហតោ	-10.4339
ចុណ្ណ	-10.434
▁តិរិយំ	-10.4341
វាសិ	-10.4341
▁ឧបាសិកា	-10.4347
សាយ	-10.4353
▁សល្ល	-10.4354
▁ឯតេនេវ	-10.4356
▁ទុក្ខេ	-10.4357
▁ឧបនិស្សយ	-10.4363
▁អនុភវ	-10.4365
▁យុត្តោ	-10.4365
▁ឱវទ	-10.4367
កលាប	-10.4367
ភាវា	-10.4367
▁បាកដា	-10.4377
▁សមូហ	-10.4384
▁សិព្ព	-10.4388
▁ទិវសំ	-10.4388
▁កម្មានំ	-10.4391
▁ភារ	-10.4391
▁វុដ្ឋាន	-10.4394
ិតុំ។	-10.4394
▁អប្បហីនោ	-10.4396
▁ចន្ទោ	-10.4396
ុប្បន្ន	-10.4396
▁ទោមនស្សិន្ទ្រិយ	-10.4399
▁សោហំ	-10.44
▁សព្ពញ្ញុតញ្ញាណ	-10.4405
▁បត្តិយា	-10.4405
គហណ	-10.4406
ទិដ្ឋ	-10.4408
▁សទ្ធំ	-10.4417
អជ្ជ	-10.4419
▁បទេសេ	-10.442
▁បហាតព្ព	-10.442
▁បដិលភិស្សន្តិ	-10.4423
▁សង្ខត	-10.4425
ានុភាវ	-10.4425
▁វិមាន	-10.4426
▁អត្ថី	-10.4429
▁ឧប្បជ្ជេយ្យ	-10.4432
វស្សំ	-10.4433
▁សង្ឃោ។	-10.4433
▁បដិបាដិយា	-10.4439
▁មនសិការោ	-10.4441
▁សោតាយតនំ	-10.4443
▁អាលោកោ	-10.4445
ំយេវ	-10.4445
▁កុច្ឆិ	-10.4445
▁សង្ខ្យា	-10.4446
▁វុច្ចតេ	-10.4447
▁បញ្ហោ	-10.4448
ញ្ញាតាវិន្ទ្រិយំ	-10.4451
▁អបរេ	-10.4451
▁អវិតក្កអវិចារោ	-10.4452
វិកប្ប	-10.446
លោហិត	-10.4461
▁បាបកំ	-10.4463
▁ជាយន្តិ	-10.4464
▁អរិយានំ	-10.4465
▁សមត្ថោ	-10.4465
▁អនុវត្ត	-10.447
▁ថុល្លច្ចយំ	-10.4474
▁អវោច	-10.4475
លភ	-10.4477
ទេវតា	-10.4478
តេវ	-10.4478
▁កាមាវចរា	-10.4479
▁យោគ	-10.448
▁ទាតព្ព	-10.4481
▁កម្ប	-10.4482
ិនិ	-10.4488
▁នសរណ	-10.4491
គរុ	-10.4492
▁ចក្កវាឡ	-10.4495
▁ឱលោក	-10.4496
ង្គុល	-10.4501
▁ចតុត្ថោ	-10.4503
▁១២៣	-10.4503
▁១២៤	-10.4508
▁ឧបគន្ត្វា	-10.451
▁សព្ពទិសា	-10.4513
▁បុព្ពេវ	-10.4513
▁ជញ្ញា	-10.4514
ដ្ឋេ	-10.4515
▁និបជ្ជ	-10.4515
▁សំសដ្ឋា	-10.4516
▁កាតព្ព	-10.4516
▁គាថមាហ។	-10.4518
ចរិយ	-10.4518
ស្វាគតំ	-10.4521
ាហី	-10.4522
▁១២២	-10.4525
▁វុដ្ឋ	-10.4526
▁សម្បត្តេ	-10.4527
ហេ	-10.4529
▁អាកាសានញ្ចាយតន	-10.4531
អស្ស	-10.4532
ភាជន	-10.4535
▁ឧបាយេន	-10.4535
សេយ្យ	-10.454
▁អប្បមាណ	-10.4545
▁ឧជុ	-10.4546
▁មគ្គផល	-10.455
▁ភណន្តស្ស	-10.4552
▁រុក្ខោ	-10.4553
ត្វំ	-10.4556
ភិក្ខូ	-10.4558
▁ឥវ	-10.4562
▁សទ្ធោ	-10.4566
▁អទ្ធ	-10.4568
▁ហេ	-10.4569
វិជ្ជា	-10.4572
គណនាយ	-10.4573
▁ឧក្ខិបិត្វា	-10.4575
▁និព្ពានស្ស	-10.4578
▁តិព្ព	-10.458
វេស	-10.4581
សក្ក	-10.4583
▁នត្ថិយា	-10.4585
▁ចតុព្ពិធំ	-10.4585
▁ឥន្ទ្រិយបច្ចយេន	-10.4585
▁សតិបិ	-10.4588
▁យម	-10.4589
ចី	-10.4591
ិដ្ឋ	-10.4592
▁បិយំ	-10.4592
▁កិរិយ	-10.4593
▁ឧគ្គណ្ហ	-10.4598
▁ទុវិធោ	-10.4599
▁អរហ	-10.4601
▁បស្សន្តិ	-10.4603
▁អច្ច	-10.4604
ធរា	-10.4609
▁មិស្សក	-10.4614
▁នានត្ត	-10.4614
▁នរ	-10.4616
▁វិសំ	-10.4617
▁ជោត	-10.4619
▁វិនិច្ឆយ	-10.462
យុត្តំ	-10.462
▁លោកិយលោកុត្តរ	-10.4624
▁តតិយា	-10.4624
▁ហត្ថបាទ	-10.463
▁ហត្ថតោ	-10.4631
លោប	-10.4633
▁សមីបេ	-10.4633
មធុរ	-10.4638
▁អាហុ	-10.4639
▁អាយ	-10.4643
▁ឧបាទានំ	-10.4644
▁ភាវេ	-10.4645
គោត្ត	-10.4646
▁ទុក្ខន្តិ	-10.4646
▁ហីតិ	-10.4646
▁ទិដ្ឋេ	-10.4647
▁កាយកម្ម	-10.4647
▁បថវិ	-10.4648
រតិ	-10.465
▁អាហរិ។	-10.4652
▁កត្តព្ពំ	-10.4665
▁ពលវា	-10.4667
លី	-10.4668
បវត្តិ	-10.4669
▁និព្ពុតោ	-10.4672
▁សមុដ្ឋានេហិ	-10.4677
▁ជានេយ្យ	-10.4682
▁គិហី	-10.4682
▁សមាបត្តិំ	-10.4683
▁ភោន្តោ	-10.4683
▁ថាម	-10.4684
វន្តំ	-10.4684
បទុម	-10.4685
▁វនំ	-10.4685
▁ខន្ធេន	-10.4686
▁បតិត	-10.4688
▁តតិយម្បិ	-10.4689
▁អត្តតោ	-10.4689
▁សមន្នាគតំ	-10.4691
▁គហិតោ	-10.4691
អនាបត្តិ	-10.4692
▁បសន្ន	-10.4692
▁មនោវិញ្ញាណធាតុ	-10.4694
▁វាទោ	-10.4695
▁វត្ថំ	-10.4696
▁តិត្ថិយ	-10.4698
▁សោតាបត្តិផលេ	-10.4701
បូរណ	-10.4703
កថញ្ហិ	-10.4704
វាសិនោ	-10.4711
សដ្ឋិ	-10.4711
▁វិភង្គវារោ	-10.4715
▁អគារស្មា	-10.4715
ិមំ	-10.4715
កម្មស្ស	-10.4726
▁អត្តភាវេ	-10.4726
▁អនុជាន	-10.4729
សន្តាន	-10.473
▁បុច្ឆតិ	-10.4734
▁សមណស្ស	-10.4734
ទត្ត	-10.4735
ានុរូបំ	-10.4737
▁ភាយ	-10.4738
▁វុត្តម្បិ	-10.4741
▁បណមាម្យហំ។១	-10.4744
▁សប្បាយ	-10.4745
▁សកដ	-10.4746
តូតិ	-10.4746
▁ឯកិស្សា	-10.4749
បទេស	-10.475
▁លោហ	-10.4751
▁ជេដ្ឋ	-10.4753
▁បព្ពជ	-10.4755
▁កហាបណ	-10.4755
▁កុសលត្តិក	-10.4756
▁សង្គហិតា	-10.4757
▁សង្គហិតា។	-10.4762
▁សំកិលេស	-10.4762
រណ	-10.4763
▁ហស	-10.4766
សទ្ធា	-10.477
▁វិនយំ	-10.477
▁សីឃំ	-10.477
▁មារិស	-10.4771
មត្ថំ	-10.4771
ោទកំ	-10.4772
▁សំសរ	-10.4778
▁ឆឌ្ឌេត្វា	-10.4778
▁បហាតព្ពហេតុក	-10.4779
កុដិ	-10.478
▁បារំ	-10.4783
▁ឥមិនាវ	-10.4785
▁បាវិសិ។	-10.4786
▁សម្មប្បធាន	-10.4787
▁ទហ	-10.4791
រិវ	-10.4792
▁អនុលោមំ	-10.4793
▁ឧបោសថោ	-10.4794
បញ្ហ	-10.4796
▁មត្ត	-10.4797
▁អន្វ	-10.4798
បូជ	-10.4798
េសា	-10.4801
ទស្ស	-10.4802
យុត្តា	-10.4804
▁សុវិញ្ញេយ្យមេវ។	-10.4804
▁ឯវមាហំសុ	-10.4805
▁១២១	-10.4806
▁វីតិក្កម	-10.4806
▁សាសនំ។	-10.4808
ករា	-10.481
▁អវោច។	-10.4815
▁មហតា	-10.4815
▁និទស្សន	-10.4818
តព្ព	-10.4824
▁ករោថ	-10.4826
▁អភាវា	-10.4827
▁ចក្កវត្តិ	-10.4835
▁ឯវមាទីសុ	-10.4839
កម្មដ្ឋាន	-10.4841
▁បរិច្ឆិន្ន	-10.4841
▁វោហរ	-10.4843
▁សហស្សំ	-10.4843
អរិយ	-10.4844
មាទាយ	-10.4847
▁និរុជ្ឈតីតិ	-10.4847
▁មនំ	-10.4848
▁តទា។	-10.485
សិរ	-10.4852
▁អភិជ្ឈា	-10.4854
▁ផោដ្ឋព្ពាយតនំ	-10.4857
▁ជានន	-10.4857
រដ្ឋ	-10.4859
▁ភរ	-10.4862
▁ព្រូហិ	-10.4863
អាទីនិ	-10.4866
▁អធិគម	-10.4868
▁គុណា	-10.4869
▁ចិត្តសមុដ្ឋាន	-10.4874
▁ព្រហ្មចរិយ	-10.4875
▁បាចិត្តិ	-10.4876
សម្មុតិ	-10.4876
▁ហិមវន្ត	-10.4879
▁សូរិយោ	-10.4884
▁មញ្ច	-10.4893
សីមា	-10.4893
▁សប្បីតិក	-10.4894
▁អសក្កោន្តោ	-10.4895
សម្បន្នំ	-10.4905
ប្បធាន	-10.4907
▁ឧប្បាទេត្វា	-10.4907
ឋាន	-10.4908
▁អនញ្ញាតញ្ញ	-10.4908
▁វិញ្ញូ	-10.4914
▁មនសិករោតោ	-10.4924
▁ឯកមេវ	-10.4928
ាសន	-10.4929
យោគោ	-10.4932
▁បគ្គហ	-10.4935
▁បូតិ	-10.4937
ធរ	-10.4943
▁អាគន្តុក	-10.4943
▁បុថុជ្ជនា	-10.4947
▁គុណំ	-10.4947
▁អព្ភន្តរ	-10.495
ាចរិយ	-10.4956
▁ភុត្ត	-10.4956
បាទិន្នុបាទានិយោ	-10.4965
គុ	-10.4968
▁គយ្ហ	-10.4969
សម្ភារ	-10.497
▁មោហស្ស	-10.4972
▁សហសា	-10.4974
▁ឧបដ្ឋហ	-10.4974
▁វិស្សដ្ឋ	-10.4975
▁អមោហោ	-10.4975
▁អស្សាស	-10.4983
េតុកាមោ	-10.4983
▁ខិត្ត	-10.4984
សមំ	-10.4984
មាណវ	-10.4985
▁វត្ថុស្មិន្តិ	-10.4988
▁សោណ	-10.499
▁អភិវ	-10.4991
▁សិវ	-10.4992
សាមណេរ	-10.4994
▁សំវរោ	-10.4994
▁វិវាទ	-10.5001
▁អនរិយ	-10.5002
▁អវិបរីត	-10.5003
▁១២៥	-10.5006
▁ចតុព្ពិធ	-10.5015
▁រាហុល	-10.5019
ការា	-10.5019
▁ចក្ខុវិញ្ញាណស្ស	-10.502
ិកេ	-10.5021
▁កោប	-10.5023
គតេ	-10.5025
▁ផុស្ស	-10.5026
រោធ	-10.5034
សិទ្ធិ	-10.5035
លោកោ	-10.5036
ឡិ	-10.5038
ាទិអ	-10.504
▁អាកិញ្ចញ្ញាយតន	-10.5041
កាឡ	-10.5044
សមង្គី	-10.5046
▁សម្ភវ	-10.5051
▁បរិគ្គហ	-10.5058
ស្វ	-10.5058
▁វីស	-10.5059
▁សុមេធ	-10.5062
ភាវនាយ	-10.5063
លទ្ធ	-10.5064
▁អាសន្ន	-10.5064
▁បស្សតីតិ	-10.5067
▁ភូមិយា	-10.5068
▁កិរិយំ	-10.5069
គ្គាហោ	-10.5069
▁បុព្ពេបិ	-10.5071
▁និបន្ន	-10.5072
វេទន	-10.5073
▁វសន្តោ	-10.5074
▁ទុវិធំ	-10.5074
▁ពុទ្ធិ	-10.5077
សមោ	-10.5077
▁អាចារ	-10.5084
ិតព្ពា	-10.5093
▁តណ្ហំ	-10.5095
មតិ	-10.5106
▁អវច	-10.5106
តិអាទិកំ	-10.5106
▁និរុជ្ឈន្តិ	-10.5107
▁បញ្ញ	-10.5109
▁ឋានេហិ	-10.5114
លក្ខណំ។	-10.512
យម្បិ	-10.5122
ការេ	-10.5123
▁ធុវំ	-10.5124
លាប	-10.5125
េសូ	-10.5125
▁រក្ខតិ	-10.5135
▁អាន	-10.5142
▁ទក្ខិណេយ្យ	-10.5144
▁អារទ្ធំ។	-10.5147
▁នាស្ស	-10.5148
មុខោ	-10.5148
▁បុរិមំ	-10.5148
សមុទ្ទ	-10.5152
▁គវ	-10.5154
▁កុលំ	-10.5155
▁សជ្ឈាយ	-10.5155
▁នោអាសវ	-10.5156
▁កស្សបោ	-10.5157
ានញ្ហិ	-10.516
▁ទស្សនត្ថំ	-10.5162
▁សកុណ	-10.5163
▁បរិយេស	-10.5167
▁ទេសិតោ	-10.5171
▁ទក្ខិណំ	-10.5173
មណ្ឌលំ	-10.5175
▁និសិន្នស្ស	-10.5176
ទុក្ខនិរោធគាមិនី	-10.518
▁អស្សាសបស្សាស	-10.5182
▁ញាត	-10.5183
▁វជ	-10.5184
▁បដិបទាយ	-10.5184
▁ទិដ្ឋានុសយោ	-10.5191
▁វិសេសំ	-10.5191
▁សរណគមន	-10.5191
រូបានិ	-10.5195
ករំ	-10.5195
▁សុប្ប	-10.5197
▁គណន	-10.5207
▁១២៨	-10.5208
រុក្ខោ	-10.5209
សក	-10.521
រហិត	-10.5213
▁វិនស្ស	-10.5214
▁ភោតោ	-10.5219
វិធំ	-10.5223
សម្បន្នា	-10.5224
▁បុច្ឆិតោ	-10.5227
សេដ្ឋ	-10.5228
▁អារោចេសិ។	-10.5229
តលេ	-10.5233
▁ទុវិធេន	-10.5233
ាធិគម	-10.5236
▁ឧបដ្ឋ	-10.5242
ុប្បាទន	-10.5247
▁១២៦	-10.5248
▁បាបុណិ។	-10.5248
▁បញ្ញត្តិ។	-10.5251
បញ្ចម	-10.5256
មាហុ	-10.5259
ញ	-10.526
សិយា	-10.526
▁សុញ្ញត	-10.5261
▁កុមារ	-10.5264
វិភង្គេ	-10.5269
▁បដិសេធ	-10.5269
បាណ	-10.527
▁មុត្តា	-10.5272
▁មទ្ទ	-10.5272
បរម	-10.5273
រតនំ	-10.5275
បារមី	-10.5276
▁ករិស្សាមិ	-10.5279
▁បញ្ញត្តន្តិ	-10.5279
▁វិសភាគ	-10.5282
តំ។	-10.5284
▁អយ្យេ	-10.5285
បដិមណ្ឌិត	-10.5286
សេនាសន	-10.5286
និស្សិតំ	-10.529
▁រាគស្ស	-10.529
▁គមនេ	-10.529
▁គច្ឆាមិ	-10.5292
▁រាសិ	-10.5292
▁ឧបបរិក្ខ	-10.5294
▁ឥស្សា	-10.5299
▁វិបរីត	-10.5301
▁សមុ	-10.5302
▁គណ្ហាតិ។	-10.5304
បទានំ	-10.5304
សំវរ	-10.5305
▁នក្ខត្ត	-10.5306
▁មមំ	-10.5307
ាលយ	-10.5314
▁បាឡិយា	-10.532
▁និទ្ទេសោ	-10.532
បសាទ	-10.532
▁ទដ្ឋព្ពំ	-10.532
▁នទិយា	-10.5325
▁សព្ពទា	-10.5325
▁ទុក្ខក្ខន្ធស្ស	-10.5325
▁ឧទកេន	-10.5326
សមាន	-10.5327
▁ហវេ	-10.5327
▁សម្មាសម្ពុទ្ធេន	-10.5329
វិការ	-10.5329
▁១២៧	-10.5334
▁បុព្ពភាគេ	-10.5334
▁បថវីធាតុ	-10.5337
ខណ្ឌ	-10.5337
▁វាក្យ	-10.5342
▁ផោដ្ឋព្ព	-10.5343
▁និស្សរណំ	-10.5349
▁រក្ខិត	-10.535
▁ឧភយត្ថ	-10.5351
វរំ	-10.5355
▁អាទិំ	-10.5355
▁វុត្តានិ។	-10.5356
▁មហាជនស្ស	-10.5358
▁គុត្ត	-10.536
▁ទីបេតិ	-10.536
▁ហត្ថំ	-10.5361
វត្តន	-10.5364
▁កថិតា	-10.5365
▁ឥទមវោច	-10.5365
▁សកលំ	-10.5365
▁អាវជ្ជ	-10.5367
▁បត្ថនា	-10.5369
▁បច្ចយបច្ចនីយំ	-10.5369
ិធ	-10.5372
▁អញ្ញស្មិំ	-10.5372
▁បវត្តតិ។	-10.5376
▁វិរតិ	-10.5377
▁សង្ឃិក	-10.5378
ទាយក	-10.5379
▁សរូបតោ	-10.5381
▁ទធិ	-10.5384
▁ទុច្ចរិតំ	-10.5385
▁នាវា	-10.5386
ានន្តរំ	-10.5388
▁ផលសមាបត្តិ	-10.5391
យាវ	-10.5393
▁ជវ	-10.5399
▁បរិញ្ញាយ	-10.54
ិកាតិ	-10.5402
▁គាមណិ	-10.5403
▁បច្ចយេហិ	-10.5403
▁វសេ	-10.5404
▁សន្និបាត	-10.5407
▁ភាសិត	-10.5408
ដ្ឋានតោ	-10.5415
▁វិបស្ស	-10.5417
▁វាសេដ្ឋ	-10.5417
កណ្ដក	-10.5419
សណ្ឋាន	-10.5423
▁និព្ពិន្ទតិ	-10.5425
និទស្សន	-10.5429
▁បុរិសានំ	-10.5434
បិដ្ឋិ	-10.5435
▁កថិតំ។	-10.5435
វនំ	-10.5437
ាយស្មតោ	-10.5439
▁សហព្យតំ	-10.5443
ិមា	-10.5446
▁អរិយសច្ចំ	-10.5447
▁អគ្គហេត្វា	-10.5452
▁ឧបគច្ឆ	-10.5457
▁តទុភយ	-10.5458
▁ត្យ	-10.5458
▁វិមតិ	-10.5459
▁ទម្មី	-10.5461
▁អនាបុច្ឆា	-10.5473
▁កទា	-10.5474
បាសាទ	-10.5476
▁អដ្ឋសុ	-10.5478
▁ទុក្ខេន	-10.5479
▁សូករ	-10.5483
▁មានានុសយេន	-10.5484
▁វីត	-10.5486
បណ្ឌិតោ	-10.5487
ជិន	-10.5488
▁អច្ឆរា	-10.5488
▁ខត្តិយា	-10.5488
សិក្ខាបទេ	-10.5489
ឯតំ	-10.549
▁បការ	-10.5492
▁ពុទ្ធុប្បាទេ	-10.5492
▁សង្ឃាទិសេសស្ស។	-10.5492
▁តេនាតិ	-10.5493
វន្តោ	-10.5493
▁បញ្ញាវិមុត្តិ	-10.5494
ត្ថេរអបទានវណ្ណនា	-10.5495
▁ស្វា	-10.5495
▁តណ្ឌុល	-10.5497
▁ឥស្សរ	-10.5498
▁ឧទ្ទិស	-10.5499
▁បរិកម្ម	-10.5499
ជនក	-10.5501
▁សក្កាយទិដ្ឋិ	-10.5503
មរ	-10.5504
▁រូបារូប	-10.5507
▁អាសន	-10.5508
▁បុត្តទារ	-10.5509
▁នចិរស្សេវ	-10.5516
▁ហោតូ	-10.5516
▁បដិលភ	-10.5517
ចារី	-10.5517
▁សត្តសុ	-10.5519
▁ឧបសគ្គ	-10.5522
▁ការាបេត្វា	-10.5523
▁ធាតូ	-10.5523
▁ថោម	-10.5523
▁ឧបដ្ឋានំ	-10.5524
▁សទិសោ	-10.5526
▁អបរិយាបន្នេ	-10.5533
ទីនំ	-10.5534
▁ឃរេ	-10.5535
▁ឧច្ឆុ	-10.5536
▁កតន្តិ	-10.554
▁ឃរំ	-10.5541
▁អនុត្តរោ	-10.5549
សភាគ	-10.5549
▁បថ	-10.555
សំយុត្ត	-10.5555
▁អាទីនវ	-10.5555
▁នានុសេតិ	-10.5555
េហិបិ	-10.5556
▁យាចិតោ	-10.5557
▁វសតិ	-10.5559
ហោតិ	-10.5559
សាវក	-10.5562
▁អាបោ	-10.5567
▁បញ្ញាស	-10.5569
ទ្វយេ	-10.5572
▁វិវដ	-10.5573
ភោជនំ	-10.5582
ត្តញ្ច	-10.5582
▁សុមន	-10.5583
▁សល្លក្ខេត្វា	-10.5583
▁ឧបបជ្ជ	-10.5584
▁ទសន្នំ	-10.5585
▁ឧបោសថកម្មំ	-10.5588
រហិតា	-10.5589
▁សម្បដិច្ឆ	-10.559
▁អនេកវិហិត	-10.5591
▁អត្ថេវ	-10.5592
▁ធីតា	-10.5595
បដិពទ្ធ	-10.5596
បរិច្ចាគ	-10.5598
▁មេត្ត	-10.5599
▁អត្ថិ។	-10.5601
ជាតិកោ	-10.5601
▁តទញ្ញ	-10.5602
ញ្ញា	-10.5605
ទាយ	-10.5606
▁បដិគ្គណ្ហាតិ	-10.5608
ប្យ	-10.5611
▁ធុរ	-10.5616
▁ជម្ពុទីប	-10.5617
▁អរូបិនោ	-10.5617
▁ហិំស	-10.5618
តស្មា	-10.5621
▁មោច	-10.5622
▁សេល	-10.5622
▁សារថិ	-10.563
វិសិដ្ឋ	-10.5632
▁សំវត្តតិ	-10.5633
▁ឋានានិ	-10.5634
▁ភុញ្ជិត្វា	-10.5635
▁សំវេគ	-10.5639
ណេ	-10.5645
▁សម្ពុទ្ធ	-10.5645
▁ភិត្តិ	-10.5646
▁រាគាទិ	-10.5647
▁ករោហិ	-10.565
▁សាគរ	-10.5655
▁អវិជ្ជមាន	-10.5656
▁កញ្ញា	-10.5659
▁ភិក្ខុសង្ឃំ	-10.5661
▁ទីឃោ	-10.5661
▁វារិ	-10.5663
ភេទំ	-10.5664
បណ្ឌិត	-10.5665
▁មេថុនំ	-10.5666
ិត្វាតិ	-10.5667
▁កត្វាតិ	-10.5668
▁ឧត្តាន	-10.5669
បដ	-10.567
▁អភាវ	-10.5675
វិភាវន	-10.5678
▁អភិក្កម	-10.5679
▁ឧត្តមំ	-10.5684
▁ទាតព្ពំ។	-10.5684
រក្ខិត	-10.5685
▁តីរេ	-10.5686
សុទ្ធ	-10.5688
▁បញ្ហេ	-10.5691
▁បទដ្ឋាន	-10.5693
បច្ចយេ	-10.5695
▁ទុវិធា	-10.5695
គុណំ	-10.5697
▁គិលានោ	-10.57
បរិសា	-10.5701
▁ឯកវចន	-10.5704
▁កញ្ចន	-10.5705
▁បច្ចវេក្ខណ	-10.5706
▁នានាក្ខណិកា	-10.571
▁សម្ភាវ	-10.5711
▁សព្ពលោក	-10.5715
▁សិនេរុ	-10.5722
▁បច្ចា	-10.5729
សោក	-10.5732
ំសុ	-10.5733
▁សង្គហិត	-10.5738
▁វិជហ	-10.5739
កម្មេ	-10.5743
▁ចណ្ឌ	-10.5743
វាសី	-10.5744
▁អត្តមនា	-10.5745
មយ្ហំ	-10.5746
▁គោណ	-10.5749
▁កតំ។	-10.575
▁ឯវន្តិ	-10.5751
▁អតុល	-10.5751
▁បដិវិជ្ឈ	-10.5756
ញ្ចាបិ	-10.5756
▁និបាត	-10.576
▁មហាពោធិ	-10.5762
ភគវា	-10.5766
បការ	-10.5769
▁បដិច្ចសមុប្បន្ន	-10.577
មាតិកា	-10.577
យោនិ	-10.5773
▁ពាធ	-10.5775
ក្កន្ត	-10.5775
▁សម្មាវាចា	-10.5775
▁តថារូប	-10.5777
▁ឧបគត	-10.5778
▁និទ្ទិដ្ឋ	-10.5779
▁បព្ពតោ	-10.5781
បុព្ពោ	-10.5787
▁ឧបេក្ខិន្ទ្រិយ	-10.579
▁វំស	-10.5792
▁បូរណ	-10.5792
ទស្សី	-10.5794
ទោសោ	-10.5794
ឯហិ	-10.5801
▁សព្ពញ្ញុ	-10.5802
សភាវា	-10.5804
ឆន្ទ	-10.5805
▁ទិដ្ឋធម្មិក	-10.5809
បត្តិ	-10.5809
ាធិប្បាយ	-10.581
ិយមានេ	-10.5814
▁សាបិ	-10.5814
▁ឧក្ខិប	-10.5817
▁តាទិនោ	-10.5817
▁ភោជ	-10.5819
ពទ្ធ	-10.5822
▁ណោ	-10.5823
▁ផុសិត្វា	-10.5824
▁សទ្ធិវិហារិក	-10.5826
បច្ចុប្បន្ន	-10.5826
▁អរហត្តផល	-10.5828
វាច	-10.5828
▁កេវលស្ស	-10.583
▁កថេសិ	-10.583
▁ឧទ្ធរិត្វា	-10.5832
▁ពហុស្សុតោ	-10.5832
▁មយ្ហ	-10.5834
▁ចុណ្ណ	-10.5834
▁កដត្តារូបំ	-10.5835
▁សន្ធាយាហ	-10.5835
ានុយោគ	-10.5837
▁ឃាត	-10.5839
វិបត្តិ	-10.584
▁ទិស្សន្តិ	-10.5842
▁អារម្មណបុរេជាតំ	-10.5842
▁ទេសេស្សាមិ	-10.5843
▁បានីយំ	-10.5847
នន្ទ	-10.5847
និស្សិតា	-10.585
▁វិមុត្ត	-10.586
▁កថិតំ	-10.5861
▁ហោន្តុ	-10.5862
ចតុត្ថ	-10.5871
ទានេន	-10.5872
▁អមនុស្ស	-10.5874
▁វិមល	-10.5875
▁បាល	-10.5876
▁សមតិក្កម្ម	-10.5877
▁វិបុលំ	-10.5878
▁យុត្តា	-10.5879
▁បរិបុច្ឆ	-10.588
ិកានំ	-10.588
វិមុត្ត	-10.5883
▁នខ	-10.5892
▁បរមត្ថតោ	-10.5895
▁ភវេយ្យ។	-10.5895
សុខុម	-10.5895
▁ធនុ	-10.5897
▁តណ្ហ	-10.5903
▁បត្តិ	-10.5903
គូ	-10.5904
▁អមច្ច	-10.5905
▁រដ្ឋំ	-10.5907
បរិមាណ	-10.5908
សេដ្ឋិ	-10.5909
▁អស្មិំ	-10.5909
▁ករិស្សាមី	-10.591
ទ្វារំ	-10.591
ការកោ	-10.591
▁គណ្ហន្តោ	-10.5911
▁ហីនំ	-10.5912
▁អាហារា	-10.5916
▁ឧបាទិន្ន	-10.5916
សន	-10.592
▁អញ្ញាណំ	-10.592
▁តិក្ខ	-10.5923
បារ	-10.5923
▁ធម្មធាតុ	-10.5925
អារម្មណូបនិស្សយោ	-10.5927
ាការំ	-10.5928
បុ	-10.5929
យាម	-10.5929
▁សក្យ	-10.5929
ចត្តារោ	-10.593
▁អរតិ	-10.593
េយ្យុំ។	-10.593
▁បុប្ផំ	-10.5931
▁ឃោស	-10.5931
ក្រិយា	-10.5932
▁អាចរិយេន	-10.5934
▁អទិន្នំ	-10.5934
បទាន	-10.5937
▁សិស្ស	-10.5941
សហិត	-10.5942
▁គុណវន្ត	-10.5943
ឧត្តរិមនុស្សធម្ម	-10.5943
មានោ។	-10.5943
▁បព្ពជ្ជ	-10.5944
▁សម្បរាយិក	-10.5945
▁វត្ថុស្មិំ។	-10.5947
ញ្ញោ	-10.595
សជ្ជ	-10.5952
▁អាគច្ឆន្តិ	-10.5952
▁សីលេសុ	-10.5954
▁យោនិ	-10.5955
គាមី	-10.5958
▁អរញ្ញំ	-10.5958
េសុំ។	-10.5961
ិយមាន	-10.5966
▁ចេតោ	-10.5968
▁គោតមំ	-10.5968
▁ភោគា	-10.597
▁បក្ខិត្ត	-10.597
អត្ត	-10.597
ថេរ	-10.5971
▁ហេវ	-10.5971
▁និរនុសយោ	-10.5976
▁សិញ្ច	-10.5977
▁បទេន	-10.5977
▁បុព្ពាបរ	-10.5983
▁បជ្ជ	-10.5984
▁បរិព្ពាជកោ	-10.5987
▁អាម	-10.5988
▁បច្ចវេក្ខន្តិ	-10.5988
▁ភោជនេ	-10.5993
▁ទុក្ករ	-10.5993
មត្ថកេ	-10.5996
ចតុក្ក	-10.5996
▁និទ្ទេស	-10.5996
▁ឯយ្យ	-10.5996
▁បច្ចនីក	-10.5997
ញ្ជន	-10.6
ហត	-10.6001
ចិត្តានិ	-10.6003
ក្ខន្ធោ	-10.6004
▁ឧបេក្ខាយ	-10.6005
▁សនិទស្សនសប្បដិឃ	-10.6007
▁និក្ខិបិត្វា	-10.6007
▁ឧទបាទិ។	-10.6007
ាសីតិ	-10.6008
កាយា	-10.601
▁កល្យាណមិត្ត	-10.6011
▁សាមិ	-10.6011
▁វក្ខតិ	-10.6011
▁បរិច្ចជ	-10.6012
▁ឯតទវោចុំ	-10.6018
វិធិ	-10.602
▁លព្ភតីតិ	-10.6021
▁សុតេន	-10.6021
▁ជីវិតិន្ទ្រិយ	-10.6022
េន្តី	-10.6025
▁មហាទានំ	-10.6026
▁សោតាបត្តិផល	-10.603
▁បុព្ពេនិវាស	-10.6033
េកទេស	-10.6039
រេ។	-10.6039
ិស្សន្តី	-10.604
ទុស្ស	-10.6041
មោទ	-10.6042
កល្យាណ	-10.6045
▁រតនំ	-10.6045
▁ឯកច្ច	-10.6046
▁សព្ពេន	-10.6048
▁បយោជ	-10.6048
▁វេវចន	-10.6048
បរិត្ត	-10.6049
សីសេន	-10.6053
▁ភវេសុ	-10.6055
▁សូប	-10.6055
▁បកាសិតា	-10.606
ទាស	-10.6063
▁សច្ចា	-10.6063
▁ភាវេន្តោ	-10.6064
▁ទេវលោក	-10.6065
ភេសជ្ជ	-10.6066
▁មហេសិ	-10.607
▁ឯកទេស	-10.6074
▁អបច្ច	-10.6075
បទេន	-10.6076
▁ផរ	-10.6085
ថាតិ	-10.6086
▁អនិមិត្ត	-10.6088
មន្តោ	-10.6088
▁វិបាកបច្ចយ	-10.6089
និទ្ទេសោ។	-10.6089
▁សមថោ	-10.6092
▁ភាវេត្វា	-10.6094
▁វិបល្លាស	-10.6094
▁ឯកំស	-10.6095
▁សរិត្វា	-10.6096
▁សម្ពហុលេ	-10.6098
▁ភិក្ខវោ	-10.6098
ត្ថន្តិ	-10.6099
▁បរិច្ឆេទោ	-10.6099
▁គង្គា	-10.6099
ត្ថុ	-10.6102
មទ្ទ	-10.6103
អធិ	-10.6103
▁ចុតា	-10.6104
▁សរោ	-10.6106
▁បំសុ	-10.6109
ភាសិត	-10.6111
លោចន	-10.6112
ក្ខយ	-10.6115
▁មហាជនោ	-10.6115
▁គាវោ	-10.6116
▁ឧប្បជ្ជិត្វា	-10.6117
▁អរូបាវចរ	-10.6121
▁សេនា	-10.6121
▁ឯកម្បិ	-10.6122
ភាគេ	-10.6122
▁សាលិ	-10.6124
▁អនភិ	-10.6128
កតមា	-10.6128
▁អាក	-10.6128
▁កាយិក	-10.6129
▁ឧជ្ឈាយន្តិ	-10.6137
▁បុត្តស្ស	-10.6138
ិនំ	-10.6138
▁កុជ្ឈ	-10.614
▁ជនំ	-10.6141
ចេតិយ	-10.6144
▁កាតព្ពោ	-10.6145
▁បុថុជ្ជនស្ស	-10.6147
▁អទត្វា	-10.6147
▁សិរសា	-10.6148
▁ករោន្តា	-10.6149
មជ្ឈិម	-10.615
▁អយុត្ត	-10.6152
េសី	-10.6154
▁បក្ខិប	-10.6156
▁អភិភវ	-10.6156
ហត្ថោ	-10.6156
▁ធម្មិក	-10.6157
▁ហត្ថី	-10.6157
រូបេ	-10.6157
▁សទេវកេ	-10.6158
▁ទេវបុត្ត	-10.6161
▁បរិនិព្ពុតោ	-10.6162
▁សុតន្តិ	-10.6168
▁អារ	-10.6169
▁ហោន្តី	-10.617
លតា	-10.6173
▁វយោ	-10.6174
បថំ	-10.6174
▁វត្តមានេ	-10.618
សហគតា	-10.618
▁ធម្មចក្កំ	-10.6183
នរ	-10.6184
ភយេន	-10.6184
▁មេថុន	-10.6185
▁បសត្ថ	-10.6185
▁បញ្ចិន្ទ្រិយានិ	-10.6185
▁សមុទាយ	-10.6186
ព្យា	-10.6187
▁ឧស្សាហ	-10.619
▁សង្ឃាទិសេសោ	-10.619
ហុ	-10.6193
ទសហាយតនេហិ	-10.6196
ហំ។	-10.6199
បព្ព	-10.6201
វិនោទន	-10.6202
▁ឥស្សរោ	-10.6203
▁សាខា	-10.6209
▁អដ្ឋម	-10.621
▁អភិញ្ញេយ្យោ	-10.621
▁បហូត	-10.6212
វីសតិ	-10.6212
ធរោ	-10.6213
▁ខ្វាហំ	-10.6214
▁ជាតោ។	-10.6215
▁ពាហុ	-10.6216
▁បស្សំ	-10.6216
▁កុដិ	-10.6216
រហ	-10.622
តេល	-10.622
▁សន្តក	-10.6224
▁ទេសេន្តោ	-10.6228
▁ឧបក្កម	-10.6229
ឥច្ចេត	-10.6229
ម្	-10.6229
ស្មិញ្ហិ	-10.6231
▁អយោ	-10.6232
នវិបាកធម្មធម្មោ	-10.6234
ិនោ។	-10.6238
▁សន្ធ	-10.6242
▁ឋានា	-10.6245
▁អធិប្បាយេន	-10.6246
▁វិចិត្ត	-10.6246
បទស្ស	-10.6249
ន្ធការ	-10.6249
សម្មា	-10.625
▁ខជ្ជ	-10.625
េហេវ	-10.6251
▁មេត្តំ	-10.6253
▁សត្តិ	-10.6254
▁បច្ចយុប្បន្ន	-10.6256
▁១៣០	-10.6256
▁ធូម	-10.6256
តេសំ	-10.6256
▁ផលសមាបត្តិយា	-10.6261
▁ឧរ	-10.6261
ទ្វិ	-10.6262
▁ចោរា	-10.6265
▁ចក្ខុមា	-10.6266
▁អាប	-10.6268
▁ចីវរេ	-10.6268
ត្តំ។	-10.627
▁អន្តេវាសិក	-10.6273
▁បោរាណ	-10.6276
▁សុត្តន្ត	-10.6277
▁ពោធិសត្ត	-10.6277
▁បថវិយំ	-10.628
▁អហោសិំ	-10.628
េតព្ពោ	-10.6281
▁គាយ	-10.6281
រោប	-10.6285
▁លោកុត្តរធម្ម	-10.6286
▁ឋបេតិ	-10.6287
▁អនាសវោ។	-10.6287
យត្ថ	-10.629
បត្តំ	-10.629
▁រូបកាយ	-10.6291
▁អាទិយ	-10.6294
▁មនាបា	-10.63
ជាតកេ	-10.63
គព្ភ	-10.63
▁តិធា	-10.6302
រវ	-10.6302
▁សុទ្ធិ	-10.6304
▁ខេត្តំ	-10.6306
បរិយាយោ	-10.6311
▁នរា	-10.6314
▁បទានំ	-10.6314
កាលិក	-10.6317
▁សក្កោតិ។	-10.6317
▁អបចយគាមិ	-10.6318
▁បញ្ចវោការេ	-10.6318
▁តច	-10.6322
ភុ	-10.6325
▁កោដ្ឋាស	-10.6327
▁ឥត្ថន្នាមោ	-10.6327
▁មិស្ស	-10.6328
▁នាគរាជា	-10.6329
ទាយកោ	-10.633
▁សក្ខិ	-10.633
▁កថិតា។	-10.6331
▁សមាគតា	-10.6332
▁ធាតូនំ	-10.6334
យេ។	-10.6335
▁អត្ថា	-10.6336
▁សមាបន្នស្ស	-10.6336
ជាតំ	-10.6338
▁អន្តិម	-10.6338
▁មគ្គារម្មណ	-10.6338
▁សុទ្ធាវាស	-10.6338
វិត្ថារ	-10.6338
▁ឧដ្ឋិត	-10.6339
▁បតិដ្ឋហ	-10.6341
សមយ	-10.6341
▁អរិយសច្ច	-10.6342
ាយបិ	-10.6343
▁និទានំ	-10.6343
សង្ខត	-10.6347
▁វិបច្ច	-10.6348
▁ទុតិយជ្ឈាន	-10.6349
មូលំ	-10.635
▁ធារយ	-10.6351
▁អជ្ឈុបេក្ខ	-10.6353
ដ្ឋិតិ	-10.6353
▁ភិជ្ជ	-10.6355
សភ	-10.6355
▁បរិញ្ញា	-10.6356
▁ករណំ	-10.6357
▁សមថេហិ	-10.6357
▁អធម្មេន	-10.6358
▁សស្សត	-10.6358
▁បដិវិទ្ធ	-10.6359
▁ខាទនីយំ	-10.6362
▁អនាបត្តីតិ	-10.6362
▁ឆឌ្ឌ	-10.6365
▁រុក្ខំ	-10.6368
▁សម្មាវាយាមោ	-10.6368
▁វុត្តញ្ហិ	-10.637
▁អាបជ្ជ	-10.6371
▁បរិយោសាន	-10.6377
សម្ពោជ្ឈង្គស្ស	-10.6379
សំយុត្តំ	-10.638
▁កុលានិ	-10.638
▁យោគោ	-10.638
▁មជ្ឈត្ត	-10.6381
▁កាតព្ពោ។	-10.6383
▁រាគំ	-10.6384
▁មតា	-10.6388
▁តិល	-10.6388
▁វេទន	-10.639
▁អហេតុកបដិសន្ធិ	-10.639
▁និរុជ្ឈិស្សន្តិ	-10.6391
▁១២៩	-10.6396
សីលា	-10.6399
▁អននុ	-10.6401
▁បាសាទ	-10.6402
កាស	-10.6402
▁រតិ	-10.6407
▁ទស្សិតា	-10.6408
បល	-10.6412
▁មត្ថកេ	-10.6412
យស្មិំ	-10.6416
យមានា	-10.6417
ិស្សា	-10.6419
▁ភាវិតោ	-10.642
▁បនេស	-10.6421
▁ហន្ទ	-10.6425
▁កុព្ព	-10.6426
▁សុរា	-10.6429
រូ	-10.6429
▁មញ្ញមានោ	-10.643
▁អប្បហីន	-10.6431
ញ្ឆ	-10.6432
▁អធិប្បេតោ។	-10.6434
▁បមោទ	-10.6434
▁តថាគតេន	-10.6434
▁អារភ	-10.6438
▁ឯតាយាតិ	-10.644
មំសំ	-10.6441
▁ហាស	-10.6446
▁សេយ្យំ	-10.6447
▁បច្ចេកពុទ្ធ	-10.6449
▁បាបុណាតិ។	-10.645
▁គារវ	-10.645
▁តាបសោ	-10.6451
ន្តោ។	-10.6454
▁អធម្មោ	-10.6457
▁សមន្នាគតេន	-10.646
ុរ	-10.646
មាតា	-10.6463
▁មតំ	-10.6463
▁កថេតុំ	-10.6464
ញាណេន	-10.6466
▁អានិសំស	-10.6467
▁ចតុត្ថជ្ឈាន	-10.6467
▁ទស្សិតោ	-10.6467
▁អឃ	-10.6468
កសិណ	-10.6472
ូបបត្តិ	-10.6475
ពោធ	-10.6477
▁បសាទោ	-10.6482
▁កុក្កុដ	-10.6483
▁ទុតិយម្បិ	-10.6487
▁បទេស	-10.649
▁អនុញ្ញាត	-10.6491
មរណ	-10.6493
▁បច្ចវេក្ខតិ	-10.6499
ហន្តិ	-10.6499
▁ទុក្កដន្តិ	-10.65
កញ្ច	-10.65
វច្ឆ	-10.6503
▁បិយា	-10.6504
▁ទេសិត	-10.6505
▁វិកាលេ	-10.6509
▁ធនេន	-10.6511
▁បាឋ	-10.6511
▁គហិតត្តា	-10.6513
▁សីសេ	-10.6513
សន្	-10.6513
▁និបាតោ។	-10.6515
តិណ	-10.6516
▁រូបាវចរំ	-10.6516
▁សមាធិស្មិំ	-10.6516
▁អត្តភាវ	-10.6518
▁បរិជានាតិ។	-10.652
ការេន	-10.6521
យោគេន	-10.6521
▁បល្លង្ក	-10.6521
▁ជរាយ	-10.6522
ាភាវេន	-10.6523
ញ្ចេត្ថ	-10.6525
▁ទេវី	-10.6525
សេវន	-10.6528
▁និរាមិស	-10.6529
▁សុក្ក	-10.6529
▁ហោហិ	-10.6532
▁អព្ភន្តរេ	-10.6533
▁សត្តុ	-10.6533
▁ភេសជ្ជំ	-10.6534
▁បញ្ញប	-10.6535
▁លជ្ជ	-10.6536
▁១៤០	-10.6536
▁អនិយ្យានិក	-10.6537
▁ការាប	-10.6538
ទិន្ន	-10.6541
▁ពលានិ	-10.6547
▁និយម	-10.6548
សង្គហោ	-10.6549
▁បុរិសេន	-10.6552
▁ភាជន	-10.6554
បដិគ្គហណ	-10.6557
▁រជោ	-10.6557
▁ភិក្ខុនិ	-10.6558
▁អរណោ	-10.656
▁អទុក្ខមសុខំ	-10.656
▁វិជ្ជ	-10.6565
▁មុច្ច	-10.6567
នស្ស	-10.6567
▁១៣៣	-10.6567
ាទិភេទំ	-10.657
▁បភុតិ	-10.6571
ិនិំ	-10.6572
▁មហាមុនិ	-10.6572
▁ទេថា	-10.6573
▁ទិស	-10.6575
បថេ	-10.6576
វត្ថុកា	-10.6576
▁កាមភវ	-10.658
▁ព្យាបាទោ	-10.658
▁តថាគត	-10.6586
សម្ភវ	-10.6586
▁ឧបាទានសម្បយុត្ត	-10.659
▁ជរ	-10.659
ដ្ឋក	-10.6591
▁វិនិច្ឆយោ។	-10.6591
▁ទេហី	-10.6592
▁បូរិត	-10.6593
▁១៣៥	-10.6594
▁នុប្បជ្ជតិ។	-10.6595
▁អវណ្ណំ	-10.6597
▁ឥទ	-10.6598
▁ឆព្ពិធ	-10.66
ឃរ	-10.66
▁បាការ	-10.66
សង្ខេប	-10.6601
▁ចេតិ	-10.6602
▁អនាគតា	-10.6602
▁កតរ	-10.6605
▁អនុយុញ្ជ	-10.6606
▁ភវិតព្ពំ	-10.6609
▁ផ	-10.6612
▁ញ	-10.6613
បត្ថ	-10.6614
▁មានុសំ	-10.6614
េសោ	-10.6617
▁គោត្តេន	-10.6617
▁គណ្ឌ	-10.6619
▁អារក្ខ	-10.6619
គោចរ	-10.662
▁អាចរិយស្ស	-10.6621
▁និសីទិំសុ។	-10.6622
▁សង្ឃាដិ	-10.6625
▁នេត្ត	-10.6625
វុដ្ឋ	-10.6625
▁អញ្ជន	-10.6627
▁អារភតិ	-10.663
វរោ	-10.6634
ាតីត	-10.6634
▁កយិរា	-10.6636
▁ឥមានេត្ថ	-10.6636
▁ភាវិតត្តា	-10.6638
▁ឧបសម	-10.6639
អាទីហិ	-10.6641
▁ឧប្បជ្ជនក	-10.6643
▁អនាសវំ	-10.6644
▁១៣៧	-10.6644
▁សំយោគ	-10.6649
▁ករោថា	-10.6651
▁ការក	-10.6652
▁សញ្ចិច្ច	-10.6652
▁អធិប្បាយ	-10.6655
ាទិកា	-10.6656
▁ភូតំ	-10.6657
ទីបន	-10.6657
▁កោវិទោ	-10.6658
▁បហីនត្តា	-10.6662
▁វិបត្តិ	-10.6663
▁វាយមតិ	-10.6663
▁ឧបរិម	-10.6668
▁និរោធា	-10.6669
▁ការេសិ	-10.6669
▁បត្តចីវរមាទាយ	-10.6672
ទី	-10.668
▁មនុស្សលោកេ	-10.6681
▁អគម	-10.6683
▁ភវតិ។	-10.6691
▁បរមំ	-10.6691
▁អនុរុទ្ធ	-10.6692
សវន	-10.6697
▁អាវដ្ដ	-10.67
▁កថេតព្ព	-10.6701
▁វេស្សន្តរ	-10.6701
▁សាយំ	-10.6702
ឯស	-10.6706
▁វិបរិណាម	-10.6711
ធាវ	-10.6712
ុទ្ធ	-10.6716
វាចក	-10.6717
▁អនុប្បត្តោ	-10.6719
▁១៣២	-10.6719
▁អក្ខិ	-10.6721
សយន	-10.6725
ាតីតិ	-10.6725
▁បព្ពតេ	-10.6726
▁សព្ពេហិ	-10.6731
សម្ភវតោ	-10.6732
▁ករោមិ	-10.6736
កណ្ឌ	-10.6737
ក្ខី	-10.6744
▁មោក្ខ	-10.6746
▁ការិតេ	-10.6749
▁ខិយ្យន្តិ	-10.6749
▁កថេតិ	-10.6753
▁មណ្ឌ	-10.6754
▁អាសវោ	-10.6754
▁តេជោ	-10.6755
បញ្ចិមេ	-10.6755
▁អហេតុកោ	-10.6756
▁អទ្ទសំ	-10.6757
សមត្ថ	-10.6758
▁កុច្ឆិត	-10.6759
▁ឧទ្ធច្ចសហគតោ	-10.6761
▁បច្ឆិមំ	-10.6761
ីវ	-10.6768
▁ចក្ខុន្ទ្រិយ	-10.6768
▁ឱត្តប្ប	-10.6769
▁ធីរា	-10.677
ុដ្ឋ	-10.6773
▁បដិជគ្គ	-10.6774
▁សាទិយ	-10.6774
បាណិ	-10.6778
▁វិបស្សិស្ស	-10.678
▁កេសា	-10.678
▁ឧត្តានត្ថមេវ។	-10.6781
▁កម្មុនា	-10.6782
▁អនុមោទ	-10.6782
ាមិ។	-10.6782
បដិបទា	-10.6783
បរិយន្ត	-10.6783
ក្ខិ	-10.6784
មូលេ	-10.6787
▁សវិតក្កសវិចារា	-10.6787
▁១៣៨	-10.6788
▁សមាធិន្ទ្រិយំ	-10.6789
▁បុម	-10.679
ឥទានិ	-10.6791
▁បដិក្ខិត្ត	-10.6793
ង្គណ	-10.6793
▁សីហនាទំ	-10.6794
▁វចី	-10.6794
បុត្តា	-10.6797
▁បុញ្ញកម្ម	-10.6803
▁សេសានិ	-10.6804
យោគេ	-10.6806
▁សក្កាយ	-10.6806
▁អនាទរិយំ	-10.6809
▁ទិវស	-10.6811
▁យុគ	-10.6813
រូបេន	-10.6813
និទានំ	-10.6818
ចត្តារោមេ	-10.682
▁តស្សាបិ	-10.6824
▁យេវ	-10.6825
▁ញាណស្ស	-10.6826
▁មុខេន	-10.6827
▁កិលម	-10.6828
វាទិនោ	-10.6828
▁សមានា	-10.683
▁ទេហំ	-10.6831
▁ឥច្ឆិត	-10.6832
▁តាវទេវ	-10.6832
វិស្សជ្ជន	-10.6832
ហារោ	-10.6832
▁ថេយ្យ	-10.6833
▁១៣១	-10.6838
▁១៣៤	-10.6839
▁ឱក្កម	-10.6839
▁មារស្ស	-10.684
▁បក្ខេ	-10.6842
ីរ	-10.6846
▁យទិបិ	-10.6851
▁អាសយ	-10.6852
សភាវោ	-10.6852
▁បាណំ	-10.6852
ានុលោម	-10.6853
▁មនុស្សេ	-10.6853
▁សមាបន្នោ	-10.6854
គារវ	-10.6857
ទស្សនំ។	-10.6858
និយម	-10.6859
▁បវិដ្ឋោ	-10.6861
▁គច្ឆន្តេ	-10.6865
▁វិមានំ	-10.6865
បញ្ចហិ	-10.6866
▁កុសលាកុសល	-10.6872
▁ធុតង្គ	-10.6879
ភិ។	-10.6881
▁ធម្មកថំ	-10.6881
▁នីច	-10.6882
▁តាហិ	-10.6882
▁អសង្គហិតា។	-10.6887
▁ចង្កម	-10.6888
វិនិច្ឆយ	-10.689
▁ឯកន្តេន	-10.6891
▁បណាម	-10.6895
▁ចណ្ឌាល	-10.6895
▁មាតុគាមោ	-10.6898
▁មោហំ	-10.6898
▁ផលានិ	-10.6899
▁បកាសេត្វា	-10.6902
វិមោក្ខ	-10.6905
បដិសន្ធិ	-10.6907
ស្សាម	-10.6908
▁វិជិត	-10.6911
កម្បិ	-10.6911
▁បស្សេយ្យ	-10.6911
▁វិចិន	-10.6913
ន្តោតិ	-10.6916
បមាណ	-10.6916
លោកេ	-10.6918
ាវរណ	-10.6918
▁ទស្សាមី	-10.6919
▁បរិត្តោ	-10.6921
នតា	-10.6923
▁និទ្ទិស	-10.6923
▁តេសន្តិ	-10.6924
▁ចរន្តោ	-10.6924
▁អយមស្ស	-10.6925
ច្ឆិន្ន	-10.6925
▁កុហិំ	-10.6926
ាការោ	-10.6927
▁ឆត្តិំស	-10.6929
▁ទេវតានំ	-10.693
▁ឧប្បជ្ជន្តីតិ	-10.6931
▁បរិច្ឆេទោ។	-10.6931
ិស្សរ	-10.6931
សាធូ	-10.6933
ិតាតិ	-10.6935
▁បុនបិ	-10.6936
កុលំ	-10.6936
▁វិភវ	-10.6937
ិតស្ស	-10.6938
ព្រហ្មចរិយ	-10.6939
▁សំយោជនានំ	-10.6939
▁មហាជន	-10.6942
កីឡ	-10.6943
▁អប្បមាណំ	-10.6943
▁តេជ	-10.6943
▁គោត្ត	-10.6948
▁អាទិត្ត	-10.6951
▁ឥមញ្ច	-10.6954
▁អគារំ	-10.6954
▁ផស្សបច្ចយា	-10.6954
▁អកំសុ។	-10.6955
▁ជន្តុ	-10.6963
▁តេសម្បិ	-10.6965
▁បុរេជាតស្ស	-10.6966
ធាតូតិ	-10.6966
▁អប្បត្ត	-10.6967
▁សោតាបត្តិមគ្គ	-10.6968
▁មហេសិនោ	-10.6969
▁បរិកប្ប	-10.6969
▁បភា	-10.6971
▁សូរ	-10.6971
▁ហេត្ថ	-10.6974
▁ភង្គ	-10.6974
▁ឯវម	-10.6974
ានិសំស	-10.6975
គេហ	-10.6976
▁សំយោជនានិ	-10.6976
▁ឃានំ	-10.6978
▁បាយ	-10.6979
ហង្គេហិ	-10.6985
▁វិមុត្តោ	-10.6986
▁ហត	-10.6986
មជ្ជ	-10.6987
ក្កមេន	-10.6997
▁ភិក្ខូតិ	-10.6998
▁អតិក្កម្ម	-10.7001
▁បដិពាហ	-10.7001
▁អវសេសំ	-10.7003
▁១៣៦	-10.7003
បណ្ណាស	-10.7004
▁តិរច្ឆានគត	-10.7004
▁សាសនស្ស	-10.7005
▁ខលុ	-10.7006
▁ឧទាន	-10.7007
▁នារី	-10.7007
▁សភាវតោ	-10.7008
▁ឧទយ	-10.7009
ទណ្ឌក	-10.7012
ឥមស្មិំ	-10.7012
▁តេជោធាតុ	-10.7014
▁សមោ	-10.7015
ចក្កំ	-10.7016
▁ភិក្ខុសង្ឃោ	-10.7016
▁សិនេហ	-10.7018
▁បុច្ឆន្តោ	-10.702
▁បដិសន្ធិំ	-10.702
ភុញ្ជ	-10.7026
▁ព្រហ្មលោកេ	-10.7027
គោចរោ	-10.7029
▁បភវ	-10.7032
បដិច្ឆន្ន	-10.7034
លីន	-10.7035
▁ជម្ពុ	-10.7036
▁និព្ពត្តា	-10.7036
▁វិការ	-10.7037
វិរ	-10.7037
▁ជាតា។	-10.7037
▁សម្ភវោ	-10.7038
▁វត្ថូនិ	-10.7038
▁មេឃ	-10.704
ូបគ	-10.7041
▁អចល	-10.7041
▁បរិញ្ញាត	-10.7043
ត្ថេរំ	-10.7046
▁សោត្ថិ	-10.7049
▁សំយម	-10.7049
▁វិធ	-10.705
តាប	-10.705
▁តុម្ហ	-10.7051
ក្កមោ	-10.7054
▁គច្ឆន្តំ	-10.7055
▁អធម្មិក	-10.7055
ិស្សន្តិ។	-10.7056
▁សមាទិន្ន	-10.706
▁មហល្លក	-10.7061
▁សណ្ហ	-10.7062
▁លោណ	-10.7062
▁សគ្គេ	-10.7063
▁វក្ខមាន	-10.7064
▁ឥស្សរិយ	-10.7064
ានុសារេន	-10.7064
▁ឆត្តំ	-10.7066
▁អាលយ	-10.7066
ទីសុ	-10.7066
▁អរណ	-10.7067
សម្បយុត្តំ	-10.7067
បញ្ចក	-10.7068
▁បតិដ្ឋិតា	-10.707
▁រាធ	-10.7071
ដ្ឋិក	-10.7073
សង្ក	-10.7076
▁និព្ពត្តិ។	-10.7079
▁ឧទាយិ	-10.7082
▁ធារេតិ	-10.7086
▁ចល	-10.7086
▁ឱតរិត្វា	-10.7087
▁វិបាចេន្តិ	-10.7087
▁វិនិបាតំ	-10.7087
▁លោហិតំ	-10.7091
▁បដិច្ឆាទ	-10.7092
▁លុទ្ទ	-10.7093
សុត	-10.7093
▁នានាវិធ	-10.7094
ទន	-10.7094
▁នីវរណា	-10.7098
▁បានីយ	-10.7099
▁សន្តតិ	-10.7107
▁ឋបិតំ	-10.7107
▁អសម	-10.7109
ទិវស	-10.7111
▁អភិជ្ឈាទោមនស្សំ	-10.7112
សព្ពំ	-10.7113
▁យថ	-10.7115
ញ្ញំ	-10.7116
▁សឡាយតន	-10.7117
▁មហប្ផល	-10.7117
តណ្ហ	-10.7118
▁ឯវមេតស្ស	-10.7119
▁វុត្តិ	-10.7121
ព្យាកត	-10.7123
▁សកេ	-10.7123
▁អភិភវិត្វា	-10.7123
▁សេក្ខ	-10.7127
▁បជាយ	-10.7127
▁បវិវេក	-10.7128
▁រសោ	-10.7135
▁តយិទំ	-10.7135
▁អាពាធ	-10.7136
វាចា	-10.7137
▁អជ្ឈត្តិកំ	-10.7139
▁តិដ្ឋតីតិ	-10.714
▁មហន្តោ	-10.7141
▁មហាមោគ្គល្លានោ	-10.7143
▁វិញ្ញាណញ្ចាយតន	-10.7143
▁អាបន្ន	-10.7143
▁សន្តានេ	-10.7145
ាសី	-10.7146
▁បដិក្ខិបតិ។	-10.715
▁អយោនិសោ	-10.7151
▁អជ្ឈាសយ	-10.7151
▁ភទ្រ	-10.7152
កស្មា	-10.7156
▁សាវជ្ជ	-10.7156
េតព្ពោ។	-10.7157
រជ	-10.7158
▁តិវិធា	-10.7161
▁បរិវារេត្វា	-10.7164
ត្ថេរគាថា	-10.7169
▁ឯកេកំ	-10.7171
▁មុញ្ចិត្វា	-10.7172
នីវរណ	-10.7172
▁ព្យគ្ឃ	-10.7181
ក្ខណ	-10.7182
▁ភាវេតព្ពា	-10.7184
▁វិបាកា	-10.7186
▁សិក្ខាបទានិ	-10.719
តានិ	-10.7191
▁អន្តរាមគ្គេ	-10.7193
▁ញត្តិ	-10.7195
▁ទេវានមិន្ទ	-10.7196
▁វណ្ណេ	-10.7197
គិលាន	-10.7199
▁សុគន្ធ	-10.7199
▁បហរិត្វា	-10.72
កេ។	-10.7202
▁បដិគ្គហ	-10.7207
▁ភូតា	-10.7207
▁ការិត	-10.7208
▁សុខី	-10.7209
វុត្ថ	-10.721
ុត្តម	-10.7212
▁អសមត្ថ	-10.7221
▁បាទំ	-10.7223
▁កាមាវចរេ	-10.7226
▁សព្ពេសម្បិ	-10.7227
គុត្ត	-10.7228
▁ឯតន្តិ	-10.7229
▁មហាសាវជ្ជ	-10.7229
▁អាបទាសុ	-10.7229
–	-10.7232
បោ	-10.7233
▁អហោសីតិ។	-10.7236
▁អទា	-10.7238
សន្តតិ	-10.7239
▁សានុសយោ	-10.724
សមុទយោ	-10.7242
▁គតំ	-10.7243
▁យាថាវតោ	-10.7243
បច្ចវេក្ខណ	-10.7245
ាទិកោ	-10.7251
ាគម	-10.7253
មាយ	-10.7253
▁ផុដ្ឋ	-10.7254
▁ភវេ។	-10.7254
▁សេតិ	-10.7255
នយេ	-10.7257
▁រូបាវចរេ	-10.7259
▁ឆន្ទរាគ	-10.7262
▁ឱឡារិកា	-10.7262
▁យុទ្ធ	-10.7264
▁ឧត្តានមេវាតិ។	-10.7266
▁ទេវានមិន្ទោ	-10.7266
▁ចេតេតិ	-10.7268
ុបាទាន	-10.7269
នសនិទស្សនសប្បដិឃ	-10.727
▁មុខេ	-10.7271
▁១៣៩	-10.7274
សញ្ញានាសញ្ញាយតនំ	-10.7275
▁សង្ឃាទិសេស	-10.7276
ន្ត្យ	-10.7278
▁ចេតិយំ	-10.7279
សញ្ញានាសញ្ញាយតន	-10.7279
មគ្គេន	-10.728
▁គណ្ហន្តិ	-10.728
▁ឧគ្គហ	-10.7281
▁វិឃាត	-10.7282
ឥមស្ស	-10.7283
▁តិវិធោ	-10.7283
▁អដ្ឋកថាយ	-10.7284
▁មាយា	-10.7285
▁តម្ហិ	-10.7287
ិយមានា	-10.7287
ភេទេ	-10.729
▁ពហូនំ	-10.7296
▁និព្ពានញ្ច	-10.7296
▁ជាតិំ	-10.7302
▁កុលគេហេ	-10.7304
▁នាគា	-10.7306
▁សរូប	-10.7307
វាហន	-10.7308
កុមារោ	-10.7308
▁វិញ្ញាបេត្វា	-10.7308
▁អាកិញ្ចញ្ញាយតនំ	-10.731
▁សមាបជ្ជិត្វា	-10.7311
▁សន្តា	-10.7312
ច្ឆន្ន	-10.7312
▁ទេសេសិ។	-10.7312
▁ចេតោវិមុត្តិំ	-10.7313
▁វេយ្យាករណ	-10.7316
▁បជហតីតិ	-10.7318
▁បក្កមតិ	-10.7319
ក្ខិប	-10.7319
▁ជិត	-10.732
▁ភាសិតស្ស	-10.7322
▁អធិប្បេតា	-10.7325
សញ្ញោជនសម្បយុត្ត	-10.7325
▁អតិក្កន្ត	-10.7327
▁បហ	-10.7328
▁សំសយ	-10.7328
▁បដិសំវេទ	-10.7328
▁គុណេហិ	-10.733
▁បភេទ	-10.7331
សិត	-10.7333
▁អតីតា	-10.7333
មហន្ត	-10.7334
ប្បច្ចយោ	-10.7337
▁និរុជ្ឈិត្ថ។	-10.7339
ាទិម្ហិ	-10.7339
▁អលោភោ	-10.734
▁អញ្ញតរស្ស	-10.734
នីយំ	-10.734
ស្មីតិ	-10.7343
▁កាយានុបស្សី	-10.7344
សីហ	-10.7344
▁បុច្ឆិតព្ពត្តា	-10.7347
ប្បហានំ	-10.7347
សង្ឃាដ	-10.7348
ារម្មណេ	-10.7351
▁អបាយំ	-10.7353
ាមសេ	-10.7353
▁កណ្ដក	-10.7353
▁សកទាគាមី	-10.7353
▁និស្សយោ	-10.7354
▁រូបាយតនញ្ច	-10.7356
▁និរុជ្ឈិត្ថាតិ	-10.7357
▁វជ្ជេត្វា	-10.7359
▁អលាភ	-10.736
▁គុឡ	-10.736
សំកិលេសិកោ	-10.7367
បត្តិយា	-10.7367
▁សង្ខេបោ	-10.7368
▁សត្តមី	-10.737
▁រូបិយ	-10.7371
▁សម្មាសង្កប្បោ	-10.7372
▁គរុក	-10.7374
▁កាមេសុមិច្ឆាចារ	-10.7375
▁បច្ឆាជាតំ	-10.7378
▁កូដាគារ	-10.7379
▁យុជ្ជតិ	-10.7379
▁រសា	-10.7384
▁ភិក្ខំ	-10.7386
▁បហារ	-10.7388
▁មិ	-10.7391
▁អសន្ត	-10.7392
▁មុច្ចតិ	-10.7392
▁និរត្ថក	-10.7395
▁ទេវរាជា	-10.7395
▁សមណំ	-10.7396
បដិបទំ	-10.7397
ិតព្ពោ។	-10.74
▁អារព្ភ។	-10.7403
▁សមេន្តិ	-10.7403
▁បរិនិព្ពាយ	-10.7404
▁សមាបជ្ជ	-10.7415
▁យោគាវចរ	-10.7418
▁សកវាទិស្ស	-10.742
▁មត្ថកំ	-10.7421
▁ទុរ	-10.7424
▁បសន្នចិត្តោ	-10.7426
▁វិរូប	-10.7427
▁អបគត	-10.7428
▁រូបក្ខន្ធ	-10.7432
▁អត្តនាវ	-10.7433
ឯត្ថ	-10.7433
បុព្ពេ	-10.7435
តាយ។	-10.7437
▁ឌំស	-10.7438
▁គច្ឆន្តស្ស	-10.7439
តស្សា	-10.7442
▁វណ	-10.7443
▁ភគិនី	-10.7444
ដ្ឋានំ។	-10.7448
▁សត្តេសុ	-10.745
សានំ	-10.7454
▁និរោធំ	-10.7455
▁អលោភ	-10.7455
▁មហានុភាវ	-10.7457
អទ្ធា	-10.7457
វិជ្ជ	-10.746
▁វីរិយិន្ទ្រិយំ	-10.7461
ាសន្ន	-10.7462
វ្ហយ	-10.7463
បាសាណ	-10.7463
▁បញ្ចសត	-10.7467
តាត	-10.7467
▁លភន្តិ	-10.7469
យ្ហ	-10.7469
▁ឧគ្គ	-10.7472
▁បុប្ផានិ	-10.7472
▁សេដ្ឋំ	-10.7474
ញ្ញាត	-10.7482
ានុពន្ធ	-10.7482
▁គច្ឆតី	-10.7483
▁បរិហរ	-10.7483
អត្ថិយា	-10.7485
▁នុប្បជ្ជិត្ថ	-10.7485
នខ	-10.7485
▁បាបកម្ម	-10.7485
បាយ	-10.7487
▁សិលា	-10.7487
▁វិភង្គ	-10.7488
▁បនាហំ	-10.7489
អម្ហាកំ	-10.7489
▁អភិក្កន្ត	-10.7493
▁បណ្ណត្តិ	-10.7493
▁បរា	-10.7494
▁អបរាបរំ	-10.7495
មដ្ឋ	-10.7496
▁ឃាន	-10.7497
ជល	-10.7497
▁បសេនទិ	-10.7498
▁សក្កស្ស	-10.7498
មុត្តមំ	-10.7499
▁បរិព្ពាជក	-10.75
▁មាលា	-10.75
▁ឃរាវាស	-10.7502
គវ	-10.7503
ក្ខា	-10.7505
ទហ	-10.7505
ប្បយោគ	-10.7507
▁កាយវិញ្ញាណស្ស	-10.7514
▁រូបាវចរានំ	-10.7514
▁អទ្ទស	-10.7517
▁វី	-10.7521
ុប្បត្តិយា	-10.7522
▁ឆដ្ឋី	-10.7523
▁សាយ	-10.753
▁បច្ឆាភត្តំ	-10.7531
▁អាជីវ	-10.7532
▁បាដិកង្ខា	-10.7532
▁វិមោក្ខោ	-10.7532
តទ	-10.7533
ការន្ត	-10.7535
▁ឧត្តមោ	-10.7535
ាវចរ	-10.7536
▁បេច្ច	-10.7539
បុរេ	-10.7539
▁ឥន្ទ្រិយេសុ	-10.7542
រុណ	-10.7542
▁វិហរតី	-10.7546
▁តេនុបសង្កមិំសុ	-10.7546
ធម្មស្ស	-10.7548
តប	-10.7552
▁បឋមេន	-10.7553
យថាបិ	-10.7554
▁បហោតិ	-10.7555
▁ទេសិតំ	-10.7556
▁សមុច្ឆេទ	-10.7557
ន្តេសុ	-10.756
▁សជ្ជ	-10.7563
▁ឃោរ	-10.7565
ង	-10.7566
តិដ្ឋ	-10.7569
▁អភិធម្មេ	-10.7571
▁ធុរំ	-10.7572
▁បដិជាន	-10.7572
រុចិ	-10.7574
▁វិស្សជ្ជន	-10.7574
នានត្តំ	-10.758
▁អភវិស្ស	-10.758
▁បតិដ្ឋិតោ	-10.758
▁គោប	-10.7583
▁ឥស្ស	-10.7583
▁ទេវមនុស្សេសុ	-10.7585
▁វាយម	-10.7591
▁ករណីយ	-10.7594
▁ខេប	-10.7595
▁ករោហី	-10.7596
▁ឥច្ចាទិ	-10.7601
▁បសន្នា	-10.7602
កថាយំ	-10.7603
គុណា	-10.7604
បាឋ	-10.7608
▁កាមានំ	-10.7609
វិរោធ	-10.761
ហដ	-10.7612
▁នាន	-10.7613
▁ធម្មស្សវន	-10.7614
▁មនសិការ	-10.7615
▁ធីរ	-10.7615
▁សង្ឃមជ្ឈេ	-10.7618
▁យត្រ	-10.7619
ផ	-10.7622
▁អាវាសោ	-10.7623
កុសលត្តិកំ	-10.7623
▁វិរុទ្ធ	-10.7624
▁អាជាន	-10.7624
▁បភាសតី	-10.7625
▁ឧបបជ្ជតិ។	-10.7627
▁ឧដ្ឋហ	-10.763
▁កាតុ	-10.7632
▁ជាគរ	-10.7632
តីហិ	-10.7633
▁សេខ	-10.7636
▁ករណេ	-10.7636
មត្តនោ	-10.7639
▁ពហុជន	-10.7644
េយ្យាម	-10.7644
▁ចិតោ	-10.7646
បកតិ	-10.7648
▁អាសវសម្បយុត្ត	-10.765
▁ភុស	-10.765
វិយ	-10.765
▁អវិសេសេន	-10.765
▁បរិយាទាយ	-10.766
▁សំសន្ទន្តិ	-10.766
▁វិហរតីតិ	-10.7661
▁វសា	-10.7662
លក្ខណេន	-10.7662
ត្តភាវ	-10.7663
▁វេគេន	-10.7665
▁វិគ្គហោ។	-10.7665
▁មនិន្ទ្រិយញ្ច	-10.7666
▁កថិនំ	-10.7669
▁ពហុតរា	-10.7672
សហគតំ	-10.7672
▁ភាតា	-10.7672
ញ្ញាយ	-10.7673
▁ឈានា	-10.7673
▁សង្ខារោ	-10.7676
▁កោសល	-10.7678
▁និគ្គណ្ហ	-10.7678
▁សមញ្ញា	-10.768
▁ឱកាសោ	-10.7681
▁ភិក្ខ	-10.7683
ម្មាសម្ពុទ្ធស្ស។	-10.7685
ខន្ធញ្ច	-10.769
បរិយោសានេ	-10.769
ញ្ញុ	-10.7693
▁ឱតារ	-10.7693
▁ព្យាកាសិ។	-10.7694
▁នបុរេជាតបច្ចយា	-10.7695
ាទយោបិ	-10.7696
▁បវុច្ចតិ។	-10.7696
វសា	-10.7699
▁អញ្ញិន្ទ្រិយំ	-10.7701
និន្ន	-10.7702
កេសុ	-10.7702
▁មហី	-10.7703
សប្បាយ	-10.7713
▁បរិសំ	-10.7714
▁បរិបូរេតិ	-10.7717
មក្ខិត	-10.7723
▁និយតោ	-10.7724
▁ឆន្ទរាគោ	-10.7726
▁បូជា	-10.7728
▁ទុក្កដស្ស	-10.7728
▁កលាប	-10.7729
▁យញ្ហិ	-10.7729
ចារិក	-10.773
▁១៥៦	-10.773
▁ខណំ	-10.7732
១២	-10.7734
▁និក្ខិត្ត	-10.7735
▁អានន្ទំ	-10.7735
▁មន្តេ	-10.7736
▁ជេដ្ឋក	-10.7739
▁បរិយាយោ	-10.7741
▁អមិត្ត	-10.7741
▁វិសយេ	-10.7743
▁វិទ្ធំស	-10.7743
▁និសជ្ជ	-10.7743
▁វិជ្ជតី	-10.7745
កិរ	-10.7745
▁កង្ខ	-10.7747
▁អនុប្បន្នា	-10.7748
▁បីឡ	-10.7751
▁ព្រាហ្មណានំ	-10.7752
▁វុត្តមេវ។	-10.7752
ាវហ	-10.7754
បរិវារោ	-10.7755
▁បយោជន	-10.7756
▁លោកិយា	-10.7758
▁ធម	-10.7758
សេវ	-10.7759
▁សន្ធាយាហ។	-10.776
▁អហញ្ច	-10.776
▁១៤១	-10.7764
▁សុញ្ញ	-10.7765
សម្ប	-10.7765
▁នាយំ	-10.7766
▁បរិកម្មំ	-10.7768
តារ	-10.7768
យោគតោ	-10.777
▁សុប	-10.7771
▁វេធ	-10.7774
▁សិក្ខិតព្ព	-10.7775
▁បាតុ	-10.7775
▁មាតាបិតូនំ	-10.7776
▁អាហច្ច	-10.7783
▁បណ្ឌុ	-10.7783
បលិពោធ	-10.7784
▁អស្សាទោ	-10.7785
▁ពហុក	-10.7787
▁ហារោ	-10.7787
▁អាបុច្ឆ	-10.7788
បរិសុទ្ធ	-10.779
▁ឃដ្ដ	-10.7792
▁រូបញ្ច	-10.7793
មាទិ	-10.7797
▁និន្ទ	-10.7797
▁អាកាសានញ្ចាយតនំ	-10.7799
▁សន្តុដ្ឋោ	-10.78
▁កុប្ប	-10.7801
បទត្ថ	-10.7808
ាទីនញ្ច	-10.7809
▁សាធ	-10.7809
បរិយោសាន	-10.7809
ម្ពុ	-10.7809
▁អារោហ	-10.7811
នានា	-10.7811
យាន	-10.7813
▁វិន្ទ	-10.7814
▁កម្មបថ	-10.7815
ត្ថេរអបទានំ	-10.7821
បាទិន្នុបាទានិយ	-10.7822
ានេវ។	-10.7823
▁សីឃ	-10.7823
▁លាភោ	-10.7824
▁១៤៨	-10.7824
▁អភិជាន	-10.7825
▁បគ្គណ្ហ	-10.7826
ទេវោ	-10.7827
ិត្ថាតិ	-10.7827
ដ្ឋេនាតិ	-10.7828
ឧទ្ធច្ចកុក្កុច្ច	-10.783
▁រមណីយ	-10.7833
▁អធិវចន	-10.7834
អត្តនោ	-10.7834
▁អចក្ខុកាន	-10.7835
▁វិញ្ញាបេ	-10.7835
▁ចិត្តុប្បាទ	-10.7836
▁ទិវ	-10.7837
ជីវិត	-10.7839
ាភាវា	-10.784
▁សំសារេ	-10.7841
▁វុច្ចមានោ	-10.7845
អតីត	-10.7847
▁ពហុធា	-10.7851
ិយាតិ	-10.7853
កិត្តិ	-10.7853
ជាតិកា	-10.7854
▁បតិដ្ឋាបេ	-10.7855
វិញ្ញេយ្យ	-10.7855
▁ឃានិន្ទ្រិយញ្ច	-10.7856
▁ឋបេតព្ព	-10.7856
បេយ្យាល	-10.7857
▁អន្តំ	-10.7858
ឧត្តានត្ថមេវាតិ។	-10.7863
▁វិសុទ្ធិ	-10.7864
▁១៥០	-10.7864
▁អបេក្ខ	-10.7864
ិម	-10.7866
តិអាទីហិ	-10.7866
▁អទ្ទសា	-10.7867
រតា	-10.7867
វិមុត្តិ	-10.7869
▁អព្ភុតំ	-10.787
▁សម្បត្តិំ	-10.7871
▁បាតុភវន្តិ	-10.7871
▁អវិតថ	-10.7876
ុក្ក	-10.7877
មកាសិ	-10.7877
▁សេក្ខា	-10.7878
ឯតេ	-10.7881
វចនស្ស	-10.7881
ុទ	-10.7883
▁លីន	-10.7885
ភូមិំ	-10.7886
សុត្តន្ត	-10.7887
▁គង្គាយ	-10.7888
វត្ថុំ	-10.7888
▁ចតុវីសតិ	-10.7889
▁យវ	-10.7889
▁សិជ្ឈ	-10.789
វាទិ	-10.789
▁ធារ	-10.789
▁សង្ខារបច្ចយា	-10.7891
សុភ	-10.7892
វិសេសំ	-10.7894
▁អរូបានំ	-10.7895
▁សំវត្តន្តិ	-10.7896
▁លុ	-10.7897
▁វេឡុវនេ	-10.7898
▁បហីនំ	-10.79
▁សំសគ្គ	-10.7903
១១	-10.7906
▁ឧជុំ	-10.7912
សាដក	-10.7913
▁រុក្ខា	-10.7913
ិតាយ	-10.7915
បរិច្ឆេទោ	-10.7915
គណោ	-10.7918
ិត្វា។	-10.7919
លាភី	-10.7921
▁លោកុត្តរា	-10.7922
▁វិតក្កវិចារានំ	-10.7923
▁កាតព្ពា។	-10.7924
▁និក្ខន្តោ	-10.7925
ាយតនំ	-10.7926
ុបច្ឆេទ	-10.7928
តិស្សោ	-10.7929
▁សំវិជ្ជមានា	-10.7929
▁បយោជនំ	-10.7934
▁មុនិន្ទ	-10.7935
▁បរិហាយន្តិ	-10.7936
បោរិស	-10.7937
▁បច្ចស្សោសុំ។	-10.7938
▁ឯកជ្ឈំ	-10.7938
▁និទ្ទោស	-10.794
▁ឋិតិយា	-10.7944
វី	-10.7944
ឧបោសថ	-10.7947
អបិ	-10.7947
▁សោចតិ	-10.7947
▁មូលេ	-10.7949
▁១៤២	-10.7949
▁យាវទេវ	-10.7953
▁អជានន្តោ	-10.7956
▁ធម្មាយតនញ្ច	-10.7957
▁បដិគ្គហិត	-10.7958
▁ចតុវោការ	-10.7962
▁រាជគហំ	-10.7965
▁ឯកវីស	-10.7967
េសិំ	-10.7967
▁នោចិត្ត	-10.7967
▁អសង្ខ្យេយ្យ	-10.7967
▁បកិណ្ណក	-10.7967
និព្ពត្ត	-10.7969
▁អវិគត	-10.7971
▁អធិមត្ត	-10.7975
▁អជាតសត្តុ	-10.7979
ភេទា	-10.7979
េយ្យាថ	-10.7981
▁សមតិក្កម	-10.7984
▁អត្រ	-10.7988
▁មនុញ្ញ	-10.7988
▁វេរ	-10.799
▁លោកស្មិំ។	-10.7993
▁យាចន	-10.7993
▁អាចរិយា	-10.7993
▁វិរាគា	-10.7993
▁វូបសមា	-10.7994
▁នបុំសក	-10.7995
កត្វា	-10.7998
▁បរិភុញ្ជិតុំ	-10.7998
▁ភវិស្សាមិ	-10.8002
▁អសង្ខតា	-10.8003
▁វិទ	-10.8007
▁អគ	-10.8009
▁នអហេតុក	-10.801
▁ទុច្ចរិត	-10.8012
▁អហិ	-10.8012
▁តជ្ជ	-10.8012
▁កិលេសោ	-10.8016
សន្តោសោ	-10.8018
យុំ	-10.8019
▁សនិទស្សន	-10.8022
▁ញាណានិ	-10.8023
▁បាទា	-10.8026
អាហារ	-10.8026
▁១៤៤	-10.8028
▁សំសរន្តោ	-10.8029
▁សាមី	-10.803
សោមនស្ស	-10.803
▁ធោវិត្វា	-10.8032
▁និបត	-10.8033
បុរេជាត	-10.8036
▁ឱរ	-10.8037
រោហ	-10.8038
▁បរាមស	-10.804
▁វិភាវ	-10.8041
សមុទយា	-10.8042
▁អតីតារម្មណ	-10.8042
▁ថេរេ	-10.8043
និកាយ	-10.8045
▁បទីប	-10.8046
▁ឯកត្ថ	-10.8049
▁មតិ	-10.8054
សប្ប	-10.8055
▁សម្មប្បញ្ញាយ	-10.8061
▁១៤៣	-10.8063
▁ពុទ្ធបូជាយិ	-10.8063
សំកិលេស	-10.8064
បីឋ	-10.8069
▁១៤៧	-10.8071
▁លោហិតក	-10.8072
តិអាទិកា	-10.8073
▁គជ	-10.8075
ទុក្កដ	-10.8077
▁ករណីយោ	-10.8077
សន្ថត	-10.808
▁ឆវិ	-10.8085
▁ទូត	-10.8086
▁ហេម	-10.8091
ាវយវ	-10.8091
វង្ក	-10.8091
▁ឧបសម្បន្នោ	-10.8092
▁ជានតោ	-10.8093
▁កលហ	-10.8095
▁រិត្ត	-10.8096
▁ឧប្បជ្ជមានា	-10.8098
វិរាគ	-10.8099
វិវេក	-10.8099
សាម	-10.81
អសុក	-10.8101
▁សម្បជានការី	-10.8103
▁វុត្តេបិ	-10.8104
▁តារ	-10.8104
▁បរិភុញ្ជតិ	-10.8105
▁មោរ	-10.8105
▁សម្បហំស	-10.8106
▁គន្តព្ពំ	-10.8107
កប្បេ	-10.8108
▁វទមានោ	-10.8109
បុព្ពា	-10.811
▁ឧប្បជ្ជិស្សន្តិ	-10.811
សាលា	-10.8111
ិទ្ធិ	-10.8113
យស្មា	-10.8113
▁បាវ	-10.8117
▁អារកា	-10.8118
▁អាកាសោ	-10.8119
▁វិភត្ត	-10.812
▁ពហុស្សុត	-10.8121
ផរណ	-10.8122
▁កប្បិយំ	-10.8125
ិរ	-10.8128
▁កោសជ្ជ	-10.8128
▁ករិស្សតិ	-10.8129
រដ្ឋេ	-10.8135
▁ឧត្តរា	-10.8136
នត្ថ	-10.8137
▁កិលេសេហិ	-10.8138
▁ថេរានំ	-10.8138
▁ឧទ្ធដ	-10.814
▁បហាតព្ពស្ស	-10.814
វិរហិត	-10.8142
▁សមេតិ	-10.8144
▁យោគិនា	-10.8145
▁នាបរំ	-10.8145
ខណ	-10.8145
▁ទន្ធ	-10.8146
▁ឥត្ថត្តាយា	-10.8149
▁បេសេត្វា	-10.8152
▁រជន	-10.8152
▁បដិក្ខិប	-10.8153
▁អមច្ចា	-10.8155
សច្ឆិកិរិយាយ	-10.8156
▁អទិន្នាទាន	-10.816
▁អសេខ	-10.816
▁ឧប្បជ្ជ	-10.8165
▁វេនេយ្យ	-10.8166
ចិណ្ណ	-10.8168
▁ទន្តកដ្ឋ	-10.8169
អញ្ញាតាវិន្ទ្រិយ	-10.8169
ត្ថម្ភ	-10.817
▁គតា។	-10.8172
▁រូបាទិ	-10.8181
េយ្យាសិ	-10.8182
▁លក្ខណានិ	-10.8183
▁អាណា	-10.8186
▁ឧបរូបរិ	-10.8186
▁មាតលិ	-10.8186
▁សុទ្ធិំ	-10.8187
និយោ	-10.8188
▁អវហរ	-10.8188
ពុទ្ធិ	-10.8189
▁រសំ	-10.8189
និច្ច	-10.819
ន្តោបិ	-10.8192
▁ផាល	-10.8193
▁មនោមយ	-10.8193
▁ចតុក្កំ	-10.8194
▁ឧសភ	-10.8194
▁តេសញ្ច	-10.8194
ាតិក្កម	-10.8195
ាវពោធ	-10.8195
▁បដិលោម	-10.8195
▁វិភត្តា	-10.8198
▁សង្កប្ប	-10.8199
▁សុកត	-10.82
▁បរិសុទ្ធំ	-10.8201
មធិ	-10.8201
សិនេហ	-10.8203
▁គហិតា។	-10.8204
េត្វាតិ	-10.8206
▁អវេច្ចប្បសាទេន	-10.8206
មានេន	-10.8209
មហំ	-10.8209
▁បកតត្ត	-10.8212
▁ទសពល	-10.8213
▁ឧបដ្ឋាក	-10.8215
▁កក្ខឡ	-10.8216
▁វុដ្ឋិតោ	-10.8216
▁បព្ពាជេ	-10.8216
ហេតូ	-10.8216
▁វិត្ថារោ	-10.8218
▁បដិបជ្ជិតព្ព	-10.8218
▁វិហារស្ស	-10.8223
គ្គេ	-10.8224
▁វេរំ	-10.8227
▁បណ	-10.8227
▁រតនត្តយ	-10.8228
▁បុគ្គលិក	-10.8231
▁សេនាបតិ	-10.8233
▁ទិសាសុ	-10.8234
▁សតតំ	-10.8234
▁កុសលា។	-10.8234
▁រោច	-10.8235
▁បុរិមពុទ្ធ	-10.8235
សមីបេ	-10.8237
▁ហា	-10.8237
▁តេលំ	-10.824
សហស្សំ	-10.824
ត្ថំ។	-10.8241
ប្បមាណោ	-10.8244
បុរិសិន្ទ្រិយញ្ច	-10.8244
▁បញ្ចមី	-10.8245
បរិគ្គហ	-10.8248
▁ឥមាហិ	-10.8249
រជ្ជុ	-10.8249
ានុសយ	-10.8249
វិប្បយុត្តោ	-10.8249
▁ឆេទន	-10.8249
▁អហោសី	-10.8253
រុទ្ធ	-10.8254
សន្តុដ្ឋ	-10.8255
▁អនន្តរំ	-10.8255
▁ភិក្ខូសុ	-10.8256
សហាយ	-10.8256
▁វិវិត្ត	-10.8256
▁បំសុកូល	-10.8256
ិយន្តិ	-10.8258
▁អកុសលមូល	-10.826
▁សហស្សានិ	-10.8263
▁វច	-10.8265
▁អរហតិ	-10.8265
▁១៤៦	-10.8269
▁ភិយ្យោភាវាយ	-10.8271
▁បរាមាស	-10.8271
▁បក្កោសាបេត្វា	-10.8272
▁នយន	-10.8272
▁ចតុរាសីតិ	-10.8273
▁ឋបេសិ។	-10.8274
វាក្យ	-10.8274
▁បហរ	-10.8276
ាម។	-10.8277
ិយា។	-10.8277
▁វិស្សជ្ជេត្វា	-10.8278
▁កដត្តារូបានំ	-10.8278
▁អធិគតោ	-10.8278
▁បសីទ	-10.8279
វិញ្ញត្តិ	-10.8283
▁មោហោ។	-10.8284
▁នទិំ	-10.8285
▁អកាល	-10.8287
▁ពន្ធនំ	-10.8288
▁នាវំ	-10.8288
▁សុវ	-10.8291
▁ធម្មទេសនាយ	-10.8292
▁មហគ្ឃ	-10.8295
ិច្ច	-10.8295
សម្បទំ	-10.8296
▁និព្ពានេ	-10.8298
▁អន្ន	-10.8299
ត្ថាយាតិ	-10.8303
▁ឥច្ច	-10.8304
▁ទិន្នោ	-10.8304
ន្តេហិ	-10.8305
▁មុនី	-10.8305
▁មញ្ចបីឋ	-10.8307
▁ជហិត្វា	-10.8308
ពហុល	-10.8315
▁ធារយាមី	-10.8316
▁សមនុបស្សាមិ	-10.8316
គិរិ	-10.8316
▁ទសសុ	-10.8316
ប្បច្ចយ	-10.8316
ានុបស្សនា	-10.8317
បារាជិក	-10.832
▁អហុ។	-10.8321
▁ភុត្វា	-10.8323
បរិសាយ	-10.8324
សង្គហិត	-10.8325
▁ជាយតេ	-10.8326
▁ភវតីតិ	-10.8328
▁មហាមោគ្គល្លាន	-10.8328
▁ឧបាសកា	-10.8329
▁វុដ្ឋាតិ	-10.8329
ក្ខិត្ត	-10.8334
េថា	-10.8338
▁អវិជ្ជាបច្ចយា	-10.8338
▁បញ្ចមោ	-10.8339
ភទ្ទ	-10.834
▁បុមេ	-10.8342
▁វិវរិត្វា	-10.8343
▁ខល	-10.8345
▁សុខសហគត	-10.8346
▁រវ	-10.835
សត្ថា	-10.835
លោកុត្តរ	-10.8354
▁វស្សសត	-10.8354
▁សង្គីតិ	-10.8355
▁ទីឃំ	-10.8356
▁សារណីយំ	-10.8356
ស្សាមីតិន្ទ្រិយំ	-10.8357
▁តុដ្ឋ	-10.8357
▁បច្ចន្ត	-10.8359
▁អសុរ	-10.836
▁ទីបេ	-10.8361
ជេ	-10.8364
▁និយាម	-10.8365
▁សមាសោ	-10.8367
មនោវិញ្ញាណធាតុ	-10.8368
▁លោល	-10.8369
▁តថាគតេ	-10.837
▁អលង្កត	-10.837
▁លា	-10.837
បាចិត្តិយ	-10.8372
▁សិក្ខាយ	-10.8372
▁ចក្ខុសម្ផស្ស	-10.8372
▁ហិទំ	-10.8376
ត្តុ	-10.8376
▁សមគ្គា	-10.8377
▁សមាទប	-10.8377
▁បេត្តិវិសយ	-10.8378
▁តិហេតុក	-10.8378
សត្តិ	-10.8379
▁សព្ពកាលំ	-10.8379
▁សមាបត្តិយោ	-10.8379
▁គាវ	-10.8381
▁បទុមំ	-10.8384
▁អទ្ធានំ	-10.8389
▁ព្យាករ	-10.8389
▁តាទិសេ	-10.839
▁លក្ខ	-10.839
និរ	-10.8391
▁អនុត្តរ	-10.8391
▁មគ្គបច្ចយ	-10.8393
▁ញាតី	-10.8394
▁និធ	-10.8394
បធាន	-10.8397
សត្តោ	-10.8397
▁អញ្ញតរេន	-10.8398
▁សម្មោទនីយំ	-10.8398
▁នកម្មបច្ចយា	-10.8398
▁សហត្ថា	-10.8398
▁អវសិដ្ឋ	-10.8399
មទ្ទន	-10.8399
នាមេន	-10.8399
▁អធិមោក្ខ	-10.8399
▁សោភន	-10.8399
▁ឧបសម្បន្ន	-10.8403
▁សាសវ	-10.8405
▁១៤៩	-10.8407
▁តិរោ	-10.8408
ភាគិយ	-10.8409
▁បុថូ	-10.8414
▁អវស្សំ	-10.8416
▁រូបី	-10.842
តាទិសោ	-10.8421
▁អាលបតិ។	-10.8422
▁ករោតី	-10.8424
▁បថវិយា	-10.8424
▁រាជបុត្ត	-10.8424
កាទិ	-10.8425
▁ឧបទ្ទវ	-10.8427
ុស	-10.8432
វិនិមុត្ត	-10.8433
▁ឥធាតិ	-10.8433
▁អរហន្តានំ	-10.8436
▁អទោសោ	-10.8437
▁ធី	-10.8438
ិតោតិ	-10.8438
េតុន្តិ	-10.8439
▁កតាធិការោ	-10.8439
▁ឆារត្តំ	-10.8442
▁ចក្កំ	-10.8445
▁សីលានិ	-10.8446
▁អាឃាត	-10.8446
▁១៦០	-10.8449
▁សក្កច្ច	-10.8451
▁នាវាយ	-10.8455
▁ជិវ្ហាយ	-10.8457
▁ធារណ	-10.8458
ចិត្តេសុ	-10.8458
▁យស្សា	-10.8458
▁អាមសតិ	-10.8458
▁អវណ្ណ	-10.846
▁ព្រហ្មវិហារ	-10.8462
▁នេត្វា	-10.8464
▁និហីន	-10.8465
វាបិ	-10.8467
ត្យាទិ	-10.847
▁យុត្តិ	-10.847
នាវ	-10.847
វ្ហោ	-10.8471
▁ឯទិស	-10.8471
តាល	-10.8473
▁សចក្ខុកាន	-10.8477
ាសនេ	-10.8479
▁សុត្តស្ស	-10.8479
មន្ទ	-10.8482
ព្រាហ្មណោ	-10.8483
▁អនុប្បន្នស្ស	-10.8484
▁បវេស	-10.8485
្វា	-10.8486
សង្ខ្យ	-10.8491
▁ទេសិតា	-10.8491
លិក	-10.8491
▁សន្និសិន្នា	-10.8492
▁អាទិកម្មិកស្សា	-10.8492
▁គណ្ហថា	-10.8493
▁ឧបធិ	-10.8496
អបរេហិបិ	-10.8498
▁សហជាតោ	-10.85
▁អាសុំ	-10.8501
▁មគ្គញាណ	-10.8503
▁បុល្លិង្គ	-10.8505
ឃាតក	-10.8505
បិដក	-10.8507
វុដ្ឋាន	-10.851
ីភូត	-10.851
▁អរិដ្ឋ	-10.8513
▁និកាយ	-10.8517
▁គិលានស្ស	-10.8517
▁ជនស្ស	-10.8519
▁សហេតុកំ	-10.8519
▁ភវិតុំ	-10.8521
▁ព្រហ្មលោក	-10.8521
▁តទុភយំ	-10.8524
▁វិចិកិច្ឆាសហគតេ	-10.8524
▁ភាវយ	-10.8525
▁ទហរោ	-10.8525
▁ឧបដ្ឋិត	-10.8526
ដីកា	-10.8526
▁វត្តតិ។	-10.8527
សញ្ញាវេទយិតនិរោធ	-10.8527
▁និយោជ	-10.8528
ឯកំ	-10.853
សីមាយ	-10.853
▁បារមិយោ	-10.8533
▁ទុតិយេន	-10.8534
សង្ខាតាយ	-10.8535
▁អគ្គំ	-10.8536
▁អាបជ្ជតីតិ	-10.8537
▁សាទិយតិ	-10.854
▁បិដក	-10.854
រូឡ្ហ	-10.8542
▁វិបស្សី	-10.8543
ាវុធ	-10.8544
▁នអកុសល	-10.8546
▁អារទ្ធ	-10.8546
កិត្តន	-10.8547
▁តញ្ចេ	-10.8547
▁បក្ខន្ទ	-10.8547
▁ភស្ស	-10.855
▁បរលោក	-10.855
កម្មដ្ឋានំ	-10.855
▁រាជកុមារ	-10.8554
ពន្ធនំ	-10.8555
▁និក្ខេប	-10.8555
▁សមនន្តរបច្ចយ	-10.856
បរិហារ	-10.8564
▁គន្ថា	-10.8565
▁យេនាយស្ម	-10.8567
▁អជ្ឈត្តិក	-10.8568
▁វិមុច្ច	-10.8569
▁សំស	-10.8569
▁ឧបសម្បទ	-10.857
▁អនិយតោ	-10.857
ាភិនិវេស	-10.857
▁មានានុសយំ	-10.8571
▁សល្លេខ	-10.8571
▁ជាតក	-10.8571
▁អការ	-10.8573
សន្ន	-10.8573
▁ជានាសិ	-10.8574
្វ	-10.8577
សិរិ	-10.8578
▁រតោ	-10.8578
▁បិដ្ឋ	-10.8579
▁បដិក្ខិបិត្វា	-10.8579
▁តីរ	-10.858
ន្	-10.8581
▁វិទូ	-10.8581
▁កណ្ឌ	-10.8584
▁ឱក្កន្ត	-10.8585
▁ឧដ្ឋហិត្វា	-10.8585
កោដិយោ	-10.8589
▁អប្បណិហិត	-10.8592
▁និរន្តរំ	-10.8592
▁គរុកំ	-10.8593
▁ឧបេក្ខាសហគតំ	-10.8593
▁យុជ្ជ	-10.8594
▁១៤៥	-10.8595
សមុដ្ឋានា	-10.8597
▁អនុញ្ញាតំ	-10.8601
ត្ថេរវត្ថុ	-10.8605
យក្ខ	-10.8606
▁បវារណាយ	-10.8606
▁តម្ព	-10.8607
▁ទោសា	-10.8608
▁សន្ថត	-10.8613
▁១៥៣	-10.8615
លោភ	-10.8615
▁ថិនមិទ្ធ	-10.8618
▁មេតំ	-10.8621
▁បរត្ថ	-10.8621
▁កុក្កុច្ច	-10.8622
▁ពីជំ	-10.8623
▁១៥៧	-10.8624
▁ស្វាយំ	-10.8624
បរិស	-10.8625
វិវដ្ដ	-10.8626
បច្ចុបដ្ឋានា	-10.8626
▁អម	-10.8628
▁បញ្ញំ	-10.8629
▁សង្ខារក្ខន្ធ	-10.8632
▁បោសោ	-10.8633
េន្តា	-10.8636
▁សីលវន្ត	-10.8638
ថូប	-10.8639
▁សមាទិយ	-10.8641
▁បដិនិស្សជ្ជ	-10.8642
▁មុដ្ឋិ	-10.8643
▁ករុណាយ	-10.8645
▁រជត	-10.8652
▁បញ្ញត្ត	-10.8653
បូជាយ	-10.8656
▁តត្រាបិ	-10.8659
លេ	-10.866
▁នុប្បជ្ជតីតិ	-10.8661
បរិឡាហ	-10.8664
យន្តា	-10.8664
▁ជីវំ	-10.8665
▁បញ្ចធា	-10.8665
សម្ផស្ស	-10.8668
▁ឧត្តរិំ	-10.867
▁ករេ	-10.867
សុខាយ	-10.8671
▁ឱកាសេ	-10.8671
▁អហោសីតិ	-10.8673
▁បរិយេសតិ	-10.8673
▁ភារោ	-10.8674
▁អាទិសទ្ទេន	-10.8674
▁មហាសមុទ្ទេ	-10.8675
▁សេក្ខោ	-10.8676
▁ទិដ្ឋិគតំ	-10.8676
▁បឋមោ។	-10.8677
▁ចេតោវិមុត្តិ	-10.8677
▁ឥទ្ធិវិធ	-10.8681
ច្ឆា	-10.8683
▁មនុស្សោ	-10.8683
ស្មិញ្ច	-10.8686
▁ឯកោវ	-10.8687
វតោ	-10.8688
▁បញ្ច។	-10.8688
▁វិស្សាស	-10.8689
▁សន្ថវ	-10.8695
▁បរិយន្ត	-10.8696
▁វិញ្ញាណញ្ចាយតនំ	-10.8697
▁សុប្បតិដ្ឋិត	-10.8697
ជប្ប	-10.8697
▁សោតាបន្ន	-10.8698
ាទីនម្បិ	-10.8698
២០	-10.8699
ានំយេវ	-10.87
ឯត្តក	-10.8703
មាសេ	-10.8707
▁អប្បហាយ	-10.8708
វចនេ	-10.8708
▁ទិយ	-10.8708
▁នេក	-10.871
▁មក្កដ	-10.8711
▁១៥៩	-10.8711
ប្បត្តំ	-10.8712
▁១៥៤	-10.8712
ុភ	-10.8713
▁ភាជ	-10.8715
ពុជ្ឈ	-10.8715
▁តទុប	-10.8717
▁បរិវត្តេត្វា	-10.8717
និយ	-10.872
សមាបត្តិយា	-10.8721
និសិន្ន	-10.8723
ហទយ	-10.8724
▁មត្តិកា	-10.8724
▁តិដ្ឋេយ្យ	-10.8725
▁បវត្តមាន	-10.8727
▁អក	-10.8727
▁មហប្ផលំ	-10.8728
▁រថំ	-10.8728
ទេសនាយ	-10.8729
ច្ឆេទន	-10.8729
វេគ	-10.8729
▁ភុជ	-10.8731
ោវ។	-10.8731
▁បុនទិវសេ	-10.8733
▁ទេថ	-10.8734
▁សិយុំ	-10.8739
▁បហីយតិ	-10.8739
▁មិត្តោ	-10.8741
▁អភិវាទ	-10.8742
វិនាស	-10.8743
▁បរិញ្ញ	-10.8743
វជ្ជិត	-10.8744
▁អមរ	-10.8744
វិប្ផារ	-10.8745
ច្ចាទិ	-10.8746
▁ទុគ្គន្ធ	-10.8746
▁បុព្ពណ្ហសមយំ	-10.8747
▁រុក្ខស្ស	-10.8751
ុន្តិ	-10.8752
▁អធិប្បេតំ។	-10.8752
▁អសប្បុរិស	-10.8753
▁ទ្វាទសម	-10.8754
▁និបាតោ	-10.8756
មេស	-10.8758
េស្សតិ	-10.8758
▁១៥៥	-10.8762
សុរ	-10.8762
▁កេវលញ្ច	-10.8763
▁សុបណ្ណ	-10.8764
តព្ពំ	-10.8765
▁ភព្ពោ	-10.8766
▁បវត្តិត	-10.8767
▁អនុប្បន្ន	-10.8767
▁ឧបជ្ឈាយោ	-10.8767
▁ទស្សិតំ	-10.8768
ានុបស្សី	-10.877
ធោ	-10.877
▁សហេតុកា	-10.8774
ចិរ	-10.8774
លេប	-10.8775
ូរ	-10.8779
▁លព្ភន្តិ	-10.878
▁ខិប្ប	-10.8781
▁អញ្ញម្បិ	-10.8782
▁ឋបិតា	-10.8785
▁អធិប្បេតោ	-10.8789
នាមកោ	-10.8789
▁ឆដ្ឋំ	-10.879
▁សមាគមោ	-10.879
▁ធម្មាភិសមយោ	-10.8791
ទទ	-10.8792
លោហ	-10.8792
▁អសំ	-10.8795
ត្ថោតិ	-10.8795
▁អរហត្តមគ្គេន	-10.8796
សំយោជនំ	-10.8796
ារម្ភ	-10.8797
▁អនត្ត	-10.8798
ានុគត	-10.8798
▁យាវកាលិក	-10.8798
▁វិញ្ញាយ	-10.8799
▁១៥១	-10.8799
▁ដ	-10.8799
▁ចាតិ។	-10.8799
▁អនវ	-10.8801
▁សីមំ	-10.8802
វិសយោ	-10.8802
▁កមេន	-10.8802
▁សាសវា	-10.8803
▁ឯកច្ចស្ស	-10.8806
▁សម្បយុត្តបច្ចយ	-10.8806
▁សន្តាប	-10.8808
ប្បកាសន	-10.8808
▁អញ្ញមញ្ញបច្ចយ	-10.881
▁អដ្ដ	-10.8812
▁ចោទនា	-10.8812
▁គច្ឆាម	-10.8813
▁គច្ឆតោ	-10.8814
▁សិទ្ធ	-10.8814
កប្បោ	-10.8817
▁កច្ចាន	-10.8817
មកាសិ។	-10.8817
▁វិតក្កវិចារ	-10.8819
េត	-10.882
▁កេនដ្ឋេន	-10.882
▁វិញ្ញាណបច្ចយា	-10.8822
▁ឥទ្ធិបាទ	-10.8826
▁តាទី	-10.8834
▁វិភង្គេ	-10.8835
▁យថាភតំ	-10.8836
▁សម្មសន	-10.8836
សតេហិ	-10.8838
▁និប្	-10.8838
▁អត្ថេន	-10.8838
និយាម	-10.8839
បទេហិ	-10.884
▁អារទ្ធវីរិយោ	-10.8841
▁១៥៨	-10.8844
ហំស	-10.8846
▁ចតុធា	-10.8849
▁ខីរំ	-10.8849
▁បស្សតី	-10.8852
រហិតំ	-10.8853
▁សុញ្ញំ	-10.8854
▁សេទ	-10.8855
▁សុត្តេន	-10.8857
▁សុបិន	-10.8857
▁សុទ	-10.8857
បដិបាដិយា	-10.8858
▁ឧប្បជ្ជមាន	-10.8859
សមោធាន	-10.886
ភី	-10.8861
▁ចវិត្វា	-10.8862
▁កិស	-10.8863
▁ឯវរូបេ	-10.8864
វត្ថុក	-10.8865
▁វជិរ	-10.8869
▁ភុសំ	-10.8869
មញ្ច	-10.887
▁និប្ផន្ន	-10.887
▁និគម	-10.8871
▁វិក្ខេប	-10.8872
▁អម្ម	-10.8874
គណន	-10.8878
▁សង្ខារេសុ	-10.8878
▁ចក្ខុធាតុ	-10.8879
មូលកំ	-10.8881
▁យេបិ	-10.8883
▁តិតិក្ខ	-10.8883
វិនយោ	-10.8884
▁មហាភូតានំ	-10.8884
▁វិបស្សតិ	-10.8885
▁បាកតិក	-10.8887
វាសោ	-10.8888
ភុត្ត	-10.8889
▁សត្តមំ	-10.8889
▁ទេសេសិ	-10.889
ភណ្ឌំ	-10.8892
▁យុវ	-10.8893
▁១៦៥	-10.8895
▁អរិយមគ្គោ	-10.8896
▁កន្តា	-10.8897
នយន	-10.8898
▁នវុតិ	-10.89
សន្តក	-10.89
ភាគោ	-10.89
ទរ	-10.8901
▁អាកាសេន	-10.8906
សោតំ	-10.8908
ជនបទ	-10.8909
▁គាថា។	-10.891
▁អាណត្តិ	-10.8911
▁ទស្សិតោ។	-10.8915
សមាស	-10.8915
▁បេម	-10.8917
មហត្ត	-10.8918
▁យថាភូត	-10.8919
គន្ធោ	-10.8919
▁បដិក្កូល	-10.8919
ិន្ទ្រិយានិ	-10.8921
▁សន្តេបិ	-10.8921
មុទ	-10.8922
មត្តក	-10.8924
▁លីនត្ថប្បកាសនា	-10.8926
▁បរិយាបុណ	-10.8931
ិកស្ស	-10.8932
▁បរិសុទ្ធា	-10.8934
▁បរិនិព្ពុត	-10.8934
មូលកា	-10.8935
កុលា	-10.8936
▁អរិយស្ស	-10.8937
▁ភញ្ជ	-10.8937
ភាណក	-10.894
មោក្ខ	-10.8943
▁បូជយ	-10.8943
▁បរិនិព្ពុតេ	-10.8944
បុប្ផំ	-10.8945
េកវចន	-10.8947
▁សុនខ	-10.8947
▁សក្កោន្តិ	-10.8948
▁បរិមាណ	-10.8949
សតិបដ្ឋាន	-10.8949
និវារណ	-10.8951
▁ទន្ធាភិញ្ញំ	-10.8951
សន្តាប	-10.8953
ចត្តាលីស	-10.8955
ព្ពិ	-10.8957
▁វិវាទោ	-10.8958
វិគ្គហ	-10.8959
▁មាតុល	-10.8963
▁មញ្ញថ	-10.8966
សំសយ	-10.8966
▁ភក្ខ	-10.8968
សទ្ទេ	-10.8969
▁ទុស្សីលោ	-10.8969
សុញ្ញ	-10.897
▁អនិទស្សនសប្បដិឃ	-10.897
ាធិដ្ឋាន	-10.897
▁ញាណវិប្បយុត្ត	-10.8971
កោស	-10.8971
▁សតិន្ទ្រិយំ	-10.8971
▁ទិដ្ឋិគត	-10.8972
▁តថាគតោ។	-10.8975
▁កថិតោ	-10.8975
▁ធារេយ្យ	-10.8976
▁អារម្មណបច្ចយោ	-10.8978
▁កោដ្ឋាសេ	-10.8979
▁អាយស្មន្តោ	-10.8982
កច្ចិ	-10.8982
▁កាឡក	-10.8982
▁និដ្ឋា	-10.8984
▁និព្ពិទា	-10.8986
ភិក្ខ	-10.8987
▁រស្សោ	-10.8987
▁ឧម្មត្តកស្ស	-10.8988
គមា	-10.8988
▁សង្ឃាទិសេសា	-10.8992
▁វិសោធ	-10.8993
▁បញ្ចាល	-10.8995
បាតិមោក្ខ	-10.8995
នីយា	-10.8995
▁មានុស	-10.8995
▁បារិសុទ្ធិ	-10.8996
▁សមន្នាគតោតិ	-10.8996
ឡា	-10.8999
បទដ្ឋាន	-10.9
យិំសុ	-10.9
▁អាវដ្ដនា	-10.9004
▁សទ្ធម្មំ	-10.9005
បាតុភាវ	-10.9006
សមណោ	-10.9007
▁បរិណាម	-10.9007
▁ករោន្តីតិ	-10.9009
▁អចិត្តក	-10.901
ុល	-10.901
▁មហានុភាវោ	-10.9012
▁អាទរ	-10.9012
▁ឧប្បជ្ជមានំ	-10.9016
នាឡិ	-10.9016
សាគរ	-10.9016
▁អប្បមត្តក	-10.9017
▁ចិន្តិត	-10.9019
▁កុលបុត្តោ	-10.902
អនិច្ច	-10.9021
▁អចេលក	-10.9022
នាមរូប	-10.9022
▁សត្ថំ	-10.9023
▁តុល្យ	-10.9024
▁វិនិបាត	-10.9026
▁បដិលាភ	-10.9028
▁ឥច្ចេវ	-10.903
▁អប្បំ	-10.9031
▁អភាវតោ។	-10.9031
បដិសំយុត្ត	-10.9034
▁សមាធិំ	-10.9035
▁ភិន្ទតិ	-10.9036
▁អវិតក្ក	-10.9039
▁សិង្គាល	-10.9039
▁សុញ្ញោ	-10.9041
▁នវវិធ	-10.9041
▁លោកោតិ	-10.9042
▁បគុណ	-10.9044
▁សច្ឆិកតា	-10.9045
▁បវត្តិយា	-10.9045
▁អសប្បាយ	-10.9046
▁ពហុស្សុតា	-10.9046
▁សុវិញ្ញេយ្យ	-10.9047
ិន្ទ្រិយា	-10.9047
▁បណ្ឌក	-10.905
បព្ពជិត	-10.9054
▁មិត្តា	-10.9054
▁ខគ្គ	-10.9055
▁ភាសេយ្យ។	-10.9057
▁នគ្គ	-10.9057
▁ភូតគាម	-10.9058
▁តទនន្តរំ	-10.9061
▁អធិការ	-10.9062
▁ឆព្ពគ្គិយេ	-10.9063
▁វាទំ	-10.9063
▁សង្ខា	-10.9064
▁វេមតិកា	-10.9067
▁សរតិ	-10.9068
កោដិយា	-10.9068
▁អាកង្ខ	-10.9068
▁អាហំសុ។	-10.9071
គ្គហិត	-10.9071
▁ឋិតត្តា	-10.9072
▁បូវ	-10.9075
មុនិ	-10.9079
▁កាយវិញ្ញាណំ	-10.9082
▁និក្ខិត្តោ	-10.9082
តស្មិំ	-10.9084
▁អប្បវត្តិ	-10.9084
ភាវេន។	-10.9085
ាតុរ	-10.9095
▁ញាតោ	-10.9096
▁សមនុបស្សតិ	-10.9097
▁ពោធិយា	-10.9099
ិយមានំ	-10.9102
▁១៦១	-10.9104
វគ្គស្ស	-10.9105
▁សេសេសុ	-10.9105
▁ជង្ឃ	-10.9105
▁លទ្ធោ	-10.9109
▁នក្ខមតិ	-10.9109
ប្បហារ	-10.9109
▁ពុទ្ធប្បមុខ	-10.9109
សន្និបាត	-10.911
▁វិរជ្ជ	-10.911
▁ទុក្ខបដិបទំ	-10.9111
▁ទសពលស្ស	-10.9112
▁ភិក្ខុសង្ឃេន	-10.9113
▁បរិបុណ្ណំ	-10.9114
▁ជនក	-10.9114
សញ្ញិតា	-10.9116
ទិសោ	-10.9117
ករណំ។	-10.9117
▁លភេថ	-10.9118
ូបម	-10.9118
វិហារំ	-10.9119
វីស	-10.912
▁អកុប្ប	-10.912
▁វាសំ	-10.9121
មិមំ	-10.9121
▁នាយកោ	-10.9123
មាគម្ម	-10.9123
កដ	-10.9124
មតោ	-10.9126
▁ឥត្ថិំ	-10.9129
▁អដ្ឋមំ	-10.913
▁អន្តោគធ	-10.9131
▁បញ្ចង្គិក	-10.9131
រាធ	-10.9132
សន្តានេ	-10.9136
▁សេសេសុបិ	-10.9139
▁សាវត្ថិំ	-10.914
▁ឧបគតោ	-10.914
▁អង្គារ	-10.9142
▁ឥទន្តិ	-10.9143
មានសា	-10.9147
ូបគា	-10.9148
សស្ស	-10.9149
▁ទុតិយោ។	-10.915
▁វីថិ	-10.9152
▁សង្ខេប	-10.9153
▁វិមោក្ខា	-10.9154
▁ចោទិតោ	-10.9155
▁សុភាវិត	-10.9159
បាទេ	-10.9159
▁មេថុនធម្ម	-10.9161
▁វិធុរ	-10.9161
▁ភគិនិ	-10.9162
▁វល្លិ	-10.9162
▁បរិយោសានំ	-10.9164
▁សិក្ខាបទេ	-10.9164
▁អត្ថវណ្ណនា	-10.9166
▁សន្និ	-10.9167
▁បដិកូល	-10.9169
តយោ	-10.9169
ជិ	-10.917
▁អដ្ឋាសិ	-10.9174
▁បរិវុតោ	-10.9174
▁បរិចរ	-10.9176
▁តិណ្ណ	-10.9179
▁លហុក	-10.9181
បិណ្ឌបាត	-10.9182
តព្ពា	-10.9184
ដក	-10.9185
▁សុធា	-10.9186
សញ្ឆន្ន	-10.9188
▁សីទ	-10.919
ត្ថាយ។	-10.9191
កទា	-10.9191
▁បុរំ	-10.9192
▁បុរត្ថិម	-10.9193
▁យោនំ	-10.9194
▁វិតក្កស្ស	-10.9195
▁ខេមំ	-10.9197
▁ឧទ្ធច្ចសហគតេ	-10.9199
▁បរិចារ	-10.9203
ាយស្មា	-10.9203
▁និយ្យាន	-10.9204
ទេ	-10.9205
▁មច្ឆរិយ	-10.9205
▁ទុគ្គត	-10.9209
▁អយ្យ	-10.921
▁ទុខ	-10.9212
▁បិដ្ឋិតោ	-10.9216
សំសគ្គ	-10.9218
▁ភវន្ត	-10.9218
▁រូបាវចរា	-10.9219
▁វធិត្វា	-10.9221
▁ឯកច្ចំ	-10.9223
▁បីតិសុខំ	-10.9224
▁គតោតិ	-10.9225
▁មុណ្ឌ	-10.9229
អកុសល	-10.9229
▁១៦៧	-10.923
▁លព្ភា	-10.923
▁គមិស្ស	-10.9231
▁សម្បាទ	-10.9231
តព្ពោ	-10.9231
▁មេត្តចិត្ត	-10.9233
▁វសន	-10.9233
ាយុក	-10.9233
▁ចិន្ត	-10.9235
ាសវ	-10.9236
▁ជាយ	-10.9237
▁វិប្ប	-10.9237
▁វន្ទន	-10.9237
បន្ន	-10.9239
▁អជ្ឈោហារេ	-10.9239
▁បញ្ហាវារោ	-10.924
▁យោជេ	-10.924
▁នាថោ	-10.924
▁បវត្តនតោ	-10.924
បត	-10.924
▁មាណវក	-10.9241
▁ឧបេក្ខ	-10.9242
▁ពហុល	-10.9244
▁អនុច្ឆវិក	-10.9245
១៣	-10.9246
▁កាយគតាសតិ	-10.9247
▁សាមិស	-10.9247
ោកាស	-10.925
▁អារញ្ញិក	-10.9252
ឧបាទានវិប្បយុត្ត	-10.9254
▁បដ្ឋប	-10.9255
ទីបក	-10.9258
វិហិត	-10.9262
បតី	-10.9263
▁មុទិតា	-10.9264
▁អាបជ្ជិត្វា	-10.9265
▁អញ្ញាត	-10.9266
▁បរិព្ពាជកា	-10.9267
សត្តានំ	-10.9267
▁ពាហា	-10.9268
▁សរា	-10.9269
កាយំ	-10.9269
▁ឧក្ខិត្ត	-10.9272
ទុព្ពល	-10.9272
▁ឧបបជ្ជតិ	-10.9273
▁ទិជ	-10.9273
សំសដ្ឋ	-10.9274
កតមញ្ច	-10.9276
សម្បទាយ	-10.9276
▁លោម	-10.9277
មុខេ	-10.9279
▁សេសោ។	-10.9279
▁ជាតិយោ	-10.9284
ចិន្ត	-10.9285
▁បវត្តន	-10.9285
ហត្ថា	-10.9286
ករណតោ	-10.9288
មក្ខ	-10.9289
▁១៥២	-10.9289
ឡក	-10.9292
ខិល	-10.9292
សភាវត្តា	-10.9294
▁បោក្ខរ	-10.9295
▁យុជ្ឈ	-10.9295
▁អនុគ្គហ	-10.9296
▁អធិគមាយ	-10.9296
▁ឥធាធិប្បេត	-10.9297
▁សិក្ខំ	-10.9299
▁និសីទន	-10.93
▁សម្បជាន	-10.9301
ឥច្ច	-10.9301
▁និកន្តិ	-10.9301
▁បមជ្ជ	-10.9302
បុដ	-10.9303
▁បារគូ	-10.9304
▁មហាថេរ	-10.9306
ាទីនម	-10.9307
ពាហុ	-10.9307
▁សមាបជ្ជតិ	-10.9308
មេឃ	-10.9308
▁ឱតរ	-10.9312
▁ទលិទ្ទ	-10.9314
▁វេបុល្លាយ	-10.9316
▁លោកិយំ	-10.9319
វិធិំ	-10.9322
វាចកោ	-10.9324
▁សីម	-10.9324
▁បសវ	-10.9325
កម្មេន	-10.9326
វិភាគោ	-10.9326
▁វេទនាបច្ចយា	-10.9327
▁សរណោ	-10.9329
▁សោធ	-10.933
▁ធុត	-10.9331
អង្គ	-10.9333
▁រុក្ខេ	-10.9336
▁ខារ	-10.9336
ច្ឆិន្ទ	-10.9337
▁តោស	-10.9338
▁អនាគាមិមគ្គ	-10.934
▁គល	-10.934
▁បាចីន	-10.934
▁កាមគុណា	-10.9342
▁វិញ្ញុតំ	-10.9344
▁អភាវោ	-10.9345
▁សន្និបតិត្វា	-10.9346
▁ករេយ្យ។	-10.9348
▁ឱឡារិកំ	-10.9348
▁ឧបេក្ខកោ	-10.9348
▁បច្ចត្ត	-10.9349
ឡ្ហ	-10.9351
▁អច្ឆរិយ	-10.9352
ាមហំ	-10.9356
▁អាគតេ	-10.9358
▁តុច្ឆ	-10.9359
▁កុរុ	-10.9359
▁រុក្ខមូលេ	-10.9359
▁និពទ្ធ	-10.936
▁នឡ	-10.936
▁ញាណន្តិ	-10.9362
▁សត្តវិធ	-10.9362
▁ឋា	-10.9364
▁អយន្តិ	-10.9364
▁ទុស្សីល	-10.9365
▁បភស្សរ	-10.9366
ភេសជ្ជបរិក្ខារ	-10.9368
ទិវសតោ	-10.9369
▁១៦២	-10.937
ាទីន	-10.9371
▁កលិ	-10.9372
គីត	-10.9374
▁មនសោ	-10.9377
ទន្តោ	-10.9379
បីត	-10.9379
▁កប្បេតិ	-10.9381
កប្បិយ	-10.9381
▁ភោជនីយំ	-10.9383
▁បាតិមោក្ខុទ្ទេស	-10.9388
▁វិភាវនិយំ	-10.9388
អវិជ្ជា	-10.9389
ត្ថេរស្សាបទាន	-10.939
▁និសិន្នេ	-10.9392
▁វិរជំ	-10.9394
▁ឥតរស្ស	-10.9396
មាបជ្ជ	-10.9396
វីតិក្កម	-10.9396
▁បល្លង្កំ	-10.9398
▁វសនដ្ឋានំ	-10.9398
▁ជដិល	-10.9401
▁បតតិ	-10.9404
ននុ	-10.9405
▁អប្បហីនា	-10.9405
▁ហិស្ស	-10.9407
▁បច្ចយំ	-10.9408
▁និដ្ឋិតោ	-10.941
▁វុដ្ឋហ	-10.9414
▁ខីណាសវា	-10.9414
▁វិធិ	-10.9414
▁លាភំ	-10.9415
▁អសង្ខតំ	-10.9415
▁អទ្ធាន	-10.9417
▁១៧៤	-10.9417
បល្លង្ក	-10.9417
ច្ឆាទន	-10.9419
▁ពន្ធុ	-10.9419
▁បោរាណា	-10.942
រស្ស	-10.942
▁ឆិទ្ទ	-10.9422
សមង្គិនោ	-10.9425
▁តច្ឆ	-10.9426
កាលេបិ	-10.9427
▁គហដ្ឋ	-10.9428
▁នសហេតុក	-10.9428
▁អនាសវោ	-10.943
▁ភវរាគានុសយំ	-10.943
▁បារាជិកស្ស។	-10.9431
▁តាស	-10.9432
មយោ	-10.9433
ឯ	-10.9435
▁សប្បុរិសោ	-10.9435
▁នន្ទី	-10.9435
▁សមាទាន	-10.9436
▁បរិគ្គហិត	-10.9437
▁វចនីយោ	-10.9437
▁ឥទញ្ហិ	-10.9437
▁ភាវនាបារិបូរិ	-10.9437
បជ្ជោត	-10.9439
▁បញ្ញបេន្តិ	-10.9439
▁តិកិច្ឆ	-10.9443
▁តតិយោ។	-10.9443
▁១៧៦	-10.9443
▁គន្ត្វាន	-10.9444
▁ទុក្ខសមុទយោ	-10.9444
▁យោធ	-10.9444
▁បវារិត	-10.9444
ជីវិតិន្ទ្រិយញ្ច	-10.9444
ចិត្តុប្បាទ	-10.9445
▁អរិយសច្ចានិ	-10.9446
▁តាវទេ	-10.9447
▁បីឋ	-10.9448
▁ចរមានោ	-10.9448
ូហិ	-10.945
▁ព្រាហ្មណេ	-10.9452
វេធ	-10.9459
▁សភាវោ	-10.946
លិត្ត	-10.9461
ទីហិ	-10.9463
កន្ត	-10.9463
▁ភាគ	-10.9465
ភូតាយ	-10.9465
▁វីតិវត្ត	-10.9466
ិនិយា	-10.9467
▁បច្ចេក	-10.9468
▁សមាហិតោ	-10.9468
▁បាបកានំ	-10.947
▁ឥរិយ	-10.947
▁និវេស	-10.947
វិធា	-10.9471
▁បដិបាទ	-10.9471
ចិត្តេ	-10.9472
▁បុច្ឆន្តិ	-10.9472
▁១៧៩	-10.9473
េស្វ	-10.9476
ាបនំ	-10.9476
ទារុ	-10.9476
▁បញ្ញា។	-10.9478
▁វត្ថុនា	-10.9484
▁សតិសម្បជញ្ញ	-10.9485
▁លោកវិទូ	-10.9486
▁បរិច្ឆិន្ទិត្វា	-10.9487
▁ធម្មានុបស្សី	-10.9488
▁បាមោជ្ជំ	-10.9488
▁គន្ធា	-10.9489
បរិយាយេន	-10.9489
▁បដ្ឋាន	-10.9489
ថម្ភ	-10.949
ឃន	-10.949
▁សុភាសិត	-10.9492
▁បាតុភាវោ	-10.9493
▁សទ្ធិន្ទ្រិយ	-10.9493
មុដ្ឋិ	-10.9494
▁គីត	-10.9494
▁លិខិតំ។	-10.9495
ន្តរាយ	-10.9496
▁អដ្ឋវិធ	-10.9496
▁វិសាខ	-10.9496
▁រូបធាតុ	-10.9496
▁រូបេន	-10.9497
▁ធា	-10.9498
▁វិទិតា	-10.9498
ិញ្ច	-10.9499
▁វិនិ	-10.9501
▁វិបាកស្ស	-10.9503
កេស	-10.9503
▁ឆឡភិញ្ញា	-10.9504
▁អភិញ្ញេយ្យា	-10.9505
▁និយតា	-10.9505
▁កិច្ឆ	-10.9505
ុំ។	-10.951
▁បញ្ញត្តា	-10.951
▁អាវុធ	-10.9512
▁១៦៩	-10.9512
▁អធិវចនំ	-10.9512
▁ឆាទ	-10.9514
▁ឥត្ថិយំ	-10.9516
▁ពហល	-10.9516
វាទំ	-10.9517
▁សុតវា	-10.9518
▁វីតរាគ	-10.9518
▁គជ្ជ	-10.9519
▁ទុក្ករំ	-10.952
ភាណវារ	-10.9521
មុត្តម	-10.9522
▁ទិដ្ឋិយោ	-10.9524
▁ឧក្កំស	-10.9525
▁ខុរ	-10.9525
▁សម្មុខាវិនយេន	-10.9525
▁អាបជ្ជិ	-10.9527
ទិព្ព	-10.9527
▁១៧០	-10.9527
▁បាតោវ	-10.9528
▁សតានិ	-10.9528
▁កតម	-10.9528
▁វីតិសារេត្វា	-10.953
▁សត្តស្ស	-10.9532
ណ្ណវ	-10.9533
▁ឥដ្ឋា	-10.9535
▁អញ្ញតរា	-10.9535
▁ឥច្ចេវំ	-10.9537
▁កាមាវចរានំ	-10.9539
▁ឧដ្ឋាន	-10.9541
▁សំយោជនំ	-10.9541
ិមានិ	-10.9544
ាធិករណ	-10.9546
▁សោមនស្សេន	-10.9547
▁ទេសេត្វា	-10.9548
ស្មិម្បិ	-10.9549
▁ទុម	-10.955
▁សំវច្ឆរ	-10.9552
▁ទដ្ឋព្ព	-10.9552
▁បជហតិ។	-10.9555
នាមំ	-10.9559
▁អទុក្ខមសុខា	-10.9563
▁អនិទស្សន	-10.9563
▁ផលក	-10.9565
▁យស្សាតិ	-10.9565
▁សខា	-10.9566
▁បាតោ	-10.9567
វិចិត្ត	-10.9568
▁មមាយ	-10.9573
▁នដ្ឋ	-10.9575
▁ឥទមស្ស	-10.9575
▁អធិប្បេតា។	-10.9576
▁សាត	-10.9577
▁សម្មន្តិ	-10.9577
▁គគន	-10.9579
▁និក្ខម្ម	-10.9579
▁ថាវរ	-10.9579
▁១៦៤	-10.9581
▁បិវិត្វា	-10.9581
▁វទេតិ	-10.9581
▁ជីវតិ	-10.9582
បញ្ញត្ត	-10.9582
▁ផរណ	-10.9582
▁អនុស្សាវន	-10.9583
ទស្សនវសេន	-10.9584
សទ្ធម្ម	-10.9584
▁ឥត្ថិន្ទ្រិយញ្ច	-10.9585
▁មណ្ឌល	-10.9588
▁បន្ថ	-10.9589
ុបេក្ខា	-10.9589
▁បហាតព្ពហេតុកា	-10.9591
▁វត្ថានិ	-10.9594
▁យថារុចិ	-10.9594
ទាយកត្ថេរអបទាន	-10.9597
ីយតិ។	-10.9598
▁គច្ឆន្តីតិ	-10.9599
▁ឧបលព្ភតីតិ	-10.9603
ិំសូ	-10.9603
▁និព្ពត្តេត្វា	-10.9603
សមង្គិ	-10.9604
▁កាមច្ឆន្ទោ	-10.9607
ឃោស	-10.9607
▁និព្ពិន្ទ	-10.9607
▁វេវចនំ។	-10.9608
▁បរិច្ចត្ត	-10.9609
▁បញ្ចក្ខន្ធា	-10.961
▁លតា	-10.9611
▁នបុំសកេ	-10.9612
សីហោ	-10.9612
▁បរិឡាហ	-10.9612
មត្ថិ	-10.9614
▁ករោន្តី	-10.9615
គុណេ	-10.9616
ាទ	-10.9616
▁សោតាបត្តិផលំ	-10.9618
ត្ថរណ	-10.9619
▁សយម្បិ	-10.962
▁បជានាតី	-10.9622
▁អច្ឆរិយំ	-10.9622
▁បទភាជនេ	-10.9623
▁ធម្មកថិក	-10.9625
វិភវ	-10.9626
និវាស	-10.9627
▁កេសញ្ចិ	-10.9627
▁មាល	-10.9627
▁តជ្ជា	-10.9629
ិស្សសី	-10.9629
▁វាចសិក	-10.963
▁តុល	-10.963
▁បច្ឆិមា	-10.963
▁ថទ្ធ	-10.9632
▁បញ្ញត្តេ	-10.9633
▁សំខិត្ត	-10.9633
▁សន្តាន	-10.9633
▁មហាបុរិសោ	-10.9633
សុត្តវណ្ណនាយ	-10.9634
នោតិ	-10.9636
▁បបត	-10.9637
▁តាទិ	-10.964
សាលាយ	-10.964
គុហ	-10.9641
▁ឱលម្ព	-10.9642
▁អនុញ្ញាតា	-10.9644
▁ឧទ្ទិសិត្វា	-10.9644
មុដ្ឋ	-10.9644
▁សីលស្ស	-10.9645
▁ជាតំ។	-10.9646
▁ពុទ្ធេន	-10.9647
▁គន្តព្ពោ	-10.9648
▁តព្ព	-10.9648
▁ទដ្ឋព្ពា	-10.9649
▁អសក្កុណេយ្យ	-10.9651
▁អរោគ	-10.9652
គហិត	-10.9655
ូបចារ	-10.9655
▁ហត្ថេហិ	-10.9656
សុន្ទរ	-10.9661
▁ឋបេតុំ	-10.9661
▁អនិច្ចតា	-10.9665
ីតិ។	-10.9666
▁យោបិ	-10.9666
តេយ្យ	-10.9668
ាទីនវ	-10.9669
▁និទ្ទិដ្ឋា	-10.967
មិច្ឆា	-10.967
▁រជ្ជុ	-10.9673
ចា	-10.9675
ាចយគាមិនាបចយគាមិ	-10.9675
▁សយម្ភូ	-10.9675
▁តទេកដ្ឋ	-10.9675
▁ភវន្តំ	-10.9676
មនុយុត្តោ	-10.9678
▁បដិបត្តិយា	-10.9679
▁អព្យាកតញ្ច	-10.9679
▁យោនិសោមនសិការ	-10.968
▁អនេន	-10.9681
▁១៧៣	-10.9681
និដ្ឋ	-10.9683
▁ពុជ្ឈន្តីតិ	-10.9683
▁សមន្នាគតត្តា	-10.9684
▁ឧស្សន្ន	-10.9684
▁បមាទោ	-10.9685
ទក្ខិណ	-10.9685
▁សុញ្ញតោ	-10.9686
▁ទ្វារេសុ	-10.9686
អារម្មណ	-10.9687
▁ពោធិសត្តំ	-10.9687
▁វិសយោ	-10.9687
▁ធម្មសេនាបតិ	-10.9687
▁កាមាវចរកុសល	-10.969
▁នាញ្ញ	-10.9693
▁អស្មា	-10.9694
▁បារាជិកស្ស	-10.9695
▁មនោវិញ្ញាណំ	-10.9695
▁អគ្គសាវកា	-10.9698
▁ចិត្តវិប្បយុត្ត	-10.9699
▁សេនំ	-10.9703
▁បត្ថនំ	-10.9703
ប្បវត្តិយា	-10.9703
▁និធិ	-10.9704
▁នន្ទិ	-10.9705
▁ពទ្ធោ	-10.9707
▁ឧបេក្ខាសហគតា	-10.9708
តេ។	-10.9708
▁ឧទ្ទិដ្ឋ	-10.971
▁ចរេយ្យ	-10.971
▁១៧២	-10.9712
▁បញ្ចវិធ	-10.9712
▁បិទហ	-10.9712
លោបោ។	-10.9716
▁យាបន	-10.9716
▁១៦៦	-10.9717
▁និរោធធម្ម	-10.9718
ាពាធ	-10.9719
ដោ	-10.972
លស	-10.9721
▁វេទនាក្ខន្ធ	-10.9721
▁បដិឃានុសយំ	-10.9723
▁អារម្មណតោ	-10.9723
ីធ	-10.9724
▁បុរា	-10.9724
▁គហបតយោ	-10.9724
រុឡ្ហ	-10.9724
ាច	-10.9728
ច្ឆិ	-10.9728
▁កលល	-10.9729
▁បច្ចវេក្ខិត្វា	-10.973
▁ភីតោ	-10.973
▁ទិដ្ឋា	-10.9733
▁បល	-10.9733
ាគត	-10.9733
▁កាសិ	-10.9734
▁ទុក្ខសច្ច	-10.9734
អវ	-10.9736
▁ឯកេកស្មិំ	-10.9737
បុរិម	-10.9738
ភាវោតិ	-10.9739
▁ឧយ្យាន	-10.974
▁សុត្តន្តោតិ	-10.974
▁ចោឡ	-10.974
▁អារម្មណេសុ	-10.9743
▁តី	-10.9744
យានិ	-10.9744
វាសំ	-10.9744
សង្ឃាទិសេស	-10.9745
▁ព្យត្ត	-10.9746
▁ឯកោបិ	-10.9747
ចន្ទន	-10.9747
ុបគ	-10.9748
វិធានំ	-10.9749
វុទ្ធិ	-10.975
គ្ឃនក	-10.9754
▁អនុភោ	-10.9755
សម្ភវោ	-10.9756
▁អញ្ញមញ្ញស្ស	-10.9759
ដ្ឋកថា	-10.976
▁គច្ឆន្ត	-10.9763
▁អកុសលេហិ	-10.9763
▁សិរី	-10.9763
▁វិហេឋ	-10.9768
▁បោត្ថក	-10.9769
▁ឧច្ចារ	-10.977
▁សតិំ	-10.9771
▁អសិត	-10.9772
▁ឃានាយតនញ្ច	-10.9773
▁ជន្តាឃរ	-10.9773
គណ្ហ	-10.9775
▁ឯកំសេន	-10.9775
▁គម្ភីរោ	-10.9776
បរាយណ	-10.9777
▁ឯត្ថេវ	-10.9777
សទ្ទានំ	-10.9779
▁ចោទេតិ	-10.9779
ដិ	-10.9781
បក	-10.9782
▁ឧគ្គហេត្វា	-10.9782
▁ទុក្ខោ	-10.9784
▁និទ្ទិសិតព្ព	-10.9784
▁ខុទ្ទ	-10.9785
▁១៧៨	-10.9785
▁បរិវត្តន	-10.9786
ហច្ច	-10.9787
▁បត្តចីវរំ	-10.9787
អគ្គិ	-10.9788
▁បារិបូរិយា	-10.9788
សំសារ	-10.9789
ិយតិ	-10.979
▁យំនូនាហ	-10.9792
▁អរណំ	-10.9792
ត្ថេរេន	-10.9794
▁ឧក្ក	-10.9795
▁កិលេសកាម	-10.9795
▁សាតំ	-10.9795
▁បោរាណក	-10.9798
វត្ថា	-10.98
ិត្ថី	-10.9801
វិទូ	-10.9804
▁រុ	-10.9805
▁កុសលមូល	-10.9805
គណា	-10.9806
▁ឧយ្យានំ	-10.9807
▁អម្ពដ្ឋ	-10.9807
▁កង្ខតិ	-10.9807
សិតា	-10.981
▁វេឡុរិយ	-10.9811
▁អនាសវា	-10.9811
មិត្តោ	-10.9813
▁ស្នេហ	-10.9814
▁សច្ឆិកិរិយាយ	-10.9814
គតស្ស	-10.9815
▁អាធារ	-10.9815
▁អនិយត	-10.9816
▁សកាយ	-10.9816
▁អាយត	-10.9816
▁បទត្ថ	-10.9817
▁បដិបជ្ជតិ	-10.9818
▁បិណ្ឌបាតិក	-10.9819
▁ផុដ្ឋោ	-10.9819
▁កាមវិតក្ក	-10.9819
ារហោ	-10.9821
▁១៧៥	-10.9821
ីកត	-10.9822
▁សោកបរិទេវទុក្ខ	-10.9823
▁វិរាគោ	-10.9823
▁ឥត្តរ	-10.9823
▁បវេទ	-10.9824
គមនេ	-10.9825
ប្បភវ	-10.9826
វិសុទ្ធិ	-10.9827
▁អទិដ្ឋ	-10.9827
▁មហព្ពលោ។	-10.9829
▁សង្ឃភេទ	-10.9829
សម្មាទិដ្ឋិ	-10.983
▁វោទាន	-10.983
▁បក្ខី	-10.9831
▁មនោទ្វារេ	-10.9831
វិភង្គោ	-10.9832
▁ទុល្លភ	-10.9833
▁សក្ការ	-10.9833
ធម្មេន	-10.9834
▁ឯត្តក	-10.9835
ករណវសេន	-10.9835
▁អនុបាទាយ	-10.9836
ខេត្ត	-10.9837
▁ភេ	-10.9837
ទារក	-10.9839
▁ឱសធ	-10.984
ុទ្ធារ	-10.9842
បណីត	-10.9842
▁ផុសេ	-10.9843
▁អាបត្តីតិ	-10.9844
យន្តីតិ	-10.9847
▁ព្យាករេយ្យ	-10.9848
▁ត្វម្បិ	-10.9849
▁បដិសញ្ចិក្ខតិ	-10.9849
▁ជាតេ	-10.985
សិលា	-10.9852
▁១៦៨	-10.9854
កថន	-10.9854
ាហុ	-10.9854
អបរ	-10.9855
▁អាយូហន	-10.9855
វិមាន	-10.9855
▁១៨៤	-10.9856
នាមោ	-10.9856
▁វត្តន្តិ	-10.9859
ឯកនវុតិ	-10.986
សំសន្ទន	-10.986
▁សព្ពាការេន	-10.9861
▁អាចយគាមិ	-10.9861
ថិ	-10.9868
▁ឱដ្ឋ	-10.9871
▁អភិណ្ហំ	-10.9871
▁យាចិត្វា	-10.9872
▁កាលង្កតោ	-10.9872
▁ន្ហាយ	-10.9872
▁មតា។	-10.9874
ទេសេ	-10.9875
▁អភិនិ	-10.9876
▁វិក្ក	-10.9877
▁និសេធ	-10.9879
ោភាស	-10.988
▁ឧព្ព	-10.988
▁សាវត្ថិ	-10.9886
សមុដ្ឋិត	-10.9886
▁អកំសុ	-10.9886
▁សុចរិតំ	-10.9887
▁សុភទ្ទ	-10.9887
បុព្ពក	-10.9888
▁អាសីវិស	-10.9889
▁អស្សោសិ	-10.989
▁វិរាគាយ	-10.9891
▁សុខុមំ	-10.9891
វិមានំ	-10.9894
▁បុរិសេ	-10.9896
▁ព្រហ្មេ	-10.9896
▁អាមស	-10.9899
▁កម្មនិ	-10.99
▁អាតុរ	-10.99
▁បដិគ្គហណ	-10.9902
▁ទេវទត្ត	-10.9902
ពិន្ទុ	-10.9909
▁សកលសរីរ	-10.9909
▁ក្រិយ	-10.991
ប្បករណ	-10.9911
▁ផស្សំ	-10.9912
▁គន្ថោ	-10.9912
វិសម	-10.9914
▁បូជិតោ	-10.9914
▁សម្បយោគ	-10.9916
▁អាវាស	-10.9918
ទាម	-10.9918
▁តុដ្ឋោ	-10.9921
▁គណ្ហិត្វា	-10.9922
ិកោ។	-10.9922
▁ហេតុនា	-10.9922
▁ទិព្ពំ	-10.9923
នាស	-10.9923
នីយោ	-10.9923
▁អារម្ភ	-10.9924
▁មុសាវាទា	-10.993
នមេវ	-10.9931
ឥច្ចាទិ។	-10.9932
▁វន្ត	-10.9932
▁អារញ្ញក	-10.9935
▁១៨១	-10.9935
សិខ	-10.9936
▁បច្ចត្ថិក	-10.9944
▁កនិដ្ឋ	-10.995
▁ទានេ	-10.9953
▁ទេវតាយ	-10.9954
▁សរាគ	-10.9954
▁បោក្ខរណី	-10.9954
▁ចុតស្ស	-10.9957
▁ឯឡកលោម	-10.9957
គុម្ព	-10.9961
▁ទុតិយស្ស	-10.9963
▁និក្ខមន្ត	-10.9964
▁ចន្ទិមា	-10.9965
ាធិប្បាយោ	-10.9966
ព្ភន្តរេ	-10.9967
▁ធោត	-10.9968
▁១៦៣	-10.9968
ានុរូប	-10.997
▁និព្ពានំ។	-10.9971
▁តុណ្ហស្ស	-10.9972
▁សមុច្ឆិន្ទ	-10.9972
▁ខគ្គវិសាណកប្បោ។	-10.9974
▁សង្ខ្យំ	-10.9974
▁បយោគោ	-10.9975
▁ឯតិ	-10.9975
▁ខយំ	-10.9977
▁សោតធាតុយា	-10.9977
▁និប្ផាទ	-10.9979
▁អដ្ឋន្នំ	-10.998
▁មិគា	-10.9984
វិចារ	-10.9986
ហេតុកំ	-10.9988
▁ចិត្តន្តិ	-10.9988
▁សូល	-10.9989
▁អាគតត្តា	-10.999
ិស្សន្តីតិ	-10.9996
▁កតា។	-10.9996
យោជនា	-10.9997
តតិយ	-11
បរិបុណ្ណ	-11
▁បគ្គណ្ហាតិ	-11.0001
មត្តិកា	-11.0002
នាទ	-11.0004
មំ។	-11.0007
▁សោឡសហិ	-11.0008
កោប	-11.0009
បាការ	-11.001
មូឡ្ហ	-11.0011
▁គន្ថសម្បយុត្ត	-11.0012
▁មរិយាទ	-11.0012
▁បាណា	-11.0013
▁អញ្ញាសិ	-11.0013
រាជស្ស	-11.0013
▁ឯកូនវីសតិ	-11.0015
▁វិសជ្ជ	-11.0017
▁ទិ	-11.0018
▁បូជំ	-11.0019
សំហិត	-11.002
▁អកុសលេ	-11.0021
▁សក្ការំ	-11.0023
▁សប្បច្ចយ	-11.0026
▁ខន្ធេសុ	-11.0027
▁នប្ប	-11.0028
▁សេវិតព្ពោ	-11.0028
▁អភូត	-11.0031
▁បញ្ចវីសតិ	-11.0031
▁សម្បជានមុសា	-11.0033
▁ឆាទេតិ	-11.0033
អប	-11.0034
▁មាតុកុច្ឆិ	-11.0034
ឥមាយ	-11.0035
▁បឋមមគ្គ	-11.0036
▁សីលសម្បន្នោ	-11.0036
ព្យត្ត	-11.0036
▁សម្មាអាជីវោ	-11.004
ូបសម	-11.0041
▁អធិដ្ឋានំ	-11.0045
បរិកម្ម	-11.0045
កណ្ហ	-11.0046
▁អបស្សន្តោ	-11.0047
▁អត្ថបដិសម្ភិទា	-11.0048
▁វិរម	-11.0048
▁អស្សមំ	-11.0049
ចារិ	-11.0049
▁សវ	-11.0049
សមាចារ	-11.005
▁គន្តព្ព	-11.0053
▁សមនុបស្ស	-11.0053
រម	-11.0054
ង្គុលិ	-11.0057
▁អត្ថង្គត	-11.0059
▁និយ្យានិកំ	-11.0059
▁អរហត្តេ	-11.0061
ទានេ	-11.0063
ហមស្មិ	-11.0063
▁សីតល	-11.0066
▁ពោជ្ឈង្គា។	-11.0066
▁វិវិច្ច	-11.0069
▁តត្ថាបិ	-11.0072
រត	-11.0073
េវាតិ	-11.0077
វស្សិក	-11.0077
▁ទ្វិន្នម្បិ	-11.0077
▁ឯត្តកេន	-11.0078
ាទីសុ។	-11.0078
សភាវំ	-11.008
▁ទោមនស្សសហគត	-11.0081
▁អនុស្សរតិ	-11.0081
ទានិ	-11.0082
▁តីសុបិ	-11.0084
វោហារោ	-11.0085
▁បារិវាសិក	-11.0085
▁អព្យាបជ្ជ	-11.0086
▁ឋិតំ។	-11.0086
▁បធានំ	-11.0088
ូបាយ	-11.0088
▁បដិលភិត្វា	-11.0088
ច្ឆន្ទ	-11.0089
កណ្ឌំ	-11.009
▁ឧបបន្នោ	-11.0091
▁ញាតីនំ	-11.0091
▁មហាវីរោ	-11.0091
▁ភុញ្ជិតុំ	-11.0093
▁ឆាយា	-11.0096
សមថ	-11.0099
កម	-11.0101
▁តីរំ	-11.0101
▁អនុប្បាទ	-11.0102
មោគ្គល្លាន	-11.0103
▁ញាតព្ព	-11.0104
▁ឯតាយ	-11.0105
▁ទត្វាន	-11.0106
▁អង្គុលិ	-11.0107
▁ថេរី	-11.0108
▁ចេតនាយ	-11.0109
បញ្ចកំ	-11.0113
▁ឧបាហនា	-11.0114
យមាន	-11.0115
ិកន្តិ	-11.0116
ន្តរា	-11.0117
ដ្ឋកថាយំ	-11.0117
ុនោ	-11.0119
ចេត	-11.012
▁ឥណ	-11.0123
▁វប	-11.0123
▁អគារ	-11.0123
▁វេទិយ	-11.0123
▁អាចយគាមី	-11.0123
▁លោកនាយកោ	-11.0123
▁យថយិទំ	-11.0123
▁ឧតុសមុដ្ឋានំ	-11.0123
បរិសំ	-11.0124
▁ទារកា	-11.0125
▁ភវន្តោ	-11.0125
▁អាសវវិប្បយុត្តោ	-11.0125
▁នុបលព្ភតិ	-11.0125
▁វាក្យំ	-11.0128
▁១៨០	-11.013
▁តមោ	-11.013
▁ឧបសំហរ	-11.013
▁១៧៧	-11.0133
▁វត្តព្ពោ។	-11.0133
▁សបត្ត	-11.0134
▁គហបតិបុត្ត	-11.0135
ង្គោ	-11.0136
▁ហនតិ	-11.0138
▁អរូបំ	-11.0139
▁បស្សេ	-11.0139
▁វគ្គា	-11.014
ាទីតិ	-11.0141
សុណ	-11.0142
ទាសិ	-11.0143
▁តុលា	-11.0144
ឥច្ចេតេ	-11.0144
▁ឯតម្បិ	-11.0145
▁មនាយតនញ្ច	-11.0148
▁យថេវ	-11.015
▁បកាសិតា។	-11.015
សន្និភ	-11.015
ពីជំ	-11.015
▁នាលំ	-11.0151
▁ឧទ្ទេសំ	-11.0151
▁វិញ្ញូនំ	-11.0153
▁ទុក្ខស្សន្ត	-11.0155
▁ករោន្តេន	-11.0155
▁មនាបំ	-11.0157
គញ្ឆិ	-11.0158
▁អប្បក	-11.0159
▁អារោបិត	-11.016
ប្បសង្គ	-11.0161
▁និរោធាយ	-11.0164
▁អានុភាវេន	-11.0165
តុម្ហេ	-11.0166
▁បព្ពជិំ	-11.0168
ាទិនោ	-11.0169
▁បរិហាយ	-11.0169
បដិភាន	-11.017
▁បវត្តន្តិ	-11.0174
▁វេសាលិយំ	-11.0174
▁តុយ្ហ	-11.0175
▁នកាមាវចរ	-11.0175
▁អនភាវំ	-11.0175
▁មនោរមា	-11.0175
▁ពុទ្ធវចនំ	-11.0175
▁វិភូត	-11.0182
▁សំវដ្ដ	-11.0182
▁ហោន្ត	-11.0182
▁សុលភ	-11.0183
▁សីលក្ខន្ធ	-11.0185
កិច្ឆ	-11.0186
▁គហិតេ	-11.0187
សតេ	-11.0188
▁បរិភុញ្ជិតព្ព	-11.0191
▁អភាវិត	-11.0192
េស្សន្តិ	-11.0193
▁សព្ពត្ថាតិ	-11.0194
▁នរូបាវចរ	-11.0194
▁ហន្ត្វា	-11.0196
▁១៨៣	-11.0196
▁គិហីនំ	-11.0197
▁មជ្ឈិមោ	-11.0198
▁លភេយ្យ	-11.0198
▁បជានន្តិ	-11.0198
បិយ	-11.0198
▁វត្តព្ពត្តា	-11.0199
ក្កម្ម	-11.02
បានំ	-11.0201
ធម្មេហិ	-11.0201
សូរិយ	-11.0202
▁ទុស្សីល្យ	-11.0202
ភាវាយ	-11.0206
មធុ	-11.0207
▁អកុសលញ្ច	-11.0207
ិស្សថ	-11.0208
យិត្ថ	-11.0208
▁លភតីតិ	-11.021
ចេ	-11.0212
▁គហេតព្ពំ	-11.0212
ិន្តិ	-11.0212
▁បុដ្ឋា	-11.0213
មង្គ	-11.0214
ទារ	-11.0214
▁ថិនមិទ្ធំ	-11.0215
▁តប្	-11.0217
▁គន្តព្ពំ។	-11.0218
▁អច្ឆិន្ន	-11.0218
សមុទាយ	-11.0221
ស្ម	-11.0222
ូនំ	-11.0223
នកាលេ	-11.0224
▁អទិន្នាទានា	-11.0225
▁អវស្សុត	-11.0225
▁អកតំ	-11.0226
▁មហាសត្តស្ស	-11.0226
▁អបស្ស	-11.0226
▁អារុយ្ហ	-11.0226
▁អន្តរន្តរា	-11.0226
▁មនោរមំ	-11.0227
▁សេសេសុបិ។	-11.0228
បដ្ឋាន	-11.0232
▁អាយតនំ	-11.0233
ទ្ទិ	-11.0234
ម្បី	-11.0236
▁ធរ	-11.0236
▁នាថ	-11.0237
▁គន្ធព្ព	-11.0238
▁គោចរោ	-11.0239
ដ្ឋានេសុ	-11.0241
▁និបន្នោ	-11.0243
▁វាយាម	-11.0244
▁សាខ	-11.0244
ាទិន្នអនុបាទានិយ	-11.0245
▁អយ្យា	-11.0245
▁ឯកក្ខណេ	-11.0248
▁ជនបទេ	-11.0249
យតេ	-11.0249
▁តិវិធេន	-11.0253
▁វិត្ថារិត	-11.0255
ឧបាទាន	-11.0257
▁សន្និធិ	-11.0259
▁វាតា	-11.0261
សទិសេ	-11.0262
បថវី	-11.0263
▁ពទ្ធា	-11.0263
▁រម្ម	-11.0264
▁និមន្ត	-11.0265
▁១៨២	-11.0267
តុ។	-11.0269
▁បលិពោធ	-11.0271
▁បាបិកា	-11.0272
រំសិ	-11.0272
▁សមាធិស្ស	-11.0273
▁ឋបិតោ	-11.0273
▁ទាសិ	-11.0276
លក	-11.0277
បរិទីបន	-11.0277
ុស្សទ	-11.0277
ចិត	-11.0278
វត្ថូសុ	-11.0279
▁អាមន្តេត្វា	-11.028
▁ពាហិរា	-11.0282
ក្លេស	-11.0283
▁វិនិច្ឆយំ	-11.0283
នីយេ	-11.0284
▁ភវិស្សន្តី	-11.0285
▁បរិគ្គហេត្វា	-11.0285
តាបិ	-11.0287
▁អច្ឆិន្ទ	-11.0288
▁អកា	-11.029
▁បរាមសតិ	-11.0293
បដិក្ខេប	-11.0296
▁សត្តធា	-11.0298
▁រូបន្តិ	-11.0299
▁បុព្ពកម្មំ	-11.0299
▁អារោចេសុំ	-11.0299
▁ឧត្តរាសង្គំ	-11.03
▁ទេតីតិ	-11.0301
▁តិណ្ណោ	-11.0301
▁អានាបានស្សតិ	-11.0304
▁បគ្ឃរ	-11.0304
ប្ផល	-11.0304
▁អានិសំសោ	-11.031
▁សង្គាម	-11.0311
▁បាបេត្វា	-11.0311
▁សោតិន្ទ្រិយំ	-11.0312
▁អាទិនា	-11.0312
ភូតានំ	-11.0314
▁កាយិកស្ស	-11.0315
▁ខយោ	-11.0316
▁ឥទ្ធិបាទា	-11.0316
មច្ច	-11.0317
▁អញ្ញេសុ	-11.0317
កម្មន្ត	-11.0318
វិឃាត	-11.0319
▁ឧភយំ	-11.0319
▁ចេតសិកោ	-11.0321
▁អសុទ្ធ	-11.0321
▁អន្ធការ	-11.0321
▁នហេតុញ្ច	-11.0322
ឃរំ	-11.0322
មានោតិ	-11.0323
ូបនិស្សយ	-11.0323
ាលិ	-11.0323
កូល	-11.0323
បណ	-11.0325
មណ្ឌិត	-11.0325
▁វត្តុ	-11.0326
បន្ថ	-11.0329
▁សយម្ភុ	-11.0329
▁បុព្ពចរិតាបទាន	-11.0329
▁នវម	-11.033
យុគ	-11.033
▁បេតំ	-11.0331
▁អាកង្ខមានោ	-11.0332
▁អត្តភាវំ	-11.0333
▁មុខតោ	-11.0333
▁ទិន្នា	-11.0333
▁អសញ្ចិច្ច	-11.0334
ាវសេស	-11.0335
▁បស្សាវ	-11.0337
ល្យ	-11.0338
▁បដិសង្ខា	-11.034
▁អត្តភាវោ	-11.0341
▁សញ្ជាន	-11.0346
ានមេវ	-11.0347
▁ណោ។	-11.0349
▁យាទិសោ	-11.0349
▁ឆឌ្ឌិត	-11.0352
វាទេ	-11.0352
សុញ្ញត	-11.0352
▁សម្មតិ	-11.0352
សស្សត	-11.0354
▁បព្ពតំ	-11.0356
វសន	-11.0356
▁មានស	-11.0357
តលំ	-11.0361
▁សិប្បំ	-11.0361
▁និមិត្តេ	-11.0363
▁ភវិតព្ពំ។	-11.0364
ាយា	-11.0368
▁អប្បមាណោ	-11.0368
▁រុចិរ	-11.0371
ាវសានេ	-11.0373
▁អថេកទិវសំ	-11.0381
▁ព្រហ្មុនា	-11.0382
▁ពហូបការ	-11.0383
▁វិសារទោ	-11.0383
▁ពជ្ឈ	-11.0383
▁ឥសយោ	-11.0384
▁កុញ្ជរ	-11.0384
វិហារី	-11.0384
ាធិប្បាយេន	-11.0384
ដ្ឋបន	-11.0384
▁ព្រូហ	-11.0385
▁ហេស្សតិ	-11.0386
▁១៩០	-11.0387
▁បកត	-11.0392
▁អវីចិ	-11.0395
វិបាកា	-11.0395
វចនីយ	-11.0395
ាភិសមយ	-11.0397
▁សម្មត	-11.0399
▁បដិប្បស្សទ្ធិ	-11.04
▁ចតុរង្គ	-11.0402
▁សមុទ្ទោ	-11.0404
▁អាគតោ។	-11.0406
ទរថ	-11.0407
▁ឥមមេវ	-11.0408
▁កាយានុបស្សនា	-11.0408
▁មហាកស្សប	-11.0409
មតំ	-11.0409
បរិច្ឆិន្ន	-11.041
▁នោចិត្តសមុដ្ឋាន	-11.041
▁ព្យញ្ជនំ	-11.0411
ខីណាសវ	-11.0412
▁១៧១	-11.0412
▁ភង្គា	-11.0413
មូ	-11.0414
▁និរុទ្ធ	-11.0414
▁សុទ្ធាវាសានំ	-11.0416
ត្ថិកោ	-11.0416
▁សព្ពញ្ញុតំ	-11.0417
សាធក	-11.0418
មត្តំ។	-11.0418
▁រូបាទីសុ	-11.042
▁ទេវិយា	-11.042
▁នានុសេតិ។	-11.0421
ាបេតីតិ	-11.0425
▁បាតុភូត	-11.0426
ជនន	-11.0427
▁នានត្តំ	-11.0427
▁បដិសន្ធិយំ	-11.0428
▁បរាមដ្ឋ	-11.0429
▁វចោ	-11.0431
▁វិវដ្ដូបនិស្សយ	-11.0434
▁អកិរិយ	-11.0435
▁អក្ខីនិ	-11.0436
▁កេវដ្ដ	-11.0437
▁យុញ្ជ	-11.0437
▁ឧបេក្ខាសហគត	-11.0437
▁ឧបបជ្ជន្តស្ស	-11.0439
កម្បន	-11.0439
▁អបុច្ឆិ	-11.0441
▁កំស	-11.0441
▁និវាសេ	-11.0442
▁ឧប្បន្នានំ	-11.0443
▁សាមិកោ	-11.0443
▁ហីនា	-11.0444
▁អទស្សនេ	-11.0446
▁ឥហ	-11.0446
▁ឯកាទសម	-11.0447
▁អការណ	-11.0447
▁ភិក្ខា	-11.0447
▁វុត្តេសុ	-11.0448
▁អភិញ្ញេយ្យំ។	-11.045
▁អបេត	-11.0452
▁សញ្ចេតនិក	-11.0453
▁សង្គាយ	-11.0456
▁ខីណា	-11.0457
ចក្ខូ	-11.0459
ិណ	-11.0459
▁វត្វាន	-11.046
▁ពិល	-11.0461
▁សម្ភវន្តិ	-11.0461
▁បរេសុ	-11.0462
សញ្ហិ	-11.0463
▁ឥច្ឆិតព្ព	-11.0463
▁មហានាគ	-11.0463
▁ឋបេន្ត	-11.0466
▁ករោតោ	-11.0469
▁អាលបន	-11.047
▁កថិតោ។	-11.0471
▁សំវណ្ណនា	-11.0476
▁អញ្ញាយ	-11.0476
▁កប្បតី	-11.0476
▁ពហូហិ	-11.0478
▁កុប្បតិ	-11.0483
ទូរ	-11.0486
លាពុ	-11.0486
▁វិនិធាយ	-11.0486
▁អជ្ឈភាសិ	-11.0486
▁ព្រហ្មុនោ	-11.0487
ក្ខោ	-11.0487
▁បរិហីន	-11.0487
▁តត្តក	-11.0488
▁បហីយន្តិ	-11.0488
អដ្ឋកថា	-11.0489
▁អរូបាវចរេ	-11.049
▁កតស្ស	-11.0491
▁សង្កេត	-11.0491
▁អធិបតិបច្ចយា	-11.0491
▁១៨៥	-11.0491
▁វុច្ចមាន	-11.0492
បតិត	-11.0493
▁កុលេសុ	-11.0501
▁អនោម	-11.0502
▁សារិបុត្តស្ស	-11.0502
▁គរុភណ្ឌ	-11.0503
▁សន្តប្ប	-11.0504
▁បក្កោស	-11.0504
▁ឧទកស្ស	-11.0505
▁សណ្ឋាន	-11.0508
កាមាវចរ	-11.0508
▁សតិសម្ពោជ្ឈង្គោ	-11.0508
▁សុខិតោ	-11.0509
▁តិខិណ	-11.0511
▁បុព្ពេនិវាសំ	-11.0514
▁បក្ខិ	-11.0514
▁គហណេ	-11.0518
បេតំ	-11.0521
មរណំ	-11.0521
▁សំវត្តន្តិ។	-11.0523
▁បារិ	-11.0526
▁រោគោ	-11.0526
▁ភិស	-11.0527
▁អារាធ	-11.0532
សំវរោ	-11.0532
▁លាភសក្ការ	-11.0532
▁អដ្ឋាន	-11.0532
ភាគេន	-11.0532
សណ្ឋិត	-11.0534
▁អាទ	-11.0534
▁អហេតុកា	-11.0534
▁កាតព្ពន្តិ	-11.0535
▁អមនាប	-11.0536
▁ឯកក	-11.0536
អលំ	-11.0537
១៨	-11.0537
▁នោអវិគត	-11.0539
វេល	-11.0539
កុច្ឆិ	-11.0539
រូបូបបត្តិយា	-11.0539
▁ទន្តា	-11.054
▁អារាមោ	-11.0541
▁អាវហ	-11.0541
▁សង្ខេបត្ថោ	-11.0544
▁ហិតំ	-11.0545
▁មុហុត្ត	-11.0549
▁សុខញ្ច	-11.0549
▁បាសាទិក	-11.055
▁បករណ	-11.0551
▁អាការេន	-11.0553
▁សុណោហិ	-11.0553
▁សេនាយ	-11.0554
▁រត្តោ	-11.0555
ភិក្ខូនំ	-11.0556
▁លភាមិ	-11.0557
យញ្ញ	-11.0559
▁អប្	-11.056
ភាគំ	-11.0561
▁អបរា	-11.0562
▁សមុដ្ឋានេន	-11.0562
ឆត្ត	-11.0564
វិរុទ្ធ	-11.0564
▁ជគ្គ	-11.0565
មាតុ	-11.0565
▁នោកិលេស	-11.0568
▁យោព្ពន	-11.0575
▁ទស្សិតា។	-11.0576
▁ពាលស្ស	-11.0577
▁សេវតោ	-11.0577
▁ភវង្គំ	-11.0578
▁ចេតិយេ	-11.0578
▁បនេសា	-11.0578
▁ភវរាគានុសយេន	-11.058
ត្ថរ	-11.058
▁បត្តស្ស	-11.0586
អហ	-11.0587
ិតព្ពតោ	-11.0587
▁មាតុគាម	-11.0587
▁ទិន្នេ	-11.0589
▁វទតីតិ	-11.0589
▁បស្សិ	-11.059
▁ផុសតិ	-11.0592
▁បោដ្ឋបាទ	-11.0592
▁វេទិតព្ពោតិ	-11.0597
▁សុញ្ញតំ	-11.0597
បញ្ហេ	-11.0597
ាទិភេទ	-11.0598
▁តត្រិទំ	-11.0598
▁មនាបោ	-11.0599
ភាវេនេវ	-11.0599
▁តត្ត	-11.0599
▁ទជ្ជ	-11.06
▁អភិសម្ពុទ្ធោ	-11.0601
▁បរិបក្ក	-11.0603
លក្ខណេ	-11.0604
▁សម្មាកម្មន្តោ	-11.0604
យានំ	-11.0605
បុព្ពង្គម	-11.0608
ទ្ធោ	-11.0609
សាសនំ	-11.0611
លគ្គ	-11.0612
▁គាវី	-11.0612
ហិត្វា	-11.0613
▁វេទេតិ	-11.0613
▁លព្ភន្តិ។	-11.0613
▁ព្រហ្មទត្តេ	-11.0614
សលាក	-11.0616
▁មហេសិនា	-11.0618
▁នោគន្ថ	-11.0618
▁អនបេក្ខ	-11.0618
បរិវត្ត	-11.0619
បរិវាស	-11.0619
ម្ពរ	-11.0621
▁បង្ក	-11.0621
ាបេន្តោ	-11.0624
ិត្ថ។	-11.0624
▁វិស្សជ្ជនំ	-11.0628
▁មគ្គក្ខណេ	-11.0628
ទស្សាវី	-11.0628
សោធន	-11.0628
▁១៨៩	-11.063
មណ្ឌប	-11.0632
▁អានុភាវ	-11.0633
▁សរស	-11.0635
កម្មា	-11.0637
▁លោកុត្តរោ	-11.0637
▁ថុល្លច្ចយស្ស។	-11.0639
▁បច្ចយេសុ	-11.0639
▁តេនេតំ	-11.0645
▁ទុដ្ឋុល្ល	-11.0646
▁វត្តតីតិ	-11.0651
▁រុច្ចតិ	-11.0652
▁គច្ឆន្តី	-11.0652
▁អប្បច្ចយ	-11.0653
▁បូជេត្វា	-11.0657
▁១៩៦	-11.0657
▁វាយោធាតុ	-11.0657
លិត	-11.0657
▁ចោទន	-11.066
▁សព្ពត្ថ។	-11.066
▁អនុស្សវ	-11.066
▁អាវស	-11.0661
▁១៨៦	-11.0661
▁បច្ចក្ខតោ	-11.0663
▁និវារ	-11.0664
▁បច្ចត្តំ	-11.0666
សង្កប្ប	-11.0667
▁វិធា	-11.0667
▁ជីរ	-11.0668
▁បដិក្ខេប	-11.0668
▁ញេយ្យ	-11.0668
▁ចារុ	-11.0669
▁និទ្ទេសេ	-11.0669
▁មយម្បិ	-11.0669
អញ្ញំ	-11.0677
និស្សយបច្ចយេន	-11.0678
▁ភវតណ្ហា	-11.0679
▁វចីភេទ	-11.068
▁ធជ	-11.068
▁អធិដ្ឋិត	-11.0681
▁សុទ្ធិក	-11.0682
▁វាឡ	-11.0684
▁សុខន្តិ	-11.0685
អត្តា	-11.0686
▁វីតរាគោ	-11.0686
▁យសំ	-11.0688
▁ឧបត្ថម្ភ	-11.0688
▁គិល	-11.069
▁សវិតក្កសវិចារំ	-11.0692
▁ហេតុទុក	-11.0692
វិន្ទ	-11.0693
▁ទស្សេសិ។	-11.0696
▁លិខ	-11.0696
សកុណ	-11.0696
ាគន្ត្វា	-11.0697
អនិច្ចំ	-11.07
▁អនេកបរិយាយេន	-11.07
▁ទេវទូត	-11.0701
វណ្ណនាយ	-11.0701
▁គិជ្ឈ	-11.0701
ប្បដិបន្ន	-11.0703
ការិ	-11.0703
▁និព្ពាយ	-11.0704
▁សត្តតិំស	-11.0704
▁បុញ្ញក្ខេត្តំ	-11.0705
▁ការេន្តេ	-11.0705
▁១៩១	-11.0706
▁ទ្វន្ទ	-11.0706
▁ជដា	-11.0708
▁ញេយ្យំ	-11.0708
▁អាយតនានិ	-11.0708
▁ឧបេតោ	-11.0709
▁យានំ	-11.0709
▁អនិយម	-11.071
▁រាជិនោ	-11.0714
▁កុសលេន	-11.0714
ិត្ត	-11.0714
▁បទា	-11.0716
▁អនេកេ	-11.0717
វីរិយំ	-11.072
ឋិត	-11.0722
▁យត	-11.0724
▁តិរច្ឆាន	-11.0724
ជ្ជា	-11.0725
▁ភូមិំ	-11.0726
ូន	-11.0727
▁ហោថ	-11.0728
▁សតីតិ	-11.0728
ចេតសិក	-11.0729
▁ទាយ	-11.0729
កស្សប	-11.073
េតព្ពា។	-11.073
▁សវិតក្កំ	-11.0731
▁អំស	-11.0732
▁ទិព្ពាយ	-11.0733
▁សិក្ខាបទេសុ	-11.0733
▁វត្ថុស្ស	-11.0735
កោធ	-11.0737
▁អគច្ឆ	-11.0737
▁ឯតាទិស	-11.0737
ធញ្ញ	-11.0739
▁រាជគហ	-11.074
▁វត្តព្ពេ។	-11.0741
មណ្ឌ	-11.0743
▁ធម្មតោ	-11.0744
▁ទន្តោ	-11.0745
▁ភេរិ	-11.0747
មប្ប	-11.0747
▁កុសលេ	-11.0747
▁ឥទមេត	-11.0748
▁ភទ្ទិយ	-11.0748
▁បរិក្ខិត្ត	-11.0749
▁អាបត្តាធិករណំ	-11.075
▁អច្ចយ	-11.075
▁តុស្ស	-11.0752
▁នានុសេន្តិ	-11.0753
▁ឥដ្ឋានិដ្ឋ	-11.0754
បត្តី	-11.0754
▁ហីនោ	-11.0755
▁អនវសេសតោ	-11.0756
ហិំស	-11.0757
គ្គា	-11.0759
សម្ភ	-11.076
▁វិប្បដិសារ	-11.0761
▁យសស្សិនោ	-11.0762
សទ្ធ	-11.0763
▁ការកោ	-11.0763
▁២០៧	-11.0763
សន្និស្សយ	-11.0764
គាមំ	-11.0764
ខីណា	-11.0764
▁បយុត្ត	-11.0764
▁បារុបិត្វា	-11.0765
▁ភិសិ	-11.0766
▁វិស្សជ្ជិត	-11.0767
▁សមុប្បន្ន	-11.0767
▁កាមគុណ	-11.0767
▁នហាយ	-11.0768
▁សម្បទាន	-11.0768
ជវ	-11.0769
▁ឆវ	-11.0771
▁តុសិត	-11.0771
▁អាគតា។	-11.0771
▁ហិរោត្តប្ប	-11.0772
▁អសមាហិត	-11.0774
▁អរហតា	-11.0775
សមន្នាគតោ	-11.0776
សេនោ	-11.078
សម្បយុត្តោ	-11.0782
▁ទុក្ខំ។	-11.0783
គតានំ	-11.0783
▁វិប្បសន្ន	-11.0784
▁អាបជ្ជេយ្យ	-11.0787
▁បជាននា	-11.0788
▁ចិត្តសម្បយុត្ត	-11.0789
▁និរោធសមាបត្តិ	-11.0791
▁បដិបន្ន	-11.0792
▁និច្ឆ	-11.0793
▁ហេតុបច្ចយ	-11.0793
▁តិយោជន	-11.0796
▁ឧបបជ្ជន្តី	-11.0796
តិអាទីសុបិ	-11.0799
▁បដិច្ឆន្នំ	-11.0799
ិតេន	-11.08
▁បរិក្ខយា	-11.0801
សកំ	-11.0802
▁បសុ	-11.0804
តស្មាតិហ	-11.0804
▁កថយ	-11.0805
▁នអរណ	-11.0809
▁តតោបិ	-11.081
▁យេសុ	-11.081
េវំ	-11.081
▁វុត្តស្ស	-11.0812
▁បញ្ចមោ។	-11.0812
▁អធិមុត្ត	-11.0813
▁អាទិម្ហិ	-11.0814
▁បដិគ្គហេតព្ព	-11.0814
▁បរិច្ចាគ	-11.0816
▁មិច្ឆត្តនិយត	-11.0817
▁វេឋ	-11.0818
ន្ទិ	-11.0819
នេក	-11.0822
▁ឧប្បជ្ជមានោ	-11.0824
▁បាបិមា	-11.0824
▁អសុរា	-11.0824
▁អនុសេតីតិ	-11.0827
សត្តាហ	-11.0827
▁អនុបស្សនា	-11.0829
▁អានីត	-11.083
▁បញ្ញបេតិ	-11.083
▁បញ្ចវិញ្ញាណ	-11.0831
▁ឯត្តកា	-11.0832
▁ការិយ	-11.0834
▁បរាភវ	-11.0834
▁សព្ពមេតំ	-11.0834
វាសិក	-11.0834
▁បញ្ញាយតិ។	-11.0834
▁សង្ឃិកំ	-11.0835
វិក្ខេប	-11.0835
▁ឋិតោ។	-11.0843
▁ចិន្តយ	-11.0844
▁អនុបសម្បន្នស្ស	-11.0846
▁បរិវជ្ជ	-11.0848
▁មហាព្រហ្មា	-11.0849
បញ្ញត្តិយា	-11.0851
▁ទទាតិ	-11.0853
▁អាសង្ក	-11.0854
▁អភិសង្ខារ	-11.0857
▁តិត្ថ	-11.0857
▁លប	-11.0858
វិនិច្ឆយោ	-11.0858
តត្តា	-11.0858
▁អណ្ឌ	-11.0859
▁១៩៣	-11.086
បរិយាបន្នា	-11.0862
អនុបាទានិយោ	-11.0862
▁សម្បន្នោ	-11.0862
▁បណិធាយ	-11.0862
▁ពោជ្ឈង្គេ	-11.0863
▁មោឃមញ្ញ	-11.0863
មុគ្គ	-11.0864
▁វោទានំ	-11.0865
▁លជ្ជី	-11.0866
▁ឧប្បជ្ជេយ្យុំ	-11.0866
▁ទារកេ	-11.0867
▁ឧទរ	-11.0867
▁អក្ខាហិ	-11.0868
▁សមាទហ	-11.0868
▁អនត្ថាយ	-11.0869
▁កុសីត	-11.087
មុត្តា	-11.087
▁តេភូមក	-11.087
ាភិមុខ	-11.0871
▁សម្ភូត	-11.0871
រូបស្ស	-11.0872
▁រញ្ជ	-11.0873
▁ទទាមិ	-11.0875
▁សុវិសុទ្ធ	-11.0875
▁អវិក្ខេប	-11.0876
▁អនភិរតិ	-11.0877
▁ភុ	-11.0879
វា។	-11.0879
អាចរិយ	-11.0882
▁ឧទ្ធត	-11.0882
▁បាទេន	-11.0885
▁ឯកវិធ	-11.0887
▁មុនិនោ	-11.0887
▁ពោធិំ	-11.0887
ភយា	-11.0887
ភាវតោតិ	-11.0888
▁ឧបលក្ខណ	-11.0889
▁ជនតំ	-11.089
▁ភណិត	-11.089
▁ឧក្ខេបនីយកម្មំ	-11.0893
១៤	-11.0895
▁អត្ថង្គមា	-11.0896
▁១៨៧	-11.0898
ថាម	-11.0899
▁គន្តុ	-11.0899
តថេវ	-11.09
▁ធីតរំ	-11.0901
▁អនេកវិធ	-11.0901
▁កតោ។	-11.0902
▁ចតុរស្ស	-11.0902
ទស្សនតោ	-11.0903
▁បារុប	-11.0904
▁អរិយសាវកស្ស	-11.0904
▁លភតេ	-11.0905
េយ្យុន្តិ	-11.0907
▁តព្ពិ	-11.0908
▁អានិសំសំ	-11.091
▁លេខ	-11.091
តវ	-11.091
▁១៩៥	-11.0911
ធិក	-11.0912
▁អាហដ	-11.0912
▁រជនីយ	-11.0914
▁បឋមាយ	-11.0915
មានាយ	-11.0916
▁សោមនស្សជាតោ	-11.0919
សំយោគ	-11.0919
មុច្ច	-11.092
▁ទិព្ពា	-11.0921
▁គាហាបេត្វា	-11.0921
ហន្ទ	-11.0923
▁ចតុរ	-11.0924
▁បវេសេត្វា	-11.0924
▁អាវាសា	-11.0924
▁តិទស	-11.0925
▁ហេតុផល	-11.0928
▁ឱប	-11.0928
▁ភាវេតីតិ	-11.0929
▁វុដ្ឋានំ	-11.093
▁ទុព្ពច	-11.0931
ធោវន	-11.0933
▁កិលន្ត	-11.0935
ោបមា	-11.0935
▁ទុព្ពណ្ណ	-11.0936
▁អនុរុទ្ធោ	-11.0937
▁កាយសំសគ្គ	-11.0937
▁សខ	-11.0937
ាទិក	-11.0938
▁គណស្ស	-11.094
▁សមន្តបាសាទិកាយ	-11.094
▁វដ្ដំ	-11.0942
▁ទូរតោវ	-11.0942
▁ទេន្តោ	-11.0943
ត្តិកេ	-11.0943
▁ពហិទ្ធារម្មណ	-11.0944
▁អត្ថង្គមោ	-11.0948
▁បរិក្ខេប	-11.0949
▁តថាគតា	-11.095
▁បវិសតិ	-11.095
▁កិលិដ្ឋ	-11.0954
វត	-11.0954
▁សព្ពញ្ញូ	-11.0955
▁និវេសនំ	-11.0957
▁ញាណសម្បយុត្ត	-11.0957
▁អជាន	-11.0958
តក្ក	-11.0958
▁ទុក្ខិតោ	-11.0958
▁ទណ្ឌំ	-11.0961
▁អាសីស	-11.0962
ទល	-11.0962
មលំ	-11.0964
▁សោកោ	-11.0965
សហស្សេហិ	-11.0968
▁ករិត្វាន	-11.0968
▁វុត្ថ	-11.0971
ារហំ	-11.0971
ចារោ	-11.0972
▁វិបាកធម្មធម្មោ	-11.0973
សាវកោ	-11.0973
▁បុនព្ភវោ	-11.0973
▁ឧបាស	-11.0973
▁វិភាវេតុំ	-11.0975
▁អលជ្ជិ	-11.0978
▁តទង្គ	-11.098
ារាមេ	-11.098
វិហារោ	-11.0981
▁អានន្តរិយ	-11.0983
▁ទសមំ	-11.0983
សង្ឃោ	-11.0985
និយា	-11.0987
▁សម្បដិច្ឆិត្វា	-11.0987
▁សច្ចេន	-11.0988
ាចរិយោ	-11.0992
▁ភុញ្ជេយ្យ	-11.0992
ជ្ជន	-11.0993
វស្សានិ	-11.0993
▁សកត្ថេ	-11.0994
ប្ផ	-11.0994
▁កដិ	-11.0994
ដ្ឋកថាយ	-11.0996
▁១៩៨	-11.0998
បេត	-11.1
▁បាសាទំ	-11.1001
▁អដ្ឋកថាសុ	-11.1001
▁សម្ពោធិ	-11.1002
▁បរិយេសិត្វា	-11.1003
ថោ	-11.1005
▁បឋមជ្ឈានំ	-11.1005
▁ភាសមាន	-11.1005
▁ឯតទេវ	-11.1009
១៦	-11.1012
▁ឆេក	-11.1015
ានុកម្ប	-11.1015
▁ទេវទត្តស្ស	-11.1016
ង្កុរ	-11.1019
▁មុសាវាទោ	-11.102
▁កុសុម	-11.102
និស្សរណ	-11.102
▁បេសិត	-11.102
ុបដ្ឋាន	-11.102
▁អន្តរាយ	-11.102
▁សមានំ	-11.1024
▁ឋានេន	-11.1024
▁ភិក្ខុសង្ឃ	-11.1025
▁អាបន្នា	-11.1026
▁មិន	-11.1027
▁ពុទ្ធសាសនេ	-11.1028
▁និរុទ្ធា	-11.1028
▁តិកបាចិត្តិយំ	-11.1028
សម្ពោជ្ឈង្គំ	-11.1028
▁អឃានកាន	-11.1028
▁ខាទនីយ	-11.1028
▁សុត្តន្តភាជនីយ	-11.1028
វីមំស	-11.1029
▁ឧភយម្បិ	-11.1029
▁បសយ្ហ	-11.1031
វិសារទ	-11.1031
▁អាគច្ឆន្តំ	-11.1032
▁២១៥	-11.1032
បរោ	-11.1033
▁តណ្ហាទិដ្ឋិ	-11.1036
▁កតបុញ្ញ	-11.1037
▁គច្ឆថ	-11.1037
▁គណ្ហន្តស្ស	-11.1042
▁រាជូនំ	-11.1044
▁មាតុគាមស្ស	-11.1045
▁បដិប្បស្សទ្ធ	-11.1045
▁អប្បិយ	-11.1046
▁លជ្ជិ	-11.1047
ដ្ឋានានិ	-11.1048
▁កាមតណ្ហា	-11.1049
▁វិជាយ	-11.1049
▁សព្រហ្មចារីនំ	-11.1049
▁កម្មន្តិ	-11.105
ន្តិអាទីនិ	-11.105
▁បច្ចុដ្ឋ	-11.1052
▁សម្ភវតិ	-11.1053
▁អញ្ញាតក	-11.1053
▁កាតព្ពា	-11.1054
▁អនុកម្បាយ	-11.1056
គល	-11.1057
▁បាណាតិបាតោ	-11.1061
▁វេទេហ	-11.1062
បរិក្ខិត្ត	-11.1065
▁ទិដ្ឋធម្ម	-11.1065
▁ហិរិ	-11.1067
មោចន	-11.1067
ូបមោ	-11.1068
វិប្បយុត្តបច្ចយា	-11.1071
▁សង្កម	-11.1071
▁ឈានានិ	-11.1071
▁អនាគាមិផល	-11.1072
▁បឋមស្ស	-11.1073
▁សំវាស	-11.1074
▁អរូបាវចរា	-11.1074
ាភិសង្ខារ	-11.1076
េស្សាមីតិ	-11.1079
▁ឯកទេសំ	-11.108
ភាវទស្សនត្ថំ	-11.1082
ទោមនស្ស	-11.1083
▁វោហារោ	-11.1084
▁អាសវក្ខយ	-11.1084
▁ឧបចិនន្តោ	-11.1084
▁តីហាការេហិ	-11.1084
▁អនាវិល	-11.1085
▁រសាយតនំ	-11.1085
នាមកា	-11.1085
▁សំវ	-11.1086
គុណេន	-11.1089
▁កុសលធម្ម	-11.1089
▁ជនិន្ទ	-11.109
▁អទាសិំ	-11.109
▁បុនព្ភវ	-11.1091
ុព្ព	-11.1092
▁អត្ថកាម	-11.1092
▁សញ្ញី	-11.1093
▁អភវ	-11.1095
▁១៩៤	-11.1095
▁១៨៨	-11.1096
▁២២០	-11.1096
មុខា	-11.1097
សទិសត្តា	-11.1097
▁វទាមី	-11.11
សត្តា	-11.1102
▁មីយ	-11.1103
▁បសាទេត្វា	-11.1103
▁សហាយក	-11.1104
ាគមោ	-11.1104
▁ហុត្វា។	-11.1105
សគ្គ	-11.1105
▁ភិក្ខុសង្ឃេ	-11.1106
▁ភម	-11.1112
▁អចិរ	-11.1113
ន្តរាយោ	-11.1115
▁ហត្ថបាសេ	-11.1116
ិត្ថិយោ	-11.1119
ពន្ធនេន	-11.1119
▁សម្មោទិ	-11.112
ទ្ធា	-11.1121
សូល	-11.1121
▁កប្បតិ	-11.1122
▁សមន្ត	-11.1124
ឈ	-11.1125
▁ទសម	-11.1128
▁អប្បដិឃ	-11.1128
▁បស្សថ	-11.1129
▁អាហារសមុដ្ឋានំ	-11.1129
▁កណ	-11.1129
▁បញ្ចក	-11.113
▁និយុត្តោ	-11.113
ជាតិក	-11.1131
ានីតិ។	-11.1132
▁ទេហ	-11.1132
ញ្ហេតំ	-11.1133
▁កុបិតោ	-11.1133
▁វាយាមោ	-11.1134
ហេវ	-11.1135
▁វិសទ	-11.1135
▁អាបជ្ជិំ	-11.1137
▁វេបុល្លំ	-11.1137
គន្តព្ព	-11.1137
▁១៩២	-11.1138
រាមោ	-11.1139
ុបាយ	-11.1139
▁ទិព្ពេហិ	-11.114
▁ឯតស្មា	-11.1144
សមាគម	-11.1145
▁សក្កោមិ	-11.1148
ិយ្យតិ	-11.1148
សីម	-11.115
▁អភិក្កន្តំ	-11.1151
▁ខិប្បមេវ	-11.1152
ិនោតិ	-11.1152
និយត	-11.1152
▁ការេសិ។	-11.1152
▁អារទ្ធវីរិយ	-11.1153
បាហំ	-11.1155
និក្ខេប	-11.1157
▁ភទ្ទេ	-11.1159
▁បទដ្ឋានំ។	-11.116
មនុស្សា	-11.1162
▁សុញ្ញតា	-11.1162
▁អទស្សនំ	-11.1166
▁បេសល	-11.1166
▁មហាជនំ	-11.1167
▁អារទ្ធោ	-11.1168
ទសក	-11.1169
ាមា	-11.117
▁គន្ធំ	-11.117
▁ចាល	-11.117
▁អាកាសំ	-11.1171
▁តិត្ថិយា	-11.1172
▁បុគ្គលេន	-11.1173
▁ចរិយា	-11.1177
▁អរូបី	-11.1178
▁តស	-11.1181
បច្ចុបដ្ឋានំ	-11.1183
▁សំវរំ	-11.1183
ត្វាន	-11.1184
▁វិប្បមុត្តោ	-11.1185
▁អាលោប	-11.1185
សញ្ញោជន	-11.1189
ទេហ	-11.1189
▁ភវិតព្ព	-11.1189
▁ចិត្តោ	-11.119
▁នុប្បជ្ជិស្សតិ។	-11.119
▁នទិ	-11.119
▁ឱសារ	-11.119
▁វេជ្ជ	-11.1193
▁មន្តា	-11.1194
▁យោជនំ	-11.1194
▁អារុប្ប	-11.1196
ាចយគាមិនាបចយគាមី	-11.1197
▁មហតិយា	-11.1197
▁តាតា	-11.1199
▁សមណធម្មំ	-11.1199
▁សន្និបតិត	-11.12
▁ឯវមត្ថោ	-11.12
▁ឧបដ្ឋហន្តិ	-11.12
▁ឋានមេតំ	-11.12
បត្ថនា	-11.12
គាថាវណ្ណនា	-11.1203
▁បុរេភត្តំ	-11.1203
▁ឥត្ថិបុរិស	-11.1205
▁២០៥	-11.1205
▁នុប្បជ្ជិស្សតី	-11.1208
▁ភវិស្ស	-11.1211
▁ជិ	-11.1211
▁មុតំ	-11.1212
▁សង្ខតា	-11.1214
ិទ	-11.1215
▁តេត្តិំស	-11.1216
▁ឧបដ្ឋិតា	-11.1217
▁អជ្ឈត្តារម្មណ	-11.1219
▁ផស្សា	-11.1219
▁បរិបាក	-11.1222
▁ខាទន្តិ	-11.1222
គាឡ្ហ	-11.1224
ជ្ឈាយ	-11.1224
▁ចេតោបរិយ	-11.1227
▁ស្វេ	-11.1229
▁មហាយសោ	-11.1229
សប្បិ	-11.1231
▁និយ្យានិក	-11.1231
ិតុកាមា	-11.1233
បាទោ	-11.1236
▁កសិ	-11.1236
េយ្យាសី	-11.1238
រាជានោ	-11.1238
មុទុ	-11.1238
▁និវត្ថ	-11.1239
▁ទ្វារេ	-11.124
▁សិទ្ធា	-11.1242
បុគ្គលោកាសា	-11.1242
▁ឯកេ។	-11.1242
បុរេក្ខារ	-11.1243
▁ទីបំ	-11.1243
▁វិភត្តោ	-11.1243
ាទិអត្ថ	-11.1246
▁សារម្ភ	-11.1246
▁និព្ពានន្តិ	-11.1247
▁រុន្ធ	-11.1247
▁អាវជ្ជនាយ	-11.1247
▁មាគធ	-11.1247
▁ថលេ	-11.125
▁ឱតិណ្ណ	-11.1251
និវិដ្ឋ	-11.1251
▁ចោរោ	-11.1252
១៧	-11.1253
▁សម្មស	-11.1254
▁ឧទាយី	-11.1255
▁កេសេ	-11.1255
កុសុម	-11.1255
▁ទវ	-11.1256
▁សទេវក	-11.1256
ាគារ	-11.1256
▁សមុដ្ឋិតំ	-11.1257
▁រោស	-11.1258
▁ភិក្ខុនីហិ	-11.1258
រជ្ជំ	-11.1259
▁យាចតិ។	-11.1259
▁វត្ថុកាម	-11.126
▁សមត្ត	-11.1262
▁ទ្វាសដ្ឋិ	-11.1265
▁តិរច្ឆានយោនិ	-11.1265
▁ចារ	-11.1266
▁គមិស្សាមិ	-11.1267
▁វូបសន្ត	-11.1268
▁បច្ចយានំ	-11.1268
▁អវិតក្កអវិចារំ	-11.127
▁សន្តិកា	-11.1271
▁កាមោ	-11.1272
បទវណ្ណនា	-11.1273
យោបិ	-11.1273
▁យាតិ	-11.1274
▁កល្យាណំ	-11.1274
▁តថាគតពលំ	-11.1275
▁ឧភោសុ	-11.1276
▁អសទ្ធម្ម	-11.1276
▁សម្ពោធ	-11.1278
▁គហិតំ។	-11.1278
▁អនេកេហិ	-11.128
▁បត្តចីវរ	-11.1282
▁សក្យបុត្ត	-11.1282
គុណោ	-11.1283
▁កស្សបស្ស	-11.1283
▁ធម្មាយតន	-11.1283
វិនិច្ឆយកថា	-11.1284
▁ភា	-11.1285
▁សិទ្ធោ	-11.1286
▁២០៦	-11.1286
មិធ	-11.1287
▁គាមន្តរ	-11.1288
អតិ	-11.129
▁ករិ	-11.1291
▁យថាសុខំ	-11.1291
▁ទណ្ឌក	-11.1292
▁កថេតិ។	-11.1292
▁អាវាសំ	-11.1293
▁រសេ	-11.1293
▁អារោបេ	-11.1293
▁អទិស្វា	-11.1294
▁បាសាទេ	-11.1297
▁និស្ស	-11.1299
វសី	-11.1302
▁អនុបាទា	-11.1302
▁សេនាសនានិ	-11.1302
យាវតា	-11.1303
▁ញាតកា	-11.1305
▁ពិម្ពិសារ	-11.1311
▁បាបកេ	-11.1315
▁ទាយកោ	-11.1316
មារុយ្ហ	-11.1316
វិសេសេន	-11.1317
▁ចតុប្បទ	-11.1318
▁វិជ្ជតីតិ	-11.1319
▁២០៩	-11.132
▁អាពាធោ	-11.1321
▁អជានិត្វា	-11.1321
គាមោ	-11.1321
▁អនុយុត្តោ	-11.1322
▁គច្ឆន្តា	-11.1324
▁អត្ថេសុ	-11.1325
▁បីណ	-11.1325
▁បច្ឆិមេ	-11.1326
មោ។	-11.1327
▁អក្កម	-11.1328
▁សំសារោ	-11.133
តេសុ	-11.1334
▁សត្តមា	-11.1337
េកោ	-11.1337
▁ផុល្ល	-11.1338
▁កាយទុច្ចរិត	-11.1341
▁បិតរា	-11.1341
ន្តស្សាតិ	-11.1342
▁គណ្ហេយ្យ	-11.1342
▁អភិមុខ	-11.1342
ណ្ឋ	-11.1344
▁បតិដ្ឋ	-11.1345
នាយក	-11.1346
▁ចក្ខាយតន	-11.1346
▁អភិនិវេស	-11.1349
បករណ	-11.135
▁ឆេទ	-11.135
▁វស្សសតំ	-11.135
មត្តេនេវ	-11.135
បរក្កម	-11.135
ទស្សនោ	-11.1355
▁អប្បេកច្ច	-11.1355
▁សារជ្ជ	-11.1355
▁វិមុត្តំ	-11.1359
▁អធិមុច្ច	-11.1359
▁សកទាគាមិផល	-11.136
▁បាទេហិ	-11.136
▁វីរិយារម្ភ	-11.1363
ឃដនា	-11.1364
▁ខាយ	-11.1364
▁សរទ	-11.1367
▁សប្បាណក	-11.1368
មញ្ជ	-11.1368
▁ឱរុយ្ហ	-11.1369
▁វីណា	-11.1375
▁និគណ្ឋ	-11.1375
▁២០០	-11.1375
▁សស្សតោ	-11.1375
▁ភគ្គ	-11.1376
▁វិជយ	-11.1377
▁មុត្តំ	-11.1378
ព្រវិ	-11.1378
វេក្ខ	-11.1378
▁ញត្តិយា	-11.1381
▁ឱទន	-11.1382
▁អារោចេត្វា	-11.1383
បុរំ	-11.1383
បរាមាសវិប្បយុត្ត	-11.1383
ទាយកត្ថេរស្ស	-11.1383
គ្គហ	-11.1384
▁បតិដ្ឋាតិ	-11.1384
▁ទិដ្ឋានុសយ	-11.1385
▁ករោន្ត	-11.1387
▁គុណវ	-11.1387
▁ន្ហារុ	-11.1389
ន្តេ។	-11.1389
រូបជីវិតិន្ទ្រិយ	-11.1392
គន្តុ	-11.1394
▁បមុទិត	-11.1395
ិតានំ	-11.1396
ាមិស	-11.1396
▁សោយេវ	-11.1396
▁បាដិទេសនីយ	-11.1397
▁ជាតិបច្ចយា	-11.1398
▁អជ្ឈត្តិកា	-11.1398
ប្បភា	-11.14
▁អភិសមយ	-11.14
▁អបរិមាណ	-11.1401
ចរិយំ	-11.1402
▁អជ្ឈាវស	-11.1402
▁កុមុទ	-11.1404
▁បញ្ចសតា	-11.1405
▁អសម្មោហ	-11.1405
▁ឧបសន្ត	-11.1407
▁២១៣	-11.1407
តវេ	-11.1408
▁ភាវន	-11.141
▁សប្បដិឃ	-11.1411
ដា	-11.1412
អគ្គ	-11.1414
មថ	-11.1415
▁ឧទានេសិ	-11.1416
ោកាសោ	-11.1417
អរូប	-11.1418
▁ឧប្បជ្ជតី	-11.1418
▁អាគច្ឆេយ្យ	-11.1419
▁និវាសន	-11.1419
▁ទុក្ខិត	-11.1419
▁ថន	-11.1421
វិគត	-11.1423
▁អទ្ទ	-11.1423
ាទីនន្តិ	-11.1423
▁នច្ចគីត	-11.1426
ទម	-11.1428
វាសេ	-11.1428
▁សល្លប	-11.1429
▁បរិភុត្ត	-11.1429
▁វិហញ្ញ	-11.1429
▁លោកស្មិ	-11.1429
ឥរិយាបថ	-11.143
ប្បតិដ្ឋ	-11.1431
និគ្គហ	-11.1432
▁ឧបក្កិលេស	-11.1432
ទ្វាទស	-11.1432
▁អបច	-11.1433
▁អសទិស	-11.1434
▁អាភុជិត្វា	-11.1434
សង្គីតិ	-11.1434
▁ចេតសិកា	-11.1434
▁ចេតោសម្ផស្សជ	-11.1435
▁២៣៨	-11.1435
▁២២៨	-11.1438
▁២១៨	-11.1438
សទ្ទោ។	-11.1439
▁ពិន្ទុ	-11.144
យាចន	-11.144
▁បដិសល្លាន	-11.1441
វិប្បយុត្តចិត្ត	-11.1441
▁នវហិ	-11.1442
▁សិក្ខិតព្ពំ	-11.1443
▁អារាមេ	-11.1447
▁អហន្តិ	-11.145
▁ភោតិ	-11.1453
▁កុម្ភការ	-11.1453
▁អង្គជាតំ	-11.1454
▁និរវសេស	-11.1454
▁តិលោក	-11.1455
▁ភុម្ម	-11.1456
▁កបិ	-11.1457
▁តទនុរូប	-11.1457
▁វាណិជា	-11.1459
▁បដិគ្គហិតំ	-11.1461
វត្ថុកថាវណ្ណនា	-11.1461
▁ចេតិយស្ស	-11.1465
▁២៣៤	-11.1466
▁២៣៦	-11.1466
ាធិការ	-11.1466
▁អភិនីហារ	-11.1469
▁បិបាស	-11.1469
▁អបរិសុទ្ធ	-11.1469
▁ធម្មិយា	-11.147
ាបេតព្ព	-11.147
▁មុច្ឆ	-11.147
ចិត្តានំ	-11.1472
▁ទិដ្ឋិគតិក	-11.1472
▁ព្យសន	-11.1474
▁ចតុត្ថោ។	-11.1475
▁ឧឡារំ	-11.1476
▁ទុក្ខនិរោធោ	-11.1477
១៩	-11.1478
▁ញត្តិ។	-11.1479
▁ពលវតរ	-11.148
▁វស្សិកសាដិក	-11.1481
▁១៩៧	-11.1481
▁វទាមីតិ	-11.1481
កូជ	-11.1481
▁ឧច្ចាវច	-11.1484
▁អភិធម្មភាជនីយ	-11.1484
▁អនញ្ញសាធារណ	-11.1485
▁ឧបជ្ឈាយស្ស	-11.1486
▁ចីវរបិណ្ឌបាត	-11.1486
▁វិទិតោ	-11.1487
▁និបាតមត្តំ។	-11.1487
▁សំវត្តន្តី	-11.1487
ឧទ្ធ	-11.1488
ស្សាមិ	-11.1488
ដ្ឋេន។	-11.1491
បុញ្ជ	-11.1492
▁ទុម្ម	-11.1492
▁បឋមតរំ	-11.1494
▁និរោធេ	-11.1495
▁កុមារក	-11.1497
សូចិ	-11.1497
▁សមុដ្ឋានាទីនិ	-11.1498
នយោ។	-11.1498
▁ផោដ្ឋព្ពា	-11.1499
សច្ចបរិយោសានេ	-11.1499
▁ធម្មតា	-11.1499
▁ហទយេ	-11.1502
សីត	-11.1503
▁សារាគោ	-11.1503
វិវាទ	-11.1503
▁វទេយ្យុំ	-11.1505
បល្លវ	-11.1505
▁សព្ពថាបិ	-11.1506
▁សន្តីរណ	-11.1506
▁កម្ពល	-11.1509
សំកិលេសិក	-11.1509
▁ភត្តុ	-11.151
▁២១០	-11.1511
សារោ	-11.1514
▁រតនានិ	-11.1514
▁រុក្ខមូល	-11.1515
▁ឧបសម្បទំ	-11.1516
ភគ្គ	-11.1519
▁២០៣	-11.152
▁២១៦	-11.1521
វិសេសោ។	-11.1521
▁កាមធាតុ	-11.1521
▁ធារេន្តិ	-11.1524
▁២៤៣	-11.1527
▁អបុព្ពំ	-11.1527
▁នីត	-11.1528
▁និរុជ្ឈ	-11.1528
▁កច្ឆ	-11.153
ផលា	-11.1532
ហាស	-11.1532
▁ឧបមាយ	-11.1537
មណ្ឌលេ	-11.1537
▁ជានិតព្ពំ	-11.154
ំសុ។	-11.154
▁សីលាទិ	-11.1542
▁បដិបន្នា	-11.1543
▁និរោធសមាបន្ន	-11.1543
▁សមេ	-11.1544
▁កាមូបសំហិតា	-11.1544
ឃំ	-11.1545
▁សង្ខារុបេក្ខា	-11.1545
▁ជានាថ	-11.1546
▁វចនត្ថោ	-11.1546
▁បដ្ដ	-11.1546
▁តេរសម	-11.1548
▁នេត្តិ	-11.1548
▁វិបាកានំ	-11.1551
▁យោជេតព្ពា។	-11.1551
▁២០៨	-11.1552
▁បាតិមោក្ខសំវរ	-11.1552
▁២៣៧	-11.1553
▁តាវតិំស	-11.1556
ិកោតិ	-11.1557
តុល	-11.1557
▁វិរតោ	-11.1558
▁បំសុកូលិក	-11.1564
ព្យាករណ	-11.1565
លាភោ	-11.1567
▁ចិណ្ណ	-11.1567
▁សព្ពធិ	-11.1569
សុំ	-11.157
ិយំ។	-11.1572
ពោធិសត្ត	-11.1573
▁បរិមណ្ឌល	-11.1573
▁អន្នបាន	-11.1573
▁សិក្ខេយ្យ	-11.1577
▁ទាតព្ពា	-11.1578
ហិ។	-11.1579
ទុដ្ឋ	-11.1581
▁អាគមនំ	-11.1583
ន្ថ	-11.1583
▁សំយុត្ត	-11.1584
▁វិចិកិច្ឆាយ	-11.1585
▁កប្បោ	-11.1585
▁ឧប្បាទិត	-11.1586
សាខា	-11.1586
▁ចញ្ញេ	-11.1586
▁តុវ	-11.1586
▁២៣៣	-11.1587
▁និរន្តរ	-11.1587
▁អហិត	-11.1587
▁បមុខ	-11.1588
បច្ចយស្ស	-11.159
▁ជលំ	-11.1595
▁ឧបចយោ	-11.1595
▁បាបេ	-11.1597
▁លោ	-11.1598
▁តេនស្ស	-11.1599
▁សម្បយុត្តស្ស	-11.16
▁កុណ្ឌល	-11.1601
▁ឥតរស្ស។	-11.1602
▁មហិទ្ធិកោ	-11.1602
▁អប្បីតិក	-11.1603
▁តថារូបំ	-11.1604
េមីតិ	-11.1604
▁យោជិត	-11.1605
▁សព្ពកិលេស	-11.1607
យិំសុ។	-11.1607
▁សុចរិត	-11.1608
ានោ	-11.161
▁បរិគ្គណ្ហ	-11.161
ាភរណ	-11.161
▁យោគិនោ	-11.1611
▁មច្ចុនោ	-11.1614
ុច្ច	-11.1614
លង្ការ	-11.1614
▁២១៩	-11.1614
▁អរូបភវ	-11.1615
ភាជ	-11.1616
▁អព្យាបាទ	-11.1617
យតី	-11.1618
សល្លក្ខណ	-11.1618
សោតាបត្តិផលាទីនិ	-11.1619
▁កិំការណា	-11.162
រិយា	-11.1624
▁ក្រិយត្ថា	-11.1628
▁អនេកានិ	-11.1628
▁១៩៩	-11.1629
▁វិន្ទតិ	-11.1629
កម្មំ។	-11.1629
▁កម្មារ	-11.1631
▁ជលិត	-11.1634
▁សម្បជ្ជ	-11.1634
▁អញ្ញតិត្ថិយា	-11.1634
▁វិវទ	-11.1636
▁ជីវក	-11.1637
▁អស្សំ	-11.1637
▁នេរយិក	-11.1637
▁បច្ចវេក្ខ	-11.1639
▁លោកិយោ	-11.164
▁ឧន្នត	-11.1642
▁បញ្ចទស	-11.1642
▁សុរាមេរយ	-11.1643
▁បាយាសិ	-11.1644
▁ឥមិនាបិ	-11.1644
▁បសីទតិ	-11.1646
▁បហារំ	-11.1646
▁នាមគោត្ត	-11.1647
▁រម្មេ	-11.1648
▁ឧយ្យោជ	-11.1651
គរុក	-11.1651
▁វច្ច	-11.1651
េយ្យោ	-11.1652
▁យសស្សិ	-11.1652
▁បច្ចេកសម្ពុទ្ធោ	-11.1653
▁២០៤	-11.1655
▁កប្បំ	-11.1655
▁រាជកុល	-11.1656
▁គុណោ	-11.1656
▁ភាវេន	-11.1657
មេតំ។	-11.1657
▁វិរុជ្ឈ	-11.1658
▁អព្ភា	-11.1659
▁កយវិក្កយ	-11.1661
▁អារោប	-11.1661
▁មហីបតិ	-11.1662
ានុបស្ស	-11.1662
▁នប្បជហតិ។	-11.1662
▁និស្សរណញ្ច	-11.1662
▁បទហ	-11.1665
▁ភយានក	-11.1665
▁ហាយ	-11.1665
▁បរិក្ខិបិត្វា	-11.1667
▁នាមានិ	-11.1667
លង្ក	-11.1668
▁អារភិ។	-11.1668
▁បុញ្ញកម្មេន	-11.1668
▁បញ្ចវោការានំ	-11.1668
▁នារិយោ	-11.1668
▁វិភាគ	-11.1671
▁កុដ	-11.1673
យោជនំ	-11.1674
សរូប	-11.1676
▁ឧស្សុក្កំ	-11.1676
▁ឃដេត្វា	-11.168
▁និព្ពានាយ	-11.168
ចេតនាយ	-11.1683
វិមុត្តិញាណទស្សន	-11.1685
▁អយោនិសោមនសិការ	-11.1686
វស្សោ	-11.1687
▁អវិតក្កំ	-11.1687
ិកំ។	-11.1687
▁បណិធីតិ	-11.1687
▁តន្	-11.1687
▁វិគ្គហ	-11.1687
▁២០១	-11.1688
▁នីវរណសម្បយុត្ត	-11.1689
▁បេសេសិ។	-11.169
ភាវញ្ច	-11.169
សម្មត	-11.1691
▁អជានន្ត	-11.1693
▁សព្ពទុក្ខ	-11.1693
▁បញ្ញាបន	-11.1695
▁សមិទ្ធ	-11.1695
▁ឥត្ថ	-11.1699
ាវជ្ជន	-11.17
ថុ	-11.17
▁ទាតព្ពោ។	-11.17
ារុឡ្ហ	-11.17
សមុដ្ឋានោ	-11.1701
បណិហិត	-11.1702
▁បសវតិ	-11.1702
ហេតុទុកំ	-11.1703
▁អធិកំ	-11.1704
▁បតិរូប	-11.1706
▁ភាវនាមយ	-11.1706
▁កាយា	-11.1707
▁យតិ	-11.1708
ហាការេហិ	-11.1709
យោគា	-11.1709
▁ទានេន	-11.1709
▁អាទាន	-11.171
▁អបទានេ	-11.171
សង្ឃស្ស	-11.1711
▁សោតវិញ្ញាណ	-11.1714
▁នប្បជហន្តិ	-11.1714
វិសយំ	-11.1715
ប្បមាណា	-11.1716
▁និដ្ឋិតា	-11.1716
▁អនោត្តប្បំ	-11.1716
▁សព្ពសង្ខារ	-11.1717
▁អរូបាវចរានំ	-11.1717
▁២១៤	-11.1717
▁អគមំសុ។	-11.172
▁អគ្គិវេស្សន	-11.172
▁បវុច្ចតី	-11.172
▁២១២	-11.1721
▁២២៤	-11.1723
វច	-11.1723
▁វិចរន្តិ	-11.1723
▁ឧភិន្នម្បិ	-11.1723
▁បសារេត្វា	-11.1724
▁នោឧបាទាន	-11.1724
លង្កត	-11.1725
▁គន្ធកុដិ	-11.1725
▁ចីវរេន	-11.1726
បរិយាបន្នំ	-11.1726
▁សមថា	-11.173
▁ធម្មវិចយោ	-11.1731
និបាតោ	-11.1732
▁អាចរ	-11.1733
▁សាណ	-11.1733
▁អាទាស	-11.1735
▁និទ្ទ	-11.1736
▁អសោក	-11.1736
▁កុសលចិត្ត	-11.1736
▁សព្ពនាម	-11.1739
▁ទក	-11.174
▁មហិ	-11.174
▁ឧបសន្តោ	-11.1742
▁យាចតិ	-11.1742
▁មញ្ញេយ្យ	-11.1744
សុំ។	-11.175
បរិគ្គហោ	-11.175
ន្ទ្រិយ	-11.175
▁សិយន្តិ	-11.175
▁ឋិតេន	-11.1751
▁សមូហតា	-11.1751
▁ទីបិតា	-11.1752
ញ្ញេ	-11.1752
▁មោហា	-11.1752
▁ទីបេន្តិ	-11.1753
យុគំ	-11.1754
▁២១១	-11.1754
▁ចីវរានិ	-11.1754
សំវាស	-11.1755
▁ខាទិត្វា	-11.1755
▁សមាបជ្ជិ	-11.1759
យោគ្គ	-11.1763
គត្ត	-11.1763
▁សារម្មណ	-11.1763
▁និទ្ទិដ្ឋោ	-11.1765
▁ឯវរូប	-11.1765
▁២០២	-11.1766
ប្បត្តិ	-11.1767
▁ឧបការក	-11.1769
▁យថាវុត្តំ	-11.1771
▁ចតុព្ពិធោ	-11.1773
▁អភិញ្ញេយ្យំ	-11.1773
ុនា	-11.1774
▁២៣២	-11.1775
▁ឌ	-11.1777
▁នាឡិ	-11.1778
ភុជ	-11.178
▁សឡាយតនំ	-11.178
ាភាវោ	-11.178
▁ភិន្នា	-11.1781
▁ឃម្ម	-11.1781
▁ឥទម	-11.1781
▁បាទមូលេ	-11.1782
ាទិវណ្ណនា	-11.1783
▁វុសិតំ	-11.1783
▁ឥតីតិ	-11.1784
▁មជ្ឈិមំ	-11.1784
▁ឧប្បតិត្វា	-11.1784
▁ភវេយ្យាតិ	-11.1785
▁ពាហិយ	-11.1786
▁ឧបាហន	-11.1786
វុដ្ឋិ	-11.1788
▁២៣០	-11.1789
សន្តោ	-11.1792
បដល	-11.1793
▁សាមញ្ញតោ	-11.1793
▁មាតង្គ	-11.1795
▁អវេក្ខ	-11.1797
▁មហន្តេន	-11.1798
▁២២៥	-11.1803
១៥	-11.1803
▁សីហនាទ	-11.1803
▁សមុទាចរ	-11.1805
ឧទ	-11.1805
▁សិង្គ	-11.1806
សព្ភាវតោ	-11.1807
ធាន	-11.1807
▁បិហិត	-11.1808
▁អតីតោ	-11.1808
▁ជីយ	-11.1809
▁អភិរម	-11.1811
▁អាគតោតិ	-11.1811
ត្តេបិ	-11.1812
▁ទណ្ឌេន	-11.1813
បកត	-11.1813
ឧច្ច	-11.1814
▁សមណព្រាហ្មណានំ	-11.1817
▁និរោធសច្ចំ	-11.1817
▁អត្ថោតិ	-11.1817
វិវិត្ត	-11.1818
អធម្ម	-11.1819
▁អបរម្បិ	-11.1819
▁កាកោ	-11.1819
ាទិភាវេន	-11.1821
▁អនូន	-11.1822
▁វិទិត	-11.1824
ប្បទេសេ	-11.1824
▁អបរាធ	-11.1825
▁ផុដ្ឋស្ស	-11.1826
េយ្យុ	-11.1827
▁មន្ទោ	-11.1827
▁បដិក្ខេបោ	-11.1828
▁២២២	-11.1829
▁២២៦	-11.1831
▁កម្មវាចាយ	-11.1832
▁វិមុត្តិយា	-11.1834
▁ឋបេសិ	-11.1835
ទ្ធជ	-11.1836
▁ហន្តិ	-11.1837
▁វិញ្ញាតព្ពោ	-11.184
▁គុន្នំ	-11.1841
▁ធម្មសភាយំ	-11.1841
▁អគមាសិ	-11.1841
ចត្តារិមានិ	-11.1845
▁វិជានាតិ	-11.1845
ិន្ទោ	-11.1846
▁វិនោទេ	-11.1846
▁អប្បវត្ត	-11.1847
▁អរោគោ	-11.1847
ទិដ្ឋី	-11.1849
▁ឧទាហរណ	-11.185
▁អាជីវក	-11.185
ហុត	-11.1851
▁វិញ្ញាណេ	-11.1852
▁ភណន្តិ	-11.1852
▁២២៩	-11.1852
▁២១៧	-11.1854
▁ទោសស្ស	-11.1855
▁មគ្គសច្ចញ្ច	-11.1855
▁នទតិ	-11.1855
▁សេនាសនេ	-11.1855
កម្មិក	-11.1856
▁វិកិរ	-11.1859
▁ការុញ្ញ	-11.1861
▁ឧបាទារូបំ។	-11.1863
▁អាតប	-11.1863
គមនេន	-11.1863
▁ហញ្ញ	-11.1863
វណ្ណេន	-11.1864
▁វិព្ភម	-11.1865
▁គតិំ	-11.1867
▁ធុន	-11.1867
▁ឯត្តកមេវ	-11.1868
▁អារុឡ្ហ	-11.1869
ន្តេវ	-11.187
បាមោក្ខ	-11.1871
▁អហិតាយ	-11.1871
ច្ចេវ	-11.1872
ិស្សរោ	-11.1874
▁ទដ្ឋុំ	-11.1877
▁លេណ	-11.1878
▁បុរេជាតំ។	-11.1878
▁២២១	-11.1879
និទ្ទិដ្ឋ	-11.1879
យ្យា	-11.1879
▁យោជេតព្ពោ។	-11.188
ឯកោ	-11.1881
▁អាភតំ	-11.1882
▁កុដិំ	-11.1882
ិសុ	-11.1886
▁បាទេសុ	-11.1887
▁កីទិសំ	-11.189
▁អន្ធការេ	-11.1891
▁វិសេសនំ	-11.1891
▁អប្បមត្តា	-11.1892
▁មូលានិ	-11.1892
▁សាវកេ	-11.1893
▁បីតិសម្ពោជ្ឈង្គ	-11.1894
▁២២៣	-11.1896
▁ទស្សនីយ	-11.1897
▁ចិន្តា	-11.1898
វោហារេន	-11.1899
▁យាវតតិយំ	-11.1901
▁នប្បដិ	-11.1901
នេតំ	-11.1901
▁កុសលញ្ច	-11.1903
ចោឡ	-11.1904
▁បញ្ចកាមគុណ	-11.1905
▁វក្ក	-11.1905
▁អនុសន្ធិ	-11.1905
ភាវេនាតិ	-11.1906
ារម្មណោ	-11.1906
▁និសីទាបេត្វា	-11.1906
▁និមន្តេត្វា	-11.1908
▁មហាបថវី	-11.1908
▁អយមាយស្មា	-11.1908
▁បទុដ្ឋ	-11.191
វិនិច្ឆយំ	-11.191
▁បុច្ឆិត	-11.191
▁សង្គណ្ហ	-11.1914
វិបាកំ	-11.1916
▁ទជ្ជា	-11.1916
▁ឧដ្ឋា	-11.1916
▁សម្បដិច្ឆន	-11.192
▁អន្តរំ	-11.1921
▁សព្ពសត្តានំ	-11.1923
ភវង្គ	-11.1924
▁សមិទ្ធិ	-11.1925
▁បភាស	-11.1925
▁អធិមោក្ខោ	-11.1925
អជ្ឈ	-11.1925
អត្ថេ	-11.1926
▁ឥទ្ធ	-11.1928
▁នយិទំ	-11.1929
▁កុដ្ឋ	-11.1929
ឧតុ	-11.193
វីរ	-11.1931
▁បរិវេណ	-11.1935
ចតុក្កំ	-11.1936
ព្យាបារ	-11.1936
ុក	-11.1936
▁សុទិន្ន	-11.1937
▁បវត្តត្តា	-11.1937
សង្កេត	-11.1938
▁វលាហក	-11.1938
▁ធម្មរាជា	-11.1938
▁ផលេ	-11.1939
▁វក្ខាមិ	-11.194
▁អរូបាវចរំ	-11.1941
▁សចិត្តក	-11.1942
សេតិ	-11.1943
▁បរេន	-11.1946
ក្ខម	-11.1946
▁ពោធិបក្ខិយ	-11.1947
▁អទុ	-11.1947
▁ទាសោ	-11.1948
▁កិត្តាវតា	-11.1949
▁អភិន្ន	-11.195
▁ផលទាន	-11.1951
▁មហាវិហារ	-11.1954
▁ព្យសនំ	-11.1955
បារុត	-11.1956
ព្ពំ	-11.1957
▁ឯតិស្សា	-11.1958
▁វចនំ។	-11.1958
សូរ	-11.196
▁ចាហំ	-11.1961
▁មោឃ	-11.1961
▁បបញ្ចសូទនិយា	-11.1962
▁តូរិយ	-11.1963
▁វត្តមានា	-11.1963
រាម	-11.1964
▁២៣៥	-11.1964
ប្បច្ចយា	-11.1964
▁យត្តក	-11.1964
▁វិសាខេ	-11.1966
▁ពាហ	-11.1966
▁ទាតុ	-11.1966
▁អគ្គសាវក	-11.1968
▁អត្តហិតាយ	-11.1968
▁វណ្ណវាទី	-11.1968
▁នោបរាមាស	-11.1969
▁ភាសិស្សាមី	-11.1971
▁បេក្ខមានោ	-11.1971
▁២៤០	-11.1971
▁បរាមាសោ	-11.1971
▁សមាទិយិត្វា	-11.1972
តប្ប	-11.1973
▁អត្តាតិ	-11.1973
▁២២៧	-11.1974
▁អនុភវិត្វា	-11.1977
▁គណ្ហិ។	-11.1977
▁ឧបបជ្ជេយ្យ	-11.198
▁សង្គហេត្វា	-11.198
ព្ភន្តរ	-11.1981
▁អាហំសុ	-11.1982
ិច្ឆា	-11.1983
វិលាស	-11.1984
▁ធុរនិក្ខេប	-11.1986
▁ឧក្ខិត្តក	-11.1988
▁រុហ	-11.1989
▁សញ្ចរិត្ត	-11.199
▁និម្ម	-11.199
▁និវេសន	-11.1991
▁អប្បសទ្ទ	-11.1991
▁អបរិបុណ្ណ	-11.1994
▁សត្តមោ	-11.1994
▁បរិសាសុ	-11.1994
▁បតិត្វា	-11.1995
▁សម្មាសម្ពោធិំ	-11.1995
▁ករណីយេន	-11.1997
កូដំ	-11.1997
▁ភុញ្ជិតព្ព	-11.1999
វាទិត	-11.1999
▁សុភំ	-11.2003
សាត	-11.2003
▁អគ្គិក្ខន្ធ	-11.2007
មតី	-11.2008
▁គណ្ហតោ	-11.2008
▁អារាមំ	-11.2011
▁វិគ្គហោ	-11.2011
▁មហន្តេ	-11.2017
និវេសន	-11.2019
▁បវុច្ចតិ	-11.2022
▁និទស្ស	-11.2023
▁លិច្ឆវិ	-11.2023
▁សាធន	-11.2023
▁អនុបសម្បន្ន	-11.2023
▁នវមំ	-11.2024
▁ជាតិជរាមរណ	-11.2024
▁មនោវិញ្ញាណ	-11.2025
▁នប្បជហតីតិ	-11.2026
▁ភិក្ខាចារ	-11.2026
▁យត្តកំ	-11.2027
▁បរិក្ខីណ	-11.2028
ឧប្បន្ន	-11.2033
▁២៣៩	-11.2033
បថោ	-11.2034
▁ទារុណ	-11.2035
សមុទយំ	-11.2036
▁តាវកាលិក	-11.2037
បច្ចនីយានុលោមំ	-11.2038
▁វទេ	-11.2039
▁វិជ្ឈិត្វា	-11.2042
▁នោនីវរណ	-11.2042
▁ការណន្តិ	-11.2044
▁រិ	-11.2045
▁អាសវសម្បយុត្តោ	-11.2046
ភិន្ទ	-11.2047
ធាតុយោ	-11.2048
▁បុច្ឆិតា	-11.2049
ឡារ	-11.205
វាសីនំ	-11.2051
បរិញ្ញា	-11.2053
▁អប្បេវ	-11.2054
ឥត្ថិ	-11.2055
▁ឥមាសំ	-11.2055
ស្សរោ	-11.2056
▁កតិបាហ	-11.2056
បិដ្ឋេ	-11.2056
▁ភវិស្សសិ។	-11.2056
មិច្ចេវ	-11.2058
▁បហិតត្តោ	-11.2058
▁ឈានបច្ចយ	-11.2059
នុលោមបច្ចនីយំ	-11.2059
▁កុណប	-11.2061
▁អនាថ	-11.2065
▁អាភា	-11.2066
▁អគ្គិនា	-11.207
គ្គោ	-11.2071
ប្យត្រ។	-11.2072
▁សន្ន	-11.2072
▁ឧបដ្ឋាកោ	-11.2072
ទោសា	-11.2075
ធីន	-11.2076
ាយន្តិ	-11.2077
▁សុត្តានិ	-11.2077
រត្តំ	-11.2078
▁បុនប្បុន	-11.2078
ោកាសំ	-11.208
▁ឧគ្គហិត	-11.2081
▁វុដ្ឋានស្ស	-11.2082
▁កបិល	-11.2083
▁ជីវិកំ	-11.2084
តាទីហិ	-11.2085
▁សច្ឆិកិរិយា	-11.2085
▁២៣១	-11.2085
វិសុទ្ធ	-11.2085
▁វិធម	-11.2085
▁សបរិវារ	-11.2085
▁ទេសេតព្ព	-11.2086
▁និដ្ឋំ	-11.2087
▁វស្សេ	-11.2087
និប្ផត្តិ	-11.2088
បភេទ	-11.2089
▁បុរិសបុគ្គលោ	-11.2089
▁ជានាហិ	-11.209
▁ទុគ្គ	-11.2091
▁វិញ្ញេយ្យំ	-11.2092
សុក្ក	-11.2092
សេក្ខ	-11.2092
ន្តូ	-11.2093
▁សីលេ	-11.2094
បច្ចនីក	-11.2094
▁អរិយបុគ្គល	-11.2095
មទោ	-11.2095
ាទីសូតិ	-11.2095
▁មរតិ	-11.2096
▁ភគ	-11.2096
ាវហំ	-11.2096
ត្យា	-11.2096
ប្បត្តិយា	-11.2096
▁គណនា	-11.2097
▁បាបកោ	-11.2097
ចុ	-11.2097
▁ចិត្តចេតសិកា	-11.2098
▁សិយុំ។	-11.2098
បរិយោសានំ	-11.2099
វិវរណ	-11.2101
ិតព្ពា។	-11.2101
▁សឋ	-11.2102
▁និរុជ្ឈន្តិ។	-11.2102
▁វុទ្ធិំ	-11.2102
និស្សិតោ	-11.2103
▁អាបុច្ឆិត្វា	-11.2104
▁ឯកវិធេន	-11.2104
▁អនារម្មណ	-11.2105
ព្យសន	-11.2105
▁កុទាស្សុ	-11.2106
ាហារោ	-11.2108
▁កោដ្ឋ	-11.2108
▁អន្តរាយោ	-11.2108
ភំ	-11.2109
មេវា	-11.2109
▁បស្សសិ	-11.2111
វុ	-11.2113
▁អជ្ឈត្តពហិទ្ធា	-11.2113
▁សញ្ជានាតិ	-11.2113
▁អាវសថ	-11.2114
ធជ	-11.2114
▁អជានន្តស្ស	-11.2117
▁សារិបុត្តត្ថេរ	-11.2119
កមេវ	-11.212
▁ឧត្ត	-11.2122
ភរិត	-11.2123
ាភាវតោ។	-11.2123
បាទា	-11.2124
ទិនា	-11.2126
▁បព្ពជិតស្ស	-11.2129
▁បដិលាភោ	-11.2131
មានត្ត	-11.2132
▁សានុសយោតិ	-11.2133
▁វចីកម្ម	-11.2135
▁ឯសនា	-11.2138
▁វិសាល	-11.2138
▁សម្ពោធាយ	-11.2138
ភុយ្យ	-11.214
▁សម្បទា	-11.214
▁ពាឡ្ហ	-11.2141
▁ឧទ្ទ	-11.2143
▁បារាជិកំ។	-11.2144
▁មិច្ឆា។	-11.2146
▁បដិភានបដិសម្ភិទ	-11.2147
▁វិហេស	-11.2147
▁សុខវិបាក	-11.2148
▁ឧបាគមិ	-11.215
▁ទាសី	-11.215
▁បវារណំ	-11.2152
▁បព្ពជិស្សាមិ	-11.2153
ទុគ្គ	-11.2153
▁សតិបដ្ឋានេ	-11.2154
▁ភវិស្សាមី	-11.2154
▁តណ្ហក្ខយ	-11.2155
▁មជ្ឈិមា	-11.2155
▁មទ្ទិ	-11.2157
ពាហិរ	-11.216
សមុគ្ឃាត	-11.216
ុណ	-11.2161
បត្តា	-11.2161
▁ធិតិ	-11.2161
▁វិញ្ញេយ្យោ	-11.2162
▁ខាទតិ	-11.2164
ុគ្គម	-11.2166
▁ទ្វយ	-11.2169
▁កាសាវ	-11.217
▁និយ្យាត	-11.217
▁បាតិ	-11.2171
▁អគ្គមគ្គសមង្គី	-11.2171
▁កុសលាព្យាកត	-11.2172
▁កោដ្ឋាសោ	-11.2173
និទានា	-11.2175
▁ឧក្កណ្ឋ	-11.2179
វសេនបិ	-11.218
▁បវត្តិយំ	-11.218
▁អចេតសិក	-11.2181
ាតិអាទិ	-11.2182
សមុទយ	-11.2182
▁លទ្ធនាម	-11.2183
▁ភរិយាយ	-11.2185
▁បិត្ត	-11.2187
វសំ	-11.2187
▁ចរិម	-11.2191
សទ្ទតោ	-11.2193
ិយេ	-11.2193
យន្ត	-11.2194
▁មហគ្គតោ	-11.2194
បទដ្ឋានា	-11.2196
▁គហណំ។	-11.2197
▁គោត្រភុស្ស	-11.2197
នមោ	-11.2197
មរិយាទ	-11.2198
▁បុដ	-11.2199
▁ទេយ្យធម្ម	-11.2199
បទា	-11.2199
រណំ	-11.22
▁វិញ្ញាយតិ។	-11.22
▁វិសាខា	-11.22
▁ការណភូត	-11.2203
វតិយា	-11.2203
▁អគ្គេ	-11.2203
▁មហតី	-11.2204
ពហូ	-11.2206
េន្តេន	-11.2206
ពទ្ធោ	-11.2206
▁យថាបិ	-11.2207
▁នគរស្ស	-11.2208
ាវិ	-11.2211
▁ព្យាកាសិ	-11.2212
▁វិហាសិ	-11.2214
▁វត្តព្ពមេវ	-11.2214
▁បចិត្វា	-11.2215
▁សំសន្ទ	-11.2216
▁ទម្មិ	-11.2216
▁សីតំ	-11.2217
▁គីវា	-11.2219
▁រថេសភ	-11.2219
▁សឧត្តរ	-11.2219
ពន្ធុ	-11.222
▁អានេញ្ជ	-11.2221
ប្បយោជន	-11.2221
▁វុត្តនយត្តា	-11.2222
▁គុ	-11.2223
អច្ឆរិយំ	-11.2223
▁សព្ពញ្ញុតញ្ញាណំ	-11.2224
ចង្កម	-11.2224
▁សមុដ្ឋាប	-11.2224
ឥច្ចេវ	-11.2225
▁និទ្ទា	-11.2225
វិសយត្តា	-11.2225
▁សមុទយសច្ចញ្ច	-11.2226
▁បឋមបារាជិក	-11.2227
មស	-11.2227
▁២៤២	-11.2228
▁សហសេយ្យ	-11.2229
▁និស្សយបច្ចយ	-11.2231
▁បដិបត្តិំ	-11.2232
▁កម្មផល	-11.2232
ភាវិត	-11.2233
បដិញ្ញំ	-11.2234
▁ទុល្លភោ	-11.2237
▁សិថិល	-11.2237
▁អស្សទ្ធិយ	-11.2237
▁មាតុគាមេន	-11.2239
មជ្ឈត្ត	-11.224
គម្ម	-11.224
▁មនុស្សភូតា	-11.2241
▁សីហឡ	-11.2241
▁បដិច្ចសមុប្បាទោ	-11.2242
▁មគ្គហេតុក	-11.2242
▁ធារេន្ត	-11.2242
សិក្ខា	-11.2245
▁ទិដ្ឋិគតានំ	-11.2245
▁វណ្ណា	-11.2246
▁ជីវិតេ	-11.2246
វិមានវណ្ណនា	-11.2246
លោល	-11.2248
ាទាយ	-11.2248
▁មរណេន	-11.2248
▁សរីរស្ស	-11.2249
▁វិវាទាធិករណំ	-11.2249
▁រុចិ	-11.2251
▁សព្ពតោ	-11.2252
អន្តរ	-11.2252
បព្ពតេ	-11.2253
ខីរ	-11.2254
▁ទ្វេធា	-11.2254
សីតិ។	-11.2255
▁ខណិក	-11.2256
▁អាណាប	-11.226
▁គណ្ហិ	-11.226
▁បណិធិ	-11.2261
▁ភវរាគានុសយ	-11.2262
▁បរិហារ	-11.2262
វិតាន	-11.2262
▁គព្ភំ	-11.2262
‘‘	-11.2263
បូតិ	-11.2263
បរិព្ពាជក	-11.2264
គាមិនី	-11.2265
គមោ	-11.2269
▁រោហណ	-11.227
▁ឈានង្គ	-11.227
តេតិ	-11.227
ហេតុតោ	-11.2271
បច្ចយេន	-11.2273
▁អយញ្ហេត្ថ	-11.2273
▁តេយេវ	-11.2273
ឆន្ន	-11.2273
▁អធិគច្ឆ	-11.2273
បរិយាបន្នោ	-11.2274
និគ្ឃោស	-11.2275
▁ថុ	-11.2275
▁មហាសមុទ្ទោ	-11.2276
ឯសោ	-11.2277
▁លច្ឆ	-11.2278
▁អខណ្ឌ	-11.2278
▁សារត្តោ	-11.2281
▁គន្ថវិប្បយុត្ត	-11.2282
▁អកុសលវិបាក	-11.2282
▁សមាសេ	-11.2282
▁នេវសញ្ញានាសញ្ញ	-11.2284
▁វាតេន	-11.2284
▁មោក្ខោ	-11.2285
▁ករោមី	-11.2285
▁មិត	-11.2285
▁អវស្ស	-11.2286
▁សច្ចានំ	-11.2287
▁សាសវោ	-11.2287
▁កាលមកាសិ។	-11.229
សត្ថុ	-11.229
▁ហតោ	-11.2292
▁ទុព្ភិក្ខ	-11.2294
▁និម្មិត	-11.2295
▁បីតិសហគតោ	-11.2297
សោ។	-11.2297
▁ឧបវស	-11.2298
តាបន	-11.2298
▁កាយចិត្ត	-11.23
▁ឧបសម្បាទេ	-11.2304
▁អារោចេតិ	-11.2304
▁ទុក្ខសច្ចញ្ច	-11.2305
▁បេមំ	-11.2305
ក្កោស	-11.2305
▁២៤១	-11.2309
ហតោ	-11.2309
▁សីមាយ	-11.2311
▁វម្មិក	-11.2312
▁និសជ្ជាយ	-11.2313
▁បណ្ឌិតោ។	-11.2313
▁អថោបិ	-11.2313
▁អនាសវ	-11.2315
ុឡ	-11.2315
▁ជេតវនំ	-11.2317
▁តិចីវរ	-11.2318
▁បាមោជ្ជ	-11.2319
មិត	-11.2321
▁អដ្ឋិក	-11.2324
▁នាមិកបទមាលា	-11.2326
▁សុត្តេសុ	-11.2326
▁ចាប	-11.2326
▁បុញ្ញេន	-11.2327
កម្ប	-11.2327
▁សូរិយេ	-11.2328
ាទេសេ	-11.2332
▁ឯកវីសតិ	-11.2333
▁សមាបត្តិយា	-11.2334
ាតិអាទីសុ	-11.2334
▁កិស្មិញ្ចិ	-11.2335
ចតុន្នវុតិ	-11.2336
▁បដិស្សុត្វា	-11.2336
▁បរទារ	-11.2339
វន្ទន	-11.2339
▁សស្សតទិដ្ឋិ	-11.2342
▁អហុំ	-11.2344
▁ខន្តិំ	-11.2345
▁ឥធាវុសោ	-11.2345
▁ន្ហាន	-11.2348
▁អបទានំ។	-11.2348
▁ឧប្បជ្ជន	-11.2349
ីយំ	-11.2352
▁ភាវនំ	-11.2352
▁បត្ថនាយ	-11.2354
▁ហេស	-11.2354
▁អរហតីតិ	-11.2354
▁គណ្ហិតុំ	-11.2355
តាឡ	-11.2356
ស្សរា	-11.2357
▁សមាបន្ន	-11.2357
▁អាវរណ	-11.236
និរុត្តិ	-11.236
ទេវី	-11.2363
▁វិសេសេត្វា	-11.2365
▁សត្ថុសាសន	-11.2365
▁បកាសេសិ	-11.2366
មារោ	-11.2367
▁ឧត្តានត្ថ	-11.2369
▁បុព្ពន្ត	-11.237
អត្ថោ	-11.2371
▁ខីយ	-11.2372
▁សម្បជ្ជតិ	-11.2373
▁យការ	-11.2374
ហតំ	-11.2377
▁អន្តរធាយ	-11.2378
សិក្ខាបទញ្ច។	-11.2379
▁មហគ្គតំ	-11.2381
វិនីត	-11.2381
ធាយ	-11.2382
▁តាទិសស្ស	-11.2383
▁លាភសក្ការសិលោក	-11.2386
▁បព្ពជ្ជាយ	-11.2386
យេវាតិ។	-11.2386
▁វិប្បមុត្ត	-11.2387
ការោ។	-11.2387
េស្សតី	-11.2388
▁បាណិនោ	-11.239
▁សម្មត្ត	-11.239
▁វយប្បត្តោ	-11.2391
ឡុ	-11.2391
▁អច្ចិ	-11.2392
▁ផោដ្ឋព្ពំ	-11.2393
សម្ភូត	-11.2393
▁បរលោកេ	-11.2393
▁ទស្សិតំ។	-11.2394
▁វិហិត	-11.2394
▁កុលបុត្តា	-11.2394
▁បទេសំ	-11.2396
វត្ថូ	-11.2396
សម្មតោ	-11.2397
▁នប្បជានន្តិ	-11.2399
បាវុរណ	-11.2399
▁បាសាទោ	-11.24
▁វិចក្ខណោ	-11.24
▁បមត្ត	-11.24
ន្តស្ស។	-11.2401
▁អសាត	-11.2401
▁អបណ្ណក	-11.2402
▁តស្មិញ្ច	-11.2402
▁ការេតព្ពោ	-11.2403
តីរ	-11.2404
▁ឥន្ទ្រិយន្តិ	-11.2405
▁វិហិំសា	-11.2405
▁បដ្ឋបេត្វា	-11.2406
▁អន្តលិក្ខេ	-11.2406
េថាតិ	-11.2406
▁អនាគតារម្មណ	-11.2408
▁រូបធម្ម	-11.2411
▁បច្ឆាជាតេ	-11.2411
ក្ខេប	-11.2412
យុំ។	-11.2412
▁និព្ពុត	-11.2413
▁សុទស្សន	-11.2414
ិម្ហា	-11.2414
▁អធិប្បេតំ	-11.2414
▁អសារ	-11.2415
វ្ហេ	-11.2415
▁ឧបាសកំ	-11.2416
▁ឯកេកស្ស	-11.2417
▁សណ្ឋាតិ	-11.2418
▁សទិសា	-11.2418
▁កតកិច្ច	-11.2418
វាចាយ	-11.2419
▁បជហន្តោ	-11.2421
ញ្ជលិ	-11.2421
▁បរិគ្គហោ	-11.2421
▁ឥន្ទ្រិយំ។	-11.2425
▁បរិក្ខារោ	-11.2427
▁ឥន្ទ្រិយសំវរ	-11.2428
▁អាល	-11.2428
▁អនុប្បត្តា	-11.2429
▁សម្មាសម្ពុទ្ធា	-11.2429
▁យទេវ	-11.243
▁បរិយោសានេ	-11.2431
គ្គហណេ	-11.2432
▁និគមន	-11.2436
កាមំ	-11.2437
▁និច្ចល	-11.2438
▁មុទ្ធ	-11.2441
គព្ភោ	-11.2448
សន្ធ	-11.2449
▁ពារាណសិ	-11.245
តាវ	-11.2453
▁បថវីកសិណ	-11.2453
ក្ខេត្ត	-11.2457
▁មុត	-11.2458
▁តទហុ	-11.2459
រេតិ	-11.246
▁ភគវន្ត	-11.2461
▁ពុទ្ធោតិ	-11.2461
▁ទរ	-11.2461
▁រុច្ច	-11.2461
▁វិយាកាសិ	-11.2464
▁ព្យត្តេន	-11.2465
ន្តូតិ	-11.2465
កិលេសោ	-11.2465
▁ទ្វិក្ខត្តុំ	-11.2466
▁ឧបដ្ឋបេត្វា	-11.2466
▁បវិវិត្ត	-11.2469
▁តូល	-11.247
▁ជប្ប	-11.247
▁សម្មជ្ជ	-11.247
ក្រិយ	-11.2474
▁យថាសម្ភវំ	-11.2474
ាសនំ	-11.2475
▁ភវនំ	-11.2477
សង្ខាតានំ	-11.2478
▁សទ្ទាយតនំ	-11.2478
មត្តន្តិ	-11.2478
▁បដិជានាតិ។	-11.2479
ុបោសថ	-11.2479
ពលវ	-11.2482
បុរិសា	-11.2482
ពាហ	-11.2482
ចរិយាយ	-11.2483
▁ព្រហ្មចរិយវាសោ	-11.2484
▁កម្មជ	-11.2484
ាយេវ	-11.2484
▁ឧបដ្ឋាបេ	-11.2485
▁អជ្ជេវ	-11.2487
▁វេទិតព្ព	-11.2489
▁ទុហេតុក	-11.2489
▁វិហរន្តិ។	-11.249
តន	-11.249
▁ឧបាទារូប	-11.2491
ាភិមុខោ	-11.2493
▁វត្តតេ	-11.2496
▁ផុដ	-11.2496
វចនោ	-11.2497
ប្បយោគោ	-11.2498
▁បរាមាសសម្បយុត្ត	-11.2498
▁តទនុ	-11.2498
សមំ។	-11.2498
▁ញាណទស្សន	-11.25
▁វចនត្ថំ	-11.2501
▁មរណស្ស	-11.2502
▁សំវត្តតី	-11.2502
▁គណោ	-11.2505
▁អបរិយាបន្នា	-11.2506
គហ	-11.2507
▁ឧណ្ហំ	-11.2507
▁អនុលោមំ។	-11.2509
▁មានត្ត	-11.251
▁អរុណ	-11.2511
▁សមាធិនា	-11.2512
េបិ។	-11.2513
▁ទោណ	-11.2514
▁វិក្ខម្ភន	-11.2515
▁វន្ទេ	-11.252
▁ការណំ។	-11.252
▁ទេសយ	-11.2521
▁លព្ភ	-11.2524
▁វុត្តលក្ខណ	-11.2524
ចិណ្ណំ	-11.2524
▁ទេន្ត	-11.2527
កហាបណ	-11.2527
▁រុប្បន	-11.2527
▁នអរូបាវចរ	-11.2528
វិល	-11.2528
មយេ	-11.2528
▁សន្តិដ្ឋតិ	-11.2528
▁បវារណ	-11.2529
▁បសន្នមានសោ	-11.2529
▁គន្ធាយតនំ	-11.2529
▁មត្ថក	-11.2529
▁អញ្ញាតិកាយ	-11.2529
▁អរុណុគ្គមន	-11.2531
បរិយោសានា	-11.2532
រិត្វា	-11.2533
▁ឥតរថា	-11.2534
▁វុត្តត្តា។	-11.2534
អនន្តរ	-11.2534
▁អប្បត្វា	-11.2538
រត្តិ	-11.2539
▁សង្ខតំ	-11.254
▁សេតុ	-11.2542
▁ស្មា	-11.2543
▁ខីយតិ	-11.2543
ត្ថមេវ	-11.2543
▁សព្ពកាម	-11.2543
▁ទស្សេសិ	-11.2543
▁ជានិតុំ	-11.2544
វាណិជ	-11.2545
▁ឥស្សរិយំ	-11.2546
▁បារាជិកា	-11.2546
មនុសាស	-11.2546
ិន្ទ្រិយោ	-11.2546
▁អហូ	-11.2546
ឥតិបិ	-11.2547
▁សុន្ទរំ	-11.2551
វិបាកោ	-11.2551
▁សាសប	-11.2553
▁នានាករណំ	-11.2558
▁ឋបន	-11.2564
▁អាវ	-11.2564
▁បិណ្ឌបាតោ	-11.2564
▁អនោកាស	-11.2565
ទព្ព	-11.2565
ញាត	-11.2566
▁អច្ឆាទ	-11.2567
▁ទុព្ភ	-11.2568
▁យាចិ	-11.2571
▁ទុប្បញ្ញោ	-11.2573
▁បច្ចុប្បន្នេ	-11.2573
▁វិក្ខម្ភិត	-11.2575
▁គហេតព្ពោ	-11.2575
វិតក្កោ	-11.2576
▁បនេត	-11.2578
▁វត្តា	-11.2578
▁សំវិទហ	-11.2579
▁ចតុព្ពិធា	-11.258
▁នារទ	-11.2581
▁ចជ	-11.2581
▁កថន	-11.2582
ព្យាធិ	-11.2583
សក្កោ	-11.2583
ិត្ថិ	-11.2584
មូលកេ	-11.2587
▁ភជតិ	-11.2588
ចម្មំ	-11.2588
▁មនោកម្មំ	-11.2588
សំវណ្ណនាយ	-11.2589
▁អនត្ថំ	-11.259
▁នរក	-11.2591
ានុស្សតិ	-11.2591
ត្ថិកា	-11.2592
▁អនវកាសោ	-11.2593
▁អសម្ភិន្ន	-11.2593
▁មុយ្ហ	-11.2593
▁មលំ	-11.2594
▁បញ្ចវោការំ	-11.2594
▁មិច្ឆាជីវ	-11.2595
▁រា	-11.2595
▁បាទោ	-11.2596
▁កុមារំ	-11.2596
▁ការណេ	-11.2598
▁អាភត	-11.2599
ធាតូ	-11.26
ផលោ	-11.2602
យស	-11.2603
▁អារោចេតព្ព	-11.2604
▁ឆេកោ	-11.2605
▁អស្សមេ	-11.2605
ារោចន	-11.2605
▁កិត	-11.2605
ទ្វេមេ	-11.2606
▁ភោជនានិ	-11.2608
េភិ	-11.261
▁គទ្រភ	-11.261
▁កបណ	-11.261
ោទយ	-11.2612
កានន	-11.2614
▁អភិភូ	-11.2614
▁វគ្គុ	-11.2614
ទេសោ	-11.2615
ឆក្ក	-11.2615
▁កទ្ទម	-11.2617
▁ធោវន	-11.2617
▁វិនាបិ	-11.2618
▁ឯវរូបស្ស	-11.2619
▁និដ្ឋ	-11.2619
▁ពហុវិធ	-11.2622
អនិទស្សនសប្បដិឃោ	-11.2625
វសិ	-11.2626
▁សិស្សោ	-11.2626
▁ឆន្នោ	-11.2626
▁ពន្ធនា	-11.2626
យាគុ	-11.2627
▁ឥច្ឆន្តិ	-11.2628
សម្បទ	-11.2629
ង្ករោ	-11.263
សមត្ថតា	-11.263
សមញ្ញា	-11.2631
▁យាថាវ	-11.2633
▁ភយតោ	-11.2633
▁រូបារម្មណំ	-11.2635
▁កេចិ។	-11.2638
▁អវិប្បដិសារ	-11.2638
▁អារា	-11.2639
សារំ	-11.264
▁ត្វញ្ច	-11.2644
ស្សសិ	-11.2644
▁កថន្តិ	-11.2645
▁តស្មាតិហ	-11.265
▁ញាតក	-11.2651
ភក្ខោ	-11.2652
▁នាគរាជ	-11.2653
វធ	-11.2653
វិរតិ	-11.2658
▁បច្ចនីយុទ្ធារោ	-11.2658
▁នេសាទ	-11.2659
▁ខុជ្ជ	-11.266
▁បតិតំ	-11.266
▁មនោសម្ផស្ស	-11.2663
▁ចិត្តេកគ្គតា	-11.2664
វណ្ណនា។	-11.2664
▁ក្យ	-11.2665
មយិ	-11.2666
▁យក្ខា	-11.2667
តរេ	-11.2668
ុប្បល	-11.2668
▁បុច្ឆាយ	-11.2669
▁តប្បច្ចយា	-11.2671
▁តិដ្ឋន្ត	-11.2671
▁អរហតំ	-11.2672
ទេយ្យ	-11.2672
កវាដ	-11.2676
▁មច្ឆរិយំ	-11.2677
▁នុត្ថ	-11.2677
▁អារាមិក	-11.2678
▁យាយំ	-11.2678
តុម្ហាកំ	-11.2679
▁ទីបយ	-11.2681
▁សព្ពាវ	-11.2682
▁សំហរ	-11.2683
▁អភិសមយោ	-11.2684
▁កលហំ	-11.2685
▁ភវន្តីតិ	-11.2686
▁វិនយកម្ម	-11.2686
▁ទាឋ	-11.2687
បច្ឆិមចិត្តស្ស	-11.269
▁តុដ្ឋិ	-11.2691
▁ឱទនំ	-11.2692
ាបយិ	-11.2693
▁បវត្តិតំ	-11.2695
អល	-11.2696
ាទីនិបិ	-11.2697
វិភាវ	-11.2699
វិនិពន្ធ	-11.2701
▁ទុក្ខវិបាក	-11.2703
ភាសា	-11.2703
▁គុហ	-11.2705
បន្នោ	-11.2705
▁និទ្ទាយ	-11.2705
▁រម្មំ	-11.2707
▁អគ្គី	-11.2708
▁កង្ខំ	-11.2708
គ្គហណេនេវ	-11.2709
អដ្ឋានមេតំ	-11.2711
▁បព្ពតា	-11.2712
▁សក្ករ	-11.2712
មិច្ច	-11.2714
▁បជហថ	-11.2714
▁មត្តា	-11.2714
ពុទ្ធស្ស	-11.2715
▁ហុ	-11.2715
▁មិគោ	-11.2716
▁ទុទ្ទស	-11.2716
▁ករណីយា។	-11.2718
▁មហានិសំស	-11.2719
▁ភយា	-11.2719
និវត្តិ	-11.2719
វារណ	-11.2721
▁អរិយាយ	-11.2722
▁អាសា	-11.2722
▁សម្មុខាវិនយោ	-11.2723
▁ហេតុសម្បយុត្ត	-11.2723
▁នអនាសវ	-11.2724
▁សមោធានបរិវាស	-11.2724
▁មហាសុទស្សន	-11.2724
▁អលជ្ជី	-11.2724
▁កាយសុចរិត	-11.2725
▁បច្ចុប្បន្នា	-11.2726
កុលបុត្ត	-11.2728
▁សាមណេរស្ស	-11.2728
▁សុណន្តិ	-11.2729
▁អរូបសញ្ញី	-11.2729
▁សមនុ	-11.273
ឧបនិស្សយ	-11.2731
▁យមហំ	-11.2731
▁បដិពលេន	-11.2731
▁បច្ឆិមស្ស	-11.2733
មិទ	-11.2733
▁ទយា	-11.2733
បរិវត្តន	-11.2733
▁សហជាតាធិបតិ។	-11.2734
▁ទេវតេ	-11.2734
មូលា	-11.2734
▁គណំ	-11.2735
វិក្ខម្ភ	-11.2735
▁អភូតំ	-11.2737
ត្តក	-11.2737
▁ឯកធម្ម	-11.2739
▁អសញ្ញ	-11.274
ិក្ខ	-11.2741
ន្វ	-11.2741
▁កច្ចាយន	-11.2742
▁ទីបេន្តោ	-11.2742
▁ភិជ្ជតិ	-11.2745
វិសយា	-11.2745
តច្ឆ	-11.2748
▁ទិដ្ឋេន	-11.2749
▁បីតិសហគតា	-11.2749
▁អបរំ	-11.275
ប្បសន្ន	-11.2751
ុម	-11.2752
▁ឧរគ	-11.2754
▁អាវាដ	-11.2754
បិណ្ឌំ	-11.2754
បក្ខិក	-11.2754
▁ឱភាសោ	-11.2756
▁សល	-11.2756
និយាមេន	-11.2757
ព្រហ្មា	-11.2757
ច្ចោ	-11.2759
▁វិស្សជ្ជេតិ	-11.2759
▁គាថាសុ	-11.2759
▁មគ្គង្គំ	-11.276
▁វិមុច្ចតិ	-11.276
មាគតំ	-11.2762
▁នវត្តព្ព	-11.2762
▁លិង្គំ	-11.2764
▁សោតេន	-11.2765
▁ចេតនា។	-11.2765
▁សុខិតា	-11.2765
▁កោសលោ	-11.2767
▁មធុរំ	-11.2768
▁ចរិត	-11.2768
▁អាកាសធាតុ	-11.277
សូករ	-11.2771
▁បគ្គហេត្វា	-11.2771
▁ញា	-11.2773
▁សព្ពញ្ច	-11.2775
▁សំសយោ	-11.2776
▁ធម្មិកំ	-11.2777
▁អាឃាតោ	-11.2777
ខល	-11.2777
▁ការយិ	-11.2777
▁អញ្ញតោ	-11.2778
▁ឯកទិវស	-11.2778
នវក	-11.278
ត្តរ	-11.2784
សមាយោគ	-11.2785
▁សត្ថារ	-11.2785
▁ជាតរូប	-11.2786
▁ទាយក	-11.2787
▁អតិសយ	-11.2787
▁យម្ហិ	-11.2787
▁ភវាភវ	-11.2788
▁យោជេតព្ព	-11.2789
▁មហេសក្ខ	-11.279
▁ទិយ្យមាន	-11.279
▁កាមភោគី	-11.279
▁ចក្ខុម	-11.2791
▁ឧណ្ណ	-11.2791
ឌិ	-11.2791
បរំ	-11.2792
▁ចិត្តស្សេកគ្គតា	-11.2792
▁អននុស្សុតេសុ	-11.2793
▁បច្ចវេក្ខមានោ	-11.2794
▁ភាសេយ្យ	-11.2794
▁សក្កុណេយ្យ	-11.2794
វិជានន	-11.2795
វិត្ត	-11.2795
▁អក្ខាត	-11.2796
▁បរិវារិតោ	-11.2797
▁បឋមមេវ	-11.2799
▁សន្ថរ	-11.2799
▁វិញ្ញាណន្តិ	-11.2801
▁បាដិហារិយ	-11.2802
▁គេហសិត	-11.2804
កត្ត	-11.2806
កិស្ស	-11.2806
▁សមយា	-11.2807
▁វិញ្ញាបេតិ	-11.2808
▁ករិស្សន្តិ	-11.2809
មហគ្គត	-11.281
▁វេស្សន្តរោ	-11.281
នយំ	-11.2811
បិតា	-11.2813
▁សប្បុរិសា	-11.2814
▁និមន្តិតោ	-11.2816
▁ទស្សាមិ	-11.2817
សមន្នាគតំ	-11.2819
▁អទស្សន	-11.282
មាសក	-11.2821
វិជយ	-11.2823
▁សីហស្ស	-11.2823
វិសេសា	-11.2824
▁បតិដ្ឋហិ។	-11.2824
ត្តិំស	-11.2825
សេនា	-11.2826
ភាជនំ	-11.2827
មត្តានំ	-11.2828
▁អជិន	-11.2828
នទី	-11.2829
▁កាមច្ឆន្ទ	-11.283
▁ឧភោហិ	-11.2831
មានានំ	-11.2833
▁ចក្ខាទិ	-11.2833
▁សក្កំ	-11.2837
▁សរំ	-11.2838
▁សាមញ្ញផល	-11.2839
ាបេក្ខ	-11.2839
▁សេយ្យា	-11.284
▁រតា	-11.2843
បុត្តំ	-11.2843
▁និព្ពិទាយ	-11.2843
▁សុជាតោ	-11.2843
▁វិវិធា	-11.2843
ទាយិកា	-11.2843
នវុតិ	-11.2844
▁មហាកស្សបោ	-11.2846
▁ជេគុច្ឆ	-11.2847
កម្មានិ	-11.2848
▁វរោ	-11.2849
និរយ	-11.2849
▁យុវា	-11.2849
▁មញ្ញន្តិ	-11.2849
▁ឧទ្ធច្ចសហគតំ	-11.285
▁កប្បាស	-11.2854
ត្តន្តិ	-11.2855
ុគ្គត	-11.2856
▁អញ្ញថត្តំ	-11.2857
ត្តម	-11.2858
▁បិយរូបំ	-11.2858
ញាណំ។	-11.2858
ម្ហេ	-11.2858
▁ហោតូតិ	-11.2859
ធិដ្ឋាន	-11.2861
ធាតុំ	-11.2863
▁មុទុក	-11.2863
ូបមំ	-11.2864
▁បតិរូបំ	-11.2864
ទិសាយ	-11.2866
▁កម្មវិបាក	-11.2867
▁មាសោ	-11.2868
ពោជ្ឈង្គ	-11.287
សីសំ	-11.287
▁នាសក្ខិ	-11.2871
ជញ្ញ	-11.2873
▁សទេវកស្ស	-11.2873
▁ផាសុក	-11.2874
▁មាបេត្វា	-11.2875
យាមិ	-11.288
▁អបសាទ	-11.288
▁លោកធាតុ	-11.2881
▁សុទ្ធោ	-11.2882
សង្គាហក	-11.2882
▁វិធាន	-11.2883
▁បារមី	-11.2883
ីយមាន	-11.2884
▁តាទិសា	-11.2885
▁គត្ត	-11.2885
▁រូបារម្មណ	-11.2885
▁តល	-11.2886
ញាណស្ស	-11.2887
ខោ	-11.2888
▁គាមស្ស	-11.2888
▁ករិស្សាមា	-11.2888
ាទិភាវ	-11.2888
▁នន្ទោ	-11.2889
គង្គ	-11.2889
▁ពុទ្ធគុណ	-11.289
ាភិធាន	-11.2891
▁ធារេតុ	-11.2894
▁អនុមាន	-11.2894
▁អមោហ	-11.2894
▁និយ្យាតិ	-11.2896
សទ	-11.2896
▁ការេតិ	-11.2898
▁គេធ	-11.2898
ាធិដ្ឋានំ	-11.2899
▁ជានតា	-11.29
រាជិ	-11.2901
▁មុហុត្តំ	-11.2901
និសជ្ជ	-11.2902
▁ឯកាពទ្ធ	-11.2903
ភាវទស្សន	-11.2903
▁វតាយំ	-11.2903
ច្ឆាយ	-11.2905
▁បតិដ្ឋាន	-11.2908
យដ្ឋិ	-11.2908
▁បដិគ្គាហក	-11.291
សមន្នាគត	-11.2911
សញ្ញិស្ស	-11.2911
▁ភាគោ	-11.2912
▁អាទីនវញ្ច	-11.2913
នវិបាកធម្មធម្មំ	-11.2915
▁ជនបទេសុ	-11.2915
▁អជ្ឈោហរ	-11.2916
បុព្ពំ	-11.2917
▁យាទិសា	-11.2917
ជនោ	-11.2917
កុតោ	-11.2917
▁វិតក្កេ	-11.2917
វិញ្ញាណំ	-11.2917
▁អគ្គផល	-11.2918
▁មម។	-11.292
▁សម្មាទិដ្ឋិយា	-11.292
▁វិក្កិណ	-11.2921
▁ឧបគតា	-11.2921
▁វិនស្សតិ	-11.2922
▁សច្ឆិករោតិ	-11.2923
▁មានុសក	-11.2923
▁មាគណ្ឌិយ	-11.2924
វិកល	-11.2924
▁ចិត្តសហភុ	-11.2925
▁ឧបទ្ទុត	-11.2925
▁សមោធាន	-11.2926
▁វិតក្កំ	-11.2926
នវិបាកធម្មធម្ម	-11.2926
▁មគធ	-11.293
▁ពលេន	-11.2931
▁វិភូតំ	-11.2934
ទីបនា	-11.2935
ង្គានិ	-11.2938
ិយោតិ	-11.2939
▁វក្ខាម	-11.2939
▁ហរន្តិ	-11.294
▁វេហាសំ	-11.294
យ្យោ	-11.2941
▁និសីទិតុំ	-11.2941
ករោតិ	-11.2941
ជាយ	-11.2941
ន្តស្សាបិ	-11.2946
▁បត្តព្ព	-11.2946
▁អនាទរ	-11.2946
▁មោ	-11.2947
▁បោថ	-11.2947
▁អាណាបេសិ	-11.2947
▁សម្មាសមាធិ។	-11.2948
▁ឧបមំ	-11.2948
កិលិដ្ឋ	-11.2951
កិលមថ	-11.2952
▁បិតាមហ	-11.2954
▁ឧច្ឆេទទិដ្ឋិ	-11.2955
វវត្ថាន	-11.2955
▁វិប្បសន្នេន	-11.2958
▁បកាសិតោ	-11.2958
▁ព្រាហ្មណេន	-11.2962
▁រូបាយតន	-11.2963
បិតុ	-11.2963
▁អធិដ្ឋហ	-11.2964
▁បស្សាមី	-11.2965
▁និស្សជ្ជ	-11.2965
▁អាមន្ត	-11.2965
▁ឧទយព្ពយ	-11.2965
▁អសក្កោន្តា	-11.2968
▁អក្ខាតា	-11.2969
ឥម	-11.297
សូប	-11.2971
សេល	-11.2971
▁អនុមោទនំ	-11.2972
▁កាស	-11.2973
បារិបូរិ	-11.2975
បញ្ហា	-11.2976
ាគមន	-11.2976
▁និក្ខមតិ	-11.2977
▁សមុគ្ឃាត	-11.2978
▁និស្សារ	-11.2978
▁ភូតានិ	-11.2979
សិខា	-11.2979
▁រត្តិយោ	-11.298
▁គោចរំ	-11.2981
វាទេន	-11.2983
រោបន	-11.2984
▁យាគុំ	-11.2985
▁វសន្ត	-11.2985
▁បរិត្តា	-11.2987
និម្មិត	-11.2988
▁ទសាហ	-11.2989
▁ភាគិនេយ្យ	-11.2992
▁អបចយគាមី	-11.2992
▁បាបុណិំសូតិ។	-11.2992
▁កានិចិ	-11.2992
▁អលភន្តោ	-11.2992
▁កាមាវចរោ	-11.2992
▁អលភិត្វា	-11.2992
▁បច្ចយាការ	-11.2994
▁ធុត្ត	-11.2995
▁លោកនាថ	-11.2995
រិត	-11.2996
▁នសហជាតេ	-11.2997
▁វុត្តមត្ថំ	-11.2997
▁សំសដ្ឋ	-11.2998
▁បាបិម	-11.2998
▁សុគ្គហិត	-11.2999
▁បរិក្ខយំ	-11.3
▁បណ្ឌិតេហិ	-11.3
▁ឱបម្ម	-11.3
▁ថី	-11.3
លោកិយ	-11.3001
▁សម្បយុត្តា។	-11.3003
▁ឧបនិធាយ	-11.3005
នសីលោ	-11.3005
▁អាទីនវា	-11.3006
ភាសាយ	-11.3007
បច្ឆា	-11.3007
▁វត្តព្ពតំ	-11.3008
▁ឆទន	-11.3009
▁កោធំ	-11.3009
▁វត្ថុបុរេជាតំ	-11.3009
▁បរាជយោ	-11.3013
▁យាចក	-11.3014
សំវច្ឆរ	-11.3014
▁នហាន	-11.3017
ទោមនស្សុបាយាសា	-11.3017
▁មារិសា	-11.3021
▁សម្បតិ	-11.3021
កម្មន្តិ	-11.3023
▁សកុណោ	-11.3023
▁អធិគតំ	-11.3024
▁សាមិវចនំ។	-11.3025
▁សុណន្តោ	-11.3025
វាល	-11.3025
បូជា	-11.3025
▁គវំ	-11.3027
▁អគារវោ	-11.3027
ាទិភាវោ	-11.3027
▁មនុស្សេហិ	-11.3027
ន្តរេន	-11.3028
▁អនុសេតិ។	-11.3028
វិតក្កវិចារមត្តា	-11.3028
▁ជានិតព្ព	-11.3029
▁គព្ភោ	-11.3029
▁ឯឡក	-11.3029
▁ភវបច្ចយា	-11.3029
ញ្ចេតំ	-11.303
បឋមំ	-11.3031
កិញ្ច	-11.3031
កុដិក	-11.3032
▁វស្សូបនាយិក	-11.3032
សហិតំ	-11.3032
កិរិយំ	-11.3033
▁និវត្តិត្វា	-11.3035
ុត	-11.3038
កោបិ	-11.3038
▁ឧបធារ	-11.304
▁បដិលភតិ	-11.3041
▁កល្ល	-11.3041
សយំ	-11.3041
គណ្ឌ	-11.3043
▁នបុំសកលិង្គ	-11.3044
▁សង្គយ្ហ	-11.3047
សុក្កវិស្សដ្ឋិយា	-11.3047
▁សង្ឃកម្ម	-11.305
សេចន	-11.305
ុយ្យាន	-11.3053
ទស្សនា	-11.3057
តេជ	-11.3058
ាមាតិ	-11.3059
▁តទហុបោសថេ	-11.306
▁មនសិករោន្តោ	-11.306
▁មុដ្ឋស្សតិ	-11.306
▁យុគនទ្ធ	-11.306
▁រុទ	-11.306
▁ភិក្ខុនីតិ	-11.306
វិសេសេ	-11.306
ខត្តិយ	-11.306
▁អាភស្សរ	-11.3061
▁ទេសនាបរិយោសានេ	-11.3062
▁ឧបាទានិយ	-11.3062
▁យោគាវចរោ	-11.3063
មេកំ	-11.3066
▁កីឡា	-11.3066
គ្គេន	-11.3066
សម្ភវា	-11.3066
▁មនុស្សភូតោ	-11.3068
▁បសីទិត្វា	-11.307
▁បរិយុដ្ឋាន	-11.307
▁រុចិយា	-11.3071
▁ឯកគ្គតា	-11.3072
▁អនញ្ញថ	-11.3074
▁អភិសង្ខត	-11.3074
ឧត្តរ	-11.3074
▁ឯករស	-11.3076
▁អដ្ឋារសហិ	-11.3078
▁ចង្កមន្ត	-11.3078
▁វិព្ភន្ត	-11.3079
▁ជាយតិ។	-11.3079
▁សព្ពធម្ម	-11.308
▁វគ្គោ។	-11.308
▁បរិបូរេន្តិ	-11.3081
▁សកទាគាមិមគ្គ	-11.3082
▁វិជ្ជុ	-11.3084
ឯតទគ្គំ	-11.3084
អយ្យ	-11.3085
▁វេរិ	-11.3085
ទស្សិ	-11.3086
▁មហន្តា	-11.3086
▁បាដិហារិយំ	-11.3086
▁មារំ	-11.3087
▁បដិវិរតា	-11.3087
▁វិសុទ្ធិយា	-11.3088
▁ស្វ	-11.3089
▁សុខិនោ	-11.309
▁ភារំ	-11.3091
▁សឃានកាន	-11.3092
▁អបរិក្ខិត្ត	-11.3092
▁ជិនំ	-11.3092
▁មហាវុត្តិ	-11.3092
▁ជដ	-11.3093
▁ទ្វាវីសតិ	-11.3093
▁មូលាយ	-11.3093
▁សល្លក្ខ	-11.3098
ាទិភេទេ	-11.3098
▁ធម្មិកោ	-11.3102
អាកាស	-11.3103
អនន្ត	-11.3105
តរិ	-11.3107
▁មាតរ	-11.3108
ិម្ហិ	-11.3109
▁អនុគត	-11.311
▁បកាសន	-11.311
▁អទ្ទស។	-11.3111
សនំ	-11.3111
▁អនុប្ប	-11.3114
▁និវេទ	-11.3115
▁ចតុត្ថស្ស	-11.3115
កសាវ	-11.3115
គណនា	-11.3115
ុត្តមំ	-11.3116
▁ភាយិ	-11.3117
▁អសង្ខារិក	-11.3118
▁អាគតំ។	-11.3119
▁គិលានា	-11.3119
ភាវំ។	-11.3122
ចល	-11.3124
បញ្ញំ	-11.3124
▁បច្ចវេក្ខណា	-11.3125
សេខ	-11.3126
▁មហត្ត	-11.3126
▁អភិភូត	-11.3128
▁មិថិល	-11.3128
▁នអាសេវនបច្ចយា	-11.3128
▁អាហិណ្ឌ	-11.3128
▁ភេរវ	-11.3128
▁អយ្យោ	-11.3129
▁ភុម្មត្ថេ	-11.313
សង្គហំ	-11.313
ករុណា	-11.3131
▁បរិតោ	-11.3131
▁បដិលភតិ។	-11.3131
▁ឯថ	-11.3131
្បយុត្តលោភសហគត	-11.3132
▁បណ្ណាស	-11.3132
ាទីនីតិ	-11.3133
▁នយោតិ	-11.3133
▁សុនក្ខត្ត	-11.3133
▁ឱត្តប្បំ	-11.3134
▁ឧបហត	-11.3134
▁ឧបនីត	-11.3134
▁កាយិន្ទ្រិយំ	-11.3135
▁និក្ខមន	-11.3136
▁សន្នទ្ធ	-11.3137
▁គមិស្សតិ	-11.314
▁បដិសន្ថារ	-11.314
សញ្ញិ	-11.3141
វចនតោ	-11.3143
▁កប្បសតសហស្ស	-11.3143
▁អាយតនេហិ	-11.3143
▁បិដកត្តយ	-11.3144
វេលាយ	-11.3144
▁តឡាក	-11.3147
▁អភ	-11.3149
▁ឧបវទ	-11.3149
យន្តំ	-11.3149
▁រស្សត្តំ	-11.315
▁អនិយតា	-11.3151
អព្ភ	-11.3152
ិកេន	-11.3152
▁បទដ្ឋានំ	-11.3152
▁លោមា	-11.3153
▁ឥដ្ឋក	-11.3154
▁សព្ពលោកេ	-11.3154
▁អវធារណ	-11.3155
▁ខយេ	-11.3155
▁រំសិ	-11.3157
សំយុត្តេ	-11.3157
▁អភិសម្ពុទ្ធ	-11.3157
ឌ្ឌ	-11.3157
ចតូហិ	-11.3157
▁អហិរិក	-11.3159
ចេតសោ	-11.316
▁អមិត	-11.3161
▁សំវស	-11.3162
បច្ចុប្បន្នំ	-11.3162
ទ្ទុ	-11.3163
▁បសិទ្ធ	-11.3163
▁បិយរូបា	-11.3163
គាមិនោ	-11.3164
▁បជាបតិ	-11.3164
▁រជ្ជេ	-11.3165
មេតន្តិ	-11.3166
▁បរិស្សយ	-11.3166
▁កម្មវាចា	-11.3166
កត្តុ	-11.3167
▁មហាបញ្ញោ	-11.3168
▁វិចិកិច្ឆាសហគតំ	-11.317
▁និគ្	-11.317
ង្កោ	-11.3171
▁សទិសំ	-11.3171
▁ព្រាហ្មណី	-11.3172
ពលា	-11.3172
▁អជានន	-11.3175
បដិលាភោ	-11.3177
បរា	-11.3179
បោស	-11.3183
ផាណិត	-11.3184
▁បស្សិតុំ	-11.3184
▁សភិក្ខុកា	-11.3184
▁និមន្តន	-11.3185
▁បុណ្ឌរីក	-11.3185
▁សព្ពានិបិ	-11.3187
▁វចនេ	-11.3188
រោគោ	-11.3188
គំ	-11.3189
▁សាធូតិ	-11.319
▁វិទិតំ	-11.319
▁ឧបន	-11.3191
▁អនាគាមិស្ស	-11.3193
▁បណ្ឌរ	-11.3195
▁គាឡ្ហ	-11.3197
▁អគ្គសាវិកា	-11.3197
▁អព្ភាចិក្ខ	-11.3197
▁បរិញ្ញេយ្យ	-11.3197
▁វិជម្ភ	-11.3197
▁សត្តរតនសម្បន្នោ	-11.3198
▁ស្មិំ	-11.3198
▁អភិត្ថវ	-11.3199
▁អនាបត្តី	-11.32
▁អាណត្ត	-11.32
▁មហេសី	-11.32
▁វិបស្សន	-11.32
ដ្ឋីនិ	-11.3205
បរាយណោ	-11.3205
ក្ខាយ	-11.3205
▁អដ្ឋុប្បត្តិ	-11.3205
▁និព្ពានធាតុយា	-11.3205
▁វុដ្ឋិ	-11.3206
▁សុភា	-11.3208
សម្មតា	-11.3208
▁ឯកទេសេន	-11.3208
ប្បហានេន	-11.3209
▁អរិយវំស	-11.3212
▁បច្ចេស្ស	-11.3212
▁វញ្ចន	-11.3213
▁វិរជ្ជតិ	-11.3213
▁ភវេយ្យុំ	-11.3213
លព្ភ	-11.3214
ភវន	-11.3215
▁ជានាតី	-11.3215
▁ភេសជ្ជានិ	-11.3215
▁ថោក	-11.3216
▁តេមាសំ	-11.3218
▁អភិភូតោ	-11.3218
គោចរា	-11.3219
▁អសម្បត្ត	-11.322
▁បរិហានិ	-11.322
▁អជ្ជតគ្គេ	-11.322
ណ្ណោ	-11.3221
▁ទេសេយ្យ	-11.3221
វស្សសហស្សានិ	-11.3222
បេតវត្ថុ	-11.3222
ភគវតោ	-11.3224
▁វិរាជ	-11.3225
▁និក្ខមិ។	-11.3225
បោតក	-11.3226
បវារណា	-11.3226
▁វិកប្បន	-11.3228
▁មយូរ	-11.3229
តុន្ន	-11.3231
លក្ខ	-11.3232
▁ភជន្តិ	-11.3233
យមានំ	-11.3233
ប្បដិបត្តិ	-11.3234
▁ហរិ	-11.3235
▁ភុម្មវចន	-11.3236
មញ្ញាយ	-11.3238
▁កុសលេហិ	-11.3238
អនាគត	-11.3241
▁អដ្ឋង្គុល	-11.3243
▁ចម្មំ	-11.3243
▁វិនាសំ	-11.3244
ធូម	-11.3245
▁អលត្ថ	-11.3247
▁គមិស្សាមី	-11.3247
▁២៤៤	-11.325
▁ឆិន្ទតិ	-11.3253
▁សុសមាហិត	-11.3254
▁នភ	-11.3255
▁អនត្តមនោ	-11.3257
▁វិត្ថត	-11.3257
▁ថុតិ	-11.3259
វិកតិ	-11.3259
ាទិគុណ	-11.3259
▁ធម្មរាជ	-11.3262
កតិចិ	-11.3263
▁កតោតិ	-11.3264
▁អានិសំសា	-11.3264
▁លង្ឃ	-11.3266
▁អត្ថតកថិន	-11.3267
▁អភិសេក	-11.3267
▁សិខី	-11.3268
▁មហាបច្ចរិយំ	-11.3269
▁ហន្ទាហំ	-11.3269
▁វិញ្ញាណក្ខន្ធ	-11.3269
▁កាយវិញ្ញត្តិ	-11.3269
មានាតិ	-11.3272
▁ឧបាទានា	-11.3273
▁បដិច្ឆាទេត្វា	-11.3273
សីទ	-11.3274
▁បច្ចេកពុទ្ធា	-11.3274
▁កិមិ	-11.3275
▁បរិណត	-11.3275
ាភិនន្ទ	-11.3275
▁ឆឌ្ឌេ	-11.3275
▁អបាកដ	-11.3278
▁ហារោ។	-11.3278
▁អកាលេ	-11.3279
▁គណ្ហាតីតិ	-11.3279
▁អនធិ	-11.3281
មត្តិក	-11.3282
▁ឧបបន្នា	-11.3285
▁មុគ្គ	-11.3285
ផលក	-11.3285
▁កោស	-11.3286
▁ឥទ្ធិបាទំ	-11.3286
យន្តី	-11.3287
▁អម្ហ	-11.3287
វិរហិតំ	-11.3287
▁មហាករុណា	-11.3288
▁ឧបនិស្សយោ	-11.3289
ហារក	-11.329
ម្ហសេ	-11.329
▁បិសាច	-11.329
នក្ខត្ត	-11.3292
វលាហក	-11.3294
ភិក្ខវោ	-11.3295
▁អព្យាកតមូល	-11.3296
▁សំវណ្ណ	-11.3297
▁និរនុសយោតិ	-11.3298
▁ធម្មបដិសម្ភិទា	-11.33
▁អនិច្ចានុបស្សនា	-11.33
▁វត្តព្ពន្តិ	-11.3301
▁ករោ	-11.3301
ឃរេ	-11.3308
▁វេទនានំ	-11.3308
▁គិរ	-11.3311
▁សេសានំ	-11.3311
ឥដ្ឋ	-11.3314
▁ហទយវត្ថុ	-11.3315
ទូត	-11.3318
តោវ	-11.332
▁បកាសិតោ។	-11.3321
▁បរិវេណំ	-11.3322
▁ភណេ	-11.3323
▁ព្រហ្មចារី	-11.3324
ភេ	-11.3325
▁នាវ	-11.3326
▁អាសេវន	-11.3326
សមុទាចារ	-11.3327
▁បីតិំ	-11.3327
▁អាកង្ខតិ	-11.3328
▁អាសវេហិ	-11.3332
▁រាហុ	-11.3332
▁វិជ្ជមានេ	-11.3332
ហេតូតិ	-11.3333
▁យាវទត្ថំ	-11.3334
▁ឆ។	-11.3335
▁ករណីយា	-11.3335
▁បរិយោទាត	-11.3336
▁សេសបទេសុបិ	-11.3336
បិដ្ឋ	-11.3337
▁សម្មប្បធានា	-11.3337
▁ឧម្មត្តិកាយ	-11.3337
▁តថាវិធ	-11.3338
▁បដិពលោ	-11.3339
▁ករោន្តេ	-11.3339
ុបដ្ឋ	-11.3339
▁ទិដ្ឋិគតវិប	-11.3339
ភាវន	-11.3339
▁ធារេតីតិ	-11.334
▁សមាបជ្ជន	-11.334
▁បដិសាម	-11.334
▁សន្តីតិ	-11.334
▁គតិយំ	-11.3341
▁ចន្ទិមសូរិយា	-11.3342
▁ទុម្មនោ	-11.3343
▁មេសោ	-11.3344
▁ឱសក្ក	-11.3345
យម	-11.3346
ភត	-11.3346
▁សទេវមនុស្សាយ	-11.3346
មច្ឆរិយ	-11.3347
▁២៤៨	-11.3347
▁តប្បដិបក្ខ	-11.3348
▁វដ្ដតិយេវ។	-11.335
▁សមុដ្ឋាបេតិ	-11.3351
▁រូបសញ្ញា	-11.3355
▁ទោសេន	-11.3356
ជាតិយា	-11.3356
▁ញាបេតព្ពោ	-11.3357
▁សន្តោស	-11.3357
ក្ខណេយេវ	-11.3358
វេកល្ល	-11.3358
មិញ្ជ	-11.3361
▁នប្បជានាតិ	-11.3361
▁អតិមាន	-11.3361
ាភិមុខំ	-11.3362
ឧបាសក	-11.3364
▁បសំសន្តិ	-11.3364
បព្ភារ	-11.3365
▁វិហត	-11.3365
▁អប្បមញ្ញា	-11.3366
សម្បត្ត	-11.3367
កោដ្ឋាសេ	-11.337
▁អព្ភុតោ	-11.337
▁មូសិក	-11.337
សង្ខាតេហិ	-11.3371
រូបានំ	-11.3371
▁ទូតំ	-11.3372
▁បច្ចវេក្ខណញាណ	-11.3372
▁នាមរូបស្ស	-11.3373
▁មនុជ	-11.3373
▁បរមត្ថោ	-11.3375
នាមកំ	-11.3375
លាភា	-11.3375
ាហីតិ	-11.3376
▁សាគរោ	-11.3377
▁ឯកបទ	-11.3378
▁វូបសម្មតិ	-11.3379
▁វត្ថូហិ	-11.338
▁មហាយស	-11.3382
▁វិភូស	-11.3382
▁បត្ថេតិ	-11.3382
▁អាយតនានំ	-11.3384
▁ថូបំ	-11.3385
▁អសេស	-11.3385
វតំ	-11.3385
▁ជហន្តិ	-11.3385
▁សិម្ហិ	-11.3389
▁វត្ថុបុរេជាតំ។	-11.3389
▁គរុភណ្ឌំ	-11.3389
▁បុរោហិត	-11.3389
▁អនោត្តប្ប	-11.3389
▁នាឡិកេរ	-11.339
សទិសំ។	-11.339
តេជោ	-11.3391
បច្ចុបដ្ឋានោ	-11.3392
▁អារោចិត	-11.3393
ាបី	-11.3393
▁សលាក	-11.3394
▁នន្ទិយ	-11.3394
▁អរិយសាវក	-11.3395
មបិ	-11.3395
▁និបកោ	-11.3396
▁នយា	-11.3397
▁ព្យាបារ	-11.3399
លោកំ	-11.3403
▁សតិវិនយ	-11.3404
▁សុករំ	-11.3406
▁សម្បស្សមានោ	-11.3407
▁អង្កុរ	-11.3407
▁ទេវតាហិ	-11.3408
▁បរិបូរការី	-11.3409
▁វិវេកនិស្សិតំ	-11.3409
▁វុត្តានំ	-11.3409
កោវិទោ	-11.3409
▁លហុំ	-11.3411
▁ឧម្មាទ	-11.3411
▁ហិម	-11.3413
ប្បការំ	-11.3413
▁ទានានិ	-11.3416
▁តញ្ញេវ	-11.3417
វ្ហ	-11.3418
▁វចសា	-11.3418
▁សិរ	-11.3419
▁អនិទស្សនោ	-11.3422
▁ទមិឡ	-11.3423
▁ករោសិ	-11.3423
▁សន្ទិដ្ឋិកំ	-11.3428
្ត	-11.3428
បរមំ	-11.343
▁បាទកជ្ឈាន	-11.3433
ទុច្ចរិត	-11.3434
▁មេទ	-11.3434
▁និព្ពត្តិត	-11.3436
យាច	-11.3437
▁អសន្តំ	-11.3437
▁ជហតីតិ	-11.3439
▁ឃំស	-11.3439
▁អមូ	-11.3439
▁២៦៣	-11.3441
បរិស្សយ	-11.3442
ទិដ្ឋិយា	-11.3442
▁អបច្ចំ	-11.3443
▁វិហិំស	-11.3443
ទុក្ខស្ស	-11.3444
▁ភិន្នោ	-11.3445
▁សុខទុក្ខំ	-11.3445
▁អករោន្ត	-11.3446
▁បដិសំវេទេតិ	-11.3446
បរិយាទាន	-11.3446
េត្វា។	-11.3448
ហានិ	-11.345
ភាជនីយ	-11.345
▁អធិប្បាយំ	-11.3452
▁ឆក្ក	-11.3452
▁កុសលវិបាក	-11.3452
▁សោវណ្ណ	-11.3453
ធិការ	-11.3453
បេស	-11.3454
▁អវិបាក	-11.3455
ទាហ	-11.3455
▁បាបុណិត្វា	-11.3455
▁អប្បមាទោ	-11.3455
▁នោចិត្តសំសដ្ឋ	-11.3457
▁២៦៥	-11.3457
ដ្ឋោ។	-11.3457
នត្ថាយ។	-11.3458
ានញ្ចេវ	-11.3458
ឥមានិ	-11.3459
វណ្ណនាយំ	-11.346
▁ធិ	-11.346
សេវិត	-11.3463
អរហត្ត	-11.3463
▁ធម្មារម្មណ	-11.3464
ាយុ	-11.3466
▁អប្បិច្ឆ	-11.3467
▁ធារេតព្ព	-11.3469
▁ឆិជ្ជ	-11.3469
▁ជេដ្ឋោ	-11.347
▁ទត្ត	-11.3471
▁ចតុសច្ចធម្ម	-11.3473
▁បច្ចនីយំ	-11.3474
បដិបត្តិយា	-11.3474
▁វស្សសហស្សានិ	-11.3475
វិភាវនា	-11.3475
បរិវុត	-11.3475
▁កថេន្តិ	-11.3477
▁ជច្ចន្ធ	-11.3478
▁នវិបាកបច្ចយា	-11.3478
▁និទ្ធារិត	-11.3478
▁វិស្សុតោ	-11.3479
▁សភាវេន	-11.348
▁ឧបបត្តិក្ខណេ	-11.348
▁បតិដ្ឋាបេត្វា	-11.3481
▁បឋន្តិ	-11.3482
▁គិម្ហ	-11.3482
សង្កប្បោ	-11.3483
▁អធម្មំ	-11.3484
▁សហជាតបច្ចយា	-11.3484
▁ឧបដ្ឋាតិ	-11.3485
បុព្ពភាគ	-11.3485
▁កបិលវត្ថុ	-11.3487
▁អលីន	-11.3487
យញ្ហិ	-11.3487
▁យេភុយ្យ	-11.3487
▁អកាម	-11.3489
▁បស្សតា	-11.349
ិយត្ថេរអបទាន	-11.349
▁បាបានិ	-11.3491
▁កុទ្ធោ	-11.3491
▁អបក្កម	-11.3492
ឥទ	-11.3494
▁អនិច្ចាទិ	-11.3495
▁អនេកសត	-11.3497
▁នីវរណវិប្បយុត្ត	-11.3498
▁រាគេន	-11.3499
សម្បយោគ	-11.35
▁ផលេន	-11.35
▁និស្សិត	-11.35
បាដិហារិយ	-11.35
▁យាបេតិ	-11.3501
▁សន្ថរិត្វា	-11.3501
វីថិយំ	-11.3503
សដ	-11.3503
ិយោ។	-11.3504
▁មន្ទា	-11.3505
▁បុរក្ខតោ	-11.3506
▁អគ្គដ្ឋាន	-11.3506
ានិសំសា	-11.3506
យាបិ	-11.3507
លដ្ឋិ	-11.3507
អភិក្កន្តំ	-11.3507
ត្ថី	-11.3508
▁សមន្នាគត	-11.3508
▁សុតោ	-11.3509
បច្ឆិម	-11.3509
▁ឈានេន	-11.3509
▁អសេក្ខោ	-11.3511
▁មេឃិយ	-11.3511
▁បុព្ពា	-11.3512
បដិគ្គាហក	-11.3512
▁បដិច្ឆ	-11.3513
▁ភណ្ឌាគារិក	-11.3514
▁អវសានេ	-11.3514
▁ឯទិសោ	-11.3516
▁វិវេកជំ	-11.3517
▁អបរិយាបន្ន	-11.3519
▁សមុទាចរន្តិ	-11.3519
▁ធញ្ញំ	-11.3519
នលក្ខណា	-11.352
▁បការេហិ	-11.3526
▁សំវិជ្ជតិ	-11.3527
▁វិញ្ញាបន	-11.3527
▁នរាសភោ	-11.3529
▁កាណ	-11.3531
▁បុដ្ឋ	-11.3531
▁អាកោដ	-11.3532
▁អសក្កោន្ត	-11.3533
▁តិដ្ឋន្តិ។	-11.3533
▁ភាវេតិ។	-11.3534
តិអាទិនា។	-11.3535
▁តាឡ	-11.3536
ន្តន្តិ	-11.3538
▁សន្ធាយេត	-11.3539
▁ពាហិរក	-11.3539
▁ចាតុមហារាជិក	-11.3539
▁វុត្តេន	-11.3541
▁បដិសល្លានា	-11.3544
▁បរិសុទ្ធោ	-11.3544
▁អហញ្ហិ	-11.3545
▁សេខិយ	-11.3546
▁សីលញ្ច	-11.3546
▁អាសេវ	-11.3548
ាវី	-11.3549
▁នេសោហមស្មិ	-11.3549
▁ចេតោបរិយញាណស្ស	-11.3549
▁ចេតនាបណិធីហិ	-11.3549
▁ទុក្ខស្សន្តករោ	-11.3551
▁អន្នំ	-11.3551
▁អាបជ្ជន្តិ	-11.3552
▁កុតោចិ	-11.3552
▁បសាទំ	-11.3553
▁សហាយោ	-11.3554
ឃោសោ	-11.3554
▁មាតិកំ	-11.3555
▁ភាគំ	-11.3555
សម្ពន្ធោ	-11.3558
តិស្សត្ថេរោ	-11.3559
▁ពហុតរំ	-11.3559
វយវ	-11.356
▁សុវិភត្ត	-11.356
▁បថវីកសិណំ	-11.3562
▁វេលាយំ	-11.3563
ជរា	-11.3563
ភវោ	-11.3564
យាយ	-11.3568
▁សភិក្ខុកោ	-11.3569
▁វាសវ	-11.3572
ឥច្ឆ	-11.3572
▁ទីបង្ករ	-11.3576
ពិម្ព	-11.3578
▁បសំសា	-11.358
▁បត្តោ។	-11.3582
សមាធី	-11.3582
▁សូច	-11.3582
▁២៤៦	-11.3583
ន្តុ។	-11.3583
▁បក្កាមិ	-11.3587
▁និព្ពត្តំ	-11.3588
ករណត្ថំ	-11.3589
រណេ	-11.359
▁សញ្ជានន	-11.3591
▁មតេ	-11.3593
▁២៤៥	-11.3594
សោឡស	-11.3594
▁បាណិនា	-11.3594
▁សាតិសយ	-11.3594
▁ខេត្តេ	-11.3596
ចាល	-11.3596
វិតក្កវិចារមត្តំ	-11.3597
▁ខណោ	-11.3597
▁ភុញ្ជន្តស្ស	-11.3598
▁អនុបស្សតិ	-11.3598
▁កិញ្ចន	-11.3598
▁វីរោ	-11.3602
មោច	-11.3603
▁មន្តិ	-11.3604
▁គោតមី	-11.3607
▁បរិភវ	-11.3609
ុត្ត	-11.3609
បតន	-11.3612
▁អនុប្បន្នានំ	-11.3612
▁បច្ចយភូត	-11.3612
▁តត្តកំ	-11.3613
▁អាបាទ	-11.3614
▁បវេសន	-11.3615
▁វទន្តីតិ	-11.3616
និព្ពត្តក	-11.3616
▁អនុមោទន	-11.3618
▁សេសោ	-11.3619
វតា	-11.362
▁គាថាទ្វយមាហ	-11.3621
▁បិង្គិយ	-11.3621
▁លិច្ឆវី	-11.3621
▁បស្សសិស្សាមី	-11.3621
▁តតុត្តរិ	-11.3621
▁កតិបយ	-11.3622
▁និលីយ	-11.3622
▁វិសេសាធិគម	-11.3622
▁ឧច្ឆិជ្ជ	-11.3623
▁បីឋំ	-11.3623
▁កតមេសំ	-11.3624
ភុត	-11.3625
▁មច្ឆេរ	-11.3625
▁សាតរូបំ	-11.3625
▁បក្កន្ត	-11.3625
▁ឋានន្តិ	-11.3625
▁មច្ឆោ	-11.3625
▁សមោធានេត្វា	-11.3626
សមណព្រាហ្មណ	-11.3626
▁ករោម	-11.3627
ច្ឆរ	-11.3628
▁តុម្ហាក	-11.3629
▁ទុព្ភាសិត	-11.363
▁សាត្ថិកា	-11.363
ាទេសា	-11.3631
▁តិដ្ឋតុ	-11.3631
▁បជានាតីតិ	-11.3632
▁អចរិ	-11.3632
មនសិការោ	-11.3635
▁មាតុយា	-11.3636
▁កទលិ	-11.3636
ឥច្ចាយស្មា	-11.3636
▁ឧម្មត្តក	-11.3636
▁អព្យាកតា។	-11.3637
ទ្ទស	-11.3637
▁សមេន	-11.3637
▁កោធនោ	-11.3638
▁កាយសង្ខារ	-11.3638
បរាធ	-11.3639
▁ឥច្ឆាមិ	-11.364
▁ជនយ	-11.364
▁សុមនា	-11.3641
▁ឋបេន្តោ	-11.3641
▁ឋានសោ	-11.3641
▁មហាថេរោ	-11.3642
▁គវេសន្តោ	-11.3642
▁អស្សុតវា	-11.3642
▁អរក្ខិត	-11.3643
▁២៥៦	-11.3643
ស្មី	-11.3646
អាទេសោ	-11.3647
នាសិក	-11.3647
ចតុរ	-11.3649
▁សលក្ខណ	-11.365
▁អធម្មកម្ម	-11.365
ផរុស	-11.365
▁អាយូ	-11.3654
ចូឡ	-11.3654
សាមត្ថិយ	-11.3655
▁ព្យាករណ	-11.3655
▁និច្ឆយ	-11.3655
▁ទ្វិបទ	-11.3657
▁បហិណ	-11.3658
▁វីតិនាមេ	-11.3659
▁២៦៤	-11.3661
▁អារោគ្យ	-11.3662
▁វិហារា	-11.3662
▁វាទិត	-11.3663
▁វុត្តប្បការេន	-11.3664
ាតិអាទិមាហ។	-11.3669
▁តេនាវុសោ	-11.367
ដ្ឋិតោ	-11.3672
▁សាធូ	-11.3673
▁សីលាទិគុណ	-11.3673
▁ឧបាយោ	-11.3674
▁សវិតក្ក	-11.3674
ករេ	-11.3675
▁វឡញ្ជ	-11.3675
▁តថូបម	-11.3675
ចេតិយំ	-11.3676
កថិន	-11.3676
សតសហស្សានិ	-11.368
▁សុខំ។	-11.368
▁គណភោជន	-11.3681
▁បរិបុណ្ណោ	-11.3682
▁ទុម្មេធ	-11.3684
▁អប្បិយោ	-11.3685
▁សមូហោ	-11.3686
▁អភិវាទន	-11.3686
រត្តិំ	-11.3688
▁អាបាយិក	-11.3689
ភាណី	-11.369
ទណ្ឌោ	-11.3692
▁អកប្បិយំ	-11.3694
▁បទច្ឆេទោ។	-11.3694
▁អញ្ញាតាវី	-11.3694
មានសំ	-11.3695
ានាគត	-11.3695
▁វោដ្ឋព្ពន	-11.3696
បរេ	-11.3696
▁និច្ឆរ	-11.3697
វេវចន	-11.3698
▁ភទ្ទន្តេ	-11.3698
▁គាមា	-11.3699
▁ភគវន្តោ	-11.3699
▁អនុសន្ធិំ	-11.3701
មេវេតំ	-11.3702
▁បញ្ចហាការេហិ	-11.3703
▁រត្តិន្ទិវ	-11.3703
▁ផោដ្ឋព្ពេ	-11.3703
▁សោតាបន្នា	-11.3704
កុក្កុច្ច	-11.3706
▁មារណ	-11.3706
វារិ	-11.3707
ាទីហីតិ	-11.3709
▁អន្តរធាន	-11.3709
▁វិញ្ញាយតីតិ	-11.371
សត្តម	-11.3711
▁កថិនេ	-11.3712
▁លហុតា	-11.3713
ចរិតោ	-11.3713
▁បាបស្ស	-11.3713
▁នហេតុបច្ចយោ	-11.3715
▁បវរោ	-11.3716
▁កមល	-11.3718
▁ចេស	-11.3718
បរិសង្កិត	-11.3718
រុក្ខេ	-11.3719
▁អរិយមគ្គេន	-11.3719
មានស	-11.372
▁បិហ	-11.3723
▁អល្លីយ	-11.3723
▁កាមគុណេសុ	-11.3723
▁បដិហញ្ញ	-11.3725
▁ព្យញ្ជនេ	-11.3725
ទេវា	-11.3725
វជ្ជិតា	-11.3727
▁អវធិ	-11.3728
បរិភោគោ	-11.3728
▁ផុសន	-11.3728
ភិក្ខវេ	-11.3729
▁សាមត្ថិយ	-11.3729
▁បុមា	-11.3731
▁វេបុល្ល	-11.3731
▁ចលន	-11.3734
▁លិខិត	-11.3734
ិត្ថិយា	-11.3735
▁អការន្ត	-11.3735
▁តហំ	-11.3736
បរិក្ខ	-11.3737
▁បញ្ញត្តោ	-11.3737
ភេរិ	-11.3739
▁ឧព្ភ	-11.3741
▁ឥច្ឆាយ	-11.3743
▁ពហូសុ	-11.3743
▁មុទិត	-11.3745
▁ឧបចិត	-11.3745
▁អសម្ភវតោ	-11.3746
លាភិនោ	-11.3748
▁ឧប្បជ្ជិ។	-11.3749
▁បរិត្តារម្មណំ	-11.3749
កោសល្ល	-11.375
▁២៦៩	-11.375
កហំ	-11.375
▁សុត្តបទ	-11.3753
▁បដិច្ឆន្នា	-11.3754
▁វិសត្តិកា	-11.3755
នន្ទី	-11.3755
▁តាវតា	-11.3756
វជ្ឈ	-11.3756
ធម	-11.3756
ាវហារ	-11.3758
អញ្ញមញ្ញបច្ចយេន	-11.3758
វរេ	-11.3759
▁ផរុសា	-11.3759
រញ្ញ	-11.376
▁បិសុណ	-11.376
▁វិរោចតិ	-11.3762
ភូតានិ	-11.3762
▁និស្សដ្ឋ	-11.3764
▁ជានន្តិ។	-11.3765
▁ឱសារណ	-11.3765
ាបេន្តស្ស	-11.3767
▁អគ្គមក្ខាយតិ	-11.3767
▁ព្រាហ្មណមហាសាល	-11.3767
▁អនាគតំសញាណស្ស	-11.3767
▁វិកាលភោជន	-11.3768
▁អនាវាសោ	-11.3768
▁បរិវាស	-11.3768
▁សមានសំវាសក	-11.3768
អនាថបិណ្ឌិក	-11.3768
កាតព្ព	-11.3769
អម្ភោ	-11.377
▁ពុទ្ធានុស្សតិ	-11.377
▁សទ្ទេន	-11.377
▁បមុញ្ច	-11.3771
វីតិ	-11.3771
▁តិវេទនន្តិ។	-11.3772
▁ទណ្ឌិ	-11.3772
▁កិល	-11.3772
សក្ការ	-11.3773
ាភិភូ	-11.3773
▁ទុប្	-11.3774
▁អនុស្សតិ	-11.3776
▁២៥៨	-11.3778
▁ឯកាហប្បដិច្ឆន្ន	-11.3779
វណិជ្ជ	-11.3779
▁កេនចិទេវ	-11.378
▁នីវរណេ	-11.378
▁តយោបិ	-11.378
▁មិច្ឆត្ត	-11.3781
អន្ត	-11.3783
▁ទណ្ឌោ	-11.3783
ទាតុកាម	-11.3783
▁អាយាច	-11.3783
▁មទ្ទិត្វា	-11.3785
▁វណ្ណិត	-11.3786
មស្សាតិ	-11.3787
បរាជិត	-11.3787
▁ទារកោ	-11.3789
ាតិក្កមេ	-11.3789
ទហន	-11.3791
▁នារិ	-11.3792
▁តេវិជ្ជ	-11.3792
ភិញ្ញ	-11.3793
មុទ្ទិក	-11.3793
និកាយដ្ឋកថាយ	-11.3794
▁បព្ពាជ	-11.3794
▁មោឃបុរិស	-11.3795
ុប្បន្នំ	-11.3795
អយ	-11.3796
▁វិនដ្ឋ	-11.3796
▁សាវសេស	-11.3797
▁វីមំសា	-11.3797
ម្ពុជ	-11.3798
▁សារម្មណោ	-11.3801
▁សុត្តំ។	-11.3802
▁សម្មតា	-11.3802
▁វសនដ្ឋាន	-11.3802
មច្ចុ	-11.3803
▁តាណ	-11.3804
▁បរិចារក	-11.3804
▁សមន្តចក្ខុ	-11.3805
វិបស្សនាយ	-11.3805
▁អស្សទ្ធ	-11.3806
▁ធេនុ	-11.3806
ភូមក	-11.3806
▁សប្បដិឃំ	-11.3806
វហ	-11.3807
▁អស្សាទញ្ច	-11.3807
▁សុញ្ញា	-11.3809
▁គណ្ឋិ	-11.381
▁វវត្ថិត	-11.381
▁អធិវាសន	-11.381
▁តណ្ហាបច្ចយា	-11.3811
▁ទេវមនុស្ស	-11.3811
▁បលាស	-11.3813
▁ឯកាទសហិ	-11.3814
▁ខាយតិ	-11.3816
▁បីតិសហគត	-11.3816
▁២៦៧	-11.3818
ភូតបុព្ពំ	-11.3818
▁វិហ	-11.3819
▁កុហក	-11.3821
▁ទ្វា	-11.3822
▁ជានិ	-11.3822
▁បារមិំ	-11.3823
▁សវិចារំ	-11.3824
លោបេ	-11.3824
ភិសិ	-11.3825
ការិនោ	-11.3826
▁វាល	-11.3826
បវិដ្ឋ	-11.3828
▁មគ្គោ។	-11.3828
ពាល	-11.3828
▁មហាភោគ	-11.383
▁ទេវេហិ	-11.3831
▁ភយេន	-11.3832
ុប្ប	-11.3832
▁វដ្ដទុក្ខ	-11.3834
ការណំ។	-11.3834
ច្ឆទ	-11.3835
▁សំវេជ	-11.3836
▁ឱបបាតិក	-11.3837
ទីបនត្ថំ	-11.3837
▁សទា។	-11.3839
ផលានិ	-11.384
▁ធតរដ្ឋ	-11.384
▁តព្ភាវ	-11.384
▁និទ្ធារេត្វា	-11.3841
▁បរិទីបិត	-11.3841
▁បរិមជ្ជ	-11.3841
នីត	-11.3841
ហតា	-11.3843
▁វិចរន្ត	-11.3843
▁ឥជ្ឈ	-11.3844
▁អគា	-11.3844
ុជ្ជន	-11.3846
ភាវេបិ	-11.3847
▁វស្សសហស្ស	-11.3848
▁២៨០	-11.3848
▁ឯតទគ្គេ	-11.3849
▁អទោស	-11.3849
ឌ	-11.385
▁២៤៧	-11.3853
គុឡ	-11.3854
▁និយមេត្វា	-11.3855
▁វចនមព្រវិ	-11.3856
▁បរិជានន្តិ	-11.3858
▁ទេសេតិ។	-11.3859
▁វិញ្ញូហិ	-11.3859
រហិតោ	-11.3859
▁សន្និបតន្តិ	-11.386
▁យថាសកំ	-11.386
▁ជនានំ	-11.3861
ាទិកថា	-11.3864
▁២៦២	-11.3865
▁តម្	-11.3866
▁អធិដ្ឋាតិ	-11.3866
▁បុថ	-11.3868
▁សុខសហគតា	-11.3869
ឧបេក្ខា	-11.387
▁និទ្ទិដ្ឋំ	-11.3872
▁បដិញ្ញាយ	-11.3873
▁ជេតវន	-11.3874
ធារា	-11.3874
▁២៦៦	-11.3875
▁គតី	-11.3876
បទេសុ	-11.3878
សិនា	-11.3879
ត្តស្ស	-11.3881
កោសល្លំ	-11.3882
▁អប្បមាណា	-11.3883
▁អភិនិវេសោ	-11.3886
▁កដុក	-11.3887
▁ហត្ថា	-11.3888
▁សក្ខរ	-11.3889
▁អធិដ្ឋ	-11.389
▁អាគមិស្សតិ	-11.3891
▁សុបិនំ	-11.3892
▁ឋិតោតិ	-11.3892
ត្ថានំ	-11.3894
▁ឧត្តរោ	-11.3895
គ្គយ្ហ	-11.3896
▁ឧប្បជ្ជនតោ	-11.3898
▁អមូឡ្ហវិនយ	-11.3898
▁អប្បិច្ឆា	-11.3899
▁សុខាវហ	-11.39
▁វិរោធ	-11.3901
▁សុខុមា។	-11.3901
ទូសក	-11.3902
▁ថវ	-11.3903
▁ឧទបាទីតិ	-11.3904
ធោត	-11.3904
ដ្ឋានន្តិ	-11.3905
បុគ្គលស្ស	-11.3906
▁វុត្តេហិ	-11.3906
▁យុត្តំ។	-11.3906
▁មានេ	-11.3906
▁ព្រូ	-11.3909
▁សទ្ធម្មស្ស	-11.3909
ាយតនានិ	-11.3911
▁ទុប្បញ្ញ	-11.3912
▁ជនតា	-11.3913
▁ឧម្មុជ្ជ	-11.3914
▁ភិក្ខុនុបស្សយ	-11.3914
▁យាវតាយុកំ	-11.3914
▁មហព្ភយ	-11.3914
▁នានុសេតីតិ	-11.3915
[...]
