<unk>	0
<s>	0
</s>	0
,	-2.90909
।	-2.92666
.	-3.93758
ಂ	-3.97713
ತಿ	-4.01497
▁‘‘	-4.24856
▁	-4.4832
’’	-4.50062
▁ಚ	-4.55129
ಾ	-4.57273
▁ನ	-4.59211
ೋ	-4.62295
ೇ	-4.92608
ನ್ತಿ	-4.96358
▁ವಾ	-4.98518
ಸ್ಸ	-5.02369
॥	-5.06376
▁–	-5.24497
ೇನ	-5.37514
▁ಹೋತಿ	-5.51583
▁ಪನ	-5.52527
▁ತಂ	-5.6597
ಪೇ	-5.66263
?	-5.67497
॰	-5.74093
▁ತತ್ಥ	-5.77704
▁ಸೋ	-5.89238
▁ಏವಂ	-5.91352
ಪಿ	-5.94896
ತೋ	-5.95005
▁ನಾಮ	-5.97233
▁ಖೋ	-5.98698
-	-6.01932
ಞ್ಚ	-6.03606
▁ಅ	-6.0809
▁ಭಿಕ್ಖವೇ	-6.11006
ಾನಂ	-6.1332
’	-6.14149
▁ತಸ್ಸ	-6.14164
▁ತೇ	-6.15362
ನ	-6.19461
▁ಹಿ	-6.2548
ಾತಿ	-6.26048
ಾನಿ	-6.26286
ೇಹಿ	-6.33895
▁ವುತ್ತಂ	-6.36501
ವ	-6.40312
▁ಅತ್ಥೋ	-6.45989
ೇಸು	-6.48153
ಾಯ	-6.512
;	-6.55039
▁‘	-6.55044
ಿ	-6.56719
▁ಧಮ್ಮಾ	-6.59181
▁ಧಮ್ಮೋ	-6.61123
▁ಮೇ	-6.61692
ವಸೇನ	-6.62254
▁ತೇಸಂ	-6.6236
ನಂ	-6.6287
▁ಧಮ್ಮಂ	-6.64705
▁ಉಪ್ಪಜ್ಜತಿ	-6.66472
▁ಅಯಂ	-6.67753
▁ಪಚ್ಚಯೋ	-6.68228
▁ತೇನ	-6.68323
▁ವಿಯ	-6.72069
▁ಯಥಾ	-6.72078
▁ಪಟಿಚ್ಚ	-6.73824
▁ಯಂ	-6.78395
▁ಭಿಕ್ಖು	-6.79861
ೀ	-6.81114
▁ಏಕಂ	-6.84393
▁ದ್ವೇ	-6.84509
▁ಯೋ	-6.84776
▁ಕತ್ವಾ	-6.84837
▁ಅಥ	-6.85461
ತ್ತಾ	-6.85892
▁ಏತ್ಥ	-6.86578
▁ನೋ	-6.87639
ತಾ	-6.8892
▁ತಥಾ	-6.90674
▁ತಸ್ಮಾ	-6.90751
▁ಭಗವಾ	-6.92121
▁ಆಹ	-6.92176
▁ಸ	-6.92827
▁ಭನ್ತೇ	-6.93059
ಮ್ಪಿ	-6.9335
ಾದಿ	-6.941
▁ಇದಂ	-6.94136
▁ತತೋ	-6.95416
ಯ	-7.01699
▁ತೀಣಿ	-7.01713
ಕ	-7.05659
ಮೇವ	-7.07416
▁ಅತ್ತನೋ	-7.07815
ಯೇವ	-7.09922
▁ವುಚ್ಚತಿ	-7.15591
ಕೋ	-7.15896
▁।	-7.17042
▁ಪಞ್ಚ	-7.17389
▁ಇಧ	-7.18472
▁ಯಸ್ಸ	-7.19592
▁ಚಿತ್ತಂ	-7.20561
▁ಅತ್ಥಿ	-7.20782
ಸು	-7.2142
▁ಸಾ	-7.2323
▁ನತ್ಥಿ	-7.23921
▁ನವ	-7.2469
▁ಯೇ	-7.2529
ಮ	-7.26641
ೋತಿ	-7.27104
▁ತಸ್ಮಿಂ	-7.28076
ಯೋ	-7.28124
▁ಹೋನ್ತಿ	-7.28559
ತೀತಿ	-7.28821
ನಾ	-7.2981
▁ಏವ	-7.31015
▁ಇತಿ	-7.31537
▁ಸತ್ತ	-7.32439
ಯಾ	-7.32587
▁ಭಿಕ್ಖೂ	-7.35842
ತಾಯ	-7.35895
▁ನಿಟ್ಠಿತಾ	-7.3598
ಅ	-7.38121
ಿತ್ವಾ	-7.383
ಯಂ	-7.39384
▁ಕಿಂ	-7.42173
ಹಿ	-7.42455
ಕಂ	-7.42461
ೇತಿ	-7.42589
ಮ್ಹಿ	-7.44131
▁ಚೇವ	-7.45171
ತಿಆದಿ	-7.46058
ಡ್	-7.46208
ೇಯ್ಯ	-7.4702
ಸಿ	-7.47179
▁ಮಹಾ	-7.47924
▁ಹೇತುಪಚ್ಚಯಾ	-7.48099
▁ಭಗವತೋ	-7.48735
ತಂ	-7.49331
▁ಧಮ್ಮಸ್ಸ	-7.49682
▁ರೂಪಂ	-7.52884
▁ಆಪತ್ತಿ	-7.52986
▁ಹುತ್ವಾ	-7.54112
▁ಸಬ್ಬ	-7.55123
ನ್ತೋ	-7.55277
▁ಇಮಿನಾ	-7.59603
ಕಾ	-7.59819
▁ಯತ್ಥ	-7.59949
▁ಖನ್ಧಾ	-7.60203
▁ಆಮನ್ತಾ	-7.61423
▁ಏಕ	-7.61549
▁ಇಮೇ	-7.63033
ಸ	-7.63107
▁ಪ	-7.64039
▁ಧಮ್ಮ	-7.64494
▁ಯಾ	-7.6493
▁ಇಮಂ	-7.67146
▁ವ	-7.67574
▁ದಿಸ್ವಾ	-7.69203
▁ಅಹೋಸಿ	-7.69377
▁ಯೇನ	-7.70085
▁ಸದ್ಧಿಂ	-7.70237
▁ಸು	-7.71146
▁ಅಹಂ	-7.71843
▁ಹೋತೀತಿ	-7.71898
▁ರಾಜಾ	-7.71928
▁ಕಥಂ	-7.71955
▁ತ್ವಂ	-7.7331
▁ಹೇತು	-7.74309
▁ತದಾ	-7.75267
▁ಪುನ	-7.75533
▁ಸಿಯಾ	-7.75875
▁ಆವುಸೋ	-7.76199
▁ತಯೋ	-7.76753
▁ಮಂ	-7.77306
▁ನು	-7.77621
▁ಮಮ	-7.79121
▁ಸಚೇ	-7.8041
▁ಗಹೇತ್ವಾ	-7.81267
ನಿ	-7.81599
▁ಛ	-7.81653
▁ಏಕೋ	-7.82836
ಸುತ್ತಂ	-7.83636
▁೧	-7.83749
▁ಸತಿ	-7.84048
▁ಭಗವತಾ	-7.84352
ಾದೀಸು	-7.84511
ನೋ	-7.85059
▁ಇದಾನಿ	-7.85228
ತೀ	-7.85265
▁ಪಞ್ಞಾ	-7.85942
▁ಸತ್ಥಾ	-7.87492
▁ಮಾ	-7.8767
▁ಅನು	-7.89991
ಸುತ್ತವಣ್ಣನಾ	-7.9008
ಾದೀನಂ	-7.90554
▁ಪುಗ್ಗಲೋ	-7.90661
▁ಸಹ	-7.90894
▁ವಿ	-7.91543
ಪ	-7.92968
▁ವಿಹರತಿ	-7.93338
▁ಸುತ್ವಾ	-7.93751
ತೇ	-7.94428
▁ಪಚ್ಚಯಾ	-7.94516
ಾಪಿ	-7.94529
▁ಸಬ್ಬಂ	-7.9456
▁ಮಹಾರಾಜ	-7.9464
▁ಕತಂ	-7.94709
ಸೋ	-7.95168
ಿಕಾ	-7.95483
▁ಉಪ	-7.95611
ತ್ಥ	-7.96094
▁ಯಸ್ಮಾ	-7.96109
▁ತಾವ	-7.97827
▁ಚತ್ತಾರೋ	-7.97878
ೇತ್ವಾ	-7.97908
ಾದಯೋ	-7.98701
ು	-7.98812
ಭಾವಂ	-8.00869
▁ತೇನಾಹ	-8.00956
▁ದಸ್ಸೇತಿ	-8.02337
▁ನಹೇತು	-8.02405
▁ವತ್ವಾ	-8.03153
ಭಾವೇನ	-8.03229
▁ಲೋಕೇ	-8.03249
ಸದ್ದೋ	-8.03338
▁ಸಬ್ಬೇ	-8.03481
▁ಆರಬ್ಭ	-8.03676
ತಿಆದಿನಾ	-8.04833
▁ಪಠಮಂ	-8.05654
▁ಚತ್ತಾರಿ	-8.05739
ಕಥಾ	-8.058
▁ವಟ್ಟತಿ	-8.06584
▁ಖನ್ಧೇ	-8.06594
▁ಯೋಜನಾ	-8.06631
▁ಪುಬ್ಬೇ	-8.06759
▁ಅಟ್ಠ	-8.06781
▁ಸಮಯೇ	-8.07436
▁ವೇದನಾ	-8.07921
▁ಏತಂ	-8.0794
▁ಕಿರ	-8.08457
▁ಕರೋತಿ	-8.08736
▁ಗನ್ತ್ವಾ	-8.08874
ಭಾವೋ	-8.09581
ಿತ	-8.09879
ೀತಿ	-8.10039
ಾದೀಹಿ	-8.10136
▁ವತ್ತಬ್ಬೇ	-8.10252
▁ವೇದಿತಬ್ಬೋ	-8.10689
▁ಭಿಕ್ಖುನೋ	-8.11067
▁ನೇವ	-8.11364
▁ವುತ್ತಾ	-8.11532
▁ಚೇ	-8.11629
▁ಚಿತ್ತ	-8.11906
▁ದಸ	-8.1214
▁ನಯೋ	-8.12339
ನೇ	-8.12384
▁ಕಮ್ಮ	-8.12421
ತ	-8.13087
▁ಠಪೇತ್ವಾ	-8.13239
ಕಾಲೇ	-8.13472
▁ಮಯಾ	-8.13489
▁ಕಮ್ಮಂ	-8.14817
▁ಕೋ	-8.149
▁ಇಮಸ್ಮಿಂ	-8.15213
ಥ	-8.15393
▁೨	-8.1672
▁ಸನ್ಧಾಯ	-8.16771
ಚ	-8.16919
ಾನೀತಿ	-8.17305
▁ಅಸ್ಸ	-8.17443
▁ಪರಂ	-8.17567
▁ಕಿಞ್ಚಿ	-8.17792
೭	-8.18406
▁ಆಯಸ್ಮಾ	-8.18711
ಿತಾ	-8.18818
▁ದುಕ್ಖಂ	-8.19277
ಸ್ಮಿಂ	-8.19413
▁ಮಯ್ಹಂ	-8.19975
ಕೇ	-8.20009
ವಿ	-8.20556
ನ್ತೀತಿ	-8.20596
▁ಭೋ	-8.20859
▁ತು	-8.21233
ತು	-8.21465
ಾದೀನಿ	-8.21565
▁ಭಗವನ್ತಂ	-8.22141
ವಾ	-8.22186
▁ಧಮ್ಮೇ	-8.223
▁ಯಾವ	-8.22372
▁ರೂಪ	-8.2245
ಿಂಸು	-8.22525
▁ಅತ್ಥ	-8.22718
ಮಾ	-8.22911
ಿಂ	-8.23015
▁ವತ	-8.23062
▁ಚಾತಿ	-8.2336
▁ಸಮನ್ನಾಗತೋ	-8.23491
ಿಯಾ	-8.2375
▁ಅಞ್ಞಂ	-8.24083
೬	-8.24459
ಧಮ್ಮ	-8.25181
ತ್ಥಾಯ	-8.25878
ಿಯ	-8.25976
▁ದುಕ್ಖ	-8.25978
▁ಗಚ್ಛತಿ	-8.26164
▁ತಣ್ಹಾ	-8.26488
ಿತುಂ	-8.26519
ಿತೋ	-8.26519
▁ಸಮ್ಬನ್ಧೋ	-8.26624
▁ದಸ್ಸೇತುಂ	-8.2677
▁ವತ್ಥು	-8.26801
▁ಇತೋ	-8.27163
▁ಪಟಿ	-8.27399
ೇಪಿ	-8.2759
ೇನಾತಿ	-8.27933
೯	-8.28156
▁ವುತ್ತೋ	-8.28187
▁ಥೇರೋ	-8.29056
ಿತಂ	-8.29723
▁ದಿಟ್ಠಿ	-8.29784
ತ್ಥಂ	-8.30306
▁ಉಪ್ಪಜ್ಜಿಸ್ಸತಿ	-8.30511
ಟ್ಠೇನ	-8.30706
▁ವದನ್ತಿ	-8.30841
೪	-8.30845
▁ಸಮ	-8.3093
೫	-8.31025
▁ಬುದ್ಧ	-8.31182
▁ಸಮ್ಮಾ	-8.31903
▁ಉಪ್ಪಜ್ಜನ್ತಿ	-8.32006
▁ವೇದಿತಬ್ಬಂ	-8.32186
೩	-8.32308
ಿಕ	-8.32528
೧	-8.32846
ವಣ್ಣನಾ	-8.33219
▁ಪಠಮ	-8.33272
ಮಾನೋ	-8.33398
▁ಅನ	-8.33446
▁ಯದಿ	-8.3348
ವಗ್ಗೋ	-8.33845
ಾಮಿ	-8.34095
▁ಜಾನಾತಿ	-8.34144
೮	-8.34333
▁ದಸ್ಸೇನ್ತೋ	-8.35042
▁ವಚನಂ	-8.35494
▁ಖನ್ಧಾನಂ	-8.36526
೨	-8.3678
▁ಆ	-8.37022
▁ಝಾನಂ	-8.37036
▁ಫಲಂ	-8.37149
▁ತೇಸು	-8.3716
ೇವ	-8.37277
ಭಾವ	-8.37416
▁ಭವ	-8.37545
▁ಞಾಣಂ	-8.37945
ಯೇ	-8.38279
▁ತಸ್ಸಾ	-8.38402
▁ದೇವ	-8.38623
▁ಕೇಚಿ	-8.3872
▁ರಞ್ಞೋ	-8.38839
▁ಚಿತ್ತಸ್ಸ	-8.38841
ಭಾವತೋ	-8.39139
▁ಹೇತುಯಾ	-8.3923
▁ವಸೇನ	-8.39373
▁ಬ್ರಾಹ್ಮಣ	-8.39975
▁ಅನ್ತೋ	-8.40928
▁ವೇದಿತಬ್ಬಾ	-8.41129
ೇನೇವ	-8.41142
▁ರಾಜ	-8.41632
▁೩	-8.41923
▁ಹೇಟ್ಠಾ	-8.42307
▁ಕಸ್ಮಾ	-8.42668
ನ್ತಸ್ಸ	-8.42766
ನ್ತಾ	-8.43137
ತ್ತ	-8.43178
▁ಪಟ್ಠಾಯ	-8.43458
▁ಫಲ	-8.43672
ರೂಪ	-8.44159
▁ಸಙ್ಘೋ	-8.44202
▁ವುತ್ತ	-8.44294
▁ಏಸ	-8.44325
ಹಂ	-8.44418
▁ಸುಖಂ	-8.44629
ಹೇತು	-8.44857
▁ಕುಸಲಾ	-8.45142
▁ಭಿಕ್ಖೂನಂ	-8.45424
▁ಪರ	-8.45498
▁ಜಾತಿ	-8.45531
▁ಕಾಮ	-8.46103
ೇಸಿ	-8.46335
▁ಹೇವಂ	-8.46789
▁ಭವಿಸ್ಸತಿ	-8.46798
▁ಅಧಿಪ್ಪಾಯೋ	-8.46952
▁ಸಬ್ಬತ್ಥ	-8.47776
▁ಬುದ್ಧೋ	-8.47969
▁ದುತಿಯ	-8.48265
▁ತತ್ರ	-8.48547
▁ತಾನಿ	-8.48811
ಲ	-8.48877
▁ಕತಮೇ	-8.48947
▁ವೋ	-8.48992
▁ಸಮಯೇನ	-8.49207
▁ಪಚ್ಛಾ	-8.49271
▁ಮಗ್ಗ	-8.49502
▁ತೇಹಿ	-8.50564
ಞ್ಚೇವ	-8.5073
ಕಮ್ಮ	-8.50808
▁ಪುರಿಸೋ	-8.5098
ಾವ	-8.51012
ಸಂ	-8.51267
▁ಸತ್ತಾ	-8.51292
▁ಸಞ್ಞಾ	-8.51525
▁೪	-8.51821
▁ಪುಚ್ಛಾ	-8.52356
ಕಥಾವಣ್ಣನಾ	-8.52364
▁ದುಕ್ಕಟಂ	-8.52673
▁ಉಪಸಙ್ಕಮಿತ್ವಾ	-8.52755
▁ಕತ	-8.53186
▁ನಿಸ್ಸಾಯ	-8.53286
▁ಏತದವೋಚ	-8.53343
ತ್ತಂ	-8.53372
ಸಿಕ್ಖಾಪದವಣ್ಣನಾ	-8.53445
▁೭	-8.53567
▁ಏವಮೇವ	-8.54078
▁ವೇದನಾಯ	-8.54941
▁ಅನಾಪತ್ತಿ	-8.55126
▁ಞಾಣ	-8.55137
▁ಇಮಸ್ಸ	-8.5529
ಹ	-8.55605
▁ಹೋತೀ	-8.55622
ಅಯಂ	-8.56129
▁ತ	-8.56177
▁ತವ	-8.56319
▁ಸನ್ತಿಕೇ	-8.567
ಸಾ	-8.5681
▁ಕುಸಲಂ	-8.5684
▁ಅತಿ	-8.56887
▁ಸುಖ	-8.57117
▁ದತ್ವಾ	-8.57321
▁ಸೇಸಂ	-8.57474
ನ್ತೀ	-8.57535
▁ಏಸೇವ	-8.57697
▁ದಾನಂ	-8.57877
▁ವುತ್ತೇ	-8.5796
▁ಪರಿ	-8.58078
▁ಅಭಿ	-8.58259
▁ಬುದ್ಧಸ್ಸ	-8.58553
ಪ್ಪ	-8.5862
▁ಇಮಾ	-8.58982
▁ತಥಾಗತೋ	-8.59047
▁‘‘‘	-8.59116
▁೫	-8.59453
▁ಪಸ್ಸತಿ	-8.59472
▁ಅತ್ತನಾ	-8.59625
▁ಏಕಮನ್ತಂ	-8.59765
▁ಮಗ್ಗೋ	-8.60572
ತ್ಥೋ	-8.60954
▁ಕೋಚಿ	-8.6126
ಟ್ಠಾನೇ	-8.62351
▁ಆನನ್ದ	-8.62837
ಏವಂ	-8.63076
▁ಓ	-8.63344
▁ಅತ್ಥಂ	-8.63399
▁ಸಮಾಧಿ	-8.63485
ತಿಆದೀಸು	-8.63509
▁ಪಞ್ಞಾಯ	-8.63936
ಪಚ್ಚಯಾ	-8.63994
▁ಉ	-8.64085
▁ಆರಮ್ಮಣೇ	-8.64112
ಸ್ಸಾತಿ	-8.64394
▁ಪತ್ತ	-8.64457
▁೬	-8.64469
▁ಸಕ್ಕಾ	-8.64576
▁ಉಪರಿ	-8.6479
▁ವದತಿ	-8.64803
▁ಸಯಂ	-8.64821
▁ಕ	-8.64877
▁ಬ್ರಾಹ್ಮಣೋ	-8.65017
ಸದ್ದೇನ	-8.65139
ಜ	-8.65472
▁ಅತ್ತಾನಂ	-8.65697
ಕಿಂ	-8.65802
ರ	-8.66084
▁ಅಪ್ಪ	-8.6633
▁ನಿಬ್ಬಾನಂ	-8.66357
ಭಿ	-8.66499
ಮ್ಹಾ	-8.6663
▁ಅಕುಸಲಾ	-8.66698
▁ಆದಿ	-8.66751
ಜ್ಜ	-8.66931
▁ಧಮ್ಮೇಹಿ	-8.66966
▁ತಾ	-8.67038
▁೮	-8.67066
ವತ್ಥು	-8.67127
▁ಯತೋ	-8.67294
▁ಧಮ್ಮಾನಂ	-8.67371
ಸ್ಸೇವ	-8.67719
ೋಪಿ	-8.67847
ಿನೋ	-8.68536
ತಿಆದಿಮಾಹ	-8.6861
▁ಗಾಥಾ	-8.68855
▁ಉಪ್ಪಜ್ಜಿತ್ಥ	-8.68968
ಞ್ಹಿ	-8.69347
▁೯	-8.69447
▁ಸೀಲ	-8.69518
ಙ್ಗ	-8.69708
▁ಮಯಂ	-8.69829
ಟ್ಠ	-8.70482
▁ಅವ	-8.70494
▁ಚೀವರಂ	-8.70508
ೇತೀತಿ	-8.70786
▁ಕಾಯ	-8.71009
▁ಪದ	-8.71059
▁ದೇತಿ	-8.71169
▁೧೦	-8.71324
▁ಪಾಪ	-8.71431
▁ಮಗ್ಗಂ	-8.71481
▁ವಿಞ್ಞಾಣಂ	-8.71592
ಸೀ	-8.71885
▁ಞತ್ವಾ	-8.722
ನತೋ	-8.7227
▁ನಯೇನ	-8.72442
▁ಭಿಕ್ಖುನಾ	-8.72797
▁ಧಮ್ಮೇಸು	-8.72954
▁ಇಮಾನಿ	-8.73308
▁ನಾನಾ	-8.73668
ಚಿತ್ತ	-8.73947
ಣ	-8.74219
▁ದಟ್ಠಬ್ಬಂ	-8.74468
▁ಇಮೇಹಿ	-8.74728
▁ಸಾಧು	-8.7473
ದಿ	-8.74839
▁ಪಞ್ಞತ್ತಂ	-8.75381
▁ಏತೇ	-8.75391
ೇತುಂ	-8.75409
▁ವಿನಾ	-8.76125
ಸುತ್ತ	-8.76986
ೋವ	-8.77048
▁ಠಾನಂ	-8.77208
▁ನಿ	-8.77433
▁ಪಜಾನಾತಿ	-8.77671
ಾಯಂ	-8.77709
ಟ್ಠಾನಂ	-8.77852
▁ತಾಯ	-8.77952
▁ಪಹಾಯ	-8.78079
ನ್ತಂ	-8.78118
▁ಠಿತೋ	-8.78136
▁ಚೇತನಾ	-8.78342
ವಣ್ಣ	-8.788
▁ಕಾಲೇ	-8.78992
▁ಪಟಿಸನ್ಧಿಕ್ಖಣೇ	-8.79131
▁ಸಙ್ಘಸ್ಸ	-8.79314
▁ದುತಿಯಂ	-8.7953
▁ಪುಬ್ಬ	-8.79789
▁ಕಿಲೇಸ	-8.80226
▁ವತ್ತಬ್ಬಂ	-8.80238
ನ್ತೇ	-8.8052
▁ಧಾತು	-8.8062
ಧಾತು	-8.80813
▁ಕಾಯಸ್ಸ	-8.80898
▁ಬಹು	-8.80956
▁ಯಥಾಭೂತಂ	-8.81182
ಪದ	-8.81263
▁ಸಾಸನಂ	-8.81391
▁ಯಸ್ಮಿಂ	-8.81749
ಫಲ	-8.81767
▁ಪುರಿಮ	-8.81861
ಿತಬ್ಬಂ	-8.81954
ಅತ್ಥಿ	-8.82032
ಪೀತಿ	-8.82131
▁ಚತೂಹಿ	-8.82293
▁ಗಾಥಮಾಹ	-8.82801
▁ಏಕಾ	-8.82824
▁ಗತೋ	-8.82898
ಮಹಾ	-8.82936
▁ಭಾಸಿತಂ	-8.83031
ಟ್ಠೋ	-8.83125
ಿಕೋ	-8.83189
▁ಪಚ್ಚಯ	-8.83203
▁ಉದಕ	-8.83215
ಿಕಂ	-8.83257
▁ದ್ವಿನ್ನಂ	-8.83326
▁ವತ್ಥುಂ	-8.83339
▁ತಿಸ್ಸೋ	-8.83376
▁ಸಾವತ್ಥಿಯಂ	-8.83399
▁ಬುದ್ಧಂ	-8.83434
▁ದಸ್ಸೇತ್ವಾ	-8.8393
▁ಆಪಜ್ಜತಿ	-8.84075
▁ಸತ್ಥು	-8.84119
▁ಉಪಸಮ್ಪಜ್ಜ	-8.84139
ಸಞ್ಞಾ	-8.84212
▁ಸಬ್ಬೇಸಂ	-8.84352
▁ವೇ	-8.84371
▁ಸದ್ಧಾ	-8.84683
ಮಾನಾ	-8.84697
▁ಭವೇ	-8.84768
▁ಕತಮೋ	-8.85143
ೇನ್ತೋ	-8.85501
▁ಚಕ್ಖು	-8.85735
▁ಕಾತುಂ	-8.85917
▁ಏತಮತ್ಥಂ	-8.86337
ೂ	-8.86392
ಾದಿವಸೇನ	-8.86404
▁ಮನೋ	-8.86554
▁ಆರಮ್ಮಣಪಚ್ಚಯೇನ	-8.86719
ನ್ತ	-8.86727
▁ಪವತ್ತ	-8.86868
▁ಉಪಪಜ್ಜನ್ತಾನಂ	-8.87032
ಕಸ್ಸ	-8.87152
▁ಯದಾ	-8.87584
▁ಸಙ್ಖಾರಾ	-8.87754
▁ಕತಮಂ	-8.87755
ಕಮ್ಮಂ	-8.87822
೦	-8.879
ದ	-8.87965
▁ತುಮ್ಹೇ	-8.88069
’’॥	-8.88175
▁ಸೀಲಂ	-8.88228
▁ಕಾರಣಂ	-8.88283
ಸ್ಸು	-8.8829
▁ಪನೇತ್ಥ	-8.88592
▁ಮ	-8.88613
▁ತೇನೇವ	-8.88676
▁ಗಹಪತಿ	-8.88838
ಆ	-8.88922
▁ಅತ್ತ	-8.893
ತ್ಥೇ	-8.89405
ಅಹಂ	-8.89653
ಞಾಣ	-8.89704
ಾನಞ್ಚ	-8.89731
▁ಪಾಚಿತ್ತಿಯಂ	-8.9029
ಿಸ್ಸತಿ	-8.9033
ಯಥಾ	-8.90867
▁ಏತೇನ	-8.90971
▁ತಥೇವ	-8.9146
▁ನಿರುಜ್ಝತಿ	-8.91521
▁ಅಮ್ಹಾಕಂ	-8.91597
▁ಅವಿಗತೇ	-8.9171
▁ದುಕ್ಕಟಸ್ಸ	-8.91959
▁ಅಪಿ	-8.91972
▁ನಿಸಿನ್ನೋ	-8.91977
▁ವತ್ಥುಸ್ಮಿಂ	-8.92322
ಾನೀ	-8.92623
▁ಝಾನ	-8.93196
▁ಕೇನಚಿ	-8.93272
▁ಕುಸಲೋ	-8.93418
▁ಚತು	-8.93419
ಾಪೇತ್ವಾ	-8.93546
▁ಆಪತ್ತಿಯೋ	-8.93736
ಪುನ	-8.93832
ಾಹಿ	-8.93906
▁ತೀಹಿ	-8.94124
▁ವಣ್ಣ	-8.94173
▁ಅವಿಜ್ಜಾ	-8.94231
▁ದೇವತಾ	-8.94263
▁ದೇಸನಾ	-8.94361
ಮಗ್ಗ	-8.94419
ಿಯಂ	-8.94597
ಸತ್ತ	-8.9464
▁ತಿಟ್ಠತಿ	-8.94742
▁ಸೇಸ	-8.94758
▁ಉಪನಿಸ್ಸಯಪಚ್ಚಯೇನ	-8.94871
▁ಕರೋನ್ತಿ	-8.94971
ಮತ್ತಂ	-8.95068
▁ಮೂಲ	-8.95088
ಮಾನ	-8.95392
▁ಚತಸ್ಸೋ	-8.95546
▁ರೂಪಾನಂ	-8.95901
▁ನನು	-8.96342
▁ತಞ್ಚ	-8.96488
▁ಬಹಿದ್ಧಾ	-8.96572
▁ಸುತ್ತ	-8.96623
▁ಅತ್ತಾ	-8.96756
ತೇನ	-8.9705
▁ತೀಸು	-8.97153
▁ಚತುನ್ನಂ	-8.97203
▁ಕತಿ	-8.97248
ಕೇನ	-8.97276
▁ಮನುಸ್ಸಾ	-8.97329
▁ಪುರಿಸ	-8.9738
ಾನ	-8.97463
▁ಪತ್ತೋ	-8.97463
ಕರಣ	-8.97545
ಕ್ಖ	-8.97595
ನ್ತಿಆದಿ	-8.9761
ಧ	-8.97853
▁ಲೋಕೋ	-8.97913
▁ಅರಹತ್ತಂ	-8.97982
▁ಗೋ	-8.98077
▁ತತ್ಥೇವ	-8.98093
▁ಸತ್ತಾನಂ	-8.98138
▁ನಿರುಜ್ಝಿಸ್ಸತಿ	-8.98155
▁ಭಾವೇತಿ	-8.98595
▁ಸಚ್ಚ	-8.98601
▁ಕಾಯೇನ	-8.98713
▁ಪತ್ವಾ	-8.98773
▁ಪಞ್ಚಹಿ	-8.98855
▁ಭಿಕ್ಖುನೀ	-8.98892
▁ಠಾನೇ	-8.9892
▁ನಿಬ್ಬಾನ	-8.99078
▁ತತಿಯಂ	-8.99183
▁ಕತ್ಥ	-8.99247
ಟ್ಠಾನ	-8.99277
▁ವತ್ತ	-8.9982
▁ಲೋಕ	-8.9988
ನಾಮ	-8.99996
▁ಲಭತಿ	-8.99997
▁ಅತ್ಥೀತಿ	-9.00147
ಸ್ಸಾ	-9.00256
ದಾನ	-9.00403
▁ಕಾಲ	-9.00491
ಲಕ್ಖಣಂ	-9.00522
▁ಸಬ್ಬಸೋ	-9.00611
ಾನು	-9.00662
ಮತ್ತ	-9.0074
▁ದಟ್ಠಬ್ಬೋ	-9.00828
▁ಕಪ್ಪೇ	-9.00829
▁ಉದಕಂ	-9.00858
ೂಪ	-9.01127
▁ವುತ್ತನಯೇನೇವ	-9.01158
ಕಾಯ	-9.01244
▁ಚೀವರ	-9.01369
▁ದಾನ	-9.01436
▁ವಾಚಾಯ	-9.01602
ಇದಂ	-9.01928
▁ಪಟಿಪದಾ	-9.01971
▁ದ	-9.01971
▁ವಿಸ್ಸಜ್ಜನಾ	-9.01983
▁ಚತುತ್ಥಂ	-9.02053
▁ನಿಸೀದಿ	-9.02066
ನೀ	-9.02067
▁ಚತೂಸು	-9.02269
▁ಠತ್ವಾ	-9.0236
▁ದೇವಾ	-9.02876
ನ್ತು	-9.0291
ಪರಿ	-9.02913
▁ಯಥಾವುತ್ತ	-9.02962
▁ಪಸ್ಸ	-9.03353
▁ಏಕೇನ	-9.03387
▁ಖನ್ಧ	-9.03463
▁ನಿಟ್ಠಿತಂ	-9.03498
ಕಥಂ	-9.03511
▁ದಸ್ಸನೇನ	-9.03569
▁ಕೇವಲಂ	-9.03808
▁ಗುಣ	-9.03998
ಸೇ	-9.04035
▁ವಿಸುಂ	-9.04095
▁ಸುವಣ್ಣ	-9.04118
ವಚನಂ	-9.04567
▁ಸಾರಿಪುತ್ತ	-9.04626
ಾನನ್ತಿ	-9.04653
ಪಟಿ	-9.04912
▁ಏಕತೋ	-9.05015
▁ನಾಮಂ	-9.05042
▁ಆರಮ್ಮಣ	-9.05068
ಸಮ	-9.05118
ಿಯೋ	-9.05138
▁ನತ್ಥೀತಿ	-9.05149
▁ಕೇನ	-9.05295
▁ಪಾಠೋ	-9.05381
▁ಭಿಕ್ಖುಂ	-9.05458
▁ಅಗ್ಗ	-9.056
▁ಚಪರಂ	-9.05756
ಯತಿ	-9.05831
▁ಉಪೇಕ್ಖಾ	-9.05898
ರೇ	-9.059
▁ಕಥೇಸಿ	-9.06129
▁ಅಞ್ಞತ್ರ	-9.06216
▁ತಸ್ಸೇವ	-9.06297
▁ವುತ್ತನ್ತಿ	-9.06417
▁ಕತಮಾ	-9.06716
▁ಭಾವನಾಯ	-9.07001
ಧಮ್ಮಾ	-9.07031
ಧಮ್ಮೋ	-9.07194
▁ಯಥಾಹ	-9.07307
ಯಿ	-9.07367
ಕಾರೋ	-9.0756
▁ಇಮೇಸಂ	-9.07679
▁ಉಪ್ಪನ್ನಂ	-9.07795
▁ರಾಗೋ	-9.0861
▁ಅಞ್ಞ	-9.08616
ಕಾರ	-9.08695
▁ಫಸ್ಸೋ	-9.08727
ಯನ್ತಿ	-9.08874
ಸದ್ದ	-9.08929
ೇಹೀತಿ	-9.09094
▁ದೋಸೋ	-9.09163
▁ಮನಸಿ	-9.09199
▁ಅಞ್ಞೋ	-9.09309
ನು	-9.0934
▁ಅಬ್ಯಾಕತೋ	-9.09539
▁ವುತ್ತತ್ತಾ	-9.09801
▁ವಿನಯ	-9.09953
▁ಆಗನ್ತ್ವಾ	-9.10026
▁ಕಾಲಂ	-9.1022
▁ಬಹೂ	-9.10307
ೀಯತಿ	-9.10327
▁ಬಹಿ	-9.10423
▁ಕರೋನ್ತೋ	-9.1056
▁ಪರಸ್ಸ	-9.10748
▁ಚಕ್ಖಾಯತನಂ	-9.10834
ಸಙ್ಖಾತಂ	-9.10835
▁ಸುತಂ	-9.10984
▁ಚಕ್ಖುನ್ದ್ರಿಯಂ	-9.11104
ನನ್ತಿ	-9.11304
▁ಪುಪ್ಫ	-9.11354
▁ಅಬ್ಯಾಕತಾ	-9.11509
▁ದ್ವೀಹಿ	-9.11555
▁ಇಚ್ಚಾದಿ	-9.11834
▁ಅಕುಸಲಂ	-9.12057
▁ಅತ್ಥಿಪಚ್ಚಯ	-9.12097
▁ಅಜ್ಝತ್ತಂ	-9.12122
ಸಞ್ಞೀ	-9.122
ಗುಣ	-9.12255
▁ಪಾಳಿಯಂ	-9.12364
▁ವದಾಮಿ	-9.12381
ಸದ್ದಸ್ಸ	-9.12445
ದುಕ್ಖ	-9.12498
ರಾಜ	-9.1262
▁ತಿಣ್ಣಂ	-9.12729
▁ಪುಞ್ಞ	-9.12794
▁ಭವನ್ತಿ	-9.12914
▁ಗೋತಮ	-9.13009
▁ಬ್ರಹ್ಮ	-9.13104
▁ಅತ್ಥೇ	-9.13397
▁ಚೇತ್ಥ	-9.13459
▁ಅರಹತೋ	-9.13544
▁ಸೇಯ್ಯಥಾಪಿ	-9.13623
ವಿಪಾಕ	-9.13668
▁ಯದಿದಂ	-9.13717
ಸುಖ	-9.13725
ಿನೀ	-9.13756
ಾಸಿ	-9.13885
▁ಗಚ್ಛನ್ತಿ	-9.13958
▁ಅದಾಸಿ	-9.14072
▁ದಿಟ್ಠ	-9.14072
▁ಕಪ್ಪ	-9.14202
▁ವಿಪಸ್ಸನಾ	-9.14379
▁ಉಪ್ಪಜ್ಜತೀತಿ	-9.14507
ಗ್ಗ	-9.14602
ಪಚ್ಚಯ	-9.14665
ರೋ	-9.14725
▁ಯ	-9.14768
▁ಖನ್ಧಂ	-9.14835
▁ಕಾ	-9.15069
▁ಅಹೇಸುಂ	-9.15236
ರೂಪಂ	-9.15293
ೀನಂ	-9.15525
ತಸ್ಸ	-9.15553
▁ಪವತ್ತಿ	-9.15935
ಸೀಲ	-9.15975
▁ಅಯಮ್ಪಿ	-9.16016
ಭೂತೋ	-9.16175
▁ಮರಣಾ	-9.16669
ಿಸ್ಸನ್ತಿ	-9.1689
▁ದೋಸ	-9.16942
▁ಪುರೇ	-9.17096
▁ಅಭಿಞ್ಞಾ	-9.17226
ಸಿಕ್ಖಾಪದಂ	-9.17363
ಳ	-9.175
▁ದೀಘ	-9.17515
▁ಸುತ್ತಂ	-9.17534
▁ಛನ್ದ	-9.1754
▁ವಚನ	-9.17653
▁ದ್ವೀಸು	-9.17763
▁ವೇದನಾಕ್ಖನ್ಧೋ	-9.17951
ಾಹಂ	-9.18036
▁ಕಾಯೋ	-9.18074
▁ಸುಟ್ಠು	-9.18084
▁ಕಾರಣ	-9.18108
▁ತಯಾ	-9.18161
▁ಗೋತಮೋ	-9.18264
▁ಕಸ್ಸಚಿ	-9.18317
▁ಬೋಧಿಸತ್ತೋ	-9.18374
▁ಸಕ್ಕೋ	-9.18445
▁ದಿಸಾ	-9.18456
▁ಇನ್ದ್ರಿಯಾ	-9.18519
ಪತ್ತ	-9.18711
▁ಮಜ್ಝೇ	-9.18733
▁ಪಞ್ಞತ್ತಿ	-9.1884
▁ಕಮ್ಮೇ	-9.18931
▁ಸದ್ದ	-9.18948
▁ಮೋಹೋ	-9.18978
▁ಸಙ್ಘ	-9.19019
ಾಭಿ	-9.19237
▁ಸದಾ	-9.19265
▁ದ್ವಾದಸ	-9.1945
’’’	-9.19533
ಪಞ್ಞಾ	-9.19534
▁ತಾಸಂ	-9.19545
▁ವಿಪಾಕೋ	-9.19602
▁ಲೋಕಂ	-9.19706
▁ಪದಂ	-9.1975
▁ಪುತ್ತೋ	-9.19875
▁ವಿಜ್ಜತಿ	-9.19917
▁ಮಾತಾ	-9.19974
ವಸೇನೇವ	-9.20208
▁ಹೇತುಪಚ್ಚಯೇನ	-9.20211
ಾಮ	-9.20229
▁ನಹೇತುಪಚ್ಚಯಾ	-9.2038
ಜಾತಕಂ	-9.20475
▁ಅತ್ಥತೋ	-9.20685
▁ವುಚ್ಚನ್ತಿ	-9.20782
▁ಸಮ್ಬಹುಲಾ	-9.20794
▁ದುಕ್ಖಾ	-9.20923
▁ಸಂ	-9.20928
ಮಾಹ	-9.20967
ನ್ತರ	-9.21027
ವತ್ತ	-9.21135
ಮಿ	-9.21145
▁ಉಪ್ಪನ್ನ	-9.21275
▁ಸತೋ	-9.21404
ಭವ	-9.21427
▁ಉಪಾದಾಯ	-9.2162
▁ಕುಸಲ	-9.21736
▁ಲಕ್ಖಣ	-9.21798
▁ಸಮಾನ	-9.2185
ಕಪ್ಪ	-9.21859
ಚ್ಛ	-9.21989
▁ಪಣಮಾಮ್ಯಹಂ	-9.21998
ುಂ	-9.22031
▁ಪಣ್ಡಿತೋ	-9.22176
▁ತೇನುಪಸಙ್ಕಮಿ	-9.22209
ೇಯ್ಯುಂ	-9.22236
▁ಆಪತ್ತಿಂ	-9.22422
▁ನಿಬ್ಬತ್ತ	-9.22708
▁ಅವಸೇಸಾ	-9.22752
ಸ್ಮಾ	-9.22766
▁ಆದಾಯ	-9.2279
ಬಲ	-9.22882
ಇಧ	-9.22935
▁ಅಜ್ಜ	-9.22967
▁ಪಾಳಿ	-9.22978
▁ಮನುಸ್ಸ	-9.23277
ಕಿಚ್ಚ	-9.23499
▁ಗರುಂ	-9.23537
▁ಕಂ	-9.23548
▁ಅಭಾಸಿ	-9.23743
▁ಆಸಿ	-9.23751
▁ಸರೀರ	-9.23763
ದೇವ	-9.23881
▁ಯೇಸಂ	-9.23986
▁ಸರಣಂ	-9.24033
▁ತಥಾಗತಸ್ಸ	-9.24054
ಏಕ	-9.24058
ೇತ್ಥ	-9.24113
▁ಪತಿ	-9.24182
▁ಪುಚ್ಛಿ	-9.24185
▁ಏತಸ್ಸ	-9.24209
▁ಸಮ್ಮಾದಿಟ್ಠಿ	-9.24345
ನಿಸ್ಸಯ	-9.24348
▁ಕರೇಯ್ಯ	-9.24357
ಮೇ	-9.2447
▁ಧನ	-9.24627
▁ಸರ	-9.24639
▁ಸಬ್ಬಾ	-9.24666
▁ಜಾತೋ	-9.24701
▁ಪುಗ್ಗಲಸ್ಸ	-9.24776
▁ಕಾರಣೇನ	-9.24801
▁ನೇಸಂ	-9.24919
ತಿಪಿ	-9.25096
▁ಅಞ್ಞೇ	-9.25101
▁ಧಮ್ಮದೇಸನಂ	-9.25272
▁ದಸ್ಸನ	-9.25321
▁ಗಚ್ಛ	-9.25423
ೇಯ್ಯಾತಿ	-9.25463
▁ವಿಜ್ಜಾ	-9.25477
ಭೂತಾ	-9.25623
▁ಸಚ್ಚಂ	-9.25709
▁ಕುಲ	-9.25716
▁ಠಿತ	-9.25718
▁ಲದ್ಧ	-9.25727
▁ಆಗತ	-9.25762
▁ಬಲ	-9.25766
ಾದಿನಾ	-9.25926
ಚ್ಚ	-9.25932
▁ಸನ್ತ	-9.26242
▁ಇ	-9.2633
▁ಅಕಾಸಿ	-9.26337
▁ಭೇದಾ	-9.26426
▁ಚಿತ್ತೇನ	-9.26574
▁ನಿಚ್ಚ	-9.26734
▁ವಿಞ್ಞಾಣ	-9.26938
ಸಬ್ಬ	-9.26951
▁ಸೋಳಸ	-9.26969
▁ಸಙ್ಘಂ	-9.27085
▁ಸಾಸನೇ	-9.27094
▁ಭವಂ	-9.27148
ಭೂತಂ	-9.27249
ನೇನ	-9.27258
▁ಪಾದ	-9.27336
▁ಸಮಣೋ	-9.27481
▁ತದ	-9.27504
ಆದಿ	-9.27538
▁ಲಬ್ಭತಿ	-9.2765
▁ಅಞ್ಞಮಞ್ಞಂ	-9.27835
▁ಗಣ	-9.27854
▁ಸಾಸನ	-9.27934
▁ಪೀತಿ	-9.2804
ಸಚೇ	-9.28172
▁ಪುನಪ್ಪುನಂ	-9.28229
▁ಪರೇಸಂ	-9.28284
▁ಏಕಸ್ಮಿಂ	-9.28339
▁ಅಙ್ಗ	-9.28372
ಭಾವೇ	-9.28374
▁ಪುಗ್ಗಲಾ	-9.28524
▁ಮಾನ	-9.28527
▁ಹತ್ಥಿ	-9.28555
▁ವರ	-9.28638
▁ಅನನ್ತರಪಚ್ಚಯೇನ	-9.28885
ಕಾಲ	-9.28893
▁ಠಿತಾ	-9.28909
▁ಸನ್ತಿ	-9.29233
▁ಭವೇಯ್ಯ	-9.29274
▁ಸಕಲ	-9.29541
ಕರ	-9.29556
ನಿದ್ದೇಸೋ	-9.29592
▁ಚಿತ್ತಸಮುಟ್ಠಾನಂ	-9.29624
▁ಗಾಮ	-9.29734
ೇತಂ	-9.30023
▁ವಿಸೇಸೋ	-9.30068
ಬುದ್ಧ	-9.304
▁ಪಿತಾ	-9.30403
▁ದಾನಿ	-9.30408
▁ವಿಪಾಕ	-9.30417
▁ತತಿಯ	-9.30509
▁ಪಿಯ	-9.30561
▁ನಾಗ	-9.30872
▁ದಿಸ್ಸತಿ	-9.31009
▁ಸಕ	-9.31073
▁ಆಯಸ್ಮತೋ	-9.31173
ರಾಜಾ	-9.3152
▁ಏತ್ಥಾತಿ	-9.31561
▁ದ್ವಿ	-9.31628
ಞ್ಞ	-9.31639
▁ಪಞ್ಚನ್ನಂ	-9.31704
ಪದಂ	-9.32045
ಇತಿ	-9.32083
▁ಆಗತೋ	-9.32194
▁ರಜ್ಜಂ	-9.32314
▁ವೀರಿಯಂ	-9.32419
▁ಅಪಿಚ	-9.32434
▁ಹತ್ಥ	-9.32438
▁ಮುಖ	-9.32446
▁ಆಯಸ್ಮನ್ತಂ	-9.32495
ತೋತಿ	-9.325
▁ಅಗ್ಗಿ	-9.32521
▁ಹೋನ್ತೀತಿ	-9.32616
ಲೋಕ	-9.32639
▁ಉದಪಾದಿ	-9.32666
ಭೂತ	-9.32939
▁ಸನ್ತಿಕಂ	-9.32955
ಕ್ಖಣೇ	-9.33154
▁ಅಡ್	-9.33377
▁ಆರಮ್ಮಣಂ	-9.33379
▁ಅನುಪ	-9.33481
▁ಆರೋಚೇಸುಂ	-9.33487
ಜಾತಕವಣ್ಣನಾ	-9.33489
▁ಸಮಾನೋ	-9.3352
▁ಕತ್ಥಚಿ	-9.33585
▁ವಿಸೇಸ	-9.33617
▁ಗಣ್ಹಾತಿ	-9.33772
ಸೀತಿ	-9.33967
▁ಪರೇ	-9.3406
▁ಇನ್ದ್ರಿಯ	-9.34134
▁ಸಕ್ಕೋತಿ	-9.34174
ಆರಮ್ಮಣೇ	-9.34263
▁ಭಾವನಾ	-9.34351
▁ಅತ್ಥಾಯ	-9.34383
▁ಅರಹಾ	-9.34538
▁ಮಾರ	-9.34604
▁ಸನ್ತೋ	-9.34606
ಪಞ್ಚ	-9.34786
ಮೋ	-9.34982
▁ದಿಬ್ಬ	-9.35161
▁೧೧	-9.35183
ತತ್ಥ	-9.35367
ಿತೇ	-9.35369
▁ಪುತ್ತ	-9.35436
ರಿ	-9.35588
ಉಪ	-9.35777
▁ಉದ್ಧಂ	-9.35849
▁ಮನಸಾ	-9.35886
▁ಚೇತಸಾ	-9.35896
▁ಪಾಚಿತ್ತಿಯಸ್ಸ	-9.35945
ಉ	-9.3597
▁ಜೀವಿತಂ	-9.36148
ಚಿತ್ತೋ	-9.36194
▁ಥೇರಸ್ಸ	-9.36223
▁ದುಗ್ಗತಿಂ	-9.36254
▁ಅಕುಸಲೋ	-9.3635
▁ಬ್ರಹ್ಮಚರಿಯಂ	-9.36397
▁ಏವಮಾಹ	-9.36532
▁ಸಾರ	-9.36565
▁ಚಿತ್ತಸಮುಟ್ಠಾನಾನ	-9.36579
▁ವಸ್ಸ	-9.36705
ುಪ	-9.36719
ಿಕಾಯ	-9.36784
ಿಸ್ಸಾಮಿ	-9.36862
▁ಪತ್ತಂ	-9.36862
▁ಭವತಿ	-9.36936
▁ಉಪ್ಪಾದಕ್ಖಣೇ	-9.37005
▁ನಿಚ್ಚಂ	-9.37486
▁ಕಿಸ್ಮಿಂ	-9.37864
ನ್ತೇನ	-9.37935
▁ಸತ	-9.38023
▁ಜೀವ	-9.38089
ಕುಲ	-9.38117
▁ಸಮಣ	-9.38176
▁ಯಞ್ಚ	-9.38322
▁ಪಚ್ಛಿಮ	-9.38345
ನವಸೇನ	-9.38385
▁ಆನನ್ದೋ	-9.38576
ಸಾರ	-9.38677
▁ಆಹರಿತ್ವಾ	-9.38723
▁ಏಕಾದಸ	-9.38752
▁ಸಿಕ್ಖಾ	-9.38812
▁ಏಸೋ	-9.38833
▁ಭಿಕ್ಖುನಿಯೋ	-9.39028
▁ಏಸಾ	-9.39117
▁ಪಞ್ಹಂ	-9.39141
ಲಕ್ಖಣ	-9.39199
▁ಪರಮ	-9.39234
▁ಅನ್ತರಾ	-9.3925
▁ಸುದ್ಧ	-9.39259
▁ನಭಾವನಾಯ	-9.39261
▁ಸಹಜಾತಪಚ್ಚಯ	-9.39446
ವಸ್ಸ	-9.39537
▁ವಟ್ಟ	-9.39553
ತರ	-9.39645
▁ಜೇತವನೇ	-9.39718
ಧಮ್ಮಂ	-9.39803
ೇಥ	-9.39901
▁ಕು	-9.40017
▁ಗತಿ	-9.40066
▁ಪರಿಜಾನಾತಿ	-9.40136
▁ಗಹೇತಬ್ಬಂ	-9.4022
▁ದುಕ್ಖಸ್ಸ	-9.40328
▁ಚತುತ್ಥ	-9.40376
▁ದ್ವಯಂ	-9.40417
ೇಸೂತಿ	-9.40441
▁ಸಬ್ಬೇಪಿ	-9.40531
▁ಅಪ	-9.40613
▁ವಚನತೋ	-9.40649
▁ಜ	-9.40683
▁ಪಕತಿ	-9.40865
ಮೂಲ	-9.41003
▁ತೇರಸ	-9.4141
▁ಗನ್ಧ	-9.41422
▁ಪುರತೋ	-9.41445
▁ಏಕಚ್ಚೋ	-9.41484
▁ಕಥಾ	-9.415
▁ಪುರಿಮಾ	-9.41505
▁ವಟ್ಟತೀತಿ	-9.41684
▁ಏವರೂಪಂ	-9.4178
▁ವುತ್ತನಯೇನ	-9.41807
ಾನಮ್ಪಿ	-9.41813
▁ಮರಣ	-9.41823
▁ತನ್ತಿ	-9.41959
▁ಬ್ರಾಹ್ಮಣಾ	-9.41976
ಗತಂ	-9.42053
ಮೇತಂ	-9.42144
ನಞ್ಚ	-9.42223
ಗ	-9.4229
ಯೇವಾತಿ	-9.42335
▁ತದೇವ	-9.42453
▁ಮನಿನ್ದ್ರಿಯಂ	-9.42477
▁ಅಹು	-9.42481
ಚಿತ್ತಂ	-9.42589
▁ವಿಹರನ್ತೋ	-9.42713
ದಿಟ್ಠಿ	-9.42732
▁ವನ	-9.42942
ಮುಖ	-9.42971
▁ಅಞ್ಞತರೋ	-9.42973
ಸಮನನ್ತರೇ	-9.43061
▁ಉತ್ತರ	-9.43083
ಸಮ್ಪಯುತ್ತ	-9.43125
▁ಕಾಯೇ	-9.43158
ಕಾಮ	-9.43208
▁ತುಮ್ಹಾಕಂ	-9.43324
ಸ್ಸಾಪಿ	-9.43424
▁ಪಚ್ಚ	-9.43483
▁ಸೋಮನಸ್ಸಿನ್ದ್ರಿಯ	-9.43617
▁ಏತ್ತಾವತಾ	-9.43702
▁ದೀಪೇತಿ	-9.43773
▁ಗತಾ	-9.43801
▁ಪಟಿಘಾನುಸಯ	-9.43842
▁ಕಿಸ್ಸ	-9.43972
ಮನ	-9.44064
▁ಆಸವಾ	-9.44078
▁ರಾಗ	-9.44109
▁ಹೋತು	-9.44122
▁ಅಸ	-9.44162
▁ದಿನ್ನಂ	-9.44175
▁ದೀಪ	-9.44452
▁ಭತ್ತ	-9.44497
▁ತಮ್ಪಿ	-9.44576
▁ಉಭೋ	-9.44605
▁ಭಾವೋ	-9.44614
ರಸ	-9.4466
▁ಪಿಣ್ಡಾಯ	-9.44687
▁ರುಕ್ಖ	-9.44738
▁ಉತ್ತಮ	-9.44768
ಮಸ್ಸ	-9.44793
ವಾದ	-9.44893
▁ಅನೇಕ	-9.44909
ಮಂ	-9.44963
▁ಪಥವೀ	-9.4514
▁ಅಧಿಪತಿಪಚ್ಚಯೇನ	-9.45145
▁ಮುನಿ	-9.45159
▁ಉಭಯ	-9.45265
ಸ್ಮಿ	-9.45299
▁ಅತೀತ	-9.45542
▁ಕಮ್ಮಸ್ಸ	-9.45745
▁ರೂಪಾಯತನಂ	-9.45826
▁ಸಙ್ಖಾರ	-9.45939
ಿತಬ್ಬ	-9.45978
▁ಪಚ್ಚುಪ್ಪನ್ನ	-9.46144
▁ಆಪತ್ತಿಯಾ	-9.46153
▁ಸಮ್ಮ	-9.46209
▁ಪಞ್ಚಮಂ	-9.46308
▁ಕಾಯಂ	-9.46671
ಸಮ್ಪನ್ನೋ	-9.46693
▁ಸೋಪಿ	-9.4672
▁ಧಾತೂಹಿ	-9.46943
▁ಪಹಾತಬ್ಬೋ	-9.47028
▁ಭಯ	-9.47048
▁ನುಪ್ಪಜ್ಜತಿ	-9.47139
▁ವಿಪ್ಪಯುತ್ತಪಚ್ಚಯ	-9.47192
▁ನಅಧಿಪತಿಯಾ	-9.472
ನ್ತಿಆದಿನಾ	-9.47312
▁ದುತಿಯೋ	-9.47318
ಪಚ್ಚಯೋ	-9.47389
ನಯ	-9.47415
▁ಗಹಿತ	-9.47518
▁ದ್ವಾರ	-9.47527
ಮಿವ	-9.47573
▁ಸಹಸ್ಸ	-9.47616
▁ಇದ್ಧಿ	-9.47623
▁ಖ	-9.47682
▁ಸಮಯಂ	-9.47684
▁ಪುಞ್ಞಂ	-9.4774
▁ಮಹನ್ತಂ	-9.47766
ಕಿಚ್ಚಂ	-9.47804
ಾರಮ್ಮಣ	-9.47823
ತ್ಥೇರೋ	-9.47844
▁ಮೋಹ	-9.47891
▁ಅಞ್ಞಥಾ	-9.479
▁ವಾಚಾ	-9.47975
ಪಟಿಸಮ್ಭಿದಾ	-9.4798
▁ಪವಿಸಿತ್ವಾ	-9.48124
ತ್ವಾ	-9.48136
▁ಅಥಸ್ಸ	-9.48214
▁ಅಟ್ಠಕಥಾಯಂ	-9.48233
▁ಅಸ್ಸಾತಿ	-9.48468
▁ಜಾತಾ	-9.48645
▁ವದೇಯ್ಯ	-9.48671
▁ತಮೇವ	-9.48672
▁ಧಮ್ಮೇನ	-9.48765
▁ಭವಿಸ್ಸತೀ	-9.48833
ಚೀವರ	-9.48853
ವಿಸೇಸ	-9.48862
▁ಫಸ್ಸ	-9.48868
▁ಜೀವಿತ	-9.489
▁ಸುಖಾಯ	-9.48916
ಮಯಂ	-9.48942
ವಚನ	-9.49013
▁ಬೋಧಿ	-9.49052
▁ಪುಟ್ಠೋ	-9.49188
ಮಗ್ಗೇ	-9.49221
▁ವಿಹಾರ	-9.49318
ಭ	-9.4932
▁ವನ್ದಿತ್ವಾ	-9.49326
▁ಚವನ್ತಾನಂ	-9.49539
▁ಭಙ್ಗಕ್ಖಣೇ	-9.4954
▁ಬಹುಂ	-9.49578
▁ಹೇತೂ	-9.49582
▁ಪಜಹತಿ	-9.49604
ಪಾದ	-9.49611
▁ರಸ	-9.49727
▁ವುತ್ತಞ್ಹೇತಂ	-9.49756
ರು	-9.49796
▁ನಿಸೀದಿತ್ವಾ	-9.49832
▁ಅತೀತಂ	-9.50015
▁ಭಿಕ್ಖುನಿಯಾ	-9.50102
▁ಪಧಾನ	-9.50111
▁ದು	-9.5034
▁೧೨	-9.50519
ಯತೋ	-9.50524
ಕಾಲೋ	-9.50534
▁ಜನ	-9.50608
▁ಉಪ್ಪತ್ತಿ	-9.50624
▁ಮಿಗ	-9.50628
▁ಹ	-9.50661
▁ಕರೋತೀತಿ	-9.50763
ಸಮ್ಪತ್ತಿ	-9.50954
▁ಅಞ್ಞತರಂ	-9.51055
ಬ್ಬ	-9.51056
▁ಸುತ್ತೇ	-9.51061
▁ಏಕಸ್ಸ	-9.51078
▁ಧನಂ	-9.51083
▁ಇತ್ಥೀ	-9.51195
ಗತ	-9.51256
▁ಸಮ್ಪಯುತ್ತಕಾನಂ	-9.51493
▁ಕುತೋ	-9.51544
ಮು	-9.51558
ನಿದ್ದೇಸವಣ್ಣನಾ	-9.51567
ಿಸ್ಸಾಮೀ	-9.51642
ಕರೋ	-9.51645
ಭಿಕ್ಖು	-9.51721
ವಾರೋ	-9.51755
▁ವಿಸ	-9.51785
▁ಕತಾ	-9.51799
▁ಉಪ್ಪಾದ	-9.51855
▁ಮಹಾಭೂತೇ	-9.51922
ವಿಪ್ಪಯುತ್ತ	-9.51997
▁ಆಗತಾ	-9.5207
ಅವಿಗತ	-9.52109
▁ಅಕುಸಲ	-9.52178
▁ಏವಞ್ಚ	-9.5222
ಕುಸಲಂ	-9.52235
ಹಾರ	-9.52373
▁ಭಯಂ	-9.52417
ಗತೋ	-9.52427
ಗಚ್ಛ	-9.52474
ದೋಸ	-9.52514
▁ಕಮ್ಮಪಚ್ಚಯೇನ	-9.52524
ಸಹಜಾತ	-9.52558
▁ವೀರಿಯ	-9.52585
▁ಭಿಕ್ಖೂಹಿ	-9.5262
ಿತತ್ತಾ	-9.52632
ಪುಪ್ಫ	-9.52728
▁ನಾಮಾತಿ	-9.5277
▁ನಿರುಜ್ಝಿತ್ಥ	-9.52827
ಧಮ್ಮೇ	-9.52835
▁ಅಞ್ಞೇನ	-9.52881
ಟ	-9.52972
▁ಸುತ	-9.53009
ಭೇದ	-9.53016
▁ಏವಮ್ಪಿ	-9.5303
▁ವಸ	-9.5306
▁ವಜ್ಜ	-9.53228
▁ದಿನ್ನ	-9.5325
ಞ್ಚಾತಿ	-9.53255
▁ಧಾತುಯೋ	-9.53281
ಛ	-9.53353
▁ಠಿತಂ	-9.53393
ೇಯ್ಯಂ	-9.53415
ಭೂಮಿ	-9.5348
▁ಖನ್ಧೋ	-9.53672
▁ಸಙ್ಘೇನ	-9.53743
▁ಚರ	-9.53878
▁ಚಿತ್ತೇ	-9.5393
ಾಯಾತಿ	-9.53931
▁ಏತರಹಿ	-9.54079
▁ಪಸಾದ	-9.54096
▁ನೋವಿಗತೇ	-9.54155
▁ಜೀವಿತಿನ್ದ್ರಿಯಂ	-9.5421
ಸಹಸ್ಸ	-9.54371
ಪುಚ್ಛಾ	-9.54485
ಾಕಾರ	-9.54564
▁ನಗರಂ	-9.54582
ಥಾ	-9.54719
▁ಪಾದೇ	-9.54723
▁ವಿಹಾರಂ	-9.54725
▁ಲ	-9.5473
▁ಪಾಚಿತ್ತಿಯ	-9.54735
▁ಕತೋ	-9.54771
▁ಅರಿಯಸಾವಕೋ	-9.5478
▁ಪನಸ್ಸ	-9.54832
ಜ್ಝ	-9.54853
ಕರಣಂ	-9.54858
▁ಏತೇಸಂ	-9.54859
▁ಅಸಞ್ಞಸತ್ತಾನಂ	-9.54878
▁ಯಾನಿ	-9.55004
▁ಭಾವ	-9.55011
▁ವಣ್ಣೋ	-9.55126
ಗ್ಗಹಣೇನ	-9.55127
ತ್ವೇವ	-9.55277
ದಸ್ಸನಂ	-9.55354
ಅಥ	-9.55391
▁ಕಿಞ್ಚಾಪಿ	-9.55528
ನಯೋ	-9.55754
▁ಛನ್ನಂ	-9.5577
▁ಬನ್ಧ	-9.55854
▁ಭೂಮಿ	-9.55869
ೀಹಿ	-9.55956
್ಯ	-9.55972
▁ಗಾಥಾಯೋ	-9.56044
▁ಅಭಿವಾದೇತ್ವಾ	-9.56098
▁ಸೇನಾಸನಂ	-9.56136
ಪುಬ್ಬ	-9.56282
ದಸ್ಸನ	-9.56365
▁ಅಞ್ಞಾ	-9.56481
ಜಾತಿ	-9.56554
▁ನವಿಪ್ಪಯುತ್ತೇ	-9.56555
▁ಪಬ್ಬಜಿತ್ವಾ	-9.56656
▁ನಿಮಿತ್ತ	-9.56867
▁ಕಾತಬ್ಬಂ	-9.56914
ಮಾನಂ	-9.56979
▁ಸಮುಟ್ಠಾತಿ	-9.57009
ಪರ	-9.57021
ಮೇವಾತಿ	-9.57476
▁ಸಮತ್ತಾ	-9.57492
ೀಯ	-9.57537
ವಗ್ಗ	-9.57641
▁ಚೂಳ	-9.57668
▁ರೂಪಕ್ಖನ್ಧೋ	-9.57745
▁ಪನೇತಂ	-9.57834
▁ಮಣಿ	-9.57982
▁ಕರ	-9.58072
ನಿಮಿತ್ತ	-9.58074
▁ಜಾನನ್ತಿ	-9.58115
ಪೀ	-9.58136
▁ಛಿನ್ನ	-9.58168
▁ಅರಿಯ	-9.58181
▁ಸಾರಿಪುತ್ತೋ	-9.58236
▁ಖುದ್ದಕ	-9.5828
ದ್ವಾರ	-9.58286
▁ಅವಿ	-9.58324
▁ತಿಣ	-9.58398
▁ಜನಾ	-9.58456
ದೇಸ	-9.58532
▁ವಿಹಾರೇ	-9.58619
ಹತ್ಥ	-9.58655
▁ಪಟಿವಿರತೋ	-9.58762
▁ಸುದಂ	-9.58776
▁ಕಸ್ಸ	-9.58824
ೇಸುಪಿ	-9.58853
▁ಗ	-9.58926
▁ಲೋಕಿಯ	-9.58951
ಯಸ್ಸ	-9.59101
▁ಭೂತ	-9.59133
▁ಜಾತ	-9.59161
▁ಪವತ್ತತಿ	-9.59275
▁ಅಞ್ಞಸ್ಸ	-9.59288
▁ರ	-9.59297
ಕಾನಂ	-9.59347
▁ಚಾಪಿ	-9.59466
▁ವಿಚಿಕಿಚ್ಛಾನುಸಯ	-9.59531
▁ನೀಲ	-9.596
▁ದುಕ್ಖಾಯ	-9.5965
▁ಭಿಯ್ಯೋ	-9.59733
▁ನಿರೋಧ	-9.59905
▁ಆಯತಿಂ	-9.60021
▁ಅಬ್ಯಾಕತಂ	-9.60263
▁ಮಗ್ಗಸ್ಸ	-9.60266
▁ಕಾಮರಾಗಾನುಸಯೋ	-9.60366
▁ಬ್ಯಞ್ಜನ	-9.60385
ವಾರ	-9.6055
▁ವಿನಿಚ್ಛಯೋ	-9.60707
ದಾನಂ	-9.60726
ವಟ್ಟ	-9.60842
▁ಅಟ್ಠಾರಸ	-9.60844
▁ದೇವಾನಂ	-9.60922
▁ಆಹಾರೇ	-9.60945
▁ಪವತ್ತೇ	-9.61083
ವಿಹಾರ	-9.61164
▁ಕಾಲೇನ	-9.61169
▁ಗಾಥಾಯ	-9.6147
ತ್ತಯ	-9.61516
ಲ್ಲ	-9.61518
▁ಕತೇ	-9.61605
ಞಾಣಂ	-9.61691
ನೀಯ	-9.61755
▁ಅನಾ	-9.61826
▁ಸಮ್ಪಜಾನೋ	-9.61838
▁ಲೋಕಸ್ಸ	-9.61856
ಪಚ್ಛಾಜಾತೇ	-9.61874
ತಾತಿ	-9.61885
▁ತತ್ಥಾತಿ	-9.61915
▁ತುಯ್ಹಂ	-9.61939
▁ಅಭಾವತೋ	-9.61945
ಭಯ	-9.6212
▁ವೇದನಂ	-9.62163
▁ಪುರಿಸಸ್ಸ	-9.62342
▁ವಿಪಾಕಂ	-9.62373
ಪಞ್ಞತ್ತಿ	-9.62389
▁ನಾಗಸೇನ	-9.62409
ವರ	-9.62506
ಿತ್ಥ	-9.62673
▁ಚೋರ	-9.62774
▁ಅಸತಿ	-9.62872
ಸನ್ತಿ	-9.62955
▁ರೂಪಸ್ಸ	-9.62955
ುಪ್ಪತ್ತಿ	-9.62968
▁ಚಿನ್ತೇತ್ವಾ	-9.62985
▁ವೀಸತಿ	-9.63083
ಸಮಾಧಿ	-9.63124
▁ಹೇತುಂ	-9.63283
▁ಆಹಾರ	-9.6331
▁ಕಥ	-9.63362
ಾಮೀ	-9.63382
▁ರಾಜಾನಂ	-9.63472
ಮಯ	-9.63492
▁೧೩	-9.63502
ಮಿದಂ	-9.63555
▁ಇತ್ಥಿ	-9.63608
▁ಪಟಿಸನ್ಧಿ	-9.63632
▁ನೇವದಸ್ಸನೇನ	-9.63654
ಸೂತಿ	-9.63731
▁ವಿತಕ್ಕೋ	-9.6392
ಸಾಧು	-9.63961
▁ಪಿತು	-9.64106
▁ಕಾಮೇ	-9.64214
▁ಉಪ್ಪನ್ನಾ	-9.64288
ಾಪೇತಿ	-9.64291
ಕಾರಣ	-9.64301
▁ಕಾಮರಾಗಾನುಸಯ	-9.64308
▁ದಿವಾ	-9.64322
ಗೋ	-9.64343
ಧಿ	-9.64385
ಸುಖಂ	-9.64462
▁ಏ	-9.64522
ಮತ್ತಮೇವ	-9.64556
ಗಮನ	-9.64631
▁ವಿತಕ್ಕ	-9.6475
ೇತಬ್ಬಂ	-9.64777
▁ಅಧಿ	-9.64782
▁ಯಕ್ಖ	-9.64786
▁ಸೀಹ	-9.64875
ಆದಯೋ	-9.64986
▁ಉಪ್ಪಜ್ಜಿಸ್ಸತೀತಿ	-9.65067
ತ್ಥಾ	-9.65128
▁ಠಾನೇಸು	-9.65258
▁ಅಟ್ಠಾಸಿ	-9.65267
ರತನ	-9.65296
▁ಖನ್ಧೇಹಿ	-9.65325
▁ಸೇಯ್ಯಥಿದಂ	-9.65337
▁ಅರಿಯಾ	-9.65368
▁ಆಕಾಸೇ	-9.65376
▁ದುತಿಯೇ	-9.65402
ದ್ಧ	-9.65417
▁ಪಠಮೋ	-9.65417
▁ಪಟಿಪನ್ನೋ	-9.65504
▁ಬಲವ	-9.65621
▁ಧಮ್ಮಾಯತನಂ	-9.65637
▁ಲೋಭ	-9.6571
▁ವಟ್ಟತೀ	-9.6573
▁ಬಾಲ	-9.65758
▁ಉತ್ತರಿ	-9.65786
▁ಯುತ್ತ	-9.65802
ಭತ್ತ	-9.65855
▁ಪಟಿಘಾನುಸಯೋ	-9.65864
▁ಚನ್ದ	-9.65959
▁ಸಮ್ಮಾಸಮ್ಬುದ್ಧ	-9.66032
ನತ್ಥಾಯ	-9.66037
▁ಪುಚ್ಛತಿ	-9.66114
ಕಿರಿಯಾ	-9.66115
▁ಞಾಣೇನ	-9.66326
▁ದಿವಸೇ	-9.66433
▁ಪುಥು	-9.66571
▁ಪವತ್ತಾ	-9.66584
▁ಖಣ	-9.66773
▁ಗರು	-9.66925
▁ಅಙ್ಗಾನಿ	-9.66947
▁ನಆಸೇವನೇ	-9.66987
▁ಏತದಹೋಸಿ	-9.66987
▁ಸಭಾವ	-9.6719
▁ಸುಭ	-9.67222
ಪುತ್ತ	-9.67281
▁ನಿಸ್ಸಗ್ಗಿಯಂ	-9.6734
▁೧೪	-9.67363
ಹೇತುಯಾ	-9.67403
▁ಅಯ	-9.67432
▁ಪಣ್ಡಿತಾ	-9.67453
▁ಮಗ್ಗೇ	-9.67481
▁ರೇ	-9.67526
ವುತ್ತಿ	-9.6762
▁ದಣ್ಡ	-9.67621
▁ನಪುರೇಜಾತೇ	-9.67632
▁ಇತ್ಥಂ	-9.67688
▁ಜಿನ	-9.67715
▁ಪಾಪಂ	-9.67776
ಗ್ಗಹಣ	-9.6788
ದಾ	-9.67894
▁ಅಧಿವಚನಂ	-9.68109
▁ಆಸವಾನಂ	-9.68129
ಚಿತ್ತಸ್ಸ	-9.68219
▁ಕಿಚ್ಚ	-9.68302
▁ಘಟ	-9.68332
ೇಹೀ	-9.68359
ತರೋ	-9.68402
ಸದಿಸ	-9.68404
ಯಿತ್ವಾ	-9.68457
▁ನಿಬ್ಬತ್ತಿ	-9.68478
▁ವಿಚಿಕಿಚ್ಛಾ	-9.6848
ನಿಮಿತ್ತಂ	-9.68507
▁ನಕಮ್ಮೇ	-9.68579
▁ಪದುಮ	-9.68613
ಭನ್ತೇ	-9.68736
▁ಅಕತ್ವಾ	-9.68744
ಸುತ್ತಾದಿವಣ್ಣನಾ	-9.68796
▁ಪಹೀನಾ	-9.68805
▁ಮಹ	-9.68806
▁ಸಗ್ಗ	-9.68872
▁ಭಿನ್ನ	-9.68898
▁ಅಧಿಪತಿಯಾ	-9.68973
▁ಚಕ್ಖುಂ	-9.69039
▁ಬೋಜ್ಝಙ್ಗಾ	-9.69048
▁ಸಚ್ಚಾನಿ	-9.69068
▁ಸಙ್ಘೇ	-9.69182
ನ್ದ	-9.69208
ವೇ	-9.69213
ಗಾಮ	-9.69265
ಪುಞ್ಞ	-9.69281
▁ಕೇಸ	-9.69355
ಕುಸಲೋ	-9.69363
▁ಸತಂ	-9.69603
▁ದಿಟ್ಠಿಯಾ	-9.69615
▁ವೇದ	-9.69634
ವಾರೇ	-9.69677
ಸರ	-9.69698
▁ಗಣ್ಹ	-9.69719
▁ಪುರಿಸಿನ್ದ್ರಿಯಂ	-9.69847
ಮನ್ತ	-9.69892
▁ಬಾಲೋ	-9.69911
▁ಸಙ್ಗಹಿತಾ	-9.69947
▁ಅನಿದಸ್ಸನಅಪ್ಪಟಿಘ	-9.70013
▁ಸೇಟ್ಠ	-9.7013
▁ಕಿಲೇಸಾ	-9.70154
▁ಪಾಪುಣಾತಿ	-9.70201
ಕಥಞ್ಚ	-9.7031
▁ಪಕತೂಪನಿಸ್ಸಯೋ	-9.70371
▁ಉಪನಿಸ್ಸಾಯ	-9.70373
▁ಸಮ್ಪಯುತ್ತಾ	-9.70407
ಸದಿಸಂ	-9.70426
ಕತ	-9.70472
ಕನ್ತಿ	-9.7051
ತದಾ	-9.70534
▁ಕರಿತ್ವಾ	-9.70579
▁ಸತ್ತಮಂ	-9.70583
ಪಚ್ಚ	-9.7067
ಾದಿತೋ	-9.70694
ಜಾ	-9.70729
▁ತಣ್ಹಾಯ	-9.70767
▁ಅಯಮೇವ	-9.70775
ಜ್ಝಾನ	-9.70778
ತೋಪಿ	-9.70816
▁ಚೇತಸೋ	-9.70875
▁ನವಿಪಾಕೇ	-9.70915
▁ಪಹಾನಾಯ	-9.70932
▁ಅಸಙ್ಗಹಿತಾ	-9.70943
▁ಪಞ್ಞಾಯತಿ	-9.70944
ನಿದ್ದೇಸೇ	-9.70969
▁ಅಲಂ	-9.70971
▁ನಿಕ್ಖಮಿತ್ವಾ	-9.7101
▁ಅನುಲೋಮ	-9.71074
▁ಜಾತಿಯಾ	-9.71077
▁ರತನ	-9.7109
▁ಆಚರಿಯ	-9.71136
▁ಗಮನ	-9.7117
▁ಆಮನ್ತೇಸಿ	-9.71172
▁ಮಿಚ್ಛಾ	-9.71217
▁ತಮ	-9.71343
▁ಛಟ್ಠಂ	-9.71348
▁ಯೋಜೇತಬ್ಬಂ	-9.7136
▁ಭಾಸ	-9.71398
▁ಲೋಕುತ್ತರ	-9.71504
ಣಂ	-9.71544
▁ಪಞ್ಚಸು	-9.71576
▁ಜಿನೋ	-9.71579
▁ವತ್ತುಂ	-9.71663
▁ಪುಗ್ಗಲ	-9.71751
▁ಕದಾಚಿ	-9.71756
ತ್ತೇ	-9.71922
ಕಿಲೇಸ	-9.71997
▁ಪುಚ್ಛ	-9.72086
ಬನ್ಧ	-9.72123
▁ಅಧಿಟ್ಠಾನ	-9.72248
▁ರಥ	-9.72251
▁ತಾತ	-9.72256
▁ಅನಿಚ್ಚತೋ	-9.723
ಿತಬ್ಬೋ	-9.72313
▁ಹೀ	-9.72487
▁ಸಿ	-9.72505
ಪಸ್ಸ	-9.72508
▁ತಸ್ಸತ್ಥೋ	-9.7252
▁ಅಗಮಾಸಿ	-9.72523
▁ಉಪಾಲಿ	-9.72676
ಇಮೇ	-9.72734
ಮತ್ತೇ	-9.72787
ವಸೇನಾತಿ	-9.72792
▁ತಮತ್ಥಂ	-9.72817
▁ಚರತಿ	-9.72874
ೇನಪಿ	-9.73028
ಗನ್ಧ	-9.73028
ರಂ	-9.73086
▁ತತಿಯೋ	-9.73121
▁ಖಾದ	-9.73165
▁ಉಪ್ಪನ್ನೋ	-9.73205
▁ನಾಭಿಜಾನಾಮಿ	-9.73331
▁ಸಮನ್ತತೋ	-9.73337
ರಾ	-9.73363
ದಸ	-9.7337
▁ಹೇತುಸ್ಸ	-9.73381
ವಗ್ಗವಣ್ಣನಾ	-9.73385
ಹೀತಿ	-9.73499
ಖ	-9.73526
▁ಉಪೇಕ್ಖಿನ್ದ್ರಿಯಂ	-9.73549
▁ಲಿಙ್ಗ	-9.73595
▁ಚಕ್ಕವತ್ತೀ	-9.73599
▁ಜಾತಂ	-9.73766
▁ಪರೋ	-9.7382
ಅತ್ಥ	-9.73941
▁ಪವಿಸ	-9.73943
ಾದಿಕೇ	-9.73953
▁ಗಚ್ಛತೀತಿ	-9.74008
▁ಅವೋಚ	-9.74038
▁ಥ	-9.74055
▁ಇಮಾಯ	-9.74129
ತತೋ	-9.74196
ಸಹಸ್ಸಾನಿ	-9.74318
ಗಣ	-9.7433
▁ಪುಚ್ಛಿತ್ವಾ	-9.74365
ಅನುಜಾನಾಮಿ	-9.74389
▁ಸಬ್ಬೋ	-9.74406
▁ಚಿನ್ತೇಸಿ	-9.74432
▁ನಿಟ್ಠಿತೋ	-9.74437
▁ಬುದ್ಧಾನಂ	-9.74557
▁ನಿಮಿತ್ತಂ	-9.74564
▁ತಥ	-9.74699
▁ಅತಿವಿಯ	-9.74707
▁ಅನುಸಯಾ	-9.74749
ನ್ನ	-9.7479
▁ಪಚ	-9.74902
▁ಪಚ್ಛಿಮಾನಂ	-9.74914
▁ಚೇತಂ	-9.74936
▁ಪಹಾನ	-9.74937
ನತ್ಥಂ	-9.75011
▁ವತ್ಥ	-9.75031
▁ಗತ	-9.75035
▁೧೫	-9.75062
▁ಅಟ್ಠಮಂ	-9.75194
ಸಮುಟ್ಠಾನ	-9.75222
ಮಲ	-9.75238
▁ಪರಿಪುಣ್ಣ	-9.75312
ಾಪನ	-9.75319
ಭೋ	-9.75369
▁ಖಣೇ	-9.75407
ಚ್ಚಾದಿ	-9.75528
ಞ್ಞೇವ	-9.7553
ವತ್ಥ	-9.7558
ತೂ	-9.75667
ಗ್ಗಹಣಂ	-9.75696
▁ಭಾಸತಿ	-9.75742
▁ಸಯಮೇವ	-9.75772
▁ಠಾನ	-9.7592
▁ಏತ್ಥಾಪಿ	-9.75932
▁ಅಯಮೇತ್ಥ	-9.75936
▁ಯೋನಿಸೋ	-9.75961
▁ಗಹಿತಾ	-9.76011
▁ಸಹಜಾತ	-9.76107
▁ಮಹನ್ತ	-9.76275
▁ಮನ್ತ	-9.76374
ಮ್ಹ	-9.76441
▁ಕಾಮಾವಚರ	-9.76456
▁ಅತಿರೇಕ	-9.7653
▁ಸಞ್ಞಾಕ್ಖನ್ಧೋ	-9.76699
ಬ್ಯ	-9.76945
▁ದೇಸೇತಿ	-9.77034
ಭೋಗ	-9.77065
▁೫೯	-9.77146
ವಾದೀ	-9.77163
ಲಕ್ಖಣಾ	-9.77243
ಮತ್ತೇನ	-9.77256
▁ದುಸ್ಸ	-9.77258
▁ಆಯು	-9.7727
ವನ	-9.77318
ಾದಿಕಂ	-9.77335
ತ್ಥಿ	-9.77359
▁ವಾಚಂ	-9.77384
▁ಕಥಞ್ಚ	-9.77448
ತ್ಯ	-9.77455
ಓ	-9.77459
▁ಸಮಂ	-9.77498
▁ವುತ್ತಾನಿ	-9.77512
▁ಪಞ್ಞಿನ್ದ್ರಿಯಂ	-9.77622
▁ಸರೀರಂ	-9.7764
ದಂ	-9.77678
▁ಪಬ್ಬಜಿತೋ	-9.77691
▁ಗಾಮಂ	-9.77696
▁೨೨	-9.77749
ಾರಮ್ಮಣಂ	-9.77769
ವಿಞ್ಞಾಣ	-9.77793
ಭಾವನಾ	-9.77797
▁ಮಹಾಸತ್ತೋ	-9.77808
▁ಇಧೇಕಚ್ಚೋ	-9.77835
▁ಸೀಸ	-9.77883
▁೧೬	-9.77971
▁ಕಿಲೇಸೇ	-9.77979
▁ಮನಾಯತನಂ	-9.78024
ಸೂ	-9.78081
▁ಲಭಿತ್ವಾ	-9.78187
▁ಘಾನಿನ್ದ್ರಿಯಂ	-9.78215
ನಟ್ಠೇನ	-9.7824
ಪ್	-9.78332
ಕ್ಖನ್ಧ	-9.7835
ಾನೇವ	-9.784
▁ಉಪಲಬ್ಭತಿ	-9.78414
▁ಸತ್ಥಾರಂ	-9.78428
▁ನಿಸ್ಸಯ	-9.78537
▁ಮಿಚ್ಛಾದಿಟ್ಠಿ	-9.78672
ನತ್ಥಿಯಾ	-9.78736
▁ಕಾಯಸಙ್ಖಾರೋ	-9.78739
▁ಞಾತಿ	-9.78739
ಪ್ಪತ್ತೋ	-9.78755
▁ನನ್ದ	-9.78772
▁ನದೀ	-9.78845
ಾಪತ್ತಿ	-9.78885
▁ಭುಞ್ಜ	-9.78911
▁ಭೋಜನಂ	-9.78965
▁ಪಹೀನೋ	-9.7899
▁ಅನಾಗತ	-9.79005
▁ಮರಣಂ	-9.79056
ೇಯೇವ	-9.79094
▁ತಞ್ಹಿ	-9.79136
▁ಸತ್ತರಸ	-9.79216
▁ಮಜ್ಝಿಮ	-9.79235
▁ಇದಮ್ಪಿ	-9.79249
ಯ್ಯ	-9.79251
▁ಮಧುರ	-9.79328
▁ವಣ್ಣಂ	-9.79337
▁ವಿತ್ಥಾರೇನ	-9.79375
ಮಂಸ	-9.79392
▁ಪರತೋ	-9.79392
▁ಅಕ್ಖ	-9.79529
▁ಅರಞ್ಞೇ	-9.79607
▁ದೋಮನಸ್ಸಂ	-9.79662
▁ತಸ್ಸುದ್ದಾನಂ	-9.79686
▁ಪಹಾತಬ್ಬಹೇತುಕೋ	-9.79837
ವಾತಿ	-9.79847
▁ಛನ್ದೋ	-9.79888
▁ಜಾತಕಂ	-9.79942
▁ಇತ್ಥಿನ್ದ್ರಿಯಂ	-9.79945
ನ್ತಿಆದೀಸು	-9.80024
▁ಭರಿಯಾ	-9.80041
▁ಸಂವತ್ತತಿ	-9.80189
ಯೋಗ	-9.8024
ಿಸ್ಸ	-9.80243
▁ಪಬ್ಬತ	-9.8028
ಸತಿ	-9.80316
▁ಆವಿ	-9.80318
▁ರೋಗ	-9.80318
▁ಪುಞ್ಞಾನಿ	-9.80323
▁ದಿಟ್ಠೇವ	-9.80371
▁ಮನುಸ್ಸಾನಂ	-9.80403
ಸೇಯ್ಯಥಾಪಿ	-9.80421
ಾಹ	-9.80425
▁ಹೀನ	-9.80457
▁ಉತು	-9.80459
ಮನೋ	-9.80511
ಸಮ್ಪತ್ತಿಯಾ	-9.80547
ೇಮಿ	-9.80576
▁ಆಹಾರೋ	-9.80624
▁ದಟ್ಠಬ್ಬಾ	-9.8064
ಪಣ್ಣ	-9.80736
▁ಏತಸ್ಮಿಂ	-9.80763
▁ಗಮ	-9.8077
▁ಸದ್ಧಿನ್ದ್ರಿಯಂ	-9.80811
ಾಭಾವತೋ	-9.8083
▁ತಿಂಸ	-9.80831
▁ದಸಮಂ	-9.80855
ಸಙ್ಖಾತ	-9.80904
▁ಚಕ್ಖುನಾ	-9.80933
▁ಏತೇನಾತಿ	-9.80936
▁ಹರ	-9.80947
ಸಚ್ಚ	-9.81006
ದುಕಂ	-9.81013
▁ಕ್ವಚಿ	-9.81055
▁ಅತ್ತನಿ	-9.81105
▁ಕಸ್ಸಪ	-9.81161
ಕಾರಣಂ	-9.81194
▁ರೂಪಾನಿ	-9.81228
▁ಸದ್ದಂ	-9.81246
▁ಗಹಣ	-9.8132
▁ಅವಿಜ್ಜಾನುಸಯ	-9.81415
▁ಯಾಯ	-9.81532
▁ರತ್ತಿ	-9.81564
▁ಭತ್ತಂ	-9.81602
▁ಕಾಮಾ	-9.81619
ಾಸು	-9.81702
▁ಅಪ್ಪಟಿ	-9.81789
▁ನಿರೋಧೋ	-9.81837
ನತ್ಥಿ	-9.81851
▁ದಸ್ಸ	-9.81864
▁ಉಪ್ಪಜ್ಜಿತ್ಥಾತಿ	-9.81916
ಘ	-9.81983
▁ಸಮುದಯೋ	-9.81985
▁ವತ್ತಬ್ಬೋ	-9.82003
▁ರಕ್ಖ	-9.82012
ೇತಬ್ಬ	-9.82052
ಸಙ್ಘ	-9.82296
▁ಇಮೇಸು	-9.82441
▁ಮೇತ್ತಾ	-9.82534
ಾದೀಸುಪಿ	-9.82589
ಲಿಙ್ಗ	-9.82601
▁ಕಾಮೇಹಿ	-9.82622
▁ವಸ್ಸಾನಿ	-9.8266
▁ಇತರೇಸಂ	-9.82668
▁ಸುಚಿ	-9.8268
▁ರಮ	-9.82743
ತರಂ	-9.82788
▁ವಿಗತ	-9.82823
▁ಬೀಜ	-9.82824
ಜನ	-9.82878
▁ಅಮತ	-9.82892
▁ವು	-9.82921
ಟ್ಠಂ	-9.82963
▁ಅಞ್ಞತ್ಥ	-9.82965
▁ಸಹಜಾತಂ	-9.82991
ೀಯತೀತಿ	-9.82997
ನಾತಿ	-9.83026
ಕುಸಲ	-9.83103
▁೧೭	-9.83117
▁ವೇದನಾಸು	-9.83136
▁ಅಞ್ಞಮಞ್ಞ	-9.83153
ಘಾತ	-9.83157
ಕು	-9.83218
▁ಓಭಾಸ	-9.83296
▁ಅನ್ತ	-9.83346
▁ಅಹಮೇವ	-9.83467
▁ತಹಿಂ	-9.83517
ರತ್ತ	-9.83517
▁ಬ್ರಾಹ್ಮಣಸ್ಸ	-9.83531
▁ಗನ್ಥ	-9.83565
▁ಬುದ್ಧಾ	-9.83633
ಕಾರಸ್ಸ	-9.83656
▁ಪಠಮೇ	-9.8369
▁ದಾತಬ್ಬಂ	-9.83691
ನ್ತಾನಂ	-9.83875
▁ಕತಿಹಿ	-9.8388
▁ಸಮ್ಮಾಸಮ್ಬುದ್ಧೋ	-9.83944
▁೬೭	-9.83957
▁ಸಿಕ್ಖಾಪದಂ	-9.83986
▁ಪರಿತ್ತ	-9.84028
ಸತ	-9.84042
ವಿಸ	-9.84063
▁ಸೀತ	-9.84102
ಾಪೇಸಿ	-9.84123
▁ವಿತ್ಥಾರತೋ	-9.84181
▁ವಿದಿತ್ವಾ	-9.84255
ೇತೀ	-9.8427
▁ಗಾಥಂ	-9.84389
ನೇವ	-9.84418
▁ಭವೋ	-9.84465
ಮಹ	-9.84534
▁ಪಾರಾಜಿಕ	-9.84561
▁ವತ್ತಬ್ಬಾ	-9.84586
ಅನು	-9.84595
▁ರತ್ತಿಂ	-9.84659
▁ಕೋಧ	-9.84719
▁ಕಮ್ಮೇನ	-9.84745
▁ನವಮಂ	-9.84799
ಬನ್ಧನ	-9.84878
▁ಯಾಚ	-9.84879
▁ರೂಪೇ	-9.84921
▁ಕಾಲೋ	-9.8493
ಮುಖೇನ	-9.85003
ಮಾಸ	-9.8508
▁ಪುಗ್ಗಲಂ	-9.85107
▁ತುವಂ	-9.85162
ಕಾರೀ	-9.85208
▁ಏವಮಾದಿನಾ	-9.85256
▁ಪಕಾಸೇನ್ತೋ	-9.8527
▁ಮುಖಂ	-9.8529
▁ಕಾಳ	-9.85347
ಸಹ	-9.8537
▁ಪಯೋಗೇ	-9.85452
▁ದುಕ್ಕಟ	-9.8546
ಸಞ್ಞಾಯ	-9.85484
▁ಸಚ್ಚಿಕಟ್ಠಪರಮತ್ಥ	-9.85488
▁ಅನನ್ತರೇ	-9.85491
▁ಅಪರಭಾಗೇ	-9.855
▁ಸೇಸಾ	-9.85515
ಾಮೀತಿ	-9.85518
ದ್ವಯಂ	-9.85523
▁ಸಮಣಬ್ರಾಹ್ಮಣಾ	-9.85574
▁ಕತಮಾನಿ	-9.85581
▁ಪಕಾಸ	-9.8563
▁ಮಾನಾನುಸಯೋ	-9.85642
ಮಗ್ಗೋ	-9.85666
▁ಪಾಣ	-9.85707
▁ಮಂಸ	-9.85779
▁ಭಜ	-9.85782
▁ಯಥಾರಹಂ	-9.85798
ಮೀ	-9.85894
▁ವಿವೇಕ	-9.85931
▁ವಚೀಸಙ್ಖಾರೋ	-9.85938
▁ನಿಬ್ಬತ್ತೋ	-9.85962
▁ಕಾಮಧಾತುಯಾ	-9.85981
▁ಸಞ್ಞೋಜನ	-9.85991
▁ಅರಿಯೋ	-9.8606
▁ಉದಾಹು	-9.86107
▁ಆಗಮ	-9.86109
▁ರಾಜಗಹೇ	-9.86187
ರಾಗ	-9.86216
▁ಜಲ	-9.86222
ಾಕಾರೇನ	-9.86294
ಇಮಂ	-9.86487
▁ಅನುಸಾಸ	-9.86513
▁ಪಾಸಾಣ	-9.86559
ಕತಮೇಹಿ	-9.8656
▁ವಿಪಾಕೇ	-9.86572
▁ಆರಮ್ಮಣಾಧಿಪತಿ	-9.86582
▁ನಸಮ್ಪಯುತ್ತೇ	-9.86583
▁ವಿಪಸ್ಸನಂ	-9.86623
▁ಕಮ್ಮಟ್ಠಾನ	-9.86657
▁ಸಮ್ಮುಖಾ	-9.86673
ತುಂ	-9.86688
ಚಿತ್ತಸಮುಟ್ಠಾನಞ್ಚ	-9.86704
▁ಅಮ್ಬ	-9.86713
▁ವಿಯಾತಿ	-9.86723
▁ಆಗಮ್ಮ	-9.86735
ತ್ಥೇರಸ್ಸ	-9.86784
▁ಏವಞ್ಹಿ	-9.86789
▁ಮಾತು	-9.8688
▁ತಿಸ್ಸ	-9.86897
▁ದೇಸ	-9.86953
▁ದೇವೋ	-9.87083
▁ಕಪ್ಪಿಯ	-9.87138
▁ಹಿತ	-9.87184
ವೋ	-9.8729
▁ದಿಸ್ವಾನ	-9.87399
▁ನಿರ	-9.87412
▁ರತ್ತ	-9.87465
▁ಯೇಭುಯ್ಯೇನ	-9.875
ಸತಾನಿ	-9.8751
▁ಸುಖಾ	-9.87532
▁ಅರಞ್ಞ	-9.87542
▁ಅಸಂಕಿಲಿಟ್ಠ	-9.87651
▁ಏವಾತಿ	-9.87668
▁ಗರಹ	-9.87718
▁ಪರಿದೇವ	-9.87737
▁ಕೇ	-9.87796
▁ಸೋಮನಸ್ಸ	-9.87801
▁ಸೇಸಮೇತ್ಥ	-9.87832
▁ಪಾರಾಜಿಕಂ	-9.87857
ವೇದನಾ	-9.87879
▁ಸಮಥ	-9.87888
ಚಕ್ಖು	-9.87892
▁ದೂರೇ	-9.87942
ವಣ್ಣಂ	-9.88019
▁ಮುತ್ತ	-9.88067
▁೧೮	-9.88198
▁೭೦	-9.88198
▁ಆಯತನ	-9.88253
▁ಕಮ್ಮಟ್ಠಾನಂ	-9.88347
ಭಾಸ	-9.88384
▁ತುಣ್ಹೀ	-9.88701
೧೦	-9.88734
▁ಆಹರ	-9.88759
ಲೋಪೋ	-9.88785
ಮಞ್ಞ	-9.88801
ಕಿಲೇಸಾ	-9.8885
▁ಪನ್ನರಸ	-9.88857
▁ಏಕಾಯ	-9.88908
▁ಕರುಣಾ	-9.88939
▁ಸದ್ಧಾಯ	-9.88985
ಗತಿ	-9.89012
▁ಕುಸಲಸ್ಸ	-9.89118
▁ಸಂವರ	-9.89121
ೇನಾ	-9.89142
ಬ್ಭ	-9.89162
▁ಸಮಾ	-9.89172
▁ಸೇತ	-9.89178
ಸಭಾವ	-9.89189
ಾಯತನ	-9.89194
▁ಅಕಪ್ಪಿಯ	-9.89197
▁ಅಪರ	-9.8922
▁ಕಿರಿಯಾ	-9.89229
▁ಮುಸಾ	-9.89248
▁ಅಭಾಸಿತ್ಥಾತಿ	-9.89255
▁ಯಥಾಕ್ಕಮಂ	-9.89256
ನಕ	-9.89366
ಸ್ಸಿದಂ	-9.89375
▁ವದ	-9.89398
ಸುಣಾತು	-9.89416
▁ನಗರ	-9.89425
▁ಏತೇಸು	-9.89443
▁೧೯	-9.89444
▁ಮಙ್ಗಲ	-9.89487
▁ಉದ	-9.89522
▁ಉಪೋಸಥ	-9.8955
▁ಸಞ್ಞಾಯ	-9.8965
▁ಗಹಣಂ	-9.89659
▁೬೯	-9.89662
ಕ್ಕಮ	-9.89686
▁ಅನನ್ತರ	-9.89736
ಧಮ್ಮಾನಂ	-9.89737
ಸೀಸ	-9.89778
▁೮೦	-9.89833
▁ಪುತ್ತಂ	-9.89888
▁ಭ	-9.89914
▁ಏಕನ್ತ	-9.89983
▁ಗಿಹಿ	-9.90021
▁ಯುಜ್ಜತಿ	-9.90021
ಲೋಮ	-9.90069
▁ಭಣ	-9.90114
▁ಲೋಕಸ್ಮಿಂ	-9.90161
▁ಕಥಿತಂ	-9.9025
ರತೋ	-9.9034
▁ನಯ	-9.90392
▁ಪುರೇಜಾತಪಚ್ಚಯೇನ	-9.90429
▁ಅತೀತೇ	-9.90436
ರಾಸಿ	-9.90481
▁ತರ	-9.90496
▁ಅನವಜ್ಜ	-9.90498
▁ಭಿಕ್ಖುಸ್ಸ	-9.90552
▁ಏವಮೇತಂ	-9.90604
▁ದಳ್ಹ	-9.90647
▁೫೭	-9.90663
ಲಾ	-9.90713
▁ಸಙ್ಗಣ್ಹಾತಿ	-9.90758
▁ಸಾವಕ	-9.90845
▁ಸಮ್ಪಯುತ್ತೋ	-9.90893
ಕಾನಿ	-9.90911
▁ವತ್ತತಿ	-9.90936
ಸತಂ	-9.91005
▁ಜರಾ	-9.91017
▁ದುಕ್ಖಸಚ್ಚಂ	-9.91019
▁ಠಪಿತ	-9.91023
▁೨೦	-9.91055
▁ಗಚ್ಛನ್ತೋ	-9.9108
▁ಲೋಭೋ	-9.91087
▁ಅನ್ತಮಸೋ	-9.9109
▁ಉಪಾದಾನ	-9.91148
▁ಗಚ್ಛೇಯ್ಯ	-9.91156
▁ಕುಲೇ	-9.9117
▁ಕೇಹಿಚಿ	-9.91191
ವಜ್ಜ	-9.91427
▁ಸದ್ದೋ	-9.91447
▁ಅಜ	-9.91479
▁ವಚ್ಛ	-9.91584
ಧಾ	-9.916
▁ಸಾಧಾರಣ	-9.91616
▁ಸರಣ	-9.91662
▁ಘಾನಾಯತನಂ	-9.91681
ಪುಗ್ಗಲ	-9.9169
▁ನರೋ	-9.91696
▁ಸಮ್ಪ	-9.91741
▁ನಿರಯಂ	-9.91778
ಮಯಾ	-9.91808
▁ವಾಪಿ	-9.91851
ಸಙ್ಖಾತಾ	-9.91878
ಹಾ	-9.92055
▁ಮನ	-9.92152
ೇಯ್ಯಾ	-9.92162
ಚಿ	-9.92177
▁ಅರೂಪ	-9.9221
▁ಇನ್ದ್ರಿಯಂ	-9.92216
▁ನಿರಯ	-9.92219
ಗ್ಗಾಹ	-9.92303
ವಿಸಯ	-9.92354
▁ಪೂರೇತ್ವಾ	-9.92375
▁ರೂಪಧಾತುಯಾ	-9.92378
▁೫೬	-9.92415
▁ಮಗ್ಗೇನ	-9.92453
ಿಸ್ಸತೀ	-9.9254
ಭೇದೋ	-9.92551
▁ಮಧು	-9.9257
▁ತತಿಯೇ	-9.92583
ದೇಸನಾ	-9.92656
▁೨೧	-9.9274
▁ಏಕಚ್ಚೇ	-9.92814
▁ಸಹಜಾತಾ	-9.92847
▁ಹತ್ಥೇ	-9.92887
▁ಪಬ್ಬಜ್ಜಾ	-9.92932
ದ್ವಯ	-9.92938
▁ಅಕತ	-9.92945
ಸಮ್ಪದಾ	-9.92973
▁ಲೋಹಿತ	-9.9306
ಿತುಕಾಮೋ	-9.93089
▁ಕಥಿತಾ	-9.93098
▁ವಿಞ್ಞಾಣಕ್ಖನ್ಧೋ	-9.93141
ಭೋಜನ	-9.9328
▁ಹನ	-9.93302
▁ನುಪ್ಪಜ್ಜಿಸ್ಸತಿ	-9.93334
▁ದ್ವಿಧಾ	-9.93342
ಕೋಟಿ	-9.93351
▁ಸಮ್ಮಾಸಮಾಧಿ	-9.93511
▁ನಾಮರೂಪ	-9.93533
▁೬೮	-9.93553
ತ್ತೋ	-9.93553
▁ದನ್ತ	-9.93584
▁ಪಟಿಜಾನಾತಿ	-9.93591
▁ಯೇಹಿ	-9.93645
▁ಜಾಯತಿ	-9.93661
ದುಕ	-9.93669
▁ಸಮನ್ತಾ	-9.93735
ಆದೀನಂ	-9.93746
▁ಅಕ್ಕೋಸ	-9.93814
▁ವನ್ದ	-9.93828
▁ನಿಸೀದ	-9.94017
▁೭೪	-9.9408
▁ಸೇಯ್ಯೋ	-9.94138
▁ಪರಿಚ್ಛೇದೋ	-9.94145
▁ಅರಹಂ	-9.94162
▁ವಿಪ್ಪಯುತ್ತಾ	-9.94183
ಹಿತ	-9.94185
▁ಅಞ್ಞೇಸಂ	-9.94211
▁ಇಮಿಸ್ಸಾ	-9.9424
▁ವಿಹರಾಮಿ	-9.94371
ಗತಾ	-9.94377
▁ಹೇತುಪಚ್ಚಯೋ	-9.94395
ಣ್ಡ	-9.94397
ವಿಧ	-9.94432
▁ಸಾಮಞ್ಞ	-9.94472
▁ಉದ್ದೇಸ	-9.94532
▁ಮುಞ್ಚ	-9.94536
▁ನಉಪನಿಸ್ಸಯೇ	-9.94675
▁ಮಿತ್ತ	-9.94684
▁ಅಧೋ	-9.94697
▁ಉದಕೇ	-9.9474
▁ಇರಿಯಾಪಥ	-9.94777
▁೨೩	-9.94851
ಯುತ್ತ	-9.94975
▁ಸಙ್ಖಾರಕ್ಖನ್ಧೋ	-9.95017
▁ಅನನ್ತ	-9.95019
▁ಇಚ್ಛ	-9.95032
▁ಭಾವಿತಾ	-9.95175
▁ಹಞ್ಚಿ	-9.95181
ದೋ	-9.95255
▁ಉಪನಿಸ್ಸಯೇ	-9.9526
ರೀ	-9.95289
▁೬೫	-9.95298
▁ಪೂರ	-9.95317
▁ಹದಯ	-9.95351
▁ಜಾನಾಮಿ	-9.95377
ಕ್ಕ	-9.95463
ಪುರಿಸ	-9.95527
▁ಚುದ್ದಸ	-9.95561
▁ನಿವತ್ತ	-9.9559
▁ವಿಕಪ್ಪ	-9.95598
▁ತೇನೇವಾಹ	-9.95615
ವಣ್ಣೋ	-9.95751
▁ಏಕೇ	-9.95846
▁ಸನ್ತೇ	-9.95861
▁ಪಚ್ಛಿಮಭವಿಕಾನಂ	-9.95873
▁ಕಸಿಣ	-9.95927
▁ಖತ್ತಿಯ	-9.95966
▁ಪರಿಯಾಯೇನ	-9.95991
ಿನಾ	-9.95998
▁ಅನಿಚ್ಚಂ	-9.96002
ಕೇಹಿ	-9.96048
▁ತೇಪಿ	-9.96051
▁೭೫	-9.96116
ಸೇಸ	-9.9614
ವಿಸೇಸೋ	-9.96142
▁ಮಾತಾಪಿತರೋ	-9.96204
▁ಸಙ್ಗಹೋ	-9.96234
▁ಬಾಹಿರಂ	-9.96287
▁ಗಹಿತಂ	-9.96375
▁ಸಹಜಾತೇ	-9.96469
▁ಅಧಿಪ್ಪೇತೋ	-9.96482
ತಣ್ಹಾ	-9.96504
ಭಾಗ	-9.96519
ಲಕ್ಖಣೋ	-9.96554
▁ಝಾನೇ	-9.96565
ನಝಾನೇ	-9.9658
▁ಸಬ್ಬಾನಿ	-9.96589
▁ದಕ್ಖಿಣ	-9.96617
▁ಏತಸ್ಸಾತಿ	-9.96649
▁೯೦	-9.96658
▁೮೩	-9.96664
▁ಮಞ್ಞೇ	-9.96722
▁೨೪	-9.96734
▁ಅನತ್ಥ	-9.96849
ಅವಿತಕ್ಕವಿಚಾರಮತ್ತ	-9.96857
▁ಸೀಸಂ	-9.96866
▁ಜಾಲ	-9.96895
▁ಕಾತಬ್ಬೋ	-9.96906
▁ಅಪಾಯ	-9.9692
ಾಧಿಪತಿ	-9.97046
ರುಕ್ಖ	-9.97092
ಜಾಲ	-9.97114
ಪ್ಪವತ್ತಿ	-9.97152
▁ಲಭ	-9.97154
▁ಮನ್ದ	-9.97167
▁ಸಮನ್ನಾಗತಾ	-9.9717
▁ಸಙ್ಖಾರೇ	-9.97252
ಪಾ	-9.9727
▁ದಾತುಂ	-9.97289
▁ನೇಕ್ಖಮ್ಮ	-9.97298
▁ತಿಟ್ಠನ್ತಿ	-9.97328
▁ನಿಸ್ಸಯೇ	-9.97334
▁ಏಕೇಕ	-9.97343
▁೫೫	-9.97404
ಮ್ಪೀತಿ	-9.97431
▁ಅನುತ್ತರಂ	-9.97458
▁ಏವರೂಪೋ	-9.97512
▁ಕರಣ	-9.97516
▁ಲಾಭ	-9.97523
ಪಞ್ಹೋ	-9.97583
▁ಛಬ್ಬಗ್ಗಿಯಾ	-9.9759
ುಡ್	-9.97596
ಫಲಂ	-9.97643
ವೀರಿಯ	-9.97652
▁ಸಂಸಾರ	-9.97699
▁ಕಾಮೇಸು	-9.97709
ಸದಿಸೋ	-9.97726
ತಿಆದೀನಿ	-9.97732
ನಯೇನ	-9.97742
▁ಭೋಗ	-9.97775
▁ಸತ್ತೋ	-9.97839
▁ವಿಚಿಕಿಚ್ಛಾನುಸಯೋ	-9.97845
▁ಅಸ್ಸಾದ	-9.97904
▁ಪಿವ	-9.97937
▁ಅರೂಪಧಾತುಯಾ	-9.97943
▁ಅಭಿಞ್ಞಾಯ	-9.97979
▁ಆರಮ್ಮಣಪಚ್ಚಯಾ	-9.98
▁ವಚನೇನ	-9.98094
ಹೀ	-9.98116
▁ಅಧಿಕರಣಂ	-9.98119
ಭಣ್ಡ	-9.98129
▁ದಸ್ಸನಂ	-9.98133
ಸಮಯೇ	-9.98197
▁೮೬	-9.98281
▁ವಿಮುತ್ತಿ	-9.98287
▁ಇತ್ಥನ್ನಾಮ	-9.98336
ದು	-9.98354
▁ಪಣ್ಡಿತ	-9.98425
▁ಸಮುದಯಸಚ್ಚಂ	-9.98452
▁ಕಿ	-9.98539
▁ಇದಞ್ಚ	-9.98581
▁ಅತ್ಥಸ್ಸ	-9.98667
▁ನಾಸ	-9.98741
▁ಸಿಯಾತಿ	-9.98798
▁ನೇತಂ	-9.9881
ಮಣಿ	-9.98834
▁ವಿಹರನ್ತಿ	-9.98876
▁ಸುಗತೋ	-9.98928
ೇಕ	-9.98955
ಅಭಿ	-9.99014
▁ಏವಮೇತ್ಥ	-9.9903
▁೨೫	-9.99057
ತನ್ತಿ	-9.99092
▁ದಿಟ್ಠಂ	-9.99174
▁ನಿರಯೇ	-9.99228
▁ಸತ್ತೇ	-9.99495
ಅನನ್ತರೇ	-9.99541
▁ಪದಾನಿ	-9.99581
▁ಅಭಿನನ್ದತಿ	-9.99582
ದಸ್ಸನತ್ಥಂ	-9.99583
▁ಏವಮಸ್ಸ	-9.99584
ಕಥ	-9.99675
▁ಭವಿಸ್ಸನ್ತಿ	-9.99725
ವತೀ	-9.99731
ಾರ	-9.99732
▁ಚಿತ್ತಸಙ್ಖಾರೋ	-9.99737
▁ಪಹಾತಬ್ಬಂ	-9.99745
▁ದಾತಬ್ಬೋ	-9.99864
▁ಛಸು	-9.99868
▁ಪನಾವುಸೋ	-9.99879
▁ಮುದು	-9.99897
▁ಖಯ	-9.99906
▁೨೬	-9.99983
▁ಬಾಹಿರ	-10.0005
▁ಉದ್ದಿಸ್ಸ	-10.0007
▁ವಗ್ಗ	-10.0008
ಸಞ್ಞ	-10.0015
▁ಸಙ್ಗಹ	-10.0015
▁ಅದ್ಧಾ	-10.0019
ಚೇತನಾ	-10.0024
▁ನೂನ	-10.0027
▁ಪುರೇಜಾತಂ	-10.0051
▁ಪುಣ್ಣ	-10.0058
ಮಜ್ಝ	-10.0061
▁ಕರೋನ್ತಸ್ಸ	-10.0062
▁ಪರಿಸಾ	-10.0074
▁ವಿವರ	-10.0076
▁ಪುಥುಜ್ಜನೋ	-10.008
▁ವಿಭಜಿತ್ವಾ	-10.0081
ಚಿತ್ತಾ	-10.0082
▁ಮನುಸ್ಸೇಸು	-10.0086
▁ಸಹೇತುಕ	-10.0089
ಸುತ್ತೇ	-10.009
ಜಾತ	-10.0102
ಮುಪ	-10.0103
▁೮೪	-10.0104
▁ಪಮಾಣಂ	-10.0113
▁ಸನ್ಧಾಯಾಹ	-10.0117
▁ಆರಾಮೇ	-10.0134
▁ಸತ್ತಮೇ	-10.0139
▁೬೧	-10.0143
▁ಇಸಿ	-10.0145
▁ಆಗತಂ	-10.0146
▁೧೦೦	-10.0148
ಪಾಪ	-10.0149
▁ವೀಮಂಸ	-10.0149
ನ್ತಿಪಿ	-10.0155
ಅಹೋ	-10.016
ೇತಬ್ಬಾ	-10.0163
▁ದೇವದತ್ತೋ	-10.0163
▁ಅಧಿಪತಿ	-10.0163
ಕತಂ	-10.0166
ಪನ	-10.0171
▁ಅನುಪಾದಿನ್ನ	-10.0173
▁ಆಪನ್ನೋ	-10.0174
▁ಬೋಧಿಸತ್ತಸ್ಸ	-10.0178
▁ಅಜ್ಝತ್ತ	-10.0185
▁ವನೇ	-10.0186
▁ಬ್ರಹ್ಮಾ	-10.0192
ಚಾರ	-10.0192
▁ವತ್ಥುಞ್ಚ	-10.0193
▁ಬ್ರಾಹ್ಮಣಂ	-10.0197
▁ಏವಮೇವಂ	-10.0205
▁ಭಣ್ಡ	-10.0209
▁೭೧	-10.0216
▁ಗಿಲಾನ	-10.0217
▁೨೭	-10.0222
ಜಾನ	-10.0228
▁ಚತುತ್ಥೇ	-10.0229
▁೮೯	-10.0231
ನ್ತಿಯಾ	-10.0237
▁ಅಧಿಪ್ಪೇತಾ	-10.0238
▁೨೮	-10.0238
▁ಸುನ್ದರ	-10.0238
▁ಕಾರೇತ್ವಾ	-10.0242
ತ್ರ	-10.0247
▁೭೬	-10.0247
▁೭೨	-10.025
▁ಸದ್ಧಮ್ಮ	-10.0258
▁ನೇವವಿಪಾಕ	-10.0258
▁ಪಠಮಜ್ಝಾನ	-10.0258
▁ಉತ್ತಾನಮೇವ	-10.026
ೀಸು	-10.0264
ಜಾತೋ	-10.0267
▁೭೮	-10.0272
ತ್ತಾತಿ	-10.0274
▁ಸಚ್ಛಿಕತ್ವಾ	-10.0276
ವಂಸ	-10.0276
ಗಾ	-10.0277
ಗಾಥಾ	-10.028
▁ಬಲಂ	-10.0282
▁ಸಕಂ	-10.029
▁ಅಹ	-10.0292
ಸಙ್ಖಾತೋ	-10.0298
▁ಖತ್ತಿಯೋ	-10.0306
ಮನುಸ್ಸ	-10.0318
▁ತಕ್ಕ	-10.0325
ಕಾಯೋ	-10.0327
▁ಸಕ್ಕ	-10.0327
▁ದೇನ್ತಿ	-10.0328
▁ಸಮಣಾ	-10.0329
ಮಮ	-10.0332
▁ಗಾಮೇ	-10.0334
▁೬೬	-10.0349
ಜಂ	-10.0355
ಸದಿಸಾ	-10.0356
▁ಹಿತ್ವಾ	-10.0358
ಮಜ್ಝೇ	-10.0362
▁ಮಚ್ಛ	-10.0362
ಿಸ್ಸಂ	-10.0364
ಿದಂ	-10.0372
▁೨೯	-10.039
▁ದಿಟ್ಠಿಂ	-10.04
ಮನು	-10.0404
▁೭೯	-10.0404
▁ಅನಾಗತೇ	-10.0413
▁೩೧	-10.0415
▁ಆಚಿಕ್ಖ	-10.042
ನಮ	-10.042
▁ಭಿಕ್ಖುನೀನಂ	-10.0425
ಟ್ಠಾ	-10.0427
▁ಛಿನ್ದಿತ್ವಾ	-10.0431
ೇತು	-10.0439
▁ವುತ್ತನಯಮೇವ	-10.0441
▁ಪಗೇವ	-10.0442
▁ಪಮಾಣ	-10.0443
ವಾಸ	-10.0452
▁೫೮	-10.0456
▁ಅಜ್ಝ	-10.0458
▁ಪಸ್ಸಾಮಿ	-10.0459
▁ಆಸನೇ	-10.0459
▁ಪವ	-10.0459
ವಗ್ಗೇ	-10.0462
▁ಮಾರೋ	-10.0463
ಪುತ್ತೋ	-10.0463
▁ಭೋಜನ	-10.0465
▁೭೩	-10.0466
▁ವಸ್ಸಂ	-10.0468
▁ಅಞ್ಞತರ	-10.0469
▁೮೮	-10.0471
▁ದೋಮನಸ್ಸ	-10.0472
▁ಅರೂಪೇ	-10.048
▁ಸಹಜಾತಾಧಿಪತಿ	-10.048
▁ಛಿನ್ದ	-10.0485
▁೩೦	-10.0496
▁ರಹೋ	-10.0497
▁ಮಹಾಭೂತಂ	-10.05
▁ಸದಿಸ	-10.0502
▁ಕತ್ತು	-10.0507
ಮತ್ತಮ್ಪಿ	-10.0511
▁ನಿದಾನ	-10.0511
▁ರತ್ತಿಯಾ	-10.0511
▁ನಪ್ಪಜಹತಿ	-10.0516
▁ಏತಾನಿ	-10.0517
▁ಅನಿಚ್ಚಾ	-10.0518
▁ಮೂಲಂ	-10.0518
▁ಜಾನಿತ್ವಾ	-10.0522
ಸಲ್ಲ	-10.0531
▁ಅವಿಜ್ಜಾನುಸಯೋ	-10.0535
▁ಝಾನಸ್ಸ	-10.0545
▁ವಿಜ್ಜಮಾನ	-10.0548
ಸಙ್ಖ	-10.0549
▁ಅಮ್ಹೇಹಿ	-10.0552
▁ಆದಿತೋ	-10.0556
▁೮೨	-10.0556
▁ಆನೇತ್ವಾ	-10.0556
▁ಇಧಾಪಿ	-10.0564
▁ಪಣ್ಣ	-10.0564
▁ಇಚ್ಛತಿ	-10.0565
▁ವತ್ತತೇ	-10.0569
▁ಪಾವಿಸಿ	-10.0573
ನಿದಾನ	-10.0575
▁ರಞ್ಞಾ	-10.0579
▁ತಂತಂ	-10.058
▁೮೧	-10.0583
ಾಧಿ	-10.0584
▁ಪರಿನಿಬ್ಬಾಯಿಸ್ಸ	-10.0589
▁ಯು	-10.0593
ಗಾಹ	-10.0598
▁ನತ್ಥೀ	-10.0599
ಾಹಾರ	-10.06
ಇನ್ದ್ರಿಯ	-10.0602
▁ಸಮ್	-10.0608
ಗ್ಘ	-10.061
▁ಅಮತಂ	-10.0611
▁೬೦	-10.0615
▁ಅವಸೇಸ	-10.062
▁ಛಹಿ	-10.0624
▁ಅಚ್ಛ	-10.063
ಕಿ	-10.0631
ವಿನಯ	-10.0636
▁ಯುತ್ತಂ	-10.0645
▁ಅನುಕಮ್ಪ	-10.0645
ಅನ	-10.0648
▁ಸನ್ದ	-10.0651
▁ಪರಿವಾರ	-10.0651
ುತ್ತರ	-10.0651
ೇಸೀತಿ	-10.0656
▁ಅಕ್ಖರ	-10.0664
▁ಮಾಣವ	-10.0666
▁ಪರಮತ್ಥ	-10.0668
ಭಾವಸ್ಸ	-10.067
▁ವರಂ	-10.0678
▁ಉಪ್ಪಾದೇತಿ	-10.068
▁ಯಜ	-10.0681
▁ಥೇರಾ	-10.0681
ಾದಿಂ	-10.0681
▁ನಮೋ	-10.0682
▁೮೭	-10.0694
▁ಸತಿಮಾ	-10.0696
▁ತೇಲ	-10.0701
▁ಓವಾದ	-10.0704
▁೭೭	-10.0709
ಸಮ್ಬನ್ಧ	-10.0709
ಪಕ್ಖ	-10.071
ತ್ಥೇರಗಾಥಾವಣ್ಣನಾ	-10.0717
▁ಸಟ್ಠಿ	-10.072
▁ಅತಿಕ್ಕಮ	-10.0723
▁ಇಧೇವ	-10.0724
▁ಇಟ್ಠ	-10.073
ಕಾರಣಾ	-10.0733
ಜವನ	-10.0733
▁ಸಹೇತುಕೋ	-10.0739
▁ಸೇನಾಸನ	-10.0742
▁ಸಮೋಧಾನೇಸಿ	-10.0744
▁ಅಞ್ಞಮಞ್ಞೇ	-10.0744
ಮಣ್ಡಲ	-10.0747
ಮ್ಮ	-10.0748
ಸಞ್ಞಿನೋ	-10.075
ವಚನೇನ	-10.0753
▁ಪವತ್ತಂ	-10.0755
▁ಬನ್ಧಿತ್ವಾ	-10.0756
▁ವಧ	-10.0756
▁ಸತಿಯಾ	-10.0758
ದೀಪ	-10.0768
ಪಬ್ಬತ	-10.0771
▁ಚತುತ್ಥೋ	-10.0772
ಚತು	-10.0772
▁ಸನ್ತಂ	-10.0777
ಸಮಾ	-10.0787
▁ಗಬ್ಭ	-10.0791
▁ಠಿತಸ್ಸ	-10.0792
▁ಉಣ್ಹ	-10.0799
ಞ್ಜ	-10.08
▁ಮಞ್ಞತಿ	-10.0805
▁ಕುಕ್ಕುಚ್ಚಂ	-10.0807
▁ಕಥಾಯ	-10.0809
▁ಚಕ್ಕ	-10.081
▁ಅಹೋ	-10.081
▁ಗೇಹ	-10.0814
ಿತ್ವಾನ	-10.0815
▁ಘರ	-10.083
▁ಲೋಪೋ	-10.0833
▁ಪಟಿಲದ್ಧ	-10.0838
▁ಪುಗ್ಗಲಾನಂ	-10.084
▁ದಮ	-10.0851
▁ಪಸ್ಸನ್ತೋ	-10.0855
▁ನಕುಸಲೋ	-10.0856
ಾವುಸೋ	-10.0856
▁ಸುಣಾತಿ	-10.0858
ದುಕ್ಖಂ	-10.0861
ಏವ	-10.0864
ೀಯನ್ತಿ	-10.0871
ಉಪಾದಿನ್ನುಪಾದಾನಿಯ	-10.0874
▁ಇನ್ದ್ರಿಯೇ	-10.0883
▁ಏವರೂಪಾ	-10.0884
▁ಸಂಯೋಜನ	-10.0891
▁ಚೇತಸಿಕ	-10.0895
▁ಸಬ್ಬಥಾ	-10.0897
▁ಝಾಪಿತಾ	-10.0899
ತಞ್ಚ	-10.0907
▁ಪಸಂಸ	-10.0908
▁ಕಲ್ಯಾಣ	-10.0909
▁ಕುಸ	-10.0925
▁ದುತಿಯಾ	-10.0925
▁ವುಚ್ಚತೀತಿ	-10.093
ಪುರ	-10.0934
▁ವಿಸೇಸತೋ	-10.0937
▁ಆವಜ್ಜನ	-10.0938
ವಿತಕ್ಕ	-10.0939
▁ಕುಸಲೇಸು	-10.0939
▁ಉಪ್ಪಜ್ಜಿ	-10.0944
▁ಪಮಾದ	-10.0949
ಆದೀಸು	-10.0954
▁ತಾದಿಸಂ	-10.0957
▁ಇಚ್ಛಾ	-10.096
▁ಗನ್ತುಂ	-10.0961
▁ನಿಪಾತೋ	-10.0961
▁ಇತರ	-10.0963
ಸಙ್ಖಾತೇನ	-10.097
▁ಪರಿಸಾಯ	-10.097
▁ವಿಸಯ	-10.0976
▁ಗಹೇತಬ್ಬೋ	-10.098
▁ಭೇಸಜ್ಜ	-10.0991
▁ಪಹಾತಬ್ಬಾ	-10.0991
▁ಅಯಞ್ಚ	-10.0992
ಿತಬ್ಬಾ	-10.0995
▁ಸಪ್ಪಿ	-10.0996
ಬೀಜ	-10.0998
▁ಭಣತಿ	-10.0999
▁೩೨	-10.1005
▁ಅಸುಭ	-10.1005
▁ತಿಕ	-10.101
ಸಙ್ಖಾರ	-10.101
▁ಅಞ್ಞೇಹಿ	-10.1012
▁ದಾಸ	-10.1012
ಪಯೋಗ	-10.1014
▁ಸಬ್ಬಮ್ಪಿ	-10.1022
▁ಪಥವಿಂ	-10.1028
ುಪ್ಪಾದ	-10.1032
ದಣ್ಡ	-10.1038
▁ಅಪ್ಪನಾ	-10.1039
ಕುಲೇ	-10.1046
ಚರಿಯಾ	-10.1051
▁ಫುಸ	-10.1051
▁೮೫	-10.1054
ಬ	-10.1054
▁ಥೇರ	-10.1057
ಭೇದತೋ	-10.1057
ನಾಯ	-10.1058
ಾರಾಮ	-10.106
▁ಅನಿಚ್ಚ	-10.1066
▁ದಸ್ಸಿತೋ	-10.107
▁ಅಟ್ಠಿ	-10.1071
▁ಪರಿಭೋಗ	-10.1072
▁ಮಗ್ಗಸಚ್ಚಂ	-10.1072
▁ಮಞ್ಞ	-10.108
ದಸ್ಸನೇನ	-10.1081
▁ಸಬ್ಬೇಸು	-10.1082
▁೩೩	-10.1085
ಮೂಲಕ	-10.1088
▁ಅಲ	-10.1092
▁ಮಾನೋ	-10.1093
▁ಗಾಹ	-10.1096
▁ಕಾಕ	-10.1096
▁ಅವತ್ವಾ	-10.1099
ಸಮ್	-10.1104
▁೩೫	-10.1105
▁ಅನಾಗತಂ	-10.1111
ಧೀ	-10.1118
ಇಮಿನಾ	-10.1121
▁ಸಾಲ	-10.1123
▁ಮಗ್ಗಾ	-10.1128
▁ಸತ್ತಾಹಂ	-10.1134
▁ನಾನುಸೇತಿ	-10.1135
ವೂಪಸಮ	-10.114
▁ಯಂಕಿಞ್ಚಿ	-10.1145
ಜೋ	-10.1147
▁ಕಣ್ಣ	-10.1149
▁ಬನ್ಧನ	-10.1154
▁ಥೇರಂ	-10.116
▁ಅನಿಟ್ಠ	-10.1162
ಧಾರ	-10.1165
▁ಅನಾಸವೋ	-10.1168
▁ಪಬ್ಬಜಿತ	-10.1169
▁ಖಮ	-10.1174
▁ಕುಸಲಾನಂ	-10.1178
▁ಕಿಚ್ಚಂ	-10.1181
▁ಹೇತಂ	-10.1185
ಮಾರ	-10.1192
▁ಏತೇಹಿ	-10.1192
ಸಬ್ಬೇ	-10.1194
▁ನಾಗೋ	-10.1195
▁ಕತ್ತಬ್ಬ	-10.1196
▁ಅನುಸೇತಿ	-10.1196
▁ಪಕ್ಕಾಮಿ	-10.1197
ಕತಾ	-10.1198
ೇತಾ	-10.1201
ಕಾರಂ	-10.1203
ೋಪ	-10.1204
▁ಜಿಣ್ಣ	-10.1207
ರಸೋ	-10.1207
ಪ್ಪಟಿ	-10.121
ದನ್ತ	-10.1213
ಬ್ಯಞ್ಜನ	-10.1213
▁ಸಞ್ಞ	-10.1215
▁ಬ್ಯ	-10.1215
▁ಲಾಭೀ	-10.1217
▁ವಿವಟ್ಟ	-10.1217
▁ಮತಾ	-10.1219
▁ಅವಿಜ್ಜಾಯ	-10.1221
▁ಮಾಸ	-10.1227
▁ಸಿಕ್ಖ	-10.1227
▁ಪಟಿಪಕ್ಖ	-10.123
ಮ್ಬ	-10.1231
▁ಏಕದಿವಸಂ	-10.1234
ಸಚ್ಚಂ	-10.1242
▁ಉಪಮಾ	-10.1243
▁ಉಪೋಸಥಂ	-10.1244
▁ಜನೋ	-10.1247
▁ಸೋತಂ	-10.1255
▁ಣೋ	-10.1256
▁ಪಹಾನಂ	-10.1257
▁ಪರಿಯಾಯ	-10.1258
▁ಖೇಮ	-10.1259
▁ಸುಣಾಥ	-10.1262
ನಮ್ಪಿ	-10.1279
▁ದಾರು	-10.128
▁ಆಚರಿಯೋ	-10.128
▁ಚರಿತ್ವಾ	-10.128
▁ಅಹೋಸೀತಿ	-10.1282
ಮತ್ತಾ	-10.1293
ಝಾನ	-10.1294
▁ಧಾತುಯಾ	-10.1295
ಾಪ	-10.1299
ಿನ್ದ	-10.1303
ಕೋತಿ	-10.1306
ಕತಮೋ	-10.1307
ನೀತಿ	-10.1315
▁ಕಮ್ಮಾನಿ	-10.1317
ಕೋಟ್ಠಾಸ	-10.1323
▁ಅತಿಕ್ಕಮಿತ್ವಾ	-10.1324
▁ಸೋಭ	-10.1326
▁ಆಕಾರ	-10.1333
▁ದುವೇ	-10.1335
▁ಅನುಲೋಮಂ	-10.1335
▁ವಿವಿಚ್ಚೇವ	-10.1338
▁ನಗರೇ	-10.1338
▁ವೋಹಾರ	-10.1339
ಭೇದೇನ	-10.134
▁ದುಕ	-10.134
▁ಚಿರಂ	-10.1342
ನಾಗ	-10.1346
▁ಅರಿಯಮಗ್ಗ	-10.1346
▁೩೪	-10.1347
ಯಮಾನೋ	-10.1348
▁ಪುರಿಸಾ	-10.1355
ಾಪೇತುಂ	-10.136
▁ಸಾಧುಕಂ	-10.1361
▁ಪಕ್ಖಿಪಿತ್ವಾ	-10.1362
▁ಪರಿಪೂರ	-10.1362
ಅಞ್ಞಮಞ್ಞೇ	-10.1363
ರೂಪೋ	-10.1368
ನ್ತಿಆದಿಮಾಹ	-10.137
▁ಸಞ್ಜಾತ	-10.1374
ರಥ	-10.1375
▁ಕಞ್ಚಿ	-10.1377
ಸಮುಟ್ಠಾನಂ	-10.138
ೀಯತೇ	-10.1382
▁ರೂಪಾವಚರ	-10.1388
▁ಪದಸ್ಸ	-10.1389
▁ಭವಙ್ಗ	-10.1392
ಚಕ್ಕ	-10.1395
▁ಠಿತಿ	-10.1403
▁ಅನುಜಾನಾಮಿ	-10.1405
ೇನ್ತೀತಿ	-10.1406
▁೩೭	-10.141
▁ಕಣ್ಹ	-10.1412
▁ರಜ್ಜ	-10.1417
▁ಸೇ	-10.1418
▁ಭಗವತಿ	-10.1418
▁ಉಪಾಸಕೋ	-10.1424
▁ಧಞ್ಞ	-10.1425
ಬಲಂ	-10.1425
▁ದೇಸೇಸಿ	-10.1426
▁ಕಾಯಕಮ್ಮಂ	-10.1431
ಸಞ್ಞಂ	-10.1434
▁ಲದ್ಧಾ	-10.1436
▁ಯಮಕ	-10.1436
▁ಸತಿಪಟ್ಠಾನ	-10.1438
▁ಅಙ್ಗೇಹಿ	-10.1439
▁ಅಚ್ಚನ್ತ	-10.1441
▁ಹೇಟ್ಠಿಮ	-10.1442
▁ಉಭತೋ	-10.1444
▁ನಿರುಜ್ಝನ್ತಿ	-10.1445
▁ಭಿನ್ದಿತ್ವಾ	-10.1445
ರಞ್ಞೋ	-10.1448
ೂತಿ	-10.145
▁ಆಮಿಸ	-10.145
▁ವಿಹರ	-10.1453
▁ಇತಿಪಿ	-10.1455
▁ಪಾಕಟಂ	-10.1455
▁ಏವಮಾದಿ	-10.1461
▁ಛಟ್ಠ	-10.1462
▁ಕೋಟಿ	-10.1463
▁ಸರೀರೇ	-10.1464
▁೯೪	-10.1474
▁ಪಣೀತ	-10.1475
▁ಸತ್ಥ	-10.1475
ಕಡ್	-10.1476
▁ಧೀರೋ	-10.1479
ಧನ	-10.1481
ಂಸು	-10.1482
▁ಪಿಣ್ಡ	-10.1487
▁ದಸ್ಸಿತಾ	-10.149
▁ಸೋಕ	-10.1491
▁ಅಞ್ಞೇಪಿ	-10.1493
▁ಅಧಿಕರಣ	-10.1494
ಪ್ಪಮಾಣ	-10.1497
▁ವಾದ	-10.1501
▁ಪಾಪುಣಿ	-10.1502
▁ದದೇಯ್ಯ	-10.1504
▁ಆತಾಪೀ	-10.1507
▁ಪಜಹ	-10.151
▁ಅನನ್ತರಾ	-10.1511
ನ್ತರೇ	-10.1515
▁ರಸ್ಸ	-10.1518
▁ಅಸಿ	-10.152
▁ಉಭಿನ್ನಂ	-10.1521
ತಮ	-10.1524
▁ಖಿಪ್ಪಂ	-10.1524
ಪಕ್ಕ	-10.1526
ಯುತ್ತೋ	-10.1528
▁೩೬	-10.1533
▁ಝಾಯ	-10.1534
ಣೀ	-10.1535
▁ಖೀರ	-10.154
▁ಚರೇ	-10.154
▁ಅಸುಚಿ	-10.1542
▁ಸುಖುಮ	-10.1551
ದ್ದ	-10.1557
▁ವಿನಯೇ	-10.1558
▁ಅವಿಕ್ಖೇಪೋ	-10.1561
▁ಅಬ್ಭ	-10.1562
ಪತಿ	-10.1565
▁ಅಞ್ಞಾಣ	-10.1572
▁ಪಯೋಗ	-10.1576
ಚೀವರಂ	-10.1584
▁ಪಸ್ಸತೋ	-10.1585
ಾರಹ	-10.1592
▁ದೇಸನಂ	-10.1595
▁೯೨	-10.1597
ಾಲಙ್ಕಾರ	-10.1603
ಚಿತ್ತೇನ	-10.1603
▁ಆಮ	-10.1611
▁ಇನ್ದ	-10.1612
▁ಸೇವ	-10.1613
▁ಅಗ್ಗಮಗ್ಗ	-10.1614
ನಾಹಂ	-10.162
▁ಖೀಣಾಸವ	-10.1625
▁ಅಸಾಧಾರಣ	-10.1625
ಗ್ಗಿ	-10.1626
ಯಾತಿ	-10.1626
ಮಕಾಸಿ	-10.1638
ಾನಮ	-10.1638
▁ಅನ್ತರ	-10.1641
▁ಸಮ್ಪಯುತ್ತೇ	-10.1641
ಕಾಲತೋ	-10.1644
▁ಆಗಚ್ಛತಿ	-10.1645
▁ನಿಕ್ಖಿಪ	-10.1647
▁ಅಟ್ಠಙ್ಗಿಕೋ	-10.165
ಪುಗ್ಗಲೋ	-10.1654
▁ಅನತ್ತಾ	-10.1659
▁ಭವಿತಬ್ಬಂ	-10.1661
▁ಸಮ್ಮುತಿ	-10.1665
▁ಖಮತಿ	-10.1667
▁ಕಾರಣೇಹಿ	-10.1675
ಪರಿಕ್ಖಾರ	-10.1676
▁ವಸಿ	-10.1676
▁ಅಸ್ಸಾದೇತಿ	-10.1676
ಿಸ್ಸತೀತಿ	-10.1677
ಙ್ಕ	-10.1679
▁೩೯	-10.1679
▁ಉದಾನಂ	-10.168
▁ಹತ್ಥೇನ	-10.168
▁ದುಕ್ಖತೋ	-10.1681
ಪ್ಪಕಾರ	-10.1687
▁ಬದ್ಧ	-10.1688
ಸಮಂ	-10.169
ಯತೀತಿ	-10.1697
▁೯೧	-10.1697
ಸಙ್ಗಹ	-10.1701
▁ಪುಚ್ಛಾಮಿ	-10.1702
ತ್ತಿಕ	-10.1703
▁ಇನ್ದ್ರಿಯಾನಿ	-10.1707
▁ಪೂಜ	-10.1709
▁ಸಮ್ಮದೇವ	-10.1711
ಸಮಾಪತ್ತಿ	-10.172
▁ಮರ	-10.1725
▁ಪರಿತ್ತಂ	-10.1728
ಮುತ್ತ	-10.1729
▁ಅಕಂಸು	-10.1731
▁ಮಹಾಭೂತಾ	-10.1736
▁ಸತ್ತನ್ನಂ	-10.1737
ಭೂತೇ	-10.1742
▁ಪಟಿಸಮ್ಭಿದಾ	-10.1743
ಞ್ಞೂ	-10.1744
ಪ್ಪತ್ತ	-10.1745
ೇಸ್ಸಾಮೀ	-10.1745
▁ಗಹಿತೋ	-10.1745
▁೫೪	-10.1749
▁ಖಣ್ಡ	-10.175
ಪರಿಯಾಯ	-10.1751
▁ಓಕಾಸಂ	-10.1753
▁ವುದ್ಧಿ	-10.1758
▁ಚೇತಿಯ	-10.176
▁ಆಹರಿ	-10.1761
▁ಕಾಚಿ	-10.1777
▁ಕೀಳ	-10.178
▁ಣ	-10.1783
▁೪೧	-10.1783
▁ವಯ	-10.1784
▁ಅಗ್ಘ	-10.179
ಆಹಾರೇ	-10.1791
▁ಸಮಾದಾಯ	-10.1795
▁ಉಸ್ಸ	-10.1802
▁ಸೀಲವಾ	-10.1803
▁ವಾತ	-10.1805
▁೩೮	-10.1807
▁ವಿನೇಯ್ಯ	-10.1809
▁ಛನ್ದಂ	-10.1809
▁ಸಗ್ಗಂ	-10.181
ೇನಾಪಿ	-10.1811
▁ಪಚ್ಚಯೇ	-10.1817
▁ಜನೇತಿ	-10.1818
▁ಅನ್ತರೇ	-10.1824
▁ಪವತ್ತತೀತಿ	-10.1824
▁ತಪ	-10.1825
▁ಸಾವಕಾ	-10.1828
▁ಏತ್ತಕಂ	-10.1829
▁ಥೇರೇನ	-10.1833
ರಸಂ	-10.1834
▁ಚಿತ್ತಾನಿ	-10.1836
▁ತತ್ರಾಯಂ	-10.1847
▁ಸಮುದ್ದ	-10.1847
ಮತ್ಥ	-10.1848
▁ಉಪಪಜ್ಜತಿ	-10.1848
▁ತ್ವ	-10.185
▁ಪಟಿಪತ್ತಿ	-10.1853
ತ್ತಿ	-10.1854
ೇತಬ್ಬೋ	-10.1855
ಿತು	-10.1868
▁ಇತ್ಥಿಯೋ	-10.1873
▁ಅಲ್ಲ	-10.1876
ಸ್ಸೇತಂ	-10.1877
ಣಾ	-10.188
▁ಅಕುಸಲಾನಂ	-10.1881
ಸತ್ಥ	-10.1882
▁ಪಾಕಟೋ	-10.1883
▁ಸಭಾಗ	-10.1884
▁ಸನ್ತಕಂ	-10.1886
ಲಿ	-10.1887
▁ಸಮ್ಪಯುತ್ತಂ	-10.1894
ಭೂ	-10.1897
ಪುಚ್ಛ	-10.1898
ಹೋ	-10.1899
▁ಜಾನ	-10.1901
▁ಆಸೇವನೇ	-10.1912
▁ಕಾಯಿಕಂ	-10.1915
▁ಭೇದ	-10.1917
▁ಇತ್ಥಿಯಾ	-10.1918
▁ಜರಾಮರಣಂ	-10.192
▁ಅನಾಥಪಿಣ್ಡಿಕಸ್ಸ	-10.1923
▁ಮತೋ	-10.1925
▁ಅನಗಾರಿಯಂ	-10.1927
▁೪೦	-10.1931
▁ಪೋಸ	-10.1931
ಆಮ	-10.1932
▁ಸೇಟ್ಠೋ	-10.1933
ಪರಿಚ್ಛೇದ	-10.1942
ತ್ಥಞ್ಚ	-10.1942
ಚರ	-10.1946
ರೂಪಾ	-10.1946
▁ಕತ್ತಾ	-10.1947
ಯಿಂ	-10.1951
ಹನ	-10.1952
▁ತಿವಿಧ	-10.1954
▁ಭವಿಸ್ಸತೀತಿ	-10.1954
▁ಮಹಗ್ಗತ	-10.1955
▁ಜನೇ	-10.1956
ಾದೇಸೋ	-10.1957
▁ಖೇತ್ತ	-10.1957
▁ಪಾತಿಮೋಕ್ಖಂ	-10.1961
▁ಪವಾರಣಾ	-10.1967
▁ಪಾಣಾತಿಪಾತ	-10.1969
ಾಧಿಕ	-10.1972
ಮಗ್ಗಂ	-10.1977
▁ರಾಜಾನೋ	-10.1977
▁ಸಮಾಪತ್ತಿ	-10.1978
▁ದೋಸಂ	-10.1978
ಅಟ್ಠ	-10.1984
▁ಚರನ್ತಿ	-10.1985
▁ತಥಾಪಿ	-10.1986
▁ದಿಸಂ	-10.1987
▁ಬಹುಲೀಕತಾ	-10.1988
▁ಪಟಿಸೇವ	-10.1992
▁ಅಸ್ಸು	-10.1994
▁ನರ	-10.2008
▁ಪತಿಟ್ಠಾ	-10.2011
ಕಿರಿಯ	-10.2014
▁ಸಿಕ್ಖಾಪದ	-10.2015
▁೯೫	-10.2015
ಪದಾನಿ	-10.2015
▁ಸನ್ಧಿ	-10.2017
▁ಆಯ	-10.2018
ಚನ್ದ	-10.2018
▁ಪು	-10.2021
ಭೂಮಿಯಂ	-10.2022
▁೯೮	-10.2032
ಮಾನೇ	-10.2038
ಪ್ಪಹಾನ	-10.2038
▁ಖೀಣ	-10.2042
▁ಅಟ್ಠಙ್ಗಿಕ	-10.2043
▁ಆಕಾರೇಹಿ	-10.205
▁ಸಾಮಂ	-10.2062
ೋಯೇವ	-10.2063
▁೪೪	-10.2065
ನ್ನಂ	-10.2067
ಸನ್ತ	-10.2067
ಸೋತ	-10.2068
ಪಾಳಿ	-10.207
▁ಇದಮೇವ	-10.2073
▁ಆಲೋಕ	-10.2074
▁ಗಹೇತುಂ	-10.2076
▁ಆರೋಚ	-10.208
▁ಪರಿಸ	-10.208
▁ವಿಸಮ	-10.2082
ಉದಕ	-10.2084
▁ಸಂಕಿಲಿಟ್ಠ	-10.2085
▁೪೩	-10.2087
▁ಸಮ್ಪಯುತ್ತಕಾ	-10.2087
▁ಚಕ್ಖುವಿಞ್ಞಾಣ	-10.2087
▁ನಿಬ್ಬ	-10.2092
ಸಙ್ಖಾತೇ	-10.2093
▁ಕತತ್ತಾ	-10.2095
ಪ್ಪವತ್ತ	-10.2095
ಹರ	-10.21
ಲೋ	-10.21
▁ಲಕ್ಖಣಂ	-10.21
▁ಕಾರೇಸಿ	-10.2101
▁ಪರಿಭಾಸ	-10.2105
ನಿದ್ದೇಸ	-10.2113
▁ಗಮ್ಭೀರ	-10.2113
▁೫೦	-10.2118
ಕಿರಿಯಾಯ	-10.2121
ವುತ್ತ	-10.2122
▁ಪಾಪಕಾ	-10.2123
▁ಚಕ್ಖುವಿಞ್ಞಾಣಂ	-10.213
ದಿವಸೇ	-10.2133
▁ವಿಸುದ್ಧ	-10.2134
▁ದಿಟ್ಠೋ	-10.2134
ವೇರ	-10.2135
ಾನಿಪಿ	-10.2136
ಸಿಕ್ಖಾಪದ	-10.2138
ಪುರಿಸೋ	-10.2139
▁ರಜ	-10.214
▁ಪರಿವತ್ತ	-10.214
▁ಕಿಲೇಸಾನಂ	-10.2142
▁ದಿಬ್ಬಚಕ್ಖು	-10.2143
ಿಮೇ	-10.2146
▁ವುಚ್ಚತೇ	-10.2148
▁ವುತ್ತಾತಿ	-10.2149
▁ವಿಪಸ್ಸನಾಯ	-10.2149
ರಕ್ಖ	-10.2149
▁ಮಞ್ಞಸಿ	-10.2151
▁ಭಾಸಿತಾ	-10.2152
▁ಯೋಜೇತ್ವಾ	-10.2152
▁೪೫	-10.2154
ಯನ್ತೋ	-10.2161
▁ಧ	-10.2162
▁ದೀಘರತ್ತಂ	-10.2164
▁ಅಯಞ್ಹಿ	-10.2164
▁೪೨	-10.2174
▁೫೩	-10.2176
ನವ	-10.2179
▁೯೩	-10.2185
▁ದಾರ	-10.2187
▁ಪಕಾಸಿತಾ	-10.2189
▁ಸಮ್ಪಯುತ್ತ	-10.2197
▁೪೬	-10.2198
▁ವಿಹಾರೋ	-10.2198
▁ಕಥೇತಿ	-10.22
▁ಸತ್ಥುನೋ	-10.2202
▁೫೨	-10.2206
▁ಅನುಸೇನ್ತಿ	-10.2207
ಪಟಿಚ್ಚವಾರಾದಿ	-10.2209
▁ಪಣೀತಂ	-10.221
ವಸ	-10.2216
▁ಹಿತಾಯ	-10.2219
ಸಯ	-10.222
▁ಆಕಾಸ	-10.2232
ಮ್ಭ	-10.2236
▁ಯಞ್ಞ	-10.224
▁ಜೀವಿತಾ	-10.224
▁೪೯	-10.2242
▁೪೭	-10.2244
▁ಮಜ್ಝ	-10.225
▁ಮತ	-10.2254
▁ಸವಿತಕ್ಕಸವಿಚಾರ	-10.2267
ಲೀ	-10.2267
▁ಯಸೋ	-10.2268
ಭಾ	-10.2271
ಭಯಂ	-10.2273
▁ಸಾವತ್ಥಿನಿದಾನಂ	-10.2274
▁ಪುರಿಸಂ	-10.2279
▁ಅನ್ಧ	-10.2283
▁ಅಙ್ಗಂ	-10.2283
ೇತೇ	-10.2288
ಸಮ್ಪತ್ತಿಂ	-10.2289
ಸದ್ದಾ	-10.2292
▁ತದತ್ಥ	-10.2292
ಯೋಜನ	-10.2294
▁ಭಣ್ಡಂ	-10.2294
▁ಇತ್ಥನ್ನಾಮಸ್ಸ	-10.2297
▁ಮಹಾನಾಮ	-10.2298
▁ಕಾರಣಾ	-10.23
▁ವುಟ್ಠಹಿತ್ವಾ	-10.2302
▁ಸಸ್ಸ	-10.2306
▁ಮಜ್ಜ	-10.2309
ನಗರೇ	-10.2314
▁ಏತೇಸನ್ತಿ	-10.2314
ಪತ್ತೋ	-10.2315
▁ಸುಣ	-10.2316
▁ಸಪ್ಪ	-10.2327
▁ವೇಮತಿಕೋ	-10.2327
▁ಭುಞ್ಜತಿ	-10.2329
▁ದಕ್ಖ	-10.2332
▁ಭೇದೋ	-10.2334
ಕ್	-10.2336
▁ಸಙ್ಖಂ	-10.2336
▁ಸಿಕ್ಖತಿ	-10.2338
▁ಆಪತ್ತಿಸಮುಟ್ಠಾನ	-10.234
▁ದಬ್ಬ	-10.2343
▁ದುಬ್ಬಲ	-10.2345
▁ಸತ್ತಹಿ	-10.2346
▁ಪಞ್ಚಮೇ	-10.235
▁ಅತೀತಾನಾಗತ	-10.2356
▁ಭೂಮಿಯಂ	-10.2359
ಸುವಣ್ಣ	-10.2362
ಬ್ರಹ್ಮ	-10.2362
▁ಕಾಮಂ	-10.2367
▁ತ್ವೇವ	-10.2368
▁ದೇವಪುತ್ತೋ	-10.2374
▁ಸುವಿಞ್ಞೇಯ್ಯಮೇವ	-10.2382
▁ನಿಬ್ಬತ್ತಿತ್ವಾ	-10.2382
▁ಪತ್ತೇ	-10.2386
▁ದೇಸನಾಯ	-10.239
▁ಪಕ್ಖ	-10.24
▁ಪುತ್ತಾ	-10.2401
▁ಸಙ್ಖೇಪತೋ	-10.2402
▁ಜಹ	-10.2402
▁ಅರಹತ್ತ	-10.2406
▁ಸಮ್ಪತ್ತ	-10.241
▁ಛತ್ತ	-10.2411
ಕುಮ್ಭ	-10.2416
▁ವಿತ್ಥಾರ	-10.2417
▁ತಾದಿಸೋ	-10.2418
▁ವುಚ್ಚತೀ	-10.2418
▁ಪೀತ	-10.242
▁ಯಾವತಾ	-10.242
▁ಯಸ	-10.2421
▁ಪರಿನಿಬ್ಬಾನ	-10.2423
▁ಞತ್ತಿ	-10.2425
▁ನಿಕ್ಕ	-10.2425
▁ಕಾತಬ್ಬಾ	-10.2425
ಮಾನಸ್ಸ	-10.2426
▁ನಿಸಿನ್ನಂ	-10.2427
ಘಟ	-10.2427
▁ಪಚ್ಛತೋ	-10.2432
▁ತದಾರಮ್ಮಣ	-10.2432
▁ಪಕ್ಕ	-10.2434
▁ವದೇಸಿ	-10.2437
▁ಯುತ್ತೋ	-10.2437
▁೧೦೩	-10.2438
▁ಪರಿಯತ್ತಿ	-10.2448
ಜಾನನ	-10.2452
ಪ್ಪತ್ತಾ	-10.2452
ಿಸ್ಸಸಿ	-10.2452
▁ತಾದಿಸ	-10.2456
ೋಸಿ	-10.2456
▁ಸೋತ	-10.2457
್	-10.2459
ಮ್ಪ	-10.2461
▁ಆಪತ್ತೀನಂ	-10.2463
▁ವಸಂ	-10.2467
ಕುಸಲಾ	-10.2471
▁ವಿನ	-10.2471
▁ಭಿಕ್ಖುಸಙ್ಘಸ್ಸ	-10.2472
▁ದಸಹಿ	-10.2482
ಸಮಯೋ	-10.2485
ದ್ವಾರೇ	-10.2487
ೇಸ	-10.2487
▁ಸಕ್ಕಚ್ಚಂ	-10.2487
ಣ್ಣ	-10.2488
▁ಆಸವ	-10.2494
ವಣ್ಣಾ	-10.2494
▁ಸುಗತ	-10.2502
▁ನಿವಾಸೇತ್ವಾ	-10.2504
▁ಉಚ್ಚ	-10.2505
ಕರಣೀಯ	-10.2506
▁ಪಿಟ್ಠಿ	-10.251
ದ್ವೇ	-10.2512
▁ನಾಮೇನ	-10.252
ವದ	-10.2522
▁ಯಮ್ಪಿ	-10.2523
▁ಸವನ	-10.2525
▁ತಮಹಂ	-10.2528
▁ಯನ್ತಿ	-10.2528
ಿಯಮಾನೋ	-10.2536
▁ಗನ್ತಬ್ಬಂ	-10.2539
▁ತಿಟ್ಠ	-10.2539
ದಿಸ	-10.2539
▁ವಿಪ್ಪಯುತ್ತೇ	-10.2544
ನಿರೋಧ	-10.2547
ತ್ವ	-10.2549
ಗಾಥಾಯ	-10.2555
▁ನಾಪಿ	-10.2557
▁ದಳ್ಹಂ	-10.2557
▁ಸಂವತ್ತನ್ತಿ	-10.2561
▁ಜಿವ್ಹಾ	-10.2561
▁ಪಾಣಾತಿಪಾತಾ	-10.2562
ಸಮ್ಪಯುತ್ತಾ	-10.2566
ಿಂಸೂತಿ	-10.2566
▁ಸಙ್ಘಾದಿಸೇಸಸ್ಸ	-10.2567
▁ಸುರ	-10.2575
▁ವೂಪಸಮ	-10.2576
ಕರಣೇ	-10.2576
▁ಗಮನಂ	-10.2578
▁ಪಟಿಪಜ್ಜ	-10.258
ಸಮ್ಪನ್ನ	-10.258
▁ಚೇತ	-10.2584
▁ದ್ವೇಪಿ	-10.2587
▁ವತ್ತಮಾನ	-10.2588
▁ತತಿಯಾ	-10.2588
▁ಅವಿದೂರೇ	-10.2592
▁ನದಸ್ಸನೇನ	-10.2594
▁ಪಚ್ಚಕ್ಖ	-10.2597
▁ಭವಾ	-10.2601
▁ಸಹಾಯ	-10.2602
▁ಏತಾ	-10.2605
▁ಓಕಾಸ	-10.2605
ಸಾಸನ	-10.2607
▁ದಿಬ್ಬೇನ	-10.2608
ಯೇನ	-10.2608
▁ಪಚ್ಚಯಾನುಲೋಮಂ	-10.2615
▁ರೋದ	-10.2617
ಇ	-10.2618
▁ದೇವಲೋಕೇ	-10.2621
▁ಅಟ್ಠಕಥಾ	-10.2621
ತಾದಿ	-10.2621
▁ಲಹು	-10.2625
ಟ್ಟ	-10.2627
ಮಙ್ಗಲ	-10.2631
ಸ್ಸಪಿ	-10.2637
▁ಸಾವಕಾನಂ	-10.264
▁ಆರೋಚೇಸಿ	-10.2641
▁ವಿನಾಸ	-10.2642
▁ಪವಿಟ್ಠ	-10.2644
▁೯೬	-10.2649
▁ಕನ್ತ	-10.2649
ಾಲ	-10.265
▁ಅಪ್ಪಮಾದ	-10.2655
▁ಅಪರೇ	-10.2658
▁ಆಗಚ್ಛ	-10.2661
▁ಅಹಮ್ಪಿ	-10.2662
▁ರಕ್ಖತಿ	-10.2665
ುಜ್ಜ	-10.2667
▁ಛನ್ನ	-10.2667
▁ಯಾನ	-10.2683
▁ಪಾರ	-10.2685
▁ವೇದಿತಬ್ಬಾನಿ	-10.2692
ಪಾನ	-10.2694
▁ತಮ್ಹಾ	-10.2694
▁೪೮	-10.2699
ಪಾಕ	-10.2702
▁ಅದ	-10.2709
▁ಪಹಾತಬ್ಬಹೇತುಕಂ	-10.2712
▁ಸಂಸಟ್ಠೋ	-10.2725
▁ದಸ್ಸನಾಯ	-10.2726
▁ಆರಾಮ	-10.2728
▁ನಿರುಜ್ಝಿಸ್ಸತೀತಿ	-10.2731
▁ಅಬ್ಯಾಕತಸ್ಸ	-10.2733
ಾಪದಾನಂ	-10.2735
▁ಥಿರ	-10.2735
▁ಕಚ್ಚಿ	-10.2738
▁ಚಾರಿಕಂ	-10.2742
▁೬೩	-10.2746
ಭತ್ತಂ	-10.2748
▁ಚತುಸಚ್ಚ	-10.2748
▁ಕಙ್ಖಾ	-10.2749
ಹೇತುಕ	-10.275
▁ಸಮ್ಬುದ್ಧೋ	-10.2751
ಮ್ಹೀತಿ	-10.2752
ಕತ್ತಾ	-10.2752
▁ಕಬಳೀಕಾರೋ	-10.2755
▁ಆರದ್ಧಂ	-10.2758
ಜೀವ	-10.2761
▁ನಿರನುಸಯೋ	-10.2761
▁ಪಾತ	-10.2764
ಣಿ	-10.2766
▁ಇಮಮತ್ಥಂ	-10.2778
ಸೀಲಂ	-10.278
▁ಕಟತ್ತಾರೂಪಂ	-10.2789
ನಿಪಾತ	-10.2796
▁ಸದ್ದಹ	-10.2798
▁ಪಚ್ಚಯಚತುಕ್ಕಂ	-10.2802
▁ಪಟಿಪ್ಪಸ್ಸಮ್ಭ	-10.2804
▁ಸಯ	-10.2807
▁ಜರಾಮರಣ	-10.2808
▁ಪರೇಹಿ	-10.2813
ಪಥ	-10.2814
ಙ್ಗಂ	-10.2815
▁ಪಾಕಟ	-10.282
▁ಓಲೋಕೇನ್ತೋ	-10.2822
ಸರೀರ	-10.2823
▁ಲದ್ಧಂ	-10.2825
▁ಸದ್ದಾ	-10.2825
▁ಬಹುಲಂ	-10.2833
▁ವತ್ತಂ	-10.2839
ಸನ್ಧಿ	-10.2845
▁೧೦೨	-10.2846
ಿನ್ದ್ರಿಯ	-10.2851
▁ಮುಸಾವಾದ	-10.2852
ಸ್ಮಿನ್ತಿ	-10.2855
▁ಗೇಹೇ	-10.2862
▁ಸೂಚಿ	-10.2863
▁ಸಾಮಣೇರೋ	-10.2863
ಗಾಮಿ	-10.2865
▁ಪಟಿಗ್ಗಹೇತ್ವಾ	-10.2865
▁ಜಿಗುಚ್ಛ	-10.2866
ಕಾಮಾ	-10.2866
▁ಅಪರೋ	-10.2872
▁ದಸ್ಸೇತುಮಾಹ	-10.2873
▁ಪಾರಾಜಿಕಸ್ಸ	-10.288
▁ನಾಭಿ	-10.2882
▁ಅಮು	-10.2883
▁ಲಾಮಕ	-10.2885
▁೫೧	-10.2886
▁ಕಟ್ಠ	-10.289
▁ಬುಜ್ಝ	-10.2892
ಮಿಚ್ಛ	-10.2893
▁ಪಞ್ಚಮೋ	-10.2898
▁ಮಂಸಂ	-10.29
▁ಕಾಯತೋ	-10.29
ಮಿಗ	-10.2901
ವನೇ	-10.2909
ಕೀ	-10.2911
▁ಪಹೀನ	-10.2913
▁ನೀಹರ	-10.2918
▁೧೧೦	-10.2922
▁ಪಚ್ಛಾಜಾತಪಚ್ಚಯೇನ	-10.2925
▁ಫಲಸ್ಸ	-10.2929
ಸನಿದಸ್ಸನಸಪ್ಪಟಿಘಂ	-10.293
ಸಮಣ	-10.2932
▁ಪುರಾಣ	-10.2937
▁ಪುಬ್ಬಭಾಗ	-10.2941
▁ಚಿರ	-10.2942
ನಿಸ್ಸಿತ	-10.2944
▁ತಿಣ್ಣನ್ನಂ	-10.2944
▁ಸಸ	-10.2944
ಾಪೇಯ್ಯ	-10.2948
ಮಾಲ	-10.2949
▁ಇತರೋ	-10.2954
▁ಸುತನ್ತಿ	-10.2954
▁ಓದಾತ	-10.2955
▁ಜಯ	-10.2956
▁ಥೂಪ	-10.2959
▁ಪಾಣಿ	-10.2964
ಪಞ್ಞೋ	-10.2969
ಿತತ್ತಂ	-10.2969
▁ಪತ್ತಾ	-10.2971
ಾಥ	-10.2972
▁ಸಞ್ಞಂ	-10.2975
▁ಉಪಕಾರ	-10.2975
▁ಕಥಿತೋ	-10.298
▁ಪಾತಿಮೋಕ್ಖ	-10.2982
ಮ್ಹೀ	-10.2983
▁ಅಬ್ಯಾಕತ	-10.2985
▁ಸೋತಾಪನ್ನೋ	-10.2987
▁ವಕ್ಖತಿ	-10.2991
▁ಪರಿಕ್ಖಾರ	-10.2992
▁ಆಹಾರಂ	-10.2996
▁ತಥಾಗತಂ	-10.2997
▁ಚತುರೋ	-10.2997
ರಿಯ	-10.2997
▁ಅಧಿಗತ	-10.3001
▁ವತ್ತಬ್ಬ	-10.3002
▁ಪಿಯಾ	-10.3004
ಯದಿ	-10.3005
▁ವಿಗ್ಗಹೋ	-10.301
▁೧೦೪	-10.301
▁ಇತರೇ	-10.3011
▁ಮೋಗ್ಗಲ್ಲಾನ	-10.3015
▁ನನಹೇತು	-10.3017
▁ವಿಜ್ಝ	-10.3019
▁ದುಗ್ಗತಿ	-10.302
ಪಜ್ಜ	-10.302
▁೯೭	-10.3023
▁ಪಿಣ್ಡಪಾತ	-10.3028
ಮಿತಿ	-10.3029
▁ವಿನಯೋ	-10.303
▁ನಾಹಂ	-10.3035
▁ತಾಲ	-10.3035
▁ವೇಳು	-10.3036
ಕಙ್ಖ	-10.3037
▁ಗೇಹಂ	-10.3037
▁ನಿಸಿನ್ನ	-10.3039
ದಿಸಂ	-10.304
ಗನ್ಥ	-10.3046
▁ಲಬ್ಭನ್ತಿ	-10.3047
▁ಸುದ್ಧಂ	-10.3048
▁ಅಭಿಭುಯ್ಯ	-10.3051
ಭಾರ	-10.3052
▁ಜಾನಾತೀತಿ	-10.3055
▁ಸೇಸೇಸುಪಿ	-10.3057
▁ನಿಸ್ಸಗ್ಗಿಯ	-10.3059
▁ಖೀಣಾಸವೋ	-10.306
▁ಪವುಚ್ಚತಿ	-10.3064
▁ತಮೇನಂ	-10.3064
▁ಸಿಪ್ಪ	-10.3064
ದತ್ತ	-10.3067
ಟ್ಠಿ	-10.3068
▁ಅಧಮ್ಮ	-10.307
▁ದೂರ	-10.3072
▁ಕೂಟ	-10.3073
▁೧೦೧	-10.308
ಸಙ್ಖಾತಸ್ಸ	-10.308
▁ಪಟಿಘ	-10.3081
▁ಆದೀನವಂ	-10.3083
▁ದುಟ್ಠ	-10.3084
▁ಘ	-10.3084
▁ಪನಾಯಂ	-10.3096
▁ಉಳಾರ	-10.3097
▁ಕತ್ತರಿ	-10.3097
▁ವಿಸಿಟ್ಠ	-10.3101
ಸೀಲೋ	-10.3104
ತೇವ	-10.3109
▁ಪನಾತಿ	-10.3112
▁ಕಿತ್ತಿ	-10.3119
▁ಪಿಯೋ	-10.312
▁ಅದುಕ್ಖಮಸುಖಾಯ	-10.3121
ಜಾತಾ	-10.3122
▁ಪುರ	-10.3131
▁ಕರಣೀಯಂ	-10.3133
▁ನಾಮಾ	-10.3133
▁ಸಙ್ಖ	-10.3133
▁ಅನುಸ್ಸರ	-10.3136
▁ಬ್ಯಾಕಾಸಿ	-10.3137
▁ಠಪೇಸಿ	-10.3139
▁ತಿಕ್ಖತ್ತುಂ	-10.3139
▁ವಣ್ಣೇನ	-10.3141
▁ಕಸ	-10.3146
ಕೂಟ	-10.3151
▁ಅದ್ದಸ	-10.3154
▁ಆಸ	-10.3156
▁ಅಹೇತುಕ	-10.3156
▁ಏಕತ್ತ	-10.3159
▁ಮು	-10.3161
▁ಮಹಾವೀರ	-10.3163
▁ಪರಿನಿಬ್ಬನ್ತಾನ	-10.3166
ವೋಹಾರ	-10.3167
▁ನೀಹರಿತ್ವಾ	-10.3173
▁ಬುದ್ಧೇ	-10.3175
▁ಸವಿತಕ್ಕಸವಿಚಾರೋ	-10.3177
▁ಕುಮಾರ	-10.3178
್ಯಾ	-10.3178
▁ಸತ್ಥರಿ	-10.3187
▁ಧುವ	-10.3187
▁ಸಮ್ಬನ್ಧ	-10.3188
▁೧೦೮	-10.3188
▁ಮಾಣವೋ	-10.3188
ಚರಿತ	-10.3188
▁ಮುತ್ತೋ	-10.3197
▁ಉಕ್ಕಟ್ಠ	-10.32
ವನ್ತ	-10.3201
▁ಚಕ್ಖುಮಾ	-10.3202
▁ಕನ್ದ	-10.3202
▁ಜವನ	-10.3203
▁ಲಬ್ಭಮಾನ	-10.3204
ಪೇಕ್ಖ	-10.3208
▁ಪಚ್ಚೇಕಂ	-10.3209
▁ಪಬ್ಬಾಜ	-10.321
▁ಏಕೇನಾಯತನೇನ	-10.321
▁ಅಹೇತುಕಂ	-10.3212
▁ಸಮಾಸ	-10.3214
ಹರಣ	-10.3215
ಭಿನ್ನ	-10.3224
ಸಂಯೋಜನ	-10.3225
▁ವಿಭತ್ತಿ	-10.3226
ಪರಿಭೋಗ	-10.3232
ವಿಭತ್ತಿ	-10.3237
▁ಸೀಮಾ	-10.3241
▁ಅಧಿಕ	-10.3241
▁ಪೇಸ	-10.3244
▁ಉಪೇತಿ	-10.3245
ನಇನ್ದ್ರಿಯೇ	-10.3245
▁ದೇವೇ	-10.3247
▁ಪರಿಹಾಯತಿ	-10.3256
▁ಅರಹನ್ತೋ	-10.3258
▁ವಾರ	-10.3261
▁ಚಮ್ಮ	-10.3262
▁ಅಥೋ	-10.3265
▁ಸಚೇಪಿ	-10.3268
▁ಪಞ್ಚಮ	-10.3274
ಪ್ಪಸಾದ	-10.3276
▁ಸತಿಪಟ್ಠಾನಾ	-10.328
ಸಾಧನ	-10.3281
▁ಚಾಗ	-10.3285
▁ಮಹೇಸಿನೋ	-10.3288
▁ಪಾಸ	-10.3289
▁ನಮಸ್ಸ	-10.3293
▁ದೇಸೇ	-10.3294
▁೧೦೭	-10.3302
▁ಸುಖೇನ	-10.3303
ಲಮ್ಬ	-10.3304
▁೬೨	-10.3306
▁ಕುಮ್ಭ	-10.3306
▁ಮಚ್ಚು	-10.331
▁ಓಲೋಕೇತ್ವಾ	-10.3313
▁ಯಾವಜೀವಂ	-10.3317
ವತ್ಥುಸ್ಮಿಂ	-10.332
ಬೋಧಿ	-10.332
ಯದಾ	-10.3321
ಮದ	-10.3323
ಇತೋ	-10.3324
▁ಜಾನಂ	-10.3326
▁ವಿಮೋಕ್ಖ	-10.3327
▁ಪಸನ್ನೋ	-10.3331
ಪಟಿವೇಧ	-10.3332
▁ತಸ್ಮಿಂಯೇವ	-10.3334
ಮಿಸ್ಸಕ	-10.3335
▁ದ್ವತ್ತಿಂಸ	-10.3336
▁ಕೇವಲ	-10.3339
▁ಅನುಪುಬ್ಬ	-10.3339
▁ಸತ್ತಾಹ	-10.334
▁ಚಾಯಂ	-10.3346
▁ವಿಞ್ಞಾತ	-10.3348
ವಿಪಸ್ಸನಾ	-10.3353
▁೧೧೮	-10.3357
▁ಲೋಕಾ	-10.3358
▁೧೧೬	-10.336
▁೧೧೫	-10.336
▁ಇನ್ದ್ರಿಯಾನಂ	-10.3362
ವಾರವಣ್ಣನಾ	-10.3364
▁ನಅಧಿಪತಿಪಚ್ಚಯಾ	-10.3365
▁ನಿಕ್ಖನ್ತ	-10.3366
▁೧೧೨	-10.3367
▁ದಸವಿಧ	-10.3368
▁ಯದ	-10.3368
▁ಸುಖಸ್ಸ	-10.3372
▁ಯಕ್ಖೋ	-10.3373
▁ಕ್ರಿಯಾ	-10.3375
▁ಆದೀನವೋ	-10.3376
▁ಗೋತಮಸ್ಸ	-10.3381
ನಿರೋಧೋ	-10.3382
▁ಉದ್ಧರ	-10.3383
▁ಸದ್ಧ	-10.3386
▁ಧಮ್ಮದೇಸನಾ	-10.3387
▁ಭಿನ್ದ	-10.3389
▁ಪರಿಸುದ್ಧ	-10.3391
▁ಧಮ್ಮವಿನಯೇ	-10.3392
▁ವಿಞ್ಞತ್ತಿ	-10.3392
▁ಚಿತ್ತಞ್ಚ	-10.3392
ರೋಗ	-10.3396
ಕತೋ	-10.3399
▁ಸಮುಟ್ಠಾನ	-10.3399
ನೀಲ	-10.3401
▁ಪಟ	-10.3401
▁ಗೋತ್ರಭು	-10.3403
▁ಹರಿತ	-10.3404
▁ಕುಮಾರೋ	-10.3406
▁ಅನಿ	-10.3407
▁ನಿಯತ	-10.3408
ನಗರ	-10.3409
▁ನಿರುತ್ತಿ	-10.3411
ಕಾತಿ	-10.3413
▁ಅಟ್ಠಮೇ	-10.3415
ದಯೋ	-10.3415
▁ಕಥೇತ್ವಾ	-10.3416
ಪೂರ	-10.3422
ಸಭಾವೋ	-10.3422
▁ಕಾಮರಾಗಾನುಸಯೇನ	-10.3427
ಪಾಲ	-10.3429
▁ಅಸುಕ	-10.343
▁ಕತ್ವಾನ	-10.343
ಕಾರಕ	-10.3432
▁ವಿಜಾನ	-10.3434
▁ಆರೋಪೇತ್ವಾ	-10.3436
▁ಸುಗತಿಂ	-10.3439
▁ಓಘ	-10.344
ತಥಾ	-10.344
▁ಲದ್ಧಿ	-10.3441
▁ವಿಚಾರೋ	-10.3446
ಮಿಸ್ಸ	-10.3446
▁ನೀವರಣ	-10.3446
▁ನಆರಮ್ಮಣಪಚ್ಚಯಾ	-10.3453
ಠ	-10.3454
▁ಸಬ್ಬದಾ	-10.3456
ವಸಾನೇ	-10.3459
▁ಕಾಯಾಯತನಂ	-10.346
▁ಬಾಲಾ	-10.3465
▁ಭಾವಿತ	-10.3467
▁ಉಪಾಸಕ	-10.3473
▁ಫಾಸು	-10.3475
▁ಅಸ್ಸಾ	-10.3476
▁ದುವಿಧ	-10.3485
ನಾದಿ	-10.3487
ವಾದೋ	-10.3488
▁ವಿಗತೇ	-10.3489
▁ಸಮಯೋ	-10.349
ಪಠಮ	-10.3497
▁ಚಕ್ಖುನ್ದ್ರಿಯಞ್ಚ	-10.3497
ಕಣ್ಣ	-10.3498
▁ಸುಮನೋ	-10.3502
▁೧೦೬	-10.3502
▁ಥೋಕಂ	-10.3503
▁ಅಭಿಧಮ್ಮ	-10.3505
ಪಹಾನ	-10.3511
ಪಟ್ಟ	-10.3518
▁ಪವತ್ತಿಂ	-10.3519
ಏವಮೇವ	-10.3525
▁ನೋಉಪಾದಾ	-10.3526
▁ಆಹಾರಪಚ್ಚಯೇನ	-10.3526
ಕಾಲಂ	-10.3527
ತಲ	-10.353
▁ಪುರೇಜಾತೇ	-10.3532
▁ಭದ್ದ	-10.3535
▁ಸರೇ	-10.3537
▁ತಿಕಂ	-10.3542
▁ಸಮನ್ನಾಗತಸ್ಸ	-10.3543
ಪರಿವಾರ	-10.3544
▁ಘನ	-10.3546
▁ಉಭೋಪಿ	-10.355
▁ಹಾರೋ	-10.3551
▁ತನು	-10.3552
▁ಸಕಿಂ	-10.3556
▁ಪಠಮಾ	-10.3557
▁ಉದ್ಧಚ್ಚ	-10.3562
▁ನಿಸಿನ್ನಾ	-10.3563
▁ಬಾರಾಣಸಿಯಂ	-10.3567
▁ಸಮಥವಿಪಸ್ಸನಾ	-10.3576
▁ಅವುತ್ತ	-10.3577
ತ್ತಿಕಂ	-10.3581
▁ನಅಬ್ಯಾಕತ	-10.3582
▁ಆಗಮನ	-10.3583
ಿತಬ್ಬನ್ತಿ	-10.3585
▁೯೯	-10.3586
ಸಾಮಿ	-10.3586
▁ಬ	-10.3589
▁ಆಗಚ್ಛನ್ತಿ	-10.3591
▁ಮಾನಸಂ	-10.3592
ತ್ತಯಂ	-10.3593
▁ವಸತಿ	-10.3593
ಪಿಣ್ಡ	-10.3594
▁ನಿವಾಸ	-10.3598
▁ಅನತ್ತತೋ	-10.3602
▁ವಿಭಜ	-10.3603
▁ಮಾಸೇ	-10.3605
▁ತರುಣ	-10.3605
▁ಪಕತಿಯಾ	-10.3606
ಪದೇ	-10.3608
ಕಾಮೋ	-10.361
▁ಹದಯಂ	-10.3612
ಬಹುಲೋ	-10.3614
▁ಕಿಮ	-10.3616
▁ಪಞ್ಚಹಙ್ಗೇಹಿ	-10.3616
▁ಅಞ್ಜಲಿಂ	-10.3621
▁ವುಟ್ಠಾಯ	-10.3623
▁ವಿಪುಲ	-10.3625
▁ಪಬ್ಬಜ್ಜಂ	-10.3629
▁ವಿರಾಗ	-10.3632
▁ಅಯಮತ್ಥೋ	-10.3641
ತರಾ	-10.3642
▁ಜೇಟ್ಠ	-10.3649
▁ಸಿಯುಂ	-10.3651
▁ಸಙ್ಖಾರಾನಂ	-10.3651
▁ಪಸ್ಸಿತ್ವಾ	-10.3652
ಯಾಮ	-10.3656
▁ಕಾಮರಾಗ	-10.3658
▁ಉಗ್ಗಣ್ಹ	-10.366
▁ಪತ್ಥಯ	-10.3662
ಸಮ್ಬೋಜ್ಝಙ್ಗೋ	-10.3662
▁ವಿಮೋಕ್ಖೋ	-10.3665
▁ವುತ್ತೋತಿ	-10.3667
▁ಅಗ್ಗೋ	-10.3669
▁ಕಿಮತ್ಥಂ	-10.3672
▁ನಚ್ಚ	-10.3674
ಸಿದ್ಧ	-10.3678
▁ಪುಥುಜ್ಜನ	-10.3681
ವೇದ	-10.3682
▁ಸಂಖಿತ್ತೇನ	-10.3684
▁ಸಙ್ಖ್ಯಾವಾರೋ	-10.3689
▁ಪಟಿಚ್ಛನ್ನ	-10.3689
▁ವಚೀಕಮ್ಮಂ	-10.369
ಬ್ರಾಹ್ಮಣ	-10.369
▁ಅರಿಯಂ	-10.369
▁ಅಞ್ಞತರಸ್ಮಿಂ	-10.3692
▁ಫರಿತ್ವಾ	-10.3694
▁ಚುತೋ	-10.3696
ಖನ್ಧ	-10.3697
▁ಛಟ್ಠೇ	-10.3707
▁ಗುಣೇ	-10.371
ಪಞ್ಞ	-10.3712
▁ಇತರಸ್ಸ	-10.3715
ನ್ತರಂ	-10.3715
ಿತುನ್ತಿ	-10.3716
▁ದ್ವಾರಂ	-10.3722
▁ಉಪ್ಪಾದೋ	-10.3724
▁ಏತ	-10.3725
▁ಅನುಪುಬ್ಬೇನ	-10.3726
▁ಸಾವಕೋ	-10.3726
▁ಮಾತಿಕಾ	-10.3729
ಪಾತ	-10.3729
▁ವಾಚ	-10.3729
▁೧೧೧	-10.3733
▁ನಿಗ್ಗಹ	-10.3734
▁ಸಿಬ್ಬ	-10.3734
▁ಸಮುದಯ	-10.3738
▁ಉಪಾದಾ	-10.3739
▁ಅನ್ತರಘರೇ	-10.374
▁ಚುನ್ದ	-10.374
ಯಿಂಸು	-10.3754
▁ಮತಂ	-10.3757
ಭೂತೇನ	-10.3758
ಪಞ್ಞಾಸ	-10.3758
▁ಗವೇಸ	-10.3759
▁ಚೇಪಿ	-10.3764
▁ಸಮ್ಮೋಹ	-10.3766
▁ಪಪಞ್ಚ	-10.3769
ಪಟಿಲಾಭ	-10.3772
▁ದಸ್ಸಿತಂ	-10.3772
▁೧೦೫	-10.3776
ತ್ತೇನ	-10.3776
ಸರಣ	-10.378
▁ಆಹಂಸು	-10.3782
▁ಅವಿತಕ್ಕಅವಿಚಾರ	-10.3785
▁ಜೋತಿ	-10.3785
▁ಅಸಙ್ಖತ	-10.3787
ಗ್ಗಂ	-10.3788
▁ವುತ್ತಪ್ಪಕಾರ	-10.3789
ವಾಹ	-10.3796
▁ಸಿರಿ	-10.3801
▁ಚತ್ತಾಲೀಸ	-10.3805
ರಾಗೋ	-10.3806
▁ಛೇತ್ವಾ	-10.3807
▁ಆಸೇವನಪಚ್ಚಯ	-10.3809
▁ಮಯಿ	-10.381
▁ಅನುಸಯ	-10.3812
▁ಅಕುಸಲಸ್ಸ	-10.3812
ರಣ	-10.3813
▁ಸಮಗ್ಗ	-10.3814
▁ಕಾಮಾವಚರಂ	-10.3817
▁ಅನಞ್ಞಾತಞ್ಞ	-10.3817
▁ಉಟ್ಠಾಯಾಸನಾ	-10.3817
▁ದಸಮೇ	-10.3818
▁ಅಧಿಪ್ಪೇತಂ	-10.3819
▁ಧೋವ	-10.382
▁ಇತ್ಥಿಲಿಙ್ಗ	-10.382
▁ಉಪಪತ್ತಿ	-10.3821
▁ರೂಪಾ	-10.3821
▁ಫೋಟ್ಠಬ್ಬ	-10.3824
▁೧೧೩	-10.3825
▁ಗತೇ	-10.3827
ಮನಾ	-10.3831
▁ಲೋಕಿಯಲೋಕುತ್ತರ	-10.3832
▁ನಾಮರೂಪಂ	-10.3836
▁ಪಟಿಕ್ಕಮ	-10.3838
ಯಞ್ಚ	-10.3838
ಕಟ್ಠ	-10.3844
▁ಕಥೇನ್ತೋ	-10.385
▁ಇತ್ಥೀನಂ	-10.3851
▁ಪಟಿಭಾನ	-10.3851
▁ಚತುಕ್ಕ	-10.3852
▁ಮಗ್ಗಾಧಿಪತಿ	-10.3852
▁ಪದೇಹಿ	-10.3854
▁ಬ್ಯಾಧಿ	-10.3855
▁ಹಂಸ	-10.3855
▁೧೧೭	-10.3856
▁ವಿಸ್ಸಜ್ಜ	-10.3856
ಸ್ಸಾದ	-10.3857
▁೧೧೪	-10.3857
ಮಿತ್ತ	-10.3858
▁ಪಿತರಂ	-10.3863
▁ಮಾತರಂ	-10.3863
▁ನಿಸ್ಸರಣ	-10.3867
▁ಉಪಟ್ಠಾನ	-10.3868
ಮೋಹ	-10.3874
▁ಸುಕ್ಖ	-10.3887
▁ಖನ್ತಿ	-10.3889
▁ವಿವಿಧ	-10.3892
ಸದ್ದಂ	-10.3893
ಯುಂ	-10.3898
▁ಖರ	-10.3907
ಾರಮ್ಮಣಾ	-10.3907
▁ಭವರಾಗಾನುಸಯೋ	-10.391
▁ಪಞ್ಞವಾ	-10.3912
ದೀಘ	-10.3913
▁ವಿಸೇಸನ	-10.3913
ದುತಿಯ	-10.3919
▁ನಿನ್ನ	-10.3922
▁ಲೋಕುತ್ತರಂ	-10.3922
▁ಪತ್ತಕಲ್ಲಂ	-10.3922
ಭಾವಾ	-10.3926
▁ಹೋಮಿ	-10.3927
▁ಪಕಾರೇನ	-10.3929
▁ಗಾಥಾಹಿ	-10.3929
ಮುತ್ತಮಂ	-10.3932
ಗಮನಂ	-10.3935
▁ಓವದ	-10.3935
▁ಅನುಕ್ಕಮೇನ	-10.3939
ಿಸ್ಸಾಮೀತಿ	-10.394
▁ಸೀಲೇನ	-10.3942
▁ಮೇಧಾವೀ	-10.3949
ಧನಂ	-10.3952
ಪಞ್ಞಾಯ	-10.3953
▁ವಙ್ಕ	-10.3955
▁ಪತಿಟ್ಠಾಯ	-10.3962
▁ವಸನ್ತಿ	-10.3962
ಏತ	-10.3967
▁ಚುತಿ	-10.3968
ಚೋರ	-10.3968
▁ಪಚ್ಛಾಜಾತಂ	-10.397
▁ವಾರೇ	-10.3971
ನಿಬ್ಬಾನ	-10.3972
▁ಸಾವ	-10.3974
▁ಮಾನಾನುಸಯಞ್ಚ	-10.3975
▁ಞಾಯ	-10.3975
▁ಬಹುವಚನ	-10.3977
▁ಪುಗ್ಗಲೇ	-10.398
▁ಆಪೋಧಾತು	-10.3989
▁ಹೇ	-10.3989
▁ಭೂ	-10.399
▁ಉಪ್ಪಲ	-10.3991
▁ಹಿರೀ	-10.3991
▁ದಿಸ್ಸನ್ತಿ	-10.3994
ಯೀ	-10.3997
▁ಥೂಲ	-10.4003
▁ಖಿಪ	-10.4006
▁ಅಲಙ್ಕಾರ	-10.4012
▁ವಿಹರತೋ	-10.4012
▁ಸೂರಿಯ	-10.4013
▁ಸಙ್ಗ	-10.4015
▁ಅನ್ತೇ	-10.4022
▁ಸತಸಹಸ್ಸ	-10.4023
ಭವೇ	-10.4025
ನ್ಧ	-10.4028
▁ಆಯಸ್ಮತಾ	-10.4028
▁ಅಗ್ಗಿಂ	-10.403
▁ಲಗ್ಗ	-10.4032
ಯೇವಾ	-10.4032
▁ಪೇತ	-10.4033
▁ವೇರಮಣೀ	-10.4038
▁ಕೋಧೋ	-10.404
▁ಅಚ್ಚಯೇನ	-10.4045
▁೬೪	-10.4046
▁ಇತರಾ	-10.4047
▁ದುಕ್ಕಟಸ್ಸಾ	-10.405
▁ಠಿತೇ	-10.4054
ವಾದಾ	-10.4054
▁ಇದಾನೇವ	-10.4056
▁ಕಲ	-10.4059
▁ಲಭನ್ತಿ	-10.4062
▁ಪಟಿಪದಂ	-10.4064
▁ಗಹೇತ್ವಾನ	-10.4064
▁ಚಕ್ಖಾಯತನಞ್ಚ	-10.4066
ಾದೋ	-10.4069
▁ಭಾಸೇಯ್ಯ	-10.4079
▁ಗನ್ಧೋ	-10.4084
▁ಮಾನತ್ತಂ	-10.4087
▁ಮಲ	-10.4087
▁ಗಾಮೋ	-10.409
▁ಪರಞ್ಚ	-10.4095
▁ಪಟಿಕ್ಖಿಪತಿ	-10.4105
ಸಮ್ಭಾರ	-10.4107
ಧಾತುಯಾ	-10.4107
▁ಪವತ್ತೋ	-10.4108
▁ಸಬ್ಬೇವ	-10.4109
▁ಅಭಿಞ್ಞೇಯ್ಯಂ	-10.4109
▁ಪಗ್ಗಯ್ಹ	-10.411
▁ಸಾಮಣೇರ	-10.4111
▁ಗಣ್ಹನ್ತಿ	-10.4113
▁ಸಪ್ಪುರಿಸ	-10.4116
ಾನನ್ದ	-10.412
▁ಸಯನ	-10.4121
ವಿಭಙ್ಗ	-10.4125
▁ದಾ	-10.4126
ಮಭಿ	-10.4128
▁ನಿಸೀದತಿ	-10.4129
▁ಸಮ್ಬುದ್ಧಂ	-10.413
ಫಸ್ಸ	-10.4134
ರಸಾ	-10.4134
▁ಉಪ್ಪನ್ನೇ	-10.4135
▁ಕಿಞ್ಚ	-10.414
▁ಥುಲ್ಲಚ್ಚಯ	-10.4141
ಲು	-10.4142
ವಿಸಯೇ	-10.4144
ಾನುಭಾವೇನ	-10.4147
ತತ್ರ	-10.415
ವತ್ತಂ	-10.415
ಧಮ್ಮೇಸು	-10.4155
ಮಾನಸೋ	-10.4158
ಯಮಕ	-10.4159
▁ಜನಪದ	-10.416
▁ಜಾನನ್ತೋ	-10.4161
▁ಪರಿಚ್ಛೇದ	-10.4162
▁ಸೀಹೋ	-10.4162
▁೧೧೯	-10.4165
▁ಪದೇ	-10.4165
ೇನ್ತಸ್ಸ	-10.4171
▁ಪಚ್ಚವೇಕ್ಖತಿ	-10.4184
▁ಪಿಣ್ಡಪಾತಂ	-10.4185
▁ತಸ್ಸಾತಿ	-10.4185
–-	-10.4185
▁ನೇವಸೇಕ್ಖನಾಸೇಕ್ಖ	-10.4189
▁ಉಪಸಙ್ಕಮ	-10.419
▁ಏಹಿ	-10.419
▁ಸುಗತಿ	-10.4191
▁ಪಟಿಞ್ಞಾ	-10.4193
▁ಬೋಧ	-10.4195
▁ನುಪ್ಪಜ್ಜಿತ್ಥ	-10.4196
▁ಪಜಾ	-10.4199
▁ಉಪಸಮ್ಪದಾ	-10.42
▁ಪಚ್ಛಾಜಾತಾ	-10.4202
▁ಸಮಾದಪೇತಿ	-10.4203
▁ಚೇತಸಿಕಂ	-10.4204
▁ಇತರಂ	-10.4204
▁ಪಚ್ಚುಪ್ಪನ್ನಂ	-10.4205
▁ಪದಕ್ಖಿಣಂ	-10.4205
▁ಗೂಥ	-10.4205
▁ದೇವೇಸು	-10.4207
▁ಭೂಮೀಸು	-10.4212
▁ಸೋಮನಸ್ಸಂ	-10.4213
ಕುಮಾರ	-10.4215
ಸಙ್ಕ	-10.4216
ಆದೀನಿ	-10.4217
▁ಉಪ್ಪನ್ನಸ್ಸ	-10.422
ದಿಸಾ	-10.422
▁ಧಮ್ಮಞ್ಚ	-10.4221
ಮೇಕ	-10.4224
▁ರಟ್ಠ	-10.4224
▁ಅವಯವ	-10.4226
▁ಪರಿಜಾನಾತೀತಿ	-10.4228
ನಿರೋಧಾ	-10.4233
▁ಕಟತ್ತಾ	-10.4237
▁ಮನಾಪ	-10.4238
▁ತಪ್ಪ	-10.4238
▁ಬ್ಯಾಪಾದ	-10.424
▁ಸಸ್ಸತ	-10.4247
▁ಗಹ	-10.4248
▁ಉಪಪಜ್ಜಿತ್ವಾ	-10.4249
▁ಕಮ್ಪ	-10.425
ೂಪಮಾ	-10.425
▁ವೇದಯಿತಂ	-10.4251
▁ವುತ್ತಮೇವ	-10.4252
▁ಅಸೇಕ್ಖ	-10.4253
▁ಉದ್ಧಚ್ಚಂ	-10.4253
▁ತಾಸು	-10.4253
▁ಯ್ವಾಯಂ	-10.4255
ಬುದ್ಧೋ	-10.4258
ಮಾಲಾ	-10.4259
▁ತಿವಿಧಂ	-10.4262
ಪಕ್ಖೇ	-10.4262
▁ಅನೋ	-10.4262
ಮನಸಿಕಾರ	-10.4266
▁ಪುತ್ತೇ	-10.4268
▁ಪಾಕ	-10.4269
ೋದಕ	-10.4269
▁ಮಯ	-10.427
▁ಪಸ್ಸನ್ತಿ	-10.427
▁ಪಾಕಟಾ	-10.4272
ಕರಣೇನ	-10.4274
ಮತ್ತೋ	-10.428
▁ಪಕ್ಕಮತಿ	-10.4282
▁ತೇಸಂಯೇವ	-10.4285
▁ಅನವಸೇಸ	-10.4285
ಭಙ್ಗ	-10.4285
▁ಝ	-10.4287
▁ಮೇತ್ತಾಯ	-10.4288
▁ದೇಹಿ	-10.429
▁ಓವಾದಂ	-10.4292
▁ಸಮೇತಿ	-10.4293
ಸಹಗತ	-10.4295
▁ಸತ್ತಮ	-10.4295
▁ಇದ್ಧಿಯಾ	-10.4297
▁ಸಬ್ಬಸ್ಸ	-10.4297
▁ಯಾಗು	-10.4299
▁ಅಪನೇತ್ವಾ	-10.4301
▁ವಾಚತೋ	-10.4301
ಸಙ್ಗಹೋ	-10.4303
ನಗರಂ	-10.4305
ಅಟ್ಠಕಥಾಯ	-10.4309
ೇಸ್ಸಾಮಿ	-10.4314
▁ಸಬ್ಬಾಪಿ	-10.4315
▁ಹಾರ	-10.4319
▁ಪಹಾನಾ	-10.432
▁ಉಪಾಯ	-10.4323
▁ಪೀತಿಯಾ	-10.4324
ಸುಂ	-10.4325
▁ಪಬ್ಬಜಿತಾ	-10.433
ತ್ಥಸ್ಸ	-10.4331
▁ನಿಸೀದಿಂಸು	-10.4332
▁ಮೋದ	-10.4334
▁ಅಭಯ	-10.4334
ಗಾಮೇ	-10.4335
▁ವಹ	-10.4339
ಿಸ್ಸಾಮ	-10.4341
▁ಖಯಾ	-10.4341
▁ದಿಸಾಯ	-10.4341
ಿತಾನಿ	-10.4342
▁ನಾನಪ್ಪಕಾರ	-10.4343
▁ಆವಾಸೇ	-10.4349
ಆವುಸೋ	-10.435
ಪ್ಪಮಾಣಂ	-10.4352
▁ಬ್ರೂಮಿ	-10.4353
▁ಮಾನಂ	-10.4356
ಕ್ಖತ್ತುಂ	-10.4357
▁ಭಾವೇತಬ್ಬಾ	-10.4358
▁ಅಸೀತಿ	-10.4361
▁ಪತಿಟ್ಠಿತ	-10.4362
▁ಉದ್ಧ	-10.4366
ಸಙ್ಗ	-10.4367
▁ಪಟಿಗ್ಗಣ್ಹ	-10.4368
▁ಸದ್ದೇ	-10.4374
▁ಉಪಜ್ಝಾಯ	-10.4376
ಗಮ್ಭೀರ	-10.4376
ಣೋ	-10.4377
▁ಅಭಾವೇನ	-10.4377
▁ಮುಚ್ಚತಿ	-10.4378
▁ಚನ್ದನ	-10.4382
▁ಪಾನ	-10.4385
▁ಗಙ್ಗಾ	-10.4387
ಸೇನ	-10.4387
ಚರಣ	-10.4391
▁ಕಮ	-10.4394
ನಾನತ್ತ	-10.4398
▁ಸಙ್ಕ	-10.4401
▁ವಿಹರೇಯ್ಯ	-10.4406
▁ಝಾಯೀ	-10.4407
▁ಕಿನ್ತಿ	-10.441
▁ದೇಸಿತಂ	-10.4413
ಪಾಸ	-10.4417
▁ಸಙ್ಗಹಂ	-10.4419
▁ತಾಪಸ	-10.442
▁ಪಞ್ಹಾ	-10.442
▁ಆಸನಂ	-10.442
▁ಅಮ್ಹೇ	-10.4421
▁ಮದ	-10.4428
▁ಆವಜ್ಜ	-10.4429
▁ವಿಞ್ಞಾಣಸ್ಸ	-10.4432
ಸುಪಿ	-10.4433
▁ಪುರಿಮನಯೇನೇವ	-10.4436
▁ದದ	-10.4438
▁ಪಾಪುಣ	-10.4439
▁ನವಮೇ	-10.4439
ವಿಭಾಗ	-10.4443
▁ಓಳಾರಿಕ	-10.4443
ವಿತಕ್ಕವಿಚಾರಮತ್ತೋ	-10.4444
▁ವಿಚಿಕಿಚ್ಛಾಸಹಗತ	-10.4447
ಲಾಭ	-10.445
ಿನಿ	-10.4459
ಞ್ಞಾ	-10.446
▁ಅನನ್ತರೂಪನಿಸ್ಸಯೋ	-10.4464
▁ಉಪ್ಪಾದಾಯ	-10.4469
ಸನ್ನಿಸ್ಸಿತ	-10.4474
▁ವಿಸುದ್ಧಿಮಗ್ಗೇ	-10.4475
ಟ್ಠೇ	-10.4475
▁ಬ್ಯಾ	-10.4477
▁ಅಪ್ಪಮತ್ತೋ	-10.448
ಾಪೀತಿ	-10.4482
▁ಅಯಮ	-10.4483
▁ಅನಞ್ಞ	-10.4483
▁ಪತ	-10.4487
ಚೀ	-10.4489
▁ಸುತ್ವಾನ	-10.449
▁ಚಿತ್ತತೋ	-10.4493
▁ಅಟ್ಠಹಿ	-10.4493
▁ಚರಣ	-10.4496
ತಾಯಾತಿ	-10.4497
▁ಸಮ್ಪತ್ತಿ	-10.45
▁ಸಹಧಮ್ಮಿಕ	-10.4501
▁ಪಟಿಚ್ಚಸಮುಪ್ಪಾದ	-10.4502
▁ಕೋಸಿಯ	-10.4503
▁ದಕ್ಖಿಣಾ	-10.4506
▁ಆಸವವಿಪ್ಪಯುತ್ತ	-10.4507
▁ಸೇಸೋ	-10.4507
▁ಬಹೂನಿ	-10.4507
ದಾಯಕ	-10.4508
▁ದೇವಮನುಸ್ಸಾನಂ	-10.4513
▁ದಹರ	-10.4515
ಪ್ಪಭೇದ	-10.4516
▁ಆನ	-10.4516
▁ಅನಾಗಾಮೀ	-10.452
▁ಉಪನಿಸ್ಸಯ	-10.4521
ಥಾತಿ	-10.4521
ಯಿತ್ವಾನ	-10.4521
ಬಲೇನ	-10.4523
ಧುರ	-10.4526
▁೧೨೦	-10.4526
▁ನಿಪಾತ	-10.4529
ಞ್ಞಾತಾವಿನ್ದ್ರಿಯಂ	-10.4531
▁ಅರಹತ್ತಮಗ್ಗ	-10.4532
ರತಿ	-10.4535
▁ವೀರ	-10.4539
▁ಥಮ್ಭ	-10.4547
ಪರಿಯಾಪನ್ನ	-10.4548
▁ವಸಿತ್ವಾ	-10.4548
▁ಇಮ	-10.4549
ಮೇತ್ಥ	-10.4549
▁ವದನ್ತೋ	-10.455
▁ಮಹಾಮುನಿ	-10.4553
▁ಆವಾಸಿಕಾ	-10.4553
▁ಖೀಣಾಸವಸ್ಸ	-10.4557
▁ಭಿಕ್ಖುನಿಂ	-10.4557
ಕ್ಖರ	-10.4558
▁ಅನುರೂಪ	-10.456
ಸಿಕ್ಖ	-10.4563
ಕಾಸಿ	-10.4563
▁ಸಾನುಸಯೋ	-10.4565
▁ಪೇಕ್ಖ	-10.457
ಿತನ್ತಿ	-10.4574
ವಿಹಾರೇ	-10.4579
▁ಸಮ್ಮಾಸತಿ	-10.4581
ಮತ್ತನೋ	-10.4582
ಸಮೂಹ	-10.4588
▁ಪತ್ಥ	-10.4589
▁ವುದ್ಧ	-10.4593
▁ನಿಗ್ರೋಧ	-10.4598
▁ಗಣ್ಹಿ	-10.4605
ಭೂತಸ್ಸ	-10.4606
▁ತುಮ್ಹೇಹಿ	-10.4609
▁ಆಸಿಂ	-10.4609
ಮುಖಂ	-10.4613
▁ಅಭಬ್ಬೋ	-10.4614
▁ಪರಕ್ಕಮ	-10.4614
▁ಚಿತ್ತಸಂಸಟ್ಠ	-10.4616
ಮುತ್ತೋ	-10.4617
ಪಟಿಪಕ್ಖ	-10.4619
▁ಆರಬ್ಭಾತಿ	-10.4621
ಅಪ್ಪ	-10.4621
▁ದುಕ್ಖೇ	-10.4624
▁ಸ್ವೇವ	-10.4627
▁ಭಾರ	-10.4627
▁ವನಂ	-10.463
ಸಾಲ	-10.463
ಅಞ್ಞಮಞ್ಞ	-10.4631
▁ಪಟಿವೇಧ	-10.4635
ಮತ	-10.4636
▁ಸಮಯ	-10.4637
ಸಮ್ಮಾಸಮ್ಬುದ್ಧಸ್ಸ	-10.4637
▁ಉಟ್ಠಾಯ	-10.4639
▁ಮಕ್ಖ	-10.4642
ಬಹು	-10.4643
▁ಮನೋಧಾತು	-10.4644
ಕತಮೇ	-10.4646
▁ಅಭಿನನ್ದ	-10.4648
▁ಏತೇನೇವ	-10.4651
▁ಚನ್ದೋ	-10.4653
▁ಕಟ	-10.4656
ಕಲಾಪ	-10.4658
▁ಭೋಗೇ	-10.4662
▁ಉಕ್ಖಿಪ	-10.4662
▁ಪಾಪಕಮ್ಮಂ	-10.4662
▁ವಿಸೇಸೇನ	-10.4663
▁ಸತ್ಥಾರಾ	-10.4666
▁ನಅಕುಸಲೋ	-10.4668
ಯುತ್ತಂ	-10.4669
ಕರಾ	-10.4676
▁ಅಪ್ಪಹೀನೋ	-10.4679
▁ಪಞ್ಞ	-10.468
▁ಪಸ್ಸದ್ಧಿ	-10.4681
ಭು	-10.4685
▁ದಿವಸಂ	-10.4685
▁ಅಪರೇನ	-10.4686
▁ಥುಲ್ಲಚ್ಚಯಂ	-10.4687
▁ಅತ್ತಮನೋ	-10.4691
೧೧	-10.4692
▁ಅರ	-10.4694
ಸಾಯ	-10.4696
ಾಧಿಗಮ	-10.4697
▁ಅತ್ಥೀ	-10.4699
ರಜ್ಜ	-10.4699
▁ಮಲ್ಲ	-10.4703
▁ಉಪಾಸಿಕಾ	-10.4706
▁ಪಟಿಪಾಟಿಯಾ	-10.4706
ಸನ	-10.4706
▁ಕಮ್ಮಾನಂ	-10.4717
▁ಪಿಯಂ	-10.4719
▁ಸಮ್ಪನ್ನ	-10.4719
▁ಮಹತೋ	-10.472
▁ಓಲೋಕ	-10.472
ಕಾರಾ	-10.4724
▁ತಿರಿಯಂ	-10.4724
ಚುಣ್ಣ	-10.4727
▁ಪದಟ್ಠಾನಂ	-10.473
▁ಸೋಹಂ	-10.4734
ವಿಧಾನ	-10.4736
▁ರಹ	-10.4736
▁ಸಮತ್ಥೋ	-10.4739
▁ಮನಸಿಕಾರೋ	-10.474
ಲಭ	-10.4741
▁೧೦೯	-10.4744
ವಾಸಿ	-10.4747
▁ಅಭಿವ	-10.4748
ೋಪಮ	-10.475
ಧರಾ	-10.4753
ಜ್ಝಾಸಯ	-10.4754
▁ಪತ್ತಿಯಾ	-10.4755
▁ಸದ್ಧಂ	-10.4756
▁ಜಾಯನ್ತಿ	-10.4761
▁ವುಟ್ಠಾನ	-10.4762
▁ಗೋಚರ	-10.4762
▁ಪಞ್ಹೋ	-10.4763
▁ದುಕ್ಖನ್ತಿ	-10.4764
▁ಪದೇಸೇ	-10.477
ಪಾದಕ	-10.4771
▁ಕಾಮಾವಚರಾ	-10.4772
▁ಉಪ್ಪಜ್ಜೇಯ್ಯ	-10.4777
ದೇವತಾ	-10.4779
▁ದೋಮನಸ್ಸಿನ್ದ್ರಿಯ	-10.4781
▁ಸುತ್ತನ್ತ	-10.4783
▁ಮತ್ತ	-10.4783
▁ಕಾರ	-10.4784
▁ಸೇಯ್ಯ	-10.4789
▁ಸುಖದುಕ್ಖ	-10.4791
ವಸ್ಸಂ	-10.4791
ಚ್ಛೇದ	-10.4792
ಚಮ್ಮ	-10.4794
ವಿಕಪ್ಪ	-10.4801
▁ಅನುಭವ	-10.4804
▁ಪಟಿಲಭಿಸ್ಸನ್ತಿ	-10.4804
▁ಚತುಬ್ಬಿಧಂ	-10.4805
ವಾತ	-10.4808
ಸೇವನ	-10.4809
▁ಚಕ್ಕವಾಳ	-10.481
▁ಪಾಪಕಂ	-10.481
▁ಉಕ್ಖಿಪಿತ್ವಾ	-10.4811
▁ಗಿರಿ	-10.4812
ಸೇಯ್ಯ	-10.4812
ತ್ವಂ	-10.4813
ಹೀನ	-10.4816
▁ರುಕ್ಖೋ	-10.4818
ಬ್ಯಾ	-10.4818
ಚರಿಯ	-10.482
▁ಆಲೋಕೋ	-10.482
▁ಪಹರ	-10.4824
▁ಸಙ್ಖ್ಯಾ	-10.4826
▁ಅವಿತಕ್ಕಅವಿಚಾರೋ	-10.4826
ಸಾಖ	-10.4827
▁ಬಾಧ	-10.4829
ಅಜ್ಜ	-10.483
▁ಪಹೀಯತಿ	-10.4833
ಕಥಾಯ	-10.4836
ುಪ್ಪನ್ನ	-10.484
▁ಅರಿಯಾನಂ	-10.4841
▁ಬಲವಾ	-10.4841
ತ್ಥೇರ	-10.4843
▁ದುವಿಧೋ	-10.4843
▁ಸಮ್ಪತ್ತೇ	-10.4844
▁ಕುಚ್ಛಿ	-10.4844
▁ಸತಿಪಿ	-10.4849
▁ಉಪಾಯೇನ	-10.4853
▁ಸಮೀಪೇ	-10.4859
▁ನಸರಣ	-10.486
ವಿಜ್ಜಾ	-10.486
ರುಹ	-10.4862
▁ಸಬ್ಬದಿಸಾ	-10.4865
▁ಸಬ್ಬಞ್ಞುತಞ್ಞಾಣ	-10.4866
▁ಸಮೂಹ	-10.4866
▁ಉಪಗನ್ತ್ವಾ	-10.4867
▁ಮಗ್ಗಫಲ	-10.4873
ನಿಸ್ಸಿತಂ	-10.4873
▁ಸಬ್ಬಲೋಕ	-10.4878
▁ಸಂಸಟ್ಠಾ	-10.4881
▁ಯಾಚತಿ	-10.4883
▁ವಿಮಾನ	-10.4884
▁ಅಚ್ಚ	-10.4886
▁ಪೀಳ	-10.4887
▁ಸಲ್ಲ	-10.489
▁ಜಞ್ಞಾ	-10.4892
ದಿಟ್ಠ	-10.4893
▁ದಸ್ಸೇಸಿ	-10.4894
▁ಕತ್ತಬ್ಬಂ	-10.4898
▁ಪುಬ್ಬೇವ	-10.4898
▁ನಿಬ್ಬಾನಸ್ಸ	-10.49
ಸ್ವಾಗತಂ	-10.49
ವನ್ತಂ	-10.4901
▁ಸೋತಾಯತನಂ	-10.4909
ಕಮ್ಮಸ್ಸ	-10.4913
▁ಆಕಾಸಾನಞ್ಚಾಯತನ	-10.4917
ಕಲ್ಯಾಣ	-10.4918
▁ಉಜು	-10.492
▁ಸದ್ಧೋ	-10.4924
ಮೂಲಕಂ	-10.4931
▁ಭಣನ್ತಸ್ಸ	-10.4932
▁ವಿರೋಚ	-10.4934
ಗಹಣ	-10.4934
▁ವತ್ಥಂ	-10.4935
▁ಇವ	-10.494
▁ಉಪಾದಾನಂ	-10.4943
ಗೋತ್ತ	-10.4946
▁೧೨೩	-10.4949
ಗಣನಾಯ	-10.4951
▁ತತಿಯಮ್ಪಿ	-10.4951
▁ವೋಹರ	-10.4951
▁ನಿದ್ದೇಸೋ	-10.4957
ತೂತಿ	-10.4963
▁ಯಮ	-10.4964
▁ಇನ್ದ್ರಿಯಪಚ್ಚಯೇನ	-10.4965
ಮಧುರ	-10.4969
▁ಹತ್ಥತೋ	-10.4978
▁ಸೇಟ್ಠಿ	-10.498
▁ಸಙ್ಖತ	-10.4981
▁ಅದ್ಧ	-10.4987
▁ಸಮಣಸ್ಸ	-10.4991
▁ವಸೀ	-10.4995
▁ಕಹಾಪಣ	-10.4997
ಾನುರೂಪಂ	-10.4999
▁ನತ್ಥಿಯಾ	-10.5002
ಲಂ	-10.5003
▁ಅನುಞ್ಞಾತಂ	-10.5005
▁ಹತ್ಥಪಾದ	-10.5006
ಾನನ್ತರ	-10.5007
▁ಮಿಸ್ಸಕ	-10.5008
▁ಜಾನೇಯ್ಯ	-10.5011
ಸಾಮಞ್ಞ	-10.5011
ಪರಿಯಾಯೋ	-10.5012
▁ಸಹಸ್ಸಂ	-10.5012
▁ಸಮನ್ನಾಗತಂ	-10.5014
ವಾಸಿನೋ	-10.5016
▁ಪಸನ್ನ	-10.5016
▁ವಚೀ	-10.5016
▁ನಿಬ್ಬುತೋ	-10.5021
ಸಕ್ಕ	-10.5021
ನನ್ದ	-10.5021
▁ದಿಟ್ಠೇ	-10.5021
▁ಉಪೋಸಥೋ	-10.5025
▁ಪಥವಿ	-10.5028
▁ಆಹು	-10.5029
ಪಟಿಪತ್ತಿ	-10.5031
ಮತಿ	-10.5032
▁೧೨೪	-10.5033
▁ಗಿಹೀ	-10.5033
▁ಕಥಿನ	-10.5036
ಿಕೇ	-10.5038
ವಿಪಲ್ಲಾಸ	-10.5039
▁ತಿತ್ಥಿಯ	-10.504
ೋದಕಂ	-10.5041
▁ಏಕಿಸ್ಸಾ	-10.5041
ಪವತ್ತ	-10.5042
ಅನಾಪತ್ತಿ	-10.5042
▁೧೨೨	-10.5043
▁ವಾದೋ	-10.5045
▁ಬೋಜ್ಝಙ್ಗ	-10.5049
▁ಸೋತಾಪತ್ತಿಫಲೇ	-10.5052
▁ಅತ್ತತೋ	-10.5053
▁ವುತ್ತಮ್ಪಿ	-10.5054
▁ಖನ್ಧೇನ	-10.5056
▁ಸಮುಟ್ಠಾನೇಹಿ	-10.5057
▁ದೇಸಿತಾ	-10.5058
ಿಮ್ಹ	-10.5059
▁ಭೋನ್ತೋ	-10.5063
ಪದುಮ	-10.5064
▁ಸಮಾಪತ್ತಿಂ	-10.5064
▁ಅಗಾರಸ್ಮಾ	-10.5066
ಕಥಞ್ಹಿ	-10.5068
ಮುಖೋ	-10.5069
▁ಛಡ್ಡೇತ್ವಾ	-10.5069
▁ಜೋತ	-10.5073
ಸಞ್ಚ	-10.5074
▁ಪಾರಂ	-10.5079
▁ಗುಣಾ	-10.508
ಕರಂ	-10.5082
▁ಸಕಟ	-10.5082
ಸದ್ಧಾ	-10.5085
▁ಅತ್ತಭಾವೇ	-10.5085
▁ಯೋಗ	-10.5088
▁ಹೀತಿ	-10.5089
▁ತಪೋ	-10.509
ಸಮ್ಮಾ	-10.5091
ಪುಬ್ಬೋ	-10.5092
ಲೋಪ	-10.5093
▁ಮನೋವಿಞ್ಞಾಣಧಾತು	-10.5095
▁ಸೂಕರ	-10.5095
▁ವಿಭಙ್ಗವಾರೋ	-10.5096
ಅರಿಯ	-10.5096
ಸಟ್ಠಿ	-10.5097
ಕುಟಿ	-10.5099
▁ಉಪಚಾರ	-10.51
▁ಪಯಿರುಪಾಸ	-10.5102
▁ಪಹಾತಬ್ಬ	-10.5103
ಾಹೀ	-10.5107
▁ಥಾಮ	-10.5109
▁ಅಭಾವಾ	-10.5113
▁ಮಮಂ	-10.5115
▁ಸೀಘಂ	-10.5116
▁ಸಾಮ	-10.5121
▁ಕಿರಿಯ	-10.5122
▁ಆಗನ್ತುಕ	-10.5123
▁ಏವಮಾಹಂಸು	-10.5127
▁ಇಮಿನಾವ	-10.5127
▁ಮಹತಾ	-10.513
ಿಮಂ	-10.5131
▁ವಿನಿಚ್ಛಯ	-10.5133
▁ದುವಿಧಂ	-10.5135
ಙ್ಗುಲ	-10.5136
▁ದಾತಬ್ಬ	-10.5136
ಞ್ಛ	-10.5139
ರಿವ	-10.5139
▁ಕುಸಲತ್ತಿಕ	-10.5141
▁ಕಾರಕ	-10.5143
▁ಅಸಕ್ಕೋನ್ತೋ	-10.5146
ಸತಸಹಸ್ಸ	-10.5148
ಅಸ್ಸ	-10.5149
▁ಬ್ರಹ್ಮಚರಿಯ	-10.5151
▁ಕರೋಥ	-10.5155
▁ಮನಸಿಕರೋತೋ	-10.5155
▁ಬ್ರೂಹಿ	-10.516
ಗಮ	-10.5162
ಸಮ್ಪನ್ನಂ	-10.5163
ೇಸೂ	-10.5164
▁ಉಪ್ಪಾದೇತ್ವಾ	-10.5165
▁ಅಭಿಜ್ಝಾ	-10.5172
▁ವಿನಯಂ	-10.5173
▁ಮಾರಿಸ	-10.5178
▁ಸಮ್ಮಪ್ಪಧಾನ	-10.5179
ವತ್ಥೂನಿ	-10.5182
ಸನ್ತಾನ	-10.5184
▁ಗುಣಂ	-10.5186
▁ಮನಂ	-10.5187
▁ಏವಮಾದೀಸು	-10.5189
▁ಠಪ	-10.5189
ಪಸಾದ	-10.519
▁ನಿಸ್ಸರಣಂ	-10.519
▁ಪರಿಯೋಸಾನ	-10.5197
▁ವೀತ	-10.5197
ಸಮೋ	-10.5201
ಾಚಾರ	-10.5202
▁ಅಪ್ಪಮಾಣ	-10.5203
▁ಫೋಟ್ಠಬ್ಬಾಯತನಂ	-10.5204
ೇಸಾ	-10.5206
▁ಚಕ್ಕವತ್ತಿ	-10.5207
▁ಸಂವರೋ	-10.5215
▁ರಾಹುಲ	-10.5216
▁ಏಕಮೇವ	-10.5217
ಲೋಹಿತ	-10.5219
ಮಾದಾಯ	-10.522
▁ಪರಿಭುಞ್ಜ	-10.5225
▁ನಿರುಜ್ಝತೀತಿ	-10.5225
▁ಹಿಮವನ್ತ	-10.5228
▁ಅನುಜಾನ	-10.5232
▁ಸೂರಿಯೋ	-10.5239
ಪಞ್ಹ	-10.524
▁ಸಕ್ಕೋನ್ತಿ	-10.5242
▁ಪರಿಚ್ಛಿನ್ನ	-10.5245
▁ಕೋಪ	-10.5247
ಸಾಮಣೇರ	-10.5251
▁ಪಾಚಿತ್ತಿ	-10.5254
ಕಮ್ಮಟ್ಠಾನ	-10.5256
▁ಅಧಿಗಮ	-10.5256
ಸಮ್ಮುತಿ	-10.5257
▁ಪಹಾತಬ್ಬಹೇತುಕ	-10.5261
▁ಭಿಕ್ಖೂತಿ	-10.5261
▁ಸಪ್ಪೀತಿಕ	-10.5275
▁ಮಞ್ಚ	-10.5278
▁ಸಂಕಿಲೇಸ	-10.5281
ಹತ್ಥಿ	-10.5293
▁ವಿಞ್ಞೂ	-10.5296
ವೀಥಿ	-10.5296
ಸಿದ್ಧಿ	-10.5296
▁ಸಮು	-10.5297
ರೂಪಾನಿ	-10.5297
ಸೀಮಾ	-10.5298
▁ಗಯ್ಹ	-10.5299
▁ಭರ	-10.5301
▁ವುಟ್ಠಾತಿ	-10.5301
ಧರ	-10.5302
▁ವೀತಿಕ್ಕಮ	-10.5302
ಸಮ್ಮ	-10.5304
▁ಕರಿಸ್ಸತಿ	-10.5309
▁ಸೋಣ	-10.5312
▁ದಹ	-10.5318
▁ಪಗ್ಗಹ	-10.5321
▁ಕಿರಿಯಂ	-10.5327
▁ಭಾವೇ	-10.5328
▁ಪುರಿಮಂ	-10.5329
▁೧೨೧	-10.5333
▁ಅಮೋಹೋ	-10.5334
ಪದೇಸ	-10.5336
ರಟ್ಠ	-10.5338
ಮೇತ	-10.5341
ಮಣ್ಡಲಂ	-10.5341
ಿನಂ	-10.5342
▁ಮೋಹಸ್ಸ	-10.5343
▁ಪಸ್ಸತೀತಿ	-10.5343
▁ಪತಿತ	-10.5345
▁ಆಕಿಞ್ಚಞ್ಞಾಯತನ	-10.5349
▁ವಿಸಂ	-10.5351
▁ಅವಿಪರೀತ	-10.5351
▁ಪವತ್ತನ್ತಿ	-10.5352
▁ಭುತ್ತ	-10.5352
▁ಸಹಸಾ	-10.5355
ಸಿಯಾ	-10.5355
▁ಅಬ್ಭನ್ತರ	-10.5358
ಭದ್ದ	-10.5358
ಪಾಯ	-10.5364
ಠಾನ	-10.5366
▁ದೇಸಿತೋ	-10.5367
▁ಖಿತ್ತ	-10.5369
▁ವತ್ಥುಸ್ಮಿನ್ತಿ	-10.5369
ಾದೀ	-10.5374
ರೋಧ	-10.5376
▁ಗಹೇತಬ್ಬ	-10.5382
▁ಕುಲಂ	-10.5383
▁ಪಂಸು	-10.5385
▁ಅಸ್ಸಾಸ	-10.5386
▁ಅನರಿಯ	-10.5389
▁ಚಕ್ಖುವಿಞ್ಞಾಣಸ್ಸ	-10.5396
ಧಾರಣ	-10.5397
ಸಭಾವಾ	-10.5398
▁ಫುಸ್ಸ	-10.5399
ಹೇ	-10.5405
▁ಕಾತಬ್ಬ	-10.5406
▁ನಿಕ್ಖಮ	-10.5409
ಕಾಳ	-10.5411
ತ್ಥೇನ	-10.5413
▁ಆಚಾರ	-10.5418
▁ಪುಬ್ಬೇಪಿ	-10.5418
▁ದಕ್ಖಿಣಂ	-10.542
▁ಸಚ್ಚಾ	-10.5424
ಸಮಙ್ಗೀ	-10.5425
▁೧೨೫	-10.5426
▁ಆಸನ್ನ	-10.5428
▁ನಿಪನ್ನ	-10.543
▁ಅರಹ	-10.5435
▁ಅಚ್ಛರಾ	-10.5439
▁ವಸನ್ತೋ	-10.544
▁ತಣ್ಹಂ	-10.5444
▁ವಿವಾದ	-10.5445
▁ವೀಸ	-10.5449
▁ಭೂಮಿಯಾ	-10.5449
▁ಬುದ್ಧಿ	-10.5451
▁ದಸ್ಸನತ್ಥಂ	-10.5451
ಞ್ಞಂ	-10.5452
ಗ್ಗಾಹೋ	-10.5453
▁ಉತ್ತಾನ	-10.5457
▁ಸುಮೇಧ	-10.5459
ರುಕ್ಖೋ	-10.546
ಾಸನ	-10.5464
▁ಚತುಬ್ಬಿಧ	-10.5464
ಕತ್ಥ	-10.5467
▁ವಿಸೇಸಂ	-10.5468
▁ಪಟಿಪದಾಯ	-10.5471
ಗು	-10.5472
ೇತುಕಾಮೋ	-10.5474
▁ಪರಿಗ್ಗಹ	-10.5474
ಸಮುದ್ದ	-10.5476
▁ಧುವಂ	-10.5477
▁ಕಸ್ಸಪೋ	-10.5477
▁ಕಥಿತ	-10.548
ೇಸೀ	-10.5483
▁ಠಾನೇಹಿ	-10.5494
ದಾಯ	-10.5495
▁ಮುತ್ತಾ	-10.5496
▁ಸಜ್ಝಾಯ	-10.5499
▁ಗವ	-10.5503
▁ಚಿತ್ತಸಮುಟ್ಠಾನ	-10.5504
ಸುದ್ಧಿ	-10.5507
▁ವಿತ್ಥಾರೋ	-10.5508
▁ವಿನಸ್ಸ	-10.5508
▁ವಿಸ್ಸಟ್ಠ	-10.5509
ಪಾರಮಿ	-10.5517
▁ಪಾಳಿಯಾ	-10.5519
▁ಭೋತೋ	-10.552
ಭಾವನಾಯ	-10.5523
ಸ್ವ	-10.5525
ತಿಆದಿಕಂ	-10.5525
▁ಅವಚ	-10.5529
▁ಸುಞ್ಞತ	-10.5532
▁ನೋಆಸವ	-10.5538
▁ವಿಸಭಾಗ	-10.5542
▁ದಕ್ಖಿಣೇಯ್ಯ	-10.5542
ಣೇ	-10.5543
ಮಹಾರಾಜ	-10.5545
ರತನಂ	-10.5547
▁ನಿಸಿನ್ನಸ್ಸ	-10.5552
ದುಕ್ಖನಿರೋಧಗಾಮಿನೀ	-10.5554
ಮತ್ಥಂ	-10.5557
ುದ್ದೇಸ	-10.557
ುಪ್ಪಾದನ	-10.5571
▁ಸರೂಪತೋ	-10.5572
▁ದೀಘೋ	-10.5572
▁ದಿಟ್ಠಾನುಸಯೋ	-10.5573
▁ಪುಬ್ಬಭಾಗೇ	-10.5577
ವಿಧಂ	-10.5581
▁ಭಾಯ	-10.5583
▁ಇಸ್ಸಾ	-10.5586
ಯಮ್ಪಿ	-10.5595
▁ಪರಿಞ್ಞಾಯ	-10.5596
ಪಾದಿನ್ನುಪಾದಾನಿಯೋ	-10.5598
ಪಟಿಮಣ್ಡಿತ	-10.5601
▁ಅಯ್ಯೇ	-10.5603
▁ಪುಚ್ಛಿತೋ	-10.5604
ಸಿಕ್ಖಾಪದೇ	-10.5606
▁ದುವಿಧೇನ	-10.5607
ವಿಭಙ್ಗೇ	-10.5612
▁ಗಮನೇ	-10.5612
ತಪ್ಪ	-10.5613
▁ಉಪಪರಿಕ್ಖ	-10.5615
▁ಸಕುಣ	-10.5618
ಪಾರಮೀ	-10.5623
’॥	-10.5625
ಭೇದಂ	-10.5629
▁ನಿಬ್ಬಿನ್ದತಿ	-10.5632
ಟ್ಠಿತ	-10.5633
ವನ್ತೋ	-10.5633
▁ಗಚ್ಛಾಮಿ	-10.5634
ಗತೇ	-10.5634
ವಿಕಾರ	-10.5639
ಞ	-10.5639
▁ವಾಕ್ಯಂ	-10.5642
▁ವಿಪರೀತ	-10.5645
ಕಣ್ಟಕ	-10.5646
▁ಪಟಿಸೇಧ	-10.5648
▁ವಸೇ	-10.5648
▁ಕತನ್ತಿ	-10.5648
ಟ್ಠಾನತೋ	-10.5649
▁ಕರಿಸ್ಸಾಮಿ	-10.5651
▁ಖತ್ತಿಯಾ	-10.5656
▁ಪಞ್ಞತ್ತನ್ತಿ	-10.5657
▁೧೨೮	-10.5659
▁ಉದಕೇನ	-10.5659
▁೧೨೬	-10.5661
▁ಸರಣಗಮನ	-10.5662
ರಹಿತಾ	-10.5662
▁ಞಾತ	-10.5663
ಅಞ್ಞ	-10.5671
ಭೋಜನಂ	-10.5674
▁ರಾಗಸ್ಸ	-10.5674
▁ದುಕ್ಖಕ್ಖನ್ಧಸ್ಸ	-10.5675
ಸಮ್ಪನ್ನಾ	-10.5676
▁ಮಹಾಜನಸ್ಸ	-10.5679
▁ನಾವಾ	-10.568
▁ಸಮ್ಮಾಸಮ್ಬುದ್ಧೇನ	-10.5684
ಾನನ್ತರಂ	-10.5686
ಖಣ್ಡ	-10.5686
▁ಹತ್ಥಂ	-10.5687
ಸೇನಾಸನ	-10.5687
▁ಅಸ್ಸಾಸಪಸ್ಸಾಸ	-10.5687
ಪಾಣ	-10.5687
ಛನ್ದ	-10.5689
ೇಯ್ಯಾಸಿ	-10.569
ಸಮಾನ	-10.5692
▁ವಿರತಿ	-10.5693
▁ಪರಿಯೇಸ	-10.5694
▁ಅನಾಪುಚ್ಛಾ	-10.5694
▁ಅನುವತ್ತ	-10.5696
▁ಜವ	-10.5697
▁ನದಿಯಾ	-10.5699
▁ಉಭಯತ್ಥ	-10.57
ಮಾಹು	-10.5702
▁ಘರೇ	-10.5702
▁ಘರಂ	-10.5704
ಯಾವ	-10.5705
▁ಜಾನನ	-10.5706
▁ಸಮತ್ಥ	-10.5707
▁ರಕ್ಖಿತ	-10.5707
▁ಸಕಲಂ	-10.5707
▁ಹವೇ	-10.5708
ವರಂ	-10.5712
▁ಪತ್ಥನಾ	-10.5713
▁ಅರಿಯಸಚ್ಚಂ	-10.5716
▁ಮದ್ದ	-10.5723
▁ಅಟ್ಠಸು	-10.5724
ಾಮಹಂ	-10.5724
▁ನಕ್ಖತ್ತ	-10.5729
ದೋಸೋ	-10.5733
▁ತೇನಾತಿ	-10.5735
▁ಆದಿಂ	-10.5737
ಪರಮ	-10.5737
▁ನಚಿರಸ್ಸೇವ	-10.5738
▁ಬುದ್ಧುಪ್ಪಾದೇ	-10.5741
▁ವಿಮತಿ	-10.5744
ಕ್ಕನ್ತ	-10.5744
ಏತಂ	-10.5745
▁ಪಚ್ಚಯೇಹಿ	-10.5746
▁ಇದಮವೋಚ	-10.5746
▁ವಂಸ	-10.5747
▁ಪಚ್ಚಯಪಚ್ಚನೀಯಂ	-10.575
▁ರಸ್ಸೋ	-10.5751
ಸಕ	-10.5751
▁ಅಞ್ಞಸ್ಮಿಂ	-10.5751
▁ಸಙ್ಘಿಕ	-10.5752
▁ಪುಥುಜ್ಜನಾ	-10.5754
▁ವಾಕ್ಯ	-10.5755
▁ದುಚ್ಚರಿತಂ	-10.5755
ಪಿಟ್ಠಿ	-10.5757
ಿಮಾ	-10.5759
▁೧೨೭	-10.576
▁ದಧಿ	-10.5766
▁ವಾಸೇಟ್ಠ	-10.5771
▁ಫಲಸಮಾಪತ್ತಿ	-10.5773
▁ಪಾ	-10.5774
▁ಗುತ್ತ	-10.5776
▁ಗಾಮಣಿ	-10.5784
ಪದಾನಂ	-10.5788
ಪಣ್ಡಿತೋ	-10.5788
ಾನಞ್ಹಿ	-10.5798
▁ಸನ್ನಿಪಾತ	-10.5799
▁ಅಗ್ಗಹೇತ್ವಾ	-10.5801
▁ಪುರಿಸಾನಂ	-10.5804
▁ದುಕ್ಖೇನ	-10.5804
▁ಧಾತೂ	-10.5806
ಿಕಾತಿ	-10.5813
▁ಪಚ್ಚಾ	-10.5817
ಾಧಿಪ್ಪಾಯ	-10.582
▁ಸಹಬ್ಯತಂ	-10.5821
▁ಗಣನ	-10.5824
▁ಕದಾ	-10.5836
▁ಉತ್ತಮಂ	-10.5841
▁ಸಮ್ಭವ	-10.5841
▁ತದುಭಯ	-10.5843
▁ಸದಿಸೋ	-10.5845
▁ಪಥವೀಧಾತು	-10.5845
▁ತಣ್ಡುಲ	-10.5847
▁ಸಮನುಪಸ್ಸತಿ	-10.5848
▁ಉಪಟ್ಠಾನಂ	-10.5848
ಪತ್ತಿ	-10.5849
ಸಿಪ್ಪ	-10.5854
ಗುಣಂ	-10.5863
▁ಆಸನ	-10.5865
▁ಮಾನಾನುಸಯೇನ	-10.5865
▁ಲೂಖ	-10.5865
ವಾಚ	-10.5869
▁ಪಞ್ಞಾವಿಮುತ್ತಿ	-10.5869
ಸಞ್ಞಾನಾಸಞ್ಞಾಯತನ	-10.5871
▁ಉಪಸಗ್ಗ	-10.5873
ಪವತ್ತಿ	-10.5874
▁ಯೋಜನ	-10.5877
ದೀನಂ	-10.5878
ಯೋನಿ	-10.5879
▁ಸತ್ತಸು	-10.588
▁ಅನುತ್ತರೋ	-10.5882
▁ಸಕ್ಕಾಯದಿಟ್ಠಿ	-10.5884
▁ಪುತ್ತದಾರ	-10.589
▁ಅಪರಿ	-10.5891
▁ಠಪಿತಾ	-10.5894
▁ಪಕ್ಕಮ	-10.5894
▁ಮೋಕ್ಖ	-10.5894
ಜಾತಿಕೋ	-10.5895
▁ರೂಪಾರೂಪ	-10.5897
ದ್ವಾರಂ	-10.5898
▁ಸಲ್ಲಕ್ಖೇತ್ವಾ	-10.5899
▁ಪಕಾರ	-10.59
▁ಪರಿಕಮ್ಮ	-10.5901
ಪಕಾರ	-10.5901
▁ಕಾರಾಪೇತ್ವಾ	-10.5903
▁ಅಪರಿಯಾಪನ್ನೇ	-10.5912
▁ಆದೀನವ	-10.5919
▁ಪದಟ್ಠಾನ	-10.5922
▁ಉಚ್ಛು	-10.5923
ಜನಕ	-10.5924
ತ್ಥೇರಅಪದಾನವಣ್ಣನಾ	-10.5931
ೇನ್ತೀ	-10.5932
▁ದಸನ್ನಂ	-10.5934
▁ಮೋಚ	-10.5935
▁ಯಾಚಿತೋ	-10.5938
▁ಪಞ್ಹೇ	-10.5939
▁ಹೋತೂ	-10.5943
ಪಟಿಬದ್ಧ	-10.5943
▁ಧೀತಾ	-10.5944
▁ಅತ್ಥೇವ	-10.5946
ಪರಿಚ್ಚಾಗ	-10.5949
ೇಹಿಪಿ	-10.5949
ಗರು	-10.595
▁ತದಞ್ಞ	-10.595
▁ವಿವಟ	-10.5952
ಜಿನ	-10.5956
▁ನಾನತ್ತ	-10.5957
▁ಖಗ್ಗವಿಸಾಣಕಪ್ಪೋ	-10.5961
ತಸ್ಮಾ	-10.5966
▁ಉಪೋಸಥಕಮ್ಮಂ	-10.5967
▁ಧುರ	-10.5968
ಿಸ್ಸಾಮಾ	-10.5969
▁ಅನೇಕವಿಹಿತ	-10.5972
▁ಸಮ್ಬುದ್ಧ	-10.5975
ಿಕಾನಂ	-10.5976
▁ಭುಞ್ಜಿತ್ವಾ	-10.5981
▁ಭಿಕ್ಖುಸಙ್ಘಂ	-10.5985
ಪಞ್ಚಮ	-10.5985
ಪ್ಯ	-10.5986
▁ಪಟಿಗ್ಗಣ್ಹಾತಿ	-10.5986
▁ಸುಮನ	-10.5987
ವೇದನ	-10.599
▁ಯುತ್ತಾ	-10.5992
▁ಠಾನಾನಿ	-10.5993
▁ಅವಿಜ್ಜಮಾನ	-10.5993
▁ದುವಿಧಾ	-10.5994
▁ಕರೋಹಿ	-10.5995
▁ಪಞ್ಹ	-10.5995
ಚಾರೀ	-10.5995
ರಹ	-10.5996
ಸಾಧಾರಣ	-10.5997
ಕಮ್ಮೇ	-10.5999
▁ಮಹಾರಾಜಾ	-10.6001
▁ಆಹಾರಾ	-10.6005
ಪರಿಸಾ	-10.6009
▁ಕಞ್ಞಾ	-10.6009
▁ಪಟಿಲಭ	-10.6011
▁ಸಾರಥಿ	-10.6011
▁ನಾಸ್ಸ	-10.6012
ಸುದ್ಧ	-10.6013
▁ಸಂವೇಗ	-10.6017
ಪಣ್ಡಿತ	-10.6018
▁ಭೋಜ	-10.6019
▁ಸಮ್ಭಾವ	-10.6019
ಾಚರಿಯ	-10.6021
ಚಿತ್ತಾನಿ	-10.6021
ಪಚ್ಚಯೇ	-10.6024
▁ಗಿಲಾನೋ	-10.6026
ಮಯ್ಹಂ	-10.6027
▁ಭಿತ್ತಿ	-10.6028
▁ಅರೂಪಿನೋ	-10.603
▁ಸಾಪಿ	-10.6034
ನಿಸ್ಸಿತಾ	-10.6035
▁ಲೋಹ	-10.6036
▁ತೀರೇ	-10.6037
▁ಪಥ	-10.6039
ಮರ	-10.604
▁ಮೇಥುನಂ	-10.6041
ಸಾವಕ	-10.6041
ತ್ತಞ್ಚ	-10.6043
ಭಗವಾ	-10.6046
▁ಪಬ್ಬಜ	-10.6048
ಯೋಗೇನ	-10.605
▁ಪಬ್ಬತೋ	-10.6052
▁ಅಭಿಕ್ಕಮ	-10.6058
ತಬ್ಬ	-10.606
▁ಸಾಗರ	-10.6063
▁ಉಪಪಜ್ಜ	-10.6066
ಪಟ	-10.6067
▁ಮೇತ್ತ	-10.6069
ಿಯಮಾನೇ	-10.6069
ಸೋಕ	-10.6069
▁ಪಞ್ಞಾಸ	-10.6075
ಕಾರೇ	-10.6075
▁ಹಿಂಸ	-10.6075
▁ಪೂರಣ	-10.6077
▁ಪಲಾಯ	-10.6082
▁ಅಭಾವ	-10.6082
▁ಅನುಬನ್ಧ	-10.6086
▁ಕಞ್ಚನ	-10.6086
▁ಏಕವಚನ	-10.609
▁ನಾನಾಕ್ಖಣಿಕಾ	-10.6091
ವಾಸೀ	-10.6092
ಯಮಾನಾ	-10.6093
▁ಅತ್ತಮನಾ	-10.6093
▁ಪೇಸೇಸಿ	-10.6094
ಸಹಗತಾ	-10.6095
▁ಇಸ್ಸರ	-10.6098
ಲೋಕೋ	-10.6098
▁ಅರಹನ್ತ	-10.6103
▁ಸಿನೇರು	-10.6104
▁ಫುಸಿತ್ವಾ	-10.6104
ಮಚ್ಛ	-10.6107
▁ಮಹಾಬೋಧಿ	-10.6108
▁ಘಾತ	-10.6114
ಹತ	-10.6115
▁ಅತುಲ	-10.6121
▁ವಿಚರ	-10.6121
▁ಪಚ್ಚವೇಕ್ಖಣ	-10.6144
▁ಗೋಣ	-10.6145
ಏಹಿ	-10.6146
ದ್ವಯೇ	-10.6147
▁ದಿಟ್ಠಧಮ್ಮಿಕ	-10.615
▁ಪಟಿಚ್ಚಸಮುಪ್ಪನ್ನ	-10.6151
▁ಬಹುಸ್ಸುತೋ	-10.6153
▁ಹೀನಂ	-10.6154
▁ಸೇಲ	-10.6155
▁ಭೋಗಾ	-10.6156
▁ಪಾನೀಯಂ	-10.6158
▁ಪಞ್ಞಪೇನ್ತಿ	-10.6158
▁ಚಣ್ಡ	-10.6161
ರೂಪೇ	-10.6162
ವಿಭಾವನ	-10.6164
ಮತ್ಥಕೇ	-10.6164
ಞ್ಚಾಪಿ	-10.6165
ಾಸೀತಿ	-10.6165
▁ಆಚರಿಯೇನ	-10.6172
▁ತಥಾರೂಪ	-10.6174
▁ಮಯ್ಹ	-10.6175
▁ಉದ್ಧರಿತ್ವಾ	-10.6178
▁ಪದೇನ	-10.6182
ಹೋತಿ	-10.6182
▁ಚುಣ್ಣ	-10.6183
ದಸ್ಸೀ	-10.6187
▁ಗೋತಮಂ	-10.6189
ಪಚ್ಚುಪ್ಪನ್ನ	-10.6191
▁ತಾದಿನೋ	-10.6194
▁ಪುಪ್ಫಂ	-10.6196
▁ಆಪ	-10.6197
▁ಪಬ್ಬಜ್ಜ	-10.6198
▁ಏತದವೋಚುಂ	-10.6199
ವಿಪತ್ತಿ	-10.62
ತಲೇ	-10.62
▁ಉಪೇಕ್ಖಿನ್ದ್ರಿಯ	-10.6202
▁ಸಿವ	-10.6203
▁ಅರಣ	-10.6205
ಸಂವರ	-10.6205
ಮ್	-10.6207
ಚತ್ತಾರೋ	-10.6208
▁ಕೇವಲಸ್ಸ	-10.6208
ಪನ್ನ	-10.6214
▁ರತನಂ	-10.6217
ಕುಲಂ	-10.6218
▁ಅಸ್ಮಿಂ	-10.6219
▁ಅರಹತ್ತಫಲ	-10.6222
▁ಆರಮ್ಮಣಪುರೇಜಾತಂ	-10.6223
▁ದೇಸೇಸ್ಸಾಮಿ	-10.6224
▁ಅಞ್ಞಾಣಂ	-10.6224
▁ಉಗ್ಗತ	-10.6226
▁ಧನು	-10.6226
▁ಸೀಲೇಸು	-10.6229
▁ಕರಣೀಯಾ	-10.6229
▁ರಟ್ಠಂ	-10.6231
▁ವಿಪುಲಂ	-10.6231
▁ಪತ್ತಿ	-10.6234
ಕ್ರಿಯಾ	-10.6237
ಲದ್ಧ	-10.6238
▁ಸಪ್ಪಾಯ	-10.6238
ಭಿಕ್ಖೂ	-10.6241
▁ಹೋನ್ತು	-10.6242
ಙ	-10.625
▁ಲಬ್ಭತೀತಿ	-10.625
▁ಗಣ್ಹನ್ತೋ	-10.625
▁ಉಪಾದಿನ್ನ	-10.6253
▁ಹೇವ	-10.6255
▁ಸಮತಿಕ್ಕಮ್ಮ	-10.6258
ಪಥಂ	-10.6258
▁ತಿಕ್ಖ	-10.6258
▁ವಿಜಹ	-10.6259
▁ವಿಮಲ	-10.6264
▁ಪುಬ್ಬಾಪರ	-10.6264
ಸಿರ	-10.6268
ಚತುತ್ಥ	-10.6268
ಸೇಟ್ಠಿ	-10.6269
▁ಪರಮತ್ಥತೋ	-10.6271
▁ತ್ಯ	-10.6274
ವಿಧಿ	-10.6279
▁ಪುಬ್ಬೇನಿವಾಸ	-10.628
▁ಭೋಜನೇ	-10.6282
▁ಇದ	-10.6285
ಚ್ಛನ್ನ	-10.6286
▁ಅಮನುಸ್ಸ	-10.6286
▁ಅರಞ್ಞಂ	-10.6288
ಪರಿಮಾಣ	-10.6289
ಪುಣ್ಣ	-10.6289
▁ಪರಿಬ್ಬಾಜಕೋ	-10.629
ಉತ್ತರಿಮನುಸ್ಸಧಮ್ಮ	-10.629
▁ಅರತಿ	-10.6292
▁ಪಚ್ಚವೇಕ್ಖನ್ತಿ	-10.6292
ಸಜ್ಜ	-10.6293
ದಾನೇನ	-10.6296
▁ಸಿಸ್ಸ	-10.6302
ಿಯಮಾನ	-10.6303
ಸೀಸೇನ	-10.631
▁ಸಮಥೋ	-10.6311
▁ಅದಿನ್ನಂ	-10.6311
▁ಪರಿಪುಚ್ಛ	-10.6313
ಹನ್ತಿ	-10.6314
ಗೂ	-10.6315
▁ಆನಿಸಂಸ	-10.6316
▁ನಿಕ್ಖಿಪಿತ್ವಾ	-10.6322
▁ಗುಣವನ್ತ	-10.6323
▁ಆರಮ್ಮಣೂಪನಿಸ್ಸಯೋ	-10.6323
ಸೀಲಾ	-10.6325
▁ಸಮ್ಪರಾಯಿಕ	-10.6326
▁ಸರೋ	-10.6328
▁ಕರಣಂ	-10.6328
▁ಸುತೇನ	-10.633
▁ಸಬ್ಬೇನ	-10.6334
ಾನುಯೋಗ	-10.6335
ಪದಾನ	-10.6337
▁ನಖ	-10.6338
ದಸ್ಸ	-10.6339
ನಸ್ಸ	-10.634
ಸೋಭ	-10.6345
▁ಸಿಞ್ಚ	-10.6346
ಪತ್ತಂ	-10.6348
▁ಸಾಮಿ	-10.6349
▁ಕರಿಸ್ಸಾಮೀ	-10.635
▁ಸೇನಾ	-10.6351
ದೀಪನ	-10.6351
▁ಜನಂ	-10.6352
▁ಪೂತಿ	-10.6353
▁ಪಕ್ಖಿತ್ತ	-10.6353
ಹತ್ಥೋ	-10.6356
ವಿಸಿಟ್ಠ	-10.6358
ಥೇರ	-10.6362
ಕಾರಕೋ	-10.6366
▁ಪಚ್ಚನೀಕ	-10.6366
ಸಹಿತ	-10.6366
▁ಸರಿತ್ವಾ	-10.637
▁ಮಹಾಜನೋ	-10.6374
▁ವಾರಿ	-10.6376
▁ನಿಪಜ್ಜ	-10.6377
▁ಏಯ್ಯ	-10.6377
▁ಚುತಾ	-10.6384
▁ಅತ್ಥಾ	-10.6384
▁ತಾವದೇ	-10.6385
▁ಸನಿದಸ್ಸನಸಪ್ಪಟಿಘ	-10.6386
▁ಘೋಸ	-10.6388
ಪ್ಪಹಾನಂ	-10.6389
▁ರಾಗಾದಿ	-10.639
▁ಅಮಚ್ಚ	-10.6391
ತ್ಥನ್ತಿ	-10.6393
▁ಸೋತಾಪತ್ತಿಫಲ	-10.6395
▁ಉಪ್ಪಜ್ಜಿತ್ವಾ	-10.6396
ದನ	-10.6398
ಾನುಭಾವ	-10.6398
▁ಆಪೋ	-10.6401
ಭಾಗೇ	-10.6401
▁ಭವೇಸು	-10.6403
▁ಮಹಾದಾನಂ	-10.6405
▁ವಿಪಾಕಪಚ್ಚಯ	-10.6405
▁ಉಪೇಕ್ಖಾಯ	-10.6409
ಅತ್ತ	-10.641
▁ಚೇತೋ	-10.6411
ಆದೀಹಿ	-10.6411
▁ಭಾವೇನ್ತೋ	-10.6411
▁ತುಮ್ಹ	-10.6412
▁ದುಕ್ಕರ	-10.6423
ಬದ್ಧ	-10.6424
▁ಸಿರಸಾ	-10.6427
▁ಛನ್ದರಾಗ	-10.6427
▁ಏಕದೇಸ	-10.6428
ೇಕದೇಸ	-10.6433
▁ಪರಿನಿಬ್ಬುತೋ	-10.6434
▁ಇಸ್ಸರೋ	-10.644
▁ಕಲ್ಯಾಣಮಿತ್ತ	-10.6446
▁ಭಿಕ್ಖವೋ	-10.6446
ಭೇಸಜ್ಜ	-10.6446
▁ತಣ್ಹ	-10.6448
▁ದೇವಲೋಕ	-10.645
▁ಯೋನಿ	-10.6451
▁ಸಮ್ಬಹುಲೇ	-10.6452
▁ನಿದ್ದೇಸ	-10.6453
▁ಏಕಮ್ಪಿ	-10.6456
▁ಮಹೇಸಿ	-10.6457
▁ಜೀವಿತಿನ್ದ್ರಿಯ	-10.646
ಕತಮಾ	-10.6462
▁ಠಾನಾ	-10.6464
▁ಪುತ್ತಸ್ಸ	-10.6464
ಾವಹ	-10.6468
ಪು	-10.6472
▁ಪುಥುಜ್ಜನಸ್ಸ	-10.6472
▁ಭಾವೇತ್ವಾ	-10.6473
▁ಉಪಗತ	-10.6473
▁ನಿದಾನಂ	-10.6478
▁ನರಾ	-10.6478
ಚತುಕ್ಕ	-10.6479
ಯುತ್ತಾ	-10.648
▁ಪರಿಚ್ಚಜ	-10.6482
▁ಪಟಿಬಾಹ	-10.6488
▁ದೇವಪುತ್ತ	-10.6489
▁ಮೇತ್ತಂ	-10.6491
▁ಖ್ವಾಹಂ	-10.6492
ಲೋಚನ	-10.6493
ಜಾತಂ	-10.6493
▁ಗಾವೋ	-10.6493
ಕಾರೇನ	-10.6495
ದುಸ್ಸ	-10.6495
▁ಧಮ್ಮಚಕ್ಕಂ	-10.6498
▁ಏವನ್ತಿ	-10.6498
▁ಕಾಯಿಕ	-10.6501
▁ಕುಜ್ಝ	-10.6501
▁ಪಟಿಲಭತಿ	-10.6508
ಲಾಪ	-10.6511
▁ಹತ್ಥೀ	-10.6513
▁ಕರೋನ್ತಾ	-10.6515
▁ಉಜ್ಝಾಯನ್ತಿ	-10.6516
ಪೂರಣ	-10.652
▁ವಿಮುತ್ತ	-10.6522
▁ಹೋನ್ತೀ	-10.6522
ಿಯತಿ	-10.6523
▁ಪಹೂತ	-10.6524
▁ಏಕಚ್ಚ	-10.6527
▁ವಿಹಾಸಿ	-10.6528
▁ಅದತ್ವಾ	-10.6528
ಮಜ್ಝಿಮ	-10.653
ಧರೋ	-10.6531
▁ಅನ್ತೇವಾಸಿಕ	-10.6536
▁ಪಸ್ಸಂ	-10.6537
▁ಅನಿಮಿತ್ತ	-10.6537
▁ವಿಪಲ್ಲಾಸ	-10.6537
▁ಸನ್ತಕ	-10.6538
▁ಮನಾಪಾ	-10.6539
▁ದೇಸೇನ್ತೋ	-10.654
ಸಮಾದಾನ	-10.6542
▁ಸದೇವಕೇ	-10.6543
ಹು	-10.6548
ಾಯಪಿ	-10.6549
ಯ್ಹ	-10.655
▁ವತ್ತಮಾನೇ	-10.655
▁ಪಚ್ಚಯುಪ್ಪನ್ನ	-10.6557
▁ಸಾಲಿ	-10.6558
▁ಹಸ	-10.6561
ದಾಸ	-10.6562
▁ಅಭಿಞ್ಞೇಯ್ಯೋ	-10.6563
ದಸಹಾಯತನೇಹಿ	-10.6564
▁ಚೀವರೇ	-10.6564
▁ಪಞ್ಚಿನ್ದ್ರಿಯಾನಿ	-10.6565
▁ವಿಪರಿಣಾಮ	-10.6565
▁ಲೋಕುತ್ತರಧಮ್ಮ	-10.6565
▁ಸಮುದಾಯ	-10.6568
▁ಪಕಾಸಿತೋ	-10.6569
▁ಸಮ್ಮಾವಾಚಾ	-10.6569
▁ಧಮ್ಮಿಕ	-10.657
▁ಮೇಥುನ	-10.6571
ನತ್ಥ	-10.6572
▁ಸಾಖಾ	-10.6574
▁ಸೂಪ	-10.6574
▁ಉಸ್ಸಾಹ	-10.6575
▁ಥುಲ್ಲಚ್ಚಯಸ್ಸ	-10.6575
▁ಸತ್ತಿ	-10.6583
▁ಅಧಿಪ್ಪಾಯೇನ	-10.6583
▁ಪಸತ್ಥ	-10.6586
▁ಆರಾಧ	-10.6588
ಇಚ್ಚೇತ	-10.6588
▁ಅಯುತ್ತ	-10.6589
ಸೇಟ್ಠ	-10.659
▁ಉಪಕ್ಕಮ	-10.659
▁ಪವತ್ತನತೋ	-10.6591
▁ಪದಾನಂ	-10.6593
ಞ್ಞೋ	-10.6593
▁ಗಾಯ	-10.6595
▁ಕುಟಿ	-10.6595
▁ಸಙ್ಘಾದಿಸೇಸೋ	-10.6596
ಸಂಯುತ್ತಂ	-10.6601
ಚೇತಿಯ	-10.6603
ಳಿ	-10.6607
▁ಅಧಮ್ಮೋ	-10.6607
ಿಸ್ಸಾ	-10.6608
▁ಬೋಧಿಸತ್ತ	-10.6609
ನವಿಪಾಕಧಮ್ಮಧಮ್ಮೋ	-10.6609
ಾಕಾರಂ	-10.6613
ತಿಸ್ಸೋ	-10.6616
▁ಯೋಗೋ	-10.6616
ೇಸ್ಸತಿ	-10.6617
ಾಲಯ	-10.6619
▁ಆರ	-10.662
▁ಧೂಮ	-10.6625
ಞ್ಞಾಯ	-10.6627
▁ಅಧಮ್ಮೇನ	-10.6628
▁ವತ್ಥುಪುರೇಜಾತಂ	-10.6629
▁ಅಪಚಯಗಾಮಿ	-10.6629
ಪದಸ್ಸ	-10.663
▁ಚೋರಾ	-10.663
▁೧೩೦	-10.6635
▁ಸಕ್ಖಿ	-10.6638
▁ಫಲಸಮಾಪತ್ತಿಯಾ	-10.6641
ಸ್ಮಿಞ್ಹಿ	-10.6641
▁ರೂಪಕಾಯ	-10.6643
▁ತಿಧಾ	-10.6643
▁ಉರ	-10.6648
▁ನಾಗರಾಜಾ	-10.6649
ಿನಿಂ	-10.6652
▁ಅನ್ತಿಮ	-10.6655
ಮಾತಿಕಾ	-10.6655
▁ಸಮಾಗತಾ	-10.6657
ತೇಸಂ	-10.666
▁ವಿದ್ಧಂಸ	-10.666
▁ಪಥವಿಯಂ	-10.666
ಜಾತಕೇ	-10.666
ರವ	-10.6666
▁ಠಪೇತಿ	-10.6673
ಸಙ್ಖತ	-10.6674
ದಾಯಕೋ	-10.6674
▁ಫರ	-10.6674
ಯಸ್ಮಿಂ	-10.6676
ಮೋದ	-10.6679
▁ವುತ್ತಞ್ಹಿ	-10.6679
ವಿತ್ಥಾರ	-10.6682
▁ಪಾಸಾದ	-10.6683
▁ಸುರಾ	-10.6683
▁ಉಟ್ಠಿತ	-10.6684
ನ್ಧಕಾರ	-10.6684
▁ಖೇತ್ತಂ	-10.6685
▁ದುತಿಯಜ್ಝಾನ	-10.6691
ಞ್ಚೇತ್ಥ	-10.6692
ೇಹೇವ	-10.6692
ಕಣ್ಡ	-10.6696
▁ಸಮ್ಮಾವಾಯಾಮೋ	-10.6697
▁ಪಞ್ಚವೋಕಾರೇ	-10.6699
▁ಪೋರಾಣ	-10.67
ಅಧಿ	-10.6701
▁ಹನ್ದ	-10.6702
▁ಸಮಥೇಹಿ	-10.6704
ಪದೇನ	-10.6704
ಕ್ಖನ್ಧೋ	-10.6706
▁ಸೋಚ	-10.6706
▁ಪಟಿವಿದ್ಧ	-10.6707
▁ತಚ	-10.6709
▁ನಿದ್ದಿಟ್ಠ	-10.671
▁ಖಾದನೀಯಂ	-10.6712
▁ಅನಾಪತ್ತೀತಿ	-10.6712
▁ಕುಲಾನಿ	-10.6713
▁ರಾಗಂ	-10.6714
▁ಧಾತೂನಂ	-10.6714
▁ಸಮಾಪನ್ನಸ್ಸ	-10.6715
▁ಇತ್ಥನ್ನಾಮೋ	-10.6715
▁ಉಪಟ್ಠ	-10.6715
▁ಸುದ್ಧಾವಾಸ	-10.6716
▁ಸುದ್ಧಿ	-10.6721
▁ದುತಿಯಮ್ಪಿ	-10.6721
▁ಸ್ವಾ	-10.6723
▁ಮಗ್ಗಾರಮ್ಮಣ	-10.6723
ಭಾಸಿತ	-10.6724
▁ಪಕ್ಖಿಪ	-10.6726
ಗಬ್ಭ	-10.6726
▁ಅನಾಸವಾ	-10.6726
▁ಅನಾಗತಾ	-10.6728
▁ಅಜ್ಝುಪೇಕ್ಖ	-10.6734
▁ತಾಪಸೋ	-10.6738
▁ರುಕ್ಖಂ	-10.6741
ಸಮ್ಬೋಜ್ಝಙ್ಗಸ್ಸ	-10.6743
▁ಪನೇಸ	-10.6744
ಪ್ಪಧಾನ	-10.6748
▁ಉತ್ತಾನತ್ಥಮೇವ	-10.6748
▁ಸಙ್ಘಾಟಿ	-10.675
▁ಏತಾಯಾತಿ	-10.6751
೧೨	-10.6758
▁ಮಜ್ಝತ್ತ	-10.6759
ಕಮ್ಪಿ	-10.6761
ಮದ್ದ	-10.6762
▁ರತಿ	-10.6764
▁ಸೇಯ್ಯಂ	-10.6768
▁ನಿರುಜ್ಝಿಸ್ಸನ್ತಿ	-10.6769
▁ಭಾವಿತೋ	-10.677
▁ಅಹೇತುಕಪಟಿಸನ್ಧಿ	-10.6771
ಂಯೇವ	-10.6773
▁ಕಥೇತುಂ	-10.6773
▁ಮಞ್ಞಮಾನೋ	-10.6773
ಟ್ಠಿತಿ	-10.6774
ಸಭಾಗ	-10.6776
▁ದುಕ್ಕಟನ್ತಿ	-10.6777
ಸಮಯ	-10.6784
ಪಬ್ಬ	-10.6786
ತ್ಥು	-10.6786
ಕಞ್ಚ	-10.6791
ವಿನಾಸ	-10.6792
▁ಕಯಿರಾ	-10.6793
▁ಮತ್ಥಕೇ	-10.6794
ಯಾನ	-10.6797
ಸಙ್ಖೇಪ	-10.68
▁ಕಾಯಕಮ್ಮ	-10.6806
▁ಗಹಿತತ್ತಾ	-10.6807
▁ತಿಲ	-10.6809
▁ಸೀಸೇ	-10.6811
ಮೂಲಂ	-10.6811
▁ಅನಿಯ್ಯಾನಿಕ	-10.6811
▁ತಥಾಗತೇನ	-10.6813
▁ಪಜ್ಜ	-10.6816
▁ಅಹೋಸಿಂ	-10.6816
ಕಸಿಣ	-10.6817
▁ಅಬ್ಭನ್ತರೇ	-10.682
▁ಗಾರವ	-10.682
ಸಪ್ಪ	-10.6822
▁ಪಮೋದ	-10.6822
▁ವಾಯಮತಿ	-10.6824
▁ಪರಿಞ್ಞಾ	-10.6826
ಪೂಜ	-10.6826
▁ಲಜ್ಜ	-10.6827
ಗಾಮೀ	-10.6828
▁ಯಾಚಿ	-10.683
▁ಆರಭತಿ	-10.6832
▁೧೨೯	-10.6832
▁ಸಮನ್ನಾಗತೇನ	-10.6838
ದೀ	-10.6841
▁ಆಚರಿಯಸ್ಸ	-10.6842
▁ಅರಿಯಸಚ್ಚ	-10.6844
▁ಅಪ್ಪಹೀನ	-10.6845
▁ಬಲಾನಿ	-10.6848
▁ಭೇಸಜ್ಜಂ	-10.6859
ಕಾಲಿಕ	-10.6859
▁ವೇದನ	-10.6861
▁ದೇವೀ	-10.6862
▁ಸಮ್ಭವತಿ	-10.6863
▁ಸಮ್ಪಟಿಚ್ಛ	-10.6864
▁ಕುಕ್ಕುಟ	-10.6864
▁ಚತುತ್ಥಜ್ಝಾನ	-10.6865
▁ಜರಾಯ	-10.6865
▁ಅಭಿಭವ	-10.6865
ಬೋಧ	-10.6865
▁ಹಾಸ	-10.6868
ಾಭಾವೇನ	-10.6868
▁ವಿಮುಚ್ಚ	-10.687
ಭಾಜನ	-10.6872
▁ಪಚ್ಚೇಕಬುದ್ಧ	-10.6872
▁ನಿಕ್ಖಮಿ	-10.6874
▁ಪಭುತಿ	-10.6875
▁ಧನೇನ	-10.6876
▁ರೂಪಾವಚರಂ	-10.6877
▁ಪುರಿಸೇನ	-10.6878
▁ವಿಕಾಲೇ	-10.6878
▁ಅನುಯುಞ್ಜ	-10.6879
ಸಭಾವಂ	-10.688
▁ಪಸಾದೋ	-10.6882
ಣ್ಹ	-10.6883
ಪಟಿಚ್ಛನ್ನ	-10.6884
ವತ್ಥುಕಾ	-10.6885
ನತಾ	-10.6885
▁ಸತ್ತಮೋ	-10.6888
▁ಅಯೋ	-10.6889
▁ಭೂತಂ	-10.689
▁ಬ್ಯಾಪಾದೋ	-10.6892
ಪತ್ಥ	-10.6892
▁ಭಿಕ್ಖುನಿ	-10.6892
▁ಪಞ್ಞಪ	-10.6895
▁ಸಮಾಧಿಸ್ಮಿಂ	-10.6896
▁ರಾಸಿ	-10.6896
▁ಪಾಕಾರ	-10.6901
▁ಪಾಲ	-10.6903
ಸ್ಸಾಮ	-10.6903
ಇಚ್ಚಾದಿ	-10.6905
▁ದೇಥಾ	-10.6906
ಿಟ್ಠ	-10.6906
ಸಣ್ಠಾನ	-10.6907
▁ಪೂರಿತ	-10.6909
ಕ್ಖಾ	-10.6909
▁ನಿರಾಮಿಸ	-10.691
▁ಅರಣೋ	-10.691
▁ಹೋಹಿ	-10.6912
▁ಕತರ	-10.6916
▁೧೪೦	-10.6916
▁ನಿಯಮ	-10.6917
▁ಪಲ್ಲಙ್ಕ	-10.6918
▁ಸುನ್ದರಂ	-10.6919
▁ಪಚ್ಛಿಮಂ	-10.6923
ಪಥೇ	-10.6928
ರಜ	-10.6928
▁ವಯೋ	-10.6929
▁ಸತ್ತು	-10.6929
▁ವತ್ತನ್ತಿ	-10.6935
ಾಸೀ	-10.6939
▁ಆಕ	-10.694
▁ದಿವಸ	-10.694
ಮಟ್ಠ	-10.694
ವರೋ	-10.694
▁ಅವಣ್ಣಂ	-10.6941
▁ವಿಪತ್ತಿ	-10.6941
▁ಅದುಕ್ಖಮಸುಖಂ	-10.6942
▁ಛಬ್ಬಿಧ	-10.6945
▁ಕರೋಥಾ	-10.6946
ವೀ	-10.6946
▁ಮಾನುಸಂ	-10.6947
ತಾನಿ	-10.6949
▁ಪಾಠ	-10.6952
▁ಉಪಟ್ಠಹ	-10.6952
▁ಕರೋಮಿ	-10.6954
ಾವಸೇಸ	-10.6957
▁ಗೋತ್ತೇನ	-10.6958
▁ಕಾಮಭವ	-10.6959
ಚು	-10.696
ದಿನ್ನ	-10.696
▁ಸಞ್ಚಿಚ್ಚ	-10.6962
▁ಆರಕ್ಖ	-10.6966
▁ಉಪಸಮ	-10.6966
▁ಅಸಮ	-10.6966
▁ಅತೀತಾ	-10.6967
ತೇಲ	-10.6967
ಭಯೇನ	-10.6968
▁ನಿರೋಧಾ	-10.6968
▁ಅಪಚ್ಚ	-10.697
▁೧೩೫	-10.6971
▁ಪಬ್ಬತೇ	-10.6974
▁ಉಪಾದಾನಸಮ್ಪಯುತ್ತ	-10.6974
▁ಉಪ್ಪಜ್ಜನಕ	-10.6975
ಕ್ಕಮೋ	-10.6976
ಲೋಕೇ	-10.6977
▁ಸಮ್ಮತಿ	-10.6979
ಸುತ	-10.6979
▁ಪದೇಸ	-10.698
▁ಇಮಾನೇತ್ಥ	-10.6981
▁ಭಾವಿತತ್ತಾ	-10.6983
▁ವಿಚಿನ	-10.6983
▁ಉದಾನೇಸಿ	-10.6983
ಇದಾನಿ	-10.6988
ಘರ	-10.6993
ಕ್ಖಣ	-10.6994
▁ಕಾರಾಪ	-10.6995
ಾಪಯ	-10.6998
ಪರಿತ್ತ	-10.6998
▁ಅಞ್ಜನ	-10.6999
ವಚ್ಛ	-10.6999
▁ಅಟ್ಠಮ	-10.7005
▁ಸುಕ್ಕ	-10.7005
▁ಞ	-10.701
ಗನ್ತಬ್ಬ	-10.701
▁ಅನಾಸವಂ	-10.7013
▁ಉಪರಿಮ	-10.7015
ಸಮ್ಭವತೋ	-10.7016
▁ಪತ್ತಚೀವರಮಾದಾಯ	-10.7017
▁ನಿಪಾತಮತ್ತಂ	-10.7018
ಯತ್ಥ	-10.702
▁ಗಣ್ಡ	-10.7023
▁ಕುಬ್ಬ	-10.7023
▁ನಿಬ್ಬತ್ತಾ	-10.7024
ನರ	-10.7025
▁ಜಮ್ಬುದೀಪ	-10.7025
▁ಆವಟ್ಟ	-10.7025
▁ಪರಮಂ	-10.7029
▁೧೩೩	-10.7032
▁ನೇತ್ತ	-10.7032
▁ಪಹೀನತ್ತಾ	-10.7035
▁ಸಂಯೋಗ	-10.7035
ಮಂಸಂ	-10.7036
▁ಅದಾ	-10.7038
▁ಉದ್ದಿಸ	-10.704
▁ಅಹಿ	-10.704
▁ಕೋವಿದೋ	-10.7041
ಹಾರೋ	-10.7042
ವುಟ್ಠ	-10.7045
▁ವಾಸ	-10.7047
▁ಮನುಸ್ಸಲೋಕೇ	-10.7048
▁ಗುಳ	-10.7048
▁ಉಪಾದಾರೂಪಂ	-10.7052
ಮರಣ	-10.7053
▁ಧಾರ	-10.7054
ವನಂ	-10.7063
ಯೋಗೇ	-10.7063
ಾದಿಕಾ	-10.7064
▁ಬನ್ಧು	-10.7064
▁೧೩೭	-10.7065
▁ಅಹೇತುಕೋ	-10.7067
▁ಅಧಿಪ್ಪಾಯ	-10.7071
▁ಅಕ್ಖಿ	-10.7072
▁ಮಿಸ್ಸ	-10.7073
▁ಆಸವೋ	-10.7078
▁ಬಾಹು	-10.7078
▁ಕೋಟ್ಠಾಸ	-10.7078
▁ಸಾಯಂ	-10.708
ಿತ್ವಾತಿ	-10.708
▁ತಥಾಗತ	-10.7081
▁ಞಾಣಸ್ಸ	-10.7081
ಏಸ	-10.7083
▁ವೇಸ್ಸನ್ತರ	-10.7083
▁ಸಮಾನಾ	-10.7085
▁ಸಬ್ಬೇಹಿ	-10.709
ಿಧ	-10.7092
▁ಕೇಸಾ	-10.7093
▁ಮುಖೇನ	-10.7093
▁ಅನುರುದ್ಧ	-10.7097
▁ಧೀರಾ	-10.7098
▁ಅನುಪ್ಪತ್ತೋ	-10.7098
▁ಸವಿತಕ್ಕಸವಿಚಾರಾ	-10.7102
▁ಪಟಿಜಗ್ಗ	-10.7103
▁ತೇಜೋ	-10.7103
ದಿವಸ	-10.7105
ಾತೀತಿ	-10.7107
▁ವಸಾ	-10.7109
ಕ್ಖೀ	-10.7113
▁ತಾವದೇವ	-10.7115
ಮೂಲೇ	-10.7115
▁ಕಾರಿತೇ	-10.7118
▁ಯದಿಪಿ	-10.7119
ಪಞ್ಚಿಮೇ	-10.7121
▁ಸಖಾ	-10.7123
▁ಪವಿಟ್ಠೋ	-10.7126
ನೇಯ್ಯ	-10.7127
▁ಪಕ್ಖೇ	-10.7127
▁ಖಿಯ್ಯನ್ತಿ	-10.713
▁ಪಾಟಿದೇಸನೀಯ	-10.7131
▁ಸಾಮಿವಚನಂ	-10.7132
▁ಸಮಾಪನ್ನೋ	-10.7139
▁ಉದ್ಧಚ್ಚಸಹಗತೋ	-10.714
▁ವಿಪಸ್ಸಿಸ್ಸ	-10.7141
ವಾಚಕ	-10.7143
▁ಕುಚ್ಛಿತ	-10.7145
▁ನಿದಸ್ಸನ	-10.7147
▁ಧಮ್ಮಧಾತು	-10.7148
▁ಸಕ್ಯ	-10.7149
ಚತ್ತಾರೋಮೇ	-10.715
ಸಯನ	-10.7152
▁ತಾಹಿ	-10.7152
▁ಪುಞ್ಞಕಮ್ಮ	-10.7153
ರೂಪೇನ	-10.7153
▁ಛಾದ	-10.7156
▁ಸಮಾಧಿನ್ದ್ರಿಯಂ	-10.7158
ವಿಸ್ಸಜ್ಜನ	-10.7161
ಾನುಲೋಮ	-10.7162
▁ಗಚ್ಛನ್ತೇ	-10.7163
▁ಕಮ್ಮುನಾ	-10.7163
▁ಅಪ್ಪಮಾಣಂ	-10.7164
▁ಮನುಸ್ಸೇ	-10.7164
▁ಸೀಹನಾದಂ	-10.7165
ೀವ	-10.7166
▁ವಿಮಾನಂ	-10.7167
ವಿಮೋಕ್ಖ	-10.7168
▁ಅತ್ತಭಾವ	-10.7168
ಚಕ್ಕಂ	-10.7169
▁ಮೋಹಂ	-10.7178
▁ಆದಿಯ	-10.7179
ಟ್ಠಕ	-10.7179
ಪಾಣಿ	-10.7181
▁ಭೂತಾ	-10.7182
▁ಸೇಸಾನಿ	-10.7183
ಾದಿಭೇದಂ	-10.7184
▁ಅನಾದರಿಯಂ	-10.7188
▁ತಸ್ಸಾಪಿ	-10.7188
ವಿನಿಚ್ಛಯೋ	-10.7188
▁ಸಾದಿಯ	-10.7189
▁ಖಜ್ಜ	-10.7192
▁ಛಡ್ಡ	-10.7194
▁ಆಸಯ	-10.7194
ಸವನ	-10.7195
▁ದೇವತಾನಂ	-10.7195
▁ದಿಸ	-10.7196
▁ಪಾಣಂ	-10.7198
▁ಯುಗ	-10.7201
▁೧೩೨	-10.7202
▁ಗತಂ	-10.7204
▁ಪಕಾಸೇತ್ವಾ	-10.7208
ಬ್ರಹ್ಮಚರಿಯ	-10.7209
ಪುರೇ	-10.721
▁ಸಕ್ಕಾಯ	-10.721
▁ದಸ್ಸಾಮೀ	-10.7212
▁ದೇಹಂ	-10.7212
ಪಞ್ಚಹಿ	-10.7212
ಸಹಗತಂ	-10.7212
▁ಕುಸಲಾಕುಸಲ	-10.7215
▁ಸಮ್ಭವೋ	-10.7217
▁ಥೇಯ್ಯ	-10.722
▁ಅಗಮ	-10.7224
▁ಧಮ್ಮಕಥಂ	-10.7224
▁ಏಕನ್ತೇನ	-10.7224
ಕಾಯಾ	-10.7225
▁ಪತಿಟ್ಠಿತಾ	-10.7225
▁ಸಿಕ್ಖಾಪದಾನಿ	-10.7226
▁ಮಾರಸ್ಸ	-10.7227
ತಿಣ	-10.7231
ಪಟಿಸನ್ಧಿ	-10.7232
▁ಜನ್ತು	-10.7234
ಪೋ	-10.7238
ಕೀಳ	-10.7239
ರಕ್ಖಿತ	-10.724
▁ಫಲಾನಿ	-10.7242
ರೂ	-10.7242
ಙ್ಗಣ	-10.7243
▁ಹೇತ್ಥ	-10.7244
▁ತೇಸಮ್ಪಿ	-10.7246
▁ಸಭಾವತೋ	-10.7246
▁ಸಗ್ಗೇ	-10.7246
▁ವೇಧ	-10.7246
▁ಅದ್ದಸಂ	-10.7247
▁ರಸೋ	-10.7251
▁ಅನಭಿ	-10.7255
▁ವಿಜಿತ	-10.7261
ಸನ್	-10.7264
▁ನೀಚ	-10.7264
▁ಠಪಿತಂ	-10.7264
▁ಅಯಮಸ್ಸ	-10.7266
ನಿದಾನಂ	-10.7266
▁ಪುಮ	-10.7267
▁ವಿಮುತ್ತೋ	-10.7267
ಸಞ್ಞಾನಾಸಞ್ಞಾಯತನಂ	-10.7267
▁ಅನುಮೋದ	-10.7267
▁ಧುತಙ್ಗ	-10.7268
▁ತೇಸನ್ತಿ	-10.727
▁೧೩೮	-10.7271
▁ಮುಚ್ಚ	-10.7271
ನಿಯಮ	-10.7272
▁ಪುನಪಿ	-10.7272
▁ಸಂಯೋಜನಾನಿ	-10.7273
▁ಛತ್ತಿಂಸ	-10.7274
ಕನ್ತ	-10.7275
▁ಮಾತುಗಾಮೋ	-10.7275
▁ಚಣ್ಡಾಲ	-10.7276
ಇಮಸ್ಮಿಂ	-10.7277
▁ಪರಿತ್ತೋ	-10.7277
ಸಾಧೂ	-10.7278
▁ಪಸ್ಸೇಯ್ಯ	-10.7279
▁ಚೇತಿ	-10.7282
▁ಮನಸಿಕಾರ	-10.7285
ಞಾಣೇನ	-10.7295
▁ವಜ	-10.7296
ಪಮಾಣ	-10.7297
▁ಅಗಾರಂ	-10.7298
ಕಸ್ಮಾ	-10.7298
▁ಭಿಕ್ಖುಸಙ್ಘೋ	-10.7299
▁ಉಪ್ಪಜ್ಜನ್ತೀತಿ	-10.73
▁ಚರನ್ತೋ	-10.73
▁ದೇಹೀ	-10.7302
▁ಕುಹಿಂ	-10.7303
▁ಪಣಾಮ	-10.7304
ಸೀಹ	-10.7311
ಚ್ಛಿನ್ನ	-10.7312
▁ಸಂಯೋಜನಾನಂ	-10.7319
▁ಸಬ್ಬಞ್ಞು	-10.7319
ಿಯಮಾನಾ	-10.7321
ಗಾರವ	-10.7322
▁ಪುಚ್ಛನ್ತೋ	-10.7324
▁ಆಲಯ	-10.7326
▁೧೩೧	-10.7326
ಕಾಸ	-10.7326
▁ಉಪಟ್ಠಾತಿ	-10.7331
▁ಇಮಞ್ಚ	-10.7334
▁ಫಸ್ಸಪಚ್ಚಯಾ	-10.7335
▁ನೀವರಣಾ	-10.7336
▁ತಿರಚ್ಛಾನಗತ	-10.7336
▁ಗಚ್ಛನ್ತಂ	-10.7338
ವಾಚಾ	-10.7339
▁ಸಾಸನಸ್ಸ	-10.7339
▁ಸುಖುಮಾ	-10.734
▁ಅವಸೇಸಂ	-10.734
▁ಸೋತಾಪತ್ತಿಮಗ್ಗ	-10.7341
▁ಓತ್ತಪ್ಪ	-10.7343
▁ಅಪ್ಪತ್ತ	-10.7347
▁ಉದಾನ	-10.7347
▁ಸೋತ್ಥಿ	-10.735
▁ಪಟಿಸನ್ಧಿಂ	-10.735
▁ಸನ್ತತಿ	-10.7351
ಭೇದೇ	-10.7354
▁ಪಭಾ	-10.7354
▁೧೩೪	-10.7356
▁ಛತ್ತಂ	-10.7356
▁ತಿಟ್ಠತೀತಿ	-10.7358
▁ತೇಜೋಧಾತು	-10.7358
▁ಲೋಹಿತಂ	-10.736
▁ನಾನಾವಿಧ	-10.7362
▁ಪಯೋಜ	-10.7364
ಪಟಿಪದಾ	-10.7364
ಸಮ್ಪಯುತ್ತಂ	-10.737
▁ಬ್ರಹ್ಮಲೋಕೇ	-10.7371
▁ಸಮೋ	-10.7372
▁ಠ	-10.7373
▁ವತ್ಥೂನಿ	-10.7377
▁ಹೇಮ	-10.7381
ಕೇಸು	-10.7381
▁ವಕ್ಖಮಾನ	-10.7381
▁ಅತಿಕ್ಕಮ್ಮ	-10.7382
ಪಣ್ಣಾಸ	-10.7382
ಕ್ಕಮೇನ	-10.7382
▁ಪುರೇಜಾತಸ್ಸ	-10.7383
▁ಅನುಞ್ಞಾತ	-10.7383
▁ದೇಸಿತ	-10.7384
▁ಖಲು	-10.7387
▁ಇಚ್ಛಿತ	-10.7387
▁ವಿಕಾರ	-10.7387
▁ನಾರೀ	-10.7388
▁ಓತರಿತ್ವಾ	-10.7389
▁ಧಾರೇತಿ	-10.7391
ದಣ್ಡಕ	-10.7394
ವಿನಿಚ್ಛಯ	-10.7394
▁ಉದಾಯಿ	-10.7395
▁ಉದಯ	-10.7398
▁ಪಭವ	-10.7399
▁ಮಹಲ್ಲಕ	-10.74
▁ಸಣ್ಹ	-10.7403
▁ವಣ್ಣೇ	-10.7403
ಸಾನಂ	-10.7404
▁ವಿಭವ	-10.7406
▁ಅಚಲ	-10.7407
▁೧೩೬	-10.7409
▁ಜಮ್ಬು	-10.7409
ಪತ್ತಿಯಾ	-10.741
▁ಅಭಿಜ್ಝಾದೋಮನಸ್ಸಂ	-10.7413
▁ಸಿನೇಹ	-10.7416
ಸಬ್ಬಂ	-10.7417
ತಾಪ	-10.7417
▁ಸನ್ತಾ	-10.7419
▁ಮೇಘ	-10.742
▁ವಿಞ್ಞಾಣಞ್ಚಾಯತನ	-10.7421
▁ಏಕೇಕಂ	-10.7422
▁ಅಧಮ್ಮಿಕ	-10.7424
▁ಆಪಜ್ಜ	-10.7424
ನಯೇ	-10.7425
ಪುತ್ತಾ	-10.7426
ಯೋಗೋ	-10.7426
▁ಮಹನ್ತೋ	-10.7427
ಾತೀತ	-10.7427
ಗೇಹ	-10.7431
▁ಸಮಾದಿನ್ನ	-10.7442
▁ಸೂರ	-10.7442
ಕ್ಖಿ	-10.7447
ಭಿಕ್ಖ	-10.7452
▁ಭಙ್ಗ	-10.7458
▁ವಿನಿಪಾತಂ	-10.7459
▁ಅನ್ತರಾಮಗ್ಗೇ	-10.746
▁ಏವಮೇತಸ್ಸ	-10.7461
▁ವಿಪಾಚೇನ್ತಿ	-10.7462
▁ಭದ್ರ	-10.7466
▁ವುತ್ತಿ	-10.7469
▁ರಾಧ	-10.747
▁ನಾಮಾನಿ	-10.747
▁ಸಕೇ	-10.7471
▁ಪಹರಿತ್ವಾ	-10.7471
ಾನುಸಾರೇನ	-10.7473
ಾದಿಕೋ	-10.7473
▁ಆಪನ್ನ	-10.7476
▁ಮಹಾಮೋಗ್ಗಲ್ಲಾನೋ	-10.7477
▁ಲಿಖಿತಂ	-10.7478
▁ಆದಿತ್ತ	-10.7479
▁ವೇಯ್ಯಾಕರಣ	-10.7484
▁ಪಾನೀಯ	-10.7487
ಸಮುದಯೋ	-10.7488
▁ಪಾಯ	-10.7489
▁ವಿಪಾಕಾ	-10.749
▁ತಿವಿಧಾ	-10.749
▁ಇಸ್ಸರಿಯ	-10.7491
▁ಆರಭ	-10.7492
▁ಅಯೋನಿಸೋ	-10.7494
▁ಸಂಯಮ	-10.7495
▁ಪಟಿಚ್ಛಾದ	-10.7496
▁ಗೋತ್ತ	-10.75
▁ಉತ್ತಾನಮೇವಾತಿ	-10.7501
▁ಅಭಿಭವಿತ್ವಾ	-10.7502
ಗಿಲಾನ	-10.7503
ಪರಿಯನ್ತ	-10.7503
▁ಅಜ್ಝತ್ತಿಕಂ	-10.7509
▁ಜರ	-10.751
▁ಪಜಾಯ	-10.7511
▁ದಿವ	-10.7513
▁ತಯಿದಂ	-10.7517
▁ಸನ್ತಾನೇ	-10.7517
ವಾದಿನೋ	-10.7518
▁ಓಳಾರಿಕಾ	-10.7518
▁ಚೇತೇತಿ	-10.7523
▁ಬ್ಯಗ್ಘ	-10.7524
▁ಮಹಾಜನ	-10.7525
▁ಧಾರೇಯ್ಯ	-10.7528
▁ಸೇತಿ	-10.7528
▁ಕಿಲಮ	-10.7529
ಕ್ಖಯ	-10.753
ಗೋಚರ	-10.7531
ಸುಖುಮ	-10.7532
▁ಸಳಾಯತನ	-10.7534
▁ಸಬ್ಬೇಸಮ್ಪಿ	-10.7534
ತ್ಥೇರಂ	-10.7536
▁ಪಾದಂ	-10.7537
▁ಅಜ್ಝಾಸಯ	-10.7541
▁ಪರಿವಾರೇತ್ವಾ	-10.7543
▁ಸಾವಜ್ಜ	-10.7545
▁ಮುಞ್ಚಿತ್ವಾ	-10.7548
ಪರಿಯೋಸಾನ	-10.7549
ಸಭ	-10.7549
▁ವಿಧ	-10.755
ನೀವರಣ	-10.7553
ವಿಪ್ಪಯುತ್ತೋ	-10.7554
▁ಕಾಮಾವಚರೇ	-10.7556
▁ಚಙ್ಕಮ	-10.7556
▁ಘಾನಂ	-10.7558
ಮಾಣವ	-10.7559
ಿಸ್ಸನ್ತೀ	-10.756
▁ಸುಖೀ	-10.7561
▁ಆಜಾನ	-10.7566
▁ಸುಗನ್ಧ	-10.7566
▁ತಿವಿಧೋ	-10.7568
▁ನಾಗಾ	-10.7569
▁ಅಲೋಭೋ	-10.757
▁ಕುಲಗೇಹೇ	-10.7571
▁ವಿಞ್ಞಾಯತಿ	-10.7572
▁ವಿಞ್ಞಾಪೇತ್ವಾ	-10.7573
▁ಮುಖೇ	-10.758
▁ದೇವಾನಮಿನ್ದ	-10.7582
▁ಸಮ್ಮಾಸಙ್ಕಪ್ಪೋ	-10.7583
▁ಸೋಚತಿ	-10.7584
▁ಪವಿವೇಕ	-10.7585
▁ಯಾಥಾವತೋ	-10.7586
ತ್ಥೇರಗಾಥಾ	-10.7588
▁ಹತ	-10.7589
▁ವಿಘಾತ	-10.759
▁ಪಹ	-10.7593
▁ಚೇತಿಯಂ	-10.7597
▁ಪಠನ್ತಿ	-10.7598
▁ಪಞ್ಞತ್ತೋ	-10.76
▁ಏತನ್ತಿ	-10.7601
ವುತ್ಥ	-10.7602
▁ಕಾರಿತ	-10.7603
▁ಅಟ್ಠಕಥಾಯ	-10.7603
▁ಪಟಿಕ್ಖಿತ್ತ	-10.7608
▁ಕಾರೇತಬ್ಬೋ	-10.7609
▁ಆಪದಾಸು	-10.761
▁ನಿಬ್ಬಾನಞ್ಚ	-10.761
▁ಆಬಾಧ	-10.7611
–	-10.7613
▁ಪುಚ್ಛಿತಬ್ಬತ್ತಾ	-10.7613
▁ಆಕಿಞ್ಚಞ್ಞಾಯತನಂ	-10.7614
▁ಜಾತಿಂ	-10.7615
ನ್ತೋಪಿ	-10.7615
▁ವಣ	-10.7615
▁ಭಿಜ್ಜತಿ	-10.7618
ಪಚ್ಚವೇಕ್ಖಣ	-10.762
▁ಸಙ್ಖೇಪೋ	-10.762
▁ಸಮೇನ್ತಿ	-10.7621
ುರ	-10.7623
ಧಮ್ಮಸ್ಸ	-10.7623
ವೀಸತಿ	-10.7626
▁ತಮ್ಹಿ	-10.7627
▁ಸೇಕ್ಖ	-10.7628
▁ಕತ್ವಾತಿ	-10.7631
ನಸನಿದಸ್ಸನಸಪ್ಪಟಿಘ	-10.7636
ಸುಭ	-10.7636
▁ಅಞ್ಞತರಸ್ಸ	-10.7637
ಹಙ್ಗೇಹಿ	-10.7638
ುಪಾದಾನ	-10.7638
ತಣ್ಹ	-10.7639
▁ರೂಪಾವಚರೇ	-10.7639
ಬ್ಯಾಕತ	-10.7641
ಗುತ್ತ	-10.7642
▁ಬಹೂನಂ	-10.7642
▁ದೇವಾನಮಿನ್ದೋ	-10.7644
▁ಉತ್ತಮೋ	-10.7648
ಪ್ಪಚ್ಚಯೋ	-10.7648
ನೀಯಂ	-10.765
ವಿಮುತ್ತ	-10.7651
ಾರಮ್ಮಣೇ	-10.7651
▁ಸಮಾಪಜ್ಜಿತ್ವಾ	-10.7653
ತಸ್ಸಾ	-10.7655
▁ನಿಸ್ಸಯೋ	-10.7655
▁ರಸಾ	-10.7659
ಪಞ್ಚಕ	-10.7659
▁ವಜ್ಜೇತ್ವಾ	-10.766
▁ಜಿತ	-10.766
ಇಮಸ್ಸ	-10.766
ಗುಣಾ	-10.7666
▁ಗುಣೇಹಿ	-10.7668
▁ಫುಟ್ಠ	-10.767
ಸನ್ತತಿ	-10.7672
▁ಸರೂಪ	-10.7674
▁ಭಾಸಿತಸ್ಸ	-10.7684
▁ಕಾಯಾನುಪಸ್ಸೀ	-10.7686
▁ಅಸನ್ತ	-10.7687
▁ಫ	-10.7688
ಸಞ್ಞೋಜನಸಮ್ಪಯುತ್ತ	-10.769
ಸಙ್ಘಾಟ	-10.7691
▁ಉಗ್ಗಹ	-10.7692
▁ಚೇತೋವಿಮುತ್ತಿಂ	-10.7695
▁ಗಹೇತಬ್ಬಾ	-10.7696
▁ಅಪರಾಪರಂ	-10.7696
▁ಸೇಟ್ಠಂ	-10.7696
▁ಯುದ್ಧ	-10.7697
▁ಮಾಲಾ	-10.7697
▁ಪಜಹತೀತಿ	-10.7698
ತಪ	-10.7699
▁ಪಟಿಸಂವೇದ	-10.7701
▁ಗರುಕ	-10.7702
▁ಮಾಯಾ	-10.7702
▁೧೩೯	-10.7704
▁ಪಟಿಗ್ಗಹ	-10.7704
▁ಚಿನ್ತ	-10.7705
▁ಕಣ್ಟಕ	-10.7706
▁ಸಮಣಂ	-10.7711
▁ವೇವಚನಂ	-10.7711
▁ಸಿಕ್ಖಿತಬ್ಬಂ	-10.7712
▁ದೇವರಾಜಾ	-10.7714
▁ಪತಿಟ್ಠಿತೋ	-10.7715
ನಿನ್ನ	-10.7716
▁ಅತ್ತನಾವ	-10.7718
ೇಯ್ಯಾಮ	-10.7721
▁ಸಿಲಾ	-10.7722
▁ಸಕವಾದಿಸ್ಸ	-10.7724
▁ಅಪಾಯಂ	-10.7724
ರತಾ	-10.7725
▁ದನ್ಧ	-10.7725
ವತ್ಥುಂ	-10.7727
▁ತೇನುಪಸಙ್ಕಮಿಂಸು	-10.7727
ಪುಬ್ಬೇ	-10.7727
▁ಪಹಾರ	-10.7728
ಾತಿಕ್ಕಮ	-10.7733
▁ಮಿ	-10.7734
▁ಸಕದಾಗಾಮೀ	-10.7735
▁ರೂಪಾಯತನಞ್ಚ	-10.7737
▁ಮಹಪ್ಫಲ	-10.7738
ವಾದಿ	-10.7744
▁ಸತ್ತೇಸು	-10.7744
▁ಯೇವ	-10.7746
▁ಸುಪ್ಪ	-10.7757
▁ನಿರುಜ್ಝಿತ್ಥಾತಿ	-10.7758
▁ಮತ್ಥಕಂ	-10.7758
ೇಸೋ	-10.7761
▁ನಿರೋಧಂ	-10.7762
ಪಾಸಾಣ	-10.7764
▁ಪಣ್ಣತ್ತಿ	-10.7771
▁ಗಚ್ಛನ್ತಸ್ಸ	-10.7772
ಅದ್ಧಾ	-10.7776
▁ಯೋಗಾವಚರ	-10.7776
▁ನಿರತ್ಥಕ	-10.7776
ಯೋಗತೋ	-10.7779
ಕಥಾಯಂ	-10.7779
ಸ್ಮೀತಿ	-10.7779
▁ಕಾಮೇಸುಮಿಚ್ಛಾಚಾರ	-10.7782
▁ಅಪಗತ	-10.7784
▁ಪಭೇದ	-10.7786
▁ಆಸವಸಮ್ಪಯುತ್ತ	-10.7788
▁ಪಞ್ಚಸತ	-10.7789
▁ಭಿಕ್ಖಂ	-10.7789
ಅಮ್ಹಾಕಂ	-10.779
▁ಉಗ್ಗ	-10.7791
ವತ್ತನ	-10.7791
ನ್ತ್ಯ	-10.7793
ದೀಸು	-10.7794
ಮಹನ್ತ	-10.7795
▁ರೂಪಿಯ	-10.7797
▁ಆಲಪತಿ	-10.7797
ಅತ್ಥಿಯಾ	-10.7797
ನಿಯೋ	-10.7805
▁ಪಸನ್ನಚಿತ್ತೋ	-10.7808
▁ಸಙ್ಘಾದಿಸೇಸ	-10.781
ಏತ್ಥ	-10.7813
ಕಿಣ್ಣ	-10.7813
▁ಅಲಾಭ	-10.7813
▁ಗೋಪ	-10.7823
ಟ್ಠಿಕ	-10.7823
▁ಛಟ್ಠೋ	-10.7824
▁ಭಗಿನೀ	-10.7825
▁ವೀರಿಯಿನ್ದ್ರಿಯಂ	-10.7825
ೇತುನ್ತಿ	-10.7826
▁ಭಾಸಿತ	-10.7827
▁ಸಕ್ಕಸ್ಸ	-10.7827
ಸಮ್ಭವ	-10.7829
▁ಲೋಕಿಯಾ	-10.7839
ವಿನೋದನ	-10.7839
ಭೇದಾ	-10.7842
ಖನ್ಧಞ್ಚ	-10.7843
▁ಪಸನ್ನಾ	-10.7844
ಖೀಣಾಸವ	-10.7844
▁ಸಜ್ಜ	-10.7846
▁ಪುಪ್ಫಾನಿ	-10.7846
▁ಪನಾಹಂ	-10.7849
▁ಭಾಜನ	-10.7855
ನಖ	-10.7855
▁ತಿಬ್ಬ	-10.7856
ಪರಿವಾರೋ	-10.7858
▁ಪರಿಬ್ಬಾಜಕ	-10.7859
ಾಕಾರೋ	-10.7859
▁ಅರೂಪಾವಚರ	-10.7861
▁ಅಲೋಭ	-10.7862
▁ಪಾಪಕಮ್ಮ	-10.7869
▁ರೂಪಕ್ಖನ್ಧ	-10.7875
▁ಪಠಮೇನ	-10.7878
▁ಪವಿಸತಿ	-10.7878
▁ಪಚ್ಚಸ್ಸೋಸುಂ	-10.7879
▁ಪಸೇನದಿ	-10.7879
▁ಸಙ್ಘಮಜ್ಝೇ	-10.7881
▁ಪೇಚ್ಚ	-10.7881
▁ಘರಾವಾಸ	-10.7883
ಾದಿಮ್ಹಿ	-10.7883
▁ವೇಗೇನ	-10.7886
ವ್ಹಯ	-10.7887
ವಿಯ	-10.7893
▁ರೂಪಾವಚರಾನಂ	-10.7893
▁ವಿಹರತೀತಿ	-10.7893
▁ಸಂಸಯ	-10.7894
ತಾತ	-10.7895
▁ಪಾಟಿಕಙ್ಖಾ	-10.7896
▁ಅಭವಿಸ್ಸ	-10.7899
ವಾಹನ	-10.79
▁ಸಮುಚ್ಛೇದ	-10.79
ಾವಚರ	-10.79
ಪಕತಿ	-10.7902
▁ಮಹಾನುಭಾವ	-10.7902
▁ಓಕಾಸೋ	-10.7902
▁ಛಟ್ಠೀ	-10.7903
▁ಮನ್ತೇ	-10.7911
▁ಕಾಯವಿಞ್ಞಾಣಸ್ಸ	-10.7911
▁ವಿಹರತೀ	-10.7911
▁ಸಾಯ	-10.7912
▁ಧುರಂ	-10.7912
▁ಪಚ್ಛಾಭತ್ತಂ	-10.7913
▁ಪುನಬ್ಭವೋ	-10.7913
▁ಲೋಣ	-10.7916
▁ಪರಿಭುಞ್ಜತಿ	-10.7918
▁ಇನ್ದ್ರಿಯೇಸು	-10.792
▁ಕರಣೇ	-10.7921
▁ಹಾ	-10.7922
ಆಹಾರ	-10.7925
▁ಸಙ್ಖಾರೋ	-10.7925
▁ದೇವಮನುಸ್ಸೇಸು	-10.7926
▁ಇಸ್ಸ	-10.7927
▁ಅಭಿಧಮ್ಮೇ	-10.7928
▁ಲೋಕುತ್ತರಾ	-10.7928
▁ಗಚ್ಛತೀ	-10.7929
ಯಥಾಪಿ	-10.7931
▁ಮಹಬ್ಬಲೋ	-10.7932
▁ಪಹೋತಿ	-10.7933
▁ಘಾನ	-10.7933
ಮಜ್ಜ	-10.7936
▁ಆವಾಸೋ	-10.7936
ಪ್ಪಯೋಗ	-10.7936
▁ಅಸ್ಸಾದೋ	-10.7937
▁ಚಲ	-10.7937
▁ಪೂಜಾ	-10.7938
▁ದುರ	-10.7944
▁ಪರಾ	-10.7945
▁ಆಚರಿಯಾ	-10.7945
▁ರಜೋ	-10.7945
▁ಅವಿಸೇಸೇನ	-10.7945
▁ಅತಿಕ್ಕನ್ತ	-10.7946
ನ್ತೇಸು	-10.7948
▁ಘೋರ	-10.7948
ಾನುಬನ್ಧ	-10.795
▁ಝಾನಾ	-10.7952
▁ವಿಭಙ್ಗ	-10.7953
ರುಚಿ	-10.7955
ವಿರೋಧ	-10.7955
▁ಆನನ್ದಂ	-10.7955
ತೀಹಿ	-10.7955
▁ವಿಚಾರ	-10.7959
▁ಯತ್ರ	-10.796
೨೦	-10.7961
ಾಮಸೇ	-10.7962
▁ವಿರುದ್ಧ	-10.7966
ಪರಿಚ್ಛೇದೋ	-10.7968
▁ಕಥಿನಂ	-10.7971
▁ಪರಿಯಾಯೋ	-10.7973
▁ನಿಗ್ಗಣ್ಹ	-10.7974
▁ಕಾಮಾನಂ	-10.7974
▁ಖೇಪ	-10.7975
▁ಬಹುಜನ	-10.7984
▁ವಸ್ಸಸತ	-10.7986
ಕುಸಲತ್ತಿಕಂ	-10.7995
▁ನಿಯತೋ	-10.7996
▁ಚತುವೀಸತಿ	-10.7996
▁ಅಘ	-10.7996
▁ಅನುಪ್ಪನ್ನಾ	-10.7998
ಕುಮಾರೋ	-10.8002
ಮನ್ತೋ	-10.8004
▁ಪಭಾಸತೀ	-10.8008
▁ಧಮ್ಮಸ್ಸವನ	-10.801
▁ಚಿತೋ	-10.8013
▁ಜಾಗರ	-10.8013
▁ಸಮಞ್ಞಾ	-10.8015
ಅಪಿ	-10.8017
ಕತ್ವಾ	-10.8018
▁ಪಟಿಜಾನ	-10.8023
ವಿಸೇಸಂ	-10.8024
▁ಯಞ್ಹಿ	-10.8028
ದ್ವಿ	-10.803
▁ಓತಾರ	-10.8035
ವಸಾ	-10.8035
▁ಮಾತಾಪಿತೂನಂ	-10.8036
▁ವಗ್ಗೋ	-10.8037
▁ಪರಿಯಾದಾಯ	-10.8038
▁ಲಾಭೋ	-10.8038
▁ವಿಸಯೇ	-10.8039
▁ಸಂಸನ್ದನ್ತಿ	-10.8039
ಲಕ್ಖಣೇನ	-10.804
▁ಬಹುತರಾ	-10.8042
ಮಕ್ಖಿತ	-10.8042
ಧಾತೂತಿ	-10.8044
ಿತಸ್ಸ	-10.8046
▁ಮನಿನ್ದ್ರಿಯಞ್ಚ	-10.8046
ನ್ತೋತಿ	-10.8046
▁ಭಾತಾ	-10.8051
ಸತ್ಥಾ	-10.8052
ಗಣೋ	-10.8053
▁ಅನ್ತಂ	-10.806
ಮಾದಿ	-10.8062
▁ಮಹೀ	-10.8064
ವೇಸ	-10.8065
▁ಕೋಸಲ	-10.8066
▁ಬ್ರಾಹ್ಮಣಾನಂ	-10.8069
▁ಯವ	-10.8069
▁ಧಾರಯ	-10.8072
ೂಪಪತ್ತಿ	-10.8072
ಲಿಕ	-10.8072
ಾಯುಕ	-10.8072
▁ಅಞ್ಞಿನ್ದ್ರಿಯಂ	-10.8073
▁ನಪುರೇಜಾತಪಚ್ಚಯಾ	-10.8076
ಜಾತಿಕಾ	-10.808
▁ಸೇಖ	-10.808
▁ನಿಸಜ್ಜ	-10.8081
ಪಾರ	-10.8087
▁ಅಗ	-10.8087
ಪಟಿಪದಂ	-10.8087
▁ಪರಿಸಂ	-10.8089
▁ಪರಿಪೂರೇತಿ	-10.809
▁ಮತಿ	-10.8091
▁ಅಹಞ್ಚ	-10.8093
▁ಖಣಂ	-10.8097
▁ಛನ್ದರಾಗೋ	-10.8098
ೇಯ್ಯಾಥ	-10.8099
▁ಪರಿಕಮ್ಮಂ	-10.8099
▁ಸನ್ತುಟ್ಠೋ	-10.8101
ನಾನಾ	-10.8103
▁ಕಲಾಪ	-10.8105
ಘೋಸ	-10.8107
▁ಮೂಲೇ	-10.8109
ಜಲ	-10.8109
▁ನಾಯಂ	-10.8111
ಮಾತಾ	-10.8114
▁ಅಮಿತ್ತ	-10.8116
▁ಞಾಣಾನಿ	-10.8119
▁ಓಲಮ್ಬ	-10.8119
▁ಸಮ್ಪತ್ತಿಂ	-10.8122
▁ಬಹುಧಾ	-10.8124
▁ಧಮ	-10.8124
ಪಾಠ	-10.8124
▁ರೂಪಞ್ಚ	-10.8127
▁ಕಪ್ಪತಿ	-10.813
▁ಸಂಸಾರೇ	-10.813
▁ಆಕಾಸಾನಞ್ಚಾಯತನಂ	-10.8133
▁೧೫೬	-10.8133
▁ಲೀನ	-10.8136
▁ಆಹಚ್ಚ	-10.8139
▁ಆಪುಚ್ಛ	-10.8139
ತದ	-10.8149
▁ಭುಸ	-10.8151
▁ಪರಾಮಸ	-10.8152
ಭೂಮಿಂ	-10.8155
▁ಭಿಕ್ಖ	-10.8161
ಪಲಿಬೋಧ	-10.8163
▁ಸಿಕ್ಖಿತಬ್ಬ	-10.8164
▁ಉಟ್ಠಹ	-10.8164
ಿತಾತಿ	-10.8165
ದೇವೋ	-10.8165
ಸಾಟಕ	-10.8169
▁ಲುದ್ದ	-10.8169
ಉದ್ಧಚ್ಚಕುಕ್ಕುಚ್ಚ	-10.817
ಏತೇ	-10.8171
ಅತ್ತನೋ	-10.8172
ಪರಿಸುದ್ಧ	-10.8172
ವಿಮುತ್ತಿ	-10.8173
ತ್ತಭಾವ	-10.8175
ಾವರಣ	-10.8175
▁ಉತ್ತಾನತ್ಥಮೇವಾತಿ	-10.8181
▁ಸೇಕ್ಖಾ	-10.8181
▁ಪಾತುಭವನ್ತಿ	-10.8182
▁ವಿಜ್ಜತೀ	-10.8182
ರೋಪ	-10.8184
ಯು	-10.8185
ರಹಿತ	-10.8185
ಅತೀತ	-10.8186
▁ಕಮ್ಮಪಥ	-10.8187
ಪೂಜಾಯ	-10.8188
▁ಅಧಿವಚನ	-10.8189
▁ಪಯೋಜನಂ	-10.8197
▁ಯೋಜೇತಬ್ಬೋ	-10.8198
▁ವಾಯಮ	-10.82
▁ಪಗ್ಗಣ್ಹ	-10.8201
ತಿಆದೀಹಿ	-10.8203
▁ಅಚಕ್ಖುಕಾನ	-10.8203
▁ವಿದ	-10.8205
▁ವಿನ್ದ	-10.8206
▁ವುಚ್ಚಮಾನೋ	-10.8209
▁ನಿಯಾಮ	-10.821
▁ಸೀಘ	-10.8212
ದಹ	-10.8212
ಟ್ಠೇನಾತಿ	-10.8215
▁ಇಚ್ಛನ್ತಿ	-10.8217
ಅಞ್ಞಾತಾವಿನ್ದ್ರಿಯ	-10.8221
ಾಭಿಮುಖ	-10.8223
▁ಯಥ	-10.8223
▁ಯಾಚನ	-10.8224
▁ಅರಹತಿ	-10.8225
▁ವಿಸುದ್ಧಿ	-10.8225
ಸೇವ	-10.8227
▁ಆರೋಹ	-10.8228
▁ಪಾತು	-10.823
ೇಭಿ	-10.8234
▁ಅಬ್ಭುತಂ	-10.8235
▁ಪಯೋಜನ	-10.8235
ವಿಞ್ಞೇಯ್ಯ	-10.8235
ವಿಜ್ಜ	-10.8236
▁ಘಾನಿನ್ದ್ರಿಯಞ್ಚ	-10.8237
▁ವೇಳುವನೇ	-10.8238
▁ನಾಪರಂ	-10.8238
ಪೇಯ್ಯಾಲ	-10.8238
▁ಇತ್ಥತ್ತಾಯಾ	-10.8241
▁ಅಜಾನನ್ತೋ	-10.8242
ಪುಬ್ಬಾ	-10.8242
ಉಪೋಸಥ	-10.8243
▁೧೫೦	-10.8244
ಲಾಭೀ	-10.8244
▁ಕಿಲೇಸೋ	-10.8248
▁ಧೋವಿತ್ವಾ	-10.8248
ಾನಿಸಂಸ	-10.825
▁೧೪೮	-10.825
ದೀಪಕ	-10.8253
ಖಣ	-10.8253
ಜೀವಿತ	-10.8254
▁ಅಪೇಕ್ಖ	-10.8255
▁ಅವಿತಥ	-10.8257
▁೧೪೧	-10.8257
▁ನಿಕ್ಖನ್ತೋ	-10.8265
▁ಅರೂಪಾನಂ	-10.827
▁ಸಙ್ಖಾರಪಚ್ಚಯಾ	-10.8272
ಸಣ್ಠಾನಂ	-10.8272
ಾದಿಅ	-10.8273
▁ಠಿತಿಯಾ	-10.8276
▁ಪರಿಹಾಯನ್ತಿ	-10.8277
▁ಅಜಾತಸತ್ತು	-10.8278
▁ಏಕಜ್ಝಂ	-10.8278
▁ನಿಕ್ಖಿತ್ತ	-10.8279
▁ನಿದ್ದೋಸ	-10.828
ಪದತ್ಥ	-10.8284
▁ಫಾಲ	-10.8285
ನಿಯಾಮ	-10.8287
▁ರುಕ್ಖಾ	-10.8287
ಸಂಕಿಲೇಸ	-10.8288
▁ಕರಣೀಯೋ	-10.8288
ಪಾದಿನ್ನುಪಾದಾನಿಯ	-10.8288
ಭಾಗಿಯ	-10.8291
ಾಭಾವಾ	-10.8291
▁ಸಾಧ	-10.8292
ಳಾ	-10.8293
▁ಉಜುಂ	-10.8294
▁ರಮಣೀಯ	-10.8295
▁ವತ್ತು	-10.8295
▁ಕಪ್ಪೇತಿ	-10.8295
▁ಚಿತ್ತುಪ್ಪಾದ	-10.8296
▁ರಾಜಗಹಂ	-10.8296
ಗವ	-10.8296
ದೇಸೇ	-10.83
▁ಥೇರೇ	-10.8301
▁ಅಸಙ್ಖತಾ	-10.8301
ಸುತ್ತನ್ತ	-10.8302
▁ವಿತಕ್ಕವಿಚಾರಾನಂ	-10.8303
▁ವಿಸ್ಸಜ್ಜನ	-10.8304
▁ಆರಭಿ	-10.8305
ನಿಯ	-10.8305
▁ಸಂವಿಜ್ಜಮಾನಾ	-10.8309
ೇಥಾ	-10.8312
▁ಸಂಸರನ್ತೋ	-10.8316
ಜೇ	-10.8317
▁ಪಕಿಣ್ಣಕ	-10.8321
ಾಸನೇ	-10.8323
▁ಭವಿಸ್ಸಸಿ	-10.8327
▁ಕಙ್ಖ	-10.8329
▁ಯಾವದೇವ	-10.8333
▁ಅನುಪ್ಪಾದ	-10.8333
▁ಭವಿಸ್ಸಾಮಿ	-10.8337
▁ಧಮ್ಮಾಯತನಞ್ಚ	-10.8337
▁ನೋಚಿತ್ತ	-10.8338
ಿಮ	-10.8342
▁ಕರೋಹೀ	-10.8342
▁ಸಂಸಗ್ಗ	-10.8343
▁ಆಕಾಸೋ	-10.8344
▁ವಿರಾಗಾ	-10.8345
ಅಸುಕ	-10.8349
▁ಅಸಙ್ಖ್ಯೇಯ್ಯ	-10.8354
▁ಅತ್ರ	-10.8357
▁ಸುಪ	-10.8357
ತಿಟ್ಠ	-10.8357
ದಕ್ಖಿಣ	-10.8358
▁ಅನನ್ತರಂ	-10.836
▁ವಿಭತ್ತಾ	-10.8362
▁ಪರಿಭುಞ್ಜಿತುಂ	-10.8362
▁ಚತುವೋಕಾರ	-10.8363
▁ವಿಮುಚ್ಚತಿ	-10.8363
▁ಪಾಸಾದಿಕ	-10.8366
▁ಉಪ್ಪಜ್ಜಮಾನಾ	-10.8367
ಮಹಂ	-10.8367
▁ಪಟಿಗ್ಗಹಿತ	-10.8368
▁ದುಚ್ಚರಿತ	-10.8368
▁ಸಾಮೀ	-10.8368
▁ಜೇಟ್ಠಕ	-10.8369
ಮಞ್ಚ	-10.8369
▁ವೂಪಸಮಾ	-10.8371
▁ಮನುಞ್ಞ	-10.8374
ರಟ್ಠೇ	-10.8375
▁ಸಮತಿಕ್ಕಮ	-10.8379
▁ದೂತ	-10.8379
▁ಮಹಗ್ಘ	-10.838
▁ಸನ್ಧ	-10.838
ಿಯನ್ತಿ	-10.8382
ಸತ್ತೋ	-10.8384
ಾದಯೋಪಿ	-10.8385
▁ಏಕವೀಸ	-10.8386
ುದ್ಧ	-10.8387
▁ಅದ್ದಸಾ	-10.839
▁ನಅಹೇತುಕ	-10.839
▁ಅವಿಗತ	-10.8391
ನಿಬ್ಬತ್ತ	-10.8391
ಸಮುದಯಾ	-10.8393
▁ಅಧಿಮತ್ತ	-10.8393
▁ಪಹೀನಂ	-10.8396
ಮತೋ	-10.84
ನಿಚ್ಚ	-10.8404
▁ರಜನ	-10.8405
▁ನೇತ್ವಾ	-10.8407
▁ಧೀರ	-10.8407
▁ಪೇಸೇತ್ವಾ	-10.8407
▁ತಜ್ಜ	-10.8407
▁ಕಪ್ಪಿಯಂ	-10.8408
ನಿಕಾಯ	-10.8411
▁ಸನಿದಸ್ಸನ	-10.8411
▁ಅಮಚ್ಚಾ	-10.8412
▁ಉತ್ತರಾ	-10.8413
ುಕ್ಕ	-10.8413
▁ಆರಕಾ	-10.8414
▁ಲಕ್ಖಣಾನಿ	-10.8417
▁ಅತೀತಾರಮ್ಮಣ	-10.8419
▁ಡಂಸ	-10.842
▁ಪರಿಸುದ್ಧಂ	-10.8422
▁ಲೋಹಿತಕ	-10.8423
▁ಮುನಿನ್ದ	-10.8423
▁ನಿಪತ	-10.8429
▁೧೪೨	-10.843
ಕುಲಾ	-10.8431
▁ಪದೀಪ	-10.8431
ಸಿತ	-10.8436
▁ರಸಂ	-10.8436
▁ವುತ್ತೇಪಿ	-10.8436
▁ಸಮಾಸೋ	-10.8441
▁ಸಮ್ಮಪ್ಪಞ್ಞಾಯ	-10.8442
▁ನಪ್ಪಜಾನಾತಿ	-10.8442
▁ಕುಪ್ಪ	-10.8443
▁ಬುದ್ಧಪೂಜಾಯಿ	-10.8444
ಕಾದಿ	-10.8445
ಗ್ಗೇ	-10.8451
▁ಉಪಸಮ್ಪನ್ನೋ	-10.8452
▁ಬನ್ಧನಂ	-10.8455
▁ಸಙ್ಕಪ್ಪ	-10.8455
▁ದೀಘಂ	-10.8456
ಮಾಯ	-10.8456
ಪುರೇಜಾತ	-10.8458
▁ಜಾನತೋ	-10.8458
▁ಛವಿ	-10.8458
ಸನ್ಥತ	-10.8459
▁ಓರ	-10.8459
▁ಸಙ್ಗಹಿತ	-10.8459
▁ವಿನ್ದತಿ	-10.8462
ಪ್ಪಮಾಣೋ	-10.8466
ವಿರಾಗ	-10.8466
▁ವಿಭತ್ತ	-10.8467
ಯಸ್ಮಾ	-10.8467
ವಿವೇಕ	-10.8468
▁ಕಕ್ಖಳ	-10.8469
▁ಕಿಲೇಸೇಹಿ	-10.8471
▁ತಾರ	-10.8471
▁ಸುದ್ಧಿಂ	-10.8473
▁ಥೇರಾನಂ	-10.8476
▁ರೂಪಾದಿ	-10.8477
▁ಉಪರೂಪರಿ	-10.8484
▁ಸಮ್ಪಜಾನಕಾರೀ	-10.8484
▁ಉಪ್ಪಜ್ಜಿಸ್ಸನ್ತಿ	-10.8485
▁ಸದ್ಧಿವಿಹಾರಿಕ	-10.8486
▁ಆಣಾ	-10.8486
ಸಮುಟ್ಠಾನಾ	-10.8487
▁ನಾನ	-10.8488
▁ವದಮಾನೋ	-10.849
ಾವಯವ	-10.849
▁ಕಾರೇತಿ	-10.849
▁ಪುರಿಮಬುದ್ಧ	-10.8491
▁ದಿನ್ನೋ	-10.8491
▁೧೪೭	-10.8493
ತ್ಥಮ್ಭ	-10.8502
▁ಮೋರ	-10.8503
ವಿಹಾರಂ	-10.8504
ರೋಚ	-10.8504
ತ್ತು	-10.8505
▁ಯಸ್ಸಾ	-10.8507
ಪೀಠ	-10.8509
ಸಂಕಿಲೇಸಿಕೋ	-10.851
▁ಏಕತ್ಥ	-10.8514
▁ಪಹಾತಬ್ಬಸ್ಸ	-10.8514
ವಙ್ಕ	-10.8514
▁೧೪೪	-10.8517
▁೧೪೩	-10.8518
ದುಕ್ಕಟ	-10.8518
▁ಮಾತಲಿ	-10.8525
▁ಯೋಗಿನಾ	-10.8526
ಣಿಕ	-10.8526
▁ಪಕ್ಕೋಸಾಪೇತ್ವಾ	-10.8526
ತಬ್ಬಂ	-10.8529
▁ಸೇನಾಪತಿ	-10.853
▁ನಿಬ್ಬಾನೇ	-10.8532
▁ಪಟಿಲೋಮ	-10.8534
ಸಚ್ಛಿಕಿರಿಯಾಯ	-10.8536
▁ಪುಮೇ	-10.8538
▁ಅಸೇಖ	-10.854
▁ಚತುಕ್ಕಂ	-10.854
▁ಭಿಕ್ಖೂಸು	-10.8542
▁ಇಮಾಹಿ	-10.8544
ಬನ್ಧನಂ	-10.8545
▁ಪಾದಾ	-10.8548
▁ಖಲ	-10.855
▁ದಸಬಲ	-10.8551
▁ವೇರಂ	-10.8553
▁ಸುವ	-10.8553
▁ದಮ್ಮೀ	-10.8556
▁ಸಮಾಪಜ್ಜ	-10.8556
▁ಪರಿಹಾನಿ	-10.8557
ಕಪ್ಪೋ	-10.856
▁ಸುಕತ	-10.8561
▁ವುಟ್ಠಿತೋ	-10.8561
▁ವಿಭಾವ	-10.8564
▁ಅಕುಸಲಮೂಲ	-10.8564
▁ಸಮಗ್ಗಾ	-10.8566
▁ತೇಸಞ್ಚ	-10.8568
▁ಪಾವ	-10.8568
▁ದಿಸಾಸು	-10.8568
▁ತೇಲಂ	-10.8568
▁ಅಧಿಗತೋ	-10.8569
▁ಪುಗ್ಗಲಿಕ	-10.8569
▁ವಿಪಸ್ಸತಿ	-10.857
▁ಕಾತು	-10.8571
▁ಚತುರಾಸೀತಿ	-10.8571
▁ಪರಿಹರ	-10.8572
ಪಾರಾಜಿಕ	-10.8573
ಮಾನೇನ	-10.8574
▁ವಿಸ್ಸಜ್ಜೇತ್ವಾ	-10.8574
▁ವಿಹಾರಸ್ಸ	-10.8576
▁ಮನೋಮಯ	-10.8576
▁ಉಪಟ್ಠಾಕ	-10.8577
▁ವೀಥಿ	-10.8578
ಪ್ಪತ್ತಂ	-10.8579
ಪಾಚಿತ್ತಿಯ	-10.858
ಅಪರೇಹಿಪಿ	-10.8582
ಕಾತಬ್ಬ	-10.8582
ರುದ್ಧ	-10.8582
▁ಉಪಾಸಕಾ	-10.8585
▁ಅವೇಚ್ಚಪ್ಪಸಾದೇನ	-10.8586
▁ಅಗ್ಗಂ	-10.8587
▁ಅಭಿಜಾನ	-10.8588
▁ಪಕತತ್ತ	-10.8588
▁ರಿತ್ತ	-10.8588
ಿದ್ಧಿ	-10.8588
ಿತಾಯ	-10.8589
▁ವೇವಚನ	-10.8589
ಚಿಣ್ಣ	-10.859
▁ವೇನೇಯ್ಯ	-10.859
ಪುರಿಸಿನ್ದ್ರಿಯಞ್ಚ	-10.859
▁ದಸಸು	-10.8591
▁ಉಸಭ	-10.8597
ಸಮೀಪೇ	-10.8597
▁ಮಞ್ಚಪೀಠ	-10.8598
▁ವೇರ	-10.86
▁ಸತತಂ	-10.8601
▁ಅವಹರ	-10.8601
ಕಪ್ಪೇ	-10.8603
▁ನದಿಂ	-10.8606
▁ಪಟಿವಿಜ್ಝ	-10.8606
ೇಸ್ಸನ್ತಿ	-10.8608
್ವಾ	-10.8613
ಹೇತೂ	-10.8615
▁ಯುತ್ತಿ	-10.8615
▁ನಾವಂ	-10.8618
▁ಪಞ್ಚಮೀ	-10.8619
ವಚನೇ	-10.8621
ಕಮ್ಮಟ್ಠಾನಂ	-10.8623
ನೀಯೋ	-10.8628
ಸನ್ತುಟ್ಠ	-10.863
▁ಧಮ್ಮದೇಸನಾಯ	-10.863
▁ಕರಣೀಯ	-10.8632
ಬುದ್ಧಿ	-10.8632
▁ಉದ್ಧಟ	-10.8632
▁ಅದಿನ್ನಾದಾನ	-10.8633
▁ಸಹಸ್ಸಾನಿ	-10.8633
▁ತೇಜ	-10.8638
▁ಅಹೋಸೀ	-10.8642
▁ಬಹುಸ್ಸುತ	-10.8643
ಸ್ಸಾಮೀತಿನ್ದ್ರಿಯಂ	-10.8644
▁ಆಸವಕ್ಖಯ	-10.8648
▁ಭಿಯ್ಯೋಭಾವಾಯ	-10.8652
▁ಆಮಸತಿ	-10.8653
▁ದೀಪೇ	-10.8653
▁ಜಾಯತೇ	-10.8656
▁ತಥಾಗತೇ	-10.8656
ಡ	-10.8659
ಪರಿಸಾಯ	-10.8659
▁ಭವತೀತಿ	-10.866
ಞ್ಞಾತ	-10.8661
▁ಸಙ್ಗೀತಿ	-10.8661
▁ಪಚ್ಚನ್ತ	-10.8662
ವಿಞ್ಞತ್ತಿ	-10.8662
▁ಭಿನ್ದತಿ	-10.8662
ಕ್ಖಿತ್ತ	-10.8663
ಸಾಮ	-10.8663
▁ಪದುಮಂ	-10.8665
▁ಭಿಜ್ಜ	-10.8665
▁ಏಕಂಸ	-10.8665
ಚಿತ್ತೇಸು	-10.8666
ಿತ್ಥಾತಿ	-10.8669
ತಿಆದಿಕಾ	-10.8671
▁ಪಂಸುಕೂಲ	-10.8672
▁ವಿವಿತ್ತ	-10.8672
ಪುಪ್ಫಂ	-10.8673
ಬ್ರಾಹ್ಮಣೋ	-10.8675
ಸಮಾಸ	-10.8676
▁೧೪೬	-10.8676
ಸಮ್ಪದಂ	-10.8677
ಸಂಯುತ್ತ	-10.8677
▁ಛೇದನ	-10.8678
ೂಪಗ	-10.8678
ತ್ಥಾಯಾತಿ	-10.8681
▁ತಿರೋ	-10.8681
▁ಪರಿಯೇಸತಿ	-10.8682
▁ಸುಞ್ಞ	-10.8683
▁ಭುತ್ವಾ	-10.8684
ವಾಕ್ಯ	-10.8686
▁ಜಹಿತ್ವಾ	-10.8687
▁ಇಚ್ಚೇವ	-10.8688
▁ಕತಾಧಿಕಾರೋ	-10.8691
▁ಅಞ್ಞತರೇನ	-10.8692
▁ಅಕಾಲ	-10.8692
▁ಪವೇಸ	-10.8693
▁ಮೇತಂ	-10.8695
ಲೋಕುತ್ತರ	-10.8695
▁ಸಮನುಪಸ್ಸಾಮಿ	-10.8696
▁ಗಣ್ಹಥಾ	-10.8697
▁ಅವಸ್ಸಂ	-10.8698
ಞ್ಞು	-10.87
ದೇ	-10.8701
▁ಧಾರಯಾಮೀ	-10.8701
▁ಕಟತ್ತಾರೂಪಾನಂ	-10.8701
ಾಯತನಂ	-10.8703
▁ಉಪಧಿ	-10.8706
▁ಸಬ್ಬಕಾಲಂ	-10.8706
ಿಯಾತಿ	-10.8707
ಸಹಸ್ಸಂ	-10.8708
ಸಹಾಯ	-10.871
▁ಸನ್ನಿಸಿನ್ನಾ	-10.871
ನಾಮೇನ	-10.8711
▁ರೂಪೀ	-10.8713
ವಿನಿಮುತ್ತ	-10.8716
▁ವಿವರಿತ್ವಾ	-10.8717
▁ಮಹಾಮೋಗ್ಗಲ್ಲಾನ	-10.8718
▁ಅವಿಜ್ಜಾಪಚ್ಚಯಾ	-10.8719
▁ಅನ್ನ	-10.8723
▁ಲಕ್ಖ	-10.8723
▁ಇಧಾತಿ	-10.8724
ನ್ತೇಹಿ	-10.8726
ಾನುಪಸ್ಸನಾ	-10.8727
ಞ್ಜನ	-10.8729
▁ವಿಜ್ಜ	-10.8729
▁ಅಧಿಮೋಕ್ಖ	-10.8729
▁ಆಪಜ್ಜತೀತಿ	-10.8729
▁ಪತಿಟ್ಠಹಿ	-10.873
▁ಸೀಲಾನಿ	-10.8733
▁ಸಾರಣೀಯಂ	-10.8737
▁ಜಾನಾಸಿ	-10.8739
▁ಗನ್ಥಾ	-10.874
ಪರಿಗ್ಗಹ	-10.874
▁ಸಿಕ್ಖಾಯ	-10.8747
ಮನೋವಿಞ್ಞಾಣಧಾತು	-10.8748
▁ತಾದಿಸೇ	-10.875
ಸೋಮನಸ್ಸ	-10.875
ಪುಞ್ಜ	-10.8752
▁ಲೋಲ	-10.8753
▁ಟ	-10.8754
▁ಅದೋಸೋ	-10.8754
▁ಅದ್ಧಾನಂ	-10.8754
ವ್ಹೋ	-10.8754
▁ಉಪಯೋಗವಚನಂ	-10.8756
▁ಹಿದಂ	-10.8756
▁ಸಮಾಪತ್ತಿಯೋ	-10.8757
▁ಅಸುರ	-10.876
ಸಙ್ಗಹಿತ	-10.876
ಾನುಪಸ್ಸೀ	-10.8764
▁ಞಾತೀ	-10.8764
▁ಪೇತ್ತಿವಿಸಯ	-10.8767
▁ತಿಹೇತುಕ	-10.8767
▁ಥೋಮ	-10.8768
▁ಸಹತ್ಥಾ	-10.8769
▁ಗಾವ	-10.877
▁ಉಬ್ಬ	-10.8776
ಾದೀನಞ್ಚ	-10.8776
▁ಸಮ್ಮೋದನೀಯಂ	-10.8779
▁ನಕಮ್ಮಪಚ್ಚಯಾ	-10.8779
▁ಅವಸಿಟ್ಠ	-10.878
▁ಮಗ್ಗಪಚ್ಚಯ	-10.8781
▁ವಚ	-10.8783
ತಾದಿಸೋ	-10.8785
▁ಪಟಿಕ್ಖಿಪಿತ್ವಾ	-10.8785
ವುಟ್ಠಾನ	-10.8789
▁ಸಕ್ಕಚ್ಚ	-10.8791
೧೩	-10.8793
ಪ್ಪಚ್ಚಯ	-10.8793
▁ತುಟ್ಠ	-10.8794
▁ಪುಥೂ	-10.8794
ುಟ್ಠ	-10.8798
▁ಅಲಙ್ಕತ	-10.8799
▁ಪಥವಿಯಾ	-10.8804
ವಿಸಯೋ	-10.8805
ಮಗ್ಗೇನ	-10.8806
ರಜ್ಜು	-10.8807
▁ನಯನ	-10.8808
▁ಅರಹನ್ತಾನಂ	-10.8809
ಸೀಮಾಯ	-10.8809
▁ರವ	-10.8809
▁ಸುಖಸಹಗತ	-10.881
ರುಳ್ಹ	-10.8811
▁ಆಜೀವ	-10.8811
▁ಅಕಾರ	-10.8817
▁ನಾವಾಯ	-10.8817
ಕಿತ್ತನ	-10.8818
▁ಯೋಜೇತಬ್ಬಾ	-10.8819
▁ಸಾದಿಯತಿ	-10.882
▁ಸಹಜಾತೋ	-10.8821
▁ಛಾರತ್ತಂ	-10.8823
▁ನಾಸಕ್ಖಿ	-10.8823
▁ವಿಪಸ್ಸೀ	-10.8823
▁ಗಿಲಾನಸ್ಸ	-10.8823
▁ದಹರೋ	-10.8825
▁೧೬೦	-10.8829
▁ನಿರನ್ತರಂ	-10.883
▁ಸುತ್ತಸ್ಸ	-10.883
▁ಜಿವ್ಹಾಯ	-10.8831
▁ಚಕ್ಕಂ	-10.8831
▁೧೪೯	-10.8831
ಧಾನ	-10.8833
ಮನ್ದ	-10.8835
▁ಬ್ರಹ್ಮವಿಹಾರ	-10.884
▁ರಾಜಪುತ್ತ	-10.8841
▁ನಿಧ	-10.8844
ಲತಾ	-10.8846
▁ಸಹೇತುಕಂ	-10.8847
▁ಓಕ್ಕಮ	-10.8848
▁ಭಸ್ಸ	-10.8854
ರೂಳ್ಹ	-10.8854
▁ಯೇನಾಯಸ್ಮ	-10.8855
▁ಪಕ್ಖನ್ದ	-10.8856
▁ವಿರೂಪ	-10.8856
▁ಬೀಜಂ	-10.8856
ುದ	-10.8857
▁ಅನುಪ್ಪನ್ನಸ್ಸ	-10.8858
▁ಮಹಪ್ಫಲಂ	-10.8858
▁ತದುಭಯಂ	-10.8859
ಜಿ	-10.8861
▁ಸಚಕ್ಖುಕಾನ	-10.8862
▁ಏದಿಸ	-10.8864
▁ಸಾಸವ	-10.8864
▁ದುತಿಯೇನ	-10.8869
▁ಧಾರಣ	-10.887
▁ಆಸುಂ	-10.8872
ಸಙ್ಖ್ಯ	-10.8872
▁ಮಗ್ಗಞಾಣ	-10.8876
▁ಕರೋತೀ	-10.8876
▁ದೋಸಾ	-10.8878
ರಹಿತಂ	-10.8879
▁ಮನುಸ್ಸೋ	-10.8881
ತಾರ	-10.8882
▁ಅವಣ್ಣ	-10.8883
ಕೋಟಿಯೋ	-10.8885
▁ಭಾರೋ	-10.8885
ೇಸಿಂ	-10.8886
▁ಬ್ರಹ್ಮಲೋಕ	-10.8894
▁ಮುನೀ	-10.8895
▁ಯುಜ್ಜ	-10.8895
▁ಭವಿತುಂ	-10.8897
▁ದಿಯ	-10.89
▁ಜನಸ್ಸ	-10.8902
▁ನಿಹೀನ	-10.8902
▁ರತೋ	-10.8904
▁ವಿಚಿಕಿಚ್ಛಾಸಹಗತೇ	-10.8904
▁ಓಕಾಸೇ	-10.8904
▁ತಞ್ಚೇ	-10.8905
▁ರಾಜಕುಮಾರ	-10.8905
▁ಪವಾರಣಾಯ	-10.8906
ಪರಿಹಾರ	-10.8907
▁ಅಸಂ	-10.8907
ಸಞ್ಞಾವೇದಯಿತನಿರೋಧ	-10.8908
▁ಕರೇ	-10.8909
▁ನಅಕುಸಲ	-10.8912
▁ಪೋಸೋ	-10.8913
▁ಪಾರಮಿಯೋ	-10.8914
▁ಸೋಭನ	-10.8914
ಸಙ್ಖಾತಾಯ	-10.8915
ಪಚ್ಚುಪಟ್ಠಾನಾ	-10.8917
▁ಸ್ವಾಯಂ	-10.8917
▁ಪಿಟ್ಠ	-10.8918
▁ಅನಿಯತೋ	-10.892
ಮ್ಬು	-10.8922
▁ಸತ್ತಮೀ	-10.8924
▁ಪಿಟಕ	-10.8925
▁ಉಪಸಮ್ಪನ್ನ	-10.893
▁ಪಞ್ಚಧಾ	-10.8933
ಪಧಾನ	-10.8935
ಸಿರಿ	-10.8935
ೀರ	-10.8939
ಸಾಲಾ	-10.8939
ಸತ್ತಿ	-10.8939
▁ಸಮನನ್ತರಪಚ್ಚಯ	-10.894
್ವ	-10.8941
ಿಸ್ಸರ	-10.8945
▁ಜಾತಕ	-10.8948
ತ್ಯಾದಿ	-10.8948
▁ಮಾನಾನುಸಯಂ	-10.8952
▁ಲೋಕನಾಯಕಂ	-10.8952
▁ಸಲ್ಲೇಖ	-10.8953
ರುಣ	-10.8953
▁ಸಹೇತುಕಾ	-10.8959
ವಿವಟ್ಟ	-10.896
▁ಪರಲೋಕ	-10.8961
▁ಚಕ್ಖುಸಮ್ಫಸ್ಸ	-10.8963
▁ಗರುಕಂ	-10.8964
▁ಲು	-10.8964
▁ಉಟ್ಠಹಿತ್ವಾ	-10.8966
ುಪ್ಪತ್ತಿಯಾ	-10.8967
▁ಪುಲ್ಲಿಙ್ಗ	-10.8968
▁ಆದಿಸದ್ದೇನ	-10.8968
▁ಓಕ್ಕನ್ತ	-10.897
ತಬ್ಬಾ	-10.8975
ನಿರ	-10.8976
▁ಪುನದಿವಸೇ	-10.8977
▁ಭಾಜ	-10.8977
▁ಉಪೇಕ್ಖಾಸಹಗತಂ	-10.8978
▁ಉಪಟ್ಠಿತ	-10.8979
▁ಥಿನಮಿದ್ಧ	-10.898
▁ಉತ್ತರಿಂ	-10.898
ಪರಿಸ	-10.8981
▁ಉಪಸಙ್ಕಮಿ	-10.8981
ಧೋ	-10.8984
▁ರತನತ್ತಯ	-10.8986
▁ಅಜ್ಝತ್ತಿಕ	-10.8987
▁ತಮ್ಬ	-10.8989
▁ವಿದೂ	-10.899
▁ಅರಿಯಮಗ್ಗೋ	-10.8991
▁ಬಹುಲ	-10.8992
ಯಕ್ಖ	-10.8999
▁ಉಪಸಮ್ಪದ	-10.9005
▁ಪರಿವತ್ತೇತ್ವಾ	-10.9005
▁ಕುಕ್ಕುಚ್ಚ	-10.9007
▁೧೪೫	-10.9007
▁ದಿಟ್ಠಿಗತಂ	-10.9012
▁ಅನುತ್ತರ	-10.9012
ಥೂಪ	-10.9013
▁ಸನ್ಥತ	-10.9015
▁ಅಪ್ಪಣಿಹಿತ	-10.9016
▁ಪಞ್ಞಂ	-10.9016
▁ಸೇಕ್ಖೋ	-10.9017
▁ಸಙ್ಖಾರಕ್ಖನ್ಧ	-10.9019
ವಾಸೋ	-10.9023
ಾನಂಯೇವ	-10.9023
ಸಮಾಪತ್ತಿಯಾ	-10.9024
▁ಆಕಾಸೇನ	-10.9026
▁ಪರತ್ಥ	-10.9026
▁ಮುಟ್ಠಿ	-10.9026
ಸ್ಮಿಞ್ಚ	-10.9029
▁ಖಗ್ಗ	-10.903
▁ಗಜ	-10.9032
▁ಸುಪ್ಪತಿಟ್ಠಿತ	-10.9032
▁ಸೀಲವನ್ತ	-10.9038
▁ತತ್ರಾಪಿ	-10.9038
▁ತಿಟ್ಠೇಯ್ಯ	-10.9038
▁ವಿಞ್ಞಾಣಞ್ಚಾಯತನಂ	-10.9039
ಲೋಭ	-10.904
▁ರಜತ	-10.9041
▁ನುಪ್ಪಜ್ಜತೀತಿ	-10.9042
ಸಮ್ಫಸ್ಸ	-10.9043
ಕಾಯಂ	-10.9043
▁ಅಟ್ಟ	-10.9045
▁ಚತುಧಾ	-10.9045
▁ಪಟಿಸಂವೇದೇತಿ	-10.9048
▁ಸಿದ್ಧಂ	-10.9048
▁ಗಙ್ಗಾಯ	-10.9049
▁ಜೀವಂ	-10.9051
▁ದೂಸ	-10.9052
ುತ್ತಮ	-10.9052
▁ಭಬ್ಬೋ	-10.9053
ಏತ್ತಕ	-10.9054
▁ಮಹಾಸಮುದ್ದೇ	-10.9055
▁ಏಕೋವ	-10.9056
▁೧೫೭	-10.9057
▁ಚೇತೋವಿಮುತ್ತಿ	-10.9058
▁ಮಿತ್ತೋ	-10.906
▁೧೫೩	-10.9064
▁ಸಂಸ	-10.9066
▁ಅಞ್ಞಮ್ಪಿ	-10.9068
▁ವಿಸ್ಸಾಸ	-10.9069
▁ಉಪಜ್ಝಾಯೋ	-10.9069
ಜಪ್ಪ	-10.9071
▁ರಥಂ	-10.9072
▁ಸನ್ಥವ	-10.9076
ಟೋ	-10.9077
ಮಾಸೇ	-10.9078
▁ಸುಞ್ಞಂ	-10.9082
▁ಕಾಲಮಕಾಸಿ	-10.9086
ವಚನಸ್ಸ	-10.9087
ಚ್ಛೇದನ	-10.9087
ದಿಸೋ	-10.9088
▁ಸಮಾಗಮೋ	-10.9088
▁ತದುಪ	-10.9089
ಪರಿಳಾಹ	-10.9089
ಬುಜ್ಝ	-10.9093
▁ಏಕಚ್ಚಸ್ಸ	-10.9093
▁ಅಪ್ಪಹಾಯ	-10.9093
▁ಪರಿಞ್ಞ	-10.9097
▁ಕರುಣಾಯ	-10.9097
▁ಭಾವಯ	-10.9098
ಹದಯ	-10.91
ವಿರಹಿತ	-10.9101
ಸಸ್ಸ	-10.9101
ನಿಸಿನ್ನ	-10.9103
▁ಅಭಿವಾದ	-10.9104
ಸಮೋಧಾನ	-10.9104
▁ಸೂ	-10.9105
ಫರಣ	-10.9106
ಭೀ	-10.9106
▁ಮತ್ತಿಕಾ	-10.9107
ೂಪಗಾ	-10.911
▁ಚೋದನಾ	-10.9111
▁ಪರಿಯನ್ತ	-10.9111
▁ಭುಸಂ	-10.9111
▁ಭುಜ	-10.9112
ದೇಸನಾಯ	-10.9114
ಲೋಹ	-10.9117
ಗಣಾ	-10.9118
▁ರುಕ್ಖಸ್ಸ	-10.9119
▁ನೇಕ	-10.912
ವಾಪಿ	-10.9122
▁ಗಚ್ಛತೋ	-10.9123
ಿಯಮಾನಂ	-10.9124
▁ಪಲ	-10.9125
▁ಮಕ್ಕಟ	-10.9126
▁ಕಮೇನ	-10.9127
▁ದುಗ್ಗನ್ಧ	-10.9127
▁ಪುಬ್ಬಣ್ಹಸಮಯಂ	-10.9128
▁ಸಮಾದಿಯ	-10.9128
ಸಪ್ಪಾಯ	-10.9129
ನಾಮಕೋ	-10.9129
▁ದೇಥ	-10.9132
ವಿನಯೋ	-10.9133
▁ಕಲಹ	-10.9135
▁ಸಾಸವಾ	-10.9142
▁೧೫೯	-10.9142
▁ವೇಮತಿಕಾ	-10.9142
▁ತೀರ	-10.9143
▁ಸುಪಣ್ಣ	-10.9145
▁ಅತ್ಥೇನ	-10.9151
▁ಪತತಿ	-10.9152
▁ಪರಿಸುದ್ಧಾ	-10.9153
ಸಂಯೋಜನಂ	-10.9158
▁ಅಸಪ್ಪುರಿಸ	-10.9158
▁ಲಾ	-10.9159
▁ಕೇನಟ್ಠೇನ	-10.9159
▁ಜೀವತಿ	-10.9159
▁ಸಙ್ಖಾರೇಸು	-10.9159
ಲೇಪ	-10.916
ಪದೇಹಿ	-10.916
ಸದ್ದೇ	-10.916
▁ಸರತಿ	-10.9161
▁ಸನ್ನಿ	-10.9162
▁ರು	-10.9163
ುಪಚ್ಛೇದ	-10.9164
▁ಸೋತಾಪನ್ನ	-10.9166
▁ಕೇವಲಞ್ಚ	-10.9166
▁೧೫೫	-10.9167
▁ಸಮ್ಮಸನ	-10.9169
▁ಧಮ್ಮಾಭಿಸಮಯೋ	-10.9172
▁ಖೀರಂ	-10.9172
▁ಸೀಮಂ	-10.9172
ಭಾಗೋ	-10.9176
ವೇಗ	-10.9178
ಾನುಗತ	-10.9179
▁ಅರಹತ್ತಮಗ್ಗೇನ	-10.918
▁ಯಾವಕಾಲಿಕ	-10.918
▁ಸಮ್ಪಯುತ್ತಪಚ್ಚಯ	-10.9181
▁ಸೇದ	-10.9186
ಸಮತ್ಥ	-10.9186
▁ಏವರೂಪೇ	-10.9187
▁ವಿವಾದೋ	-10.9187
▁ಪರಿಪುಣ್ಣಂ	-10.9188
ಪ್ಪಕಾಸನ	-10.9188
ಚಿತ್ತೇ	-10.9191
▁ವಿಞ್ಞಾಯ	-10.9192
ಿತೋತಿ	-10.9193
▁ಸಭಾವೋ	-10.9197
ಸುರ	-10.9197
▁ಕಚ್ಚಾನ	-10.9198
▁ಪಾರಿಸುದ್ಧಿ	-10.9198
ಸತೇಹಿ	-10.9201
▁ವಿಞ್ಞಾಣಪಚ್ಚಯಾ	-10.9203
ಚ್ಛಾ	-10.9204
▁ನಿಪ್ಫನ್ನ	-10.9207
▁ಸುಪಿನ	-10.9209
▁ತಾದೀ	-10.9209
▁ವಿಭಙ್ಗೇ	-10.921
ಸೋತಂ	-10.921
▁ಸನ್ತೇಪಿ	-10.9211
▁ಸುತ್ತೇನ	-10.9211
▁ಕನ್ತಾ	-10.9211
▁ಕರೋನ್ತೀತಿ	-10.9213
▁ಪವತ್ತಮಾನ	-10.9214
ಪರಿಯೋಸಾನೇ	-10.9215
▁ಆರದ್ಧವೀರಿಯೋ	-10.9216
▁೧೫೪	-10.9216
▁ಯಥಾಭತಂ	-10.9217
▁ಅಗಮಂಸು	-10.9217
▁ಆದಿಕಮ್ಮಿಕಸ್ಸಾತಿ	-10.9218
▁ಅಮ್ಮ	-10.9227
▁ಪಾಕತಿಕ	-10.9227
ಮಹತ್ತ	-10.9227
ಅವ	-10.9229
ಲಕ	-10.9236
ಪಟಿಪಾಟಿಯಾ	-10.9238
▁ಮಹಾನುಭಾವೋ	-10.9239
▁ಗಚ್ಛಾಮ	-10.924
▁ನಿಟ್ಠಾ	-10.924
▁ಕಿಸ	-10.924
▁ಪಸ್ಸತೀ	-10.9241
▁ಅಮರ	-10.9242
▁ಚವಿತ್ವಾ	-10.9243
▁ಸತ್ಥಂ	-10.9243
▁ಯೇಪಿ	-10.9243
▁ಆಣತ್ತಿ	-10.9246
▁ವಜಿರ	-10.9247
▁ವಿಸಾಖ	-10.9248
ಚೇತ	-10.9248
▁ಉಪಗತೋ	-10.9248
ನಯನ	-10.9249
ತಯೋ	-10.925
▁ನಿಬ್ಬಿದಾ	-10.9253
▁ಉಪ್ಪಜ್ಜಮಾನ	-10.9254
▁ಚಕ್ಖುಧಾತು	-10.9255
ಬ್ಬಿ	-10.9255
ಜನಪದ	-10.9259
ಕಚ್ಚಿ	-10.9261
▁ಪರಿನಿಬ್ಬುತೇ	-10.9261
ಕೋಟಿಯಾ	-10.9262
▁ತಿತಿಕ್ಖ	-10.9265
▁ಅಚೇಲಕ	-10.9267
▁ಉಮ್ಮತ್ತಕಸ್ಸ	-10.9269
▁ಸದ್ಧಮ್ಮಂ	-10.927
ಸಮ್ಪ	-10.9271
▁ಪವತ್ತಿತ	-10.9271
▁ಕುರು	-10.9272
ಮಯೋ	-10.9275
▁೧೫೮	-10.9275
▁ನವುತಿ	-10.9276
ಭುತ್ತ	-10.9277
ೇನ್ತಾ	-10.9277
▁೧೫೧	-10.9279
ನೀಯಾ	-10.9279
▁ಆರದ್ಧ	-10.9281
▁ಏವಮ	-10.9281
ನಿವಾರಣ	-10.9283
ಭಣ್ಡಂ	-10.9285
▁ಪರಿಯೋಸಾನಂ	-10.9287
ಬಹುಲ	-10.9289
ಗನ್ಧೋ	-10.9292
▁ವಿತಕ್ಕವಿಚಾರ	-10.9292
▁ಪರಿಯಾಪುಣ	-10.9293
▁ಇದ್ಧಿಪಾದ	-10.9297
▁೧೬೫	-10.93
▁ಪಟಿಕ್ಕೂಲ	-10.9301
▁ಪರಿಜಾನನ್ತಿ	-10.9301
▁ವಿನಸ್ಸತಿ	-10.9303
ನಾಮಂ	-10.9303
ಿನ್ದ್ರಿಯಾ	-10.9305
▁ದುಸ್ಸೀಲೋ	-10.9306
ಪರಿಯ	-10.9306
▁ದನ್ಧಾಭಿಞ್ಞಂ	-10.9307
▁ಲೀನತ್ಥಪ್ಪಕಾಸನಾ	-10.9307
ತ್ಥೇರವತ್ಥು	-10.9307
▁ಲೋಕೋತಿ	-10.9308
▁ಪಗುಣ	-10.9308
ದದ	-10.9309
▁ಪೇಮ	-10.931
▁ಅರಿಯಸ್ಸ	-10.9312
ಸುಖಾಯ	-10.9312
▁ಆಯಸ್ಮನ್ತೋ	-10.9313
▁ಬಹುಸ್ಸುತಾ	-10.9315
ಯತೇ	-10.9316
▁ಸನ್ತಾಪ	-10.9316
ಚಯ	-10.9318
▁ಪೂಜಯ	-10.9322
ುಲ	-10.9322
▁ಅನಿದಸ್ಸನಸಪ್ಪಟಿಘ	-10.9322
▁ವಿಚಿತ್ತ	-10.9324
▁ಸಮಾಪಜ್ಜತಿ	-10.9327
▁ಪಞ್ಚಾಲ	-10.9327
▁ಠಾ	-10.9331
▁ಸತಿನ್ದ್ರಿಯಂ	-10.9333
▁ಅಕಾ	-10.9333
▁ನಗ್ಗ	-10.9334
ಚತ್ತಾಲೀಸ	-10.9335
ಮೋಕ್ಖ	-10.9336
ತಸ್ಮಿಂ	-10.9339
▁ಭಞ್ಜ	-10.9339
▁ಪುರಂ	-10.934
▁ಮಞ್ಞಥ	-10.934
▁ಸುನಖ	-10.9341
▁ಬ್ಯಾಕರ	-10.9342
▁ತುಲ್ಯ	-10.9342
ಗೋಚರೋ	-10.9344
▁ಅಟ್ಠಮೋ	-10.9344
▁ಮಾತುಲ	-10.9345
▁ಲದ್ಧೋ	-10.9345
▁ಸಿದ್ಧ	-10.9345
ದೀಹಿ	-10.9349
▁ವಾಸಂ	-10.9351
▁ಆರಮ್ಮಣಪಚ್ಚಯೋ	-10.9351
ವತೋ	-10.9353
▁ಪರಿಣಾಮ	-10.9353
ಪಾತುಭಾವ	-10.9354
▁ಮಹಾಭೂತಾನಂ	-10.9354
▁ಪರಿನಿಬ್ಬಾಯ	-10.9355
▁ಕೋಟ್ಠಾಸೇ	-10.9355
▁ಕುಲಪುತ್ತೋ	-10.9355
▁ಪವತ್ತಿಯಾ	-10.9356
▁ಉಪ್ಪಜ್ಜಮಾನಂ	-10.9359
▁ಇತ್ಥಿಂ	-10.936
▁ಪರಿಮಾಣ	-10.936
▁ನವವಿಧ	-10.9361
ಯಿತ್ಥ	-10.9363
ಭೇಸಜ್ಜಪರಿಕ್ಖಾರ	-10.9363
ಗಣನ	-10.9366
ೂರ	-10.9367
▁ನಪ್ಪ	-10.9367
ೇಕವಚನ	-10.9367
▁ಆಪಜ್ಜಿತ್ವಾ	-10.9368
▁ಭಕ್ಖ	-10.9368
▁ಸಮಾಧಿಂ	-10.9368
▁ಪಞ್ಞತ್ತ	-10.9371
ಸಮಣೋ	-10.9373
▁ಸರಾ	-10.9373
▁ನಿಯ್ಯಾನ	-10.9373
▁ಸಚ್ಛಿಕತಾ	-10.9373
ಾರಹೋ	-10.9374
ಾಧಿಟ್ಠಾನ	-10.9375
▁ಅಪ್ಪಂ	-10.9376
▁ಯುವ	-10.9377
▁ಸಙ್ಖಾ	-10.9379
ಸನ್ತಾಪ	-10.9379
▁ಸಙ್ಘಾದಿಸೇಸಾ	-10.938
ಯನ್ತಾ	-10.9381
▁ದಿಟ್ಠಿಗತ	-10.9382
▁ಕಾಳಕ	-10.9384
▁ಆವಟ್ಟನಾ	-10.9385
ಸನ್ತೋಸೋ	-10.9385
ಪಟ್ಠಾನ	-10.9385
▁ವಿಸೋಧ	-10.9386
▁ತದನನ್ತರಂ	-10.9391
▁ಸುಞ್ಞೋ	-10.9393
ಅನಿಚ್ಚ	-10.9393
ಪ್ಪಹಾರ	-10.9394
ಾಧಿಪ್ಪಾಯೋ	-10.9394
ಸಾಗರ	-10.9395
ವತ್ಥುಕ	-10.9396
▁ತೇಭೂಮಕ	-10.9396
ಗ್ಗಹಿತ	-10.9401
ಾನುಸಯ	-10.9406
▁ನಾಯಕೋ	-10.9408
▁ಞಾಣವಿಪ್ಪಯುತ್ತ	-10.9409
▁ಞಾತೋ	-10.9412
▁ಕಥೇನ್ತಿ	-10.9413
ನಾಳಿ	-10.9413
▁ಅಸಪ್ಪಾಯ	-10.9421
▁ಅಪ್ಪವತ್ತಿ	-10.9421
▁ಭಿಕ್ಖುನೀತಿ	-10.9423
▁ಮಣ್ಡ	-10.9424
▁ಠಿತತ್ತಾ	-10.9424
ೂಪಮ	-10.9425
ತ್ಥೇರಅಪದಾನಂ	-10.9425
▁ವಾದಂ	-10.9426
▁ವಿಮೋಕ್ಖಾ	-10.9426
▁ಅವಿತಕ್ಕ	-10.9427
▁ಸಿಙ್ಗಾಲ	-10.9428
▁ವೇದಿತಬ್ಬೋತಿ	-10.9428
▁ವಿನಿಪಾತ	-10.9431
▁ಬೋಧಿಯಾ	-10.9432
▁ಸಿಕ್ಖಾಪದೇ	-10.9433
▁ಪರಿನಿಬ್ಬುತ	-10.9434
▁ಅಪ್ಪಮತ್ತಕ	-10.9436
ಳಕ	-10.9436
▁ಪಟಿನಿಸ್ಸಜ್ಜ	-10.9437
▁ದುಕ್ಖೋ	-10.9438
▁ನಿಕ್ಖಿತ್ತೋ	-10.9441
▁ಸೇಸೇಸು	-10.9442
ಮಾಗಮ್ಮ	-10.9443
▁ಛಬ್ಬಗ್ಗಿಯೇ	-10.9444
▁ದಸಬಲಸ್ಸ	-10.9444
▁ವಸನ	-10.9445
▁ದಿ	-10.9447
ಕರಣತೋ	-10.9448
ಥೋ	-10.9451
▁ಪಣ್ಡಕ	-10.9452
▁ಅಕುಪ್ಪ	-10.9454
▁ಪೂವ	-10.9456
▁ಪರಾಮಾಸ	-10.9458
▁ಆದರ	-10.9459
ಪಟಿಸಂಯುತ್ತ	-10.9461
ಸನ್ತಾನೇ	-10.9462
▁ಪರಿವುತೋ	-10.9464
ಾಯಾ	-10.9465
▁ಅಞ್ಞಮಞ್ಞಪಚ್ಚಯ	-10.9467
▁ವಸನಟ್ಠಾನಂ	-10.9472
ಮುನಿ	-10.9474
ತತ್ತಾ	-10.9479
▁ಭಿಕ್ಖುಸಙ್ಘೇನ	-10.9479
▁ಲೋಕಿಯಂ	-10.9481
▁ಞಾಣನ್ತಿ	-10.9482
ಸನ್ನಿಪಾತ	-10.9484
▁ಸುತವಾ	-10.9487
▁ಣ್ವು	-10.9489
▁ಅನ್ತೋಗಧ	-10.9489
▁ನಕ್ಖಮತಿ	-10.949
▁ಪುಚ್ಛನ್ತಿ	-10.949
▁ಬುದ್ಧಪ್ಪಮುಖ	-10.949
ಭಾವೋತಿ	-10.9491
▁ದುಕ್ಖಪಟಿಪದಂ	-10.9492
▁ಸೀದ	-10.9493
ಸಭಾವತ್ತಾ	-10.9493
ಮಿಮಂ	-10.9494
▁ಖೇಮಂ	-10.9495
▁ಸಿಕ್ಖಂ	-10.9495
ಏ	-10.9496
ಿಕಸ್ಸ	-10.9497
▁ರೂಪಾವಚರಾ	-10.9497
▁ಲಭೇಥ	-10.95
▁ಕಾಯವಿಞ್ಞಾಣಂ	-10.95
▁ಪಟಿಲಾಭ	-10.9502
▁ಪಾತಿಮೋಕ್ಖುದ್ದೇಸ	-10.9504
▁ಪರಿಕಪ್ಪ	-10.9505
ಹಂಸ	-10.9508
▁ದಸ್ಸಿತ	-10.951
▁ಪಞ್ಚಙ್ಗಿಕ	-10.951
▁ಚೋದಿತೋ	-10.9513
ಕದಾ	-10.9513
ವಾಚಕೋ	-10.9515
▁ಜಾಯ	-10.9516
▁ಅಙ್ಗಾರ	-10.9519
▁ಪಟಿಪಜ್ಜತಿ	-10.952
▁ಇದನ್ತಿ	-10.9522
ಪಟಿಗ್ಗಹಣ	-10.9522
▁ಆಗತೇ	-10.9524
ಗಿರಿ	-10.9524
▁ಜಙ್ಘ	-10.9524
▁ಸಾವತ್ಥಿಂ	-10.9525
▁ಪಟಿಪಜ್ಜಿತಬ್ಬ	-10.9525
▁ಜನಕ	-10.9527
▁ಅಜ್ಝೋಹಾರೇ	-10.9527
▁ಮಾಣವಕ	-10.953
▁ಅತ್ಥವಣ್ಣನಾ	-10.9532
▁ಅಚಿತ್ತಕ	-10.9533
ಫ	-10.9535
ಕಾಲೇಪಿ	-10.9536
ಮೇಸ	-10.9539
▁ಸನ್ನಿಪತಿತ್ವಾ	-10.954
ಮುಖೇ	-10.954
▁ಸುಭಾವಿತ	-10.954
▁ನಿಯೋಜ	-10.954
▁ವಿಧುರ	-10.9541
ಮಾಪಜ್ಜ	-10.9542
▁ಭಗಿನಿ	-10.9545
▁ಅಭಾವೋ	-10.9545
ಪರಾಧ	-10.9546
▁ಮೇಥುನಧಮ್ಮ	-10.9548
▁ಪವತ್ತೇತಿ	-10.9548
▁ಹಿಸ್ಸ	-10.9548
▁ಸುಧಾ	-10.9549
▁ಅಮ	-10.9551
▁ಪಟಿಕೂಲ	-10.9551
▁ಉಕ್ಕಂಸ	-10.9552
▁ವಧಿತ್ವಾ	-10.9553
▁ಗಲ	-10.9554
ಸಞ್ಛನ್ನ	-10.9554
ಅಙ್ಗ	-10.9557
▁ಪೋರಾಣಾ	-10.9557
▁ಮಾನುಸ	-10.9558
▁ವಲ್ಲಿ	-10.956
▁ಉಕ್ಖಿತ್ತ	-10.9561
▁ಪರಿಚರ	-10.9562
ನ್	-10.9562
ಕಾರನ್ತ	-10.9563
▁ವಿತಕ್ಕಸ್ಸ	-10.9563
ಆರಮ್ಮಣ	-10.9566
▁ವುಟ್ಠಹ	-10.9567
▁ಪಚ್ಚಯಂ	-10.9567
▁ಲಬ್ಭಾ	-10.9568
▁ತೋಸ	-10.9571
▁ಅಯ್ಯ	-10.9572
▁ಆಪಜ್ಜಿ	-10.9574
▁ಉದ್ಧಚ್ಚಸಹಗತೇ	-10.9575
ಭೂತಾಯ	-10.9579
ಸತ್ತಾನಂ	-10.9581
▁೧೬೧	-10.9581
ಚ್ಛಿನ್ದ	-10.9583
▁ಇಚ್ಚ	-10.9583
▁ಅಧಿಕಾರ	-10.9583
ೋಕಾಸ	-10.9583
▁ಪುರತ್ಥಿಮ	-10.9584
ವಿಧಿಂ	-10.9585
▁ದುಖ	-10.9585
▁ಖಿಪ್ಪ	-10.9587
ವಿಧಾನಂ	-10.9588
▁ಮುಣ್ಡ	-10.9592
▁ಪಿಟ್ಠಿತೋ	-10.9592
▁ಪಾರಗೂ	-10.9593
ವಿಭಾಗೋ	-10.9593
▁ನಾಥೋ	-10.9593
ಉಪಾದಾನವಿಪ್ಪಯುತ್ತ	-10.9599
▁ಲಭಿ	-10.96
▁ಆರಞ್ಞಿಕ	-10.96
▁ಗತೋತಿ	-10.9601
▁ಏಕಚ್ಚಂ	-10.9602
▁ನಿಬದ್ಧ	-10.9602
▁ಲಹುಕ	-10.9603
▁ಭವನ್ತ	-10.9604
ರಸ್ಸ	-10.9605
▁ಪೀತಿಸುಖಂ	-10.9606
ವಿಧಾ	-10.9608
▁ಮೇತ್ತಚಿತ್ತ	-10.9614
▁ತಿಣ್ಣ	-10.9614
▁ಓಳಾರಿಕಂ	-10.9615
▁ಪಞ್ಹಾವಾರೋ	-10.9616
▁ಬ್ರಾಹ್ಮಣೇ	-10.9619
▁ನಿಕನ್ತಿ	-10.9624
▁ಇಧಾಧಿಪ್ಪೇತ	-10.9628
▁ಮುದಿತಾ	-10.9628
▁ಕಾಯಗತಾಸತಿ	-10.9628
▁ಸರಣೋ	-10.9628
ವೀಸ	-10.9628
▁ಥಾವರ	-10.9629
▁ಅನುಗ್ಗಹ	-10.963
▁ಜಾತಿಯೋ	-10.963
▁ಮಿತ್ತಾ	-10.9631
▁ಪೂಜೇಸಿ	-10.9634
ಪುಟ	-10.9634
▁ಪಮಜ್ಜ	-10.9635
▁ಯೋನಂ	-10.9635
▁ಸಾಮಿಸ	-10.9638
ವಗ್ಗಸ್ಸ	-10.9639
▁ಉಪೇಕ್ಖ	-10.9645
ತ್ಥೋತಿ	-10.9645
▁ದಾಯ	-10.9646
▁ಸಮ್ಪಾದ	-10.9647
▁ಅನುಸ್ಸರತಿ	-10.9648
▁ಪರಿಬ್ಬಾಜಕಾ	-10.965
ಸಂಸಟ್ಠ	-10.9652
▁ಸತ್ತಸ್ಸ	-10.9654
ಕತಮಞ್ಚ	-10.9655
ಸಂಸಗ್ಗ	-10.9656
▁ಅಪ್	-10.9658
▁ಧುತ	-10.9664
▁ನಿಸಿನ್ನೇ	-10.9664
▁ಅನತ್ತ	-10.9665
▁ನಳ	-10.9666
ಸಮ್ಪದಾಯ	-10.9666
▁ವಿಪ್ಪ	-10.9668
▁೧೬೭	-10.9668
▁ಸತ್ತವಿಧ	-10.967
▁ಪಟಿಕ್ಖಿಪ	-10.967
▁ಅಧಿಗಮಾಯ	-10.967
▁ಸಮ್ಮನ್ತಿ	-10.967
▁ಪಾಚೀನ	-10.9674
▁ಅನುಚ್ಛವಿಕ	-10.9675
▁ಸಮ್ಪಜಾನ	-10.9675
ಖಿಲ	-10.9676
▁ಪೋಕ್ಖರ	-10.9677
▁ವಿಞ್ಞುತಂ	-10.9678
▁ಘಟ್ಟ	-10.9679
▁ರುಕ್ಖೇ	-10.9683
▁ಅಸಙ್ಖತಂ	-10.9683
▁ಸಂಯೋಜನಂ	-10.9685
ಮೇಘ	-10.9688
ಚ್ಚಾದಿನಾ	-10.9688
▁ಅಪ್ಪಹೀನಾ	-10.9688
▁ದಿಜ	-10.9691
▁ದುಗ್ಗತ	-10.9692
ಜೀವಿತಿನ್ದ್ರಿಯಞ್ಚ	-10.9693
▁ಯುಜ್ಝ	-10.9694
ತಾಲ	-10.9694
▁ಪವತ್ತನ	-10.9696
ವೀರ	-10.9696
▁ಮಚ್ಛರಿಯ	-10.9699
▁ವೇಪುಲ್ಲಾಯ	-10.9699
▁ಸಙ್ಖೇಪ	-10.9704
ದಿವಸತೋ	-10.9704
▁ಅಯನ್ತಿ	-10.9706
▁ಕಾಮಗುಣಾ	-10.9706
▁ಅನವ	-10.9706
▁ನಿಗಮ	-10.9707
ಹತ್ಥಾ	-10.9707
ಪಿಟಕ	-10.9707
▁ಖಾರ	-10.9711
ಅವಿಜ್ಜಾ	-10.9714
▁ಪಞ್ಞತ್ತಾ	-10.9715
ಚ್ಛಿ	-10.9715
▁ಪರಿಗ್ಗಹಿತ	-10.9716
ಳ್ಹ	-10.9716
ನಯಂ	-10.9719
▁ಅನುಞ್ಞಾತಾ	-10.9721
▁ಚರಮಾನೋ	-10.9722
▁ವಚನೀಯೋ	-10.9723
▁ಕೋಸಜ್ಜ	-10.9723
ಮಕ್ಖ	-10.9724
▁ಪದಭಾಜನೇ	-10.9725
ಾಪನಂ	-10.9728
▁ವೇದನಾಪಚ್ಚಯಾ	-10.9729
▁ಉಪೇಕ್ಖಕೋ	-10.9729
▁ಲಾಭಂ	-10.9731
▁ಖೀಣಾಸವಾ	-10.9732
▁ಅನಾಗಾಮಿಮಗ್ಗ	-10.9734
▁ದೇಸೇತ್ವಾ	-10.9737
ಪಟಿಪನ್ನ	-10.9738
▁ರುಕ್ಖಮೂಲೇ	-10.9738
▁ಅನುಪ್ಪನ್ನ	-10.974
ಕಪ್ಪಿಯ	-10.974
▁ಮಹಾಥೇರ	-10.974
▁ದುಕ್ಖಸಮುದಯೋ	-10.9742
▁ಸತಿಂ	-10.9745
▁ಕಙ್ಖತಿ	-10.9745
▁ಅರಿಯಸಚ್ಚಾನಿ	-10.9747
▁ದಿಟ್ಠಿಯೋ	-10.9747
▁ಕೂಟಾಗಾರ	-10.9747
▁ಪಭಸ್ಸರ	-10.9747
▁ಅದುಕ್ಖಮಸುಖಾ	-10.9748
ಾದೀನ	-10.975
▁ಪಚ್ಚತ್ತ	-10.9751
ವಿಹಾರೋ	-10.9753
ಪೀತ	-10.9753
▁ಪಕತ	-10.9756
▁ಮನಸೋ	-10.9758
▁ರೋಚ	-10.9758
ಸ್ಮ	-10.976
ನಾಮೋ	-10.976
▁ನಿಯತಾ	-10.9763
▁ಭೋಜನೀಯಂ	-10.9764
ನಿಯತ	-10.9764
▁ಸಪ್ಪುರಿಸೋ	-10.9765
▁ಪಾಮೋಜ್ಜಂ	-10.9767
ಯೋಜನಾ	-10.9768
ಸಮಙ್ಗಿನೋ	-10.9768
▁ವಿಭಾವನಿಯಂ	-10.9769
▁ಚಕ್ಖುನ್ದ್ರಿಯ	-10.977
▁ವಿರಜಂ	-10.9774
ವಾದಂ	-10.9776
ಸವ	-10.9778
▁ಪಲ್ಲಙ್ಕಂ	-10.9779
▁ಅಭಿಞ್ಞೇಯ್ಯಾ	-10.978
ವೀತಿಕ್ಕಮ	-10.978
▁ವತ್ಥುನಾ	-10.9782
▁ಸಮಾಹಿತೋ	-10.9782
▁ವನ್ದನ	-10.9783
ಸುಞ್ಞ	-10.9783
ದಸ್ಸನವಸೇನ	-10.9783
▁೧೫೨	-10.9784
ಸ್ಮಿಮ್ಪಿ	-10.9785
ನನು	-10.9785
▁ಯೋಧ	-10.979
ಮುಟ್ಠ	-10.9792
▁ಅಕಿರಿಯ	-10.9792
▁ಅಞ್ಞಾತ	-10.9796
▁ಪಹಾತಬ್ಬಹೇತುಕಾ	-10.9796
ಪಲ್ಲಙ್ಕ	-10.9797
▁ನಿವೇಸ	-10.9798
ಪರಿಯಾಯೇನ	-10.9802
ಸಿತಾ	-10.9803
▁ವಿದಿತಾ	-10.9803
▁ಗತಿಯಂ	-10.9805
▁ನಸಹೇತುಕ	-10.9808
ಗೀತ	-10.981
▁ಇಟ್ಠಾ	-10.9811
▁ಬ್ಯಾಕರೇಯ್ಯ	-10.9812
▁ಜಟಿಲ	-10.9814
▁ಭವರಾಗಾನುಸಯಂ	-10.9814
ತ್ಥೇರಸ್ಸಾಪದಾನ	-10.9815
▁೧೭೬	-10.9815
▁ಅಭೂತ	-10.9815
▁ನಿಸೀದನ	-10.9816
▁ಅಞ್ಞತರಾ	-10.9817
ಪಜ್ಜೋತ	-10.9818
▁ಇದಞ್ಹಿ	-10.9818
▁ದುಸ್ಸೀಲ	-10.9819
▁ಭಾವನಾಪಾರಿಪೂರಿ	-10.9819
▁ಪರಿಚ್ಛಿನ್ದಿತ್ವಾ	-10.982
▁ಗನ್ತ್ವಾನ	-10.9821
▁ತಿಕಿಚ್ಛ	-10.9822
▁ರೂಪಧಾತು	-10.9823
▁ಅಚ್ಛರಿಯ	-10.9824
ತ್ಥರಣ	-10.9825
▁ಅನುಸ್ಸಾವನ	-10.9825
ಸಞ್ಞಿತಾ	-10.9828
▁ಆವುಧ	-10.9829
▁ರೂಪೇನ	-10.9831
▁ದುಕ್ಕರಂ	-10.9833
▁ದುಮ	-10.9839
ಟಕ	-10.9841
▁೧೬೨	-10.9842
▁ನಪುಂಸಕೇ	-10.9842
ಾಯಸ್ಮಾ	-10.9842
ಗುಣೇ	-10.9842
▁ವಿಪಾಕಸ್ಸ	-10.9844
▁ಸೋಧ	-10.9845
▁ಗಚ್ಛನ್ತೀತಿ	-10.9846
▁ವಿಧಿ	-10.9847
ಿನಿಯಾ	-10.9848
▁ಸಮ್ಮುಖಾವಿನಯೇನ	-10.9849
▁ನಿದ್ದಿಟ್ಠಾ	-10.985
▁ಬಹಲ	-10.985
▁ಪರಿಞ್ಞಾತ	-10.9851
▁ಪವಾರಿತ	-10.9851
▁ಉಟ್ಠಾನ	-10.9851
▁ಲೋಮ	-10.9851
▁ಪಾಪಕಾನಂ	-10.9852
ಮೂಲಕಾ	-10.9854
▁ತುಚ್ಛ	-10.9854
▁ಖುರ	-10.9859
▁ಕಣ್ಡ	-10.9859
▁ಪಚ್ಚೇಕ	-10.9859
▁ಛಳಭಿಞ್ಞಾ	-10.986
ಕಮ್ಮೇನ	-10.9861
▁ವೀತಿವತ್ತ	-10.9862
▁ಪಾತೋವ	-10.9862
▁ಗೀತ	-10.9863
ದಾಮ	-10.9863
▁ಸತಿಸಮ್ಪಜಞ್ಞ	-10.9866
▁ಲೋಕವಿದೂ	-10.9867
▁ಪೀಠ	-10.9867
▁ಧಮ್ಮಾನುಪಸ್ಸೀ	-10.9869
▁ಪಾತುಭಾವೋ	-10.987
▁ಧೀ	-10.987
ನಮೇವ	-10.987
ಸಲಾಕ	-10.9871
ತ್ಥೇರೇನ	-10.9873
▁ಛಿದ್ದ	-10.9874
ರಹಿತೋ	-10.9874
ಮುಟ್ಠಿ	-10.9874
▁ಯಸ್ಸಾತಿ	-10.9874
ಯನ್ತೀತಿ	-10.9875
ಥಮ್ಭ	-10.9875
ಚಿತ್ತುಪ್ಪಾದ	-10.9875
ಘನ	-10.9879
▁ಲತಾ	-10.9882
▁ಭಾಗ	-10.9884
▁ಕಿಚ್ಛ	-10.9887
▁ವಿರಜ್ಜ	-10.9888
▁ಬದ್ಧೋ	-10.989
ಪತ	-10.9891
▁ಇತ್ಥಿಯಂ	-10.9891
ಾಭಿನಿವೇಸ	-10.9892
▁ಸದ್ಧಿನ್ದ್ರಿಯ	-10.9893
▁ಗಜ್ಜ	-10.9895
▁ಪಮಾದೋ	-10.9896
▁ಅಚ್ಛರಿಯಂ	-10.99
▁ಸತಾನಿ	-10.99
▁ಇದಮಸ್ಸ	-10.99
▁ಅಸಕ್ಕುಣೇಯ್ಯ	-10.9902
▁ಅದ್ಧಾನ	-10.9903
▁ಪತಿಟ್ಠಿತಂ	-10.9903
▁ತಾಸ	-10.9905
▁ಪಿವಿತ್ವಾ	-10.9907
▁೧೬೯	-10.9907
▁ಸೀಲಸ್ಸ	-10.9907
▁ಪನ್ಥ	-10.9907
▁೧೭೪	-10.9907
▁೧೭೯	-10.9907
ೋಭಾಸ	-10.9908
▁ಮಮಾಯ	-10.9909
ೇಸ್ವ	-10.9909
▁ಸೋಮನಸ್ಸೇನ	-10.9911
▁ವೀತಿಸಾರೇತ್ವಾ	-10.9911
▁ಕೇಸಞ್ಚಿ	-10.9912
▁ನಿಕ್ಖಮ್ಮ	-10.9912
▁೧೭೦	-10.9912
▁ವಿಸಯೋ	-10.9913
ುಪೇಕ್ಖಾ	-10.9913
ೇತ್ವಾತಿ	-10.9915
▁ಗನ್ಧಾ	-10.9915
▁ಕಾಮಾವಚರಾನಂ	-10.9915
▁ಸಾತ	-10.9916
▁ಪರಿಚಾರ	-10.9916
▁ವತ್ಥಾನಿ	-10.9918
▁ಫುಸತಿ	-10.9919
ಸಞ್ಚೇತನ	-10.9923
▁ಸುವಿಞ್ಞೇಯ್ಯ	-10.9926
▁ಯಥಾರುಚಿ	-10.9926
▁ಬೋಧಿಸತ್ತಂ	-10.9928
▁ಪತ್ತಚೀವರಂ	-10.9929
ಣ್ಣವ	-10.993
▁ವೀತರಾಗ	-10.993
▁ವಪ	-10.993
▁ಪಟ್ಠಾನ	-10.9931
ದಿಬ್ಬ	-10.9932
▁ಹತ್ಥೇಹಿ	-10.9932
▁ಇಚ್ಚೇವಂ	-10.9933
▁ವದೇತಿ	-10.9933
▁ಪಾತೋ	-10.9937
▁ಸೋತಾಪತ್ತಿಫಲಂ	-10.9937
▁ಸಂವಚ್ಛರ	-10.9937
ಪದಟ್ಠಾನ	-10.9939
▁ಪಟಿಪಾದ	-10.994
ಾಗಮ	-10.994
▁ಕತಮ	-10.9941
ಮುತ್ತಮ	-10.9941
▁ನಿಬ್ಬತ್ತತಿ	-10.9942
ಬ್ಬಂ	-10.9946
▁ಪಞ್ಚಕ್ಖನ್ಧಾ	-10.9947
▁ಸಯಮ್ಪಿ	-10.9947
▁ಫುಸೇ	-10.9948
ದುಬ್ಬಲ	-10.9948
▁ಪುರಿಸೇ	-10.9949
▁ನಾಞ್ಞ	-10.9949
▁ಥದ್ಧ	-10.995
ಮುದ	-10.9953
▁ಅಸಮತ್ಥ	-10.9953
ಪಞ್ಞತ್ತ	-10.9953
▁ಉಯ್ಯಾನಂ	-10.9956
▁ಮಣ್ಡಲ	-10.9956
ದನ್ತೋ	-10.9956
ತೇಯ್ಯ	-10.9958
▁ನಪುಂಸಕ	-10.9959
ಾಚಯಗಾಮಿನಾಪಚಯಗಾಮಿ	-10.996
ಸುತ್ತವಣ್ಣನಾಯ	-10.996
▁ಸುಖುಮಂ	-10.9961
ಿಮಾನಿ	-10.9962
ವಿಚಿತ್ತ	-10.9963
▁ಕಾಮಚ್ಛನ್ದೋ	-10.9963
▁ಫರಣ	-10.9963
▁ಚೋದೇತಿ	-10.9964
▁ವಿನಿ	-10.9966
▁ಇತ್ಥಿನ್ದ್ರಿಯಞ್ಚ	-10.9966
ಸದ್ಧಮ್ಮ	-10.9967
೧೮	-10.9969
▁ಉಸ್ಸನ್ನ	-10.997
▁ಧಾ	-10.997
▁ಸುಭದ್ದ	-10.9972
ವಿಚಾರ	-10.9973
ಗುಹ	-10.9974
▁ಕಾರೇ	-10.9974
ಮತ್ತಕ	-10.9976
▁ಧಮ್ಮಕಥಿಕ	-10.9976
▁ತಜ್ಜಾ	-10.9979
▁ಪರಿವತ್ತನ	-10.9979
▁ನಿಬ್ಬತ್ತೇತ್ವಾ	-10.998
ವಿರ	-10.9982
▁ಪತ್ಥನಂ	-10.9983
ಮತ್ಥಿ	-10.9984
▁ಪಚ್ಛಿಮಾ	-10.9986
▁ಭವನ್ತಂ	-10.9987
▁ಯಥಾಭೂತ	-10.9987
▁ಗನ್ತಬ್ಬೋ	-10.9988
ೂಪಚಾರ	-10.9989
▁ನನ್ದಿ	-10.999
▁ಪರಿಚ್ಚತ್ತ	-10.999
▁ಅನಿಚ್ಚತಾ	-10.999
ಸುನ್ದರ	-10.9991
ಸಿನೇಹ	-10.9993
▁ಪಞ್ಞತ್ತೇ	-10.9998
▁ಅಭಿನಿ	-11.0001
▁ನಟ್ಠ	-11.0005
▁ಸಮನ್ನಾಗತೋತಿ	-11.0005
▁ಗಹಟ್ಠ	-11.0006
ಮನುಯುತ್ತೋ	-11.0007
▁ಫಲಕ	-11.0007
▁ತದೇಕಟ್ಠ	-11.0008
▁ಮಹಾಪುರಿಸೋ	-11.0008
▁ಮನೋವಿಞ್ಞಾಣಂ	-11.0009
▁ಸವ	-11.0009
▁ಠಪೇತುಂ	-11.001
▁ಪಸ್ಸಿ	-11.0012
▁ತೀ	-11.0014
▁ಸಮನ್ನಾಗತತ್ತಾ	-11.0015
▁ಯೋಪಿ	-11.0015
▁ಉಪೇಕ್ಖಾಸಹಗತಾ	-11.0016
▁ಅಸ್ಮಾ	-11.0016
▁ಕಾಮಾವಚರಕುಸಲ	-11.0017
▁ಸೇನಂ	-11.0017
▁ಉಪಲಬ್ಭತೀತಿ	-11.0018
▁ಧಮ್ಮಸೇನಾಪತಿ	-11.002
▁ಅಗ್ಗಸಾವಕಾ	-11.002
ದಾಯಕತ್ಥೇರಅಪದಾನ	-11.0021
▁ಉದ್ದಿಸಿತ್ವಾ	-11.0022
ಗಹಿತ	-11.0027
▁ಆಕಙ್ಖ	-11.0027
ಗ್ಘನಕ	-11.0028
▁ಬುದ್ಧೇನ	-11.0028
▁ಇರಿಯ	-11.0034
ವಿಮಾನಂ	-11.0035
▁ಸುಞ್ಞತೋ	-11.0036
▁ಆಧಾರ	-11.0038
▁ಪಞ್ಚವೀಸತಿ	-11.0038
ಾವುಧ	-11.0039
ಕರಣವಸೇನ	-11.0041
ಭುಞ್ಜ	-11.0042
ರಾಧ	-11.0042
▁ಪಿದಹ	-11.0045
ಲೇ	-11.0046
ಭಾಣವಾರ	-11.0047
▁ಆರಮ್ಮಣೇಸು	-11.0049
▁ರಜ್ಜು	-11.0049
ವಾಸಂ	-11.0051
▁ನಿರೋಧಧಮ್ಮ	-11.0051
▁ನಿಧಿ	-11.0052
▁ಮಾಲ	-11.0055
▁ಪಪತ	-11.0056
▁ಭೀತೋ	-11.0056
▁ಸಯಮ್ಭೂ	-11.0056
▁ಅನಿದಸ್ಸನ	-11.0058
▁ಅಬ್ಯಾಕತಞ್ಚ	-11.0059
▁ಸುಭಾಸಿತ	-11.006
▁ಪಟಿಪತ್ತಿಯಾ	-11.0061
ಚಾರಿಕ	-11.0061
▁ಪಚ್ಚವೇಕ್ಖಿತ್ವಾ	-11.0061
▁ಬುಜ್ಝನ್ತೀತಿ	-11.0062
ೇವಾತಿ	-11.0063
ಕ್ಖಿಪ	-11.0064
▁ನಿನ್ದ	-11.0064
▁ಉಗ್ಗಹೇತ್ವಾ	-11.0064
▁ದ್ವಾರೇಸು	-11.0065
▁ಏಕೋಪಿ	-11.0065
ಸದ್ದಾನಂ	-11.0065
▁ಸನ್ತಾನ	-11.0069
▁೧೬೪	-11.007
▁ತುಲ	-11.007
▁ಠಪಿತೋ	-11.0071
▁ಕಾಸಿ	-11.0071
ಪಕ	-11.0073
▁ಯಂನೂನಾಹ	-11.0074
▁ಅನನು	-11.0074
▁ಕಮ್ಮನಿ	-11.0077
▁ಚಿತ್ತವಿಪ್ಪಯುತ್ತ	-11.0078
▁ಚರೇಯ್ಯ	-11.0079
ಗಣ್ಹ	-11.0079
▁ಬ್ಯತ್ತ	-11.0082
▁ಪತಿಟ್ಠಹ	-11.0082
▁ಕರೋನ್ತೀ	-11.0084
▁ಏಕಂಸೇನ	-11.0084
▁ಆರಮ್ಮಣತೋ	-11.0084
ೀಧ	-11.0088
▁ಗಮ್ಭೀರೋ	-11.0091
ಪ್ಪವತ್ತಿಯಾ	-11.0092
▁ಯಾಪನ	-11.0093
ಕೇಸ	-11.0093
ಅಪ	-11.0094
▁ಖುದ್ದ	-11.0095
▁ದುಕ್ಖಸಚ್ಚ	-11.0099
ಅಕುಸಲ	-11.0099
▁ನಿದ್ದಿಸಿತಬ್ಬ	-11.01
▁ಪಯೋಗೋ	-11.01
▁ಸಕ್ಕಾರಂ	-11.0102
▁ವಿರಾಗೋ	-11.0102
▁ಯೋನಿಸೋಮನಸಿಕಾರ	-11.0104
▁ಪಕ್ಖೀ	-11.0105
▁ಗಹಪತಯೋ	-11.0105
ತುರ	-11.0105
ವಿಭಙ್ಗೋ	-11.0107
ೂಹಿ	-11.0107
▁ದಿಬ್ಬಂ	-11.0108
ವುದ್ಧಿ	-11.0111
ಸಂಸಾರ	-11.0113
▁ಅಪಸ್ಸ	-11.0114
▁ಕಾಲಙ್ಕತೋ	-11.0115
ಸಮ್ಮಾದಿಟ್ಠಿ	-11.0117
▁ಏಕೇಕಸ್ಮಿಂ	-11.0117
▁ವಿಕ್ಕ	-11.0119
▁ಆಗತತ್ತಾ	-11.0122
▁ಸುತ್ತನ್ತೋತಿ	-11.0122
▁ಪಟಿಘಾನುಸಯಂ	-11.0123
▁೧೬೬	-11.0123
▁ವಿಹೇಠ	-11.0124
ಮಿತ್ತೋ	-11.0125
ಗಮನೇ	-11.0125
ಸಙ್ಘಾದಿಸೇಸ	-11.0125
▁ಕಲಲ	-11.0127
▁ವೇದನಾಕ್ಖನ್ಧ	-11.0127
ಸನ್ನ	-11.0128
▁ಅಞ್ಞಮಞ್ಞಸ್ಸ	-11.0129
▁ಪಜಾನಾತೀ	-11.0132
▁೧೭೩	-11.0136
▁ಉಯ್ಯಾನ	-11.0137
▁ಜಾತೇ	-11.0138
▁ಪಧಾನಂ	-11.0138
▁ಸಿರೀ	-11.0139
▁ಅಕುಸಲೇಹಿ	-11.014
ನೋತಿ	-11.0144
ಮಕಂಸು	-11.0144
▁ವೇಳುರಿಯ	-11.0145
ನ್ತರಾಯ	-11.0146
▁ಉಕ್ಕ	-11.0146
▁ಉಚ್ಚಾರ	-11.0146
▁ವಗ್ಗಾ	-11.0147
ವತ್ಥಾ	-11.0148
▁ಅಮ್ಬಟ್ಠ	-11.0149
▁ಪೋತ್ಥಕ	-11.015
ಜವ	-11.0152
▁ಕಾಮವಿತಕ್ಕ	-11.0152
▁ಚಿತ್ತನ್ತಿ	-11.0153
ವಿಪ್ಫಾರ	-11.0153
▁ಘಾನಾಯತನಞ್ಚ	-11.0154
▁ಜನ್ತಾಘರ	-11.0154
▁ಬ್ರಹ್ಮೇ	-11.0156
ಿಸ್ಸನ್ತೀತಿ	-11.0156
▁ಆತುರ	-11.0157
▁ಏತ್ಥೇವ	-11.0157
▁ಸಾತಂ	-11.0158
ವಿದೂ	-11.0159
ವಿರಹಿತೋ	-11.016
ಮಧಿ	-11.016
▁ತಬ್ಬ	-11.0161
ುಪಗ	-11.0165
ಾದೀನಮ	-11.0167
ವಿಪ್ಪಯುತ್ತಪಚ್ಚಯಾ	-11.0168
▁ಅನುಪಾದಾಯ	-11.0168
▁ಫುಟ್ಠೋ	-11.0169
▁ಪಾರಿಪೂರಿಯಾ	-11.017
▁ಅಪಸ್ಸನ್ತೋ	-11.0172
ಪಣೀತ	-11.0175
▁ದುತಿಯಸ್ಸ	-11.0179
▁ಅದಿಟ್ಠ	-11.0181
▁೧೭೫	-11.0181
▁ಪೋರಾಣಕ	-11.0182
▁ಸಙ್ಘಭೇದ	-11.0183
ಲಸ	-11.0185
▁೧೭೨	-11.0186
▁ಆಪತ್ತೀತಿ	-11.0186
▁ಪಠಮಮಗ್ಗ	-11.0187
▁ಸೀಮ	-11.019
▁ಮನೋದ್ವಾರೇ	-11.0191
▁ಸಮ್ಪಹಂಸ	-11.0191
▁ದಾನೇ	-11.0192
▁ಸಕಾಯ	-11.0193
ಿಸ್ಸಸೀ	-11.0195
▁ಆಯೂಹನ	-11.0195
▁ಯಾಚಿತ್ವಾ	-11.0197
ಾಧಿಕರಣ	-11.02
▁ಅಸಿತ	-11.0202
▁ಅರಣಂ	-11.0203
▁ನ್ಹಾಯ	-11.0204
▁ಸೋಕಪರಿದೇವದುಕ್ಖ	-11.0204
▁ಇತ್ತರ	-11.0204
ವಿಸುದ್ಧಿ	-11.0204
ಬಾಹು	-11.0205
▁ಗನ್ಥೋ	-11.0208
ಿಸ್ಸಥ	-11.0209
ಪಞ್ಚಕಂ	-11.021
▁ಅಟ್ಠನ್ನಂ	-11.0211
▁ಪಟಿಸಞ್ಚಿಕ್ಖತಿ	-11.0212
▁ಅಧಿಟ್ಠಾನಂ	-11.0214
▁ಸಕ್ಕಾರ	-11.0218
▁ಕಲಿ	-11.0224
ಕಿತ್ತಿ	-11.0226
▁ತ್ವಮ್ಪಿ	-11.0226
▁ಪರಾಮಸತಿ	-11.0228
ನಿಯಾ	-11.0229
▁೧೭೮	-11.0229
▁ಉಪ್ಪಜ್ಜ	-11.0231
ವೋಹಾರೋ	-11.0232
ಮೋಚನ	-11.0233
ದಿಟ್ಠೀ	-11.0233
▁ಕಿಲೇಸಕಾಮ	-11.0234
▁ಓಸಧ	-11.0234
▁ಅಞ್ಞಾಸಿ	-11.0236
ಏಕನವುತಿ	-11.0236
ಗುಮ್ಬ	-11.0239
ಸಂಸನ್ದನ	-11.024
▁ನಿಕ್ಖಮನ್ತ	-11.024
ಧಮ್ಮೇನ	-11.0241
▁ಆಚಯಗಾಮಿ	-11.0242
▁ಗಣ್ಹಿತ್ವಾ	-11.0243
▁ತಚ್ಛ	-11.0244
ಅಪರ	-11.0245
▁ಹೇತುನಾ	-11.0245
▁ಅಭಿಣ್ಹಂ	-11.0246
▁ಕುಸಲಮೂಲ	-11.0248
▁ಸಾವತ್ಥಿ	-11.0248
▁ಹನತಿ	-11.0252
▁ಏಕೂನವೀಸತಿ	-11.0254
▁ತುಟ್ಠೋ	-11.0257
▁ಪೂಜಿತೋ	-11.0258
▁ಓಟ್ಠ	-11.0258
▁ಪಾಪಿಕಾ	-11.0258
▁ಸುಚರಿತಂ	-11.0261
▁ಅಸ್ಸೋಸಿ	-11.0264
▁ಉದ್ದಿಟ್ಠ	-11.0265
▁ಫಸ್ಸಂ	-11.0265
▁ಆರಞ್ಞಕ	-11.0266
▁ವೋದಾನ	-11.0269
▁ಆಸೀವಿಸ	-11.027
ಿತ್ಥೀ	-11.027
▁ವಿರಾಗಾಯ	-11.0271
▁ಅಙ್ಗುಲಿ	-11.0274
▁ವಟ್ಟನ್ತಿ	-11.0275
▁ನಿಬ್ಬಿನ್ದ	-11.0278
ನ್ತರಾ	-11.0278
ಪರಿಯೋಸಾನಂ	-11.0279
▁೧೬೮	-11.0279
ಪರಾಯಣ	-11.0282
ೀಕತ	-11.0283
ಹೇತುಕಂ	-11.0283
ಸದಿಸೇ	-11.0284
▁ಪೋಕ್ಖರಣೀ	-11.0286
▁ಪಟ್ಠಪ	-11.0286
ಯಾಚ	-11.0287
ಹಚ್ಚ	-11.0288
▁ಸಕಲಸರೀರ	-11.0289
ಸಮುಟ್ಠಿತ	-11.029
▁ಆಯತ	-11.029
▁ದೇವತಾಯ	-11.0291
▁ಮುಸಾವಾದಾ	-11.0291
ಟಾ	-11.0292
ಪ್ಪಕರಣ	-11.0294
▁ಮರಿಯಾದ	-11.0295
▁ಸಮ್ಪಯೋಗ	-11.0295
▁ದೇವದತ್ತ	-11.0298
▁ಪಾಣಾ	-11.0302
▁ಸೋಭತಿ	-11.0303
ೇತ	-11.0304
▁ಸೋತಧಾತುಯಾ	-11.0308
▁ಖನ್ಧೇಸು	-11.0308
▁ಚೇತನಾಯ	-11.031
▁ಸರಾಗ	-11.0311
ಬೀಜಂ	-11.0312
▁ಸಮಾದಾನ	-11.0313
ಾಧಿಪ್ಪಾಯೇನ	-11.0313
▁ಸೇವಿತಬ್ಬೋ	-11.0314
▁ಸಬ್ಬಾಕಾರೇನ	-11.0315
▁ಸಮ್ಪಜಾನಮುಸಾ	-11.0316
ಭಾವಾಯ	-11.0316
▁ಪದತ್ಥ	-11.0317
▁ಅರೂಪಂ	-11.0317
ಕಣ್ಡಂ	-11.0317
ುನೋ	-11.0319
▁ಚನ್ದಿಮಾ	-11.0319
ಪಾದೇ	-11.0319
ವು	-11.032
▁ಹೀನಾ	-11.0321
ಟೀಕಾ	-11.0324
ಖೇತ್ತ	-11.0324
▁ಪಾಪುಣನ್ತಿ	-11.0328
▁ಪಟಿಗ್ಗಹಣ	-11.033
▁ವಿರಮ	-11.0331
▁ಸೂಲ	-11.0333
▁ಅಸ್ಸಮಂ	-11.0334
▁ಆನುಭಾವೇನ	-11.0334
ಯಾನಿ	-11.0335
▁ಚುತಸ್ಸ	-11.0335
ಸ್ಸಸಿ	-11.0337
▁ಅನಿಯತ	-11.034
ತತಿಯ	-11.0342
▁ಏಳಕಲೋಮ	-11.0343
▁ದಿಟ್ಠಾ	-11.0346
▁ಸ್ನೇಹ	-11.0346
▁ಖಯಂ	-11.0347
ಚಿತ	-11.0348
▁ಸಮ್ಮಾಆಜೀವೋ	-11.0351
▁೧೮೪	-11.0352
▁ದುಲ್ಲಭ	-11.0353
▁ತುಣ್ಹಸ್ಸ	-11.0353
▁ವನ್ತ	-11.0354
▁ಸಙ್ಖ್ಯಂ	-11.0355
ಹಿತ್ವಾ	-11.0357
▁ವಿಸಜ್ಜ	-11.0359
▁ಅತ್ಥಪಟಿಸಮ್ಭಿದಾ	-11.0359
▁ನಿಸೇಧ	-11.036
▁ದೋಮನಸ್ಸಸಹಗತ	-11.0361
ಬ್ಭನ್ತರೇ	-11.0361
ಇಮಾಯ	-11.0362
ಪ್ಪಸಙ್ಗ	-11.0366
ವಿಭವ	-11.0366
ವೀರಿಯಂ	-11.0367
ದಾರಕ	-11.037
ನಾನತ್ತಂ	-11.0371
ಧಮ್ಮೇಹಿ	-11.0371
▁ಅಕುಸಲೇ	-11.0372
▁ಪೂಜಂ	-11.0374
▁ಪಗ್ಗಣ್ಹಾತಿ	-11.0379
ಙ್ಗುಲಿ	-11.0379
▁ಪದಾ	-11.038
▁ಪಸ್ಸೇ	-11.0381
▁ಅಚ್ಛಿನ್ನ	-11.0383
▁ಆವಾಸ	-11.0386
▁ಅರಹತ್ತೇ	-11.0386
▁ಸೋಳಸಹಿ	-11.0388
▁ಗಚ್ಛನ್ತ	-11.0393
▁ಆಯತನಂ	-11.0397
ಕೋಸ	-11.0398
▁ಮನಾಪಂ	-11.0399
▁ಸೀಲಸಮ್ಪನ್ನೋ	-11.04
▁ಉಪಾಹನಾ	-11.0401
ತಕ್ಕ	-11.0403
▁ಸಮುಚ್ಛಿನ್ದ	-11.0403
▁೧೮೧	-11.0404
ಪಾಕಾರ	-11.0406
▁ದ್ವಿನ್ನಮ್ಪಿ	-11.0407
▁ಲಭತೀತಿ	-11.0409
▁ಗನ್ಥಸಮ್ಪಯುತ್ತ	-11.0409
▁ನನ್ದೀ	-11.0409
ಭೂತಾನಂ	-11.0411
▁ಸೀತಲ	-11.0412
ಪಲ	-11.0412
▁ಅತ್ತಭಾವೋ	-11.0412
▁ಭುಞ್ಜಿತುಂ	-11.0412
▁ಛಾದೇತಿ	-11.0413
೧೬	-11.0413
▁ಪಬ್ಬತಂ	-11.0414
▁೧೬೩	-11.0414
ದಾನಿ	-11.0414
▁ರೂಪನ್ತಿ	-11.0414
▁ಮಾತುಕುಚ್ಛಿ	-11.0417
▁ನಿಯ್ಯಾನಿಕಂ	-11.0419
▁ಪಞ್ಚವಿಧ	-11.0419
▁ಖೀಣಾ	-11.042
▁ಗಮಿಸ್ಸ	-11.042
ಚಾ	-11.042
ಬ್ಯತ್ತ	-11.0421
ಾನುರೂಪ	-11.0425
▁ಪಚ್ಚತ್ಥಿಕ	-11.0425
▁ಪಣ	-11.0427
ಸತೇ	-11.0431
▁ವಿಪಸ್ಸಿ	-11.0432
▁ತಮೋ	-11.0432
ಕತ್ತ	-11.0433
▁ಸಪತ್ತ	-11.0433
▁ಗಹಿತೇ	-11.0437
ಕಮ್ಮಾ	-11.0439
▁ಸಙ್ಗಹಿತಂ	-11.0439
ಸಮಾಚಾರ	-11.0439
▁ಉಪಪನ್ನೋ	-11.0441
▁ಪಾರಿ	-11.0441
ಾರಮ್ಮಣೋ	-11.0442
ತುಮ್ಹೇ	-11.0442
ವಸ್ಸಿಕ	-11.0443
ಸಂಹಿತ	-11.0444
▁ಸಿಪ್ಪಂ	-11.0446
ೂಪಾಯ	-11.0449
▁ಕ್ರಿಯ	-11.045
▁ವಿವಿಚ್ಚ	-11.045
ಸಮಥ	-11.0451
▁ಪಟಿಸಲ್ಲಾನ	-11.0452
▁ಆರುಯ್ಹ	-11.0454
ುಸ	-11.0454
▁ಅಗಾರ	-11.0454
ಗ್ಗಣ್ಹ	-11.0456
▁ಗೋಚರೋ	-11.0458
ಪುರೇಕ್ಖಾರ	-11.046
▁ತೀಸುಪಿ	-11.0461
▁ತುಯ್ಹ	-11.0462
▁ಪಸವ	-11.0462
▁ಮಹಾವೀರೋ	-11.0465
▁ಛಾಯಾ	-11.0466
▁ಅಬ್ಯಾಪಜ್ಜ	-11.0467
▁ತೀರಂ	-11.0467
▁ಉಭಯಂ	-11.0467
▁ಪಟಿಲಭಿತ್ವಾ	-11.0468
ವಿಮಾನ	-11.0469
▁ಅಪ್ಪಕ	-11.0469
ಪರಿಸಂ	-11.047
ಮಣ್ಡಿತ	-11.0471
▁ಪತಿಟ್ಠಾತಿ	-11.0471
▁ಞಾತೀನಂ	-11.0472
▁ಸಮ್ಭವನ್ತಿ	-11.0472
▁ಕುಪ್ಪತಿ	-11.0472
ಮಧು	-11.0473
▁ತಿವಿಧೇನ	-11.0473
▁ತತ್ಥಾಪಿ	-11.0477
ವಿಸಮ	-11.0478
▁ಮಜ್ಝಿಮೋ	-11.0478
▁ಆಸವವಿಪ್ಪಯುತ್ತೋ	-11.0479
ಕಥನ	-11.0479
▁ಪಾರಿವಾಸಿಕ	-11.0479
▁ದಾರಕಾ	-11.048
ಚಿರ	-11.048
ಮೋಗ್ಗಲ್ಲಾನ	-11.0482
▁ದತ್ವಾನ	-11.0482
▁ಬ್ಯಞ್ಜನಂ	-11.0484
▁ಥೇರೀ	-11.0484
▁ಕರೋನ್ತೇನ	-11.0484
▁ಏತಾಯ	-11.049
ತೀರ	-11.049
▁ಸಪ್ಪಚ್ಚಯ	-11.0493
▁ಆದಿನಾ	-11.0493
▁ಭವನ್ತೋ	-11.0494
▁ತಪ್	-11.0494
ೂನಂ	-11.0495
▁ಬುದ್ಧವಚನಂ	-11.0497
▁ಉದ್ದೇಸಂ	-11.0498
ತಲಂ	-11.0501
▁ದುಕ್ಖಸ್ಸನ್ತ	-11.0503
▁ಲೋಕನಾಯಕೋ	-11.0504
▁ಪಕ್ಖಿ	-11.0504
▁ಯಥಯಿದಂ	-11.0504
▁ತುಲಾ	-11.0504
▁ಮಹಾಸತ್ತಸ್ಸ	-11.0505
▁ಅನ್ತರನ್ತರಾ	-11.0505
▁ನುಪಲಬ್ಭತಿ	-11.0505
▁ಉತುಸಮುಟ್ಠಾನಂ	-11.0505
▁ಲಭೇಯ್ಯ	-11.0506
ಪಥವೀ	-11.0508
▁ಗಹಪತಿಪುತ್ತ	-11.0509
▁೧೮೦	-11.0511
ಟ್ಠಕಥಾಯಂ	-11.0511
▁ಸಮಾಧಿಸ್ಸ	-11.0511
ಪರಿಕಮ್ಮ	-11.0511
▁ಆಚಯಗಾಮೀ	-11.0512
▁ಸುಲಭ	-11.0512
ಕಟ	-11.0513
▁ಪಜಾನನ್ತಿ	-11.0513
▁ಸಾಧೇತಿ	-11.0513
ಗತಸ್ಸ	-11.0514
▁ಮಿಗಾ	-11.0518
ಾದೀನಮ್ಪಿ	-11.0519
▁ಅಕತಂ	-11.0521
▁ಏತಮ್ಪಿ	-11.0524
ಾಪಯತಿ	-11.0524
▁ಜನಪದೇ	-11.0524
▁ನಾಲಂ	-11.0526
▁ಇಣ	-11.0526
▁ವತ್ತಬ್ಬತ್ತಾ	-11.0527
▁ಸಮನುಪಸ್ಸ	-11.0527
▁ವಿಞ್ಞೂನಂ	-11.0527
ಇಚ್ಚೇತೇ	-11.0528
▁ಮನಾಯತನಞ್ಚ	-11.0529
ಹಮಸ್ಮಿ	-11.0529
▁ಅಭಾವಿತ	-11.053
▁ಯಥೇವ	-11.053
ಗಞ್ಛಿ	-11.0533
ನಕಾಲೇ	-11.0534
ಾದ	-11.0543
▁ನಿರೋಧಾಯ	-11.0545
▁ನಿಮನ್ತ	-11.0546
ದಾಸಿ	-11.0548
ಅಗ್ಗಿ	-11.0548
ಸನ್ನಿಭ	-11.0549
▁ಗನ್ತಬ್ಬ	-11.0549
ವಿಹಿತ	-11.055
▁ಬಾಹಿರಾ	-11.055
▁ದಾಸಿ	-11.0551
ಟ್ಠಾನೇಸು	-11.0551
ಮೋಚ	-11.0552
▁ನಕಾಮಾವಚರ	-11.0552
ಗಮಾ	-11.0554
ಘರಂ	-11.0554
ಸೀತ	-11.0554
▁ವೇಸಾಲಿಯಂ	-11.0555
▁ಖಯೋ	-11.0555
▁ಅನಭಾವಂ	-11.0556
▁ಆಮನ್ತೇತ್ವಾ	-11.0558
▁ನಾನತ್ತಂ	-11.056
ಿಚ್ಚ	-11.0561
ಲಿತ್ತ	-11.0562
▁ನಿಪನ್ನೋ	-11.0562
ಪಟಿಭಾನ	-11.0562
▁ಸಂವಟ್ಟ	-11.0563
▁ಸತ್ತಧಾ	-11.0564
▁ವಿಞ್ಞಾಪೇ	-11.0565
▁ಬಹುಕ	-11.0565
ಸಂಸಯ	-11.0567
▁ಆನಿಸಂಸೋ	-11.0567
▁ವೇದಿಯ	-11.0568
▁ಹೋನ್ತ	-11.0568
ಏಕಂ	-11.0568
▁ವಿನಿಚ್ಛಯಂ	-11.0569
ಮರಣಂ	-11.0569
▁ಥಿನಮಿದ್ಧಂ	-11.057
▁ಸೀಲಕ್ಖನ್ಧ	-11.057
▁ಅದಿನ್ನಾದಾನಾ	-11.0571
▁ನರೂಪಾವಚರ	-11.0572
▁ಪುಟ್ಠಾ	-11.0572
▁ಅಕುಸಲಞ್ಚ	-11.0574
ಾರಮ್ಭ	-11.0576
ಮ್ಪೀ	-11.0576
▁ಹನ್ತ್ವಾ	-11.0577
ಕಸ್ಸಪ	-11.0577
▁ಗಿಹೀನಂ	-11.0579
▁ಸಬ್ಬತ್ಥಾತಿ	-11.058
ಕಿಚ್ಛ	-11.058
▁ಅಞ್ಞೇಸು	-11.058
ಚ್ಛನ್ದ	-11.058
ಕಮ	-11.0581
ನ್ದಿ	-11.0582
ಾಸನ್ನ	-11.0583
▁ಅಯ್ಯಾ	-11.0584
▁ದುಸ್ಸೀಲ್ಯ	-11.0585
ಸೂರಿಯ	-11.0585
▁೧೭೭	-11.0587
▁ದುಕ್ಕಟಮೇವ	-11.0588
ವಿಘಾತ	-11.0588
ರತ	-11.0595
ದ್ದಿ	-11.0596
▁ಗಹಣೇ	-11.0596
ುಪಟ್ಠಾನ	-11.0598
▁ದಿನ್ನಾ	-11.06
ಸಮುದಾಯ	-11.0601
ಕೋಪ	-11.0603
▁ದೇತೀತಿ	-11.0606
ಪಟಿಕ್ಖೇಪ	-11.0606
▁ಪುಬ್ಬಚರಿತಾಪದಾನ	-11.0607
▁ಅಥೇಕದಿವಸಂ	-11.0607
ಪೇತಂ	-11.0607
▁ಆಕಙ್ಖಮಾನೋ	-11.0609
▁ಅವಸ್ಸುತ	-11.061
▁ರಮ್ಮ	-11.0611
▁ಬದ್ಧಾ	-11.0611
ವಿಹಾರೀ	-11.0613
▁ಪರಿಗ್ಗಹೇತ್ವಾ	-11.0613
▁ಏಕಕ್ಖಣೇ	-11.0615
▁೧೮೩	-11.0615
▁ಅಸುದ್ಧ	-11.0616
▁ಅಪದಾನಂ	-11.0616
ಮತಂ	-11.0624
▁ಉತ್ತರಾಸಙ್ಗಂ	-11.0628
▁ವಾತಾ	-11.0629
ವಸೀ	-11.0631
ಸದಿಸಮೇವ	-11.0632
▁ಹಿತಂ	-11.0634
ಉಪಾದಾನ	-11.0636
▁ಪಟಿಸಙ್ಖಾ	-11.0638
▁ಆರಮ್ಭ	-11.0639
ವಿಪಸ್ಸ	-11.064
▁ಅತ್ತಭಾವಂ	-11.0644
▁ಅನ್ಧಕಾರ	-11.0645
ಪಾನಂ	-11.0646
ಪಾತಿಮೋಕ್ಖ	-11.0646
▁ಸನ್ನಿಧಿ	-11.0646
ಹಟ	-11.0647
▁ಭವಿಸ್ಸನ್ತೀ	-11.0648
▁ಅಭಿಕ್ಕನ್ತ	-11.065
ೂಪನಿಸ್ಸಯ	-11.0651
ಪ್ಫಲ	-11.0653
▁ಪಲಿಬೋಧ	-11.0653
▁ತಿಣ್ಣೋ	-11.0655
▁ವಿವಟ್ಟೂಪನಿಸ್ಸಯ	-11.0658
ಚಾರೋ	-11.0659
ರಂಸಿ	-11.0661
▁ಇದ್ಧಿಪಾದಾ	-11.0662
ೂಪಸಮ	-11.0663
ಿಞ್ಚ	-11.0663
▁ಏತಿ	-11.0666
▁ಅಚ್ಛಿನ್ದ	-11.0666
▁ಉಪಗಚ್ಛ	-11.0667
▁ಸುಞ್ಞತಂ	-11.0668
ಕ್ಲೇಸ	-11.0668
ದಾನೇ	-11.0669
▁ವಿಸುಜ್ಝತಿ	-11.067
▁ನಾಥ	-11.0671
▁ಸಾಖ	-11.0673
▁ನಿಮಿತ್ತೇ	-11.0673
▁ಪುಬ್ಬಕಮ್ಮಂ	-11.0674
ೇಥಾತಿ	-11.0676
▁ಸಙ್ಗಾಮ	-11.0676
▁ಮನೋರಮಂ	-11.0677
▁ಪಕ್ಕೋಸ	-11.0682
▁ಪಾಪೇತ್ವಾ	-11.0684
ಕೂಲ	-11.0685
ಾವಸಾನೇ	-11.0685
ರಾಜಸ್ಸ	-11.0686
▁ವಾಯಾಮ	-11.069
▁ನಹೇತುಞ್ಚ	-11.069
▁ರೂಪಾದೀಸು	-11.0691
▁ಗನ್ಧಬ್ಬ	-11.0691
▁ಕಪ್ಪತೀ	-11.0691
▁ಕಾಯಿಕಸ್ಸ	-11.0691
ಸಾಧಕ	-11.0693
ಟ್ಠಪನ	-11.0694
▁ಆರಾಮೋ	-11.0694
▁ಅಪ್ಪಮಾಣೋ	-11.0695
▁ಲೋಕುತ್ತರೋ	-11.0695
▁ದೇವಿಯಾ	-11.0696
▁ವುತ್ತೇಸು	-11.0699
▁ಕಂಸ	-11.0699
▁ಸಾಮಿಕೋ	-11.07
▁ಚೇತಸಿಕೋ	-11.07
▁ಸಬ್ಬಞ್ಞುತಂ	-11.0701
▁ದಿನ್ನೇ	-11.0706
೧೭	-11.0706
ಸುಞ್ಞತ	-11.0708
▁ಮುಖತೋ	-11.0708
▁ಸಯಮ್ಭು	-11.071
▁ಕಾತಬ್ಬನ್ತಿ	-11.071
▁ವಿಸಾರದೋ	-11.0711
ವೇಧ	-11.0712
▁ಇಸಯೋ	-11.0712
▁ವತ್ಥಬ್ಬಂ	-11.0713
▁ಪಸ್ಸಾವ	-11.0713
▁ಆನನ್ತರಿಯ	-11.0714
▁ವಿಸ್ಸಜ್ಜನಂ	-11.0715
▁ಅಸಞ್ಚಿಚ್ಚ	-11.0715
▁ಕಾಯಾನುಪಸ್ಸನಾ	-11.0716
▁ರೋಗೋ	-11.0717
▁ಪಗ್ಘರ	-11.072
ಾದಿನ್ನಅನುಪಾದಾನಿಯ	-11.072
ಅಹ	-11.0721
▁ಯಾದಿಸೋ	-11.0722
ಯಾನಂ	-11.0724
▁ಅದಸ್ಸನೇ	-11.0724
▁ಆಲಪನ	-11.0725
▁ಸೋತಿನ್ದ್ರಿಯಂ	-11.073
▁ಪಟಿಪ್ಪಸ್ಸದ್ಧಿ	-11.0733
▁ಬ್ರಹ್ಮುನಾ	-11.0734
▁ವಟ್ಟತಿಯೇವ	-11.0737
ಙ್ಗೋ	-11.0737
ಪರಿಚ್ಛಿನ್ನ	-11.0738
ಾಭಿಸಮಯ	-11.0741
ಮೂ	-11.0742
▁ನಿಬ್ಬಾನನ್ತಿ	-11.0745
▁೧೮೨	-11.0747
▁ರುಚ್ಚತಿ	-11.0747
▁ಸಙ್ಗಾಯ	-11.0749
ಸಙ್ಘೋ	-11.0749
▁ಉಪ್ಪನ್ನಾನಂ	-11.0751
ಸನ್ತಕ	-11.0753
▁ರುಚಿರ	-11.0755
▁ಭಿಕ್ಖಾ	-11.0756
ಮಾನಸಾ	-11.0759
ಾನಮೇವ	-11.0762
▁ಸಮ್ಪನ್ನೋ	-11.0762
ಸಾಖಾ	-11.0763
▁ಗಯ್ಹತಿ	-11.0763
▁ಬಜ್ಝ	-11.0763
▁ಅಕ್ಖೀನಿ	-11.0765
▁ಅಪುಚ್ಛಿ	-11.0765
▁ಹೇಸ್ಸತಿ	-11.0766
▁೧೯೦	-11.0769
ವತ	-11.0772
▁ಅವೀಚಿ	-11.0774
▁ಭಙ್ಗಾ	-11.0775
▁ಸಮುದ್ದೋ	-11.0776
▁ಆಕಾರೇನ	-11.0779
▁ಪರೇಸು	-11.0782
ಸಞ್ಹಿ	-11.0783
ನಿದಸ್ಸನ	-11.0783
▁ಕರಣವಚನಂ	-11.0784
▁ಅಟ್ಠಾನ	-11.0784
▁ಪಟಿಸನ್ಧಿಯಂ	-11.0789
▁ಇಮಮೇವ	-11.079
▁ನೋಚಿತ್ತಸಮುಟ್ಠಾನ	-11.0791
▁ವಚೋ	-11.0791
▁ಸುದ್ಧಾವಾಸಾನಂ	-11.0795
▁ಛಡ್ಡಿತ	-11.0797
ಸತಿಪಟ್ಠಾನ	-11.0797
ಕ್ಖೋ	-11.0799
ುಚ್ಚ	-11.0799
ದರಥ	-11.0799
ವಿಗ್ಗಹ	-11.08
▁ಅಪೇತ	-11.08
▁ಉದಕಸ್ಸ	-11.0803
▁ಸಾರಿಪುತ್ತಸ್ಸ	-11.0805
▁ಬಹೂಹಿ	-11.0806
▁ಕತಸ್ಸ	-11.0807
ಚೋಳ	-11.0807
▁ಮಹಾಕಸ್ಸಪ	-11.0809
▁ಉಪೇಕ್ಖಾಸಹಗತ	-11.0812
▁ಪಾತುಭೂತ	-11.0814
ಕುಚ್ಛಿ	-11.0815
▁ಯುಞ್ಜ	-11.0816
ಯುಗ	-11.0818
ನಿವಾಸ	-11.0818
▁ಕೇವಟ್ಟ	-11.0818
ಮತ್ತಿಕಾ	-11.0819
೧೯	-11.0819
▁ಉಪಪಜ್ಜನ್ತಸ್ಸ	-11.082
▁ಇಹ	-11.0821
ಅಟ್ಠಕಥಾ	-11.0823
ಅತ್ತಾ	-11.0823
ಆಕಾರ	-11.0824
▁ರತ್ತೋ	-11.0824
ಹಿಂಸ	-11.0824
▁ಸೋಕೋ	-11.0825
▁ವತ್ವಾನ	-11.0826
ವಾದೇ	-11.0827
▁ಪಚ್ಚಕ್ಖತೋ	-11.083
ಸತ್ತಾ	-11.083
ಧಿಕ	-11.0832
ಪೋಸ	-11.0834
▁ಮನಾಪೋ	-11.0836
ಕಾಮಾವಚರ	-11.0836
▁ಸಿಙ್ಗ	-11.0836
▁ವೇದೇತಿ	-11.0836
ಚಕ್ಖೂ	-11.0838
ಸಾಸನಂ	-11.0839
▁ಬಿಲ	-11.084
ನಿಸ್ಸಯಪಚ್ಚಯೇನ	-11.0841
▁ಆವಹ	-11.0841
▁ಚೇತಿಯೇ	-11.0842
▁ಮಹಾನಾಗ	-11.0842
▁೧೭೧	-11.0848
ದೂರ	-11.085
▁ಅಹೇತುಕಾ	-11.0851
▁ಅರೂಪಾವಚರೇ	-11.0851
▁ಅಞ್ಞಾಯ	-11.0852
ಕಮ್ಪನ	-11.0856
ಸಸ್ಸತ	-11.0856
ಭಾಗೇನ	-11.0859
▁ಪತ್ತಸ್ಸ	-11.0861
ಭಾವೇನೇವ	-11.0861
▁ಅನೋಮ	-11.0863
▁ಪರಾಮಟ್ಠ	-11.0863
ಮಾತು	-11.0863
▁ದನ್ತಾ	-11.0865
▁ವಿನಿಧಾಯ	-11.0867
▁ಸಙ್ಕೇತ	-11.0867
▁ಅಜ್ಝಭಾಸಿ	-11.0867
▁ಪಹೀಯನ್ತಿ	-11.0868
ವಸನ	-11.0868
▁ಬ್ರಹ್ಮುನೋ	-11.0868
▁ಸಞ್ಜಾನ	-11.0869
▁ಸುಖನ್ತಿ	-11.0872
▁ಕಾರೇನ್ತೇ	-11.0875
▁ಸತಿಸಮ್ಬೋಜ್ಝಙ್ಗೋ	-11.0876
▁ಅಧಿಪತಿಪಚ್ಚಯಾ	-11.0877
▁ಸುಖಿತೋ	-11.0877
▁ಭವಙ್ಗಂ	-11.0879
▁ಸೇನಾಯ	-11.0881
▁ತತ್ತಕ	-11.0881
▁ಕುಲೇಸು	-11.0883
▁ಬ್ರಹ್ಮದತ್ತೇ	-11.0884
▁ಕುಸಲೇ	-11.0884
ಯಮಾನ	-11.0886
▁ಞೇಯ್ಯಂ	-11.0886
▁ಪುಬ್ಬೇನಿವಾಸಂ	-11.0887
ಿಕನ್ತಿ	-11.0888
▁ಸಙ್ಗಹಿತೋ	-11.0889
▁ಸನ್ತಪ್ಪ	-11.089
▁ಕರೋತೋ	-11.0891
▁ತಿಖಿಣ	-11.0893
ದಾರ	-11.0899
▁ಚರಿಯಾ	-11.09
ಪ್ಪಟಿಪನ್ನ	-11.09
ಸಣ್ಠಿತ	-11.0901
▁ಕುಞ್ಜರ	-11.0909
▁ಸಮಾನಂ	-11.0909
▁ದನ್ತೋ	-11.0909
▁ಸುಖಞ್ಚ	-11.091
▁ಆನಾಪಾನಸ್ಸತಿ	-11.0911
ರೂಪಸ್ಸ	-11.0912
▁೧೮೫	-11.0913
ಪನ್ನೋ	-11.0913
▁ಲಾಭಸಕ್ಕಾರ	-11.0914
ಟ್ಠಾನಾನಿ	-11.0915
ತ್ಥಿಕೋ	-11.0916
▁ಪಕರಣ	-11.0916
▁ಸಮ್ಮಾಕಮ್ಮನ್ತೋ	-11.0916
▁ಪಙ್ಕ	-11.0917
ಅಲಂ	-11.0918
ರೂಪೂಪಪತ್ತಿಯಾ	-11.092
▁ನೋಅವಿಗತ	-11.0922
ಪಾಸಾದ	-11.0922
▁ಸಙ್ಖೇಪತ್ಥೋ	-11.0922
▁ಆಪತ್ತಾಧಿಕರಣಂ	-11.0923
▁ಸಂವಣ್ಣನಾ	-11.0924
▁ಕಾರಕೋ	-11.0924
▁ವಾಳ	-11.0925
▁ಪರಿಪಕ್ಕ	-11.0925
▁ಅಭಿಸಮ್ಬುದ್ಧೋ	-11.0927
▁ಗಾವೀ	-11.0927
▁ಮಗ್ಗಕ್ಖಣೇ	-11.0928
▁ಪೂಜೇತ್ವಾ	-11.0929
▁ಅಟ್ಠಂಸು	-11.0931
ಸನ್ನಿಸ್ಸಯ	-11.0931
ಆಚರಿಯ	-11.0931
▁ಆಯತನಾನಿ	-11.0933
ಟ್ಠಕಥಾ	-11.0933
▁ಲಭಾಮಿ	-11.0933
▁ಆಸಙ್ಕ	-11.0934
▁ನೋಕಿಲೇಸ	-11.0934
▁ಸುಣೋಹಿ	-11.0934
▁ಸಮುಟ್ಠಾನೇನ	-11.0937
ವಿನ್ದ	-11.0938
▁ಮುಹುತ್ತ	-11.0939
▁ವುಟ್ಠ	-11.094
▁ಅನಭಿರತಿ	-11.0941
ಪಬ್ಬಜಿತ	-11.0942
▁ಪನೇಸಾ	-11.0943
▁ಯಸಂ	-11.0945
ಲಗ್ಗ	-11.0945
▁ವದತೀತಿ	-11.0946
▁ಪಜಾನನಾ	-11.0946
ವಿರುದ್ಧ	-11.0946
▁ಪಚ್ಚತ್ತಂ	-11.0946
ಕಾರಿ	-11.0947
▁ನಿರುದ್ಧ	-11.0948
▁ಜಗ್ಗ	-11.0948
▁ಸೇವತೋ	-11.0949
ಿತಬ್ಬತೋ	-11.0949
ದಸ್ಸನತೋ	-11.0951
ಪಞ್ಹೇ	-11.0953
▁ಬಾಲಸ್ಸ	-11.0954
▁ಧಮ್ಮತೋ	-11.0955
ಛತ್ತ	-11.0957
▁ಭವರಾಗಾನುಸಯೇನ	-11.0959
ಲಕ್ಖಣೇ	-11.0961
ಗ್ಗಾ	-11.0961
ತ್ಯಾ	-11.0962
ಭಿಕ್ಖೂನಂ	-11.0963
ಪಿಯ	-11.0966
▁ವುತ್ತಸ್ಸ	-11.0967
▁ಏಕಕ	-11.097
▁ಯಾನಂ	-11.097
▁ಪೋಟ್ಠಪಾದ	-11.0973
ೇವಂ	-11.0974
▁ಪುರಾ	-11.0974
ನುಗ್ಗಹ	-11.0976
▁ಅಪರಾ	-11.0976
▁ತತ್ರಿದಂ	-11.0979
▁ಸರಸ	-11.098
▁ಪಚ್ಚಯೇಸು	-11.098
▁ಮಾತುಗಾಮ	-11.0981
▁ಪಟಿಚ್ಛನ್ನಂ	-11.0983
▁ವತ್ತತೀತಿ	-11.0986
▁ಮಹೇಸಿನಾ	-11.0986
▁ಯೋಜೇ	-11.0991
ತಾಪಿ	-11.0992
ಪುಬ್ಬಙ್ಗಮ	-11.0993
ಪರಿವಾಸ	-11.0994
ಮಚ್ಚ	-11.0995
▁ಪಿಣ್ಡಪಾತಿಕ	-11.0995
▁ಆದಿಮ್ಹಿ	-11.0996
▁ನೋಗನ್ಥ	-11.0998
ದಸ್ಸಾವೀ	-11.1003
ಜನನ	-11.1004
▁ವಿಪ್ಪಸನ್ನ	-11.1005
ಸಮನ್ನಾಗತೋ	-11.1007
ರಾಮೋ	-11.1009
▁ವತ್ಥುಸ್ಸ	-11.1011
▁ವೀತರಾಗೋ	-11.1013
▁ವುಚ್ಚಮಾನ	-11.1013
ಾರಹಂ	-11.1014
▁ಕಾರಿಯ	-11.1015
▁ಭೇರಿ	-11.1015
▁ತತ್ತ	-11.1016
ಮಙ್ಗ	-11.1016
▁ಆನುಭಾವ	-11.1016
▁ವಚೀಭೇದ	-11.1018
▁ಆವಸ	-11.1019
▁ತೇನೇತಂ	-11.1019
▁ಸಮ್ಮತ	-11.1019
ಸೇತಿ	-11.102
▁ಸುದ್ಧಿಕ	-11.1024
ಾರೋಹ	-11.1024
ಸಕಂ	-11.1024
▁೧೮೯	-11.1024
▁ಉಪತ್ಥಮ್ಭ	-11.1024
▁ಪರಿಹೀನ	-11.1025
▁ಯೋಬ್ಬನ	-11.1027
ಅನಿಚ್ಚಂ	-11.1028
ಗಾಮಂ	-11.1029
▁ಪುಞ್ಞಕ್ಖೇತ್ತಂ	-11.1029
▁ಆನೀತ	-11.1031
▁ಕುಸಲೇನ	-11.1032
ಅಞ್ಞಂ	-11.1033
ನಾವ	-11.1034
▁ಉಪಪಜ್ಜನ್ತಿ	-11.1034
▁ವುಟ್ಠಾನಂ	-11.1035
▁ಪರಿವಜ್ಜ	-11.1036
▁ಸಞ್ಚೇತನಿಕಾ	-11.1036
▁ನಿಚ್ಛ	-11.1037
▁ಅಧಿಟ್ಠಿತ	-11.1037
ಸಾವಕೋ	-11.1037
▁ಚಾರು	-11.1038
▁ಸಙ್ಕಮ	-11.1038
▁ವಾಯೋಧಾತು	-11.1039
▁ಅನುಸ್ಸವ	-11.104
▁ನಿದ್ದೇಸೇ	-11.104
▁ಲಿಖ	-11.104
▁ಅಸುರಾ	-11.1041
ವೇಲ	-11.1043
ುನ್ತಿ	-11.1043
▁ಕನಿಟ್ಠ	-11.1043
ಗತಾನಂ	-11.1044
▁ಸವಿತಕ್ಕಸವಿಚಾರಂ	-11.1045
▁ವಿಧಾ	-11.1045
ಮಾನೋತಿ	-11.1046
ತ್ಥರ	-11.1046
ವಿಪಾಕಾ	-11.1047
▁ಅಪ್ಪಚ್ಚಯ	-11.1048
ಪತಿತ	-11.1048
ಭಯಾ	-11.1048
▁ದಿಬ್ಬಾ	-11.1049
ದಾರು	-11.105
ಸ್ಸಾಮಿ	-11.105
▁ಖಾದನ್ತಿ	-11.1052
▁ಅನಪೇಕ್ಖ	-11.1054
▁ಹೀನೋ	-11.1055
▁ರಾಜಿನೋ	-11.1055
▁ವಞ್ಚ	-11.1056
▁ವೋಹಾರೋ	-11.1056
▁ಗರುಭಣ್ಡ	-11.1057
▁ದಿಬ್ಬಾಯ	-11.1058
▁ಉಪೇತೋ	-11.1058
▁ಗಚ್ಛನ್ತೀ	-11.1058
ಚೇತಸಿಕ	-11.1058
ಾಭಾವೋ	-11.106
ಮಲಂ	-11.106
▁ಅನೇಕೇ	-11.1061
▁ಗಿಲ	-11.1063
ಪರಿಯಾಪನ್ನಾ	-11.1064
▁ಹೇತುದುಕ	-11.1068
▁೧೮೬	-11.1069
▁೧೯೬	-11.1073
▁ಸಿಕ್ಖಾಪದೇಸು	-11.1074
ಸಕುಣ	-11.1076
▁ಕುಸೀತ	-11.1076
▁ಭವತಣ್ಹಾ	-11.1077
▁ತಿರಚ್ಛಾನ	-11.1079
ಮುಖಾ	-11.108
ಚಾರಿ	-11.108
▁ವಿಸ್ಸಜ್ಜಿತ	-11.1081
▁ಮಯಮ್ಪಿ	-11.1081
▁ಅನೇಕಪರಿಯಾಯೇನ	-11.1081
▁ದೇವದೂತ	-11.1082
▁ಗಿಜ್ಝ	-11.1083
▁ಯಸಸ್ಸಿನೋ	-11.1085
▁ಪಸೀದತಿ	-11.1085
ಪರೋ	-11.1086
▁ಧಜ	-11.1088
▁ದ್ವನ್ದ	-11.1089
▁ಉಪಲಕ್ಖಣ	-11.1091
ಖೀಣಾ	-11.1091
▁ನಿರುಜ್ಝ	-11.1094
▁ಅನಿಯಮ	-11.1095
▁ಅನುಪಸ್ಸನಾ	-11.1096
▁ನಿದಸ್ಸನಂ	-11.1096
▁ಜಟಾ	-11.1097
ಧಞ್ಞ	-11.1097
▁ಹಿರೋತ್ತಪ್ಪ	-11.1099
ಸಿಖ	-11.1099
▁ಅಪನ	-11.11
▁ಸಖ	-11.11
ವತ್ಥೂಸು	-11.1101
▁ಅಮನಾಪ	-11.1102
ಸೋಧನ	-11.1106
▁ಪರಿಕ್ಖಿತ್ತ	-11.1107
ವಣ್ಣನಾಯ	-11.1108
▁ಏತ್ತಕಾ	-11.1109
ಾದಿಭೇದ	-11.1109
▁ಆನಿಸಂಸಂ	-11.111
▁ಸವಿತಕ್ಕಂ	-11.1111
▁ಹೋಥ	-11.1114
▁ಆಪಜ್ಜೇಯ್ಯ	-11.1115
▁ಉಪಸಂಹರ	-11.1117
▁ಏತಾದಿಸ	-11.1118
▁ನವಮ	-11.1119
▁ನಿರೋಧಸಮಾಪತ್ತಿ	-11.1119
▁ಯೇಸು	-11.1119
▁ಅಚ್ಚಯ	-11.1125
▁ನಿದ್ದಿಸ	-11.1125
ಗ್ಗಹ	-11.1126
▁ಇದಮೇತ	-11.1128
▁ಭಾವನ	-11.1131
ಾಯೇವ	-11.1131
▁ವೋದಾನಂ	-11.1132
▁ರಾಜಗಹ	-11.1133
▁ಭದ್ದಿಯ	-11.1133
▁ಅರಹತಾ	-11.1134
▁ನಾನುಸೇನ್ತಿ	-11.1134
▁ಇಟ್ಠಾನಿಟ್ಠ	-11.1135
ಞ್ಞೇ	-11.1135
ಸತ್ತಾಹ	-11.1135
▁ವಿಪ್ಪಟಿಸಾರ	-11.1135
▁ಪಯುತ್ತ	-11.1137
▁ಉಪ್ಪಜ್ಜೇಯ್ಯುಂ	-11.1137
▁ಗಾಹಾಪೇತ್ವಾ	-11.1138
▁ಸಮ್ಪದಾನ	-11.1138
ಾದೀನವ	-11.1138
▁ವೀ	-11.1139
ದಸ್ಸನೋ	-11.1139
ನಾಮರೂಪ	-11.1142
▁ಇಚ್ಛಿತಬ್ಬ	-11.1142
ಠಿತ	-11.1143
▁ನಹಾಯ	-11.1143
▁ಪಟಿಕ್ಖೇಪ	-11.1144
ಾಪೇಸುಂ	-11.1145
▁ಸಙ್ಘಿಕಂ	-11.1145
ಝ	-11.1145
▁ಪಾರುಪಿತ್ವಾ	-11.1146
ಕೋಧ	-11.1146
ವಾಸಿಕ	-11.1146
ದ್ಧೋ	-11.1146
▁ಸುವಿಸುದ್ಧ	-11.1148
▁ಸಮುಪ್ಪನ್ನ	-11.115
▁ಭೂಮಿಂ	-11.1151
▁ಆಪನ್ನಾ	-11.1152
▁ಉಕ್ಖೇಪನೀಯಕಮ್ಮಂ	-11.1156
▁ಕಮ್ಮನ್ತಿ	-11.1156
▁ತತೋಪಿ	-11.1156
▁ಉಪ್ಪಜ್ಜಮಾನೋ	-11.1157
▁ಪಾದೇನ	-11.1157
ಸದಿಸತ್ತಾ	-11.116
ತೇಸು	-11.116
▁ಭಿಸಿ	-11.1164
▁ಕಾಮಗುಣ	-11.1165
▁ಬೋಜ್ಝಙ್ಗೇ	-11.1165
▁ಅಗಚ್ಛ	-11.1165
ಾಗತ	-11.1166
▁೧೯೧	-11.1167
ಸಙ್ಘಸ್ಸ	-11.1168
▁ಸಣ್ಠಾನ	-11.1168
▁ಬೋಧಿಂ	-11.1169
▁ದುಕ್ಖಿತೋ	-11.1169
▁ಉಪಪಜ್ಜನ್ತೀ	-11.1171
▁ಅನುಪಸಮ್ಪನ್ನಸ್ಸ	-11.1171
▁ಪಾಪಿಮಾ	-11.1173
ಸದ್ಧ	-11.1175
▁ಲಜ್ಜೀ	-11.1178
▁ಠಪೇನ್ತ	-11.1178
▁ಭೂತಗಾಮ	-11.1178
▁ಆಪಜ್ಜಿಂ	-11.1181
▁ಪರಿಕ್ಖಯಾ	-11.1182
ತಸ್ಮಾತಿಹ	-11.1184
▁ತಬ್ಬಿ	-11.1184
ನ್ತರಾಯೋ	-11.1186
▁ಗಚ್ಛಥ	-11.1186
▁ಅನವಸೇಸತೋ	-11.1188
▁೨೦೭	-11.1189
ನಾದ	-11.1189
▁ತಿಯೋಜನ	-11.1189
▁ಸತ್ತತಿಂಸ	-11.119
▁ನಅರಣ	-11.119
ತಬ್ಬೋ	-11.1191
▁ಸತೀತಿ	-11.1191
▁ಲಭತೇ	-11.1191
▁ಅಸಮಾಹಿತ	-11.1192
▁ವಟ್ಟಂ	-11.1194
▁ಪವೇಸೇತ್ವಾ	-11.1195
▁ಮಿಚ್ಛತ್ತನಿಯತ	-11.1196
▁ಉಪಟ್ಠಹನ್ತಿ	-11.1196
▁ಪಠಮಸ್ಸ	-11.1196
▁ಚೋದನ	-11.1199
ಸಮ್ಭವೋ	-11.1199
▁ಪಞ್ಞಪೇತಿ	-11.1201
ಾವಬೋಧ	-11.1203
▁ಏತ್ತಕ	-11.1204
▁ಭಾವೇತೀತಿ	-11.1204
▁ತಥಾಗತಾ	-11.1205
▁ಧೀತರಂ	-11.1206
ೋಪಮಾ	-11.1206
▁ನಿವೇಸನಂ	-11.1207
▁ಅನುಸೇತೀತಿ	-11.121
▁ಮುಸಾವಾದೋ	-11.1211
▁ಹೇತುಫಲ	-11.1212
▁ಪಞ್ಚವಿಞ್ಞಾಣ	-11.1214
ತವ	-11.1214
ದಲ	-11.1215
▁ಲಬ್ಭ	-11.1215
ಯೋಗಾ	-11.1215
▁ಆರದ್ಧೋ	-11.1218
▁ಗನ್ತು	-11.122
ಪಿಣ್ಡಪಾತ	-11.122
▁ಛವ	-11.1222
▁ಸಮಾದಹ	-11.1222
▁ಪಠಮಾಯ	-11.1222
ವಜ್ಜಿತ	-11.1223
ಾದೀತಿ	-11.1223
▁ಭು	-11.1224
▁ತುಸಿತ	-11.1224
▁ವೇಠ	-11.1225
▁ದದಾತಿ	-11.1228
▁ಮಹಾಬ್ರಹ್ಮಾ	-11.1228
ಿಯ್ಯತಿ	-11.123
ಪ್ಫ	-11.1232
ಸೀಹೋ	-11.1233
▁ಅನೇನ	-11.1236
▁ಗಣಸ್ಸ	-11.1237
▁ಉಭಯಮ್ಪಿ	-11.1241
ಮಾನಾಯ	-11.1241
ಸಮ್ಪಯುತ್ತೋ	-11.1241
▁ದುಬ್ಬಚ	-11.1242
▁ಅವಿಕ್ಖೇಪ	-11.1243
▁ಪಣಿಧಾಯ	-11.1244
▁ದಾರಕೇ	-11.1244
▁ಮೋಘಮಞ್ಞ	-11.1244
▁ಲಪ	-11.1244
ಪಣ	-11.1245
▁ಸೋಮನಸ್ಸಜಾತೋ	-11.1245
▁ಅಭಿಸಙ್ಖಾರ	-11.1245
ಅನುಪಾದಾನಿಯೋ	-11.1246
▁ಸಚ್ಚೇನ	-11.1246
ಹನ್ದ	-11.1247
▁ದಜ್ಜ	-11.1247
೪೦	-11.1248
▁ಅಕ್ಖಾಹಿ	-11.1249
ಹಿತಂ	-11.1249
▁ಅತ್ಥಙ್ಗಮಾ	-11.125
ಮಪ್ಪ	-11.125
ಾಗಾರ	-11.125
▁ಉದರ	-11.1251
▁ಅನತ್ಥಾಯ	-11.1251
▁ಆಸೀಸ	-11.1252
▁ದದಾಮಿ	-11.1252
ಯಞ್ಞ	-11.1253
▁ಅಂಸ	-11.1255
▁ಸಮ್ಪಟಿಚ್ಛಿತ್ವಾ	-11.1256
▁ಅಧಿಮುತ್ತ	-11.1257
ತಿಆದೀಸುಪಿ	-11.1258
▁ಸಬ್ಬಮೇತಂ	-11.1259
▁ಪಾಣಾತಿಪಾತೋ	-11.126
ರಮ	-11.1262
▁ನಿಸ್ಸ	-11.1264
▁ಪಾಕಟಮೇವ	-11.1266
▁ಕುಸಲಧಮ್ಮ	-11.1268
▁ಅಕುಸಲಮೂಲಂ	-11.127
▁ಮುನಿನೋ	-11.1271
▁ಉದ್ಧತ	-11.1271
▁ಜನತಂ	-11.1272
▁ಪಾರುಪ	-11.1272
▁ಗಣ್ಹನ್ತಸ್ಸ	-11.1274
▁ಏಕದೇಸಂ	-11.1274
▁ಪಸವತಿ	-11.1275
▁ಪರಿಕ್ಖೇಪ	-11.1278
ಾಪೇನ್ತೋ	-11.1278
ತಥೇವ	-11.1278
▁ಆವಾಸಾ	-11.1279
▁ದಣ್ಡಂ	-11.1279
▁ಚತುರಸ್ಸ	-11.128
▁ಭುಞ್ಜೇಯ್ಯ	-11.1281
▁ಅರಿಯಸಾವಕಸ್ಸ	-11.1285
▁ಅನುಪಞ್ಞತ್ತಿ	-11.1287
ನಿಸ್ಸರಣ	-11.1291
ಟ್ಠಕಥಾಯ	-11.1292
ಚೇ	-11.1294
▁ಅನುರುದ್ಧೋ	-11.1294
▁ಪಣ್ಡು	-11.1295
▁ಮೋ	-11.1295
▁ಲಜ್ಜಿ	-11.1298
▁ಅತ್ಥಙ್ಗಮೋ	-11.1298
ಥಾಮ	-11.1298
▁ಏಕವಿಧ	-11.13
▁ಸಮ್ಭೂತ	-11.1301
ಅತಿ	-11.1301
▁ಬಹಿದ್ಧಾರಮ್ಮಣ	-11.1303
▁ಅಲಜ್ಜಿ	-11.1304
▁೧೯೩	-11.1305
▁ಕುಸುಮ	-11.1306
▁೧೮೭	-11.1308
೧೪	-11.1308
▁ಪರಿಳಾಹ	-11.1309
ಧೋವನ	-11.1309
▁ಪಾಸಾದಂ	-11.131
▁ಭಾಸತೋ	-11.1311
ಸಂಯೋಗ	-11.1312
▁ಪಠಮಜ್ಝಾನಂ	-11.1313
▁ದುಬ್ಬಣ್ಣ	-11.1314
▁ಯಾತಿ	-11.1315
▁ಪಬ್ಬಜಿ	-11.1315
▁ತಿದಸ	-11.1316
▁ಕಿಲಿಟ್ಠ	-11.1316
ಪರಿಪುಣ್ಣ	-11.1317
▁ಪರಾಭವ	-11.1321
▁ಸಮನ್ತಪಾಸಾದಿಕಾಯ	-11.1321
▁ಭಣಿತ	-11.1322
▁ಸನ್ನಿಪತಿತ	-11.1323
▁ದೇನ್ತೋ	-11.1323
ನ್ತಿಆದೀನಿ	-11.1324
ಸಹಸ್ಸೇಹಿ	-11.1324
▁ದೂರತೋವ	-11.1326
▁ಛೇಕ	-11.1326
▁ರಜನೀಯ	-11.1329
▁ಪತಿಟ್ಠ	-11.1329
ಫಲಾ	-11.1329
▁ಕಸಿ	-11.133
ಹೇವ	-11.133
▁ಞಾಣಸಮ್ಪಯುತ್ತ	-11.133
ತ್ತಕ	-11.1331
ಾಹು	-11.1332
▁ಪಸು	-11.1335
▁ಸಬ್ಬಞ್ಞೂ	-11.1335
▁ಅಣ್ಡ	-11.1335
▁೧೯೫	-11.1337
▁ಪರಿಚ್ಚಾಗ	-11.1337
▁ಕಟಿ	-11.1339
▁ರಞ್ಜ	-11.1339
ವಚ	-11.1345
▁ಅರೂಪಾವಚರಾ	-11.1345
ನಾಮಕಾ	-11.1346
▁ಅನೇಕವಿಧ	-11.1346
▁ಭಮ	-11.1349
▁ಕರಿತ್ವಾನ	-11.1351
ಭಾವದಸ್ಸನತ್ಥಂ	-11.1352
ವೀಮಂಸ	-11.1353
▁ಉಪಚಿನನ್ತೋ	-11.1354
▁ವಿಪಾಕಧಮ್ಮಧಮ್ಮೋ	-11.1354
▁ನಿರುದ್ಧಾ	-11.1355
▁ಮಹಾಜನಂ	-11.1355
▁ವಿಭಾವೇತುಂ	-11.1356
▁ಏತ್ತಕೇನ	-11.1356
▁ಯೋಜನಂ	-11.1358
ತ್ತಿಕೇ	-11.1358
▁ತದಙ್ಗ	-11.1359
▁ಕಿಲನ್ತ	-11.1359
ಮನುಸ್ಸಾ	-11.136
▁ಸಬ್ರಹ್ಮಚಾರೀನಂ	-11.1363
ನೇಕ	-11.1364
▁ತಿತ್ಥ	-11.1366
▁ತಣ್ಹಾದಿಟ್ಠಿ	-11.1367
▁ಮಾತುಗಾಮಸ್ಸ	-11.1368
▁ಸಕತ್ಥೇ	-11.1371
▁ಮನ್ತಾ	-11.1371
ೂನ	-11.1371
▁ಧಮ್ಮತಾ	-11.1373
ಪಚ್ಚುಪಟ್ಠಾನಂ	-11.1374
ಪರಿವತ್ತ	-11.1376
▁೧೯೮	-11.1376
▁ಅನುಕಮ್ಪಾಯ	-11.1379
▁ಅಟ್ಠಕಥಾಸು	-11.1379
▁ಪರಿಯೇಸಿತ್ವಾ	-11.1384
ವಸ್ಸಾನಿ	-11.1385
▁ಆಹಟ	-11.1386
ಭಾಗಂ	-11.1386
▁ಅದಿಸ್ವಾ	-11.1386
▁ಅತ್ಥಕಾಮ	-11.1387
▁ಅಪಚ	-11.1387
▁ಯತ	-11.1389
ಪರಿಕ್ಖಿತ್ತ	-11.1391
▁ವಿಚರನ್ತಿ	-11.1391
▁ಠಾನೇನ	-11.1392
▁ಏತದೇವ	-11.1393
▁ದೇವದತ್ತಸ್ಸ	-11.1393
▁ವಿಭೂತ	-11.1395
▁ಸಮ್ಬೋಧಿ	-11.1396
ಙ್ಕುರ	-11.1396
ಚನ್ದನ	-11.1396
▁ಚತುರ	-11.1396
▁ಝಾನಾನಿ	-11.1397
ದಸಕ	-11.14
▁ನವಮೋ	-11.1402
▁ಬುದ್ಧಸಾಸನೇ	-11.1402
ಸೂಲ	-11.1402
▁ಸಮ್ಮೋದಿ	-11.1404
▁ಮಿನ	-11.1404
ಸಮ್ಬೋಜ್ಝಙ್ಗಂ	-11.1407
ವಿಗತ	-11.1408
ಾಚಯಗಾಮಿನಾಪಚಯಗಾಮೀ	-11.1409
▁ತಿಕಪಾಚಿತ್ತಿಯಂ	-11.1409
▁ಅಘಾನಕಾನ	-11.1409
▁ಸುತ್ತನ್ತಭಾಜನೀಯ	-11.1409
▁ಓಸಾರ	-11.141
▁ನಾಹೋಸಿ	-11.141
▁ಪಸಯ್ಹ	-11.1412
▁ಭಾ	-11.1412
▁ವೇದೇಹ	-11.1413
▁ಆಗಚ್ಛನ್ತಂ	-11.1413
ವಿಸಾರದ	-11.1414
▁ಸಙ್ಖತಾ	-11.1414
ಗುಣೇನ	-11.1415
▁ಹೇತುಪಚ್ಚಯ	-11.1415
ದೇಹ	-11.1416
▁ಉಪಾಸ	-11.1416
ಪ್ಪಭವ	-11.1417
▁ಕತಪುಞ್ಞ	-11.1417
▁ಓಪ	-11.1419
▁ಖಿಪ್ಪಮೇವ	-11.1419
▁ಸಹಾಯಕ	-11.142
ಗಲ	-11.1421
▁ಸಂಸಾರೋ	-11.1424
▁ಜೀರ	-11.1424
▁ರಾಜೂನಂ	-11.1426
▁ದೇಹ	-11.1428
▁ಪಟಿಪ್ಪಸ್ಸದ್ಧ	-11.1429
▁ಪುಗ್ಗಲೇನ	-11.143
ಪೇತ	-11.1431
▁ಮೀಯ	-11.1433
▁ಕಾಮತಣ್ಹಾ	-11.1435
▁ಅಞ್ಞಾತಕ	-11.1437
▁ವಿಸೇಸನಂ	-11.1437
▁೨೧೫	-11.1437
▁ಚಿತ್ತಸಮ್ಪಯುತ್ತ	-11.1442
▁ಅಜಾನ	-11.1442
▁ವಿಭತ್ತೋ	-11.1442
▁ಗಣ್ಹೇಯ್ಯ	-11.1443
ಬನ್ಧನೇನ	-11.1444
ಗಾಮೋ	-11.1448
▁ಸಂವಾಸ	-11.145
ಸಮಣಬ್ರಾಹ್ಮಣ	-11.1455
ವಣ್ಣೇನ	-11.1456
▁ಕಾಮೋ	-11.1457
▁ಅದಸ್ಸನಂ	-11.1457
▁ಖಾದನೀಯ	-11.1457
▁ಸಞ್ಞೀ	-11.1457
ಮಿಧ	-11.1457
▁ಅನಾಗಾಮಿಫಲ	-11.1458
▁ಭಿಕ್ಖುಸಙ್ಘೇ	-11.146
▁ಪಬ್ಬಜಿಂ	-11.146
ದೋಮನಸ್ಸ	-11.1462
▁ಸಿದ್ಧಾ	-11.1463
ಕುಸುಮ	-11.1463
▁ತಿತ್ಥಿಯಾ	-11.1464
▁ಞೇಯ್ಯ	-11.1465
▁ತೀಹಾಕಾರೇಹಿ	-11.1465
ತ್ವಾನ	-11.1466
▁ರಸಾಯತನಂ	-11.1466
▁ಉದಾಯೀ	-11.1466
▁ಪಸ್ಸಥ	-11.1468
▁ವಿಸದ	-11.147
▁ಪೇತಂ	-11.147
▁ಖಾದತಿ	-11.147
ರಣಂ	-11.147
▁ಪತಿಟ್ಠಾಪೇಸಿ	-11.1471
▁ಜನಿನ್ದ	-11.1471
ಅರೂಪ	-11.1471
▁ಭದ್ದೇ	-11.1472
▁ಅಭಿಕ್ಕನ್ತಂ	-11.1474
▁೨೨೦	-11.1475
ಚಿನ್ತ	-11.1475
▁ಪೇಸಿತ	-11.1476
ಪಞ್ಞತ್ತಿಯಾ	-11.1477
▁ಚಿನ್ತಯ	-11.1477
▁ವಾಯಾಮೋ	-11.1477
▁ಕರಿ	-11.1478
▁ಆಬಾಧೋ	-11.1479
ಿನೋತಿ	-11.1481
ಚರಿಯಂ	-11.1483
▁ಪಸಾದೇತ್ವಾ	-11.1483
▁ಪಟಿಪನ್ನ	-11.1484
▁ನಿಯುತ್ತೋ	-11.1488
▁ಹತ್ಥಪಾಸೇ	-11.1488
ಪತ್ಥನಾ	-11.1492
▁ಸಂವ	-11.1494
▁ಆಕಾಸಂ	-11.1495
▁ಪಚ್ಛಿಮೇ	-11.1496
▁ವೇದಿತಬ್ಬನ್ತಿ	-11.1497
▁ಕುಪಿತೋ	-11.1497
ಮಿಚ್ಛಾ	-11.1498
ನಿಕ್ಖೇಪ	-11.15
▁ಸಿದ್ಧೋ	-11.1501
▁ದಾಯಕೋ	-11.1502
▁ಮಹಾಯಸೋ	-11.1503
▁ಅಪ್ಪಿಯ	-11.1503
▁ದಾತಬ್ಬಾ	-11.1506
ರಾಜಾನೋ	-11.1508
▁ವೇಜ್ಜ	-11.151
▁ಆಹಾರಸಮುಟ್ಠಾನಂ	-11.151
ವಿಸೇಸೇನ	-11.1511
▁ಚಾಲ	-11.1511
▁ಕಣ	-11.1512
ವಚನೀಯ	-11.1513
▁ಆವಜ್ಜನಾಯ	-11.1513
ಛನ್ನ	-11.1513
▁ಪುನಬ್ಭವ	-11.1514
ಞ್ಹೇತಂ	-11.1514
▁ವೇಪುಲ್ಲಂ	-11.1515
▁ತಾತಾ	-11.1516
▁ಸುಞ್ಞತಾ	-11.1518
▁ದಿಬ್ಬೇಹಿ	-11.1519
▁ನಸ್ಸತಿ	-11.1519
▁ಉಪಟ್ಠಿತಾ	-11.1519
ಾನುಕಮ್ಪ	-11.152
ಮುದು	-11.152
ದರ	-11.1521
ಭಾಣಕ	-11.1522
▁ಅಬ್ಭಾ	-11.1523
▁ಏತಸ್ಮಾ	-11.1524
▁ಫಸ್ಸಾ	-11.1525
▁ನಿಪ್	-11.1526
▁ತಿಲೋಕ	-11.1527
▁ಸಕ್ಕೋಮಿ	-11.1528
▁೧೮೮	-11.1529
▁ಞಾತಕಾ	-11.153
ಸಗ್ಗ	-11.1532
ಕುಸಲತಾ	-11.1535
▁ತೇನಸ್ಸ	-11.1537
ಸಪ್ಪಿ	-11.1537
▁ಸಮನ್ತ	-11.154
▁ಸ್ವೇ	-11.154
▁ಆರದ್ಧವೀರಿಯ	-11.1542
▁ಪೇಸಲ	-11.1542
೧೫	-11.1542
▁೧೯೪	-11.1544
▁ಅನೇಕೇಹಿ	-11.1545
ಸಮಾಗಮ	-11.1547
▁ಅರೂಪೀ	-11.1547
▁ಸತ್ತಮಾ	-11.1548
ನಾಯಕ	-11.1549
ಿರ	-11.1549
ುಪಾಯ	-11.155
▁ವಿಮುತ್ತಂ	-11.155
▁ವಿಪ್ಪಮುತ್ತೋ	-11.155
ಗಾಥಾವಣ್ಣನಾ	-11.1552
▁ಆರುಪ್ಪ	-11.1554
▁ಚೋರೋ	-11.1555
▁೨೦೫	-11.1556
▁ಜಾನಿತಬ್ಬಂ	-11.1556
▁ಭಿಸ	-11.1556
ಸಮ್ಭ	-11.1557
▁ವಿಜ್ಜತೀತಿ	-11.1558
ಪಾಹಂ	-11.1558
▁ಸಾರಮ್ಭ	-11.1561
ಸಞ್ಞೋಜನ	-11.1562
▁ಸಂವರಂ	-11.1562
ಿತ್ಥಿಯೋ	-11.1564
▁ವದಾಮೀ	-11.1565
▁ಆಲೋಪ	-11.1566
▁ಗನ್ಧಂ	-11.1569
▁ಅಪ್ಪಟಿಘ	-11.1573
▁ವಿಹಿಂಸಾ	-11.1574
▁ಮುತ್ತಂ	-11.1576
▁ಮಹತಿಯಾ	-11.1578
▁ಪಚ್ಚಯಾನಂ	-11.1579
ರಾಮ	-11.1579
▁ಏವಮತ್ಥೋ	-11.158
▁ಪುರೇಭತ್ತಂ	-11.1581
▁ಸಮಣಧಮ್ಮಂ	-11.1581
▁ಠಾನಮೇತಂ	-11.1581
▁ದಣ್ಡಕ	-11.1581
▁ಚಿತ್ತೋ	-11.1583
▁ಸನ್ತಿಕಾ	-11.1583
▁ಜಲಂ	-11.1584
▁ಥಲೇ	-11.1586
▁ಗಚ್ಛನ್ತಾ	-11.1586
▁ನುಪ್ಪಜ್ಜಿಸ್ಸತೀ	-11.1587
▁ಅವಿತಕ್ಕಅವಿಚಾರಂ	-11.1588
ಕೂಜ	-11.1588
ಾಪೇತೀತಿ	-11.1589
▁ತಿರಚ್ಛಾನಯೋನಿ	-11.1589
▁ದೀಪಂ	-11.1589
▁ಹಿರಿ	-11.1591
▁ಮಾಗಧ	-11.1593
ಪರಿಯಾಪನ್ನಂ	-11.1594
▁ವಿತ್ಥಾರಿತ	-11.1595
▁ದಟ್ಠಬ್ಬ	-11.1595
ದೇಸೋ	-11.1596
▁ತೇತ್ತಿಂಸ	-11.1596
▁ಮುತಂ	-11.1596
ವಿನಿಚ್ಛಯಕಥಾ	-11.1598
▁ಭವಿತಬ್ಬ	-11.1598
▁ಗುಣೋ	-11.1598
ನೀಯೇ	-11.1599
ಗಾಳ್ಹ	-11.1601
▁ದ್ವಾರೇ	-11.1605
▁೧೯೨	-11.1608
▁ಕುಮ್ಭಕಾರ	-11.161
▁ವಾಣಿಜಾ	-11.1611
ೋಕಾಸೋ	-11.1611
ಸಙ್ಕಪ್ಪ	-11.1616
▁ವತ್ಥುಕಾಮ	-11.1617
▁ರೋಸ	-11.1618
▁ದವ	-11.1618
▁ಪಾಪಕೇ	-11.1619
▁೨೦೯	-11.1621
▁ಆವಾಸಂ	-11.1622
ರಜ್ಜಂ	-11.1622
▁ಪಾಸಾದೇ	-11.1623
▁ಕೇಸೇ	-11.1623
ಪುಗ್ಗಲೋಕಾಸಾ	-11.1624
▁ನಿವತ್ಥ	-11.1625
▁ರುನ್ಧ	-11.1628
ವಾಸೇ	-11.1629
ಗುಣೋ	-11.163
▁ಭಿಕ್ಖುನೀಹಿ	-11.1631
ಮುಚ್ಚ	-11.1633
▁ಅಕ್ಕಮ	-11.1634
ಮ್ಬರ	-11.1634
▁ಯಥಾಸುಖಂ	-11.1634
▁ನಚ್ಚಗೀತ	-11.1635
▁ತಥಾಗತಬಲಂ	-11.1635
▁ಅತ್ಥೇಸು	-11.1636
▁ಪಿತರಾ	-11.1636
▁ಸಮುಟ್ಠಿತಂ	-11.1637
▁ಪಞ್ಚಕ	-11.1638
ಸಾರೋ	-11.1643
ಸೀಮ	-11.1643
▁ದ್ವಾಸಟ್ಠಿ	-11.1643
▁ಗಮಿಸ್ಸಾಮಿ	-11.1645
▁ಓದನ	-11.1646
▁ಆರೋಚೇತ್ವಾ	-11.1646
ಗಮೋ	-11.1648
ತವೇ	-11.1649
▁ನಿಯ್ಯಾನಿಕ	-11.1652
▁ಅಸದ್ಧಮ್ಮ	-11.1655
▁ಉಪಸಮ್ಪದಂ	-11.1655
▁ಸಮ್ಬೋಧ	-11.1655
▁ಉಭೋಸು	-11.1656
▁ವದಾಮೀತಿ	-11.166
▁ಸದೇವಕ	-11.1661
ಪುರಂ	-11.1662
▁ಪತ್ತಚೀವರ	-11.1662
▁ಕಲ್ಯಾಣಂ	-11.1665
▁ಆಗಚ್ಛೇಯ್ಯ	-11.1666
▁ಮಹಾಸಾವಜ್ಜ	-11.1666
▁ಓತಿಣ್ಣ	-11.1667
▁ಕರೋನ್ತ	-11.167
▁ಪಞ್ಚಸತಾ	-11.167
▁ಲೋ	-11.167
▁ಸೇನಾಸನಾನಿ	-11.1673
▁ಸಾರಜ್ಜ	-11.1673
▁ಗಾಮನ್ತರ	-11.1674
▁ಕಥೇತಬ್ಬ	-11.1674
▁ಪಟಿಪನ್ನಾ	-11.1675
▁ಅಧಿಮುಚ್ಚ	-11.1675
▁ಅಜ್ಝತ್ತಿಕಾ	-11.1679
ಉದ	-11.1679
▁ವಸ್ಸಸತಂ	-11.1679
ಸಾಧ	-11.1681
ುಪಟ್ಠ	-11.1682
ುಪೋಸಥ	-11.1682
ನಾಸ	-11.1685
▁೨೦೬	-11.1685
▁ಕಪಿ	-11.1688
▁ಸಕ್ಯಪುತ್ತ	-11.1689
▁ಉಪಜ್ಝಾಯಸ್ಸ	-11.1689
▁ಚೇತಸಿಕಾ	-11.169
▁ಧಮ್ಮಾಯತನ	-11.169
▁ಬಿಮ್ಬಿಸಾರ	-11.1692
▁ಓರುಯ್ಹ	-11.1692
▁ಸರದ	-11.1694
▁ಚತುಪ್ಪದ	-11.1696
ಯೋಜನಂ	-11.1697
▁ದಾತು	-11.1697
▁ದುಕ್ಖಿತ	-11.1698
▁ಪದಹತಿ	-11.1699
ಮಾರುಯ್ಹ	-11.1699
▁ಅಧಿಪ್ಪೇತತ್ತಾ	-11.1699
ಿಣ	-11.1701
▁ಅಜಾನಿತ್ವಾ	-11.1701
ಖಾದನೀಯ	-11.1701
ಗ್ಗೋ	-11.1702
▁ಅನುಯುತ್ತೋ	-11.1702
▁ಭುಮ್ಮಂ	-11.1704
▁ಕಮ್ಮಾರ	-11.1705
ಅಗ್ಗ	-11.1709
▁ಕಸ್ಸಪಸ್ಸ	-11.1709
ಚಿತ್ತಾನಂ	-11.171
▁ರಸೇ	-11.1712
▁ಫುಲ್ಲ	-11.1721
ಪರಾಮಾಸವಿಪ್ಪಯುತ್ತ	-11.1721
ಮಣ್ಡಲೇ	-11.1723
▁ಮರತಿ	-11.1724
▁ಸಸ್ಸತೋ	-11.1724
▁ತದನುರೂಪ	-11.1725
▁ಅಭಿಮುಖ	-11.1725
▁ಪೀಣ	-11.1725
▁ಪಾದೇಹಿ	-11.1726
ಇಚ್ಚ	-11.1728
ದಾಯಕತ್ಥೇರಸ್ಸ	-11.1728
ಪರಕ್ಕಮ	-11.1729
ಸನ್ತೋ	-11.1729
ಾಗಮೋ	-11.173
▁ವೀಣಾ	-11.173
▁ಸಮಾಪಜ್ಜಿ	-11.173
ಲಾಭೋ	-11.1731
▁ಕಪ್ಪೋ	-11.1731
ಘಂ	-11.1732
▁ಉಳಾರಂ	-11.1732
▁ಅಸಮ್ಮೋಹ	-11.1733
▁ಅಪ್ಪೇಕಚ್ಚ	-11.1733
ರಾಜಿ	-11.1735
▁ಅದಾಸಿಂ	-11.1735
▁ಅಹನ್ತಿ	-11.1737
ಮತ್ತೇನೇವ	-11.1737
▁ನಿದ್ದಿಟ್ಠೋ	-11.1739
▁ನಿಗಣ್ಠ	-11.174
▁ಚಕ್ಖಾಯತನ	-11.174
▁ಲೋಕಿಯೋ	-11.1743
▁ಸಕದಾಗಾಮಿಫಲ	-11.1746
ಜಾತಿಕ	-11.1746
▁ಛೇದ	-11.1746
▁ಸಪ್ಪಾಣಕ	-11.1749
▁ವೂಪಸನ್ತ	-11.1751
ಮುತ್ತಾ	-11.1753
▁೨೦೦	-11.1754
▁ಪಾತಿಮೋಕ್ಖಸಂವರ	-11.1757
▁ಅಭಿನಿವೇಸ	-11.1758
▁ಅಭವ	-11.1759
▁ವುಸಿತಂ	-11.1761
▁ದಿಟ್ಠಾನುಸಯ	-11.1763
ಅಧಮ್ಮ	-11.1767
▁ಗಣನಾ	-11.1769
▁ದನ್ತಕಟ್ಠ	-11.1769
▁ಞತ್ತಿಯಾ	-11.177
▁ನ್ಹಾರು	-11.177
▁ಸಾಣ	-11.1771
ಚತುಕ್ಕಂ	-11.1771
ಪಕರಣ	-11.1774
▁ಭಗ್ಗ	-11.1775
ಯಾವತಾ	-11.1776
▁ಜಾತಿಪಚ್ಚಯಾ	-11.1777
ನಿದಸ್ಸನಂ	-11.1777
▁ಪಮುದಿತ	-11.1777
▁ನಿರವಸೇಸ	-11.1778
ರೂಪಜೀವಿತಿನ್ದ್ರಿಯ	-11.1781
ಾದಿಅತ್ಥ	-11.1784
▁ಕುಮುದ	-11.1785
▁ಪಟಿಗ್ಗಹಿತಂ	-11.1786
▁ಅಪರಿಮಾಣ	-11.1787
▁ಅಸದಿಸ	-11.1787
▁ನಿವಾಸನ	-11.1788
ಧಾತುಂ	-11.1789
▁ಅಚಿರ	-11.179
▁ವಚನತ್ಥೋ	-11.179
▁ಧರ	-11.1791
▁ಯತಿ	-11.1792
▁ಅನ್ವ	-11.1795
▁ದಿಟ್ಠಿಗತಿಕ	-11.1796
ಥಿ	-11.1798
▁ಅದ್ದ	-11.1801
▁ಅದು	-11.1802
ವೇದನಂ	-11.1802
▁ಬಿನ್ದು	-11.1803
▁ಗುಣವ	-11.1804
▁ಲೋಕಸ್ಮಿ	-11.1805
▁ಉಚ್ಚಾವಚ	-11.1807
▁ವಿಹಞ್ಞ	-11.1808
▁ಜಾನಾಥ	-11.1809
▁ಪರಿಭುತ್ತ	-11.1809
ಇರಿಯಾಪಥ	-11.1809
ದ್ವಾದಸ	-11.1811
▁ವಿದಿತೋ	-11.1813
▁ವೀರಿಯಾರಮ್ಭ	-11.1813
ಸಙ್ಗೀತಿ	-11.1813
▁ಆಭುಜಿತ್ವಾ	-11.1815
▁ಚೇತೋಸಮ್ಫಸ್ಸಜ	-11.1815
▁ಪಠಮತರಂ	-11.1816
▁ಉಪಸನ್ತ	-11.182
ಸುಣ	-11.182
▁ಆಚಿಕ್ಖಿ	-11.1821
▁ಚತುಬ್ಬಿಧೋ	-11.1823
▁ನ್ಹಾನ	-11.1825
▁ಅಙ್ಗಜಾತಂ	-11.1825
▁ಯೋಜಿತ	-11.1825
ಪಾದೋ	-11.1826
ಉದ್ಧ	-11.1828
ವಿಪಾಕಂ	-11.183
▁ಆಗಮನಂ	-11.183
▁ಉಪದ್ದವ	-11.183
▁ಪದಹ	-11.183
▁ನವಹಿ	-11.1831
▁ದುಕ್ಖನಿರೋಧೋ	-11.1831
▁ಇಮಿನಾಪಿ	-11.1832
ಸಿಲಾ	-11.1835
▁ಚೇತಿಯಸ್ಸ	-11.1838
▁ರತನಾನಿ	-11.1839
▁ಉಪ್ಪಜ್ಜತೀ	-11.1839
▁ಅಭಿಸಮಯ	-11.1841
▁ಭುಮ್ಮ	-11.1841
ಯೋಪಿ	-11.1842
▁ಆದ	-11.1843
▁ಅಪರಿಸುದ್ಧ	-11.1844
ಪುರಿಮ	-11.1845
▁ಬಾಹಾ	-11.1845
▁ಭತ್ತು	-11.1846
ಕಮ್ಮನ್ತ	-11.1846
▁ಕಿಲ	-11.1846
▁ಭಣನ್ತಿ	-11.1847
▁ವಿಜಯ	-11.1847
▁ಭವೇಯ್ಯಾತಿ	-11.1848
ಸಚ್ಚಪರಿಯೋಸಾನೇ	-11.1849
▁ಧಮ್ಮಿಯಾ	-11.185
▁೨೧೩	-11.1851
▁ಮನೋರಮಾ	-11.1855
ಅನ್ತರ	-11.1856
▁೨೨೮	-11.1858
ಯಾಚನ	-11.186
ನಿಗ್ಗಹ	-11.186
▁ಸಮ್ಪಜ್ಜತಿ	-11.1861
ವಿಪ್ಪಯುತ್ತಚಿತ್ತ	-11.1861
▁೨೧೬	-11.1861
▁೨೩೮	-11.1862
▁ವಸ್ಸಿಕಸಾಟಿಕ	-11.1863
ೇಮೀತಿ	-11.1864
ೇಯ್ಯೋ	-11.1865
▁ಅಭಿಧಮ್ಮಭಾಜನೀಯ	-11.1865
▁೨೧೮	-11.1865
ರತ್ತಂ	-11.1865
ಘಟನಾ	-11.1866
▁ಚೀವರಪಿಣ್ಡಪಾತ	-11.1866
ಪೋರಿಸ	-11.1868
ಿಂಸೂ	-11.1868
▁ಮಹನ್ತೇನ	-11.1868
▁ಅನಞ್ಞಸಾಧಾರಣ	-11.187
▁ಕಚ್ಛ	-11.187
▁೨೩೬	-11.1871
▁ಸಪ್ಪಟಿಘ	-11.1872
▁ಹದಯೇ	-11.1873
▁ಬಲವತರ	-11.1874
▁ವದೇಯ್ಯುಂ	-11.1874
ದಮ	-11.1875
▁ಅಭಿನೀಹಾರ	-11.1875
▁ಥನ	-11.1876
ವಿಮುತ್ತಿಞಾಣದಸ್ಸನ	-11.1876
▁ಕಮ್ಬಲ	-11.1876
▁ಸಮುಟ್ಠಾನಾದೀನಿ	-11.1878
▁ದುಮ್ಮ	-11.1878
ವತ್ಥುಕಥಾವಣ್ಣನಾ	-11.188
▁ನದತಿ	-11.1882
▁ಸಾರಾಗೋ	-11.1882
▁ಸಲ್ಲಪ	-11.1882
ಯುಗಂ	-11.1882
ಿತುಕಾಮಾ	-11.1883
▁ಅಪುಬ್ಬಂ	-11.1885
▁ಸಬ್ಬಥಾಪಿ	-11.1886
▁ಸನ್ತೀರಣ	-11.1888
▁ಧಾರೇನ್ತಿ	-11.189
▁ನಿರೋಧೇ	-11.189
ಿನ್ದ್ರಿಯೋ	-11.1893
ಪಚ್ಚಯಸ್ಸ	-11.1893
ಮಥ	-11.1898
ಬ್ಯಾಕರಣ	-11.1898
ಮಿಚ್ಚಾದಿ	-11.19
▁ಚಿಣ್ಣ	-11.19
▁ನೇತ್ತಿ	-11.1904
▁ಕಪ್ಪಂ	-11.1904
▁ಅಸ್ಸಂ	-11.1908
▁ಪಸೀದ	-11.1911
▁ಠಿತೇನ	-11.1914
ೇಯ್ಯುನ್ತಿ	-11.1914
▁ವಿಪಾಕಾನಂ	-11.1915
ಪ್ಪಮಾಣಾ	-11.1915
ವಚನತೋ	-11.1915
▁ಉಪಮಾಯ	-11.1916
▁ಅರಿಟ್ಠ	-11.1921
▁ಯಸಸ್ಸಿ	-11.1921
▁ಚಞ್ಞೇ	-11.1922
▁ಉಪ್ಪಾದಿತ	-11.1923
▁ಅಧಿಕಂ	-11.1923
▁೨೧೦	-11.1923
▁ಕಯವಿಕ್ಕಯ	-11.1923
▁ಪದಚ್ಛೇದೋ	-11.1924
▁ನಿರೋಧಸಮಾಪನ್ನ	-11.1924
ಬಿನ್ದು	-11.1925
▁ಕಾಮೂಪಸಂಹಿತಾ	-11.1925
ಹಾಸ	-11.1927
▁೧೯೭	-11.1928
▁ಭಿನ್ನಾ	-11.1928
▁ಕ್ರಿಯತ್ಥಾ	-11.1929
ಣ್ಠ	-11.193
ಫಲೋ	-11.1932
▁ಕುಣ್ಡಲ	-11.1932
ರಿಯಾ	-11.1932
▁ರುಕ್ಖಮೂಲ	-11.1933
▁ಮಚ್ಚುನೋ	-11.1935
▁ನೇರಯಿಕ	-11.1935
▁ವಿರತೋ	-11.1937
▁ಆದಾಸ	-11.1939
▁ಮೂಲಾನಿ	-11.1941
ನ್ತಸ್ಸಾತಿ	-11.1942
▁ಪಟ್ಟ	-11.1942
▁ಪಾಯಾಸಿ	-11.1942
▁೨೩೪	-11.1944
▁ಕಾಯದುಚ್ಚರಿತ	-11.1944
▁ನದಿ	-11.1945
▁ಸಬ್ಬಧಿ	-11.1948
ೇಸ್ಸಾಮೀತಿ	-11.195
▁ತಾವತಿಂಸ	-11.1952
▁ಸೀಲಾದಿ	-11.1952
▁ಅನ್ನಪಾನ	-11.1953
▁ತಾದಿ	-11.1954
ದುಟ್ಠ	-11.1956
ಾನುಪಸ್ಸ	-11.1957
▁ಉಪಚಯೋ	-11.1959
▁ಪಞ್ಚದಸ	-11.1961
▁ಸಿಕ್ಖೇಯ್ಯ	-11.1962
ಸಮುಟ್ಠಾನೋ	-11.1963
ವಿಸಯಂ	-11.1963
▁ಸಬ್ಬಕಿಲೇಸ	-11.1965
ವಚನೋ	-11.1966
▁೨೦೩	-11.1966
ವಾದಿತ	-11.1966
▁ಪರಿಗ್ಗಣ್ಹ	-11.1967
▁ಸಮ್ಪಯುತ್ತಸ್ಸ	-11.1968
ಾಗನ್ತ್ವಾ	-11.1976
ಪಲ್ಲವ	-11.1976
▁೨೪೩	-11.1977
▁೨೦೮	-11.198
▁ಮಜ್ಝಿಮಂ	-11.1981
▁ಕಾಮಧಾತು	-11.1981
▁ಅಗ್ಗಹೇಸಿ	-11.1982
▁ಮಹಿದ್ಧಿಕೋ	-11.1983
▁೨೩೭	-11.1984
▁ಪಾದಮೂಲೇ	-11.1984
▁ಅಪ್ಪೀತಿಕ	-11.1984
▁ಪಂಸುಕೂಲಿಕ	-11.1984
▁ನಿರನ್ತರ	-11.1985
▁ತಥಾರೂಪಂ	-11.1985
▁ಪಮುಖ	-11.1985
▁ಪಸಾರೇತ್ವಾ	-11.1986
▁ಯೋಗಿನೋ	-11.1986
ಸೋತಾಪತ್ತಿಫಲಾದೀನಿ	-11.1987
▁ಆಗತೋತಿ	-11.1988
▁ಅಧಿಟ್ಠಾತಬ್ಬ	-11.1991
▁ಸುಭಂ	-11.1992
▁ಮೋಹಾ	-11.1994
▁ಮಹಿ	-11.1995
ಸಬ್ಭಾವತೋ	-11.1995
▁ಅನುಭವಿತ್ವಾ	-11.1995
▁ಮನ್ದೋ	-11.1996
▁ವಿಚಿಕಿಚ್ಛಾಯ	-11.1996
▁ಸುರಾಮೇರಯ	-11.1997
▁ಬ್ಯಸನ	-11.1997
▁ಭವಿಸ್ಸ	-11.1998
▁ಉಸ್ಸುಕ್ಕಂ	-11.1999
▁ಫಲೇ	-11.1999
ತುಲ	-11.2001
▁ಪಿಪಾಸ	-11.2001
▁ಕಿಂಕಾರಣಾ	-11.2001
ಾದಿನೋ	-11.2004
ಯ್ಯಾ	-11.2005
▁ನಪ್ಪಜಹನ್ತಿ	-11.2005
▁ಅಞ್ಞತಿತ್ಥಿಯಾ	-11.2006
ಪರಿಗ್ಗಹೋ	-11.2007
ೂಪಮೋ	-11.2008
▁ಚೀವರಾನಿ	-11.2008
▁ದಾನೇನ	-11.2008
▁ಪರಿಮಣ್ಡಲ	-11.201
ಪ್ಪತಿಟ್ಠ	-11.201
ಿತಾನಂ	-11.2011
▁ರಮ್ಮೇ	-11.2012
▁ಭಜತಿ	-11.2012
▁ಅನೇಕಾನಿ	-11.2012
ಬ್ರೂಹ	-11.2014
▁ಉಪಕ್ಕಿಲೇಸ	-11.2015
▁ಛುಪ	-11.2016
▁ಅನೋತ್ತಪ್ಪಂ	-11.2019
▁ದೀಪೇನ್ತಿ	-11.2023
▁ನಿಸ್ಸರಣಞ್ಚ	-11.2024
▁ಕುಸಲಚಿತ್ತ	-11.2024
ಸಾತ	-11.2024
ಾದೀನನ್ತಿ	-11.2025
▁ಅಪದಾನೇ	-11.2026
▁ಗತಿಂ	-11.2026
ಿಸ್ಸರೋ	-11.2027
ನಿಪಾತೋ	-11.2027
▁ಸಮಥಾ	-11.2028
▁ಪಚ್ಚೇಕಸಮ್ಬುದ್ಧೋ	-11.2029
ಭಾಜ	-11.203
▁೨೧೯	-11.2031
ದುಗ್ಗ	-11.2032
▁ಆಭತಂ	-11.2033
ುದ್ಧಾರ	-11.2033
▁ಪಹಾರಂ	-11.2034
▁ನಾಮಗೋತ್ತ	-11.2035
ಸೇಚನ	-11.2035
▁ಇತ್ಥ	-11.2037
▁ತುವ	-11.2038
▁೨೩೩	-11.2039
ತ್ತೇಪಿ	-11.2039
▁ಜಲಿತ	-11.2039
▁ಅಬ್ಯಾಪಾದ	-11.204
▁ದಣ್ಡೇನ	-11.204
▁ಉಭಿನ್ನಮ್ಪಿ	-11.2041
▁ಮಹೀಪತಿ	-11.2042
ಭಾವತೋತಿ	-11.2043
▁ಧೋತ	-11.2044
▁ಪುಞ್ಞಕಮ್ಮೇನ	-11.2045
▁ವಿಞ್ಞಾಣೇ	-11.2045
▁ಅತೀತೋ	-11.2046
▁ದಜ್ಜಾ	-11.2047
▁ನಾರಿಯೋ	-11.2047
▁ಪರಿಕ್ಖಿಪಿತ್ವಾ	-11.2047
ಸೂಚಿ	-11.2048
▁ಭಯಾನಕ	-11.2048
▁ಅವಿತಕ್ಕಂ	-11.2048
▁ನಿಬ್ಬಾನಾಯ	-11.2048
▁ಸುಚರಿತ	-11.2049
▁ಪಞ್ಚವೋಕಾರಾನಂ	-11.205
ಪದಾ	-11.2051
ಮಸ	-11.2051
▁ದೀಪಿತಾ	-11.2051
▁ನಿಗ್	-11.2051
▁ವಿಭಾವೇತಿ	-11.2052
ಹೇತುದುಕಂ	-11.2053
ಕ್ಕಮ್ಮ	-11.2057
▁ಅಪರಾಧ	-11.2057
▁ಘಟೇತ್ವಾ	-11.206
ಿದ	-11.206
ೇಯ್ಯಾಸೀ	-11.206
ಭವಙ್ಗ	-11.2061
ಭಾವಞ್ಚ	-11.2067
▁ವಿಗ್ಗಹ	-11.2067
▁ಪೋಥ	-11.2068
▁ಖಾದಿತ್ವಾ	-11.2069
▁ಅಜಾನನ್ತ	-11.2072
ಅತ್ಥೇ	-11.2073
▁ಅಹಿತ	-11.2074
▁ನೀವರಣಸಮ್ಪಯುತ್ತ	-11.2077
ವುಟ್ಠಿ	-11.2078
▁ಅಯೋನಿಸೋಮನಸಿಕಾರ	-11.2078
ಪ್ಪತ್ತಿ	-11.2078
▁ವಿಬ್ಭಮ	-11.208
ಪಣಿಹಿತ	-11.2081
▁ಚೀವರೇನ	-11.2082
▁ಆರೋಪೇ	-11.2083
▁ಪಣಿಧೀತಿ	-11.2084
▁ನಿರೋಧಸಚ್ಚಂ	-11.2084
ಾದಿಕ	-11.2085
ವಿಕ್ಖೇಪ	-11.2086
ಲಙ್ಕಾರ	-11.2088
▁ಅನುಪಾದಾ	-11.2089
▁ವಿಮುತ್ತಿಯಾ	-11.2089
▁ಹನ್ತಿ	-11.2091
▁ಉಪಕಾರಕ	-11.2091
▁ಅರೂಪಾವಚರಾನಂ	-11.2091
▁ಅಗ್ಗಿಕ್ಖನ್ಧ	-11.2096
▁ಭಾವನಾಮಯ	-11.2096
▁ನಿಕಾಯ	-11.2097
▁ವಚ್ಚ	-11.2097
▁ಸಳಾಯತನಂ	-11.2098
▁ಗನ್ಧಕುಟಿ	-11.21
▁ಸೋತವಿಞ್ಞಾಣ	-11.21
▁ಉಪಸನ್ತೋ	-11.21
▁ಅಗ್ಗಿವೇಸ್ಸನ	-11.2101
▁ಧಮ್ಮಸಭಾಯಂ	-11.2101
▁ಸಮೂಹತಾ	-11.2103
▁ಸಮಿದ್ಧ	-11.2104
▁ಆರುಳ್ಹ	-11.2104
▁ಯಥಾವುತ್ತಂ	-11.2105
▁ಧಮ್ಮವಿಚಯೋ	-11.2106
▁ವಿನೋದ	-11.2106
▁ನಿಮನ್ತೇತ್ವಾ	-11.2107
▁೧೯೯	-11.211
ಪ್ಪದೇಸೇ	-11.2111
ಕ್ಖನ್ಧಾ	-11.2112
▁ಸೇನಾಸನೇ	-11.2112
▁ವಿಪಚ್ಚ	-11.2113
▁ಸಬ್ಬನಾಮ	-11.2116
ಸಮ್ಮತ	-11.2116
ಪತ್ತಾ	-11.2117
▁ಕೀದಿಸಂ	-11.2118
▁ವಿಭಾಗ	-11.212
▁ಅನ್ತರಾಯೋ	-11.212
▁ಸಬ್ಬಸತ್ತಾನಂ	-11.2124
ದ್ಧಜ	-11.2125
▁ಪಟಿಕ್ಖೇಪೋ	-11.2126
▁ದಟ್ಠುಂ	-11.2128
▁ಕುಟ	-11.2129
ಚೇತನಾಯ	-11.2129
▁ಸಿಯನ್ತಿ	-11.2129
▁ಮಞ್ಞೇಯ್ಯ	-11.213
▁ಪರೇನ	-11.2131
ಭುಜ	-11.2131
▁ಹಿತಸುಖ	-11.2131
▁ನೋಉಪಾದಾನ	-11.2135
▁ಆದಾನ	-11.2139
▁ಹಾಯ	-11.2139
ಪರಿಯಾದಾನ	-11.2144
ಾಮಿಸ	-11.2144
▁ಆಚರ	-11.2145
▁ತಸ	-11.2145
▁ಅನೂನ	-11.2145
▁ಆಜೀವಕ	-11.2146
▁ಪೀತಿಸಮ್ಬೋಜ್ಝಙ್ಗ	-11.2149
▁ಏಕವೀಸತಿ	-11.2149
ಕೂಟಂ	-11.2153
▁ಸಮಣಬ್ರಾಹ್ಮಣಾನಂ	-11.2155
ಥು	-11.2155
ಾಬಾಧ	-11.2156
▁ಸಾರಮ್ಮಣ	-11.2156
ವಿನಿಚ್ಛಯಂ	-11.2158
▁ವರೋ	-11.2158
▁೨೦೪	-11.2158
▁ಉಪಾಹನ	-11.2159
▁ಕುಟ್ಠ	-11.216
▁೨೦೧	-11.216
ಚ್ಚೇವ	-11.2161
ಸಂವಾಸ	-11.2161
▁ದಕ	-11.2161
ಾಲಿ	-11.2162
▁ಬಾಹಿಯ	-11.2162
▁ಘಮ್ಮ	-11.2162
▁ಚಾಪ	-11.2162
▁ಅರೋಗೋ	-11.2162
ಗತ್ತ	-11.2163
▁ಉಪ್ಪತಿತ್ವಾ	-11.2164
ೇನ್ತೇನ	-11.2165
▁೨೩೦	-11.2168
▁ಸಂವತ್ತನ್ತೀ	-11.217
▁ಸಾಮಞ್ಞತೋ	-11.2173
ಾಚರಿಯೋ	-11.2175
▁ಮಾತಙ್ಗ	-11.2177
▁ಧಮ್ಮರಾಜಾ	-11.2178
▁ಅವೇಕ್ಖ	-11.218
▁ಕಾರುಞ್ಞ	-11.2182
▁ಜೀಯ	-11.2187
▁ಸಾವಕೇ	-11.2187
ತ್ಥಿಕಾ	-11.2187
▁ಕಾಕೋ	-11.2188
▁ಏತ್ತಕಮೇವ	-11.2188
ಗಮನೇನ	-11.2188
ಪಟಲ	-11.2189
▁ಅಪ್ಪವತ್ತ	-11.2191
ಉಚ್ಚ	-11.2191
ವಿಭತ್ತ	-11.2194
▁ಸಬ್ಬಸಙ್ಖಾರ	-11.2196
▁೨೧೨	-11.2198
▁ಅಪರಮ್ಪಿ	-11.2198
▁ಆತಪ	-11.2198
ಿನ್ದ್ರಿಯಾನಿ	-11.2201
▁ಫುಟ್ಠಸ್ಸ	-11.2201
▁ಸೀಹನಾದ	-11.2201
▁ಪಾತಿ	-11.2202
▁ಪಿತ್ತ	-11.2203
▁ವಿಕಿರ	-11.2203
ಕಿರ	-11.2204
▁ಪತಿರೂಪ	-11.2205
ವಿವಿತ್ತ	-11.2206
ಧಾತುಯೋ	-11.2206
▁ನಾಳಿ	-11.2206
▁ಅಜ್ಝಾವಸ	-11.2208
▁ದೋಸಸ್ಸ	-11.2209
▁ಭಾವೇನ	-11.2211
ವಿವರಣ	-11.2212
ಕಮ್ಮನ್ತಿ	-11.2212
▁ಕಮ್ಮವಾಚಾಯ	-11.2212
▁ಕುಟಿಂ	-11.2212
▁೨೧೧	-11.2213
▁ವಿಜಾನಾತಿ	-11.2213
▁ನಿಮ್ಮ	-11.2213
ತ್ತನ್ತಿ	-11.2213
▁ಚೋಳ	-11.2214
ಲಬ್ಭ	-11.2215
▁೨೨೫	-11.2215
▁೨೧೪	-11.222
▁ಪವತ್ತತ್ತಾ	-11.222
▁ಕಾರಣನ್ತಿ	-11.222
▁ಯಾವತತಿಯಂ	-11.2221
▁ವಿಞ್ಞಾತಬ್ಬೋ	-11.2221
▁ಪುಚ್ಛಿತಾ	-11.2221
▁ಗುನ್ನಂ	-11.2222
▁ಆರಾಮಂ	-11.2222
ನೇತಂ	-11.2223
▁ಸುತ್ತಾನಿ	-11.2223
▁ವಸ್ಸೇ	-11.2225
▁ನಿಸೀದಾಪೇತ್ವಾ	-11.2226
ಚತ್ತಾರಿಮಾನಿ	-11.2226
▁ವವತ್ಥಪೇತಿ	-11.2226
▁ಅತ್ತಹಿತಾಯ	-11.2227
▁ಉದಾಹರಣ	-11.2229
▁೨೨೯	-11.223
▁ಚಾಹಂ	-11.2233
▁ಬ್ಯಸನಂ	-11.2234
▁ಮಗ್ಗಸಚ್ಚಞ್ಚ	-11.2235
ಪಥೋ	-11.2235
▁೨೨೪	-11.2235
ನಿಸ್ಸಿತೋ	-11.2236
ಮದೋ	-11.2239
▁ಕುಸಲಞ್ಚ	-11.224
ಸವೋ	-11.224
ಟಿ	-11.224
▁೨೦೨	-11.224
▁೨೨೬	-11.224
▁ಏತಿಸ್ಸಾ	-11.2243
▁ಅನ್ಧಕಾರೇ	-11.2246
▁ಧುನ	-11.2247
ಧಿಕಾರ	-11.2248
▁೨೩೨	-11.2248
ಬದ್ಧೋ	-11.2249
▁ದಸ್ಸನೀಯ	-11.2249
▁ಸಬ್ಬಞ್ಞುತಞ್ಞಾಣಂ	-11.2249
▁ವಕ್ಖಾಮಿ	-11.225
▁ಸಚಿತ್ತಕ	-11.2252
▁ಅಹಿತಾಯ	-11.2252
▁ವಿಚರತಿ	-11.2252
▁ಗಣ್ಹತೋ	-11.2255
ಪ್ಪಚ್ಚಯಾ	-11.2256
▁ಅಪರಿಪುಣ್ಣ	-11.2257
▁ವಲಾಹಕ	-11.2259
▁ಪಾದೇಸು	-11.226
▁ಪರಾಮಾಸೋ	-11.226
▁ವದೇ	-11.2261
ಿಸು	-11.2262
ವೋಹಾರೇನ	-11.2262
ಭಾವೇನಾತಿ	-11.2263
▁ತದನು	-11.2263
▁ಅಧಿಮೋಕ್ಖೋ	-11.2263
▁ಫಲದಾನ	-11.2264
ದ್ಧಾ	-11.2266
▁ಅಪ್ಪಮತ್ತಾ	-11.2267
▁ಅನುಪಸಮ್ಪನ್ನ	-11.2267
▁ಅರೂಪಾವಚರಂ	-11.2268
ಸೂರ	-11.2269
▁ದೇಸೇತಬ್ಬ	-11.2269
▁ಡ	-11.2269
▁ಸಮ್ಪಟಿಚ್ಛನ	-11.227
ದಿನಾ	-11.227
ಮದ್ದನ	-11.227
▁ಅನ್ತರಂ	-11.227
▁ಇತೀತಿ	-11.2271
ಹತೋ	-11.2273
▁ಭರಿಯಾಯ	-11.2274
▁೨೧೭	-11.2275
▁ಠಪೇತಬ್ಬ	-11.2275
ಿತೇನ	-11.2278
ನಿದ್ದಿಟ್ಠ	-11.2279
▁ಸಮಿದ್ಧಿ	-11.228
▁ಫೋಟ್ಠಬ್ಬಾ	-11.2281
▁ವಿಧಮ	-11.2282
▁ಪರಿಭುಞ್ಜಿತಬ್ಬ	-11.2282
▁ವಕ್ಕ	-11.2283
▁ತೂರಿಯ	-11.2284
▁ಹಞ್ಞ	-11.2285
▁ಪಞ್ಚಕಾಮಗುಣ	-11.2286
ಾದಿವಣ್ಣನಾ	-11.2286
▁ಅಯಮಾಯಸ್ಮಾ	-11.2288
▁ಮಹಾಪಥವೀ	-11.2289
▁ನಿದ್ದಾ	-11.2289
▁ಪಿಹಿತ	-11.2291
▁ಸಮಾದಿಯಿತ್ವಾ	-11.2291
▁ವಿಸಾಖೇ	-11.2291
▁ವಿವದ	-11.2292
ಯೋಗ್ಗ	-11.2292
ಯತೀ	-11.2294
▁ದಸಾತಿ	-11.2295
ಸ್ಸರೋ	-11.2296
▁ದ್ವಿತ್ತಂ	-11.2296
ಏಕೋ	-11.2297
▁ಸೀಲೇ	-11.2298
▁ಲೇಣ	-11.2302
▁ಅನುಸನ್ಧಿ	-11.2302
▁ನಯಿದಂ	-11.2303
▁ಆಘಾತ	-11.2304
▁ಬೋಧಿಪಕ್ಖಿಯ	-11.2305
▁ಪಭಾಸ	-11.2306
▁ಉಕ್ಖಿತ್ತಕ	-11.2307
▁ಸಞ್ಚರಿತ್ತ	-11.2307
▁ಸಮ್ಮಾಸಮ್ಬೋಧಿಂ	-11.2307
ನ್ತೇವ	-11.2309
ಉತು	-11.231
▁ಮಜ್ಝಿಮಾ	-11.2314
▁ಸುದಿನ್ನ	-11.2315
▁ದಾಸೋ	-11.2317
ಮಯೇ	-11.232
ಅತ್ಥೋ	-11.2321
ಪರಿಯಾಪನ್ನೋ	-11.2322
▁ಮಹನ್ತೇ	-11.2322
▁ಸಪರಿವಾರ	-11.2324
▁ಅಭಿನ್ನ	-11.2324
ಮತ್ತನ್ತಿ	-11.2327
▁ಸದಿಸಾ	-11.2327
▁೨೨೨	-11.2328
ಸಙ್ಕೇತ	-11.2329
▁ಸಙ್ಗಣ್ಹ	-11.233
▁ಸಮ್ಮಸ	-11.233
▁ಕಿತ್ತಾವತಾ	-11.2332
▁ಪಟಿಲಾಭೋ	-11.2333
▁ನಿಕ್ಖಮತಿ	-11.2333
▁ಇದ್ಧ	-11.2337
ುಸ್ಸದ	-11.2338
▁ಸೋಯೇವ	-11.2341
▁ಪಪಞ್ಚಸೂದನಿಯಾ	-11.2343
▁ಮೋಘ	-11.2345
▁ವತ್ತಮಾನಾ	-11.2347
▁ಆವಸಥ	-11.2348
▁ವಣ್ಣವಾದೀ	-11.2348
▁ನೋಪರಾಮಾಸ	-11.235
ತಾವ	-11.2351
▁ಪೇಕ್ಖಮಾನೋ	-11.2351
▁ಭಾಸಿಸ್ಸಾಮೀ	-11.2351
▁೨೪೦	-11.2351
ಉಪ್ಪನ್ನ	-11.2351
▁ಉತ್ತ	-11.2353
▁ಉಪಪಜ್ಜೇಯ್ಯ	-11.2353
ಲ್ಯ	-11.2353
▁೨೨೩	-11.2355
▁ತಾವಕಾಲಿಕ	-11.2355
▁ಭಗ	-11.2357
ಕಿಲೇಸೋ	-11.2358
▁ಕರಣೀಯೇನ	-11.2358
▁ಪುಚ್ಛಿಂಸು	-11.2358
▁ಸಙ್ಗಹೇತ್ವಾ	-11.2359
▁೨೨೧	-11.2359
▁ವಿಜ್ಝಿತ್ವಾ	-11.236
▁ಯತ್ತಕ	-11.236
▁ಪರಿವೇಣ	-11.236
ಭರಿತ	-11.2361
ಿಕೋತಿ	-11.2361
▁ರಾಜಕುಲ	-11.2362
▁ರಿ	-11.2364
ಪಾರುತ	-11.2365
▁ಅಗ್ಗಸಾವಕ	-11.2366
▁ದುಟ್ಠುಲ್ಲ	-11.2366
▁ಪಹಿತತ್ತೋ	-11.2367
▁ಪರಿಸಾಸು	-11.2367
▁೨೩೫	-11.2367
▁ಏವರೂಪ	-11.2368
▁ಧುರನಿಕ್ಖೇಪ	-11.2373
▁ಗು	-11.2373
ಚ್ಛಾದನ	-11.2375
▁ಪತಿತ್ವಾ	-11.2375
ವಿಲಾಸ	-11.2378
ಇತ್ಥಿ	-11.2378
ಕಮೇವ	-11.2381
▁ಭೋತಿ	-11.2382
ವಸಂ	-11.2383
▁ಅಪ್ಪಸದ್ದ	-11.2384
▁ಉಗ್ಗಹಿತ	-11.2385
▁ಅಹುಂ	-11.2387
▁ಆಭಾ	-11.239
ಬ್ಭನ್ತರ	-11.239
▁ಪಟಿಚ್ಚಸಮುಪ್ಪಾದೋ	-11.239
▁ಪಾಪಕೋ	-11.2392
ಗಂ	-11.2394
ಡಿ	-11.2394
ನಿವೇಸನ	-11.2396
▁ಮುತ	-11.2397
ವತಿಯಾ	-11.2398
ಪಾದಾ	-11.2402
▁ಸಾಧನ	-11.2402
▁ಕಪಿಲ	-11.2403
▁ಜೀವಿಕಂ	-11.2403
▁ಲಿಚ್ಛವಿ	-11.2404
▁ಪಾತುರಹೋಸಿ	-11.2404
▁ಜಾತಿಜರಾಮರಣ	-11.2405
ಗರುಕ	-11.2406
▁ನಪ್ಪಜಹತೀತಿ	-11.2406
ಪಚ್ಚಯೇನ	-11.2407
▁ಯತ್ತಕಂ	-11.2407
ವಿಲ	-11.2407
▁ಭವಿಸ್ಸಾಮೀ	-11.2408
▁ವಿದಿತ	-11.2409
▁ಮದ್ದಿ	-11.2409
ಬಾಹಿರ	-11.2413
ಾಪಯಿ	-11.2414
▁ಉಪಟ್ಠಾಕೋ	-11.2414
▁ಆನೇಞ್ಜ	-11.2415
▁ಸುಣನ್ತಿ	-11.2417
ಪಚ್ಚನೀಯಾನುಲೋಮಂ	-11.2417
▁ಅರಿಯಪುಗ್ಗಲ	-11.2417
▁೨೨೭	-11.2418
▁ಚಿನ್ತಾ	-11.2419
▁ಏಸನಾ	-11.2419
▁ನಪ್ಪಟಿ	-11.2419
ಾಚ	-11.2419
▁ವತ್ತಬ್ಬಮೇವ	-11.242
ಾವಹಂ	-11.242
▁ನೋನೀವರಣ	-11.2423
▁ಅಜಾನನ್ತಸ್ಸ	-11.2427
▁ವಿಞ್ಞೇಯ್ಯಂ	-11.2427
ಪಭೇದ	-11.2427
ಪ್ಪಯೋಜನ	-11.2428
▁ಅತ್ತಾತಿ	-11.2429
▁ಪತಿಟ್ಠಾಪೇ	-11.2434
▁ಇಮಾಸಂ	-11.2435
▁ಅಪ್ಪೇವ	-11.2435
ಧಿಪ್ಪೇತ	-11.2435
▁ಆಸವಸಮ್ಪಯುತ್ತೋ	-11.2437
ಳಾರ	-11.2437
▁ಅನಾಥ	-11.2437
▁ನಿಟ್ಠಂ	-11.2438
▁ವಿಸಾಲ	-11.2438
▁ಪಬ್ಬಜಿತಸ್ಸ	-11.2438
▁ಮಹತೀ	-11.2442
ನುಲೋಮಪಚ್ಚನೀಯಂ	-11.2443
ಧಜ	-11.2443
▁ಅಗ್ಗಿನಾ	-11.2443
ಸಮುದಯ	-11.2443
▁ಅಗ್ಗೇ	-11.2444
ಮಿತ	-11.2444
▁ಪುನಪ್ಪುನ	-11.2445
ತಾದೀಹಿ	-11.2449
ೋಕಾಸಂ	-11.2449
ಾಧಿಪ	-11.245
ಗಮ್ಮ	-11.2451
▁ಕುಣಪ	-11.2451
▁ಕೋಟ್ಠಾಸೋ	-11.2452
▁೨೩೯	-11.2452
ನ್ಥ	-11.2454
ಸನಂ	-11.2454
▁ನಿಸೀದಿತಬ್ಬಂ	-11.2455
▁ವುಟ್ಠಾನಸ್ಸ	-11.2457
ವನ್ದನ	-11.2458
ಮಿಚ್ಚೇವ	-11.246
▁ಪವಾರಣಂ	-11.246
▁ಜೀವಿತೇ	-11.2461
ಸೂಪ	-11.2464
▁ಆಚರಿಯುಪಜ್ಝಾಯ	-11.2466
▁ಸುಖವಿಪಾಕ	-11.2466
▁ಅಕ	-11.2466
▁ಪುರಿಸಪುಗ್ಗಲೋ	-11.247
▁ಜಾನಾಹಿ	-11.247
ಮುಗ್ಗ	-11.2471
▁ಪರಿಕ್ಖೀಣ	-11.2471
▁ಮಿತ	-11.2472
▁ಸರಂ	-11.2474
▁ಚಿತ್ತಚೇತಸಿಕಾ	-11.2476
▁ಸಠ	-11.2477
ತರೇ	-11.2477
▁ಸಮ್ಪದಾ	-11.2477
▁ಕೋಟ್ಠ	-11.2478
▁ಏಕವಿಧೇನ	-11.2482
ವಿಸುದ್ಧ	-11.2482
▁ಸಹಸೇಯ್ಯ	-11.2482
▁ಆಪುಚ್ಛಿತ್ವಾ	-11.2483
▁ಆವರಣ	-11.2484
ಸೇವಿತ	-11.2484
ಬನ್ಧು	-11.2485
ಪುರಿಸಾ	-11.2485
▁ಪುಞ್ಞೇನ	-11.2486
▁ಆರೋಚೇತಿ	-11.2486
▁ಕುದಾಸ್ಸು	-11.2487
ಸಮುದಯಂ	-11.2487
ಬ್ಯಸನ	-11.2488
ಘಾತಕ	-11.2489
▁ಸಞ್ಜಾನಾತಿ	-11.249
▁ದ್ವಯ	-11.2491
▁ದುಹೇತುಕ	-11.2491
ಮತೀ	-11.2493
ಸೇಕ್ಖ	-11.2496
▁ನಿಯ್ಯಾತ	-11.2499
ಖೀರ	-11.25
ನತ್ಥೋ	-11.2502
▁ಗಣೋ	-11.2503
ಿಹ	-11.2503
ಮಾರೋ	-11.2504
▁ವಿಹೇಸ	-11.2507
▁ಹತೋ	-11.2507
ೇಸ್ಸತೀ	-11.2507
▁ಸಾರಿಪುತ್ತತ್ಥೇರ	-11.2511
ಾದಿಭಾವೇನ	-11.2511
▁ಗೋತ್ರಭುಸ್ಸ	-11.2512
▁ವಿಞ್ಞೇಯ್ಯೋ	-11.2512
ಮರಿಯಾದ	-11.2514
ಾಹರಣ	-11.2514
▁ವಿಕ್ಖೇಪ	-11.2514
ನಕಂ	-11.2515
▁ಅಚ್ಚಿ	-11.2516
▁ಸಮೇ	-11.2516
▁ನಿವೇಸನ	-11.2518
ಬಹೂ	-11.2518
▁ಪರಿಗ್ಗಹೋ	-11.2518
ಸಿಕ್ಖಾ	-11.2519
▁ಸಮ್ಬೋಧಾಯ	-11.2519
▁ಪವೇದ	-11.252
ಭುಯ್ಯ	-11.2522
ಸದ್ದತೋ	-11.2522
▁ಬಾಳ್ಹ	-11.2523
▁ಸತಿಪಟ್ಠಾನೇ	-11.2525
▁ಪಚಿತ್ವಾ	-11.2526
▁ವುದ್ಧಿಂ	-11.2526
▁ಪರಿಹಾರ	-11.2526
▁ಪಾಸಾದೋ	-11.2528
ಮಣ್ಡ	-11.2528
▁ಉಪಾಗಮಿ	-11.2531
▁ಉದ್ದ	-11.2532
▁ಪವತ್ತಿಯಂ	-11.2532
▁ಇದ್ಧಿವಿಧ	-11.2533
▁ಪಬ್ಬಜಿಸ್ಸಾಮಿ	-11.2533
▁ಧಿತಿ	-11.2533
▁ದಾಸೀ	-11.2534
▁ತಣ್ಹಕ್ಖಯ	-11.2534
▁ಪಚ್ಚುಪ್ಪನ್ನಾ	-11.2535
▁ಅಗ್ಗಮಗ್ಗಸಮಙ್ಗೀ	-11.2535
▁ಕರೋಮೀ	-11.2535
▁ಅಕುಸಲವಿಪಾಕ	-11.2536
▁ಉಕ್ಕಣ್ಠ	-11.2536
▁ತಾದಿಸಸ್ಸ	-11.2536
ಸಮುಗ್ಘಾತ	-11.2538
ಇಚ್ಚೇವ	-11.254
ವಿಸಯತ್ತಾ	-11.2543
ವಿಪಸ್ಸನಾಯ	-11.2543
▁ವಿವಾದಾಧಿಕರಣಂ	-11.2549
▁ಮರಣೇನ	-11.255
ಪತೀ	-11.2551
▁೨೩೧	-11.2552
ಹತಂ	-11.2553
▁ಗೀವಾ	-11.2554
ಹೇತುತೋ	-11.2555
▁ಪಸ್ಸಸಿ	-11.2556
ಪಬ್ಬತೇ	-11.2557
▁ಚತುರಙ್ಗ	-11.2557
▁ಲದ್ಧನಾಮ	-11.2557
▁ಯಥಾಪಿ	-11.2559
▁ಅಚೇತಸಿಕ	-11.2561
ಪರಂ	-11.2563
▁ಮನೋವಿಞ್ಞಾಣ	-11.2564
▁ದ್ವೇಧಾ	-11.2565
▁ಮಹಗ್ಗತೋ	-11.2569
▁ಕಾಸಾವ	-11.2572
▁ಕುಸಲಾಬ್ಯಾಕತ	-11.2575
▁ಉಪ್ಪಜ್ಜನ	-11.2575
▁ಪಟಿಪತ್ತಿಂ	-11.2576
▁ನಗರಸ್ಸ	-11.2578
ುಮ	-11.2581
▁ಕೀ	-11.2581
▁ಸಬ್ಬತೋ	-11.2582
ಾಹಾರೋ	-11.2582
ಭಿನ್ದ	-11.2583
▁ಪುಟ	-11.2583
▁ಸಮುಟ್ಠಾಪ	-11.2584
▁ಪಟಿಭಾನಪಟಿಸಮ್ಭಿದ	-11.2586
ಕಾಮಂ	-11.2587
ವಿತಾನ	-11.2589
▁ಬ್ಯತ್ತೇನ	-11.2589
ಗ್ಗಹಣೇ	-11.259
▁ವತ್ತಾ	-11.2592
▁ಪಬ್ಬಾಜೇತಬ್ಬೋ	-11.2593
▁ಪಠಮಪಾರಾಜಿಕ	-11.2594
ುಣ	-11.2594
▁ಪಾದೋ	-11.2594
▁ವುತ್ತನಯತ್ತಾ	-11.2596
▁ದಮ್ಮಿ	-11.2596
▁ತೇಯೇವ	-11.2599
▁ಸಉತ್ತರ	-11.2599
ಗಬ್ಭೋ	-11.26
▁ರಥೇಸಭ	-11.2601
ಪರಿದೀಪನ	-11.2602
▁ಸೀತಂ	-11.2602
▁ವಿರೋಚತಿ	-11.2604
▁ದುಲ್ಲಭೋ	-11.2605
▁ಸಮ್ಮಜ್ಜ	-11.2605
▁ಕಮ್ಮಫಲ	-11.2605
▁ಸಮುದಯಸಚ್ಚಞ್ಚ	-11.2606
▁ಉಪವಸ	-11.2609
▁ಕಾರಣೇ	-11.261
▁ಅನುಸ್ಸತಿ	-11.2612
▁ವಿಸಾಖಾ	-11.2612
▁ಪಾಣಿನೋ	-11.2612
ಸತ್ಥು	-11.2613
▁ಸಮಾಸೇ	-11.2613
ಾನೋ	-11.2615
ರಿತ್ವಾ	-11.2615
▁ಮಾತುಗಾಮೇನ	-11.2616
▁ಮನುಸ್ಸಭೂತಾ	-11.2617
▁ಅಸ್ಸದ್ಧಿಯ	-11.2618
▁ನದಾದಿ	-11.2619
ಮಜ್ಝತ್ತ	-11.2622
▁ಸೂರಿಯೇ	-11.2623
▁ಜೇತವನಂ	-11.2623
▁ದಿಟ್ಠಿಗತಾನಂ	-11.2624
ಳು	-11.2625
▁ಮಹಾಸಮುದ್ದೋ	-11.2625
ಾಭಿಸಙ್ಖಾರ	-11.2625
ವಿಸೇಸಾ	-11.2626
▁ಮಗ್ಗಹೇತುಕ	-11.2627
▁ಅಭ	-11.2628
ವಿಮಾನವಣ್ಣನಾ	-11.2629
▁ಪಾರಾಜಿಕಾ	-11.2631
▁ಮೋಕ್ಖೋ	-11.2631
▁ಪರಿಕ್ಖಾರೋ	-11.2631
ಪ್ಪಭಾ	-11.2633
ಪುಬ್ಬಕ	-11.2636
▁ಝಾನಪಚ್ಚಯ	-11.2636
▁ದೇಯ್ಯಧಮ್ಮ	-11.2637
▁ಖೀಯತಿ	-11.2637
▁ಭವರಾಗಾನುಸಯ	-11.2638
ರಞ್ಞ	-11.264
▁ಅಖಣ್ಡ	-11.2641
ಪಟಿಞ್ಞಂ	-11.2641
▁ಖಣಿಕ	-11.2642
▁ಸಚ್ಚಾನಂ	-11.2643
▁ಸಚ್ಛಿಕಿರಿಯಾ	-11.2644
▁ಸರೀರಸ್ಸ	-11.2644
‘‘	-11.2644
▁ಅನುರಕ್ಖ	-11.2645
▁ಪಣಿಧಿ	-11.2646
▁ಕುಲಪುತ್ತಾ	-11.2646
▁ಲಚ್ಛ	-11.2649
▁ಜಿನಂ	-11.265
ಪರಿಬ್ಬಾಜಕ	-11.265
ಅಚ್ಛರಿಯಂ	-11.2651
ಗುಳ	-11.2652
▁ಝಾನಙ್ಗ	-11.2652
▁ಕಿಸ್ಮಿಞ್ಚಿ	-11.2652
▁ಸಮಾಪತ್ತಿಯಾ	-11.2653
▁ಪಟಿಸ್ಸುತ್ವಾ	-11.2653
▁ಸನ್ತಿಟ್ಠತಿ	-11.2654
▁ಅಯಞ್ಹೇತ್ಥ	-11.2654
ಪ್ಪಯೋಗೋ	-11.2655
ಪದವಣ್ಣನಾ	-11.2655
▁ಕಾರಣಭೂತ	-11.2657
▁ರೋಹಣ	-11.2657
▁ರುಚಿ	-11.2658
▁ಸದಿಸಂ	-11.2658
ಬ್ರಹ್ಮಾ	-11.2658
▁ಪಟ್ಠಪೇತ್ವಾ	-11.2659
▁ಅಟ್ಠಿಕ	-11.2659
▁ಗಬ್ಭಂ	-11.2659
▁ಸುತ್ತೇಸು	-11.2661
▁ಸಾರತ್ತೋ	-11.2662
ಮಾನತ್ತ	-11.2662
▁ನಿರಾ	-11.2662
▁ಪಕಾಸೇಸಿ	-11.2662
▁ಸಾಸವೋ	-11.2663
ಗಾಮಿನೀ	-11.2663
ಏಸೋ	-11.2663
▁ಪೇಮಂ	-11.2665
▁ಸಿಥಿಲ	-11.2665
ಪೂತಿ	-11.2667
▁ವಾತೇನ	-11.2667
▁ಅರಹತೀತಿ	-11.2667
▁ಸೀಮಾಯ	-11.2668
▁ಖನ್ತಿಂ	-11.2668
ನಮೋ	-11.2668
▁ಪತ್ಥನಾಯ	-11.2673
ವಾಸೀನಂ	-11.2673
▁ಪೀತಿಸಹಗತೋ	-11.2674
▁ದುಬ್ಭಿಕ್ಖ	-11.2675
ಾವಿ	-11.2675
▁ಸಾನುಸಯೋತಿ	-11.2677
▁ವಿಸೇಸೇತ್ವಾ	-11.2679
▁ಧಮ್ಮಿಕಂ	-11.268
ಸಮತ್ಥತಾ	-11.2682
▁ಸಮ್ಪಜ್ಜ	-11.2683
▁ಯಕಾರ	-11.2684
▁ದುಕ್ಖಸಚ್ಚಞ್ಚ	-11.2684
ಾಯು	-11.2685
ವಿಸಯಾ	-11.2685
▁ಗನ್ಥವಿಪ್ಪಯುತ್ತ	-11.2685
▁ಮಹಗ್ಗತಂ	-11.2686
ಲೋಕಂ	-11.2686
▁ಪದೇಸಂ	-11.2686
▁ಉಪಸಮ್ಪಾದೇ	-11.2687
▁ಅಭಿರಮ	-11.2687
▁ಮಞ್ಞನ್ತಿ	-11.2688
ಪವಾರಣಾ	-11.2691
▁ಅಥೋಪಿ	-11.2691
▁ನಿಸಜ್ಜಾಯ	-11.2692
▁ವಮ್ಮಿಕ	-11.2693
▁ಸಮುದಾಚರ	-11.2695
▁ಸಮ್ಮತ್ತ	-11.2697
ಸಮ್ಮತೋ	-11.2699
▁ಭಾವನಂ	-11.27
ಾಸನಂ	-11.27
ಅನನ್ತರ	-11.2701
ಭಾವಿತ	-11.2701
▁ಸಮ್ಮಾಸಮ್ಬುದ್ಧಾ	-11.2702
▁ಥು	-11.2703
ಯಾಮಿ	-11.2703
ೇಕೋ	-11.2704
ವ್ಹೇ	-11.2705
▁ನಾಮಿಕಪದಮಾಲಾ	-11.2708
▁ವಯಪ್ಪತ್ತೋ	-11.2711
▁ಪಾಮೋಜ್ಜ	-11.2711
ದೋಸಾ	-11.2712
ವಿರತಿ	-11.2712
▁ತದಹು	-11.2712
▁೨೪೨	-11.2713
▁ಧಾರೇನ್ತ	-11.2714
ಲಾಬು	-11.2715
ಚತುನ್ನವುತಿ	-11.2717
ದೇವೀ	-11.2717
▁ಅನ್ತಲಿಕ್ಖೇ	-11.272
▁ಪರದಾರ	-11.272
ಬ್ಭವ	-11.272
▁ಅವಸ್ಸ	-11.2722
ಕಹಾಪಣ	-11.2723
ಚಮ್ಮಂ	-11.2726
▁ಇಧಾವುಸೋ	-11.2726
▁ಕತಕಿಚ್ಚ	-11.2726
ಅಸ	-11.2727
ತಾಪನ	-11.2727
ಚರಿಯಾಯ	-11.2727
▁ಹೇಸ	-11.2728
▁ಬಾರಾಣಸಿ	-11.2728
ತಾಳ	-11.2729
▁ಗಣ್ಹಿತುಂ	-11.273
ನ್ತೂತಿ	-11.2731
▁ಭಗವನ್ತ	-11.2738
▁ನಾನಾಕರಣಂ	-11.2739
▁ನಿಚ್ಚಲ	-11.274
▁ಉಪಾಸಕಂ	-11.2742
▁ವಿವಿಧಾ	-11.2742
▁ಮಹಾವಿಹಾರ	-11.2742
▁ಭವನಂ	-11.2743
▁ಸಸ್ಸತದಿಟ್ಠಿ	-11.2743
ನಿರುತ್ತಿ	-11.2749
▁ನಾರದ	-11.275
▁ಪಬ್ಬಜ್ಜಾಯ	-11.2752
ಕ್ಖೇಪ	-11.2756
▁ಮುದ್ಧ	-11.2758
▁ಮುಚ್ಛ	-11.2759
ಸಮನ್ನಾಗತ	-11.2761
ಕಿರಿಯಂ	-11.2761
▁ಉಪಾದಾರೂಪ	-11.2762
▁ಗಮಿಸ್ಸತಿ	-11.2763
▁ಪರಲೋಕೇ	-11.2763
▁ಚತುಬ್ಬಿಧಾ	-11.2764
▁ದುಗ್ಗ	-11.2765
▁ಇನ್ದ್ರಿಯಸಂವರ	-11.2767
▁ವುತ್ತಲಕ್ಖಣ	-11.2772
ನಿಬ್ಬ	-11.2772
▁ವಿಹಿತ	-11.2773
▁ಸೇತು	-11.2774
ವತ್ಥೂ	-11.2774
▁ಮಾನತ್ತ	-11.2776
▁ಅನಾಗತಾರಮ್ಮಣ	-11.2776
ದ್ದು	-11.2778
▁ನಪ್ಪಜಾನನ್ತಿ	-11.278
ಪಾವುರಣ	-11.278
▁ವಿಚಕ್ಖಣೋ	-11.2781
▁ಪಸನ್ನಮಾನಸೋ	-11.2781
▁ಅನಾವಿಲ	-11.2781
▁ತಿಚೀವರ	-11.2781
▁ಸಂಸಯೋ	-11.2782
▁ದ್ವಿಕ್ಖತ್ತುಂ	-11.2782
▁ತಸ್ಮಿಞ್ಚ	-11.2783
▁ನಿವಾರ	-11.2783
▁ಪಮತ್ತ	-11.2784
▁೨೪೧	-11.2784
▁ವಿಪ್ಪಮುತ್ತ	-11.2785
▁ಪವಿವಿತ್ತ	-11.2785
▁ಏಕೇಕಸ್ಸ	-11.2786
▁ಫೋಟ್ಠಬ್ಬಂ	-11.2787
▁ಜಾನಿತುಂ	-11.2788
▁ಸಣ್ಠಾತಿ	-11.2789
▁ಯಥಾಸಮ್ಭವಂ	-11.279
▁ತಿಟ್ಠನ್ತ	-11.279
ಸಙ್ಖಾತಾನಂ	-11.2792
ಇತಿಪಿ	-11.2792
ಕ್ಖಮ	-11.2796
ಸಾಸನೇ	-11.2796
ಬ್ಯಾಧಿ	-11.2796
▁ಪತಿಟ್ಠಾನ	-11.2797
ಕ್ಕೋಸ	-11.2799
▁ಪಚ್ಛಾಜಾತೇ	-11.2799
▁ಪಜಹನ್ತೋ	-11.28
▁ಮಲಂ	-11.28
▁ಅಸಾತ	-11.2803
▁ಅನುಪ್ಪತ್ತಾ	-11.2805
▁ಪಚ್ಚವೇಕ್ಖ	-11.2805
▁ದೇನ್ತ	-11.2805
▁ಮಿಗೋ	-11.2805
▁ಲಾಭಸಕ್ಕಾರಸಿಲೋಕ	-11.2807
ಮೂಲಾ	-11.2807
ವಾಚಾಯ	-11.2808
ಅಲ	-11.2809
ಸಙ್ಗಹಂ	-11.2811
▁ಯದೇವ	-11.2814
▁ಪರಿಯೋಸಾನೇ	-11.2814
▁ವಿಞ್ಞಾಪೇತಿ	-11.2815
ವಿವಾದ	-11.2817
ವಿಞ್ಞಾಣಂ	-11.2817
▁ರೋಪ	-11.2819
▁ಹೋತೂತಿ	-11.282
ಞ್ಜಲಿ	-11.282
▁ಸಮಾಧಿನಾ	-11.2821
ವಸೇನಪಿ	-11.2822
▁ಸಙ್ಖತಂ	-11.2823
ಭಾಜನಂ	-11.2823
ುಜ್ಜನ	-11.2823
▁ಉಣ್ಹಂ	-11.2824
ಮಯಿ	-11.2825
▁ಇನ್ದ್ರಿಯನ್ತಿ	-11.2826
▁ಅಪರಿಯಾಪನ್ನಾ	-11.2827
ಮೇವಾ	-11.2828
ಜಯ	-11.2829
ಬಲವ	-11.2831
▁ದರ	-11.2831
▁ಹರನ್ತಿ	-11.2832
▁ಕಥಿನುದ್ಧಾರೋ	-11.2833
▁ಪಾಪೇ	-11.2834
ಸಾರಂ	-11.2834
ಸಕ್ಕೋ	-11.2835
ತೀರೇ	-11.2837
▁ರೂಪಧಮ್ಮ	-11.2839
▁ಅನಾಸವ	-11.2839
▁ಹು	-11.2839
▁ದಲಿದ್ದ	-11.2842
▁ಮರಣಸ್ಸ	-11.2843
▁ತೂಲ	-11.2844
▁ವಿಯಾಕಾಸಿ	-11.2845
▁ಸದ್ದಾಯತನಂ	-11.2845
▁ಇಸ್ಸರಿಯಂ	-11.2845
▁ಉಪಟ್ಠಪೇತ್ವಾ	-11.2847
▁ಮಚ್ಛರಿಯಂ	-11.285
▁ಇತರಥಾ	-11.285
▁ಜಪ್ಪ	-11.285
ನನ್ತ	-11.285
▁ಪಟಿಬಲೇನ	-11.2851
▁ಬ್ರಹ್ಮಚರಿಯವಾಸೋ	-11.2851
▁ಆಸಾ	-11.2851
▁ಏಳಕ	-11.2851
▁ಪಥವೀಕಸಿಣ	-11.2852
ಮೂಲಕೇ	-11.2854
▁ಅಪ್ಪತ್ವಾ	-11.2855
ರತ್ತಿ	-11.2856
ಕ್ಖೇತ್ತ	-11.2856
ಮನುಸಾಸ	-11.2858
ವಾಣಿಜ	-11.2859
ಾಭಿಮುಖೋ	-11.2859
▁ಸತ್ಥುಸಾಸನ	-11.2859
ಮನೋರಥ	-11.286
▁ಹರಿ	-11.2861
▁ವನ್ದೇ	-11.2862
▁ಮಾಸೋ	-11.2863
ವಿಪಾಕೋ	-11.2863
▁ಇತ್ಥಿಪುರಿಸ	-11.2865
▁ಸುದಸ್ಸನ	-11.2865
▁ಏವರೂಪಸ್ಸ	-11.2866
▁ಪಚ್ಚುಪ್ಪನ್ನೇ	-11.2867
▁ಪಿಣ್ಡಪಾತೋ	-11.2867
ದಸ್ಸನಾ	-11.2867
▁ಸಂಸನ್ದ	-11.2867
▁ಕಥನ	-11.2868
▁ಅಜ್ಜೇವ	-11.2868
▁ಪುಬ್ಬಾ	-11.287
▁ಕಥನ್ತಿ	-11.287
ಪಚ್ಛಿಮಚಿತ್ತಸ್ಸ	-11.2871
▁ಅಚ್ಛಾದ	-11.2871
▁ಛೇಕೋ	-11.2874
▁ನಿಸ್ಸಯಪಚ್ಚಯ	-11.2875
▁ಫುಟ	-11.2878
▁ಬುದ್ಧೋತಿ	-11.2883
▁ವಚನತ್ಥಂ	-11.2884
▁ಸಙ್ಖಾರುಪೇಕ್ಖಾ	-11.2885
▁ಪರಾಮಾಸಸಮ್ಪಯುತ್ತ	-11.2885
▁ದುಪ್ಪಞ್ಞೋ	-11.2895
ಪರಿಞ್ಞಾ	-11.2896
▁ವಿಕ್ಖಮ್ಭನ	-11.2897
ಙ್ಕರೋ	-11.2901
ಾಧಿಟ್ಠಾನಂ	-11.2902
▁ಸಮಾಪನ್ನ	-11.2902
▁ರುಪ್ಪನ	-11.2906
▁ತಪ್ಪಚ್ಚಯಾ	-11.2907
▁ಸಬ್ಬಕಾಮ	-11.2907
▁ಸಿಸ್ಸೋ	-11.2908
▁ಅನವಕಾಸೋ	-11.2909
▁ನಅರೂಪಾವಚರ	-11.2909
▁ರೂಪಾರಮ್ಮಣಂ	-11.2909
▁ಗನ್ಧಾಯತನಂ	-11.291
▁ಅಞ್ಞಾತಿಕಾಯ	-11.291
ಉಪನಿಸ್ಸಯ	-11.2911
▁ಅರುಣುಗ್ಗಮನ	-11.2912
ಸ್ಸಾಮೀತಿ	-11.2912
▁ಪತಿತಂ	-11.2914
ುಪ್ಪಲ	-11.2915
▁ಪಜಾನ	-11.2917
▁ನಿವಾಸೇ	-11.2918
▁ಮನೋಕಮ್ಮಂ	-11.2919
ಸನ್ಧ	-11.2919
ದ್ವೇಮೇ	-11.2922
ಧಾತೂ	-11.2922
ವಸ್ಸೋ	-11.2923
▁ಆರಾ	-11.2925
ಾನುಸ್ಸತಿ	-11.2925
▁ದಿಟ್ಠಧಮ್ಮ	-11.2926
▁ನುತ್ಥ	-11.2926
ಖೋ	-11.2926
▁ಪವಾರ	-11.2928
▁ಯಕ್ಖಾ	-11.2928
ೂಪಮಂ	-11.2928
▁ವಿನಾಪಿ	-11.2929
ೇಯ್ಯು	-11.2929
ಸುಕ್ಕ	-11.2933
ಾತಿಆದೀಸು	-11.2933
▁ಕದ್ದಮ	-11.2933
ಸ್	-11.2934
▁ಪವಾರಣ	-11.2934
▁ಧೋವನ	-11.2935
▁ವೇಪುಲ್ಲ	-11.2936
ಕರೋತಿ	-11.2937
▁ಆಕಾಸಧಾತು	-11.2938
▁ಮತ್ಥಕ	-11.2938
ನಿಟ್ಠ	-11.2939
▁ಸ್ಮಾ	-11.294
▁ಕಮ್ಮಜ	-11.2943
▁ಅರುಣ	-11.2943
▁ಅನೋಕಾಸ	-11.2944
ುಬ್ಭ	-11.2944
▁ಸಾಸಪ	-11.2944
▁ಬಹುವಿಧ	-11.2944
▁ಕಲಹಂ	-11.2944
▁ಛನ್ನೋ	-11.2946
▁ಅಸ್ಸಮೇ	-11.295
▁ಸಮತ್ತಂ	-11.2953
▁ಚಿತ್ತೇಕಗ್ಗತಾ	-11.2954
▁ದುಬ್ಭ	-11.2956
ಅಟ್ಠಾನಮೇತಂ	-11.2956
ಭಕ್ಖೋ	-11.2956
▁ವಿಕ್ಖಮ್ಭಿತ	-11.2956
▁ನಿಬ್ಬುತ	-11.2958
▁ಸಂವಿದಹ	-11.2961
ಭಗ್ಗ	-11.2962
ಣ್ಣೋ	-11.2962
ಪಿತಾ	-11.2964
▁ಪುಚ್ಛಾಯ	-11.2966
▁ಲಿಙ್ಗಂ	-11.2966
ಜನೋ	-11.2967
▁ಸಪ್ಪುರಿಸಾ	-11.2967
ಸಂವಣ್ಣನಾಯ	-11.2969
ನವಕ	-11.2969
▁ವಗ್ಗು	-11.2972
▁ಭಾಗೋ	-11.2972
ಮತ್ತಾನಂ	-11.2974
▁ಅಸಮ್ಭಿನ್ನ	-11.2974
▁ಞಾಣದಸ್ಸನ	-11.2974
▁ಮುಯ್ಹ	-11.2974
▁ಕಾಯಸುಚರಿತ	-11.2975
▁ಪಞ್ಚವೋಕಾರಂ	-11.2975
▁ಅನತ್ಥಂ	-11.2976
▁ಭೋಜನಾನಿ	-11.2976
▁ದೇಸಯ	-11.2979
▁ಅಭಿಭೂ	-11.2982
▁ಕಪ್ಪೇಸಿ	-11.2985
▁ಅರಹತಂ	-11.2986
ಸರೂಪ	-11.2986
▁ಭವನ್ತೀತಿ	-11.299
▁ಗದ್ರಭ	-11.2991
ತುಮ್ಹಾಕಂ	-11.2992
▁ಪಠಮಮೇವ	-11.2992
▁ಓದನಂ	-11.2992
ಸಮಞ್ಞಾ	-11.2993
▁ಸಂವತ್ತತೀ	-11.2994
▁ಕಿತ	-11.2994
▁ತ್ವಞ್ಚ	-11.2995
▁ಸಚ್ಛಿಕರೋತಿ	-11.2995
▁ಬನ್ಧನಾ	-11.2996
▁ಪವತ್ತಿತಂ	-11.2996
ಕ್ರಿಯ	-11.2996
▁ಕಪಣ	-11.2998
ಮಿಚ್ಚ	-11.3001
ಞಾತ	-11.3003
▁ಅಭಿಸಮಯೋ	-11.3003
▁ದಯಾ	-11.3009
▁ಸೇಯ್ಯಾ	-11.301
▁ಕುಮಾರಂ	-11.301
▁ಭಾಯಿ	-11.3011
ನಿವತ್ತಿ	-11.3011
▁ಞಾ	-11.3012
▁ದೋಣ	-11.3012
▁ಉಭೋಹಿ	-11.3013
▁ಸಮಯಾ	-11.3013
▁ಯಾಥಾವ	-11.3014
▁ಭಯತೋ	-11.3015
▁ಗಣಂ	-11.3017
▁ಕಙ್ಖಂ	-11.3017
▁ಅಭೂತಂ	-11.3017
▁ಅನ್ತರಾಯಾ	-11.3019
ಪುತ್ತಂ	-11.3022
ಆದೇಸೋ	-11.3024
▁ಪಾಟಿಹಾರಿಯಂ	-11.3024
ದಬ್ಬ	-11.3026
ಲೋಲ	-11.3027
▁ಪರಿತ್ತಾ	-11.3027
▁ಓಭಾಸೋ	-11.3027
▁ಅಞ್ಞತೋ	-11.3028
ಅಜ್ಝ	-11.3028
▁ಯಮ್ಹಿ	-11.3029
ಪರಿವತ್ತನ	-11.3029
ಕುಲಪುತ್ತ	-11.3033
ಸಮನ್ನಾಗತಂ	-11.3034
▁ತಸ್ಮಾತಿಹ	-11.3035
▁ಪಚ್ಚನೀಯುದ್ಧಾರೋ	-11.3039
▁ಸಮೋಧಾನಪರಿವಾಸ	-11.3039
▁ಅಲಜ್ಜೀ	-11.304
▁ನೇಸಾದ	-11.304
▁ಖುಜ್ಜ	-11.3041
▁ಸಂಯುತ್ತ	-11.3043
ಅನಿದಸ್ಸನಸಪ್ಪಟಿಘೋ	-11.3049
▁ಅಸೋಕ	-11.3051
▁ದೀಪಯ	-11.3052
▁ಪೀತಿಸಹಗತಾ	-11.3052
ಭಾಸಾ	-11.3055
▁ಕರಿಂಸು	-11.3055
▁ಕ್ಯ	-11.3055
▁ಮಾಪೇತ್ವಾ	-11.3055
ೋದಯ	-11.3057
▁ದೀಪೇನ್ತೋ	-11.3057
▁ಪಬ್ಬತಾ	-11.3057
ಕವಾಟ	-11.3058
ವಸಿ	-11.3058
▁ಸಮಾಧಿಯತಿ	-11.3059
▁ವುಟ್ಠಿ	-11.306
ಪ್ಪಸನ್ನ	-11.3061
▁ಸಬ್ಬಾವ	-11.3061
ಗಣನಾ	-11.3062
▁ನಿಮನ್ತಿತೋ	-11.3062
▁ದಿಟ್ಠೇನ	-11.3062
ಗ್ಗಹಣೇನೇವ	-11.3064
ತ್ತಮ	-11.3067
▁ತುಟ್ಠಿ	-11.3068
▁ಪೋಸೇ	-11.3068
▁ನಿವಿಟ್ಠ	-11.3069
▁ಏಕದಿವಸ	-11.307
▁ನಯಾ	-11.307
ರಣೇ	-11.3071
▁ಭಜನ್ತಿ	-11.3071
▁ಸಲ	-11.3072
▁ದ್ವ	-11.3072
▁ನಿದ್ದಾಯ	-11.3073
▁ದುಕ್ಖವಿಪಾಕ	-11.3074
▁ಮಹಾಕಸ್ಸಪೋ	-11.3074
▁ಮತ್ತಾ	-11.3074
ಸೂಕರ	-11.3076
ಪರಿಯೋಸಾನಾ	-11.3077
▁ಸಮ್ಮುಖಾವಿನಯೋ	-11.3078
ಲಪ	-11.308
ಮಿದ	-11.3081
▁ರಮ್ಮಂ	-11.3081
▁ನಾಗರಾಜ	-11.3084
▁ವಿನಯಕಮ್ಮ	-11.3084
▁ಯಾಯಂ	-11.3085
▁ಛಿನ್ದತಿ	-11.3085
ವಿನಿಬನ್ಧ	-11.3086
▁ಅಧಿಗಚ್ಛ	-11.3086
▁ಸುದ್ಧೋ	-11.3086
▁ಆಘಾತೋ	-11.3087
▁ಗಾಥಾಸು	-11.3088
▁ವಿರಜ್ಜತಿ	-11.3088
ಮಾನಾನಂ	-11.3089
ವಿಕ್ಖಮ್ಭ	-11.309
▁ದಾಠ	-11.3092
▁ಸಬ್ಬಞ್ಚ	-11.3092
ವೇಲಾಯ	-11.3094
▁ಕಾರಯಿ	-11.3098
▁ಅಜ್ಝೋಹರ	-11.3098
▁ಕಾಯಸಂಸಗ್ಗ	-11.3098
ಟಂ	-11.3098
ಪೂಜಾ	-11.3099
▁ಸಾಮಣೇರಸ್ಸ	-11.31
▁ಪಚ್ಛಿಮಸ್ಸ	-11.3101
ಆಪತ್ತಿ	-11.3102
▁ಅನುಮೋದನಂ	-11.3102
▁ಅರಿಯಾಯ	-11.3103
ವಿಭಾವ	-11.3103
ವಧ	-11.3104
ದೀಪನಾ	-11.3105
▁ಮಹೇಸಕ್ಖ	-11.3105
▁ದಿಯ್ಯಮಾನ	-11.3105
▁ನಅನಾಸವ	-11.3105
▁ಮಹಾಸುದಸ್ಸನ	-11.3105
▁ಪಾಪುಣಿಂಸೂತಿ	-11.3106
▁ಮಧುರಂ	-11.3106
▁ಅದಂಸು	-11.3107
▁ಸುಭಾ	-11.3107
▁ವುತ್ತೋಯೇವ	-11.3108
▁ಉಪಗತಾ	-11.3109
▁ಅರೂಪಸಞ್ಞೀ	-11.3109
▁ಏಕಧಮ್ಮ	-11.311
▁ದೇವತೇ	-11.311
▁ಯಮಹಂ	-11.3112
▁ಸಂಹರ	-11.3114
ಸಮಾಯೋಗ	-11.3116
ಙ್ಗಾನಿ	-11.3117
ಲಾಯ	-11.3117
ಲಿತ	-11.3119
▁ಪತಿರೂಪಂ	-11.3122
▁ಪುಚ್ಛಿತ	-11.3122
ಪುಥುಜ್ಜನ	-11.3122
▁ಅಗ್ಗೀ	-11.3123
▁ಕಚ್ಚಾಯನ	-11.3123
▁ವಿಸ್ಸಜ್ಜೇತಿ	-11.3123
▁ವಣ್ಣಾ	-11.3125
▁ನಿಬ್ಬತ್ತಂ	-11.3126
▁ಸಕ್ಕಂ	-11.3127
▁ದಸ್ಸಾಮಿ	-11.3127
▁ನನ್ದೋ	-11.3128
▁ಉರಗ	-11.3131
▁ಪುಬ್ಬನ್ತ	-11.3132
ುಗ್ಗತ	-11.3133
▁ಆವಾಟ	-11.3135
ವಾದೇನ	-11.3135
▁ಸುಖಿತಾ	-11.3135
▁ಕೋಸಲೋ	-11.3136
▁ಸೋತೇನ	-11.3136
ವಿಜಯ	-11.3137
ನ್ತೂ	-11.3138
ಕಣ್ಹ	-11.3138
▁ನಿಯ್ಯಾತಿ	-11.3138
▁ಮಗ್ಗಙ್ಗಂ	-11.3139
▁ಪಚ್ಚವೇಕ್ಖಣಾ	-11.3139
ಪ್ಪತ್ತಿಯಾ	-11.3142
ಖಲ	-11.3145
▁ಅಹೂ	-11.3146
▁ದ್ವೀಹ	-11.3146
ನಿಯಾಮೇನ	-11.3148
▁ಪಗ್ಗಹೇತ್ವಾ	-11.3151
▁ಕಾಯಾ	-11.3154
▁ಗಿಲಾನಾ	-11.3157
▁ನಿಬ್ಬಿದಾಯ	-11.3157
▁ಆಣಾಪ	-11.316
ವಿಸೇಸೇ	-11.3161
▁ವಿಞ್ಞಾಣನ್ತಿ	-11.3161
▁ಗತ್ತ	-11.3165
▁ಭವಾಭವ	-11.3165
ಿತ್ಥಿ	-11.3166
▁ಜಾತರೂಪ	-11.3166
▁ಅತಿಸಯ	-11.3167
ಙ್ಕೋ	-11.3167
ಭಾವದಸ್ಸನ	-11.3168
ಸನೇ	-11.3169
▁ಸಾಮಞ್ಞಫಲ	-11.317
ಾಹೀತಿ	-11.317
▁ಕಾಮಭೋಗೀ	-11.3171
▁ಚಿತ್ತಸ್ಸೇಕಗ್ಗತಾ	-11.3173
▁ಆಣಾಪೇಸಿ	-11.3173
▁ಅನನುಸ್ಸುತೇಸು	-11.3174
▁ಓತ್ತಪ್ಪಂ	-11.3174
▁ಪಚ್ಚವೇಕ್ಖಮಾನೋ	-11.3174
▁ಯುವಾ	-11.3175
▁ಧುತ್ತ	-11.3176
▁ಪಿಯರೂಪಂ	-11.3177
▁ಸನ್ಥರ	-11.3177
▁ವಚನೇ	-11.3177
▁ಕರಿಸ್ಸನ್ತಿ	-11.3178
ಯನ್ತ	-11.3178
▁ರತಾ	-11.3179
▁ರೂಪಾರಮ್ಮಣ	-11.318
▁ಸಕ್ಕುಣೇಯ್ಯ	-11.318
▁ಗೋಚರಂ	-11.318
▁ಛಡ್ಡೇ	-11.3181
ುತ್ತಮಂ	-11.3183
▁ರುಚ್ಚ	-11.3183
▁ಬಾಹ	-11.3184
▁ಗೇಹಸಿತ	-11.3186
▁ಸಕ್ಕರ	-11.3186
▁ನಿಸೀದಿತುಂ	-11.3187
▁ವೇಸ್ಸನ್ತರೋ	-11.3189
ಮಹಗ್ಗತ	-11.3189
▁ಭೇ	-11.3191
ಖತ್ತಿಯ	-11.3193
ಪಞ್ಞಂ	-11.3194
ಸಙ್ಗಾಹಕ	-11.3194
▁ಸತ್ಥಾರ	-11.3194
▁ಮೂಲಾಯ	-11.3197
▁ಸುದ	-11.3197
▁ಉಪಮಂ	-11.3198
ತ್ತಿಂಸ	-11.3199
▁ತಾದಿಸಾ	-11.3201
ತ್ತರ	-11.3201
ಸುಕ್ಕವಿಸ್ಸಟ್ಠಿಯಾ	-11.3202
▁ಇದಮ	-11.3205
▁ಞಾತಕ	-11.3206
ದಾಯಿಕಾ	-11.3207
▁ಮುಹುತ್ತಂ	-11.3207
ನಲಕ್ಖಣಾ	-11.3211
▁ಸಮ್ಪತಿ	-11.3212
▁ಆಭತ	-11.3212
▁ಅನುಮಾನ	-11.3215
ಯಾಯ	-11.3215
▁ಏಕಾಬದ್ಧ	-11.3216
▁ಅಜ್ಝತ್ತಬಹಿದ್ಧಾ	-11.3216
▁ಚಕ್ಖಾದಿ	-11.3216
▁ಉಣ್ಣ	-11.3217
▁ವತಾಯಂ	-11.3218
▁ಖಾಯತಿ	-11.3218
▁ಸುಜಾತೋ	-11.3219
▁ದಸಮ	-11.3219
ಗೋಚರಾ	-11.322
ಅಯ್ಯ	-11.3221
▁ಉದ್ಧಚ್ಚಸಹಗತಂ	-11.3223
▁ಗಗನ	-11.3223
ವಾಚಿ	-11.3223
▁ಭಯಾ	-11.3223
▁ಸೀಹಸ್ಸ	-11.3223
▁ಪರಿವಾರಿತೋ	-11.3224
ೀಯಮಾನ	-11.3225
ನದೀ	-11.3225
▁ಹೇತುಸಮ್ಪಯುತ್ತ	-11.3226
ಕಮ್ಮಾನಿ	-11.3227
ನಿರಯ	-11.3227
▁ಅಯ್ಯೋ	-11.3227
▁ವಿಭೂತಂ	-11.3228
▁ಜೇಗುಚ್ಛ	-11.3228
▁ಯಾಗುಂ	-11.3229
ಟ್ಠೀನಿ	-11.3229
▁ದಾರುಣ	-11.3231
ಜ್ಝೋ	-11.3233
▁ಕಪ್ಪಾಸ	-11.3233
ತ್ಥಮೇವ	-11.3233
ವಿರಹಿತಂ	-11.3238
▁ಅಸಾರ	-11.3238
▁ಅಞ್ಞಥತ್ತಂ	-11.3238
▁ಲಙ್ಘ	-11.3239
▁ಅಲಭಿತ್ವಾ	-11.3239
ಚಾಲ	-11.3239
▁ತೇವೀಸತಿ	-11.324
▁ಏಕಗ್ಗತಾ	-11.3244
▁ಕರಿಸ್ಸಾಮಾ	-11.3245
▁ಕೋಧಂ	-11.3245
▁ಅನುಪ್ಪ	-11.3246
▁ಅಜಿನ	-11.3247
▁ಕಾಮಾವಚರೋ	-11.3247
▁ಕಾಮಚ್ಛನ್ದ	-11.3249
ಬೋಜ್ಝಙ್ಗ	-11.325
▁ಕಮ್ಮವಿಪಾಕ	-11.3251
ಮ್ಹಸೇ	-11.3252
ಪಞ್ಹಾ	-11.3253
▁ಸದೇವಕಸ್ಸ	-11.3254
್ತ	-11.3256
ಗಙ್ಗ	-11.3257
▁ಜಾನಾತೀ	-11.3257
▁ಲೋಕಧಾತು	-11.326
ಕಿಸ್ಸ	-11.326
ಯಮ	-11.3261
ಿಯೇ	-11.3263
ಜಞ್ಞ	-11.3263
▁ಖೀಯ	-11.3264
▁ನಿಬ್ಬತ್ತನ್ತಿ	-11.3265
▁ಭಿ	-11.3267
ದೀಪಕಂ	-11.3268
▁ಪಾರಮೀ	-11.3269
▁ಗಬ್ಭೋ	-11.3272
ನಿಸಜ್ಜ	-11.3272
ತಚ್ಛ	-11.3272
▁ನಿಸ್ಸಜ್ಜ	-11.3273
▁ಜಾನತಾ	-11.3274
▁ಸಮೋಧಾನ	-11.3274
▁ಕತೋತಿ	-11.3276
▁ರತ್ತಿಯೋ	-11.3276
ಭಾವನ	-11.3276
▁ಅಕ್ಖಾತಾ	-11.3279
▁ಸುತೋ	-11.3281
▁ವಿತಕ್ಕಂ	-11.3281
▁ಪರಾಜಯೋ	-11.3281
ಪರಾಯಣೋ	-11.3282
▁ವುತ್ಥ	-11.3282
ಸಞ್ಞಿಸ್ಸ	-11.3283
▁ಬಲೇನ	-11.3284
▁ಅಗ್ಗಫಲ	-11.3286
▁ಮುದುಕ	-11.3286
ನವಿಪಾಕಧಮ್ಮಧಮ್ಮಂ	-11.3286
ಪಾರಿಪೂರಿ	-11.3287
▁ಯಾದಿಸಾ	-11.3288
▁ಮಹನ್ತಾ	-11.3288
▁ಅಧಿಗತಂ	-11.329
▁ಯಾಚಕ	-11.329
▁ಅಸಞ್ಞ	-11.329
▁ಜನಪದೇಸು	-11.3292
▁ಆದೀನವಞ್ಚ	-11.3292
ಾಭಿಧಾನ	-11.3294
▁ಕೀಳಾ	-11.3295
▁ಗಾಮಸ್ಸ	-11.3295
▁ಧಾರೇತು	-11.3296
ವಿಕಲ	-11.3296
▁ಸಮ್ಮಾದಿಟ್ಠಿಯಾ	-11.3298
▁ಬ್ರಾಹ್ಮಣೇನ	-11.33
▁ಸಕುಣೋ	-11.3301
▁ವಿಕ್ಕಿಣ	-11.3302
▁ಧಮ್ಮಿಕೋ	-11.3302
▁ತದಹುಪೋಸಥೇ	-11.3305
▁ಉಪಾದಾನಾ	-11.3305
▁ಮಾಗಣ್ಡಿಯ	-11.3305
▁ಅಲಭನ್ತೋ	-11.3305
▁ಮಾನುಸಕ	-11.3305
▁ಉಪದ್ದುತ	-11.3305
▁ಚಿತ್ತಸಹಭು	-11.3306
▁ಪಟಿಗ್ಗಾಹಕ	-11.3307
▁ದಸಾಹ	-11.3308
▁ಅಮೋಹ	-11.3314
▁ಥೀ	-11.3314
ಕುತೋ	-11.3315
▁ಗವಂ	-11.3316
▁ಛದನ	-11.3318
ಕಿಲಮಥ	-11.332
ಜ್ಝಾಯ	-11.332
▁ವತ್ತಬ್ಬತಂ	-11.3321
▁ಸಙ್ಘಕಮ್ಮ	-11.3324
ಪಚ್ಛಾ	-11.3326
▁ಮನುಸ್ಸೇಹಿ	-11.3326
ಕರೇ	-11.3327
▁ಪಿತಾಮಹ	-11.3328
ಸಂಯುತ್ತೇ	-11.333
▁ರುಹ	-11.333
▁ಅವಿಪ್ಪಟಿಸಾರ	-11.333
ಚ್ಛಾಯ	-11.3331
▁ವಕ್ಖಾಮ	-11.3332
▁ಪಾಸಂಸೋ	-11.3335
▁ಉಚ್ಛೇದದಿಟ್ಠಿ	-11.3336
▁ವಿಪ್ಪಸನ್ನೇನ	-11.3336
ಕರುಣಾ	-11.3336
ಜಾಯ	-11.3338
ಪಟಿಲಾಭೋ	-11.3339
▁ಮಗಧ	-11.3339
▁ಭೂತಾನಿ	-11.3339
▁ಭವಪಚ್ಚಯಾ	-11.3339
▁ಪಸ್ಸಾಮೀ	-11.334
ೀಯಂ	-11.334
▁ಸುಣನ್ತೋ	-11.3341
▁ಅಕಾರಣ	-11.3343
▁ಅಸಕ್ಕೋನ್ತಾ	-11.3345
▁ಮಾರಿಸಾ	-11.3346
ಬಲಾ	-11.3347
▁ಸಚ್ಛಿಕಿರಿಯಾಯ	-11.3348
▁ಯೋಗಾವಚರೋ	-11.3349
ಯಟ್ಠಿ	-11.3351
▁ರೂಪಾಯತನ	-11.3351
▁ಅಲತ್ಥ	-11.3353
▁ಗೇಧ	-11.3353
▁ಸನ್ತೀತಿ	-11.3354
ರೋಗೋ	-11.3357
▁ಕಾಸ	-11.3357
▁ಅಕ್ಖಾತ	-11.3359
ಚಲ	-11.336
ಸಮಙ್ಗಿ	-11.336
▁ಸಮುಗ್ಘಾತ	-11.3361
ಯಸ	-11.3364
▁ಮನೋಸಮ್ಫಸ್ಸ	-11.3364
▁ಅಜಾನನ	-11.3365
ವಿಜಾನನ	-11.3365
▁ಭಾರಂ	-11.3367
▁ಏಕರಸ	-11.3367
▁ವಿಜಾಯ	-11.3369
▁ವೇಹಾಸಂ	-11.3369
▁ಮಹಾಪಞ್ಞೋ	-11.3371
▁ಭಾಗಿನೇಯ್ಯ	-11.3373
▁ಅಪಚಯಗಾಮೀ	-11.3373
▁ಮುಟ್ಠಸ್ಸತಿ	-11.3373
▁ಕಾನಿಚಿ	-11.3373
▁ಅನಾದರ	-11.3373
▁ಪಟಿವಿರತಾ	-11.3373
▁ರುದ	-11.3374
ದೋಮನಸ್ಸುಪಾಯಾಸಾ	-11.3374
▁ಭುಮ್ಮತ್ಥೇ	-11.3374
ಭತೋ	-11.3375
▁ಪಣ್ಡಿತೇಹಿ	-11.3377
▁ವುತ್ತಮತ್ಥಂ	-11.3377
▁ನಸಹಜಾತೇ	-11.3377
▁ಪಚ್ಚನೀಯಂ	-11.3379
▁ಆದೀನವಾ	-11.3379
▁ಸುಗ್ಗಹಿತ	-11.338
▁ಪರಿಕ್ಖಯಂ	-11.338
▁ಪಸೀದಿತ್ವಾ	-11.338
▁ಅಧಿಟ್ಠಹ	-11.338
▁ಪರಿಪಾಕ	-11.3381
▁ಪಚ್ಚಯಾಕಾರ	-11.3381
▁ಮನುಸ್ಸಭೂತೋ	-11.3381
ಇಮ	-11.3383
▁ಅಗಾರವೋ	-11.3383
▁ಉಪನಿಧಾಯ	-11.3385
▁ಅಭಿಸಙ್ಖತ	-11.3386
▁ಓಪಮ್ಮ	-11.3389
▁ನಹಾನ	-11.3391
▁ಬುದ್ಧಗುಣ	-11.3393
▁ನರಕ	-11.3393
▁ಚತುತ್ಥಸ್ಸ	-11.3393
▁ಥುತಿ	-11.3395
ನ್ವ	-11.3395
▁ನಿಪ್ಫಾದೇ	-11.3396
ಪಕ್ಖನ್ದ	-11.3398
ಗಾಮಿನೋ	-11.3399
ಾಭರಣ	-11.34
▁ಉದಯಬ್ಬಯ	-11.34
▁ಅನಿಯತಾ	-11.34
ಪುಬ್ಬಂ	-11.3401
ಕೋವಿದೋ	-11.3402
▁ಮೂಸಿಕ	-11.3407
ಗಚ್ಛತಿ	-11.3407
▁ವೇರಿ	-11.3407
ಪಲಾಸ	-11.3408
▁ಅಕಾಲೇ	-11.3409
ಧಿಟ್ಠಾನ	-11.3409
ಯಾಗು	-11.3409
▁ನಿವತ್ತಿತ್ವಾ	-11.3409
▁ಪಸಂಸನ್ತಿ	-11.3413
▁ನಿಸ್ಸಾರ	-11.3414
ಪಠಮಂ	-11.3416
▁ಪತ್ತಬ್ಬ	-11.3417
▁ವಸನ್ತ	-11.3418
▁ಪಾಚ	-11.3419
▁ಖಯೇ	-11.342
▁ಚಙ್ಕಮನ್ತ	-11.3421
ಾಪೀ	-11.3421
ಬುದ್ಧಸ್ಸ	-11.3422
▁ಪಾಟಿಹಾರಿಯ	-11.3422
▁ಪರಿತೋ	-11.3423
ಅನನ್ತ	-11.3425
▁ನಪುಂಸಕಲಿಙ್ಗ	-11.3427
ಗಣ್ಡ	-11.3428
ವವತ್ಥಾನ	-11.3428
▁ಮಹತ್ತ	-11.3432
▁ಕಲ್ಲ	-11.3434
ನಸೀಲೋ	-11.3434
ತ್ಥೀ	-11.3435
ಸೇಖ	-11.3437
▁ಲೋಮಾ	-11.344
▁ಮನಸಿಕರೋನ್ತೋ	-11.3441
▁ಮಿಥಿಲ	-11.3441
▁ಅನ್ತರಧಾಯ	-11.3441
▁ಯುಗನದ್ಧ	-11.3441
▁ದ್ವಾವೀಸತಿ	-11.3441
▁ಆಹಿಣ್ಡ	-11.3441
ಮಣ್ಡಪ	-11.3441
ಾಭಿರತ	-11.3442
▁ದೇಸನಾಪರಿಯೋಸಾನೇ	-11.3443
▁ಆಭಸ್ಸರ	-11.3443
▁ಪಾಪಿಮ	-11.3444
▁ಭಿಕ್ಖಾಚಾರ	-11.3444
▁ಪೀತಿಂ	-11.3445
▁ಪರಿವೇಣಂ	-11.3446
▁ಆಪಜ್ಜನ್ತಿ	-11.3446
▁ವತ್ತಬ್ಬನ್ತಿ	-11.3446
ನ್ತರೇನ	-11.3447
▁ರಸ್ಸತ್ತಂ	-11.3447
▁ಪರಿಪೂರೇನ್ತಿ	-11.3449
ತುನ್ನ	-11.345
ಿಕೇನ	-11.3451
▁ರುಚಿಯಾ	-11.3452
ಉತ್ತರ	-11.3454
▁ವಸ್ಸೂಪನಾಯಿಕ	-11.3455
▁ಆರೋಪ	-11.3455
▁ಕಾಯಿನ್ದ್ರಿಯಂ	-11.3455
ಸೇಲ	-11.3458
▁ಚಜ	-11.3459
ಸೀಸಂ	-11.346
▁ವಿಬ್ಭನ್ತ	-11.346
▁ಞಾಪೇತಬ್ಬೋ	-11.3461
▁ಸಕದಾಗಾಮಿಮಗ್ಗ	-11.3461
ತನ	-11.3462
▁ಬ್ರಾಹ್ಮಣೀ	-11.3463
ಏತದಗ್ಗಂ	-11.3463
▁ಸಂಸಟ್ಠ	-11.3464
▁ಉಪಾದಾನಿಯ	-11.3465
▁ವಿಸುದ್ಧಿಯಾ	-11.3465
▁ಜಟ	-11.3465
▁ಪಿಯರೂಪಾ	-11.3465
ಸಮ್ಮತಾ	-11.3466
▁ಅದಸ್ಸನ	-11.3466
ಅಟ್ಠಾರಸ	-11.3467
▁ಭವೇಯ್ಯುಂ	-11.3468
ವಿತಕ್ಕೋ	-11.3468
▁ಅಪರಿಕ್ಖಿತ್ತ	-11.3469
▁ಸೇಸಾನಂ	-11.347
▁ಮಹಾವುತ್ತಿ	-11.3472
▁ಧಮ್ಮಪಟಿಸಮ್ಭಿದಾ	-11.3472
▁ಸುಖಿನೋ	-11.3472
▁ವಿನಾಸಂ	-11.3475
▁ಮಾರಂ	-11.3476
ಭವೋ	-11.3476
ಕುಟಿಕ	-11.3477
▁ಪಜಹಥ	-11.3477
▁ಸಘಾನಕಾನ	-11.3478
▁ಪಚ್ಚೇಕಬುದ್ಧಾ	-11.3478
▁ಸಂವಸ	-11.3478
್ಯಂ	-11.3479
▁ಆವ	-11.348
ಆಕಾಸ	-11.348
▁ಸುಖದುಕ್ಖಂ	-11.3484
ವಿತ್ತ	-11.3487
ಲಾಭಾ	-11.349
▁ಗಹೇತಬ್ಬಾನಿ	-11.3491
ಸಮಾಸೋ	-11.3491
▁ಜಿ	-11.3491
▁ಸಭಿಕ್ಖುಕಾ	-11.3492
ಅಬ್ಭ	-11.3494
ಕಸಾವ	-11.3494
ದೇಯ್ಯ	-11.3495
▁ಕಿಮಿ	-11.3499
ತೇಜ	-11.3499
ವಾಲ	-11.35
ಪಚ್ಚುಪ್ಪನ್ನಂ	-11.3502
ನವಿಪಾಕಧಮ್ಮಧಮ್ಮ	-11.3505
▁ಅಮಿತ	-11.3505
▁ನಆಸೇವನಪಚ್ಚಯಾ	-11.3509
▁ನಿರನುಸಯಾ	-11.3509
▁ವೂಪಸಮ್ಮತಿ	-11.3509
▁ಭೇರವ	-11.3509
▁ದೇವತಾಹಿ	-11.3509
ಭವನ	-11.351
ಸದ	-11.3511
▁ಕರೋಸಿ	-11.3512
▁ಪಟಿಸಾಮ	-11.3513
ತೇತಿ	-11.3513
ನಿದಾನಾ	-11.3513
್ಪಯುತ್ತಲೋಭಸಹಗತ	-11.3513
▁ಸುನಕ್ಖತ್ತ	-11.3514
ಪ್ಪಕಾರಂ	-11.3514
▁ಪಣ್ಣಾಸ	-11.3515
▁ಏಥ	-11.3515
▁ಉಪನೀತ	-11.3515
▁ಸನ್ನದ್ಧ	-11.3516
▁ಸಮುಟ್ಠಾಪೇತಿ	-11.3517
▁ವಿದಿತಂ	-11.3517
▁ಕಪ್ಪಸತಸಹಸ್ಸ	-11.3518
▁ತಪ್ಪಟಿಪಕ್ಖ	-11.3518
ಲಕ್ಖ	-11.3518
ಸೇನೋ	-11.3519
ನಕೋ	-11.352
▁ಆಯತನೇಹಿ	-11.352
▁ಅನಧಿ	-11.352
▁ಅಟ್ಠಾರಸಹಿ	-11.3521
▁ಅಸಮ್ಪತ್ತ	-11.3521
ಿಯೋತಿ	-11.3523
▁ಅನುಗತ	-11.3524
▁ಪಿಟಕತ್ತಯ	-11.3525
▁ದಮಿಳ	-11.3525
▁ತಳಾಕ	-11.3526
▁ಉಪಹತ	-11.3527
ದಸ್ಸಿ	-11.3527
▁ರಜ್ಜೇ	-11.3528
▁ಪಟಿಸನ್ಥಾರ	-11.3529
ಸಙ್ಘಾತ	-11.3529
▁ಅವಧಾರಣ	-11.3532
ನಕ್ಖತ್ತ	-11.3532
ಸಿಙ್ಗ	-11.3536
▁ಪಸ್ಸಿತುಂ	-11.3537
▁ಸಮ್ಮಪ್ಪಧಾನಾ	-11.3537
ಚತೂಹಿ	-11.3537
ಚೇತಸೋ	-11.3539
ಸ್ಸರಾ	-11.3539
ರೂಪಾನಂ	-11.354
▁ಮಾತರ	-11.3541
▁ಉಪನಿಸ್ಸಯೋ	-11.3542
▁ಗರುಭಣ್ಡಂ	-11.3543
▁ಅಭಿಭೂತೋ	-11.3544
▁ಚಮ್ಮಂ	-11.3544
▁ಪಜಾಪತಿ	-11.3546
ರಾನಂ	-11.3548
ಬಹುಲಾ	-11.3548
ಲೋಕಿಯ	-11.3548
▁ತಲ	-11.355
▁ಪಾತುಭವತಿ	-11.3553
▁ಪರಿಯುಟ್ಠಾನ	-11.3554
▁ಅಭಿಭೂತ	-11.3554
▁ಅಕಾಮ	-11.3554
ರೋಪನ	-11.3558
ಞ್ಚೇತಂ	-11.3559
▁ವಿಚಿಕಿಚ್ಛಾಸಹಗತಂ	-11.356
ಮಾನಸಂ	-11.3561
ಾದಿಭಾವ	-11.3561
ನ್ತಸ್ಸಾಪಿ	-11.3563
ವಿಕತಿ	-11.3564
▁ಆನಿಸಂಸಾ	-11.3565
▁ಸಬ್ಬಾನಿಪಿ	-11.3565
ಫಾಣಿತ	-11.3566
▁ಗಣ್ಹಾತೀತಿ	-11.3566
ಾಮಾ	-11.3566
▁ಪುಣ್ಡರೀಕ	-11.3567
▁ಅನಾಗಾಮಿಸ್ಸ	-11.3571
▁ಪರಿಣತ	-11.3571
ಮತ್ತಿಕ	-11.3571
▁ಅನಾಪತ್ತೀ	-11.3573
▁ಯಾವದತ್ಥಂ	-11.3573
ಪಯೋಗೇ	-11.3573
▁ವಿತ್ಥತ	-11.3573
ಪುಬ್ಬಭಾಗ	-11.3573
▁ಸಬ್ಬಲೋಕೇ	-11.3574
▁ಭೇಸಜ್ಜಾನಿ	-11.3577
▁ಉಪಪನ್ನಾ	-11.3577
▁ಅಗ್ಗಸಾವಿಕಾ	-11.3578
▁ಅಬ್ಭಾಚಿಕ್ಖ	-11.3578
▁ಸತ್ತರತನಸಮ್ಪನ್ನೋ	-11.3579
▁ಗಾಳ್ಹ	-11.358
▁ನಿಕ್ಖೇಪ	-11.358
▁ಹನ್ದಾಹಂ	-11.358
▁ಮಹಾಪಚ್ಚರಿಯಂ	-11.358
▁ಅಭಿತ್ಥವ	-11.3581
ಪ್ಪಹಾನೇನ	-11.3582
▁ಅರಿಯವಂಸ	-11.3582
▁ಏಕದೇಸೇನ	-11.3584
▁ಮಹೇಸೀ	-11.3584
▁ಸಮುದಾಚರನ್ತಿ	-11.3585
▁ನಿಬ್ಬಾನಧಾತುಯಾ	-11.3585
▁ಅಹಿರಿಕ	-11.3588
▁ಪಟಿಚ್ಛ	-11.3589
▁ಪಚ್ಚೇಸ್ಸ	-11.3589
▁ಅಭಿಸಮ್ಬುದ್ಧ	-11.359
▁ನಿಮನ್ತನ	-11.359
ಪದಟ್ಠಾನಾ	-11.359
▁ರಂಸಿ	-11.3592
▁ಮಾರೇ	-11.3592
▁ಸಾಧೂತಿ	-11.3592
▁ಪಣ್ಡರ	-11.3592
▁ದೇಸೇಯ್ಯ	-11.3594
ದನ್ತಿ	-11.3595
▁ಆಣತ್ತ	-11.3595
ಪೇತವತ್ಥು	-11.3596
▁ಪಚ್ಚವೇಕ್ಖಣಞಾಣ	-11.3598
▁ತೇಮಾಸಂ	-11.3598
▁ಅನಾರಮ್ಮಣ	-11.3598
▁ಕುಸಲೇಹಿ	-11.3599
ವಸ್ಸಸಹಸ್ಸಾನಿ	-11.3603
ಭಗವತೋ	-11.3603
ಸಞ್ಞಿ	-11.3603
▁ಮಹಾಕರುಣಾ	-11.3604
▁ಪಾದಕಜ್ಝಾನ	-11.3604
▁ಅಜ್ಜತಗ್ಗೇ	-11.3604
ಪಚ್ಚುಪಟ್ಠಾನೋ	-11.3609
▁ಆಸೇವನ	-11.361
▁ಮಯೂರ	-11.3611
▁ಥೋಕ	-11.3611
ಮಪಿ	-11.3612
▁ವೀಮಂಸಾ	-11.3613
ಮನಸಿಕಾರೋ	-11.3614
ಾದಿಭಾವೋ	-11.3615
ತುಕಾಮೋ	-11.3616
▁ಅಸ್ಸುತವಾ	-11.3618
▁ಅಟ್ಠಙ್ಗುಲ	-11.3618
▁ವಿರಾಜ	-11.3619
ಜನಾ	-11.362
▁ಪಸಿದ್ಧ	-11.362
ಇಚ್ಚಾದಿನಾ	-11.3621
▁ಲೋಕನಾಥ	-11.3623
▁ಭಣೇ	-11.3624
▁ನಿಕ್ಖಮನ	-11.3625
ರೇತಿ	-11.3626
▁ಆಕಙ್ಖತಿ	-11.3626
ನನ್ದೀ	-11.3627
ಯ್ಯೋ	-11.3627
ಅನಾಗತ	-11.3632
▁ಅನತ್ತಮನೋ	-11.3634
▁ಅನಿಚ್ಚಾನುಪಸ್ಸನಾ	-11.3635
▁ಬ್ರಹ್ಮಚಾರೀ	-11.3636
▁ವಿತಕ್ಕೇ	-11.3637
▁ದೋಸೇನ	-11.3639
ಘರೇ	-11.3639
▁ವಿಜ್ಜಮಾನೇ	-11.3641
▁ವೇದನಾನಂ	-11.3644
▁ಅರಿಯಸಾವಕ	-11.3644
ಯನ್ತಂ	-11.3646
▁ಅತ್ಥತಕಥಿನ	-11.3647
▁ಸೇಸಪದೇಸುಪಿ	-11.3647
▁ಗಾರಯ್ಹೋ	-11.3648
▁ಸಿಖೀ	-11.3648
▁ಪರಿಪೂರಕಾರೀ	-11.3649
▁ಕಾಯವಿಞ್ಞತ್ತಿ	-11.365
▁ಜಹನ್ತಿ	-11.3651
ಸಮ್ಪತ್ತ	-11.3652
▁ದುಮ್ಮನೋ	-11.3653
▁ಪಟಿಚ್ಛಾದೇತ್ವಾ	-11.3654
▁ಅಭಿಸೇಕ	-11.3654
▁ಲಹುಂ	-11.3654
▁ಅವಿಪಾಕ	-11.3654
▁ಇದ್ಧಿಪಾದಂ	-11.3656
▁ಓಸಕ್ಕ	-11.3656
▁ಕಪಿಲವತ್ಥು	-11.3657
▁ಪರಿಞ್ಞೇಯ್ಯ	-11.3657
▁ಕಮ್ಮವಾಚಾ	-11.3658
▁ಅಪಾಕಟ	-11.3658
▁ನಾಮರೂಪಸ್ಸ	-11.3662
ಮಞ್ಞಾಯ	-11.3663
▁ಕರೋನ್ತೇ	-11.3664
▁ಅಬ್ಯಾಕತಮೂಲ	-11.3664
ತೇಜೋ	-11.3665
▁ಸಂವಿಜ್ಜತಿ	-11.3665
▁ಪತ್ಥೇತಿ	-11.3667
ಪೋತಕ	-11.3667
ಸಯಂ	-11.3668
ಕತಿಚಿ	-11.3668
▁ಜಹತೀತಿ	-11.3668
▁ವಿಜಮ್ಭ	-11.3671
▁ಪರಮತ್ಥೋ	-11.3671
▁ಪಿಸಾಚ	-11.3672
ವಿಭಾವನಾ	-11.3672
▁ಅತಿಮಾನ	-11.3672
▁ಖಣೋ	-11.3673
ವಲಾಹಕ	-11.3673
ಹೇತೂತಿ	-11.3674
ವಿತಕ್ಕವಿಚಾರಮತ್ತಾ	-11.3674
▁ಅಪ್ಪಮಞ್ಞಾ	-11.3674
▁ನಿದ್ದಿಟ್ಠಂ	-11.3675
ಭಿಕ್ಖವೋ	-11.3675
▁ನಾಳಿಕೇರ	-11.3676
▁ಏಕಪದ	-11.3676
▁ವುತ್ತೇನ	-11.3679
▁ಕುಸಲವಿಪಾಕ	-11.3681
▁ನನ್ದಿಯ	-11.3684
▁ಭಿನ್ನೋ	-11.3684
▁ಆಯತನಾನಂ	-11.3685
▁ಅಗಾ	-11.3686
▁ಅಕಪ್ಪಿಯಂ	-11.3686
▁ಅತ್ಥಙ್ಗತ	-11.3688
ಫಲಕ	-11.3688
ಇಟ್ಠ	-11.3688
ಕೋಟ್ಠಾಸೇ	-11.3691
ತರಿ	-11.3691
▁ಸಮಾಪಜ್ಜನ	-11.3693
ಮದಾಸಿ	-11.3693
ನಾಮಕಂ	-11.3693
ದುಕ್ಖಸ್ಸ	-11.3695
ಮಾಗತಂ	-11.3696
▁ಅಪ್ಪಮಾದೋ	-11.3696
▁ಮುಗ್ಗ	-11.3696
▁ಇಟ್ಠಕ	-11.3698
▁ಸಮ್ಬನ್ಧಿತಬ್ಬಂ	-11.37
▁ಪಟಿನಿಸ್ಸಗ್ಗ	-11.3701
▁ಸಾಗರೋ	-11.3701
ಿಯತ್ಥೇರಅಪದಾನ	-11.3702
ಾದಿಭೇದೇ	-11.3702
ವತಂ	-11.3702
▁ತನ್	-11.3702
ದಾಹ	-11.3704
ಸಮುದಾಚಾರ	-11.3705
▁ಆಸವೇಹಿ	-11.3706
▁ಸಂವಣ್ಣ	-11.3707
▁ವಾಹ	-11.3707
▁೨೪೪	-11.3709
▁ದಾನಾನಿ	-11.371
▁ಪರಿಯಾ	-11.371
ಮಿಞ್ಜ	-11.371
▁ಹದಯವತ್ಥು	-11.3712
▁ರಾಹು	-11.3714
▁ಅನಿಚ್ಚಾದಿ	-11.3714
▁ರೂಪಸಞ್ಞಾ	-11.3715
▁ಮೇಸೋ	-11.3716
▁ಗಿರ	-11.3717
▁ಸಮ್ಪಸ್ಸಮಾನೋ	-11.3717
▁ಉಮ್ಮತ್ತಿಕಾಯ	-11.3718
▁ಅಧಿವಾಸನ	-11.3718
▁ಆಮನ್ತ	-11.3718
ಅಞ್ಞಮಞ್ಞಪಚ್ಚಯೇನ	-11.3718
▁ಮನ್ದಾ	-11.3719
▁ಪಟಿಬಲೋ	-11.3719
ಭಿಞ್ಞ	-11.372
▁ಅರೋಗ	-11.372
▁ದಿಟ್ಠಿಗತವಿಪ	-11.372
▁ಧಾರೇತೀತಿ	-11.3721
▁ಜಾನಿ	-11.3722
▁ವಿಹಾರಾ	-11.3722
▁ಪರಿಸುದ್ಧೋ	-11.3725
ಕತ್ತು	-11.3725
▁ಚತುಸಚ್ಚಧಮ್ಮ	-11.3725
▁ಸದೇವಮನುಸ್ಸಾಯ	-11.3727
▁ಅಸನ್ತಂ	-11.3727
▁ತಞ್ಞೇವ	-11.3727
▁ಧಞ್ಞಂ	-11.3728
▁ಧಮ್ಮರಾಜ	-11.3728
▁ಪರಿಯೋದಾತ	-11.3731
▁ಪಕಾಸನ	-11.3737
ವೇಕಲ್ಲ	-11.3738
ಮಕ	-11.3738
ಮಚ್ಛರಿಯ	-11.3739
▁ಸ್ವ	-11.3739
▁ಧಿ	-11.3739
▁ಪರಿಹರತಿ	-11.374
▁ಉಪಾಯೋ	-11.374
ಪರೇ	-11.3741
▁ಅವಸಾನೇ	-11.3741
▁ಸಮನುಭಾಸನ	-11.3741
ಉಪಾಸಕ	-11.3743
ಪಬ್ಭಾರ	-11.3744
▁ಆರೋಚಿತ	-11.3745
▁೨೪೮	-11.3745
೨೨	-11.3745
ಾಭಿಮುಖಂ	-11.3746
ಭಂ	-11.3746
▁ಬ್ಯಾಪಾರ	-11.3747
▁ಅಬ್ಭುತೋ	-11.3748
▁ಪಸಾದಂ	-11.375
▁ಪಕಾಸೇತಿ	-11.375
ರೂಪಕ	-11.375
▁ಸೀಲಾದಿಗುಣ	-11.3751
ೇಯ್ಯಾಥಾ	-11.3751
ಸಙ್ಖಾತೇಹಿ	-11.3751
▁ದೂತಂ	-11.3752
▁ಪಜಾನಾತೀತಿ	-11.3752
▁ಚನ್ದಿಮಸೂರಿಯಾ	-11.3752
▁ನಾವ	-11.3754
ಛಕ್ಕ	-11.3754
▁ಸಿರ	-11.3755
▁ವಿಞ್ಞಾಣಕ್ಖನ್ಧ	-11.3756
▁ಯಸ್ಸಾಯಸ್ಮ	-11.3756
ಮೇತನ್ತಿ	-11.3757
▁ನಿಪಕೋ	-11.3757
▁ಣಿ	-11.3757
▁ವಿಧಾನ	-11.3759
▁ವತ್ಥೂಹಿ	-11.3759
▁ಪಕಾರೇಹಿ	-11.376
▁ರಾ	-11.3762
▁ಸಿಮ್ಹಿ	-11.3762
ಪಟಿಪತ್ತಿಯಾ	-11.3762
▁ಸಭಾವೇನ	-11.3763
ದೂತ	-11.3765
ೇತಬ್ಬನ್ತಿ	-11.3765
ಧಾಯ	-11.3765
▁ಪರಿಪುಣ್ಣೋ	-11.3766
ಚೇತಿಯಂ	-11.3766
ಜ್ಜು	-11.3768
೩೦	-11.3768
▁ಸನ್ದಿಟ್ಠಿಕಂ	-11.377
▁ಹೇಮನ್ತ	-11.377
▁ಅಸೇಕ್ಖೋ	-11.3772
▁ಸುಕರಂ	-11.3773
▁ಫಲೇನ	-11.3773
▁ಅಗ್ಗಟ್ಠಾನ	-11.3776
ವಣ್ಣನಾಯಂ	-11.3776
ೂನಿ	-11.3777
▁ಥೂಪಂ	-11.3778
೫೦	-11.3781
▁ಅಸೇಸ	-11.3783
ಿಮ್ಹಿ	-11.3784
ಭೂತಾನಿ	-11.3784
▁ಅಟ್ಠವಿಧ	-11.3786
▁ಲಿಚ್ಛವೀ	-11.3788
▁ಅಙ್ಕುರ	-11.3789
▁ಬ್ಯಞ್ಜನೇ	-11.3789
▁ವಿವೇಕನಿಸ್ಸಿತಂ	-11.379
▁ವಿಚರನ್ತ	-11.3792
▁ಉಮ್ಮಾದ	-11.3792
▁ಸಬ್ಬದುಕ್ಖ	-11.3792
ದಣ್ಡೋ	-11.3792
▁ಭಾಗಂ	-11.3794
▁ವದನ್ತೀತಿ	-11.3794
ಾಮಾತಿ	-11.3795
▁ಧಮ್ಮಾರಮ್ಮಣ	-11.3795
▁ಸಮೇನ	-11.3797
▁ವಚಸಾ	-11.3799
▁ಅಧಿಪ್ಪಾಯಂ	-11.38
▁ಪುರೋಹಿತ	-11.3801
ಪರಮಂ	-11.3801
▁ಓಕ್ಕಮತಿ	-11.3801
▁ರಾಗೇನ	-11.3802
▁ಮೇದ	-11.3802
▁ಜೇಟ್ಠೋ	-11.3807
▁ಸನ್ಧಾಯೇತ	-11.3807
▁ಪತಿಟ್ಠಾಸಿ	-11.3808
▁ಸುಸಮಾಹಿತ	-11.3809
ಸಲ್ಲಕ್ಖಣ	-11.3811
ವೀಥಿಯಂ	-11.3814
▁ಅಪಚ್ಚಂ	-11.3814
▁ವಿಹತ	-11.3815
ಞಾಣಸ್ಸ	-11.3816
ಿನ್ದೋ	-11.3817
▁ಸಮ್ಮತಾ	-11.3818
▁ಅವಧಿ	-11.3818
▁ಅಧಮ್ಮಂ	-11.3819
▁ಸಹಾಯೋ	-11.382
▁ಯಾಪೇತಿ	-11.3821
▁ಅಮೂ	-11.3822
▁ತಾಳ	-11.3823
▁ಘಂಸ	-11.3825
▁ಪಾಪುಣಿತ್ವಾ	-11.3826
ಪರಿಸ್ಸಯ	-11.3827
▁ಗಮಿಸ್ಸಾಮೀ	-11.3827
ಮಚ್ಛರ	-11.383
▁ಪುರಕ್ಖತೋ	-11.3832
▁ಸತಿವಿನಯ	-11.3835
▁ಠಪೇನ್ತೋ	-11.3836
ಗತೇನ	-11.3837
▁ಪಸ್ಸತಾ	-11.3839
ಜಾತಿಯಾ	-11.3839
ಇಮಾನಿ	-11.3839
▁ಕರೋಮ	-11.384
▁ವಿಞ್ಞಾಪನ	-11.384
▁ಏಕಾದಸಮಂ	-11.384
▁ಮನ್ತಿ	-11.3841
▁ಪರಿಸ್ಸಯ	-11.3842
▁ಝಾನೇನ	-11.3844
▁ತಥಾವಿಧ	-11.3844
▁ಗಿಮ್ಹ	-11.3844
ನಾಕಾರೋ	-11.3845
ನಿಬ್ಬತ್ತಕ	-11.3845
ಅನಾ	-11.3845
ಗುಣೇಹಿ	-11.3847
ಪಕ್ಖಿಕ	-11.3847
▁ಅಕರೋನ್ತ	-11.3848
ಅಯ	-11.3849
▁ಪಾಪಾನಿ	-11.385
▁ಚಾತುಮಹಾರಾಜಿಕ	-11.3851
ಪಟಿಗ್ಗಾಹಕ	-11.3851
ಾತಿಆದಿ	-11.3854
▁ಅಹಞ್ಹಿ	-11.3854
▁ನೋಚಿತ್ತಸಂಸಟ್ಠ	-11.3855
ಪರಿವುತ	-11.3855
▁೨೬೫	-11.3855
▁ವಸ್ಸಸಹಸ್ಸಾನಿ	-11.3857
▁ಕುದ್ಧೋ	-11.3858
▁ಜಚ್ಚನ್ಧ	-11.3859
▁ನವಿಪಾಕಪಚ್ಚಯಾ	-11.3859
▁ವುತ್ತಾನಂ	-11.386
▁ವಿಸ್ಸುತೋ	-11.386
ಮಾನಾತಿ	-11.3861
ಧಾರಾ	-11.3861
ಟ್ಠಿತೋ	-11.3861
▁ಉಪಪತ್ತಿಕ್ಖಣೇ	-11.3861
▁ಪತಿಟ್ಠಾಪೇತ್ವಾ	-11.3861
ಇದ	-11.3863
ವಯವ	-11.3864
▁ಅಮ್ಹ	-11.3867
▁೨೬೩	-11.3868
▁ಬಾಹಿರಕ	-11.3868
▁ಅನುಪಸ್ಸತಿ	-11.3868
▁ಅನೋತ್ತಪ್ಪ	-11.387
▁ಯೇಭುಯ್ಯ	-11.3871
ಪಯೋಗೋ	-11.3871
▁ಅನೇಕಸತ	-11.3872
▁ಪರಿವಾಸ	-11.3873
▁ವೀರೋ	-11.3875
▁ವೇಲಾಯಂ	-11.3876
ಹುತ	-11.3877
▁ಸಂಖಿತ್ತ	-11.3877
ತೋವ	-11.3877
ಕಿಣ್ಣಂ	-11.3877
▁ನೀವರಣವಿಪ್ಪಯುತ್ತ	-11.3878
▁ಆದೀಸು	-11.3878
▁ಏದಿಸೋ	-11.3878
ಭಾಣಿ	-11.3879
▁ಸಹಜಾತಪಚ್ಚಯಾ	-11.3879
ಯಾಪಿ	-11.3879
▁ಸಕ್ಕಾತಿ	-11.388
▁ಆರಾಮಿಕ	-11.388
▁ಸನ್ಥರಿತ್ವಾ	-11.3882
ಸಮ್ಬನ್ಧೋ	-11.3882
ಚರಿತೋ	-11.3882
▁ಪಾಣಿನಾ	-11.3883
▁ಪಟಿಸಲ್ಲಾನಾ	-11.3883
▁ವಿವೇಕಜಂ	-11.3885
▁ಸಮೂಹೋ	-11.3887
ಅಭಿಕ್ಕನ್ತಂ	-11.3887
ಾದೀಸೂತಿ	-11.3887
▁ನರಾಸಭೋ	-11.3888
▁ಭಿಕ್ಖುಸಙ್ಘ	-11.3888
ಧೂಮ	-11.389
▁ಠಿತೋತಿ	-11.3892
ಪಚ್ಛಿಮ	-11.3893
▁ಅನ್ನಂ	-11.3893
ಕಮ್ಪ	-11.3893
▁ಪೀಠಂ	-11.3893
▁ಮೇಘೋ	-11.3894
ಚ್ಛಾದ	-11.3896
▁ಮಹಾಯಸ	-11.3897
▁ಸಾತಿಸಯ	-11.3898
ವಿಭೂಸಿತ	-11.3898
▁ಮೇಘಿಯ	-11.3899
ಕೋಸಲ್ಲ	-11.39
ಸಟ	-11.39
▁ಸನ್ತೋಸ	-11.3902
▁ಮತೇ	-11.3904
▁ಮಚ್ಛೋ	-11.3905
ದೇವಾ	-11.3906
ವತಾ	-11.391
▁ನಿರನುಸಯೋತಿ	-11.3911
▁ಚೇತೋಪರಿಯಞಾಣಸ್ಸ	-11.3911
▁ನಿಚ್ಛಯ	-11.3911
▁ಸೋವಣ್ಣ	-11.3912
▁ಪಸಂಸಾ	-11.3913
ಕರಣತ್ಥಂ	-11.3913
▁ಭಣ್ಡಾಗಾರಿಕ	-11.3913
▁ವಿಹಿಂಸ	-11.3914
▁ಸೀಲಞ್ಚ	-11.3914
೨೩	-11.3915
▁ಕಾಣ	-11.3919
▁ಮುದಿತ	-11.3919
ಯನ್ತೀ	-11.392
▁ಮಹಾಥೇರೋ	-11.392
▁ತತ್ತಕಂ	-11.3921
▁ಜಾತೋತಿ	-11.3921
ಸೇನಾಸನಂ	-11.3923
▁ಪಥವೀಕಸಿಣಂ	-11.3923
▁ಸೇಖಿಯ	-11.3925
▁ಠಾನನ್ತಿ	-11.3927
▁ಬಹುತರಂ	-11.3928
▁ಚೇತನಾಪಣಿಧೀಹಿ	-11.393
▁ಫುಸನ	-11.393
▁ನೇಸೋಹಮಸ್ಮಿ	-11.393
▁ತತುತ್ತರಿ	-11.393
▁ಕತಿಪಯ	-11.3931
ಪತನ	-11.3931
▁ದುಕ್ಖಸ್ಸನ್ತಕರೋ	-11.3931
▁ಅನಿದಸ್ಸನೋ	-11.3932
▁ಸಾತರೂಪಂ	-11.3932
ಾನಞ್ಚೇವ	-11.3933
▁ಕುತೋಚಿ	-11.3933
ಇಚ್ಛ	-11.3934
ಲಾಭಿನೋ	-11.3934
▁ಮಾತಿಕಂ	-11.3936
▁ಅಸಕ್ಕೋನ್ತ	-11.3937
▁ಧಾರೇತಬ್ಬ	-11.3937
▁ಸುಖೋ	-11.3938
▁ಖೇತ್ತೇ	-11.3939
▁ಪುಟ್ಠ	-11.3939
▁ಗೋತಮೀ	-11.394
ುತ	-11.3942
▁ಸುವಿಭತ್ತ	-11.3942
▁ಅನಞ್ಞಥಾ	-11.3944
▁ಪರಿಹಾಯ	-11.3944
▁ಇಚ್ಛಾಮಿ	-11.3944
▁ಮಾತುಯಾ	-11.3944
ಧಮ	-11.3945
ಸಮ್ಪಯೋಗ	-11.3945
ವಿಚಾರೋ	-11.3945
ಹರಣಂ	-11.3947
ಿಚ್ಛಾ	-11.3947
▁ಪಚ್ಚಯಭೂತ	-11.3948
ಜರಾ	-11.3949
ಾಪೇಕ್ಖ	-11.3949
▁ದುಪ್	-11.3949
▁ಸಭಿಕ್ಖುಕೋ	-11.395
ದಿಟ್ಠಿಯಾ	-11.395
▁ಸುಞ್ಞಾ	-11.3951
▁ಪಾಪಸ್ಸ	-11.3952
ರುಕ್ಖೇ	-11.3956
▁ಅಪಕ್ಕಮ	-11.3956
ಮುದ್ದಿಕ	-11.3956
ತ್ತಸ್ಸ	-11.3956
▁ವುತ್ತಪ್ಪಕಾರೇನ	-11.3957
▁ಛಕ್ಕ	-11.3957
ಬಿಮ್ಬ	-11.3958
▁ಸಾಧೂ	-11.3958
ಕ್ಖನ್ಧಂ	-11.3958
▁ಗತೀ	-11.3959
▁ಪಟಿಚ್ಛನ್ನಾ	-11.3962
▁ಭುಞ್ಜನ್ತಸ್ಸ	-11.3964
ಸಮಾಧೀ	-11.3965
ಮೇಯ್ಯ	-11.3965
▁ವಾಚಸಿಕ	-11.3965
ವಹ	-11.3967
ವಿದ್ಧಂಸನ	-11.3967
ದಿಸಾಯ	-11.3968
▁ಝಾಯತಿ	-11.397
ಾತಿಆದಿಮಾಹ	-11.397
ಾವಹಾರ	-11.3971
ವಾರಿ	-11.3972
ಸೋಳಸ	-11.3972
▁ಪರಿಭವ	-11.3972
▁ಅಚರಿ	-11.3972
ಹಾನಿ	-11.3976
ಸಮ್ಭವಾ	-11.3976
▁ಅಪ್ಪಮಾಣಾ	-11.3976
▁ಭಯೇನ	-11.3977
▁ದೀಪಙ್ಕರ	-11.3977
ಮಾಸಿ	-11.3978
▁ಭಗವನ್ತೋ	-11.3978
▁೨೪೬	-11.398
▁ಜೀವಕ	-11.3982
▁ದುಬ್ಭಾಸಿತ	-11.3983
▁ಲಹುತಾ	-11.3984
▁ಅಪ್ಪಿಚ್ಛ	-11.3985
▁ಸುಮನಾ	-11.3985
▁ಅಪ್ಪಿಯೋ	-11.3986
ಾದಾಯ	-11.3986
▁ಅನುಪ್ಪನ್ನಾನಂ	-11.3989
▁ಸಞ್ಜಾನನ	-11.3989
ಕತೇ	-11.3992
▁ಉಪಚಿತ	-11.3992
▁ಕಥಿನೇ	-11.3992
▁೨೪೫	-11.3993
ಕ್ಖಣೇಯೇವ	-11.3995
▁ದಣ್ಡೋ	-11.3995
ಅನ್ತ	-11.3996
▁ವಿಸೇಸಾಧಿಗಮ	-11.3996
▁ಅರಕ್ಖಿತ	-11.3997
ಣೇಯ್ಯ	-11.3998
▁ಸುಖಾವಹ	-11.3998
ಚಕ್ಕವಾಳ	-11.3999
ಪ್ಯತ್ರ	-11.4
ವಿರಹಿತಾ	-11.4
▁ಸಮಾದಪೇ	-11.4001
▁ಕೋಧನೋ	-11.4002
▁ಭುಞ್ಜಿತಬ್ಬಂ	-11.4002
▁ಗಾಥಾದ್ವಯಮಾಹ	-11.4002
▁ಅಞ್ಞಾತಾವೀ	-11.4002
▁ತಿವೇದನನ್ತಿ	-11.4002
▁ಕತಮೇಸಂ	-11.4003
▁ಉಚ್ಛಿಜ್ಜ	-11.4004
▁ನಿಲೀಯ	-11.4004
▁ಅನ್ವಾ	-11.4004
▁ಪಸ್ಸಸಿಸ್ಸಾಮೀ	-11.4005
▁ವಾದಿತ	-11.4005
▁ಸಮೋಧಾನೇತ್ವಾ	-11.4006
ನಾಸಿಕ	-11.4008
ಾಧೀನ	-11.4008
▁ಮಚ್ಛೇರ	-11.4009
▁ಸೋತಾಪನ್ನಾ	-11.401
▁ಪಞ್ಚಹಾಕಾರೇಹಿ	-11.401
▁ಕೋಸ	-11.4011
▁ತಿಟ್ಠತು	-11.4011
▁ಸಾತ್ಥಿಕಾ	-11.4011
▁ಮೋಘಪುರಿಸ	-11.4012
ಟ್ಠಾನನ್ತಿ	-11.4014
ಇಚ್ಚಾಯಸ್ಮಾ	-11.4016
ುಕ	-11.4016
▁ಕದಲಿ	-11.4017
▁ಗಾಮಾ	-11.4018
▁ಆಳವಕ	-11.4019
▁ಗವೇಸನ್ತೋ	-11.402
▁ಠಾನಸೋ	-11.4021
ಿತ್ಥಿಯಾ	-11.4022
ಾವಜ್ಜನ	-11.4022
▁ಪಿಹ	-11.4023
ಚತುರ	-11.4027
ಫರುಸ	-11.4029
▁ಮಹಬ್ಬಲಾ	-11.4029
▁ಅಧಮ್ಮಕಮ್ಮ	-11.4031
▁೨೫೬	-11.4032
▁ಪರಿತ್ತಾರಮ್ಮಣಂ	-11.4033
▁ತುಮ್ಹಾಕ	-11.4033
ಫಲಾನಿ	-11.4033
ಸಾಮತ್ಥಿಯ	-11.4034
▁ಅನುಮೋದನ	-11.4035
ಭಿಕ್ಖವೇ	-11.4035
ದೀಪನತ್ಥಂ	-11.4038
ಭೇರಿ	-11.404
▁ಮಾರಣ	-11.4041
▁ಸೂಚ	-11.4045
ಪರಿಸಙ್ಕಿತ	-11.4045
ಕಿಞ್ಚ	-11.4045
▁ಕಾಯಸಙ್ಖಾರ	-11.4046
ಸದಿಸಾನಿ	-11.4047
▁ತಥೂಪಮ	-11.4049
▁ತೇನಾವುಸೋ	-11.4049
▁ಚಲನ	-11.4053
ಪೂಜಂ	-11.4053
▁ಬಹೂಸು	-11.4055
ಸ್ಮೀ	-11.4055
ಕಥಿನ	-11.4056
▁ವಳಞ್ಜ	-11.4057
▁ರುಹತಿ	-11.4057
▁ಆಯಾಚ	-11.4057
ಪಿತು	-11.4059
ಭಾಣೀ	-11.4061
▁ಗಣಭೋಜನ	-11.4064
▁ಕಾಯಚಿತ್ತ	-11.4067
▁ನಿದ್ದ	-11.4068
▁ಆರೋಪಿತ	-11.4068
▁ಅರಿಯಮಗ್ಗೇನ	-11.407
▁ವಟ್ಟದುಕ್ಖ	-11.407
▁ಅಭಿವಾದನ	-11.4073
▁ಬ್ರಾಹ್ಮಣಮಹಾಸಾಲ	-11.4075
ಕಾರಿನೋ	-11.4075
▁ಅನಾಗತಂಸಞಾಣಸ್ಸ	-11.4075
▁ತಬ್ಭಾವ	-11.4075
ಚ್ಚಾ	-11.4075
▁ಸಮಾನಸಂವಾಸಕ	-11.4076
▁ಪರಿಚಾರಕ	-11.4077
▁ದುಮ್ಮೇಧ	-11.4077
▁ಓಸಾರಣ	-11.4078
▁ಕಿಞ್ಚನ	-11.4078
▁ಭದ್ದನ್ತೇ	-11.4079
▁ಅನುಸನ್ಧಿಂ	-11.408
▁ಮಾಸಾ	-11.4081
▁ಸಲಕ್ಖಣ	-11.4082
▁ನಿಚ್ಛರ	-11.4083
ಸಕ್ಕಾರ	-11.4084
▁ಸಾರಿಪುತ್ತಂ	-11.4085
▁ವಿಞ್ಞಾಯತೀತಿ	-11.4086
ಕ್ಖನ್ಧೇ	-11.4086
ವರೇ	-11.4088
▁ಅನ್ತರಧಾನ	-11.4088
ಮಞ್ಜ	-11.4089
▁ಸಪ್ಪಟಿಘಂ	-11.4089
▁ಸುಪಿನಂ	-11.409
ತ್ತೀ	-11.4091
▁ಫರತಿ	-11.4092
▁ವಸನಟ್ಠಾನ	-11.4092
▁ಪವರೋ	-11.4093
▁ಸವಿತಕ್ಕ	-11.4094
▁ಬ್ಯಾಕರಣ	-11.4095
▁ತಾವತಾ	-11.4095
▁ಸಾವಸೇಸ	-11.4096
▁ದ್ವಿಪದ	-11.4096
ಕುಕ್ಕುಚ್ಚ	-11.4097
▁ನಹೇತುಪಚ್ಚಯೋ	-11.4098
▁ಆಪಾಯಿಕ	-11.4098
▁ವಿಸತ್ತಿಕಾ	-11.4098
▁ಉಟ್ಠಾ	-11.4099
ಭರಣ	-11.4099
▁ಉಪಸಂಹರತಿ	-11.41
▁ವಿಕಪ್ಪನ	-11.4101
ಧಿಗತ	-11.4101
ಾದೀನೀತಿ	-11.4101
▁ಕಾಮಗುಣೇಸು	-11.4102
ಭಾವೇಪಿ	-11.4103
▁ದಣ್ಡಿ	-11.4103
▁ವೋಟ್ಠಬ್ಬನ	-11.4105
▁ರತ್ತಿನ್ದಿವ	-11.4106
ಚೂಳ	-11.4107
ಸಾಲಾಯ	-11.411
ಅಜ್ಝತ್ತ	-11.4111
▁ಸುಖಸಹಗತಾ	-11.4111
ಪರಿಕ್ಖೇಪ	-11.4112
ುಪ್ಪನ್ನಂ	-11.4112
▁ತಹಂ	-11.4113
ದಾಯಕಂ	-11.4113
▁ಕಮಲ	-11.4113
▁ಧೇನು	-11.4114
▁ಪಹಿಣ	-11.4115
▁ಚೇಸ	-11.4115
▁ವವತ್ಥಿತ	-11.4116
▁ಸಾಮತ್ಥಿಯ	-11.4117
▁ನಿಪಜ್ಜಿ	-11.4119
▁ಉಬ್ಭ	-11.4121
▁ವಾಲ	-11.4121
▁ಇಚ್ಛಾಯ	-11.4122
▁೨೬೪	-11.4123
▁ನೀವರಣೇ	-11.4124
▁ಪರಿವಾರೇ	-11.4124
▁ಸುತ್ತಪದ	-11.4124
ಕುಣಪ	-11.4124
ಾನಿಸಂಸಾ	-11.4124
▁ಆಯೂ	-11.4125
ಇಚ್ಚೇವಮಾದೀ	-11.4125
▁ಪಕ್ಕನ್ತ	-11.4126
▁ಅಪರಿಯಾಪನ್ನ	-11.4127
ಭೂಮಕ	-11.4127
▁ಪುಚ್ಛಾಮ	-11.4127
ರತ್ತಿಂ	-11.4127
▁ಠಪನ	-11.4127
ಾನಾಗತ	-11.413
▁ರಜನೀಯಾ	-11.413
ಕಹಂ	-11.4131
▁ಅದೋಸ	-11.4131
ವ್ಹ	-11.4132
ತೇಹಿ	-11.4132
▁ಖಮಾಪ	-11.4134
▁ಅಸಮ್ಭವತೋ	-11.4136
▁ಅಪಣ್ಣಕ	-11.4136
▁ಹಿಮ	-11.4137
▁ಪನೇತೇ	-11.4138
ನಾಸನ	-11.4138
ಯಞ್ಹಿ	-11.4139
ಮಚ್ಚು	-11.4139
ಅಮ್ಭೋ	-11.4139
▁ತಯೋಪಿ	-11.4139
▁ಪಲಾಸ	-11.4139
▁ಪತನ್ತಿ	-11.4142
ಕೋಸಲ್ಲಂ	-11.4145
▁ದೇವಮನುಸ್ಸ	-11.4146
ಮಸ್ಸಾತಿ	-11.4147
ಹತಾ	-11.4147
▁ಸಲಾಕ	-11.4147
▁ಅಗ್ಗಮಕ್ಖಾಯತಿ	-11.4148
▁ಪರಿದೀಪಿತ	-11.4148
▁೨೬೯	-11.4148
▁ಪವಾರೇತಬ್ಬಂ	-11.4148
ಸರಾ	-11.4148
▁ಅನಾವಾಸೋ	-11.4149
▁ವಿಕಾಲಭೋಜನ	-11.4149
ಅನಾಥಪಿಣ್ಡಿಕ	-11.4149
ಾದಿಗುಣ	-11.415
▁ಬುದ್ಧಾನುಸ್ಸತಿ	-11.415
▁ನಿಸ್ಸಟ್ಠ	-11.4151
▁ಪಮುಞ್ಚ	-11.4152
ನವುತಿ	-11.4152
ಿಮ್ಹಾ	-11.4152
▁ಏಕಾಹಪ್ಪಟಿಚ್ಛನ್ನ	-11.4152
▁ಅಲ್ಲೀಯ	-11.4154
▁ಆಗಮಿಸ್ಸತಿ	-11.4154
ಲೋಪೇ	-11.4155
▁ಫರುಸಾ	-11.4155
ನಿಗ್ಘೋಸ	-11.4155
▁೨೮೦	-11.4155
▁ಆದಿಕಮ್ಮಿಕ	-11.4157
▁ವಿಹ	-11.4158
▁ಮಿಚ್ಛತ್ತ	-11.4158
▁ಕೇನಚಿದೇವ	-11.4159
▁ಜನಾನಂ	-11.416
▁ಮಹಗ್ಗತಾ	-11.4161
ಬಾಲ	-11.4161
▁ಯಥಾಸಕಂ	-11.4162
▁ಸದ್ದೇನ	-11.4163
▁ವನ್ದಿ	-11.4164
▁ಮದ್ದಿತ್ವಾ	-11.4164
▁ದಾರಕೋ	-11.4165
▁ವಞ್ಚನ	-11.4166
▁ನಿಬ್ಬಾಯ	-11.4166
೬೦	-11.4167
▁ಅನಿದಸ್ಸನಂ	-11.4168
ಪತಿರೂಪಕ	-11.4169
ಪರಾಜಿತ	-11.417
ಗೋಚರಂ	-11.4172
ಪದೇಸು	-11.4173
ತ್ಥಾನಂ	-11.4174
▁ಸಾರಮ್ಮಣೋ	-11.4174
▁ಪುಮಾ	-11.4177
▁ದೇವೇಹಿ	-11.4177
▁ಅಸ್ಸದ್ಧ	-11.4178
▁ಜಾನಿತಬ್ಬ	-11.4178
▁ಓತರತಿ	-11.4179
▁ವಿನಟ್ಠ	-11.4179
▁ಉಪ್ಪಜ್ಜನತೋ	-11.4184
▁ಕುಹಕ	-11.4184
ಪುಪ್ಫಾನಿ	-11.4184
▁ಸಮನ್ತಚಕ್ಖು	-11.4184
ಸಮ್ಫಸ್ಸೋ	-11.4184
▁ಗಣ್ಠಿ	-11.4184
▁ಅಸ್ಸಾದಞ್ಚ	-11.4185
▁ಅಪ್ಪಿಚ್ಛಾ	-11.4186
ದಹನ	-11.4186
ಪರಿಪೂರಣ	-11.4187
▁ತಣ್ಹಾಪಚ್ಚಯಾ	-11.419
▁ಉಪಟ್ಠಾಪೇ	-11.419
▁ಸನ್ನಿಪತನ್ತಿ	-11.419
▁೨೫೮	-11.4191
ವಣಿಜ್ಜ	-11.4192
▁ಏಕಾದಸಹಿ	-11.4194
▁ಸುಕತಂ	-11.4194
ದುಕ್ಖಾ	-11.4195
▁ಪಾರಮಿಂ	-11.4198
▁ಪೂರೇನ್ತ	-11.4199
▁ವಿಜ್ಜು	-11.42
▁ವಸ್ಸಿಕ	-11.42
▁ಮಾನೇ	-11.4201
▁ಜೇತವನ	-11.4201
ಸಮ್ಪದ	-11.4202
ಾತಿಕ್ಕಮೇ	-11.4202
▁ಸವಿಚಾರಂ	-11.4203
ಬೋಧಿಸತ್ತ	-11.4207
ಕಾರಕಾ	-11.4208
▁ವಚೀದುಚ್ಚರಿತ	-11.4209
ಯಮಾನಂ	-11.4211
ನಾಥ	-11.4213
ಸತ್ತಮ	-11.4213
▁ಬ್ರೂ	-11.4216
▁ಸಂವೇಜ	-11.4217
ಸಮೂಹೋ	-11.4219
ಾಪೇನ್ತಸ್ಸ	-11.422
▁ಪಞ್ಞಾಬಲಂ	-11.4221
▁ಸಲ್ಲಕ್ಖೇ	-11.4221
▁ಯಾವತಾಯುಕಂ	-11.4221
▁ಧತರಟ್ಠ	-11.4221
▁ಅಭಾಸಥ	-11.4221
▁೨೬೭	-11.4221
▁ವಚನಮಬ್ರವಿ	-11.4222
▁ನಿದ್ಧಾರೇತ್ವಾ	-11.4223
▁ಅನುಗ್ಗಣ್ಹ	-11.4223
▁ಉತ್ತರೋ	-11.4224
ಾಭಿಭೂ	-11.4224
▁ಪರಿಮಜ್ಜ	-11.4224
▁ಸರಭ	-11.4227
▁ಸಚಿತ್ತಕಂ	-11.4228
▁ಪಿಸುಣ	-11.4228
ವಜ್ಝ	-11.4228
▁ದಸಮೋ	-11.4229
▁ಸಾಮಞ್ಞಂ	-11.4229
▁ಅಭಿನಿವೇಸೋ	-11.4229
▁ಏತದಗ್ಗೇ	-11.4229
ಪದೇಸೇ	-11.423
▁ಗಹಿತಾನಿ	-11.423
▁ವುತ್ತೇಹಿ	-11.423
ತಿಸ್ಸತ್ಥೇರೋ	-11.423
ಜನಂ	-11.423
ಸಮ್ಮತಂ	-11.4231
▁ಕಾರಯ	-11.4231
ೀಯಿತ್ಥಾತಿ	-11.4231
▁ಪಟಿಪಜ್ಜಿ	-11.4232
▁ನಿಯಮೇತ್ವಾ	-11.4235
▁ವಿಞ್ಞೂಹಿ	-11.4236
▁ಸಿಜ್ಝತಿ	-11.4236
▁ವಣ್ಣಿತ	-11.4236
▁ಸುಣನ್ತ	-11.4236
▁ದಸಧಾ	-11.4237
▁ಅಧಿಟ್ಠಾತಿ	-11.4237
▁ಚಿನ್ತಿತ	-11.4238
ಪಪಞ್ಚ	-11.424
ಪವಿಟ್ಠ	-11.4241
▁ಮಹಾಭೋಗ	-11.4242
ಸಹಿತಂ	-11.4243
▁ಭವಿತಬ್ಬನ್ತಿ	-11.4245
▁ತಾಣ	-11.4245
▁ವೋದಾನಸ್ಸ	-11.4247
▁ವಸ್ಸಸಹಸ್ಸ	-11.4248
▁ಓಪಪಾತಿಕ	-11.4248
ಉಪೇಕ್ಖಾ	-11.4249
▁ಕಥಯ	-11.4251
▁ಪುಥ	-11.4251
▁ಪಟಿಞ್ಞಾಯ	-11.4256
▁ತೇವಿಜ್ಜ	-11.4257
▁ರಾಗಾದಯೋ	-11.4258
ಗೋಚರೇ	-11.426
ವೇಕ್ಖ	-11.426
▁ಪುರೇಜಾತ	-11.4261
▁ಉದಪಾದೀತಿ	-11.4263
ಪುಗ್ಗಲಸ್ಸ	-11.4265
▁ನೇಕ್ಖಮ್ಮಂ	-11.4265
ಬದ್ಧಾ	-11.4268
▁ವಿಸ್ಸ	-11.4269
▁ಸಕ್ಖರ	-11.427
▁೨೪೭	-11.427
ಟ್ಠಾನೇಯೇವ	-11.4272
▁ಸದ್ಧಮ್ಮಸ್ಸ	-11.4272
▁೨೬೬	-11.4272
▁ವಮ	-11.4273
▁ಕಟುಕ	-11.4274
ದಸ್ಸಿತ	-11.4275
▁ಏಕತ್ತಂ	-11.4276
▁ಚಿತ್ತಾ	-11.4277
▁ವಿಭತ್ತಂ	-11.4277
▁ಫಣ	-11.4277
▁ತಚೋ	-11.4279
ಪುಗ್ಗಲಂ	-11.428
▁ಸಬ್ಬಸ್ಮಿಂ	-11.428
ಸರೀರೋ	-11.4282
▁ನಮೇ	-11.4284
▁ಓವದತಿ	-11.4284
▁ರಥೋ	-11.4285
ಮೇವೇತಂ	-11.4285
ಸಙ್ಖಾರಾ	-11.4287
▁ಜನತಾ	-11.4287
▁ಅಧಿವಾಸೇ	-11.4288
ದಯ	-11.4289
▁ಪೀತಿಸಹಗತ	-11.429
▁ಚವತಿ	-11.4291
▁ಸಿಸ್ಸಾ	-11.4292
ಖಿ	-11.4292
ನಿಕಾಯಟ್ಠಕಥಾಯ	-11.4292
▁ರಟ್ಠಾ	-11.4293
▁ಕಬಳ	-11.4294
▁ಸಭಾ	-11.4294
▁ಭಿಕ್ಖುನುಪಸ್ಸಯ	-11.4295
▁ಸಾಯನ್ಹಸಮಯಂ	-11.4295
▁ಮಹಬ್ಭಯ	-11.4295
ಸಮ್ಪಿ	-11.4295
▁ನಾನುಸೇತೀತಿ	-11.4295
▁ಸಣಿಕಂ	-11.4296
▁ಉಮ್ಮುಜ್ಜ	-11.4296
▁ಅರಿಯಕನ್ತ	-11.4297
ಮಾರಬ್ಭ	-11.4298
▁ಮಙ್ಕು	-11.4299
ಪರೇತ	-11.4299
▁ಫೋಟ್ಠಬ್ಬೇ	-11.4299
▁ಧಮ್ಮಕಮ್ಮೇ	-11.4302
▁ಸೋಧೇತ್ವಾ	-11.4302
▁ವುತ್ತಮೇವತ್ಥಂ	-11.4302
ಾದೀನಿಪಿ	-11.4305
ಪಿಟ್ಠೇ	-11.4307
ತಾವಸೇನ	-11.4308
▁ವಿಜ	-11.4309
ಪಾಳಿಯಾ	-11.431
▁ಅರಿಯಮಗ್ಗಂ	-11.431
▁ಪುರಿಮಾನಿ	-11.4311
ಸಹಾಯೋ	-11.4311
▁ಸಮುಚ್ಚಯ	-11.4311
▁ಅಪಾಯೇಸು	-11.4313
▁ಮದ್ದೀ	-11.4314
▁೨೬೨	-11.4315
▁ಸಮ್ಮುಖೀಭಾವ	-11.4316
▁ಆನಾಪಾನ	-11.4316
▁ಸಂವರಾಯ	-11.4317
▁ನಿಸ್ಸಿತ	-11.4319
▁ಅರಹತ್ತಾ	-11.4321
▁ಅಮೂಳ್ಹವಿನಯ	-11.4321
▁ಜರಾಮರಣಸ್ಸ	-11.4326
▁ಪವಿಸನ್ತಿ	-11.4326
▁ಪಯ	-11.4326
ಸಮ್ಭೂತ	-11.4327
ದೋಸಂ	-11.4328
▁ಅರಿಯೇನ	-11.433
▁ಓವಾದೋ	-11.433
ಸಮುಜ್ಜಲ	-11.433
▁ಗನ್ಥನಿಯ	-11.433
▁ದುಪ್ಪಞ್ಞ	-11.433
▁ಕಾಮಸುಖ	-11.433
▁ತೇಪಿಟಕ	-11.433
ಕುಸಲಸ್ಸ	-11.433
ಉಪ್ಪಾದ	-11.433
ಹಾಕಾರೇಹಿ	-11.4332
ಸಿಖಾ	-11.4334
▁ಉಪಲಬ್ಭ	-11.4334
▁ಚರಿತ	-11.4335
▁ತತಿಯಜ್ಝಾನ	-11.4337
▁ಭಾವಿತಂ	-11.4337
▁ಸತಾ	-11.4338
▁ದುತಿಯದಿವಸೇ	-11.4338
▁ಆಚಿಣ್ಣ	-11.4341
▁ಸೇನಕ	-11.4343
ಸರೀರಂ	-11.4343
ಸಭಾವತೋ	-11.4344
▁ಸೀಹಳ	-11.4346
ಾಯತನಾನಿ	-11.4346
▁ಸಬ್ಬಧಮ್ಮ	-11.4347
▁ಪಞ್ಹಸ್ಸ	-11.4348
▁ಬನ್ಧತಿ	-11.4348
▁ಪಣ್ಡ	-11.4349
▁ಗುಹ	-11.435
ಭಾಜನೀಯ	-11.435
▁ನುಪ್ಪಜ್ಜಿತ್ಥಾತಿ	-11.4353
▁೨೫೩	-11.4353
▁ಓತರ	-11.4353
ಪಞ್ಚಿಮಾನಿ	-11.4353
ವಿಭಾಗೇನ	-11.4356
▁ಗಣ್ಹಥ	-11.4356
ಸಸ್ಸತೋ	-11.4356
ಪೀಠಂ	-11.4357
▁ಅವಿಜ್ಜಾಸವೋ	-11.4362
ಸಂಯುತ್ತವಣ್ಣನಾ	-11.4362
▁ವಿತಕ್ಕಞ್ಚ	-11.4362
▁ಥವ	-11.4363
▁ಇದ್ಧೀ	-11.4363
▁ಝಾನಾನಂ	-11.4364
ಮಾಗತೋ	-11.4366
ಭೂತಪುಬ್ಬಂ	-11.4367
▁ಪರಿವಿತಕ್ಕೋ	-11.4368
ಸದ್ಧೋ	-11.4369
ಭೂತತ್ತಾ	-11.4369
▁ವಿಲುಮ್ಪ	-11.437
ೂಪಸಂಹಿತ	-11.437
▁ಬಹವೋ	-11.437
▁ಸಮಿಞ್ಜಿತ	-11.4371
▁ಪುರಕ್ಖತ್ವಾ	-11.4371
▁ಅನನುಞ್ಞಾತ	-11.4371
ಲಟ್ಠಿ	-11.4372
▁ಅತ್ಥುದ್ಧಾರ	-11.4373
▁ಸುರಾಪಾನ	-11.4374
▁ಇಚ್ಚೇತಂ	-11.4376
ಪಿಟ್ಠ	-11.4376
▁ಸಞ್ಞತ	-11.4378
▁ಅಬ್ಯಾಬಜ್ಝ	-11.4378
▁ಮೋಚೇತ್ವಾ	-11.4378
ಪಸ್ಸೇ	-11.4383
ದಾತುಕಾಮ	-11.4384
ದಿತ್ತ	-11.4385
▁ವುತ್ತತ್ಥಮೇವ	-11.4386
▁ಸೂದ	-11.4386
ಸಿನಾ	-11.4387
▁ತಸ್ಸೇವಂ	-11.4388
▁ನಿಬ್ಬತ್ತಿತ	-11.4389
▁ಸಾರಮ್ಭಂ	-11.4389
▁ರೂಪೇಸು	-11.4389
▁ಛದ್ದನ್ತ	-11.439
ರಜನ	-11.4392
ಾಯಸ್ಮತೋ	-11.4392
▁ಪಣ್ಡಿತಾನಂ	-11.4394
▁ದಸ್ಸಯ	-11.4395
▁ವಾದೇ	-11.4397
▁ನಿವಾರಣ	-11.4397
▁ಪಟಿಗ್ಗಹೋ	-11.4397
▁ಅಮ್ಭೋ	-11.4398
▁ನಿಗ್ಗತ	-11.4398
▁ಭಾರದ್ವಾಜ	-11.4402
ಫುಲ್ಲ	-11.4403
ಸುಮನ	-11.4404
▁ಆರೋಗ್ಯ	-11.4404
▁ಪಟಿಬದ್ಧ	-11.4405
▁ವಿಞ್ಞಾತಂ	-11.4409
▁ಸಮಾನತ್ಥ	-11.4412
▁ಬಹೂಪಕಾರ	-11.4413
▁ನಿದ್ದಂ	-11.4414
ಅನ್ತೋ	-11.4415
ತನು	-11.4415
▁ಆಕಿಣ್ಣ	-11.4416
ಗೇಹೇ	-11.4417
▁ಆಗತಾನಿ	-11.4417
▁ವಿಪ್ಪಕತ	-11.4417
▁ವರೇ	-11.4417
ನ್ದು	-11.4417
ದಸಕಂ	-11.4417
▁ಜನೇತೀತಿ	-11.4418
▁೨೪೯	-11.4419
▁ಬ್ರಹ್ಮಾನಂ	-11.4421
ಪಚ್ಚನೀಕ	-11.4421
ಗನ್ತ್ವಾ	-11.4422
ಚ್ಛಿದ್ದ	-11.4422
ಗಯ್ಹ	-11.4423
▁ಸಾರೋ	-11.4426
▁ಅಗ್ಗಹಿತ	-11.4426
▁ಏವಮಯಂ	-11.4429
ಲೇಸ	-11.443
▁ಅನಾಗಾಮಿ	-11.443
ಪಚ್ಚಯಂ	-11.443
▁ಅಧಿಚಿತ್ತ	-11.443
▁ಸಮನ್ನಾಗತ	-11.4431
ಪೀಳನ	-11.4432
▁ಕಾಮಭವೇ	-11.4432
ಮರಿಯ	-11.4433
▁ಜಾತೀ	-11.4434
▁ಮೋಹಞ್ಚ	-11.4435
▁ದಹರಾ	-11.4436
▁ಮರಣಧಮ್ಮ	-11.4437
▁ಬಾರಾಣಸಿಂ	-11.4437
ಅಡ್	-11.4437
▁ಭಾಜನಂ	-11.444
▁ಸಮಾಹಿತೇ	-11.4441
ಗ್ಗೇನ	-11.4441
▁ಞಾತಕೇ	-11.4441
ಕಾಯೇ	-11.4444
▁ಭಾವಿತ್ಥ	-11.4444
ಸ್ವಾಕ್ಖಾತ	-11.4444
▁ವುಚ್ಚನ್ತೇ	-11.4445
ಮಾನಸ	-11.4446
▁ಚರಿಮ	-11.4446
▁ಅಪರಿಸೇಸ	-11.4446
▁ಅನಾಥಪಿಣ್ಡಿಕೋ	-11.4446
▁ವಿನಿಚ್ಛಿನ	-11.4446
ವಸೇನಾಪಿ	-11.4446
▁ದಾಯಾದೋ	-11.4447
▁ಕಾಸಿರಾಜ	-11.4447
▁ಚಕ್ಖುಸ್ಸ	-11.4448
▁ಕೋಸಮ್ಬಿಯಂ	-11.4449
ಾತಿಕ್ಕನ್ತ	-11.4449
▁ಸಿತ	-11.445
▁ಪೋರಿಸಾದ	-11.445
ಪಾಟಿಹಾರಿಯ	-11.445
▁೨೫೧	-11.4451
▁ಪುಚ್ಛೇಯ್ಯ	-11.4451
▁ಅಧಮ್ಮಕಮ್ಮೇ	-11.4451
▁ಸತಸಹಸ್ಸಂ	-11.4451
▁ಸಲಾಕಭತ್ತ	-11.4452
▁ವಿರೋಧ	-11.4452
▁ವದನ್ತಸ್ಸ	-11.4452
▁ಕಲ್ಯಾಣಮಿತ್ತತಾ	-11.4453
▁ಅಙ್ಗಪಚ್ಚಙ್ಗ	-11.4454
ನೀತ	-11.4454
▁ಉದಪಾನ	-11.4455
▁ಬನ್ಧನೇ	-11.4455
ಙ್ಗಾರ	-11.4456
ನುಗ	-11.4457
▁ಚಕ್ಖುಸೋತ	-11.4459
ಗಮೇ	-11.4459
ವತ್ತಬ್ಬೇ	-11.4459
▁ಬ್ರಹ್ಮಞ್ಞ	-11.446
ಸಙ್ಖ್ಯಾ	-11.4461
ದಸ್ಸನತ್ಥ	-11.4462
▁ಛಿಜ್ಜ	-11.4463
ತ್ಥೀತಿ	-11.4463
▁ಅಸಮ್ಮಿಸ್ಸ	-11.4463
▁ಆರಕ್ಖಂ	-11.4463
▁ಅಭಾವಂ	-11.4464
▁ಅನುಮೋದಿತ್ವಾ	-11.4466
ಧೇಯ್ಯ	-11.4466
ದ್ದಸ	-11.4467
▁ರಕ್ಖಣ	-11.447
ನ್ಧರ	-11.447
▁ಕುಟ್ಟ	-11.447
▁ಇಚ್ಛಸಿ	-11.447
▁ಧಂಸ	-11.4472
▁ಸಚ್ಛಿಕತಂ	-11.4473
ಸಿಕ್ಖಾಪದಞ್ಚ	-11.4473
▁೨೫೯	-11.4474
ಪ್ಪಮುಖ	-11.4476
▁ಸುವಿ	-11.4477
▁ಪದೇಸು	-11.4478
▁ಹಾನಿ	-11.4478
ನ್ತನ್ತಿ	-11.4479
ಸದಿಸತಾ	-11.448
▁ಗಮಿಸ್ಸನ್ತಿ	-11.4481
▁ಸುತಾ	-11.4482
ಧೋತ	-11.4482
▁ಭಾಸಿತಮ್ಪೇತಂ	-11.4482
ಪಿಲೋತಿಕ	-11.4482
▁ಗಣೇ	-11.4483
ಭೋಜನೇ	-11.4484
▁ಧಮ್ಮಪದ	-11.4484
▁ಭಣೇಯ್ಯ	-11.4485
▁ರಟ್ಠವ	-11.4486
▁ಪತಿಸ್ಸ	-11.4487
▁ವಯಂ	-11.4488
▁ಜಾತಿಜರ	-11.4488
▁ಸುಖಸಹಗತೋ	-11.4488
ಪ್ಪಟಿಸಂವೇದೀ	-11.4489
ಸಮ್ಬಾಧ	-11.4489
ಸಾರಿಪುತ್ತ	-11.4489
▁ವಣ್ಣತೋ	-11.4489
▁ಪಟಿಹಞ್ಞ	-11.4491
▁ಕಮ್ಪತಿ	-11.4492
ಪರಿಯನ್ತಂ	-11.4492
▁ಕೀಳನ್ತಿ	-11.4492
▁ಸುಪುಪ್ಫಿತ	-11.4493
▁ಏವಮೇತ	-11.4493
▁೨೫೭	-11.4495
▁ಮಹಾಕಸ್ಸಪತ್ಥೇರ	-11.4497
ಸುಖೇನ	-11.4497
▁ಅನ್ತರಧಾಯತಿ	-11.4497
▁ಸಮ್ಮತ್ತನಿಯತ	-11.4499
▁ದೇಮಾ	-11.45
ಙ್ಗಪಞ್ಹೋ	-11.4501
▁ಗಿಲಾನಪಚ್ಚಯ	-11.4502
▁ಪುಬ್ಬಸ್ಸ	-11.4502
▁ಸುವಿಮುತ್ತ	-11.4502
▁ಪಹಾತಬ್ಬಹೇತುಕಞ್ಚ	-11.4505
▁ನಿಯಮೋ	-11.4506
▁ದೀಪಿತೋ	-11.4509
▁ಲಮ್ಬ	-11.4513
▁ಆಯುಪ್ಪಮಾಣಂ	-11.4514
▁ಜಹಾತಿ	-11.4514
▁ವೀರಿಯಬಲಂ	-11.4516
▁ನಿದ್ಧಾರಿತ	-11.4517
▁ಕವಿ	-11.4519
ಪದೇಸೋ	-11.4519
ವಿಚಿಕಿಚ್ಛಾ	-11.4519
▁ಅಪರನ್ತ	-11.452
▁ಉಪ್ಪಾದೇತಬ್ಬ	-11.452
▁ಚಿತ್ತಸಹಭೂ	-11.4521
▁ಅವಿಪರಿಣಾಮಧಮ್ಮ	-11.4521
▁ನಿಬ್ಭಯ	-11.4521
▁ಅಗಿಲಾನಸ್ಸ	-11.4522
▁ಜರಂ	-11.4524
▁ಪವಸ್ಸ	-11.4524
▁ಕುಸಲಕಮ್ಮ	-11.4524
▁ತದಪಿ	-11.4525
▁ಸಗಾರವೋ	-11.4527
ವಚನನ್ತಿ	-11.4527
▁ಸಣ್ಠಪ	-11.4528
▁ಸಮ್ಭವತೋ	-11.453
▁ಪರಿಸ್ಸಯಾ	-11.453
▁ಆಣಾಪೇತಿ	-11.453
ಪಾದಿನ್ನುಪಾದಾನಿಯಂ	-11.4532
ಾರಹಾ	-11.4532
ನ್ದ್ರಿಯ	-11.4533
-‘	-11.4533
ಾದಿಕಥಾ	-11.4534
▁ಭಗ್ಗವ	-11.4534
▁ಪಲ್ಲಙ್ಕೇನ	-11.4536
▁ನಾರಿ	-11.4537
ಾರೋಚನ	-11.4538
▁ಸುಸ್ಸೂಸ	-11.454
ಸಂವೇಗ	-11.4541
▁ದುಕ್ಖನಿರೋಧಗಾಮಿನ	-11.4541
ಚ್ಛದ	-11.4541
▁ಉಪಕ್ಕಮತಿ	-11.4542
▁ಸಾಮಞ್ಞಫಲಾನಿ	-11.4543
▁ಆಪಜ್ಜಿತಬ್ಬ	-11.4546
ಗೀವ	-11.4549
ಕಾಯೇನ	-11.455
ಕನ್ದ	-11.4551
ಪರಾ	-11.4551
ಪಟಿಘ	-11.4556
▁ಸನ್ನ	-11.4556
▁ಸುವಣ್ಣಂ	-11.4557
ಪ್ಪಟಿಪತ್ತಿ	-11.4559
ಭಗವತಾ	-11.456
▁ಬಲಿ	-11.456
ಪಣ್ಡಕ	-11.4561
ಜಾತಸ್ಸ	-11.4561
▁ಸಸಙ್ಖಾರ	-11.4561
ರೂಪೀ	-11.4562
▁ಖೀಣಾಸವಾನಂ	-11.4563
▁ದೇವಲೋಕಂ	-11.4564
▁ಸೋತಾಪನ್ನಸ್ಸ	-11.4566
ಪರಿಭೋಗೋ	-11.4567
▁ತದ್ಧಿತ	-11.4567
▁ಹರತಿ	-11.4567
▁ನಿಯ್ಯ	-11.4568
▁ಪಾಣಾತಿಪಾತೀ	-11.4569
▁ಪರಿಕ್ಖೀಣಾ	-11.457
▁ಅಞ್ಞಾನಿ	-11.457
▁ಅರಹತ್ತಫಲಂ	-11.4571
ಪಾರಿಸುದ್ಧಿ	-11.4572
▁ಮಹಾಭೂತ	-11.4573
▁ದಸ್ಸೇತಬ್ಬ	-11.4574
▁ನಿಸ್ಸಟ	-11.4574
ಆರಾಮ	-11.4574
▁ಚಾರ	-11.4576
ಬಹುವಚನ	-11.4576
ಆಸವ	-11.4577
▁ದಣ್ಡೀ	-11.4578
▁ದೇವರಾಜ	-11.458
▁ಧಮ್ಮವಿನಯ	-11.4581
▁ಸೂರೋ	-11.4581
▁ಕಿಲಮತಿ	-11.4582
ಅಮ್ಮ	-11.4584
▁ಸಮೋಧಾನಂ	-11.4585
▁ಪಟು	-11.4586
ಾನಮೇತಂ	-11.4593
ಇಧಾಹಂ	-11.4594
▁ಅಧಿಸೀಲ	-11.4596
[...]
