<unk>	0
<s>	0
</s>	0
.	-2.61495
,	-2.91097
ം	-3.97729
തി	-4.01235
▁‘‘	-4.24827
▁	-4.41915
’’	-4.48608
▁ച	-4.55318
ാ	-4.57367
▁ന	-4.59253
ോ	-4.62625
;	-4.79613
േ	-4.92906
ന്തി	-4.9616
▁വാ	-4.98388
സ്സ	-5.02486
▁–	-5.247
േന	-5.39113
▁ഹോതി	-5.51613
▁പന	-5.52259
▁തം	-5.66042
പേ	-5.66722
?	-5.67783
॰	-5.7446
▁തത്ഥ	-5.77781
▁സോ	-5.89391
▁ഏവം	-5.91154
പി	-5.94745
തോ	-5.95282
▁നാമ	-5.97031
▁ഖോ	-5.99127
-	-6.02289
ഞ്ച	-6.039
▁അ	-6.10271
▁ഭിക്ഖവേ	-6.11296
’	-6.12752
ാനം	-6.12975
▁തസ്സ	-6.14213
▁തേ	-6.15362
ന	-6.19483
▁ഹി	-6.25328
ാതി	-6.25712
ാനി	-6.27118
േഹി	-6.34234
▁വുത്തം	-6.36086
വ	-6.40171
▁അത്ഥോ	-6.45552
േസു	-6.48326
ായ	-6.51903
▁‘	-6.55038
ി	-6.57823
▁ധമ്മാ	-6.59764
▁ധമ്മോ	-6.61606
▁മേ	-6.62147
വസേന	-6.62186
▁തേസം	-6.62444
നം	-6.63867
▁ധമ്മം	-6.65166
▁ഉപ്പജ്ജതി	-6.66891
▁അയം	-6.67613
▁തേന	-6.68232
▁പച്ചയോ	-6.68635
▁വിയ	-6.72038
▁യഥാ	-6.7219
▁പടിച്ച	-6.74409
▁യം	-6.78475
▁ഭിക്ഖു	-6.80205
ീ	-6.83605
ത്താ	-6.84145
▁കത്വാ	-6.84688
▁ദ്വേ	-6.84718
▁ഏകം	-6.84802
▁യോ	-6.85195
▁അഥ	-6.85232
▁ഏത്ഥ	-6.8644
▁നോ	-6.87899
താ	-6.89125
▁തസ്മാ	-6.90481
▁തഥാ	-6.90543
▁ആഹ	-6.91732
▁ഭഗവാ	-6.92268
മ്പി	-6.93122
▁സ	-6.93142
▁ഭന്തേ	-6.93166
▁ഇദം	-6.9396
▁തതോ	-6.95312
ാദി	-6.95861
യ	-7.00573
▁തീണി	-7.02188
ക	-7.03279
മേവ	-7.06033
▁അത്തനോ	-7.07469
യേവ	-7.10437
▁വുച്ചതി	-7.1547
കോ	-7.16581
▁പഞ്ച	-7.17987
▁ഇധ	-7.18465
▁യസ്സ	-7.19788
▁ചിത്തം	-7.20762
സു	-7.2173
▁സാ	-7.2219
▁നത്ഥി	-7.23836
▁അത്ഥി	-7.24279
▁നവ	-7.2538
▁യേ	-7.25532
ോതി	-7.26872
യോ	-7.27524
▁തസ്മിം	-7.28088
▁ഹോന്തി	-7.28378
തീതി	-7.28427
മ	-7.28947
▁ഏവ	-7.30629
നാ	-7.3089
▁ഇതി	-7.31556
▁സത്ത	-7.32969
▁ഭിക്ഖൂ	-7.35785
തായ	-7.36608
▁നിട്ഠിതാ	-7.36632
ിത്വാ	-7.3687
അ	-7.38227
യം	-7.40007
യാ	-7.40174
ഹി	-7.40919
േതി	-7.42009
▁കിം	-7.42165
കം	-7.43358
▁ചേവ	-7.45204
മ്ഹി	-7.45456
സി	-7.45611
ഡ്	-7.45793
തിആദി	-7.45886
▁മഹാ	-7.47391
തം	-7.48633
േയ്യ	-7.48659
▁ഹേതുപച്ചയാ	-7.48724
▁ഭഗവതോ	-7.48857
▁ധമ്മസ്സ	-7.50255
▁രൂപം	-7.52998
▁ആപത്തി	-7.5335
▁ഹുത്വാ	-7.53976
ന്തോ	-7.54935
▁സബ്ബ	-7.56266
▁ഏക	-7.58184
കാ	-7.5923
▁ഇമിനാ	-7.59342
▁യത്ഥ	-7.60316
▁ഖന്ധാ	-7.60635
▁ആമന്താ	-7.62004
സ	-7.63011
▁ഇമേ	-7.63914
▁യാ	-7.65024
▁ധമ്മ	-7.6578
▁ഇമം	-7.67255
▁വ	-7.68013
▁ദിസ്വാ	-7.68985
▁അഹോസി	-7.69412
▁സദ്ധിം	-7.6977
▁യേന	-7.7019
▁സു	-7.71277
▁രാജാ	-7.71729
▁ഹോതീതി	-7.71763
▁അഹം	-7.71958
▁കഥം	-7.72154
▁പ	-7.72342
▁ത്വം	-7.73511
▁ഹേതു	-7.7447
▁തദാ	-7.75495
▁സിയാ	-7.75759
▁പുന	-7.7578
▁ആവുസോ	-7.76459
▁തയോ	-7.77106
▁മം	-7.77516
▁നു	-7.7806
▁മമ	-7.79489
▁സചേ	-7.8031
നി	-7.80502
▁ഗഹേത്വാ	-7.80707
▁ഛ	-7.81802
▁ഏകോ	-7.83144
▁സതി	-7.83675
സുത്തം	-7.83888
നോ	-7.84411
ാദീസു	-7.8448
▁ഭഗവതാ	-7.8474
▁ഇദാനി	-7.85079
▁൧	-7.85158
തീ	-7.85469
▁പഞ്ഞാ	-7.86133
▁സത്ഥാ	-7.87683
▁മാ	-7.87919
ാദീനം	-7.90792
സുത്തവണ്ണനാ	-7.90802
▁പുഗ്ഗലോ	-7.91038
▁സഹ	-7.91334
▁അനു	-7.91366
പ	-7.92529
▁വിഹരതി	-7.93521
▁സുത്വാ	-7.93525
ത്ഥ	-7.93843
ാപി	-7.9412
തേ	-7.94383
▁സബ്ബം	-7.9443
▁വി	-7.94596
സോ	-7.94686
▁പച്ചയാ	-7.94929
▁മഹാരാജ	-7.95
▁കതം	-7.95084
▁യസ്മാ	-7.95729
▁ഉപ	-7.9701
ികാ	-7.97344
▁താവ	-7.97614
▁ചത്താരോ	-7.97887
േത്വാ	-7.99085
ാദയോ	-7.99171
ഭാവം	-8.00362
▁തേനാഹ	-8.00746
▁ദസ്സേതി	-8.0218
സദ്ദോ	-8.03099
▁വത്വാ	-8.0311
▁ലോകേ	-8.03521
▁നഹേതു	-8.03525
ഭാവേന	-8.03549
▁സബ്ബേ	-8.03817
▁ആരബ്ഭ	-8.04103
തിആദിനാ	-8.04753
▁പഠമം	-8.0551
കഥാ	-8.05773
▁ചത്താരി	-8.05936
▁വട്ടതി	-8.06002
▁അട്ഠ	-8.06055
▁യോജനാ	-8.06568
▁പുബ്ബേ	-8.07001
▁ഖന്ധേ	-8.07121
ു	-8.07325
▁കിര	-8.07694
▁സമയേ	-8.07894
▁ഏതം	-8.07976
▁വേദനാ	-8.08129
▁ഗന്ത്വാ	-8.08529
▁കരോതി	-8.08787
ഭാവോ	-8.09233
ാദീഹി	-8.10055
▁വേദിതബ്ബോ	-8.10494
▁വത്തബ്ബേ	-8.10883
▁വുത്താ	-8.10994
▁കമ്മ	-8.11126
▁ചേ	-8.1118
▁ഭിക്ഖുനോ	-8.11374
▁നേവ	-8.11394
ിത	-8.11395
ത	-8.12079
▁നയോ	-8.12141
▁ദസ	-8.12482
നേ	-8.12982
▁ഠപേത്വാ	-8.13154
▁ചിത്ത	-8.13314
▁മയാ	-8.13825
ീതി	-8.14183
൭	-8.14237
▁കമ്മം	-8.14513
▁ഇമസ്മിം	-8.15036
▁കോ	-8.15246
കാലേ	-8.15315
ച	-8.16223
സ്മിം	-8.16254
▁സന്ധായ	-8.16292
൫	-8.1675
ാനീതി	-8.16907
▁കിഞ്ചി	-8.17727
▁പരം	-8.17736
▁൨	-8.17836
ിതാ	-8.18142
▁അസ്സ	-8.18719
▁ആയസ്മാ	-8.19163
▁ദുക്ഖം	-8.19448
൬	-8.19558
ഥ	-8.19566
ന്തീതി	-8.19921
കേ	-8.19978
▁മയ്ഹം	-8.20284
൯	-8.20847
▁ഭോ	-8.20866
തു	-8.21171
വി	-8.21263
ാദീനി	-8.21303
▁തു	-8.21861
൧	-8.2201
൪	-8.22101
▁രൂപ	-8.22158
ിംസു	-8.22211
▁യാവ	-8.22221
▁ഭഗവന്തം	-8.22285
മാ	-8.2234
വാ	-8.22344
▁ധമ്മേ	-8.22664
▁ചാതി	-8.22925
▁വത	-8.23524
▁അത്ഥ	-8.23684
▁സമന്നാഗതോ	-8.2371
▁അഞ്ഞം	-8.23841
ിം	-8.24031
ത്ഥായ	-8.25334
േനാതി	-8.25971
ിതും	-8.26082
▁ദസ്സേതും	-8.26296
ധമ്മ	-8.26316
▁സമ്ബന്ധോ	-8.26373
▁വത്ഥു	-8.26379
▁ഗച്ഛതി	-8.26479
൩	-8.26519
▁തണ്ഹാ	-8.26528
▁ദുക്ഖ	-8.26606
ിയ	-8.26799
ിതോ	-8.27049
▁പടി	-8.27571
▁ഇതോ	-8.27573
േപി	-8.27804
▁വുത്തോ	-8.27995
▁ഥേരോ	-8.29421
ിക	-8.29591
ിയാ	-8.29731
▁ദിട്ഠി	-8.29794
ത്ഥം	-8.30428
ട്ഠേന	-8.3045
▁വദന്തി	-8.30775
൮	-8.31084
▁ഉപ്പജ്ജിസ്സതി	-8.31164
മാനോ	-8.31698
▁വേദിതബ്ബം	-8.31748
▁സമ്മാ	-8.31939
▁ഉപ്പജ്ജന്തി	-8.32459
ിതം	-8.32682
▁സമ	-8.3285
▁യദി	-8.33431
ാമി	-8.33639
വണ്ണനാ	-8.33653
വഗ്ഗോ	-8.33887
▁ബുദ്ധ	-8.34027
▁ജാനാതി	-8.34118
▁ദസ്സേന്തോ	-8.34912
▁പഠമ	-8.35038
൨	-8.3505
▁അന	-8.35065
▁വചനം	-8.35301
േവ	-8.36363
▁തേസു	-8.3663
▁ഖന്ധാനം	-8.36658
▁ഝാനം	-8.3687
▁ഫലം	-8.37539
▁ഞാണം	-8.37945
▁ഭവ	-8.38032
▁തസ്സാ	-8.38206
ഭാവ	-8.38634
▁രഞ്ഞോ	-8.38659
▁കേചി	-8.38667
ഭാവതോ	-8.38989
▁ചിത്തസ്സ	-8.39017
▁വസേന	-8.39431
▁ആ	-8.39666
▁ഹേതുയാ	-8.39867
▁ബ്രാഹ്മണ	-8.40384
▁രാജ	-8.40436
▁ദേവ	-8.40618
യേ	-8.40641
▁അന്തോ	-8.40929
▁വേദിതബ്ബാ	-8.40929
േനേവ	-8.41614
▁ഹേട്ഠാ	-8.4204
▁കസ്മാ	-8.42118
▁൩	-8.42654
▁പട്ഠായ	-8.43182
ന്താ	-8.43221
ന്തസ്സ	-8.43509
ത്ത	-8.43722
ഹം	-8.43922
▁സങ്ഘോ	-8.44305
▁ഏസ	-8.44309
▁വുത്ത	-8.44384
▁ജാതി	-8.44924
രൂപ	-8.44944
▁സുഖം	-8.44978
▁ഭിക്ഖൂനം	-8.45439
▁കുസലാ	-8.45768
▁പര	-8.45922
▁ഫല	-8.46394
േസി	-8.46583
▁അധിപ്പായോ	-8.46763
▁ഭവിസ്സതി	-8.46876
▁ദുതിയ	-8.46922
▁ഹേവം	-8.47442
▁സബ്ബത്ഥ	-8.48004
ഹേതു	-8.4801
▁ബുദ്ധോ	-8.48312
▁താനി	-8.48648
▁തത്ര	-8.48665
▁കാമ	-8.48852
▁വോ	-8.48983
▁സമയേന	-8.49157
▁പച്ഛാ	-8.49218
▁മഗ്ഗ	-8.49818
▁കതമേ	-8.49851
▁തേഹി	-8.50358
ഞ്ചേവ	-8.50981
▁പുരിസോ	-8.51247
▁സഞ്ഞാ	-8.51364
ാവ	-8.51388
കമ്മ	-8.51389
▁സത്താ	-8.51391
സം	-8.51497
▁ഉപസങ്കമിത്വാ	-8.52554
▁ദുക്കടം	-8.52638
▁൪	-8.5265
▁പുച്ഛാ	-8.52688
കഥാവണ്ണനാ	-8.52967
ത്തം	-8.53031
▁കത	-8.53173
▁നിസ്സായ	-8.53369
ല	-8.53422
▁ഏതദവോച	-8.53707
സാ	-8.53879
സിക്ഖാപദവണ്ണനാ	-8.54101
▁ഏവമേവ	-8.54207
▁ഇമസ്സ	-8.54742
▁൭	-8.55019
▁ഞാണ	-8.55134
അയം	-8.55142
▁അനാപത്തി	-8.55165
▁ഹോതീ	-8.55337
▁വേദനായ	-8.55394
▁ഓ	-8.55921
ഹ	-8.56306
▁സന്തികേ	-8.5689
▁തവ	-8.56918
▁ദത്വാ	-8.56993
▁കുസലം	-8.57079
▁അതി	-8.57158
▁സുഖ	-8.57185
▁സേസം	-8.57312
ന്തീ	-8.57525
▁വുത്തേ	-8.57581
▁ഏസേവ	-8.57668
▁ദാനം	-8.58184
▁പസ്സതി	-8.58999
▁ബുദ്ധസ്സ	-8.59058
▁തഥാഗതോ	-8.59392
പ്പ	-8.59393
▁ഇമാ	-8.59422
▁‘‘‘	-8.59639
▁ത	-8.59721
▁അത്തനാ	-8.5974
ട്ഠാനേ	-8.59781
▁അഭി	-8.59901
▁ഏകമന്തം	-8.59981
▁മഗ്ഗോ	-8.6018
▁൫	-8.60416
▁പരി	-8.60552
ത്ഥോ	-8.60834
▁കോചി	-8.61469
▁സമാധി	-8.62252
ജ	-8.6246
തിആദീസു	-8.62816
▁പത്ത	-8.63137
▁൬	-8.6314
▁ആനന്ദ	-8.63172
ഏവം	-8.63294
▁അത്ഥം	-8.63455
പച്ചയാ	-8.63927
സ്സാതി	-8.63937
▁സക്കാ	-8.64181
▁ആരമ്മണേ	-8.64502
▁വദതി	-8.64629
▁സയം	-8.64741
▁പഞ്ഞായ	-8.64895
▁ക	-8.6493
▁ഉപരി	-8.65096
▁ബ്രാഹ്മണോ	-8.65309
സദ്ദേന	-8.65372
കിം	-8.65416
ഭി	-8.65593
▁അത്താനം	-8.6589
▁നിബ്ബാനം	-8.66429
വത്ഥു	-8.666
▁താ	-8.66617
മ്ഹാ	-8.66776
▁അകുസലാ	-8.67059
▁ധമ്മാനം	-8.67089
▁ഗാഥാ	-8.67246
▁ധമ്മേഹി	-8.67339
▁അപ്പ	-8.6736
▁യതോ	-8.67743
▁അവ	-8.68089
ോപി	-8.68136
തിആദിമാഹ	-8.68378
▁൮	-8.68431
ഞ്ഹി	-8.6872
സ്സേവ	-8.69138
ിനോ	-8.69288
ണ	-8.69342
▁സീല	-8.6958
▁ഉപ്പജ്ജിത്ഥ	-8.6962
▁മയം	-8.69696
▁ഉ	-8.69798
▁ആദി	-8.70469
▁ചീവരം	-8.70901
▁൯	-8.70972
▁പദ	-8.71042
▁കായ	-8.71258
സീ	-8.71263
▁വിഞ്ഞാണം	-8.71275
▁ദേതി	-8.71382
▁മഗ്ഗം	-8.71431
ട്ഠാനം	-8.71502
▁ഞത്വാ	-8.71523
ങ്ഗ	-8.71678
ര	-8.71768
▁പാപ	-8.71786
▁നയേന	-8.72275
▁൧൦	-8.72557
▁ഭിക്ഖുനാ	-8.72605
നതോ	-8.72881
ദി	-8.73039
▁ധമ്മേസു	-8.73267
േതീതി	-8.733
▁ഇമാനി	-8.73466
▁നി	-8.73914
▁ദട്ഠബ്ബം	-8.73961
ചിത്ത	-8.7444
▁നാനാ	-8.74666
▁സാധു	-8.74916
▁ഇമേഹി	-8.75133
▁ഏതേ	-8.75632
▁വിനാ	-8.75968
▁പഞ്ഞത്തം	-8.76033
ജ്ജ	-8.76585
വണ്ണ	-8.76607
സുത്ത	-8.77206
േതും	-8.77277
▁ഠാനം	-8.773
▁പഹായ	-8.77631
▁പജാനാതി	-8.77749
▁ഠിതോ	-8.77876
▁തായ	-8.78167
ോവ	-8.78235
▁ചേതനാ	-8.78797
ികോ	-8.79262
▁കാലേ	-8.79327
▁സങ്ഘസ്സ	-8.79449
ട്ഠ	-8.79546
▁വത്തബ്ബം	-8.79668
▁പടിസന്ധിക്ഖണേ	-8.79678
▁ദുതിയം	-8.79754
▁ഉദക	-8.79809
▁കിലേസ	-8.79845
ന്തം	-8.80037
▁ബഹു	-8.80043
ായം	-8.80256
മഹാ	-8.80664
ന്തേ	-8.80667
▁ധാതു	-8.80699
▁യഥാഭൂതം	-8.81135
▁;	-8.81153
ികം	-8.81203
▁കായസ്സ	-8.81236
ധാതു	-8.81816
▁സാസനം	-8.81884
▁യസ്മിം	-8.81925
അത്ഥി	-8.81973
പീതി	-8.8202
▁ചതൂഹി	-8.82187
▁പുബ്ബ	-8.82812
▁പച്ചയ	-8.83046
▁ഗാഥമാഹ	-8.83127
▁ഗതോ	-8.83164
▁ദ്വിന്നം	-8.83429
▁തിസ്സോ	-8.83462
▁ഭാസിതം	-8.83518
▁സാവത്ഥിയം	-8.83555
ആ	-8.83668
▁വത്ഥും	-8.83711
▁ആപജ്ജതി	-8.83773
▁ദസ്സേത്വാ	-8.83805
൦	-8.83903
▁ബുദ്ധം	-8.83958
ട്ഠോ	-8.84019
സഞ്ഞാ	-8.84074
▁സത്ഥു	-8.84204
▁പുരിമ	-8.84309
▁ഉപസമ്പജ്ജ	-8.84402
▁സബ്ബേസം	-8.84505
മാനാ	-8.84538
▁വേ	-8.84557
▁സദ്ധാ	-8.84854
▁ചക്ഖു	-8.84945
▁ഭവേ	-8.85096
ഫല	-8.8516
പദ	-8.85361
▁കാതും	-8.85664
▁കതമോ	-8.85817
ാദിവസേന	-8.85921
ിതബ്ബം	-8.86419
േന്തോ	-8.86658
▁ഏതമത്ഥം	-8.86877
▁ആരമ്മണപച്ചയേന	-8.86914
▁മനോ	-8.86965
▁പവത്ത	-8.87011
▁യദാ	-8.87531
▁തുമ്ഹേ	-8.87673
▁ഉപപജ്ജന്താനം	-8.87684
▁കതമം	-8.8789
കസ്സ	-8.87976
▁സങ്ഖാരാ	-8.8798
▁ഏകാ	-8.88046
▁ഗഹപതി	-8.88124
▁കാരണം	-8.88162
▁തേനേവ	-8.88171
കമ്മം	-8.88251
▁പനേത്ഥ	-8.88251
▁സീലം	-8.88624
▁മ	-8.89052
ത്ഥേ	-8.89074
സ്സു	-8.89177
ഞാണ	-8.8919
ൂ	-8.89205
ന്ത	-8.89219
▁അത്ത	-8.89601
അഹം	-8.89758
ാനഞ്ച	-8.89981
ദ	-8.90228
ിസ്സതി	-8.90624
▁പാചിത്തിയം	-8.90647
▁ഏതേന	-8.90786
▁അമ്ഹാകം	-8.9083
യഥാ	-8.911
▁തഥേവ	-8.91101
▁നിരുജ്ഝതി	-8.91817
▁നിസിന്നോ	-8.92132
▁ദുക്കടസ്സ	-8.92244
▁അപി	-8.92336
സത്ത	-8.92353
▁അവിഗതേ	-8.92363
▁ദേസനാ	-8.92405
▁ഝാന	-8.92762
▁വത്ഥുസ്മിം	-8.92813
മാന	-8.93135
▁ചതു	-8.93422
▁കേനചി	-8.93502
ാപേത്വാ	-8.9364
ാനീ	-8.93678
ിയം	-8.93778
മഗ്ഗ	-8.9397
▁കുസലോ	-8.94002
▁അവിജ്ജാ	-8.94023
▁തീഹി	-8.94232
▁ദേവതാ	-8.94237
▁ആപത്തിയോ	-8.9433
പുന	-8.9434
ാഹി	-8.94449
▁കരോന്തി	-8.94452
▁തിട്ഠതി	-8.94711
കേന	-8.95052
മത്തം	-8.95062
ധ	-8.95284
▁മൂല	-8.95395
▁ഉപനിസ്സയപച്ചയേന	-8.95525
▁വണ്ണ	-8.95675
▁ചതസ്സോ	-8.95827
ക്ഖ	-8.96024
▁കതി	-8.96078
▁നനു	-8.96167
▁കാല	-8.96186
▁രൂപാനം	-8.96253
▁സുത്ത	-8.96293
▁തഞ്ച	-8.96299
▁മനുസ്സാ	-8.96381
▁അത്താ	-8.96416
▁ബഹിദ്ധാ	-8.96723
▁ലോക	-8.96997
▁തീസു	-8.97112
കരണ	-8.97124
തേന	-8.97241
നാമ	-8.97419
▁പത്തോ	-8.9744
▁ചതുന്നം	-8.97607
▁തത്ഥേവ	-8.97649
▁പുരിസ	-8.97764
▁അരഹത്തം	-8.97947
സ്സാ	-8.97991
▁സത്താനം	-8.98164
ട്ഠാന	-8.98208
▁ലോകോ	-8.98318
▁പത്വാ	-8.98702
▁നിരുജ്ഝിസ്സതി	-8.98808
▁കായേന	-8.98852
▁സച്ച	-8.98879
▁ഭിക്ഖുനീ	-8.98886
▁ഠാനേ	-8.99054
▁ഭാവേതി	-8.99059
▁തതിയം	-8.99184
▁പഞ്ചഹി	-8.99203
▁സേസ	-8.99349
ാന	-8.99485
▁കത്ഥ	-8.99725
▁അത്ഥീതി	-8.99762
▁ഗോ	-8.99871
▁ലഭതി	-9.00134
▁ദട്ഠബ്ബോ	-9.00169
ദാന	-9.00594
▁സബ്ബസോ	-9.00739
ൂപ	-9.00741
▁ഉദകം	-9.00951
▁വുത്തനയേനേവ	-9.01021
ലക്ഖണം	-9.0112
ന്തിആദി	-9.01165
ാനു	-9.01207
▁കപ്പേ	-9.01243
▁നിബ്ബാന	-9.01465
▁പടിപദാ	-9.01556
▁വാചായ	-9.01662
ഇദം	-9.017
▁ദാന	-9.01708
▁നിസീദി	-9.01846
▁ചീവര	-9.0191
▁ദ	-9.0194
▁ചതൂസു	-9.01988
▁ചതുത്ഥം	-9.02118
▁ഠത്വാ	-9.02277
▁ദസ്സനേന	-9.02474
▁വിസ്സജ്ജനാ	-9.02566
കായ	-9.02705
▁ദേവാ	-9.02706
▁യഥാവുത്ത	-9.02729
മത്ത	-9.02949
▁കേവലം	-9.03381
ന്തു	-9.03454
▁ഏകേന	-9.03459
▁വിസും	-9.0373
കഥം	-9.03741
▁പസ്സ	-9.03867
നീ	-9.03947
▁നിട്ഠിതം	-9.04151
▁ഖന്ധ	-9.04244
ാനന്തി	-9.04523
▁ഗുണ	-9.0456
▁പാഠോ	-9.04872
▁സാരിപുത്ത	-9.05085
▁നാമം	-9.05148
▁ഏകതോ	-9.05166
▁നത്ഥീതി	-9.05191
▁കേന	-9.05336
സമ	-9.05451
ിയോ	-9.05725
▁ഭിക്ഖും	-9.05815
▁വുത്തന്തി	-9.05829
ധമ്മാ	-9.05914
▁അഗ്ഗ	-9.05964
രേ	-9.06021
▁സുവണ്ണ	-9.06053
▁കഥേസി	-9.06227
▁ഉപേക്ഖാ	-9.06298
▁ചപരം	-9.06343
▁തസ്സേവ	-9.06399
യതി	-9.06493
▁അഞ്ഞത്ര	-9.06668
▁ഭാവനായ	-9.06831
▁കതമാ	-9.06831
▁ആരമ്മണ	-9.06936
▁യഥാഹ	-9.07056
▁വത്ത	-9.07109
▁അഞ്ഞ	-9.07111
ധമ്മോ	-9.07152
കാരോ	-9.07469
▁ഉപ്പന്നം	-9.07486
പരി	-9.07542
▁ഇമേസം	-9.07914
യന്തി	-9.08055
സേ	-9.08065
▁രാഗോ	-9.08504
▁വുത്തത്താ	-9.08953
▁അഞ്ഞോ	-9.09045
▁ഫസ്സോ	-9.09103
▁മനസി	-9.09139
▁ദോസോ	-9.09148
ീനം	-9.09295
േഹീതി	-9.09443
▁ആഗന്ത്വാ	-9.09455
കാര	-9.0965
▁പുപ്ഫ	-9.09966
▁അബ്യാകതോ	-9.10049
▁കരോന്തോ	-9.10201
ീയതി	-9.10207
▁ബഹൂ	-9.10243
▁ബഹി	-9.10273
▁കാലം	-9.10275
ഗ്ഗ	-9.10387
▁പരസ്സ	-9.10452
▁വിനയ	-9.10614
സങ്ഖാതം	-9.10642
ിനീ	-9.1067
▁പുഞ്ഞ	-9.1074
വചനം	-9.10885
യി	-9.11194
▁സുതം	-9.11225
▁ചക്ഖായതനം	-9.11345
▁വിപസ്സനാ	-9.11378
▁ചക്ഖുന്ദ്രിയം	-9.11686
പടി	-9.11783
▁ഗോതമ	-9.11795
▁ദ്വീഹി	-9.11994
▁സദ്ദ	-9.12049
▁അബ്യാകതാ	-9.12113
സഞ്ഞീ	-9.12122
▁പാളിയം	-9.12139
നു	-9.12172
▁അജ്ഝത്തം	-9.12269
ഗുണ	-9.12319
▁തിണ്ണം	-9.12501
▁ചേത്ഥ	-9.12533
▁അകുസലം	-9.12533
ദുക്ഖ	-9.1254
▁ഇച്ചാദി	-9.12558
▁അത്ഥിപച്ചയ	-9.12678
സീല	-9.12728
നന്തി	-9.12799
ാസി	-9.12885
▁വദാമി	-9.12885
▁ഭവന്തി	-9.12979
▁ഗച്ഛന്തി	-9.13269
▁അദാസി	-9.13276
രൂപം	-9.13394
▁സേയ്യഥാപി	-9.13419
▁അത്ഥേ	-9.13421
വിപാക	-9.13431
▁ബ്രഹ്മ	-9.1348
സുഖ	-9.13543
രോ	-9.13681
സദ്ദസ്സ	-9.13954
▁അരഹതോ	-9.13972
▁യദിദം	-9.13995
▁അഭിഞ്ഞാ	-9.14025
സദ്ദ	-9.14046
▁ദിട്ഠ	-9.14083
ള	-9.14112
പച്ചയ	-9.1423
രാജ	-9.14513
▁ദോസ	-9.14689
▁കാ	-9.14705
▁ഉപ്പജ്ജതീതി	-9.14788
▁അഹേസും	-9.15054
▁ഖന്ധം	-9.15335
തസ്സ	-9.15882
▁അയമ്പി	-9.16138
▁കപ്പ	-9.16237
ിസ്സന്തി	-9.16361
ാഹം	-9.16463
▁മരണാ	-9.1698
▁ദീഘ	-9.17198
▁യ	-9.17373
▁പുരേ	-9.17441
▁കസ്സചി	-9.17486
▁ഛന്ദ	-9.1757
▁സുട്ഠു	-9.17722
▁സുത്തം	-9.17807
സിക്ഖാപദം	-9.17946
▁കാരണ	-9.17975
▁ദ്വീസു	-9.1803
▁സക്കോ	-9.18211
▁ബോധിസത്തോ	-9.18241
▁കായോ	-9.18376
▁ഗോതമോ	-9.1839
▁വേദനാക്ഖന്ധോ	-9.18603
▁മജ്ഝേ	-9.18607
പഞ്ഞാ	-9.18628
▁പഞ്ഞത്തി	-9.18665
▁സം	-9.18723
▁തയാ	-9.18728
പത്ത	-9.18814
▁ദിസാ	-9.18829
▁ഇന്ദ്രിയാ	-9.19042
▁മോഹോ	-9.19163
ാഭി	-9.19195
▁സങ്ഘ	-9.19249
▁താസം	-9.19487
▁കമ്മേ	-9.19645
▁ലോകം	-9.19726
വസേനേവ	-9.19754
കപ്പ	-9.19848
▁പദം	-9.1986
▁സദാ	-9.19877
▁കുസല	-9.19963
▁അത്ഥതോ	-9.19973
▁വിപാകോ	-9.20182
മി	-9.20193
▁മാതാ	-9.20206
ാമ	-9.20287
▁വിജ്ജതി	-9.20333
▁പുത്തോ	-9.20396
▁ഉപ്പന്ന	-9.20449
ന്തര	-9.20611
▁ഹേതുപച്ചയേന	-9.20704
ഭൂതോ	-9.20713
▁ദുക്ഖാ	-9.20757
▁വുച്ചന്തി	-9.20792
’’’	-9.20847
▁നഹേതുപച്ചയാ	-9.21032
ജാതകം	-9.21058
മാഹ	-9.21077
▁ലക്ഖണ	-9.21079
▁ഉപാദായ	-9.21293
വത്ത	-9.21359
▁സമ്ബഹുലാ	-9.21409
േയ്യും	-9.21574
ദേവ	-9.21635
▁സതോ	-9.21724
▁നിബ്ബത്ത	-9.22277
▁തേനുപസങ്കമി	-9.22335
▁വചന	-9.22422
▁പണ്ഡിതോ	-9.22529
▁ആദായ	-9.22633
▁പണമാമ്യഹം	-9.22651
▁ആപത്തിം	-9.22701
▁അവസേസാ	-9.22773
▁പാളി	-9.22844
ബല	-9.22968
▁അജ്ജ	-9.23
ഇധ	-9.23017
▁പതി	-9.23081
▁ഗരും	-9.23123
സ്മാ	-9.23243
▁സരീര	-9.23259
▁പവത്തി	-9.23339
▁സമാന	-9.23342
▁പുച്ഛി	-9.23348
▁യേസം	-9.2357
തിപി	-9.23578
▁ഏതസ്സ	-9.23697
▁അഭാസി	-9.24142
▁തഥാഗതസ്സ	-9.24229
ഭൂതം	-9.24269
▁കാരണേന	-9.24287
▁സരണം	-9.24359
▁ആസി	-9.24402
▁കരേയ്യ	-9.24403
നിസ്സയ	-9.24428
▁സമ്മാദിട്ഠി	-9.24437
▁നേസം	-9.24485
▁സര	-9.24576
▁കം	-9.24662
▁ധന	-9.24737
▁ജാതോ	-9.24786
ഭൂതാ	-9.24855
ഭവ	-9.25047
▁ആഗത	-9.25091
▁പുഗ്ഗലസ്സ	-9.25097
ാദിനാ	-9.25204
▁ലദ്ധ	-9.25244
▁ദസ്സന	-9.25333
▁ജ	-9.25421
▁വിജ്ജാ	-9.2543
▁അഞ്ഞേ	-9.25528
▁ഠിത	-9.25618
▁സച്ചം	-9.25647
▁കുല	-9.25732
▁ദ്വാദസ	-9.25746
▁ധമ്മദേസനം	-9.25839
മേ	-9.25873
▁ബല	-9.25896
ും	-9.25945
ജ്ഝ	-9.25995
▁മനുസ്സ	-9.26023
▁സബ്ബാ	-9.26074
▁ഗച്ഛ	-9.26107
ഏക	-9.26115
ച്ച	-9.26308
▁അകാസി	-9.2647
▁ഇ	-9.26474
▁ചിത്തേന	-9.26487
േത്ഥ	-9.26502
▁ഭേദാ	-9.26595
▁നിച്ച	-9.26633
▁തദ	-9.26704
▁സന്ത	-9.26787
സബ്ബ	-9.26839
▁സോളസ	-9.26861
▁വിഞ്ഞാണ	-9.26927
▁ഭവം	-9.27051
▁സങ്ഘം	-9.27077
ച്ഛ	-9.27107
ആദി	-9.2712
▁ലബ്ഭതി	-9.27188
▁ഗണ	-9.27228
▁സമണോ	-9.27297
▁സാസനേ	-9.27323
▁അഞ്ഞമഞ്ഞം	-9.27635
ഭാവേ	-9.27635
കിച്ച	-9.27692
സചേ	-9.27865
നേന	-9.2788
▁പീതി	-9.27926
▁പാദ	-9.27932
▁സാസന	-9.28071
േയ്യാതി	-9.28101
▁പുനപ്പുനം	-9.28103
▁ഏകസ്മിം	-9.28139
▁പരേസം	-9.28247
▁അങ്ഗ	-9.28628
▁ഠിതാ	-9.28724
▁പുഗ്ഗലാ	-9.28851
▁മാന	-9.28862
▁സക	-9.28879
▁വര	-9.29273
▁പിയ	-9.29446
▁അനന്തരപച്ചയേന	-9.29537
▁ഭവേയ്യ	-9.29627
▁സന്തി	-9.29782
നിദ്ദേസോ	-9.29948
▁വിസേസോ	-9.29953
▁ചിത്തസമുട്ഠാനം	-9.30096
▁ഹത്ഥ	-9.30117
▁വിപാക	-9.30425
▁ദാനി	-9.30634
▁പിതാ	-9.3072
കര	-9.30737
▁നാഗ	-9.31046
▁തതിയ	-9.31283
▁ദിസ്സതി	-9.31309
ഞ്ഞ	-9.31524
▁സകല	-9.31533
കാല	-9.31541
▁ആയസ്മതോ	-9.31565
രാജാ	-9.31637
▁പഞ്ചന്നം	-9.31643
▁ആഗതോ	-9.3167
പദം	-9.31694
▁ഏത്ഥാതി	-9.31795
▁സന്തികം	-9.31899
▁അപിച	-9.32108
ഇതി	-9.32151
▁ദ്വി	-9.32165
േതം	-9.32314
▁ആയസ്മന്തം	-9.32335
▁ഹോന്തീതി	-9.32367
▁മുഖ	-9.32554
▁ആരമ്മണം	-9.32563
ക്ഖണേ	-9.32655
▁അനുപ	-9.32657
▁രജ്ജം	-9.32714
▁വീരിയം	-9.32739
തോതി	-9.32808
▁അഡ്	-9.32933
▁ഉദപാദി	-9.33228
▁കത്ഥചി	-9.33417
▁സമാനോ	-9.33429
▁സക്കോതി	-9.33479
സീതി	-9.33571
▁ആരോചേസും	-9.33683
▁വിസേസ	-9.33755
▁ഗണ്ഹാതി	-9.33908
▁അത്ഥായ	-9.33908
▁ഇന്ദ്രിയ	-9.3412
ജാതകവണ്ണനാ	-9.34142
പഞ്ച	-9.34212
▁ഭാവനാ	-9.34229
ചിത്തോ	-9.34574
രി	-9.34632
▁സന്തോ	-9.34667
▁പരേ	-9.34757
ആരമ്മണേ	-9.34844
▁ഹത്ഥി	-9.34892
▁മാര	-9.34954
▁അരഹാ	-9.35011
▁ദിബ്ബ	-9.3524
തത്ഥ	-9.35557
▁മനസാ	-9.35703
ിതേ	-9.3584
▁ഉദ്ധം	-9.35846
മോ	-9.35947
▁ഗാമ	-9.35972
▁സാര	-9.35988
▁ബ്രഹ്മചരിയം	-9.36212
ലോക	-9.36346
▁ഭിക്ഖുനിയോ	-9.36354
ഉപ	-9.36377
▁പത്തം	-9.36379
▁അഗ്ഗി	-9.36392
▁ഥേരസ്സ	-9.36403
▁പാചിത്തിയസ്സ	-9.36412
▁ചേതസാ	-9.36461
▁൧൧	-9.36509
▁പുത്ത	-9.3654
▁ജീവിതം	-9.36623
▁ഏവമാഹ	-9.3672
ുപ	-9.36788
▁ദുഗ്ഗതിം	-9.36816
▁അകുസലോ	-9.36939
ിസ്സാമി	-9.37028
▁വസ്സ	-9.37044
▁കു	-9.37113
▁ചിത്തസമുട്ഠാനാന	-9.37155
ബുദ്ധ	-9.37498
▁ഭവതി	-9.37518
▁ഉപ്പാദക്ഖണേ	-9.37565
കുല	-9.37726
▁നിച്ചം	-9.3787
ലക്ഖണ	-9.38004
▁പച്ഛിമ	-9.38024
▁ജീവ	-9.38228
നവസേന	-9.38305
▁യഞ്ച	-9.38343
ഉ	-9.38376
▁ഗതി	-9.38463
▁കിസ്മിം	-9.38522
വസ്സ	-9.38562
▁സത	-9.38564
നഞ്ച	-9.38622
▁സമണ	-9.38638
▁ആഹരിത്വാ	-9.38702
▁പഞ്ഹം	-9.38942
▁ആനന്ദോ	-9.39132
▁ഏസാ	-9.39137
▁ഏസോ	-9.39213
▁അന്തരാ	-9.39232
ന്തേന	-9.39515
ധമ്മം	-9.39561
▁ജേതവനേ	-9.39595
▁വട്ട	-9.39758
▁നഭാവനായ	-9.39915
▁ഏകാദസ	-9.39934
▁ഗഹേതബ്ബം	-9.39997
േസൂതി	-9.40059
▁സബ്ബേപി	-9.40113
േഥ	-9.40166
▁വചനതോ	-9.40298
▁കഥാ	-9.40373
▁പരമ	-9.40472
▁ഭത്ത	-9.40602
▁ദുക്ഖസ്സ	-9.4061
▁പരിജാനാതി	-9.40691
▁ഖ	-9.4072
▁പകതി	-9.40763
ഭൂത	-9.40768
▁ദ്വയം	-9.40847
▁ചതുത്ഥ	-9.40851
▁വട്ടതീതി	-9.40888
മൂല	-9.40975
തര	-9.41086
▁പുരതോ	-9.41209
▁അപ	-9.4134
സാര	-9.41372
▁വുത്തനയേന	-9.41372
▁തന്തി	-9.41402
ാനമ്പി	-9.4154
വചന	-9.4155
▁ഏവരൂപം	-9.4155
▁മരണ	-9.41591
▁ഗന്ധ	-9.41613
▁തേരസ	-9.41633
ചിത്തം	-9.41645
▁തുമ്ഹാകം	-9.41696
▁സിക്ഖാ	-9.41699
▁ഏകച്ചോ	-9.41746
യേവാതി	-9.41746
▁പച്ച	-9.41761
▁പുരിമാ	-9.41846
▁അസ	-9.41885
മേതം	-9.4196
▁ബ്രാഹ്മണാ	-9.4216
▁തദേവ	-9.42213
▁സുദ്ധ	-9.42301
ദിട്ഠി	-9.42311
ികായ	-9.42372
▁ഉത്തര	-9.42749
▁ദീപേതി	-9.4292
▁അഹു	-9.43019
▁ഭാവോ	-9.43031
▁കായേ	-9.43044
മുഖ	-9.43061
▁വിഹരന്തോ	-9.43065
▁അഞ്ഞതരോ	-9.43094
▁മനിന്ദ്രിയം	-9.43136
▁ഏത്താവതാ	-9.4325
▁ഹോതു	-9.43273
ഗതം	-9.43282
▁വന	-9.4334
▁തമ്പി	-9.43399
സ്സാപി	-9.43433
സമനന്തരേ	-9.43455
സമ്പയുത്ത	-9.43523
▁കിസ്സ	-9.44041
▁ദിന്നം	-9.44042
▁സോമനസ്സിന്ദ്രിയ	-9.44068
വാദ	-9.4409
▁ഗതാ	-9.44174
ാരമ്മണ	-9.44174
മു	-9.44234
ഗ	-9.44376
▁ആസവാ	-9.44398
രസ	-9.44422
▁പടിഘാനുസയ	-9.44499
▁രാഗ	-9.44506
▁പിണ്ഡായ	-9.44524
▁അനേക	-9.44586
ഗത	-9.44836
▁ഇദ്ധി	-9.44851
▁സമ്മ	-9.44866
▁പഥവീ	-9.44889
▁ഉഭോ	-9.44961
▁ഉഭയ	-9.44974
മസ്സ	-9.45471
സ്മി	-9.45551
മന	-9.45567
▁മുനി	-9.4573
▁അധിപതിപച്ചയേന	-9.45798
ിതബ്ബ	-9.45834
▁കമ്മസ്സ	-9.45877
▁ദീപ	-9.46
▁ആപത്തിയാ	-9.46048
▁സോപി	-9.46185
▁സങ്ഖാര	-9.46378
▁രൂപായതനം	-9.46379
▁പഞ്ചമം	-9.46674
▁പച്ചുപ്പന്ന	-9.46724
▁കായം	-9.46735
സമ്പന്നോ	-9.46935
▁വാചാ	-9.46948
▁ല	-9.46985
▁ദ്വാര	-9.47033
ന്തിആദിനാ	-9.47124
▁ഗഹിത	-9.47148
▁ഭയ	-9.47304
▁ഉത്തമ	-9.47392
മിവ	-9.47404
▁വിപ്പയുത്തപച്ചയ	-9.47447
▁അഞ്ഞഥാ	-9.47449
▁നുപ്പജ്ജതി	-9.47478
▁ധാതൂഹി	-9.47502
പച്ചയോ	-9.47548
▁ദുതിയോ	-9.47576
▁അഥസ്സ	-9.4758
▁മഹന്തം	-9.47581
▁പഹാതബ്ബോ	-9.47588
▁അസ്സാതി	-9.4769
മം	-9.47709
കിച്ചം	-9.47759
നയ	-9.47767
ചീവര	-9.47788
▁നഅധിപതിയാ	-9.47853
▁പവിസിത്വാ	-9.47928
▁അട്ഠകഥായം	-9.48046
▁വസ	-9.4819
▁സമയം	-9.48241
▁മോഹ	-9.4825
▁പുഞ്ഞം	-9.48259
▁ഭവിസ്സതീ	-9.48402
▁ധമ്മേന	-9.48406
▁രുക്ഖ	-9.48504
പടിസമ്ഭിദാ	-9.48531
▁അകുസല	-9.48562
▁ജാതാ	-9.48629
▁തമേവ	-9.48683
▁സുഖായ	-9.48724
▁വന്ദിത്വാ	-9.48814
മഗ്ഗേ	-9.48837
ഞ്ചാതി	-9.48838
ത്ഥേരോ	-9.48854
▁ജീവിത	-9.48889
▁വദേയ്യ	-9.48892
▁ഫസ്സ	-9.48959
▁വുത്തഞ്ഹേതം	-9.49019
▁പുട്ഠോ	-9.49367
▁അതീത	-9.49403
▁ബോധി	-9.49528
ഗച്ഛ	-9.4954
രു	-9.4959
▁രസ	-9.49641
കാലോ	-9.49764
മയം	-9.49927
▁പജഹതി	-9.49942
▁ബഹും	-9.49964
▁ഹേതൂ	-9.50035
പാദ	-9.50164
▁ഉപ്പത്തി	-9.50183
▁അതീതം	-9.50184
▁ചവന്താനം	-9.50191
▁ഭങ്ഗക്ഖണേ	-9.50193
ഛ	-9.50231
▁ദു	-9.50264
▁നിസീദിത്വാ	-9.50265
▁ഭിക്ഖുനിയാ	-9.50329
കാമ	-9.50419
▁പധാന	-9.5046
ട	-9.50476
▁ഏവഞ്ച	-9.50604
▁കരോതീതി	-9.50667
▁മിഗ	-9.5068
▁സഹസ്സ	-9.50693
ത്വാ	-9.50838
▁ഉപ്പാദ	-9.50915
സമ്പത്തി	-9.50974
▁ഏകസ്സ	-9.5101
▁അഞ്ഞതരം	-9.51332
▁ധനം	-9.51345
യതോ	-9.51353
▁ഇത്ഥീ	-9.51407
▁സുത്തേ	-9.51434
▁ആഗതാ	-9.51508
▁൧൨	-9.51578
വാരോ	-9.5158
▁കതാ	-9.51745
ഭേദ	-9.51859
▁കുതോ	-9.51895
വിസേസ	-9.5195
ീഹി	-9.52023
▁സമ്പയുത്തകാനം	-9.52041
▁വിസ	-9.52042
▁സുത	-9.52148
▁ഏവമ്പി	-9.52263
നിദ്ദേസവണ്ണനാ	-9.52273
▁വീരിയ	-9.52279
്യ	-9.52297
ദോസ	-9.52362
വിപ്പയുത്ത	-9.52414
കരോ	-9.52432
▁ഭയം	-9.5245
ഭിക്ഖു	-9.52501
▁മഹാഭൂതേ	-9.52567
അവിഗത	-9.52576
ധമ്മേ	-9.5263
▁നാമാതി	-9.52647
കുസലം	-9.52724
സഹജാത	-9.52787
▁ദിന്ന	-9.52812
▁ഭിക്ഖൂഹി	-9.52846
▁അഞ്ഞേന	-9.53001
ഗതോ	-9.53109
▁ഠിതം	-9.53174
▁കമ്മപച്ചയേന	-9.53177
▁സങ്ഘേന	-9.53275
▁ധാതുയോ	-9.53394
▁നിരുജ്ഝിത്ഥ	-9.53479
▁ഏതേസം	-9.53725
▁ഖന്ധോ	-9.53759
ബ്ബ	-9.53763
▁പസാദ	-9.53796
▁വജ്ജ	-9.53856
പുപ്ഫ	-9.53893
▁ചിത്തേ	-9.53894
ാകാര	-9.53946
ഭൂമി	-9.53949
▁വിഹാരം	-9.54063
▁പാദേ	-9.54145
ിതത്താ	-9.54174
▁ചര	-9.54207
▁നഗരം	-9.54371
▁ഏതരഹി	-9.54398
പര	-9.54438
ഗ്ഗഹണേന	-9.54463
▁പനസ്സ	-9.54475
▁ജീവിതിന്ദ്രിയം	-9.54632
ായാതി	-9.54661
ിസ്സാമീ	-9.54698
▁നോവിഗതേ	-9.54808
▁കിഞ്ചാപി	-9.54829
േയ്യം	-9.54859
സഹസ്സ	-9.54873
▁കതോ	-9.54906
▁അരിയസാവകോ	-9.54982
കരണം	-9.55042
പുച്ഛാ	-9.5512
▁പാചിത്തിയ	-9.55282
▁ഹ	-9.55292
ദസ്സനം	-9.55294
ത്വേവ	-9.554
▁യാനി	-9.55432
▁ജന	-9.55442
ഥാ	-9.55458
▁ഭാവ	-9.55479
▁അസഞ്ഞസത്താനം	-9.55531
▁ബന്ധ	-9.55548
▁വണ്ണോ	-9.55692
അഥ	-9.55735
▁അഞ്ഞാ	-9.55841
▁ഛന്നം	-9.55854
▁വിഹാര	-9.55972
▁സേനാസനം	-9.56014
▁അഭിവാദേത്വാ	-9.56064
നയോ	-9.56074
ജാതി	-9.56095
ദസ്സന	-9.562
▁കാതബ്ബം	-9.5642
ീയ	-9.56458
▁ഭൂമി	-9.56693
മാനം	-9.567
▁ഗാഥായോ	-9.56705
▁പബ്ബജിത്വാ	-9.56735
പുബ്ബ	-9.56747
മേവാതി	-9.5695
ത്തയ	-9.57038
▁പനേതം	-9.5709
▁സഹജാതപച്ചയേന	-9.57139
▁നവിപ്പയുത്തേ	-9.57208
▁പടിവിരതോ	-9.57316
വഗ്ഗ	-9.57436
▁അവി	-9.57509
▁നിമിത്ത	-9.57563
▁സമുട്ഠാതി	-9.57662
▁ചൂള	-9.57745
േസുപി	-9.57805
പീ	-9.57808
▁രൂപക്ഖന്ധോ	-9.57817
▁ഛിന്ന	-9.57896
ഞാണം	-9.58076
▁സമത്താ	-9.58119
ദ്വാര	-9.58187
▁അരിയ	-9.58231
▁ജാനന്തി	-9.58248
▁ജനാ	-9.58333
▁തിണ	-9.58498
▁ലോകിയ	-9.58588
▁കസ്സ	-9.58635
▁ഖുദ്ദക	-9.58725
▁ഭൂത	-9.58733
▁സാരിപുത്തോ	-9.58768
▁പവത്തതി	-9.58894
▁വിഹാരേ	-9.58976
▁അഞ്ഞസ്സ	-9.59056
ദേസ	-9.59113
ഹാര	-9.59284
▁സുദം	-9.59312
യസ്സ	-9.59316
ധി	-9.59335
▁ജാത	-9.59354
▁നീല	-9.59538
▁ഗ	-9.59584
വേ	-9.59717
▁ബ്യഞ്ജന	-9.599
▁ഭിയ്യോ	-9.59915
ഭയ	-9.60037
ഭ	-9.60086
വാര	-9.60156
▁ചാപി	-9.6016
▁വിചികിച്ഛാനുസയ	-9.60187
▁ആയതിം	-9.60202
▁ദുക്ഖായ	-9.603
നിമിത്ത	-9.60485
▁വിനിച്ഛയോ	-9.60552
▁മഗ്ഗസ്സ	-9.60588
▁ചോര	-9.60612
ദാനം	-9.60677
താതി	-9.60757
▁കാലേന	-9.60798
▁അബ്യാകതം	-9.60799
▁അട്ഠാരസ	-9.60813
▁കാമരാഗാനുസയോ	-9.61015
▁നിരോധ	-9.61023
▁ദേവാനം	-9.6111
▁പവത്തേ	-9.61196
കാനം	-9.61211
▁ര	-9.6132
▁മണി	-9.61417
ഹത്ഥ	-9.6149
▁ആഹാരേ	-9.61496
▁അഭാവതോ	-9.61501
▁വേദനം	-9.61503
▁സമ്പജാനോ	-9.61531
വിഹാര	-9.61565
▁കതേ	-9.61567
▁തത്ഥാതി	-9.61575
▁ഗാഥായ	-9.61686
▁പിതു	-9.61689
നീയ	-9.61777
ഭോ	-9.61858
പഞ്ഞത്തി	-9.6197
▁തുയ്ഹം	-9.61993
▁ലോകസ്സ	-9.62194
▁രൂപസ്സ	-9.62285
▁പുരിസസ്സ	-9.62295
ുപ്പത്തി	-9.62407
പച്ഛാജാതേ	-9.62454
▁നാഗസേന	-9.62816
▁ഇത്ഥി	-9.62842
▁അസതി	-9.62848
വര	-9.62889
▁ചിന്തേത്വാ	-9.62903
ഗമന	-9.62912
▁വീസതി	-9.62934
▁വിപാകം	-9.6294
▁പടിസന്ധി	-9.63158
▁ആഹാര	-9.63308
സമാധി	-9.63317
ാഹ	-9.63363
▁രാജാനം	-9.63413
ാപേതി	-9.63582
കാരണ	-9.63601
സൂതി	-9.63608
▁ഹേതും	-9.63749
മിദം	-9.6377
സാധു	-9.63842
▁ദിവാ	-9.63976
മയ	-9.64233
▁കാമേ	-9.64235
▁ഉപ്പന്നാ	-9.64274
സന്തി	-9.64299
▁നേവദസ്സനേന	-9.6431
മത്തമേവ	-9.64362
ഭത്ത	-9.64372
▁൧൩	-9.64424
സുഖം	-9.64447
▁കഥ	-9.64462
▁വിതക്കോ	-9.64465
▁അട്ഠാസി	-9.64547
▁ഏ	-9.64586
▁വട്ടതീ	-9.64592
▁യക്ഖ	-9.64699
▁വിതക്ക	-9.64817
▁ആകാസേ	-9.6488
▁കാമരാഗാനുസയ	-9.64973
▁അധി	-9.65016
▁ഠാനേസു	-9.65036
ദ്ധ	-9.65062
കിരിയാ	-9.65082
പുഞ്ഞ	-9.65114
▁സീഹ	-9.6518
ല്ല	-9.65213
ആദയോ	-9.65297
▁സേയ്യഥിദം	-9.65363
ന്ന	-9.65383
ത്ഥാ	-9.65463
ഹേതുയാ	-9.65527
▁ലോഭ	-9.65602
▁പഠമോ	-9.65646
▁ഉപ്പജ്ജിസ്സതീതി	-9.6572
▁ഖന്ധേഹി	-9.6573
▁ബലവ	-9.65742
▁ധമ്മായതനം	-9.65791
നത്ഥായ	-9.65826
▁ദുതിയേ	-9.65977
▁അരിയാ	-9.65991
ബന്ധ	-9.65992
▁ഉത്തരി	-9.66044
▁പുച്ഛതി	-9.66052
ദാ	-9.66116
▁പടിപന്നോ	-9.66159
▁അയ	-9.66166
▁ഞാണേന	-9.66213
▁ദിവസേ	-9.66246
▁കര	-9.66428
▁ചന്ദ	-9.66456
▁പടിഘാനുസയോ	-9.66512
ിത്ഥ	-9.66521
▁പവത്താ	-9.66532
▁സഭാവ	-9.66722
▁അനാ	-9.66912
▁യുത്ത	-9.66929
▁അധിവചനം	-9.6697
▁ഏതദഹോസി	-9.67002
േതബ്ബം	-9.67142
▁ഗരു	-9.67169
ചിത്തസ്സ	-9.67212
▁പുഥു	-9.67243
വാരേ	-9.67252
▁അങ്ഗാനി	-9.67343
▁ദണ്ഡ	-9.67357
▁ഗണ്ഹ	-9.67358
പച്ച	-9.6739
വട്ട	-9.67421
ഗോ	-9.67475
ഗ്ഗഹണ	-9.67492
▁പണ്ഡിതാ	-9.67524
▁നആസേവനേ	-9.6764
▁അകത്വാ	-9.67717
▁മഗ്ഗേ	-9.67745
പുത്ത	-9.67753
▁സുഭ	-9.67783
രതന	-9.67853
വുത്തി	-9.67939
ഭന്തേ	-9.6798
▁നിസ്സഗ്ഗിയം	-9.67995
▁ഇത്ഥം	-9.68148
▁രേ	-9.68152
▁പാപം	-9.68183
▁ഖണ	-9.68209
▁നിബ്ബത്തി	-9.6822
▁ഘട	-9.68232
▁ആസവാനം	-9.68274
▁നപുരേജാതേ	-9.68285
▁൧൪	-9.68295
തരോ	-9.68358
▁സഗ്ഗ	-9.68447
▁ജിന	-9.68534
▁ഗത	-9.68582
▁പദുമ	-9.68641
സദിസ	-9.68643
▁വിചികിച്ഛാ	-9.68662
ന്ദ	-9.68822
▁മഹ	-9.68943
േഹീ	-9.68948
▁കാമാവചര	-9.68962
▁പഹീനാ	-9.69081
▁സച്ചാനി	-9.69198
▁കിച്ച	-9.69217
▁നകമ്മേ	-9.69236
കത	-9.69252
▁ഭിന്ന	-9.6932
▁ചക്ഖും	-9.69368
▁കേസ	-9.69447
സുത്താദിവണ്ണനാ	-9.69449
▁സങ്ഘേ	-9.69464
▁സങ്ഗഹിതാ	-9.69556
▁ബോജ്ഝങ്ഗാ	-9.69563
▁അധിപതിയാ	-9.69623
▁ബാല	-9.69758
കുസലോ	-9.69761
▁വേദ	-9.69821
മന്ത	-9.69844
▁ദിട്ഠിയാ	-9.69863
▁ജാതിയാ	-9.69879
▁കരിത്വാ	-9.69913
▁പാപുണാതി	-9.69932
▁നിക്ഖമിത്വാ	-9.69939
യിത്വാ	-9.6995
▁ബാലോ	-9.69992
സദിസം	-9.70039
▁സതം	-9.70048
▁വത്തും	-9.70054
▁സേട്ഠ	-9.7015
നിമിത്തം	-9.70173
▁സമ്പയുത്താ	-9.70296
രം	-9.70313
▁സമ്മാസമ്ബുദ്ധ	-9.70321
▁ഉപനിസ്സായ	-9.70366
ജ്ഝാന	-9.70384
കഥഞ്ച	-9.70454
▁പഞ്ചസു	-9.7047
▁ചേതസോ	-9.70483
▁പുരിസിന്ദ്രിയം	-9.70498
▁തണ്ഹായ	-9.70503
▁കിലേസാ	-9.7051
സര	-9.70519
▁പഞ്ഞായതി	-9.70536
▁പകതൂപനിസ്സയോ	-9.70628
▁പഹാനായ	-9.70656
കന്തി	-9.70684
▁ലോകുത്തര	-9.7073
ാദിതോ	-9.70759
▁അനിദസ്സനഅപ്പടിഘ	-9.70763
നിദ്ദേസേ	-9.70767
▁അയമേവ	-9.70782
ഹീതി	-9.70882
▁സത്തമം	-9.70904
തദാ	-9.70929
തോപി	-9.70994
▁മിച്ഛാ	-9.71124
▁ആചരിയ	-9.71124
▁ഭാസ	-9.71156
▁ആമന്തേസി	-9.71293
▁തമ	-9.71325
▁രതന	-9.71329
▁അനുലോമ	-9.71495
▁അലം	-9.71524
▁നവിപാകേ	-9.71568
കിലേസ	-9.71573
▁ഛട്ഠം	-9.71609
▁ഗമന	-9.71656
വസേനാതി	-9.71829
ജാ	-9.71871
▁യോജേതബ്ബം	-9.71879
▁അഗമാസി	-9.71966
അത്ഥ	-9.72041
▁ജിനോ	-9.72111
▁പുഗ്ഗല	-9.72167
▁താത	-9.72237
▁കദാചി	-9.72279
▁സീസ	-9.72438
ഇമേ	-9.72537
▁ഹീ	-9.72552
▁തസ്സത്ഥോ	-9.72639
▁അനിച്ചതോ	-9.72684
▁ചരതി	-9.72688
▁അധിട്ഠാന	-9.72779
▁ഉപാലി	-9.7279
▁തമത്ഥം	-9.72929
ഗന്ധ	-9.73176
വഗ്ഗവണ്ണനാ	-9.73178
▁സമന്തതോ	-9.73318
ത്തേ	-9.73339
▁അസങ്ഗഹിതാ	-9.73471
▁ഖാദ	-9.73493
▁തതിയോ	-9.73498
▁അതിവിയ	-9.73579
▁ചിന്തേസി	-9.7358
▁ഉപ്പന്നോ	-9.73632
▁സി	-9.73633
▁ജാതം	-9.73647
▁ബുദ്ധാനം	-9.73697
▁പരോ	-9.73738
▁ചക്കവത്തീ	-9.73843
അനുജാനാമി	-9.73859
▁നാഭിജാനാമി	-9.73983
▁ഹേതുസ്സ	-9.74052
ണം	-9.74065
സഹസ്സാനി	-9.74073
ാദികേ	-9.74092
തതോ	-9.74098
േനപി	-9.74109
▁ഉപേക്ഖിന്ദ്രിയം	-9.74202
▁ഇമായ	-9.74251
▁സീത	-9.74277
▁പുച്ഛിത്വാ	-9.74329
▁ഗച്ഛതീതി	-9.74391
▁പഹാന	-9.7441
▁സബ്ബോ	-9.74463
▁പച	-9.74583
▁തഥ	-9.7467
▁നിമിത്തം	-9.7473
▁പരിപുണ്ണ	-9.74803
രാ	-9.74862
ഖ	-9.74932
മനോ	-9.74962
ഗാമ	-9.75026
▁ഖണേ	-9.75049
▁നിട്ഠിതോ	-9.75089
▁ചേതം	-9.75126
ാപന	-9.75158
▁വത്ഥ	-9.75269
▁അട്ഠമം	-9.7529
▁ഏത്ഥാപി	-9.7534
പസ്സ	-9.75402
▁അനുസയാ	-9.75404
വത്ഥ	-9.7543
മല	-9.75436
കുസല	-9.75443
ാരമ്മണം	-9.75548
▁പച്ഛിമാനം	-9.7557
▁൧൫	-9.75699
യ്യ	-9.75711
ഗ്ഗഹണം	-9.75726
▁ഠാന	-9.75752
സൂ	-9.75794
▁സയമേവ	-9.75869
തൂ	-9.75949
▁സഹജാത	-9.75968
ഞ്ഞേവ	-9.75987
ാമീ	-9.76012
▁അയമേത്ഥ	-9.76035
ച്ചാദി	-9.76078
▁ഥ	-9.76139
▁ഭാസതി	-9.76284
നത്ഥം	-9.76284
▁യോനിസോ	-9.76474
▁അതിരേക	-9.76612
▁ഗഹിതാ	-9.76737
ിതബ്ബോ	-9.76767
▁മഹന്ത	-9.76768
ാദികം	-9.76791
▁മന്ത	-9.76868
ഓ	-9.76918
ക്ഖന്ധ	-9.76975
വാദീ	-9.77122
മത്തേന	-9.77133
▁ദേസേതി	-9.77133
മ്ഹ	-9.77159
▁പബ്ബജിതോ	-9.77175
മത്തേ	-9.77178
ദം	-9.77194
▁൬൭	-9.77299
▁സഞ്ഞാക്ഖന്ധോ	-9.77351
▁ഗാമം	-9.77364
വിഞ്ഞാണ	-9.77637
▁കിലേസേ	-9.77638
▁ഇധേകച്ചോ	-9.77641
വന	-9.7771
▁ആയു	-9.77741
▁വുത്താനി	-9.77746
▁കഥഞ്ച	-9.77756
▁തഞ്ഹി	-9.77785
▁൫൯	-9.77805
▁സത്ഥാരം	-9.77806
▁അനാഗത	-9.77809
▁വാചം	-9.77824
▁സമം	-9.77859
ഭാവനാ	-9.78013
ലക്ഖണാ	-9.78021
▁നന്ദ	-9.7805
നട്ഠേന	-9.78105
▁പഞ്ഞിന്ദ്രിയം	-9.78132
▁നിസ്സയ	-9.78158
▁മിച്ഛാദിട്ഠി	-9.78161
▁മഹാസത്തോ	-9.78176
▁സരീരം	-9.78202
ത്ഥി	-9.78321
ത്യ	-9.78321
▁൨൨	-9.78334
ബ്യ	-9.78346
▁അത്തനി	-9.78355
പ്	-9.78369
▁നദീ	-9.78374
▁ലഭിത്വാ	-9.78412
ാനേവ	-9.78443
▁മനായതനം	-9.7854
േയേവ	-9.78551
ദസ	-9.78562
▁ഇദമ്പി	-9.78618
സമ്പത്തിയാ	-9.78802
▁൧൬	-9.78803
വാതി	-9.78817
▁ഞാതി	-9.78823
പ്പത്തോ	-9.7886
▁ഘാനിന്ദ്രിയം	-9.78868
▁അവോച	-9.78886
▁പരതോ	-9.7889
▁മരണം	-9.78893
▁ഭോജനം	-9.78911
▁പഹീനോ	-9.78927
▁ഉപലബ്ഭതി	-9.78928
▁ലിങ്ഗ	-9.79059
നത്ഥിയാ	-9.79166
▁പുച്ഛ	-9.79175
▁ഭുഞ്ജ	-9.7936
▁കായസങ്ഖാരോ	-9.79391
▁അരഞ്ഞേ	-9.79396
▁മജ്ഝിമ	-9.7945
പണ്ണ	-9.79562
നക	-9.79593
▁ദോമനസ്സം	-9.79602
▁തിംസ	-9.79609
ന്തിആദീസു	-9.79679
▁മധുര	-9.79688
മംസ	-9.79708
▁വിത്ഥാരേന	-9.79731
▁സത്തരസ	-9.79738
▁വണ്ണം	-9.79745
▁ഭരിയാ	-9.79812
▁ഛന്ദോ	-9.79833
▁അക്ഖ	-9.79858
▁ഉതു	-9.79883
▁മനുസ്സാനം	-9.799
ാപത്തി	-9.79945
▁ഹീന	-9.80022
▁പബ്ബത	-9.80142
സങ്ഘ	-9.80212
▁ആഹാരോ	-9.80265
ാഭാവതോ	-9.80336
▁തസ്സുദ്ദാനം	-9.80338
▁ഏതസ്മിം	-9.80394
▁സദ്ദം	-9.80441
▁പഹാതബ്ബഹേതുകോ	-9.80489
▁൫൬	-9.80499
▁പുഞ്ഞാനി	-9.80546
▁ഇത്ഥിന്ദ്രിയം	-9.80601
▁ആവി	-9.80634
▁രോഗ	-9.80638
▁ദട്ഠബ്ബാ	-9.80661
നത്ഥി	-9.80697
സേയ്യഥാപി	-9.80705
▁ചക്ഖുനാ	-9.80721
▁ജാതകം	-9.80727
രത്ത	-9.80744
▁ഹര	-9.80841
▁സംവത്തതി	-9.80842
▁ദിട്ഠേവ	-9.80879
▁സമുദയോ	-9.80902
സങ്ഖാത	-9.80939
▁ഏതേനാതി	-9.81008
▁ഗഹണ	-9.81103
▁ഭത്തം	-9.8111
▁ദസമം	-9.81212
▁വത്തബ്ബാ	-9.81296
ഘ	-9.81312
▁പവിസ	-9.81355
സമുട്ഠാന	-9.81424
▁സദ്ധിന്ദ്രിയം	-9.81467
ദ്വയം	-9.81577
▁ഗമ	-9.81594
▁വത്തബ്ബോ	-9.81603
▁നിരോധോ	-9.8163
കാരണം	-9.81669
േതബ്ബ	-9.81714
▁ക്വചി	-9.81722
▁രൂപാനി	-9.81778
ഘാത	-9.81792
▁കസ്സപ	-9.81851
▁അപ്പടി	-9.81863
▁യായ	-9.81894
▁രത്തി	-9.81935
മഗ്ഗോ	-9.81961
േമി	-9.82025
▁അവിജ്ജാനുസയ	-9.82072
▁കാമാ	-9.82079
ലിങ്ഗ	-9.82099
▁മേത്താ	-9.82102
▁ഇമേസു	-9.82192
സച്ച	-9.82213
ാദീസുപി	-9.82225
▁പാണ	-9.82284
▁വസ്സാനി	-9.82291
▁ദസ്സ	-9.82329
▁രക്ഖ	-9.82422
▁മുത്ത	-9.8247
▁ഉപ്പജ്ജിത്ഥാതി	-9.82571
▁പരിത്ത	-9.82665
▁വു	-9.82693
ീയതീതി	-9.827
▁ബീജ	-9.8271
ഗണ	-9.82756
▁അഞ്ഞത്ഥ	-9.82776
▁രമ	-9.82824
തരം	-9.82825
▁കാമേഹി	-9.82964
ട്ഠം	-9.83011
▁ബുദ്ധാ	-9.83022
▁വിഗത	-9.83049
നേവ	-9.83062
▁ഗന്ഥ	-9.83101
▁അഞ്ഞമഞ്ഞ	-9.83105
▁സുചി	-9.83205
▁അമത	-9.83242
▁ഓഭാസ	-9.83262
▁ഇതരേസം	-9.83321
നാതി	-9.8337
▁അന്ത	-9.83402
ാപേസി	-9.83466
▁വേദനാസു	-9.83489
ദുകം	-9.83514
കാരസ്സ	-9.83603
മഹ	-9.83634
വജ്ജ	-9.8365
▁സഹജാതം	-9.83662
▁അഹമേവ	-9.8367
മുഖേന	-9.8384
▁രഥ	-9.83906
▁ദാതബ്ബം	-9.83913
▁൧൭	-9.8401
▁പഠമേ	-9.84018
▁ബ്രാഹ്മണസ്സ	-9.84049
തും	-9.84052
▁തഹിം	-9.84169
▁സിക്ഖാപദം	-9.84184
▁സമ്മാസമ്ബുദ്ധോ	-9.84399
▁വിത്ഥാരതോ	-9.84533
▁കതിഹി	-9.84543
ിസ്സ	-9.84572
▁യാച	-9.847
▁പുഗ്ഗലം	-9.84715
▁വിദിത്വാ	-9.84748
▁൬൮	-9.84818
▁കമ്മേന	-9.84835
▁ഭവോ	-9.84969
▁നവമം	-9.84974
▁൫൭	-9.84975
▁പകാസ	-9.84989
▁രൂപേ	-9.85004
▁രത്തിം	-9.85035
ാസു	-9.85041
ാകാരേന	-9.85043
▁ഗാഥം	-9.85052
▁മുഖം	-9.85085
▁കോധ	-9.851
മീ	-9.85119
▁ഉദാഹു	-9.85223
▁കാലോ	-9.85398
കതമേഹി	-9.85491
ജന	-9.85513
▁യഥാരഹം	-9.85529
▁ദുക്കട	-9.85548
സഞ്ഞായ	-9.85571
സഹ	-9.85572
▁തിസ്സ	-9.85603
▁തുവം	-9.85668
▁ഏവമാദിനാ	-9.85756
▁ആഗമ	-9.85758
▁അനന്തരേ	-9.85763
▁പകാസേന്തോ	-9.85769
▁കതമാനി	-9.85779
▁അപരഭാഗേ	-9.85845
കാരീ	-9.85856
▁കാള	-9.85864
സതി	-9.85907
യോഗ	-9.85929
മാസ	-9.85937
▁പയോഗേ	-9.8597
▁൭൦	-9.85979
൧൦	-9.8598
▁സേസാ	-9.86009
▁മംസ	-9.86013
▁വിയാതി	-9.86034
▁കമ്മട്ഠാന	-9.86043
▁അനുസാസ	-9.86079
ഇമം	-9.86132
▁സച്ചികട്ഠപരമത്ഥ	-9.86141
▁നിബ്ബത്തോ	-9.86167
സത	-9.8617
രാഗ	-9.86217
▁സമണബ്രാഹ്മണാ	-9.86232
ത്ഥേരസ്സ	-9.86235
▁മാനാനുസയോ	-9.86295
▁കാമധാതുയാ	-9.86323
▁അരിയോ	-9.864
ലോപോ	-9.86447
▁വിവേക	-9.86468
▁രാജഗഹേ	-9.86531
▁വചീസങ്ഖാരോ	-9.86591
ചിത്തസമുട്ഠാനഞ്ച	-9.86655
▁ഏവഞ്ഹി	-9.86668
▁വിപസ്സനം	-9.8677
▁പാസാണ	-9.86776
▁ആഗമ്മ	-9.86922
▁ആരമ്മണാധിപതി	-9.86925
ക്കമ	-9.8693
ഹാ	-9.86946
ചക്ഖു	-9.87017
▁സമ്മുഖാ	-9.87023
▁ജല	-9.87069
▁ദേവോ	-9.87077
▁സഞ്ഞോജന	-9.87108
▁മാതു	-9.87112
ചേതനാ	-9.87144
ബന്ധന	-9.8715
▁വിപാകേ	-9.87186
▁സുഖാ	-9.87209
▁നസമ്പയുത്തേ	-9.87236
സതാനി	-9.87275
േതീ	-9.87289
▁പാരാജികം	-9.8732
▁അമ്ബ	-9.87328
വേദനാ	-9.8747
▁ദേസ	-9.87489
▁നിര	-9.87536
▁അരഞ്ഞ	-9.87556
▁പരിദേവ	-9.87579
ബ്ഭ	-9.87587
വോ	-9.8763
▁യേഭുയ്യേന	-9.87683
▁ഹിത	-9.87719
▁ഏവാതി	-9.87734
വണ്ണം	-9.87942
▁ദിസ്വാന	-9.87963
▁സംവര	-9.87997
▁സേസമേത്ഥ	-9.88013
േനാ	-9.88029
▁സോമനസ്സ	-9.8806
▁ഗരഹ	-9.8818
▁ദൂരേ	-9.88196
ന്താനം	-9.88211
▁സമഥ	-9.8822
▁കമ്മട്ഠാനം	-9.88266
▁ആഹര	-9.88339
കാനി	-9.88404
▁അസംകിലിട്ഠ	-9.88439
▁കേ	-9.8845
ായതന	-9.88569
▁അനന്തര	-9.88692
▁തുണ്ഹീ	-9.88715
▁കപ്പിയ	-9.88743
▁മങ്ഗല	-9.88749
ഭാസ	-9.88785
സഭാവ	-9.88788
▁സഞ്ഞായ	-9.88939
▁൧൮	-9.89099
▁ഏകായ	-9.89141
▁അപര	-9.89178
ാമീതി	-9.89216
▁ഏകന്ത	-9.89258
▁പുത്തം	-9.89276
മഞ്ഞ	-9.89359
കിലേസാ	-9.89425
▁കരുണാ	-9.89462
▁സദ്ധായ	-9.8948
▁൬൫	-9.89504
▁കിരിയാ	-9.89524
▁ഉദ	-9.89525
▁ഗഹണം	-9.89542
▁പന്നരസ	-9.89551
▁മധു	-9.89562
▁വത്തതി	-9.89579
▁നഗര	-9.89583
▁മുസാ	-9.89588
▁യഥാക്കമം	-9.89589
▁ഏതേസു	-9.89616
ഗതി	-9.89638
▁ഗിഹി	-9.8964
▁ഉപോസഥ	-9.89713
▁യുജ്ജതി	-9.89722
ദുക	-9.89817
▁കുസലസ്സ	-9.89817
▁സേത	-9.89818
സീസ	-9.89842
▁അഭാസിത്ഥാതി	-9.89909
▁൬൧	-9.89937
▁അന്തമസോ	-9.89974
സ്സിദം	-9.90002
സമ്പദാ	-9.90067
സുണാതു	-9.90068
▁൭൫	-9.90081
▁൬൯	-9.90128
ലോമ	-9.90154
▁൧൯	-9.90298
▁അകപ്പിയ	-9.904
▁സങ്ഗണ്ഹാതി	-9.90442
ധാ	-9.90498
▁കുലേ	-9.90518
▁൮൦	-9.90525
▁വദ	-9.90536
▁സമ്പ	-9.90566
▁കഥിതം	-9.90588
▁ദള്ഹ	-9.90651
▁ലോകസ്മിം	-9.90656
▁ഠപിത	-9.90657
▁ഗച്ഛേയ്യ	-9.90667
▁പാരാജിക	-9.90706
▁ഭിക്ഖുസ്സ	-9.90747
▁അതീതേ	-9.90769
തണ്ഹാ	-9.90771
▁ലോഭോ	-9.90784
▁രത്ത	-9.9082
▁൭൪	-9.90825
▁തര	-9.90902
യുത്ത	-9.90903
▁സാവക	-9.90913
ഭോഗ	-9.90919
രാസി	-9.90921
▁അനവജ്ജ	-9.91001
▁പുരേജാതപച്ചയേന	-9.91082
▁ഗച്ഛന്തോ	-9.911
▁അരൂപ	-9.91211
▁ഏവമേതം	-9.9127
▁൫൫	-9.91282
▁ദുക്ഖസച്ചം	-9.91347
▁സമാ	-9.91423
ധമ്മാനം	-9.91463
േയ്യാ	-9.91533
▁സാധാരണ	-9.91553
▁കഥിതാ	-9.91558
▁സമ്പയുത്തോ	-9.91564
▁അജ	-9.91615
▁ജരാ	-9.91674
▁൫൮	-9.91681
ാധിപതി	-9.91698
കു	-9.91702
മയാ	-9.91751
സതം	-9.9184
▁കേഹിചി	-9.91843
▁സരണ	-9.91846
ദ്വയ	-9.91852
ിസ്സതീ	-9.91859
▁൨൦	-9.91924
▁വച്ഛ	-9.91968
▁സദ്ദോ	-9.92015
ഗ്ഗാഹ	-9.92075
സങ്ഖാതാ	-9.92192
▁നിരയം	-9.92222
പുഗ്ഗല	-9.92294
▁ഘാനായതനം	-9.92334
▁വാപി	-9.92343
▁നരോ	-9.92382
ചി	-9.92389
▁ഹത്ഥേ	-9.92427
അനു	-9.92428
ദേസനാ	-9.92441
▁പൂരേത്വാ	-9.92534
▁രൂപധാതുയാ	-9.92535
▁മഗ്ഗേന	-9.9267
രതോ	-9.92705
▁തതിയേ	-9.92726
▁ഇന്ദ്രിയം	-9.92727
▁അകത	-9.9289
▁൭൩	-9.92926
▁ഏകച്ചേ	-9.92998
▁മന	-9.93057
▁പബ്ബജ്ജാ	-9.93171
▁സഹജാതാ	-9.93183
▁൬൦	-9.93231
ആദീനം	-9.93356
▁ആയതന	-9.934
▁പടിജാനാതി	-9.93414
▁നാമരൂപ	-9.93421
കോടി	-9.93427
▁൨൧	-9.93439
▁നിവത്ത	-9.93487
▁ദന്ത	-9.93493
▁ദ്വിധാ	-9.93501
▁൭൬	-9.93593
▁സമ്മാസമാധി	-9.93666
▁നയ	-9.93711
▁വന്ദ	-9.93781
▁വിഞ്ഞാണക്ഖന്ധോ	-9.93795
▁നുപ്പജ്ജിസ്സതി	-9.93821
▁ജായതി	-9.93835
▁ഹന	-9.93927
▁അക്കോസ	-9.93951
▁അധോ	-9.93981
▁അഞ്ഞേസം	-9.94027
▁സമന്താ	-9.94065
▁പടിപക്ഖ	-9.94079
ിതുകാമോ	-9.94109
രീ	-9.94221
▁ഭ	-9.9426
▁യേഹി	-9.94311
ഭേദോ	-9.9432
വിധ	-9.94326
▁സാമഞ്ഞ	-9.94455
▁വിപ്പയുത്താ	-9.94509
▁ഇമിസ്സാ	-9.94563
▁ഇരിയാപഥ	-9.94607
▁പരിച്ഛേദോ	-9.94671
കേഹി	-9.94688
▁സേയ്യോ	-9.94813
▁അരഹം	-9.94823
അവിതക്കവിചാരമത്ത	-9.94843
▁വിഹരാമി	-9.94855
ജാത	-9.94868
വിസയ	-9.949
പുരിസ	-9.94901
▁മിത്ത	-9.95004
▁ഉദകേ	-9.95014
▁ജാനാമി	-9.95021
▁മുഞ്ച	-9.95043
▁ഹേതുപച്ചയോ	-9.95053
▁തേപി	-9.9509
▁ഹദയ	-9.95208
ാര	-9.95252
ലാ	-9.95316
▁നിരയ	-9.95325
▁നഉപനിസ്സയേ	-9.95328
▁അനന്ത	-9.95367
▁തേനേവാഹ	-9.9542
ദോ	-9.95512
▁൨൩	-9.9552
▁ഏതസ്സാതി	-9.95602
▁കസിണ	-9.95606
▁പൂര	-9.95639
▁ഭാവിതാ	-9.95639
▁൭൯	-9.95643
▁സങ്ഖാരക്ഖന്ധോ	-9.95669
പാ	-9.9568
▁൮൬	-9.95721
വിസേസോ	-9.95776
▁പരിയായേന	-9.95782
ഹീ	-9.95817
▁ഹഞ്ചി	-9.95834
▁ഉപനിസ്സയേ	-9.95851
▁ചുദ്ദസ	-9.95882
▁വികപ്പ	-9.95973
▁൭൮	-9.95979
ഗ്ഘ	-9.9608
▁അധിപ്പേതോ	-9.96114
▁സന്തേ	-9.96118
▁സങ്ഖാരേ	-9.96137
ക്ക	-9.96148
▁ദാതും	-9.9615
▁അനിച്ചം	-9.9617
▁മാതാപിതരോ	-9.96174
▁ഗഹിതം	-9.96194
▁ലോഹിത	-9.96198
വണ്ണോ	-9.96235
▁സങ്ഗഹോ	-9.96264
ിനാ	-9.96321
ഹിത	-9.96338
സേസ	-9.96382
▁സീസം	-9.96483
▁കാതബ്ബോ	-9.96505
▁പച്ഛിമഭവികാനം	-9.96526
▁ഖത്തിയ	-9.96542
ഭാഗ	-9.96609
▁ഏകേ	-9.96631
▁അനത്ഥ	-9.96688
▁അപായ	-9.96715
▁നേക്ഖമ്മ	-9.96717
ദു	-9.96762
▁ബാഹിരം	-9.96767
▁സമന്നാഗതാ	-9.96834
ജോ	-9.96852
▁സബ്ബാനി	-9.96871
▁മന്ദ	-9.96952
▁ദുസ്സ	-9.96969
ലക്ഖണോ	-9.96979
▁കരണ	-9.97022
▁൬൬	-9.97044
▁ഝാനേ	-9.97055
ഗതാ	-9.97086
▁സഹജാതേ	-9.97125
നഝാനേ	-9.972
▁മഞ്ഞേ	-9.97223
▁തിട്ഠന്തി	-9.97287
▁൯൦	-9.97316
▁ലഭ	-9.97321
▁പിവ	-9.97348
ഭണ്ഡ	-9.97476
▁ജാല	-9.97477
▁പരിപൂര	-9.97515
രുക്ഖ	-9.97523
▁൮൩	-9.97548
▁ഛബ്ബഗ്ഗിയാ	-9.9755
▁ഇത്ഥന്നാമ	-9.97581
▁൨൪	-9.97598
മ്പീതി	-9.976
▁ഭോഗ	-9.97648
▁ഏവരൂപോ	-9.9765
തിആദീനി	-9.97685
നയേന	-9.9776
സമയേ	-9.9781
ന്തിയാ	-9.97845
▁ഏകേക	-9.97856
വീരിയ	-9.97868
▁ഭണ	-9.97874
▁ദസ്സനം	-9.97891
▁അത്ഥസ്സ	-9.97897
സദിസോ	-9.97956
▁കാമേസു	-9.97972
▁നിസ്സയേ	-9.98
▁സംസാര	-9.98031
▁പണ്ഡിത	-9.98038
ജാന	-9.98057
▁ഏവമേത്ഥ	-9.98109
▁അനുത്തരം	-9.98117
പ്പവത്തി	-9.98122
▁സത്തോ	-9.98122
വിസ	-9.98125
▁കി	-9.98129
▁ലാഭ	-9.98177
▁അരൂപധാതുയാ	-9.98247
▁അധികരണം	-9.98247
▁വിമുത്തി	-9.98285
▁പദാനി	-9.98334
പഞ്ഹോ	-9.98376
▁വചനേന	-9.98406
▁ഇദഞ്ച	-9.98462
▁വിചികിച്ഛാനുസയോ	-9.98493
ഫലം	-9.98549
ുഡ്	-9.98646
▁അസ്സാദ	-9.98673
അഭി	-9.98681
▁ആരമ്മണപച്ചയാ	-9.98682
▁അഭിഞ്ഞായ	-9.98717
▁ദിട്ഠം	-9.98822
▁വിഹരന്തി	-9.98836
▁സത്തേ	-9.98847
▁നാസ	-9.98869
▁നേതം	-9.98928
▁ഉപാദാന	-9.9895
▁തക്ക	-9.98996
▁നിരയേ	-9.99058
▁ഏവമസ്സ	-9.99059
▁സിയാതി	-9.99101
▁സമുദയസച്ചം	-9.99105
മണി	-9.99286
▁സുഗതോ	-9.99402
ദസ്സനത്ഥം	-9.9942
േക	-9.99555
▁൨൫	-9.9962
▁സങ്ഗഹ	-9.99623
വതീ	-9.99639
▁മുദു	-9.99646
ഗാ	-9.99649
▁ഭവിസ്സന്തി	-9.99675
▁ഇതര	-9.99748
▁പരിയായ	-9.99748
▁പനാവുസോ	-9.99826
▁വഗ്ഗ	-9.99851
▁ദാതബ്ബോ	-10.0001
▁ഉദ്ദിസ്സ	-10.0001
അനന്തരേ	-10.0002
ണി	-10.0002
▁൮൮	-10.0011
ഭോജന	-10.0012
തന്തി	-10.0013
ചിത്താ	-10.0017
▁അഭിനന്ദതി	-10.0024
▁പഹാതബ്ബം	-10.0026
▁ഛസു	-10.0034
കതാ	-10.0037
▁ഉദ്ദേസ	-10.0038
▁ചിത്തസങ്ഖാരോ	-10.0039
▁കരോന്തസ്സ	-10.004
▁ബാഹിര	-10.005
▁അദ്ധാ	-10.0053
▁പമാണം	-10.0053
▁വിഭജിത്വാ	-10.0057
സഞ്ഞ	-10.006
▁൨൬	-10.0074
▁പുരേജാതം	-10.0081
▁൮൪	-10.0083
▁ഭജ	-10.0089
▁വിവര	-10.009
▁നൂന	-10.0092
▁അധിപതി	-10.0101
▁പരിസാ	-10.0108
▁ആഗതം	-10.0109
സുത്തേ	-10.011
ന്തിപി	-10.0115
▁തംതം	-10.0119
▁സഹേതുക	-10.012
േതബ്ബാ	-10.0122
▁ആരാമേ	-10.0122
▁പുഥുജ്ജനോ	-10.0128
▁പവ	-10.0131
പന	-10.0133
▁വീമംസ	-10.0135
▁ദേന്തി	-10.0139
▁സത്തമേ	-10.014
കതം	-10.0149
▁ബോധിസത്തസ്സ	-10.015
▁മനുസ്സേസു	-10.015
▁൭൧	-10.0156
▁ദേവദത്തോ	-10.0157
▁അധിപ്പേതാ	-10.0159
▁പുണ്ണ	-10.0159
ണ്ഡ	-10.0163
▁സന്ധായാഹ	-10.0165
▁ഭണ്ഡ	-10.0171
കായോ	-10.0179
അഹോ	-10.0181
▁അനുപാദിന്ന	-10.0183
▁ഏവമേവം	-10.0185
▁സാല	-10.0187
നമ	-10.0196
ട്ഠാ	-10.0202
▁ഇസി	-10.0207
▁ഗിലാന	-10.0209
▁ബ്രാഹ്മണം	-10.0211
▁അജ്ഝത്ത	-10.0213
▁൧൦൦	-10.0214
▁തേല	-10.0216
സങ്ഖാതോ	-10.0218
▁ബ്രഹ്മാ	-10.0221
▁വനേ	-10.0222
മുപ	-10.0222
▁സുന്ദര	-10.0224
ീസു	-10.0228
▁ചതുത്ഥേ	-10.0235
▁ആപന്നോ	-10.024
ഗാഥാ	-10.0241
ജം	-10.0256
▁പരമത്ഥ	-10.0259
▁വത്ഥുഞ്ച	-10.0259
▁൭൨	-10.026
▁യു	-10.0264
▁സച്ഛികത്വാ	-10.0268
▁ഉത്താനമേവ	-10.027
ക്	-10.0273
▁൨൮	-10.0277
▁നിസീദ	-10.0278
ത്ര	-10.0282
▁ഗാമേ	-10.0283
▁സമണാ	-10.0286
▁൮൯	-10.0288
▁പഠമജ്ഝാന	-10.0288
▁ബലം	-10.0301
▁൨൭	-10.0302
▁ഖയ	-10.0304
സദിസാ	-10.0307
▁കാരേത്വാ	-10.0308
▁സകം	-10.032
▁സദ്ധമ്മ	-10.0321
മമ	-10.0322
▁നേവവിപാക	-10.0324
ജാതോ	-10.0328
മജ്ഝേ	-10.034
ത്താതി	-10.0354
▁ഖത്തിയോ	-10.0354
വംസ	-10.0354
▁അഹ	-10.036
മനുസ്സ	-10.0362
▁ഇച്ഛ	-10.0364
പക്ഖ	-10.037
▁മച്ഛ	-10.0382
▁സക്ക	-10.0386
▁ഘര	-10.0386
മത്തമ്പി	-10.0403
▁ഛിന്ദിത്വാ	-10.0404
ത്തോ	-10.0407
ിദം	-10.0419
▁ഹിത്വാ	-10.0425
▁നമോ	-10.0426
▁പഗേവ	-10.0433
കഥ	-10.0434
തഞ്ച	-10.0446
വഗ്ഗേ	-10.0447
▁അനാഗതേ	-10.0449
▁വുത്തനയമേവ	-10.045
ജാല	-10.0453
▁ഭിക്ഖുനീനം	-10.0453
▁ദിട്ഠിം	-10.0454
▁സോഭ	-10.0454
▁൮൫	-10.0457
▁ആചിക്ഖ	-10.0458
▁ആസനേ	-10.0458
▁മാരോ	-10.046
പുത്തോ	-10.0463
▁ദോമനസ്സ	-10.0465
▁വസ്സം	-10.0465
▁അമ്ഹേഹി	-10.0469
▁൨൯	-10.0469
▁൭൭	-10.047
▁പമാണ	-10.0473
▁ഛിന്ദ	-10.0488
▁ഏതാനി	-10.0489
▁൩൧	-10.0491
▁അനിച്ചാ	-10.0494
▁മൂലം	-10.0497
▁വിജ്ജമാന	-10.0501
▁പസ്സാമി	-10.0505
▁൮൭	-10.0512
ിസ്സം	-10.0515
മനു	-10.0521
▁ഇച്ഛതി	-10.0524
▁അരൂപേ	-10.0524
▁സഹജാതാധിപതി	-10.0526
▁ആനേത്വാ	-10.0528
▁൩൦	-10.0533
▁നിദാന	-10.0533
▁രഞ്ഞാ	-10.0534
▁ഭോജന	-10.054
▁ഛഹി	-10.0541
▁ആദിതോ	-10.0542
▁യുത്തം	-10.0544
▁പാവിസി	-10.0544
▁രഹോ	-10.0545
▁൮൧	-10.0547
▁സദിസ	-10.0549
▁കത്തു	-10.0556
പയോഗ	-10.056
▁മഹാഭൂതം	-10.0566
▁ജാനിത്വാ	-10.0568
▁നത്ഥീ	-10.0569
ഗാഹ	-10.0571
സങ്ഖ	-10.0571
▁രത്തിയാ	-10.0576
▁ഝാനസ്സ	-10.0578
▁നപ്പജഹതി	-10.0581
▁സതിയാ	-10.0583
▁അവസേസ	-10.0583
സല്ല	-10.0584
▁൮൨	-10.0585
▁വത്തതേ	-10.0597
▁അവിജ്ജാനുസയോ	-10.06
ിതബ്ബാ	-10.0606
ഇന്ദ്രിയ	-10.0607
▁ഇധാപി	-10.0611
▁പവത്തം	-10.0614
▁വധ	-10.0614
▁മാണവ	-10.0615
അന	-10.0618
▁അക്ഖര	-10.0618
▁അനുകമ്പ	-10.0635
വിനയ	-10.0636
നിദാന	-10.0638
▁പണ്ണ	-10.0641
▁അച്ഛ	-10.0641
▁ഥേരാ	-10.066
കി	-10.0662
ാദിം	-10.0665
ുത്തര	-10.0665
▁പരിനിബ്ബായിസ്സ	-10.0668
ിത്വാന	-10.0671
▁അമതം	-10.0677
▁സേനാസന	-10.068
▁ബുജ്ഝ	-10.068
ഉപാദിന്നുപാദാനിയ	-10.0684
▁സതിമാ	-10.0686
▁൬൨	-10.0691
▁വരം	-10.0691
േതു	-10.0693
▁ഓവാദ	-10.0695
▁ഹേട്ഠിമ	-10.0696
േസീതി	-10.0698
▁അതിക്കമ	-10.0703
കാരണാ	-10.0705
▁പരിവാര	-10.0711
സമ്ബന്ധ	-10.0715
മ്മ	-10.0724
▁ഉപ്പാദേതി	-10.0726
▁ഉണ്ഹ	-10.0729
▁ഇധേവ	-10.0736
ാധിക	-10.0744
മണ്ഡല	-10.0749
▁പടിലദ്ധ	-10.075
▁യജ	-10.0751
▁സട്ഠി	-10.0757
▁ഇട്ഠ	-10.0757
▁ഗബ്ഭ	-10.0762
▁ദക്ഖിണ	-10.077
ഭാവസ്സ	-10.0778
ചതു	-10.078
▁ഠിതസ്സ	-10.0781
▁ബന്ധിത്വാ	-10.0783
ണീ	-10.0784
▁ഗേഹ	-10.0788
സഞ്ഞിനോ	-10.0795
▁മഞ്ഞതി	-10.0795
▁പരിവത്ത	-10.0798
▁ചതുത്ഥോ	-10.0799
▁സഹേതുകോ	-10.0804
▁പസ്സന്തോ	-10.0806
▁ചക്ക	-10.0806
▁സുണാതി	-10.0806
▁ആവജ്ജന	-10.0808
▁സമോധാനേസി	-10.081
ീയന്തി	-10.0811
▁കഥായ	-10.0813
▁അഞ്ഞമഞ്ഞേ	-10.0814
ഏവ	-10.0818
പുര	-10.0827
▁സന്ദ	-10.0832
▁നിപാതോ	-10.0836
▁ഏവരൂപാ	-10.0838
▁സന്തം	-10.0844
▁അസുഭ	-10.0846
ആദീസു	-10.0847
▁പുഗ്ഗലാനം	-10.0848
ഞ്ജ	-10.0852
▁അഹോ	-10.0863
വാസ	-10.0865
ാവുസോ	-10.0866
ദുക്ഖം	-10.0867
ത്ഥേരഗാഥാവണ്ണനാ	-10.0869
▁ഉപ്പജ്ജി	-10.0869
▁ഗന്തും	-10.0872
▁കുക്കുച്ചം	-10.0873
സമ്	-10.0884
▁പഹാതബ്ബാ	-10.0891
ബ	-10.0894
വിതക്ക	-10.0897
നായ	-10.0901
▁അഞ്ഞേഹി	-10.0903
വചനേന	-10.0903
▁ഇച്ഛാ	-10.0903
▁ഗഹേതബ്ബോ	-10.0906
▁ലോപോ	-10.0911
▁ചേതസിക	-10.0914
കുലേ	-10.0917
▁വുച്ചതീതി	-10.0919
സങ്ഖാതേന	-10.092
▁നകുസലോ	-10.0921
ദീപ	-10.0925
▁സബ്ബഥാ	-10.0928
▁പമാദ	-10.0936
▁പസംസ	-10.0939
▁വിസയ	-10.0942
▁കുസ	-10.0942
▁ഇന്ദ്രിയേ	-10.0949
ബീജ	-10.0953
▁പരിസായ	-10.0959
▁സംയോജന	-10.096
▁കല്യാണ	-10.0962
▁ഝാപിതാ	-10.0964
▁വിസേസതോ	-10.0964
▁കുസലേസു	-10.0966
▁താദിസം	-10.0967
▁അയഞ്ച	-10.0968
▁ദുതിയാ	-10.0968
ചരിയാ	-10.0979
▁സബ്ബമ്പി	-10.0989
▁അല	-10.0997
മാര	-10.0999
▁ഭേസജ്ജ	-10.1001
▁തിക	-10.1003
സങ്ഖാര	-10.1012
ാഹാര	-10.1025
▁യംകിഞ്ചി	-10.1033
▁അഞ്ഞതര	-10.1035
▁പഥവിം	-10.1037
▁സപ്പി	-10.1044
ദസ്സനേന	-10.1045
ധാര	-10.1048
ദണ്ഡ	-10.1049
▁ഭണതി	-10.1049
ഭേദതോ	-10.105
▁കണ്ഹ	-10.1053
▁ദസ്സിതോ	-10.1055
▁൩൨	-10.1069
▁ദാസ	-10.107
▁അപ്പനാ	-10.1077
▁ഫുസ	-10.1096
▁മഞ്ഞ	-10.1098
ഇമിനാ	-10.1099
പബ്ബത	-10.1105
▁ഥേര	-10.1106
▁മഗ്ഗാ	-10.1106
▁൩൩	-10.111
▁കാക	-10.111
▁അനിച്ച	-10.1114
▁മഗ്ഗസച്ചം	-10.1117
▁അട്ഠി	-10.1118
ാരാമ	-10.112
▁സത്താഹം	-10.1121
▁സേ	-10.1121
▁സബ്ബേസു	-10.1127
മൂലക	-10.1129
▁പരിഭോഗ	-10.1135
▁ഏതേഹി	-10.1139
▁അനാഗതം	-10.1141
രസോ	-10.1142
▁അവത്വാ	-10.1144
▁വയ	-10.1146
ാപ	-10.1149
▁൩൫	-10.115
ാപേതും	-10.1151
നാഗ	-10.1155
വൂപസമ	-10.116
▁൯൭	-10.117
ബ്യഞ്ജന	-10.1175
▁ആകാര	-10.1179
▁ഏകദിവസം	-10.118
ഭേദേന	-10.118
▁കിച്ചം	-10.118
▁ഇന്ദ	-10.1182
▁പക്കാമി	-10.1182
▁കണ്ണ	-10.1184
▁ഥേരം	-10.1186
▁ഹേതം	-10.119
ചീവരം	-10.1193
▁ജിണ്ണ	-10.1195
▁ബന്ധന	-10.1196
▁നാനുസേതി	-10.12
▁മാനോ	-10.1203
ദന്ത	-10.1205
▁കുസലാനം	-10.1205
▁അവിജ്ജായ	-10.1207
▁വിവട്ട	-10.1208
▁ഉപോസഥം	-10.121
സച്ചം	-10.1216
കോട്ഠാസ	-10.1216
▁കത്തബ്ബ	-10.1218
▁സമ്	-10.1225
നമ്പി	-10.1226
▁൯൪	-10.1229
▁മാസ	-10.123
സബ്ബേ	-10.123
▁അനാസവോ	-10.1233
തമ	-10.1235
മത്താ	-10.1238
▁നാഗോ	-10.1242
▁പക്ഖിപിത്വാ	-10.1245
രഥ	-10.1245
▁ലാഭീ	-10.1247
▁സുണാഥ	-10.1247
▁ജനോ	-10.1248
▁വോഹാര	-10.1258
▁അനുസേതി	-10.1262
▁പഹാനം	-10.1265
▁മതാ	-10.1268
▁അഹോസീതി	-10.1268
▁സോതം	-10.1272
▁പുരിസാ	-10.1276
കാരം	-10.1277
▁ണോ	-10.1282
▁ആചരിയോ	-10.1285
▁ഉപമാ	-10.1286
▁അതിക്കമിത്വാ	-10.1288
▁ദാരു	-10.1289
▁സിക്ഖ	-10.1291
മ്ബ	-10.1296
▁സഞ്ഞ	-10.1303
കതമോ	-10.1304
▁സാധുകം	-10.1304
ഝാന	-10.1314
ംസു	-10.1317
▁ഭവങ്ഗ	-10.1333
ന്തിആദിമാഹ	-10.1333
പ്പടി	-10.1334
▁അനുലോമം	-10.134
▁കഞ്ചി	-10.1341
▁ചരിത്വാ	-10.1343
▁പാകടം	-10.1348
▁പദസ്സ	-10.1355
രഞ്ഞോ	-10.1359
▁ധാതുയാ	-10.1359
▁വിവിച്ചേവ	-10.1362
▁കമ്മാനി	-10.1365
▁ഠിതി	-10.1365
▁ഏവമാദി	-10.1369
▁സഞ്ജാത	-10.1379
പാപ	-10.1383
▁പാപുണി	-10.1383
യമാനോ	-10.1389
▁ചിരം	-10.139
രൂപോ	-10.139
▁ആമിസ	-10.1392
▁കായകമ്മം	-10.1395
▁ദദേയ്യ	-10.1395
▁അരിയമഗ്ഗ	-10.1395
▁ഖമ	-10.14
▁ദുവേ	-10.1403
ധീ	-10.1403
▁നഗരേ	-10.1411
▁൩൪	-10.1412
▁വിഹര	-10.1412
▁അജ്ഝ	-10.1418
അഞ്ഞമഞ്ഞേ	-10.1421
▁രജ്ജ	-10.1421
▁അമു	-10.1425
സമുട്ഠാനം	-10.1431
▁ധഞ്ഞ	-10.1433
▁രസ്സ	-10.1438
▁അങ്ഗേഹി	-10.1443
ീയതേ	-10.1444
ലി	-10.1445
▁ഭിന്ദിത്വാ	-10.1449
കോതി	-10.1452
നീതി	-10.1453
▁൩൭	-10.1454
ചക്ക	-10.1456
▁ഛട്ഠ	-10.1458
▁ഖമതി	-10.146
▁ഹത്ഥേന	-10.1463
▁ലദ്ധാ	-10.1464
ദ്ദ	-10.1466
▁ആതാപീ	-10.147
▁ദേസേസി	-10.1471
ധന	-10.1475
ന്തരേ	-10.1478
▁൫൩	-10.1478
▁അനന്തരാ	-10.1481
▁അനുജാനാമി	-10.1483
▁ഭഗവതി	-10.1483
▁പിണ്ഡ	-10.1485
▁അച്ചന്ത	-10.1485
▁സതിപട്ഠാന	-10.1488
▁ഉപാസകോ	-10.1489
▁ഉഭതോ	-10.149
ബലം	-10.149
▁യമക	-10.1492
സഞ്ഞം	-10.1493
▁സത്ഥ	-10.15
▁രൂപാവചര	-10.1503
▁൯൮	-10.1504
▁സോക	-10.1506
▁ഖീര	-10.1507
▁സരീരേ	-10.151
▁നിരുജ്ഝന്തി	-10.151
▁ഗാഹ	-10.1517
ചിത്തേന	-10.1518
▁പണീത	-10.1521
േതാ	-10.1523
▁ധീരോ	-10.1523
▁ഇതിപി	-10.1526
▁പസ്സതോ	-10.1526
▁അസി	-10.1529
▁അന്തര	-10.1531
▁പജഹ	-10.1533
▁അഞ്ഞേപി	-10.1538
യാതി	-10.1541
പക്ക	-10.1542
▁ഉഭിന്നം	-10.1545
ുപ്പാദ	-10.1546
▁ഖീണാസവ	-10.1549
പ്പമാണ	-10.1551
▁ദസ്സിതാ	-10.1552
▁അഞ്ഞാണ	-10.1555
കാലതോ	-10.1557
നാഹം	-10.1558
ൂതി	-10.1561
▁൯൩	-10.1561
▁അവിക്ഖേപോ	-10.1565
▁അധികരണ	-10.1565
േന്തീതി	-10.1565
▁ചരേ	-10.1565
▁കോടി	-10.1566
▁ദേസനം	-10.1568
▁ഖിപ്പം	-10.1569
▁സമ്മുതി	-10.1571
▁൯൫	-10.1579
ഹന	-10.1581
പരിക്ഖാര	-10.1586
▁൯൨	-10.1586
കിരിയ	-10.159
ാനമ	-10.1592
▁സുഖുമ	-10.1593
▁വാദ	-10.1594
യുത്തോ	-10.1595
▁൩൬	-10.1598
▁ഝായ	-10.1599
▁അസുചി	-10.1608
▁പയോഗ	-10.1609
ാരഹ	-10.1613
▁വിനയേ	-10.1618
ജവന	-10.1618
കഡ്	-10.1619
ണാ	-10.1624
പതി	-10.1628
യതീതി	-10.1631
മകാസി	-10.1642
പുഗ്ഗലോ	-10.1647
▁അസാധാരണ	-10.1649
സമാപത്തി	-10.1649
▁ആഗച്ഛതി	-10.1655
▁ബദ്ധ	-10.166
വസ	-10.1663
▁൯൧	-10.1668
▁പൂജ	-10.1669
▁അകംസു	-10.167
▁അട്ഠങ്ഗികോ	-10.1674
▁പടിസമ്ഭിദാ	-10.1675
▁അനത്താ	-10.1675
▁ഭവിതബ്ബം	-10.1684
▁അത്ഥിയാ	-10.1685
ഗ്ഗി	-10.1688
മജ്ഝ	-10.1689
▁അഗ്ഗമഗ്ഗ	-10.1693
▁ഓകാസം	-10.1694
▁കാരണേഹി	-10.1698
▁അസ്സാദേതി	-10.1699
▁൩൯	-10.1702
▁ദുക്ഖതോ	-10.1704
▁ഉദാനം	-10.1704
സ്സേതം	-10.1704
▁ഗഹിതോ	-10.1704
▁സമ്പയുത്തേ	-10.1707
ിസ്സതീതി	-10.1709
▁പക്ഖ	-10.1712
▁ചിത്താനി	-10.1713
▁സമ്മദേവ	-10.1714
▁പബ്ബജിത	-10.1714
▁ആഹരി	-10.1717
മുത്ത	-10.1717
▁ദമ	-10.1717
▁അബ്ഭ	-10.172
ത്തിക	-10.1727
▁ഇന്ദ്രിയാനി	-10.173
ഞ്ഞൂ	-10.1733
പരിയായ	-10.1736
▁അനഗാരിയം	-10.1736
േനാപി	-10.1745
സമം	-10.1748
▁ഏത്തകം	-10.1749
▁വസി	-10.1757
▁സത്തന്നം	-10.176
▁പഞ്ചമ	-10.1761
സങ്ക	-10.1761
▁സാവകാ	-10.1767
▁പച്ചയേ	-10.1767
▁പുച്ഛാമി	-10.1769
▁ഖണ്ഡ	-10.1769
പരിച്ഛേദ	-10.1774
▁അന്തരേ	-10.1782
▁അനിട്ഠ	-10.1784
▁തത്രായം	-10.1785
▁സീലവാ	-10.1785
▁൫൪	-10.1788
മഗ്ഗം	-10.1791
▁വുദ്ധി	-10.1792
▁പരിത്തം	-10.1798
▁കാചി	-10.18
സങ്ഗഹ	-10.1801
▁മഹാഭൂതാ	-10.1803
▁ചേതിയ	-10.1807
▁൯൬	-10.1809
ിതു	-10.1811
▁വാത	-10.1816
പ്പകാര	-10.1816
▁തഥാപി	-10.1821
▁മര	-10.1825
▁കീള	-10.1825
ജീവ	-10.1826
▁൪൧	-10.1827
▁ത്വ	-10.1828
▁വിനേയ്യ	-10.1832
▁സഗ്ഗം	-10.1837
▁സമാദായ	-10.1838
രസം	-10.1842
▁ഖേമ	-10.1846
▁പവത്തതീതി	-10.1848
ആഹാരേ	-10.185
▁പാകടോ	-10.185
ലോ	-10.1855
▁ഛന്ദം	-10.1856
▁പിട്ഠി	-10.1862
ഹോ	-10.1866
▁൩൮	-10.1871
▁ഖേത്ത	-10.1871
▁ആയ	-10.1874
▁ഇത്ഥിയാ	-10.1875
▁സമുദ്ദ	-10.1877
▁ഥേരേന	-10.1877
ആമ	-10.1882
▁ജനേതി	-10.1885
മത്ഥ	-10.1889
▁ഉപപജ്ജതി	-10.1893
▁തപ	-10.1895
▁അനാഥപിണ്ഡികസ്സ	-10.1902
▁ഗഹേതും	-10.1904
▁പടിപത്തി	-10.1913
ിന്ദ	-10.1914
▁അല്ല	-10.1918
പുച്ഛ	-10.192
രൂപാ	-10.1921
▁ദുക	-10.1921
ഭൂ	-10.1922
▁നിസിന്ന	-10.1924
▁ജനേ	-10.1925
▁അകുസലാനം	-10.1926
▁സന്തകം	-10.1928
▁മഹഗ്ഗത	-10.1934
▁സേട്ഠോ	-10.1937
▁൧൦൩	-10.1938
▁ഇത്ഥിയോ	-10.1939
▁ആലോക	-10.1939
▁കായികം	-10.194
സത്ഥ	-10.194
മാനേ	-10.1941
▁പാണാതിപാത	-10.1943
▁സമാപത്തി	-10.1943
▁സമ്പയുത്തം	-10.1943
▁ചരന്തി	-10.1948
▁പവാരണാ	-10.195
▁കത്താ	-10.1955
▁ജരാമരണം	-10.1966
▁അട്ഠങ്ഗിക	-10.1977
▁ആസേവനേ	-10.1977
▁മതോ	-10.1978
േതബ്ബോ	-10.1979
▁തിവിധ	-10.1981
▁ഭേദ	-10.1983
ത്ഥഞ്ച	-10.1984
▁ആകാരേഹി	-10.1985
ചന്ദ	-10.1987
ചര	-10.1988
▁ദോസം	-10.1994
▁൪൦	-10.1995
പാളി	-10.1997
▁ഭവിസ്സതീതി	-10.2003
▁രാജാനോ	-10.2004
സങ്ഖാതേ	-10.2004
▁പാതിമോക്ഖം	-10.2005
▁സഭാഗ	-10.2013
ഭൂമിയം	-10.2014
പ്പഹാന	-10.202
▁ആരാമ	-10.2024
▁സിക്ഖാപദ	-10.2025
▁ബഹുലീകതാ	-10.2031
▁കിലേസാനം	-10.2035
▁ദിസം	-10.2037
▁ഗമ്ഭീര	-10.2039
അട്ഠ	-10.2039
▁വിസുദ്ധ	-10.2041
പ്പവത്ത	-10.2048
▁ഖീണ	-10.205
▁പതിട്ഠാ	-10.205
ഉദക	-10.2054
▁അസ്സു	-10.2056
ലീ	-10.206
കിരിയായ	-10.2063
പുരിസോ	-10.2063
സന്ത	-10.2065
▁പു	-10.2065
▁ആമ	-10.2067
ോയേവ	-10.2068
▁ഉസ്സ	-10.2069
▁നര	-10.2087
▁പടിസേവ	-10.2092
▁സംകിലിട്ഠ	-10.2095
▁വിഹാരോ	-10.2096
▁ഇദമേവ	-10.2097
▁സന്ധി	-10.2102
▁വുത്താതി	-10.2106
▁ഹിതായ	-10.2108
▁യോജേത്വാ	-10.2108
▁ചക്ഖുവിഞ്ഞാണം	-10.2109
▁ലക്ഖണം	-10.2112
വുത്ത	-10.2113
▁ചക്ഖുവിഞ്ഞാണ	-10.2116
▁നിബ്ബ	-10.2118
യന്തോ	-10.2119
ാനിപി	-10.212
▁കാരേസി	-10.2123
▁പാകട	-10.2124
▁സാമം	-10.2127
▁൪൪	-10.2129
▁ഏതേസന്തി	-10.2136
▁മത	-10.2137
സിക്ഖാപദ	-10.2138
▁കതത്താ	-10.2139
▁൧൦൨	-10.214
രക്ഖ	-10.2147
▁പരിഭാസ	-10.2148
▁വിസമ	-10.2151
▁൪൩	-10.2152
▁സമ്പയുത്തകാ	-10.2152
യിം	-10.2162
നവ	-10.2164
▁തദത്ഥ	-10.2164
ദിവസേ	-10.2164
ന്നം	-10.2164
ഘട	-10.2164
▁ദിബ്ബചക്ഖു	-10.2166
▁൯൯	-10.2173
▁പോസ	-10.2175
സയ	-10.2176
▁രജ	-10.2177
▁വിപസ്സനായ	-10.2178
▁കഥേതി	-10.2178
▁അരഹത്ത	-10.2179
▁അഗ്ഘ	-10.2181
▁൫൦	-10.2182
▁ദീഘരത്തം	-10.2185
▁അയഞ്ഹി	-10.2186
▁പാപകാ	-10.219
▁ഭാസിതാ	-10.2194
▁൪൫	-10.2196
ാദേസോ	-10.2197
▁പരിസ	-10.2199
▁ദിട്ഠോ	-10.22
സോത	-10.2209
ിമേ	-10.2209
വേര	-10.2213
▁വുച്ചതേ	-10.2213
▁൫൨	-10.2214
▁൪൨	-10.2216
▁മഞ്ഞസി	-10.2217
▁ദാര	-10.2225
യോജന	-10.2228
▁യഞ്ഞ	-10.223
ാലങ്കാര	-10.223
▁കാതബ്ബാ	-10.223
ഹര	-10.2231
▁പകാസിതാ	-10.2232
▁ആകാസ	-10.2234
▁ണ	-10.2238
▁൪൬	-10.224
▁സമ്പയുത്ത	-10.2246
▁വുട്ഠഹിത്വാ	-10.2256
സമ്പത്തിം	-10.2258
നഗരേ	-10.2265
▁സത്ഥുനോ	-10.2268
▁അനുസേന്തി	-10.2273
പടിച്ചവാരാദി	-10.2274
▁പണീതം	-10.2275
േസ്സാമീ	-10.2278
▁സോത	-10.2285
▁സത്തഹി	-10.229
▁ദേസനായ	-10.2302
പത്തോ	-10.2304
▁അങ്ഗം	-10.2306
▁൪൯	-10.2308
▁൪൭	-10.2308
▁കാമം	-10.2308
▁ജീവിതാ	-10.2309
കരണേ	-10.2309
▁കാരണാ	-10.231
▁പച്ഛതോ	-10.2317
▁ധ	-10.2321
▁അന്ധ	-10.2327
▁യാവതാ	-10.2329
▁ദേവപുത്തോ	-10.2329
മ്ഭ	-10.2329
▁യസോ	-10.2332
▁സവിതക്കസവിചാര	-10.2332
▁നിബ്ബത്തിത്വാ	-10.2336
▁സസ്സ	-10.2338
▁സാവത്ഥിനിദാനം	-10.2339
ബ്രഹ്മ	-10.2341
▁ഇത്ഥന്നാമസ്സ	-10.2341
▁താദിസ	-10.2341
പദാനി	-10.2342
▁മഹാനാമ	-10.2343
▁ഛത്ത	-10.2344
▁൧൦൪	-10.2346
▁പുരിസം	-10.2346
▁മജ്ഝ	-10.2351
▁ഭുഞ്ജതി	-10.2351
ിമ്ഹ	-10.2352
▁അതീതാനാഗത	-10.2354
സുവണ്ണ	-10.2355
ജാനന	-10.2355
▁പഞ്ചമേ	-10.2365
▁ഭണ്ഡം	-10.2365
▁ഭൂമിയം	-10.2365
▁തദാരമ്മണ	-10.2365
▁പത്തേ	-10.2368
ഭയം	-10.2371
▁സിക്ഖതി	-10.2382
സമാ	-10.2382
▁ഭേദോ	-10.2385
▁ദബ്ബ	-10.2386
▁ആപത്തിസമുട്ഠാന	-10.2387
▁വേമതികോ	-10.2392
▁ദുബ്ബല	-10.2392
▁സപ്പ	-10.2393
▁ദക്ഖ	-10.2394
്	-10.2399
▁പക്ക	-10.24
▁സുവിഞ്ഞേയ്യമേവ	-10.2402
▁സങ്ഖം	-10.2403
▁ത്വേവ	-10.2404
▁പരിനിബ്ബാന	-10.2422
▁സങ്ഖേപതോ	-10.2422
ദിസ	-10.2428
ദ്വേ	-10.243
ഗാഥായ	-10.2431
▁വിത്ഥാര	-10.245
▁സമ്പത്ത	-10.2458
▁വുച്ചതീ	-10.246
▁അട്ഠകഥാ	-10.2463
മ്പ	-10.2467
▁യസ	-10.2467
▁പുത്താ	-10.2469
▁പരിയത്തി	-10.2474
▁നിക്ക	-10.2476
ഭൂതേ	-10.2482
▁യുത്തോ	-10.2485
നിരോധ	-10.2486
▁താദിസോ	-10.2489
▁ഞത്തി	-10.2491
▁നിസിന്നം	-10.2491
▁ഭിക്ഖുസങ്ഘസ്സ	-10.2492
▁പീത	-10.2495
▁ദ്വേപി	-10.2496
▁ആസവ	-10.2497
വണ്ണാ	-10.2501
▁വദേസി	-10.2502
▁ഉച്ച	-10.2506
▁ജഹ	-10.2507
ത്വ	-10.251
▁തതിയാ	-10.2511
▁വസം	-10.2511
▁ഓകാസ	-10.2512
▁നാമേന	-10.2515
സ്സപി	-10.2517
സമയോ	-10.2518
▁യമ്പി	-10.2527
▁ആപത്തീനം	-10.2529
▁സക്കച്ചം	-10.253
പഞ്ഞോ	-10.253
▁സുര	-10.2532
▁ഏതാ	-10.254
▁നിവാസേത്വാ	-10.2547
▁ദസഹി	-10.2549
ങ്ക	-10.2549
ിസ്സസി	-10.2549
കരണീയ	-10.255
▁യന്തി	-10.2551
▁൧൦൭	-10.2555
▁ജിവ്ഹാ	-10.2558
▁ദൂര	-10.2561
▁നാപി	-10.2563
▁സുഗത	-10.2563
ിംസൂതി	-10.2568
ണ്ണ	-10.2569
ോസി	-10.2574
▁പടിപജ്ജ	-10.2575
സമ്പയുത്താ	-10.2576
▁പാണാതിപാതാ	-10.2579
▁ഗന്തബ്ബം	-10.2582
▁തമഹം	-10.2593
▁സവന	-10.2597
▁ദള്ഹം	-10.2601
▁വൂപസമ	-10.2602
കീ	-10.2603
▁ഗമനം	-10.2604
▁അപരേ	-10.2607
കുസലാ	-10.2608
▁പാര	-10.261
▁അവിദൂരേ	-10.2611
▁വിപ്പയുത്തേ	-10.2612
▁തിട്ഠ	-10.2614
സമ്പന്ന	-10.2615
▁പച്ചക്ഖ	-10.262
▁സഹായ	-10.262
▁ഭവാ	-10.2622
ിയമാനോ	-10.2624
▁സംവത്തന്തി	-10.2626
▁൧൦൫	-10.2632
▁സങ്ഘാദിസേസസ്സ	-10.2633
▁ബ്യ	-10.2635
▁ആരോചേസി	-10.2636
▁രക്ഖതി	-10.264
കത്താ	-10.2641
▁നിക്ഖിപ	-10.2644
▁ദിബ്ബേന	-10.2649
ുജ്ജ	-10.265
▁ആരോച	-10.2655
▁സേവ	-10.2658
▁നദസ്സനേന	-10.2661
▁വിനാസ	-10.2661
വദ	-10.2663
▁ദേവലോകേ	-10.2668
▁പച്ചയാനുലോമം	-10.268
▁വിഭത്തി	-10.2681
താദി	-10.2682
▁അഹമ്പി	-10.2683
▁പടിപ്പസ്സമ്ഭ	-10.2683
▁൧൦൬	-10.2685
▁ചാരികം	-10.2694
ിന്ദ്രിയ	-10.2694
▁രോദ	-10.2696
▁അപ്പമാദ	-10.27
▁ഥിര	-10.2702
▁കന്ത	-10.2705
▁സാവകാനം	-10.2705
സദ്ദാ	-10.271
▁വേദിതബ്ബാനി	-10.2711
ഭത്തം	-10.2718
▁യാന	-10.272
▁൧൧൦	-10.272
▁ഛന്ന	-10.2727
▁ഇമമത്ഥം	-10.2727
▁൪൮	-10.2739
നിദ്ദേസ	-10.2739
സീലം	-10.2742
▁അദ	-10.2749
▁തമ്ഹാ	-10.276
▁കച്ചി	-10.276
▁ലഹു	-10.2763
േതേ	-10.2766
▁കങ്ഖാ	-10.2768
▁കബളീകാരോ	-10.2773
▁പഹാതബ്ബഹേതുകം	-10.2778
▁ജരാമരണ	-10.2778
പ്പത്താ	-10.2782
നിപാത	-10.2783
▁കടത്താരൂപം	-10.2784
▁പരേഹി	-10.2784
▁ഗേഹേ	-10.2788
▁ചതുസച്ച	-10.279
▁സംസട്ഠോ	-10.2791
▁ദസ്സനായ	-10.2791
▁സദ്ദഹ	-10.2794
ങ്ഗം	-10.2795
▁നിരുജ്ഝിസ്സതീതി	-10.2797
▁ഗേഹം	-10.2798
▁അബ്യാകതസ്സ	-10.2798
സരീര	-10.28
ാപദാനം	-10.2804
▁൬൩	-10.2811
▁സഞ്ഞം	-10.2812
▁പുരാണ	-10.2812
മ്ഹീതി	-10.2816
പഥ	-10.2817
▁സമ്ബുദ്ധോ	-10.2817
▁ആരദ്ധം	-10.2825
▁നിരനുസയോ	-10.2826
▁പാത	-10.2841
വാദാ	-10.2845
▁ലദ്ധം	-10.2849
▁പഹീന	-10.2855
യേന	-10.2855
▁ലാമക	-10.2856
സന്ധി	-10.286
▁പടിഗ്ഗഹേത്വാ	-10.2861
▁സൂചി	-10.2863
സ്മിന്തി	-10.2864
▁ഓലോകേന്തോ	-10.2864
ഗാമി	-10.2867
▁അപരോ	-10.2867
▁പച്ചയചതുക്കം	-10.2868
സമണ	-10.2872
▁ഫലസ്സ	-10.2874
▁അസ്സാ	-10.2874
▁വത്തം	-10.2875
▁വിന	-10.2877
ചാര	-10.2882
▁കട്ഠ	-10.2885
▁ഇതരേ	-10.2885
▁മു	-10.2888
▁മുസാവാദ	-10.2896
▁ബഹുലം	-10.2898
▁സദ്ദാ	-10.2901
▁സാമണേരോ	-10.2904
ിതത്തം	-10.2907
▁ജിഗുച്ഛ	-10.2909
▁നീഹര	-10.2915
▁ദസ്സേതുമാഹ	-10.2915
▁ചേത	-10.2917
▁കുമാര	-10.2918
▁വത്തബ്ബ	-10.2922
▁കഥിതോ	-10.2926
▁൫൧	-10.2927
രണ	-10.2929
മ്ഹീ	-10.2933
വനേ	-10.2933
മിഗ	-10.2936
▁വക്ഖതി	-10.2937
▁ചിര	-10.2938
▁പാരാജികസ്സ	-10.2939
▁സയ	-10.294
▁കായതോ	-10.2942
▁പനായം	-10.2942
▁ഇതരോ	-10.2948
▁മംസം	-10.295
നിസ്സിത	-10.2951
▁പത്താ	-10.2954
▁പഞ്ചമോ	-10.2955
▁൧൦൯	-10.2959
▁പുബ്ബഭാഗ	-10.2962
▁സിപ്പ	-10.2963
▁൧൧൫	-10.2967
▁പരിക്ഖാര	-10.297
മാല	-10.2979
▁സോതാപന്നോ	-10.298
ഗ്ഗം	-10.298
ഗന്ഥ	-10.2984
▁ഉപകാര	-10.2988
ദയോ	-10.2989
▁പച്ഛാജാതപച്ചയേന	-10.299
സനിദസ്സനസപ്പടിഘം	-10.2992
▁അധിഗത	-10.2992
സാസന	-10.2992
▁ലബ്ഭന്തി	-10.2993
യദി	-10.2995
▁സുതന്തി	-10.2997
▁സസ	-10.3003
▁പാതിമോക്ഖ	-10.3003
ാധി	-10.3008
▁തിണ്ണന്നം	-10.301
ത്തി	-10.3012
▁ആഹാരം	-10.3014
▁തഥാഗതം	-10.3016
▁അബ്യാകത	-10.302
▁നാഹം	-10.3021
▁ഓദാത	-10.3021
▁വിനയോ	-10.3022
▁ആദീനവം	-10.3027
▁വിഗ്ഗഹോ	-10.3027
▁ഥൂപ	-10.3028
▁വേളു	-10.3031
▁താല	-10.3031
▁തമേനം	-10.3035
▁നാമാ	-10.3037
പടിവേധ	-10.304
▁ദുഗ്ഗതി	-10.304
▁൧൦൧	-10.3041
കങ്ഖ	-10.3044
▁അഹേതുക	-10.3044
▁നീഹരിത്വാ	-10.3045
▁പാണി	-10.3047
▁ജാനാതീതി	-10.3048
്യാ	-10.3049
ദിസം	-10.305
▁പിയാ	-10.3053
▁അധമ്മ	-10.3053
▁അഭിധമ്മ	-10.3053
▁ഖീണാസവോ	-10.3054
▁സുദ്ധം	-10.3055
രിയ	-10.3057
▁ഠപേസി	-10.3059
▁അനുസ്സര	-10.3059
▁ജയ	-10.306
▁പരിസുദ്ധ	-10.3062
▁ചതുരോ	-10.3062
ജാതാ	-10.3063
▁വിജ്ഝ	-10.3067
▁അഭിഭുയ്യ	-10.3069
ഹീന	-10.3069
▁൧൦൮	-10.307
▁സേസേസുപി	-10.3074
▁൧൧൩	-10.3075
സീലോ	-10.3076
തേവ	-10.3082
▁നനഹേതു	-10.3083
▁തിക്ഖത്തും	-10.3083
▁മോഗ്ഗല്ലാന	-10.3085
▁ഉളാര	-10.3088
▁ആസ	-10.3093
സങ്ഖാതസ്സ	-10.3097
▁കൂട	-10.3098
മിതി	-10.31
▁നിസ്സഗ്ഗിയ	-10.3103
▁പിണ്ഡപാത	-10.3106
▁കസ	-10.3109
▁പനാതി	-10.3113
▁പിയോ	-10.3115
▁ഏകത്ത	-10.3117
ഭാര	-10.3118
▁കരണീയം	-10.3127
▁൧൧൬	-10.3128
▁പവുച്ചതി	-10.313
▁ദുട്ഠ	-10.313
▁സങ്ഖ	-10.3131
കാമാ	-10.3134
▁സമ്ബന്ധ	-10.3145
▁പടിഘ	-10.3151
കതോ	-10.3155
കൂട	-10.3159
വന്ത	-10.316
▁ഝ	-10.3161
▁കത്തരി	-10.3163
▁കന്ദ	-10.3164
▁വിസിട്ഠ	-10.3172
ഭാ	-10.3183
▁മാണവോ	-10.3183
▁നമസ്സ	-10.3184
▁അദുക്ഖമസുഖായ	-10.3189
ഹരണ	-10.319
േസ	-10.319
മാനസ്സ	-10.319
▁സതിപട്ഠാനാ	-10.3197
▁ജവന	-10.3201
▁പച്ചേകം	-10.3201
▁ബ്യാകാസി	-10.3203
▁സത്ഥരി	-10.3203
▁പുര	-10.3205
▁ധുവ	-10.3205
▁വണ്ണേന	-10.3206
ഭിന്ന	-10.3209
▁ബുദ്ധേ	-10.3216
▁പബ്ബാജ	-10.3216
▁ഉക്കട്ഠ	-10.3217
▁ലബ്ഭമാന	-10.322
രോഗ	-10.3221
പരിഭോഗ	-10.3222
▁പേസ	-10.3227
▁അദ്ദസ	-10.3228
▁മഹാവീര	-10.3229
▁പരിനിബ്ബന്താന	-10.3232
▁ഉപേതി	-10.3236
▁ഘ	-10.3237
▁സമാസ	-10.324
▁ചക്ഖുമാ	-10.3241
▁സവിതക്കസവിചാരോ	-10.3243
മിസ്സക	-10.3253
▁ഓലോകേത്വാ	-10.3255
▁അഹേതുകം	-10.3256
▁൬൪	-10.3262
സംയോജന	-10.3265
വിപസ്സനാ	-10.3265
▁അനി	-10.327
▁സുഖേന	-10.3271
▁പരിഹായതി	-10.3273
പേക്ഖ	-10.3273
▁ദേവേ	-10.3274
▁തസ്മിംയേവ	-10.3276
▁ഏകേനായതനേന	-10.3276
ചരിത	-10.3277
▁ചമ്മ	-10.3282
▁മുത്തോ	-10.3282
▁സചേപി	-10.3287
▁സീമാ	-10.3287
▁അധിക	-10.3295
▁ദേസേ	-10.3298
▁ഗോതമസ്സ	-10.3301
▁ചാഗ	-10.3302
▁ആരോപേത്വാ	-10.3302
ട്ഠി	-10.3303
ഇതോ	-10.3305
▁അനുപുബ്ബ	-10.3305
വാദോ	-10.3305
നഇന്ദ്രിയേ	-10.3306
▁നിക്ഖന്ത	-10.3307
▁വിഞ്ഞത്തി	-10.3314
▁വിമോക്ഖ	-10.3315
സാമി	-10.3315
വേദ	-10.3319
▁അഥോ	-10.332
▁ഫാസു	-10.3321
▁അരഹന്തോ	-10.3323
▁ചായം	-10.3325
▁ഉദ്ധര	-10.3327
ലമ്ബ	-10.3328
▁ഭിന്ദ	-10.3333
▁യാവജീവം	-10.3333
▁സദ്ധ	-10.3334
▁വിഞ്ഞാത	-10.334
പാന	-10.3342
▁ജാനം	-10.3347
▁പസന്നോ	-10.3348
▁കേവല	-10.3352
▁ഇന്ദ്രിയാനം	-10.3353
▁മഹേസിനോ	-10.3353
പ്പത്ത	-10.3354
യാമ	-10.3359
▁ധമ്മദേസനാ	-10.3359
വത്ഥുസ്മിം	-10.3359
ട്ട	-10.3363
▁യക്ഖോ	-10.3365
▁ഗോത്രഭു	-10.3369
▁പാസ	-10.3371
▁പപഞ്ച	-10.3373
▁ക്രിയാ	-10.3374
▁അട്ഠമേ	-10.3377
▁നിരുത്തി	-10.3378
▁മച്ചു	-10.3378
പൂര	-10.3379
ബോധി	-10.338
▁സത്താഹ	-10.3381
യദാ	-10.3382
▁കുമാരോ	-10.3382
▁ദസവിധ	-10.3385
സഭാവോ	-10.3388
▁൧൧൨	-10.3395
നീല	-10.3397
▁അസുക	-10.34
വസാനേ	-10.34
▁ദ്വത്തിംസ	-10.3402
വാരവണ്ണനാ	-10.3403
കാതി	-10.3403
▁വത്തമാന	-10.3404
വിഹാരേ	-10.3405
▁വാര	-10.3412
നഗര	-10.3415
▁സുഖസ്സ	-10.3418
▁ലദ്ധി	-10.3419
നിരോധോ	-10.3424
▁൧൧൮	-10.3425
▁നഅധിപതിപച്ചയാ	-10.343
▁പട	-10.343
▁നിയത	-10.343
▁കഥേത്വാ	-10.3431
▁ധമ്മവിനയേ	-10.3433
ാരമ്മണാ	-10.3434
▁ബാലാ	-10.3436
മിസ്സ	-10.3439
▁സമയോ	-10.344
▁ആദീനവോ	-10.344
▁ലോകാ	-10.3441
▁യദ	-10.3445
▁ഹരിത	-10.3448
വിഭത്തി	-10.3449
▁ചിത്തഞ്ച	-10.3457
കാലം	-10.3462
പഹാന	-10.3462
കാരക	-10.3463
പാല	-10.3465
▁സബ്ബദാ	-10.347
▁പവത്തിം	-10.3471
▁ഉദ്ധച്ച	-10.3474
▁വിജാന	-10.3479
പഠമ	-10.348
▁സുഗതിം	-10.348
▁വിചാരോ	-10.3481
ഠ	-10.3487
▁കാമരാഗാനുസയേന	-10.349
▁പകതിയാ	-10.3491
മിച്ഛ	-10.3492
▁ഥോകം	-10.3493
▁തരുണ	-10.3493
ഇ	-10.3495
▁കായായതനം	-10.35
തഥാ	-10.3502
▁കത്വാന	-10.3503
▁ദുവിധ	-10.3503
▁വിഗതേ	-10.3504
▁നീവരണ	-10.3504
പരിവാര	-10.3505
▁സുണ	-10.3505
▁ഉഗ്ഗണ്ഹ	-10.3505
ഏവമേവ	-10.3506
വോഹാര	-10.3506
▁ഓഘ	-10.3508
പദേ	-10.351
▁ഉഭോപി	-10.3514
പഞ്ഞ	-10.3514
▁ഭാവിത	-10.3515
▁പസ്സിത്വാ	-10.3515
▁നആരമ്മണപച്ചയാ	-10.3518
▁ഉപാസക	-10.3519
▁സകിം	-10.352
▁അയമത്ഥോ	-10.3529
▁ബാരാണസിയം	-10.3532
▁സുമനോ	-10.3537
▁ബ	-10.3542
നാദി	-10.3554
▁പഠമാ	-10.3557
പജ്ജ	-10.3558
▁വുട്ഠായ	-10.3561
▁ചക്ഖുന്ദ്രിയഞ്ച	-10.3562
▁തനു	-10.3563
▁നിവാസ	-10.3565
▁അവുത്ത	-10.3566
▁ആഹാരപച്ചയേന	-10.3566
▁ആഗമന	-10.3567
▁പബ്ബജ്ജം	-10.3567
▁സമഥവിപസ്സനാ	-10.3568
കണ്ണ	-10.3568
▁ഭദ്ദ	-10.357
▁ഘന	-10.3575
▁കിമ	-10.3577
ഭൂതേന	-10.3577
പിണ്ഡ	-10.3579
▁സരേ	-10.358
▁നോഉപാദാ	-10.3591
▁ആഹംസു	-10.3591
▁മാസേ	-10.3595
▁ദ്വാരം	-10.3596
▁പുരേജാതേ	-10.3597
▁ആഗച്ഛന്തി	-10.3599
▁വിഭജ	-10.3603
▁വസതി	-10.3605
▁യാഗു	-10.3608
▁സമന്നാഗതസ്സ	-10.3609
▁കുമ്ഭ	-10.3611
▁തികം	-10.3612
കാമോ	-10.3616
മദ	-10.3616
▁അനത്തതോ	-10.3617
തരാ	-10.3617
▁വുത്തോതി	-10.3621
▁ഹാരോ	-10.3624
▁ആഗച്ഛ	-10.3627
▁സത്തമ	-10.3631
ഹേതുക	-10.3634
▁മാനസം	-10.3635
▁അഞ്ജലിം	-10.3635
സഞ്ച	-10.3636
▁അനുപുബ്ബേന	-10.3637
ാഥ	-10.3638
▁൧൧൪	-10.3639
▁സങ്ഖാരാനം	-10.364
ദ്വാരേ	-10.3641
▁അനഞ്ഞ	-10.3642
ത്തികം	-10.3647
▁നഅബ്യാകത	-10.3648
▁നിസിന്നാ	-10.3649
ത്തേന	-10.3656
▁പഞ്ചഹങ്ഗേഹി	-10.3656
▁പുഥുജ്ജന	-10.3658
▁അഗ്ഗോ	-10.366
ോപ	-10.3663
▁കാമരാഗ	-10.367
▁നിഗ്ഗഹ	-10.3675
യിംസു	-10.3676
ബഹുലോ	-10.3676
▁വുത്തപ്പകാര	-10.3678
▁വചീകമ്മം	-10.3679
▁അധിപ്പേതം	-10.3679
▁ഹദയം	-10.3679
▁ഫരിത്വാ	-10.3683
▁മാതികാ	-10.3685
▁കിമത്ഥം	-10.3686
▁ഛട്ഠേ	-10.3695
▁ഉപ്പാദോ	-10.3695
▁൧൧൯	-10.3697
▁നാഭി	-10.3697
▁വിരാഗ	-10.3704
▁ഹംസ	-10.3705
▁൧൧൧	-10.3705
▁അഞ്ഞതരസ്മിം	-10.3706
പാത	-10.3707
▁വിമോക്ഖോ	-10.3707
യഞ്ച	-10.3709
ാല	-10.3709
സിദ്ധ	-10.3712
▁ഉപാദാ	-10.3712
▁സിയും	-10.3716
▁വാരേ	-10.3717
സ്സാദ	-10.3717
▁ഇതരസ്സ	-10.3723
▁സംഖിത്തേന	-10.3723
ബ്രാഹ്മണ	-10.3723
▁പത്ഥയ	-10.3725
സമ്ബോജ്ഝങ്ഗോ	-10.3726
ിതബ്ബന്തി	-10.3727
▁സമ്മോഹ	-10.3729
ഭാവാ	-10.3731
▁ജാന	-10.3733
▁ദസ്സിതം	-10.3734
▁ചുതോ	-10.3735
പാക	-10.3741
▁നച്ച	-10.3742
സരണ	-10.3742
▁ഏത	-10.3743
▁ചത്താലീസ	-10.3745
▁ഗുണേ	-10.3753
▁സങ്ഖ്യാവാരോ	-10.3754
▁ജോതി	-10.3756
▁അരിയം	-10.3758
▁ജേട്ഠ	-10.3758
▁ഹിംസ	-10.376
▁സിബ്ബ	-10.3767
▁പദേഹി	-10.3767
▁പടിച്ഛന്ന	-10.3768
പഞ്ഞാസ	-10.3772
▁ഉപപത്തി	-10.3772
മനാ	-10.3772
▁അന്തരഘരേ	-10.3779
▁സമുദയ	-10.3785
ന്തരം	-10.3787
▁സാവകോ	-10.3796
▁പടിക്കമ	-10.3799
രാഗോ	-10.3802
▁ഗവേസ	-10.3803
▁മതം	-10.3805
▁ചുന്ദ	-10.3805
▁ഉപട്ഠാന	-10.3816
▁അനുക്കമേന	-10.3819
▁വിവിധ	-10.382
▁സിരി	-10.382
▁ലോകിയലോകുത്തര	-10.3821
▁നാമരൂപം	-10.3828
സാല	-10.3829
▁സമഗ്ഗ	-10.3833
▁ചേപി	-10.3836
▁ലഭന്തി	-10.3839
▁വിസ്സജ്ജ	-10.3839
▁അവിതക്കഅവിചാര	-10.3851
▁മയി	-10.3853
▁അസങ്ഖത	-10.3854
▁ദസമേ	-10.3856
▁അനഞ്ഞാതഞ്ഞ	-10.3857
▁ഉട്ഠായാസനാ	-10.3857
▁മഗ്ഗാധിപതി	-10.386
▁ഗന്ധോ	-10.3863
▁കഥേന്തോ	-10.3863
▁സമുട്ഠാന	-10.3868
▁ധോവ	-10.3869
വാഹ	-10.387
മോഹ	-10.3871
▁ഛേത്വാ	-10.3872
▁ബ്യാധി	-10.3872
സമ്മാസമ്ബുദ്ധസ്സ	-10.3874
▁ഗതേ	-10.3874
▁ആസേവനപച്ചയ	-10.3875
▁പിതരം	-10.3876
▁പടിക്ഖിപതി	-10.3881
▁അകുസലസ്സ	-10.3884
▁ഖന്തി	-10.3888
▁അലങ്കാര	-10.3893
▁വങ്ക	-10.3894
ദുതിയ	-10.3897
▁അനുസയ	-10.3898
▁സുക്ഖ	-10.39
▁രൂപാ	-10.3903
▁മാതരം	-10.3904
തല	-10.391
▁ലോകുത്തരം	-10.3914
▁പകാരേന	-10.3915
▁ഇത്ഥീനം	-10.3916
▁കാമാവചരം	-10.3916
ഭവേ	-10.3918
▁൧൧൭	-10.3919
▁വേരമണീ	-10.3919
ിസ്സാമീതി	-10.392
▁പടിഭാന	-10.3921
കട്ഠ	-10.3926
▁നിസ്സരണ	-10.3935
▁നിന്ന	-10.3938
സദ്ദം	-10.3946
പഞ്ഞായ	-10.3954
▁ബഹുവചന	-10.3954
ചോര	-10.3961
▁മജ്ജ	-10.3963
▁പുഗ്ഗലേ	-10.3963
▁ഖര	-10.3965
ഏത	-10.3967
സും	-10.3969
▁വസന്തി	-10.3971
പടിലാഭ	-10.3975
▁ഭവരാഗാനുസയോ	-10.3976
ധനം	-10.3976
▁കിത്തി	-10.3978
▁ചതുക്ക	-10.3978
▁പഞ്ഞവാ	-10.3979
▁വിസേസന	-10.3979
▁സീലേന	-10.398
യും	-10.3982
മിത്ത	-10.3987
▁പത്തകല്ലം	-10.3988
▁മേധാവീ	-10.3988
▁ചുതി	-10.3989
▁ഹോമി	-10.3992
▁ഗാഥാഹി	-10.3996
മുത്തമം	-10.3999
▁ആപോധാതു	-10.4002
നിബ്ബാന	-10.4002
▁അച്ചയേന	-10.4003
▁ഉപ്പല	-10.4004
കുമ്ഭ	-10.4005
▁ഗാമോ	-10.4007
പ്പസാദ	-10.401
▁ഠിതേ	-10.4011
▁ഞായ	-10.4015
▁സാവ	-10.4016
പക്ഖേ	-10.4023
▁പതിട്ഠായ	-10.4025
▁പടിപദം	-10.4029
യീ	-10.4029
▁അന്തേ	-10.4032
▁ദിസ്സന്തി	-10.4033
ോദക	-10.4034
▁ദുക്കടസ്സാ	-10.4034
▁പച്ഛാജാതം	-10.4035
▁ഉപ്പന്നേ	-10.4035
▁മാനാനുസയഞ്ച	-10.404
▁ഥൂല	-10.4044
▁ഉപസമ്പദാ	-10.4047
▁അഗ്ഗിം	-10.4051
▁വിഹരതോ	-10.4051
▁സതസഹസ്സ	-10.4052
▁ഹേ	-10.4054
▁കോധോ	-10.4056
▁ഹിരീ	-10.4057
▁സൂരിയ	-10.4057
▁ജാനന്തോ	-10.4063
ധര	-10.4067
▁ഖിപ	-10.4067
▁ഥുല്ലച്ചയ	-10.4071
▁ഇതരാ	-10.4074
ഫസ്സ	-10.4077
ത്തയം	-10.4085
▁ഭൂ	-10.4086
ഹന്തി	-10.4092
▁പേത	-10.4092
▁ആയസ്മതാ	-10.4094
▁പഗ്ഗയ്ഹ	-10.4095
▁പരിച്ഛേദ	-10.4101
▁കിഞ്ച	-10.4102
▁അവയവ	-10.4103
▁പസ്സന്തി	-10.4106
യേവാ	-10.4106
ാപേയ്യ	-10.4106
▁ഗൂഥ	-10.4111
▁ലഗ്ഗ	-10.4112
▁നിസീദതി	-10.412
▁ഇദാനേവ	-10.4121
▁സബ്ബേവ	-10.4121
ഗമനം	-10.4122
▁സപ്പുരിസ	-10.4123
രസാ	-10.4124
▁സയന	-10.4126
▁സങ്ഗ	-10.4128
▁ചക്ഖായതനഞ്ച	-10.4131
മനസികാര	-10.4132
▁ഗണ്ഹന്തി	-10.4132
▁ഗഹേത്വാന	-10.4134
▁ബോധ	-10.4137
▁ഭാസേയ്യ	-10.4145
▁ജനപദ	-10.4146
▁തസ്സാതി	-10.4146
▁പവത്തോ	-10.4147
▁മല	-10.4149
▁മാനത്തം	-10.4152
തത്ര	-10.4154
▁പബ്ബജിതാ	-10.4156
വിഭങ്ഗ	-10.4157
▁തപ്പ	-10.4158
▁പച്ചവേക്ഖതി	-10.4158
ഗമ്ഭീര	-10.4159
▁പരഞ്ച	-10.4161
▁പദക്ഖിണം	-10.4163
▁ഇതരം	-10.4163
▁സാമണേര	-10.4163
നിരോധാ	-10.4167
പ്പമാണം	-10.4167
▁അഭിഞ്ഞേയ്യം	-10.4175
▁ധമ്മഞ്ച	-10.4177
▁സീഹോ	-10.4178
മാനസോ	-10.4179
▁പദേ	-10.4183
▁താസു	-10.4183
ാദോ	-10.4185
സഹഗത	-10.4186
▁കല	-10.4187
ാനുഭാവേന	-10.4189
▁പജാ	-10.4193
▁സമ്ബുദ്ധം	-10.4196
▁ബ്യാപാദ	-10.4196
▁ഭൂമീസു	-10.4199
▁പടിഞ്ഞാ	-10.4203
വത്തം	-10.4204
വിസയേ	-10.4208
▁സുഗതി	-10.4211
▁യ്വായം	-10.4213
▁ഉപായ	-10.4215
▁സസ്സത	-10.4215
▁ചേതസികം	-10.4216
▁അസേക്ഖ	-10.4216
▁സബ്ബാപി	-10.4216
▁പിണ്ഡപാതം	-10.4223
▁ഓവാദം	-10.4224
▁സോമനസ്സം	-10.4226
ധമ്മേസു	-10.4229
▁ഉപ്പന്നസ്സ	-10.4234
▁ഉപസങ്കമ	-10.4235
▁ഏഹി	-10.4236
▁വുത്തമേവ	-10.4237
▁പച്ഛാജാതാ	-10.4241
▁തേസംയേവ	-10.4241
▁കമ്പ	-10.4244
കുമാര	-10.4245
▁പച്ചുപ്പന്നം	-10.4246
▁തിവിധം	-10.4246
–-	-10.4249
▁നേവസേക്ഖനാസേക്ഖ	-10.4255
▁നുപ്പജ്ജിത്ഥ	-10.4261
ഗാമേ	-10.4266
▁പരിജാനാതീതി	-10.4266
നേയ്യ	-10.4267
▁സമാദപേതി	-10.4269
▁ദേവേസു	-10.427
▁പുത്തേ	-10.4273
ിനി	-10.4276
▁ദാ	-10.4278
▁ഇദ്ധിയാ	-10.4281
മത്തോ	-10.4281
ആദീനി	-10.4282
▁അനോ	-10.4282
ദിസാ	-10.4289
ൂപമാ	-10.4291
മേക	-10.4292
▁മനാപ	-10.4292
▁ഉദ്ധച്ചം	-10.4294
മാലാ	-10.4295
▁അനവസേസ	-10.4295
സങ്ഗഹോ	-10.4303
▁കടത്താ	-10.4303
▁പാക	-10.4304
▁പവിട്ഠ	-10.4306
▁ഹാര	-10.4307
▁മയ	-10.431
▁അപനേത്വാ	-10.4311
നഗരം	-10.4312
▁പതിട്ഠിത	-10.4314
▁അഭയ	-10.4314
▁ഉപപജ്ജിത്വാ	-10.4314
▁നിസീദിംസു	-10.4315
▁അസീതി	-10.4316
▁വേദയിതം	-10.4317
▁രട്ഠ	-10.4317
ദായക	-10.4322
▁നാനപ്പകാര	-10.4324
▁ദിസായ	-10.4327
ത്ഥസ്സ	-10.4329
▁സമേതി	-10.433
▁സബ്ബസ്സ	-10.4331
▁വിഞ്ഞാണസ്സ	-10.4332
▁പീതിയാ	-10.4333
▁ഉപജ്ഝായ	-10.4337
അട്ഠകഥായ	-10.4341
▁പാകടാ	-10.4342
ഭങ്ഗ	-10.4344
▁ഗഹ	-10.4347
നാനത്ത	-10.4347
▁മേത്തായ	-10.435
ആവുസോ	-10.4352
▁ദേഹി	-10.4356
ിസ്സാമ	-10.4358
വിഭാഗ	-10.4358
േന്തസ്സ	-10.4359
▁മാനം	-10.4362
സങ്ഗ	-10.4362
▁വാചതോ	-10.4364
▁പക്കമതി	-10.4367
▁കിന്തി	-10.4368
പട്ട	-10.4368
▁ഖയാ	-10.4373
▁വഹ	-10.4376
▁അഭാവേന	-10.4379
▁മോദ	-10.438
▁സങ്ഗഹം	-10.4381
സാധന	-10.4382
▁ചന്ദന	-10.4389
▁ബ്രൂമി	-10.4391
മഭി	-10.4392
ക്ഖത്തും	-10.4395
▁ഭാവേതബ്ബാ	-10.4397
▁ഉപനിസ്സയ	-10.4401
▁പഹാനാ	-10.4406
ഖന്ധ	-10.4406
▁പടിഗ്ഗണ്ഹ	-10.4408
▁വിഹരേയ്യ	-10.441
▁ആവജ്ജ	-10.441
▁സദ്ദേ	-10.4411
സേന	-10.4414
▁ആവാസേ	-10.4415
▁പുരിമനയേനേവ	-10.4419
▁ബ്യാ	-10.4423
▁ദേസിതം	-10.4423
▁ഉഗ്ഗത	-10.4423
▁അയമ	-10.4428
▁അമ്ഹേ	-10.4429
ചരണ	-10.443
▁ആന	-10.4434
▁സമ്പത്തി	-10.4434
▁പഞ്ഹാ	-10.4435
▁ദഹര	-10.4443
▁നവമേ	-10.4444
▁മുച്ചതി	-10.4445
▁ആസനം	-10.445
▁അട്ഠഹി	-10.4451
▁ഗണ്ഹി	-10.4452
ണോ	-10.4454
ദീഘ	-10.4461
ന്ധ	-10.4462
▁അപ്പമത്തോ	-10.4463
പരിയാപന്ന	-10.4463
▁നിപാത	-10.4464
ിതാനി	-10.4465
േസ്സാമി	-10.4466
ാപീതി	-10.4468
▁കമ	-10.4479
▁ഝായീ	-10.4479
ലാഭ	-10.4479
▁വിചികിച്ഛാസഹഗത	-10.4481
▁വിസുദ്ധിമഗ്ഗേ	-10.4484
ലു	-10.4486
▁അനുരൂപ	-10.4487
▁താപസ	-10.4488
▁ബഹൂനി	-10.4489
ഞ്ഞാ	-10.4492
▁വീര	-10.4498
ിതുന്തി	-10.4503
പത്തി	-10.4505
▁ദക്ഖിണാ	-10.4506
ബലേന	-10.4507
▁ഖീണാസവസ്സ	-10.4507
പാസ	-10.4507
▁സഹധമ്മിക	-10.4512
▁പടിച്ചസമുപ്പാദ	-10.4514
സേയ്യ	-10.4515
▁സോച	-10.4515
▁കട	-10.4516
▁സേസോ	-10.4524
തായാതി	-10.4527
▁ചിത്തതോ	-10.4527
സേവന	-10.4528
▁അനന്തരൂപനിസ്സയോ	-10.4529
▁വസിത്വാ	-10.4531
▁വിസേസേന	-10.4533
▁ഉപ്പാദായ	-10.4535
▁കോസിയ	-10.454
ക്ഖര	-10.4544
മങ്ഗല	-10.4544
▁വിപുല	-10.4547
▁ദേവമനുസ്സാനം	-10.455
ാനന്ദ	-10.4552
▁ചരണ	-10.4553
▁സുത്വാന	-10.4558
മേത്ഥ	-10.456
പ്പഭേദ	-10.4563
▁പേക്ഖ	-10.4566
▁ആസവവിപ്പയുത്ത	-10.4572
വത്ഥൂനി	-10.4576
▁പത	-10.4577
▁ഇമ	-10.4582
▁അനാഗാമീ	-10.4585
▁ഥമ്ഭ	-10.4589
▁൧൨൦	-10.4591
▁ആവാസികാ	-10.4592
▁പാപുണ	-10.4592
▁മക്ഖ	-10.4592
▁ഉട്ഠായ	-10.4593
▁ഭിക്ഖുനിം	-10.4597
▁പരക്കമ	-10.4599
വിതക്കവിചാരമത്തോ	-10.46
▁പടിവേധ	-10.46
▁ഏതേനേവ	-10.4603
▁വുദ്ധ	-10.4606
▁പത്ഥ	-10.4612
▁സമയ	-10.4613
ത്വം	-10.4615
കാസി	-10.4616
ബഹു	-10.4616
▁വദന്തോ	-10.4617
▁അത്ഥീ	-10.4617
▁മഹാമുനി	-10.4618
കലാപ	-10.4621
പവത്ത	-10.4621
മത	-10.4625
▁മനോധാതു	-10.4627
ിതന്തി	-10.4627
▁സാനുസയോ	-10.463
▁ചന്ദോ	-10.4631
അഞ്ഞമഞ്ഞ	-10.4632
ബുദ്ധോ	-10.4635
▁അപരേന	-10.4638
▁ഭാര	-10.4641
▁സേയ്യ	-10.4642
▁അത്തമനോ	-10.4644
▁ദിവസം	-10.4644
സുപി	-10.4646
മത്തനോ	-10.4647
പടിപക്ഖ	-10.4647
കതമേ	-10.4648
▁തുമ്ഹേഹി	-10.4648
മുഖം	-10.465
അപ്പ	-10.4651
▁ഭോഗേ	-10.4654
യുത്തം	-10.4656
▁അര	-10.4658
▁ആരബ്ഭാതി	-10.4659
ഞ്ഞാതാവിന്ദ്രിയം	-10.4661
ാധിഗമ	-10.4662
▁സമ്മാസതി	-10.4663
▁പദേസേ	-10.4665
▁നിഗ്രോധ	-10.4666
▁സ്വേവ	-10.4666
പടിപത്തി	-10.4668
▁ഥുല്ലച്ചയം	-10.467
കരണേന	-10.4671
▁വാച	-10.4671
ോദകം	-10.4675
▁ആസിം	-10.4676
▁തിരിയം	-10.4678
▁അഭബ്ബോ	-10.468
▁വിസം	-10.4684
▁ദുക്ഖേ	-10.4686
▁അഭിനന്ദ	-10.4688
മുത്തോ	-10.4693
▁സബ്ബഞ്ഞുതഞ്ഞാണ	-10.4699
▁പാപകമ്മം	-10.4699
▁ചിത്തസംസട്ഠ	-10.4701
▁വനം	-10.4701
സന	-10.4702
▁ഓലോക	-10.4703
▁സത്ഥാരാ	-10.4704
▁പഞ്ഞ	-10.4713
▁പടിപാടിയാ	-10.472
▁മഹതോ	-10.4728
▁സമ്പന്ന	-10.4732
▁നഅകുസലോ	-10.4733
വാസി	-10.4736
ാസീതി	-10.474
▁വുട്ഠാന	-10.4742
▁ഉജു	-10.4742
▁ജായന്തി	-10.4743
▁ദുക്ഖന്തി	-10.4745
കഥായ	-10.4745
▁അപ്പഹീനോ	-10.4746
ഭു	-10.4753
൧൧	-10.4753
▁മനസികാരോ	-10.4754
▁ഉപ്പജ്ജേയ്യ	-10.4756
▁കമ്മാനം	-10.4759
വിധാന	-10.476
▁സുഖദുക്ഖ	-10.4764
▁സമ്പത്തേ	-10.4764
▁പിയം	-10.4766
▁മല്ല	-10.4767
▁ഉപാസികാ	-10.4769
ച്ഛേദ	-10.477
▁പദട്ഠാനം	-10.4771
വികപ്പ	-10.4771
യിത്വാന	-10.4776
ദേവതാ	-10.4776
▁സമത്ഥോ	-10.4778
ഗഹണ	-10.4781
▁പഞ്ഹോ	-10.4783
ചുണ്ണ	-10.4785
▁അരഹത്തമഗ്ഗ	-10.4789
▁ഉക്ഖിപിത്വാ	-10.4789
▁അനുഭവ	-10.4793
▁സുത്തന്ത	-10.4794
▁പത്തിയാ	-10.4799
▁ചക്കവാള	-10.4802
▁ഉപായേന	-10.4804
കഥഞ്ഹി	-10.4804
▁സോഹം	-10.4804
വസ്സം	-10.4805
▁പസ്സദ്ധി	-10.4805
നിസ്സിതം	-10.4806
▁അഭിവ	-10.4806
▁ബാധ	-10.4807
▁ഗോചര	-10.4807
ുപ്പന്ന	-10.4807
കരാ	-10.4808
▁അഗാരസ്മാ	-10.4812
▁ചതുബ്ബിധം	-10.4814
▁ദോമനസ്സിന്ദ്രിയ	-10.4818
സാഖ	-10.4818
▁പഹാതബ്ബ	-10.4819
▁ബലവാ	-10.482
ലഭ	-10.482
▁ചേതോ	-10.4821
▁സദ്ധം	-10.4823
▁മത്ത	-10.4825
ധാതുയാ	-10.4826
രജ്ജ	-10.4828
▁രഹ	-10.483
വാത	-10.483
▁ആലോകോ	-10.4831
അജ്ജ	-10.4831
കാരാ	-10.4834
▁യാചതി	-10.4837
▁സങ്ക	-10.4843
▁ഗിരി	-10.4845
▁പഹര	-10.4847
▁രുക്ഖോ	-10.4848
▁കത്തബ്ബം	-10.4849
▁ദുവിധോ	-10.4851
▁കുച്ഛി	-10.4852
ചരിയ	-10.4853
ോപമ	-10.4855
▁കാമാവചരാ	-10.4858
വിപല്ലാസ	-10.4861
▁സതിപി	-10.4861
▁അച്ച	-10.4864
▁കാര	-10.4869
▁പഹീയതി	-10.4869
▁പടിലഭിസ്സന്തി	-10.487
▁സമീപേ	-10.4872
▁പീള	-10.4874
▁നിദ്ദേസോ	-10.4875
▁പാപകം	-10.4875
▁അരിയാനം	-10.4877
വന്തം	-10.4878
▁മഗ്ഗഫല	-10.4883
▁ഇവ	-10.4885
▁സമൂഹ	-10.4886
▁സബ്ബലോക	-10.4887
▁അവിതക്കഅവിചാരോ	-10.4891
ദിട്ഠ	-10.4893
രുഹ	-10.4896
▁പുബ്ബേവ	-10.4896
ഗമ	-10.4896
▁സങ്ഖ്യാ	-10.4898
▁പക്കമ	-10.4899
ഭൂതസ്സ	-10.49
▁സല്ല	-10.4901
▁സബ്ബദിസാ	-10.4901
▁ദസ്സേസി	-10.4901
▁ഉപഗന്ത്വാ	-10.4902
ഥാതി	-10.4904
ഗോത്ത	-10.4908
▁അത്തതോ	-10.4915
▁വത്ഥം	-10.4919
വിജ്ജാ	-10.492
▁വോഹര	-10.4923
▁ആകാസാനഞ്ചായതന	-10.4923
▁അനുഞ്ഞാതം	-10.4925
▁നസരണ	-10.4926
▁ഭണന്തസ്സ	-10.4927
▁തതിയമ്പി	-10.4929
▁ഉപാദാനം	-10.4931
സ്വാഗതം	-10.4936
ാചാര	-10.4941
▁സേട്ഠി	-10.4942
▁സംസട്ഠാ	-10.4946
കമ്മസ്സ	-10.4947
പരിയായോ	-10.4949
കല്യാണ	-10.4952
▁വിമാന	-10.4955
▁ജഞ്ഞാ	-10.4958
▁ഛഡ്ഡേത്വാ	-10.4959
▁അദ്ധ	-10.4961
യമക	-10.4962
സായ	-10.4962
മൂലകം	-10.4962
സിയാ	-10.4968
▁വിരോച	-10.4969
▁സമണസ്സ	-10.4969
▁സോതായതനം	-10.4975
▁സീഘം	-10.4977
▁നത്ഥിയാ	-10.4984
▁ഹത്ഥതോ	-10.4987
▁ഏവമാദീസു	-10.4989
മധുര	-10.4989
▁ഇമിനാവ	-10.4989
മതി	-10.4992
▁സദ്ധോ	-10.4994
▁സമന്നാഗതം	-10.4996
ികേ	-10.4997
തൂതി	-10.5
ചീ	-10.5002
▁വസീ	-10.5004
▁അസക്കോന്തോ	-10.5006
ാനുരൂപം	-10.5009
മുഖോ	-10.501
▁കഹാപണ	-10.5011
ഗണനായ	-10.5014
▁ഏവമാഹംസു	-10.5015
▁ഹത്ഥപാദ	-10.5019
▁ആഗന്തുക	-10.502
▁൧൨൪	-10.5023
▁ജാനേയ്യ	-10.5024
▁൧൨൩	-10.5026
▁സങ്ഖത	-10.5027
▁ഇന്ദ്രിയപച്ചയേന	-10.503
▁ഹീതി	-10.5031
▁ദിട്ഠേ	-10.5033
സക്ക	-10.5033
അസ്സ	-10.5033
വാസിനോ	-10.5041
▁സഹസ്സം	-10.5043
▁സോതാപത്തിഫലേ	-10.5051
സമ്പന്നം	-10.5052
▁പസന്ന	-10.5054
▁നിബ്ബുതോ	-10.5056
രതി	-10.5057
ിധ	-10.5058
പദുമ	-10.5061
▁ഉപോസഥോ	-10.5062
▁വാദോ	-10.5063
▁ആഹു	-10.5063
▁മിസ്സക	-10.5066
▁പഥവി	-10.507
▁ഗിഹീ	-10.507
ാഹീ	-10.5071
സാമഞ്ഞ	-10.5071
▁ദാതബ്ബ	-10.5071
▁ഖന്ധേന	-10.5072
▁ഏകിസ്സാ	-10.5077
▁വിനിച്ഛയ	-10.5078
▁൧൨൨	-10.5078
സദ്ധാ	-10.508
സമ്മാ	-10.5091
ചമ്മ	-10.5092
▁തപോ	-10.5096
▁ബ്രഹ്മചരിയ	-10.5096
▁ജോത	-10.51
അനാപത്തി	-10.51
▁മഞ്ച	-10.5101
▁സൂകര	-10.5104
▁പയിരുപാസ	-10.5106
നന്ദ	-10.5106
▁കഥിന	-10.5108
▁സംവരോ	-10.5113
ിമം	-10.5118
▁ദേസിതാ	-10.5119
▁വുത്തമ്പി	-10.512
▁പാരം	-10.5121
▁സമുട്ഠാനേഹി	-10.5122
▁അത്തഭാവേ	-10.5123
▁അപ്പമാണ	-10.5125
▁ബോജ്ഝങ്ഗ	-10.5126
▁ഭോന്തോ	-10.5128
▁ഉപചാര	-10.5134
▁സമാപത്തിം	-10.5135
ഹത്ഥി	-10.5137
ഹേ	-10.5139
▁നിബ്ബാനസ്സ	-10.5141
▁ദുവിധം	-10.5142
▁അഭാവാ	-10.5145
സട്ഠി	-10.5148
▁സമു	-10.5149
രിവ	-10.515
▁യോഗ	-10.5151
▁ഥാമ	-10.5151
▁ഗുണാ	-10.5152
▁കിരിയ	-10.5155
▁സകട	-10.5156
ലോപ	-10.5157
▁കരോഥ	-10.5157
▁വിഭങ്ഗവാരോ	-10.5161
▁സക്കോന്തി	-10.5161
▁മനം	-10.5162
▁മനോവിഞ്ഞാണധാതു	-10.5169
▁ഗുണം	-10.5171
▁ഫോട്ഠബ്ബ	-10.5171
േസാ	-10.5173
ത്ഥേര	-10.5175
ഞ്ഛ	-10.5177
▁ഫോട്ഠബ്ബായതനം	-10.518
▁ചക്കവത്തി	-10.5182
▁പംസു	-10.5182
▁സൂരിയോ	-10.5183
▁മമം	-10.5187
മാദായ	-10.5188
ട്ഠേ	-10.519
▁പരിച്ഛിന്ന	-10.5194
▁മഹതാ	-10.5195
▁ബ്രൂഹി	-10.5196
▁സംകിലേസ	-10.5197
ലം	-10.5197
ങ്ഗുല	-10.5198
സമോ	-10.5199
▁ഇത്ഥിലിങ്ഗ	-10.52
▁സമ്മപ്പധാന	-10.5204
▁സാമ	-10.5206
േസൂ	-10.5207
യുത്താ	-10.5212
▁കുസലത്തിക	-10.5219
▁മനസികരോതോ	-10.522
▁കാരക	-10.5223
▁അനുജാന	-10.5223
കമ്മട്ഠാന	-10.5226
പസാദ	-10.5228
ട്ഠാനതോ	-10.523
▁ഠപ	-10.523
▁ഉപ്പാദേത്വാ	-10.523
▁കോപ	-10.5233
▁ഏകമേവ	-10.5237
▁ഹിമവന്ത	-10.5237
▁വിനയം	-10.5239
▁വീത	-10.524
ാനന്തര	-10.5241
▁മാരിസ	-10.5243
സിദ്ധി	-10.5243
സതസഹസ്സ	-10.5245
▁അഭിജ്ഝാ	-10.5247
▁വീതിക്കമ	-10.5249
സിക്ഖ	-10.5252
▁കരിസ്സതി	-10.5254
രഹ	-10.5254
ലോഹിത	-10.5254
▁നിസ്സരണം	-10.5255
▁പരിയോസാന	-10.5256
സന്താന	-10.5259
▁നിരുജ്ഝതീതി	-10.5261
▁പരിഭുഞ്ജ	-10.5262
രൂപാനി	-10.5266
▁സമനുപസ്സതി	-10.5267
▁പവത്തന്തി	-10.5269
▁ഗയ്ഹ	-10.5276
അരിയ	-10.5276
▁വുട്ഠാതി	-10.5277
▁കുലം	-10.5278
സാമണേര	-10.5278
▁രാഹുല	-10.5282
പദേസ	-10.5282
മേത	-10.529
▁അധിഗമ	-10.5294
സീമാ	-10.5297
▁വിനസ്സ	-10.5298
▁ഭുത്ത	-10.5298
പായ	-10.53
സഭാവാ	-10.5309
▁സപ്പീതിക	-10.531
സമ്ഭാര	-10.5319
വീഥി	-10.5322
▁ആകിഞ്ചഞ്ഞായതന	-10.5322
▁പാചിത്തി	-10.5322
മണ്ഡലം	-10.5324
ധാരണ	-10.533
▁വിഞ്ഞൂ	-10.5331
▁പഹാതബ്ബഹേതുക	-10.5339
▁ഭിക്ഖൂതി	-10.534
പ്പധാന	-10.5342
▁ഭാവേ	-10.5344
▁൧൨൧	-10.5345
▁ദഹ	-10.5346
സമ്മ	-10.5352
ത്ഥേന	-10.5355
ലദ്ധ	-10.536
▁വിസ്സട്ഠ	-10.5362
▁ഭൂമിയാ	-10.5363
▁കിരിയം	-10.5366
▁അസ്സാസ	-10.5368
▁ചക്ഖുവിഞ്ഞാണസ്സ	-10.5371
▁ഓളാരിക	-10.5374
▁പുരിമം	-10.5375
▁പസ്സതീതി	-10.5379
▁പഗ്ഗഹ	-10.5379
ിനം	-10.5381
ാദീ	-10.5382
ഭദ്ദ	-10.5384
▁അവിപരീത	-10.5386
ുദ്ദേസ	-10.5389
▁പതിത	-10.5391
▁വിവാദ	-10.5391
പവത്തി	-10.5391
▁അബ്ഭന്തര	-10.5393
▁അമോഹോ	-10.5399
▁ദേസിതോ	-10.5402
▁ഭര	-10.5404
▁വിപരീത	-10.5404
▁ഖിത്ത	-10.5406
കാള	-10.5407
▁ദസ്സനത്ഥം	-10.5408
▁മോഹസ്സ	-10.5411
▁ഗഹേതബ്ബ	-10.5416
രുക്ഖോ	-10.542
▁വീസ	-10.5422
▁സഹസാ	-10.5423
▁ഓവദ	-10.5423
▁അരഹ	-10.5424
▁അനരിയ	-10.5424
▁കാതബ്ബ	-10.5426
ഠാന	-10.5428
സമങ്ഗീ	-10.543
▁അവച	-10.5431
▁വത്ഥുസ്മിന്തി	-10.5434
യമ്പി	-10.5436
▁നിപന്ന	-10.5436
കത്ഥ	-10.5437
▁സജ്ഝായ	-10.5439
സമുദ്ദ	-10.5441
▁ബുദ്ധി	-10.5442
മ്	-10.5446
▁സച്ചാ	-10.5448
▁പാ	-10.545
▁സരൂപതോ	-10.5452
▁ആചാര	-10.5453
▁കഥിത	-10.5453
▁ദക്ഖിണം	-10.5456
▁പരിഗ്ഗഹ	-10.5462
▁ഫുസ്സ	-10.5469
▁അച്ഛരാ	-10.5474
▁വസന്തോ	-10.5478
തിആദികം	-10.5479
മഹാരാജ	-10.548
▁വിസേസം	-10.5481
▁൧൨൫	-10.5482
▁സോണ	-10.5484
▁പുബ്ബേപി	-10.5485
ഞ്ഞം	-10.5485
ഗ്ഗാഹോ	-10.5491
▁ഭോതോ	-10.5494
▁പാളിയാ	-10.5494
▁ഉത്താന	-10.5494
▁ആസന്ന	-10.5494
സുദ്ധി	-10.5495
▁ചതുബ്ബിധ	-10.5496
രോധ	-10.5497
പരമ	-10.5498
ബ്യാ	-10.5502
▁തണ്ഹം	-10.551
വിധം	-10.5511
▁വിത്ഥാരോ	-10.5512
േസീ	-10.5516
▁വിസഭാഗ	-10.5517
രട്ഠ	-10.5524
ാസന	-10.5528
▁ഠാനേഹി	-10.5529
വികാര	-10.5536
▁സുമേധ	-10.5537
▁ഭായ	-10.5538
▁പടിപദായ	-10.5538
ദായ	-10.5539
▁വസേ	-10.554
▁ധുവം	-10.5542
▁കസ്സപോ	-10.5542
▁ജാനന	-10.5542
ഭാവനായ	-10.5545
പാരമി	-10.5546
വേദന	-10.5547
ദുക്ഖനിരോധഗാമിനീ	-10.555
മത്ഥം	-10.5553
▁ഉപപരിക്ഖ	-10.5555
േതുകാമോ	-10.5566
ഭേദം	-10.5571
▁ഗവ	-10.5574
▁നിസിന്നസ്സ	-10.5576
▁മുത്താ	-10.5577
▁പുബ്ബഭാഗേ	-10.5578
സ്വ	-10.5579
▁വിചര	-10.558
▁അയ്യേ	-10.56
പടിമണ്ഡിത	-10.5603
▁നോആസവ	-10.5603
▁ദക്ഖിണേയ്യ	-10.5605
വിഭങ്ഗേ	-10.5605
▁ഉദകേന	-10.5611
▁അനുവത്ത	-10.5611
രോഹ	-10.5614
▁അഗ്ഗഹേത്വാ	-10.5615
▁ദുക്ഖക്ഖന്ധസ്സ	-10.5615
പാരമീ	-10.5618
▁ഇസ്സാ	-10.5625
▁കതന്തി	-10.5625
വീ	-10.5629
▁രക്ഖിത	-10.5636
▁ദിട്ഠാനുസയോ	-10.5638
തബ്ബ	-10.5638
പാണ	-10.5638
ിമാ	-10.5639
▁പുച്ഛിതോ	-10.5639
▁ദീഘോ	-10.564
▁വാക്യം	-10.5647
സേനാസന	-10.5648
▁ഖത്തിയാ	-10.5648
▁ഹത്ഥം	-10.565
സിക്ഖാപദേ	-10.5652
▁കരിസ്സാമി	-10.5654
തപ്പ	-10.566
▁ചിത്തസമുട്ഠാന	-10.566
▁പരിഞ്ഞായ	-10.5661
ാനന്തരം	-10.5664
▁ഞാത	-10.5665
▁സരണഗമന	-10.5666
▁ഗച്ഛാമി	-10.5668
▁യമ	-10.5668
▁ദുവിധേന	-10.5672
▁മഹാജനസ്സ	-10.5675
▁സമ്മാസമ്ബുദ്ധേന	-10.5679
▁സമത്ഥ	-10.568
▁ഗമനേ	-10.5683
വന്തോ	-10.5688
ദത്ത	-10.569
▁സകുണ	-10.569
ഞ	-10.5691
▁ഘരേ	-10.5693
▁നിബ്ബിന്ദതി	-10.5698
▁സകലം	-10.5701
▁ആദിം	-10.5701
കണ്ടക	-10.5704
രഹിതാ	-10.5705
സമ്പന്നാ	-10.5706
▁വാക്യ	-10.5706
അഞ്ഞ	-10.5707
▁വിരതി	-10.5709
▁ബുദ്ധുപ്പാദേ	-10.5712
▁രാഗസ്സ	-10.5713
ഛന്ദ	-10.5715
▁പത്ഥനാ	-10.5719
▁൧൨൬	-10.572
▁ജവ	-10.5722
▁പഞ്ഞത്തന്തി	-10.5722
▁സമ്ഭവ	-10.5725
▁അനാപുച്ഛാ	-10.5725
▁പരിയേസ	-10.5726
▁ഗങ്ഗാ	-10.5727
സക	-10.5729
പണ്ഡിതോ	-10.573
യാവ	-10.5731
ഖണ്ഡ	-10.5732
▁നദിയാ	-10.5733
▁ഉഭയത്ഥ	-10.5735
ഗതേ	-10.5737
േയ്യാസി	-10.5739
▁ദുക്ഖേന	-10.5741
ദോസോ	-10.5741
ണേ	-10.5743
▁തദുഭയ	-10.5746
▁നാവാ	-10.5746
മാഹു	-10.5747
▁ഹോതൂ	-10.5748
▁തേനാതി	-10.5749
▁അസ്സാസപസ്സാസ	-10.5753
▁൧൨൮	-10.5755
വരം	-10.5757
▁അട്ഠസു	-10.5758
ജ്ഝാസയ	-10.5763
▁രു	-10.5765
▁നക്ഖത്ത	-10.5766
സപ്പ	-10.577
▁നചിരസ്സേവ	-10.5771
ഏതം	-10.5772
▁ഹവേ	-10.5774
▁അരിയസച്ചം	-10.5774
▁വിമതി	-10.5777
പിട്ഠി	-10.5779
ക്കന്ത	-10.5779
▁ഇദമവോച	-10.578
▁പച്ചയേഹി	-10.5783
▁രസ്സോ	-10.5788
▁ഉപട്ഠാനം	-10.579
▁ഘരം	-10.5791
▁൧൨൭	-10.5792
▁സാപി	-10.5793
▁പരികമ്മ	-10.5794
ദ്വാരം	-10.5795
പടിബദ്ധ	-10.5805
▁സന്നിപാത	-10.5806
▁സങ്ഘിക	-10.5809
ാനഞ്ഹി	-10.5814
ാമഹം	-10.5815
▁പച്ചയപച്ചനീയം	-10.5815
▁അഞ്ഞസ്മിം	-10.5817
പഞ്ചമ	-10.582
▁ദുച്ചരിതം	-10.5822
▁പുഥുജ്ജനാ	-10.5822
▁ഗുത്ത	-10.5826
▁വംസ	-10.5826
ദീനം	-10.5826
▁പുത്തദാര	-10.5829
സംയുത്ത	-10.583
▁ഉത്തമം	-10.5831
ജാതികോ	-10.5832
▁സദിസോ	-10.5832
▁ദധി	-10.5833
േഹിപി	-10.5833
▁പടിസേധ	-10.5836
▁പുരിസാനം	-10.5838
▁ഫലസമാപത്തി	-10.5838
▁വാസേട്ഠ	-10.5839
▁മഹാരാജാ	-10.5841
ാധിപ്പായ	-10.5843
▁നാനത്ത	-10.5843
▁ഉപസഗ്ഗ	-10.5845
▁മദ	-10.585
സമാന	-10.585
▁ഗാമണി	-10.585
▁സക്കായദിട്ഠി	-10.5856
▁ധാതൂ	-10.5857
▁വിവട	-10.5857
▁ദദ	-10.5859
ധരാ	-10.5861
▁ഗണന	-10.5862
പുബ്ബോ	-10.5863
▁സത്തസു	-10.5867
▁പേസേസി	-10.5869
▁കാരാപേത്വാ	-10.5872
▁കദാ	-10.5876
വാസീ	-10.5881
▁തണ്ഡുല	-10.5883
▁സഹബ്യതം	-10.5886
തസ്മാ	-10.5891
ഗുണം	-10.5892
▁ലൂഖ	-10.59
▁മോക്ഖ	-10.5901
▁ലോഹ	-10.5903
പദാനം	-10.5907
▁പയോജ	-10.5909
ജനക	-10.591
▁പഥവീധാതു	-10.5912
പാദിന്നുപാദാനിയോ	-10.5913
▁പഞ്ഹേ	-10.5915
▁പഞ്ഹ	-10.5915
▁ഭുഞ്ജിത്വാ	-10.5918
യോനി	-10.5919
ിസ്സാമാ	-10.5924
▁അവിജ്ജമാന	-10.5925
▁പകാര	-10.5925
േന്തീ	-10.5926
▁മാനാനുസയേന	-10.593
▁ആഹാരാ	-10.5931
▁പദട്ഠാന	-10.5931
▁സല്ലക്ഖേത്വാ	-10.5932
▁യാചിതോ	-10.594
▁പഞ്ഞാവിമുത്തി	-10.5943
സഞ്ഞാനാസഞ്ഞായതന	-10.5943
▁അനുത്തരോ	-10.5948
പണ്ഡിത	-10.5952
▁സമ്ഭാവ	-10.5952
▁പുപ്ഫം	-10.5953
▁ഭിക്ഖുസങ്ഘം	-10.5954
▁ധുര	-10.5954
▁മദ്ദ	-10.5958
പച്ചയേ	-10.596
▁ഖഗ്ഗവിസാണകപ്പോ	-10.5962
▁അരണ	-10.5963
▁ഠപിതാ	-10.5964
▁ദസന്നം	-10.5967
കരം	-10.5971
▁അനേകവിഹിത	-10.5973
കമ്മേ	-10.5974
പരിച്ചാഗ	-10.5975
ഗരു	-10.5975
▁ധീതാ	-10.5976
ത്ഥേരഅപദാനവണ്ണനാ	-10.5976
▁അപരിയാപന്നേ	-10.5977
▁സമ്ബുദ്ധ	-10.5978
▁യുത്താ	-10.598
▁മോച	-10.5983
▁കഞ്ഞാ	-10.5983
▁സംവേഗ	-10.5987
ജിന	-10.5988
▁ഉച്ഛു	-10.5989
▁ഠാനാനി	-10.5994
▁കരോഹി	-10.5995
▁യോജന	-10.5999
▁ഉപോസഥകമ്മം	-10.6
▁പച്ചവേക്ഖണ	-10.6003
▁ഏകവചന	-10.6007
മര	-10.6008
സാവക	-10.6009
സമ്മുതി	-10.6011
▁അത്ഥേവ	-10.6012
▁സാരഥി	-10.6013
▁തദഞ്ഞ	-10.6016
പ്യ	-10.6017
▁പടിലഭ	-10.6017
▁പടിഗ്ഗണ്ഹാതി	-10.6019
മയ്ഹം	-10.6019
വാച	-10.602
ാചരിയ	-10.6022
ഗു	-10.6022
സാധാരണ	-10.6023
▁ദുവിധാ	-10.6024
പട	-10.6026
▁സുമന	-10.6027
▁അരൂപിനോ	-10.6031
നിസ്സിതാ	-10.6034
സമൂഹ	-10.6035
ഭഗവാ	-10.6038
കാരേ	-10.6039
▁ഇദ	-10.6042
▁സപ്പായ	-10.6042
ചിത്താനി	-10.6044
ചാരീ	-10.6044
സിപ്പ	-10.6045
▁പഞ്ഞാസ	-10.6046
▁നാസ്സ	-10.6046
▁പണ്ണത്തി	-10.6053
ിയമാനേ	-10.6055
ികാനം	-10.6057
▁കുജ്ഝ	-10.6058
▁പഥ	-10.6058
▁അഭിക്കമ	-10.6058
▁ആദീനവ	-10.6058
തലേ	-10.6059
▁അത്തമനാ	-10.6061
▁പാനീയം	-10.6063
യു	-10.6063
▁ഭിത്തി	-10.6063
പരിസാ	-10.6065
▁ഭോജ	-10.6065
▁തീരേ	-10.6068
▁സാഗര	-10.6069
▁രൂപാരൂപ	-10.607
▁ഫുസിത്വാ	-10.6072
ട്ഠിത	-10.6073
▁മേഥുനം	-10.6076
ത്തഞ്ച	-10.6077
പാദക	-10.6084
▁ലബ്ഭതീതി	-10.6085
▁ബഹുസ്സുതോ	-10.6089
▁ഗിലാനോ	-10.6093
▁ഉപപജ്ജ	-10.6093
▁പലായ	-10.6102
ഭോജനം	-10.6104
ഏഹി	-10.6105
യമാനാ	-10.6106
ലോകോ	-10.6106
▁അപരി	-10.6109
▁കേവലസ്സ	-10.6113
▁അതുല	-10.6114
ികാതി	-10.6116
▁ദിട്ഠധമ്മിക	-10.6117
▁പടിച്ചസമുപ്പന്ന	-10.6119
▁അനുബന്ധ	-10.6119
▁കഞ്ചന	-10.6121
▁പബ്ബതോ	-10.6121
▁ആപ	-10.6121
▁പൂരണ	-10.6123
മാതികാ	-10.6126
▁ത്യ	-10.6127
▁ഉപ്പജ്ജിത്വാ	-10.6129
ിയമാന	-10.613
▁മേത്ത	-10.6136
വിപത്തി	-10.6136
▁സിനേരു	-10.6137
യോഗേന	-10.6146
▁ഇസ്സര	-10.6146
സഹഗതാ	-10.6151
സോക	-10.6152
മച്ഛ	-10.6154
ഭിക്ഖൂ	-10.6154
▁നാനാക്ഖണികാ	-10.6157
▁അരഞ്ഞം	-10.6157
▁പുബ്ബേനിവാസ	-10.6157
▁സേല	-10.6166
▁ആചരിയേന	-10.617
▁മഹാബോധി	-10.6173
ദന	-10.6175
▁ഉദ്ധരിത്വാ	-10.6178
▁പരിപുച്ഛ	-10.6182
▁ഉക്ഖിപ	-10.6182
▁ചണ്ഡ	-10.6183
▁അരഹന്ത	-10.6183
വിഭാവന	-10.6184
മത്ഥകേ	-10.6184
▁സദ്ധിവിഹാരിക	-10.6189
▁ധനു	-10.6189
▁പഞ്ഞപേന്തി	-10.619
ുപ്പാദന	-10.6192
പന്ന	-10.6192
പാര	-10.6194
▁തഥാരൂപ	-10.6198
ചത്താരോ	-10.6199
സംവര	-10.6199
▁ഘാത	-10.62
▁ഗോതമം	-10.6204
▁മയ്ഹ	-10.6207
▁ഹോന്തു	-10.6208
▁സബ്ബേന	-10.621
പരിമാണ	-10.6213
▁ഗോണ	-10.6213
സഹിത	-10.6214
പച്ചുപ്പന്ന	-10.6215
ചതുത്ഥ	-10.6221
▁അസ്മിം	-10.6222
▁ദേസേസ്സാമി	-10.6223
▁സീലേസു	-10.6224
▁ഹീനം	-10.6226
പഞ്ഹ	-10.6227
▁തിക്ഖ	-10.6228
▁അരഹത്തഫല	-10.6229
▁ഏതദവോചും	-10.6231
ച്ഛിന്ന	-10.6231
വിധി	-10.6232
▁പബ്ബജ്ജ	-10.6235
സജ്ജ	-10.6238
ഹോതി	-10.6238
രൂപേ	-10.6239
▁പരമത്ഥതോ	-10.6239
ങ	-10.6241
▁അരതി	-10.6243
▁വിപുലം	-10.6243
പത്തം	-10.6243
▁അഭാവ	-10.6246
ഞ്ചാപി	-10.6248
▁ഉപാദിന്ന	-10.625
▁പദേന	-10.6253
▁പത്തി	-10.6255
ദസ്സീ	-10.6256
▁അഹോസിം	-10.6256
▁ഭോഗാ	-10.6258
▁അഞ്ഞാണം	-10.6259
▁താദിനോ	-10.6259
സീലാ	-10.6261
സിര	-10.6263
▁പുബ്ബാപര	-10.6263
പഥം	-10.6267
▁ഉപേക്ഖിന്ദ്രിയ	-10.6268
▁ചുണ്ണ	-10.6276
▁രതനം	-10.6278
▁സിവ	-10.6283
▁മിസ്സ	-10.6283
പുണ്ണ	-10.6283
▁ഗണ്ഹന്തോ	-10.6284
▁കരണീയാ	-10.6285
▁ദുക്കര	-10.6285
▁ഹേവ	-10.6285
കുലം	-10.6287
▁പച്ചവേക്ഖന്തി	-10.6288
ക്രിയാ	-10.6295
▁വിമല	-10.6297
▁രട്ഠം	-10.6299
▁സിസ്സ	-10.6303
▁നിക്ഖമ	-10.6304
സീസേന	-10.6306
ഭാഗേ	-10.6308
▁ആരമ്മണപുരേജാതം	-10.6309
▁ഭോജനേ	-10.631
▁അദിന്നം	-10.6311
▁ഉജ്ഝായന്തി	-10.6312
ാനുഭാവ	-10.6318
ഹത	-10.6319
▁പക്ഖിത്ത	-10.6319
സമാദാന	-10.6319
▁യോനി	-10.632
▁കരണം	-10.6322
▁ഉദ്ധ	-10.6322
ഉത്തരിമനുസ്സധമ്മ	-10.6322
▁സമതിക്കമ്മ	-10.6323
▁അദത്വാ	-10.6324
▁കരോന്താ	-10.6324
ബദ്ധ	-10.6326
▁വിജഹ	-10.6326
സേട്ഠി	-10.6326
ദാനേന	-10.6331
▁അമച്ച	-10.6334
ഹത്ഥോ	-10.6336
▁മഹാജനോ	-10.6338
▁സമഥോ	-10.6342
ദസ്സ	-10.6345
▁നിക്ഖിപിത്വാ	-10.6353
▁കായിക	-10.6354
ച്ഛന്ന	-10.6354
▁പരിബ്ബാജകോ	-10.6355
അത്ത	-10.6357
▁രാഗാദി	-10.6357
▁ഹസ	-10.6357
▁സമ്പരായിക	-10.6358
▁വാരി	-10.6361
▁സുതേന	-10.6363
▁സാമി	-10.6364
▁ഗുണവന്ത	-10.6365
▁സിഞ്ച	-10.6366
ായപി	-10.6367
സോഭ	-10.6372
▁ജനം	-10.6375
▁അത്ഥാ	-10.6376
നത്ഥ	-10.6379
▁പൂതി	-10.638
▁കരിസ്സാമീ	-10.638
▁ചുതാ	-10.6382
നസ്സ	-10.6382
വിസിട്ഠ	-10.6382
▁ആനിസംസ	-10.6383
▁ആരമ്മണൂപനിസ്സയോ	-10.6389
▁സേനാ	-10.6389
ആദീഹി	-10.639
▁ഘോസ	-10.6392
▁ഠപേതി	-10.6397
▁സരോ	-10.64
ഭേസജ്ജ	-10.6401
▁പച്ചനീക	-10.6402
▁മഹാദാനം	-10.6403
▁സരിത്വാ	-10.6403
▁ദേവലോക	-10.6412
▁ഏകച്ച	-10.6416
▁കല്യാണമിത്ത	-10.6417
പദാന	-10.6417
▁ആസന	-10.6419
പ്പഹാനം	-10.6421
▁സിരസാ	-10.6424
ിയതി	-10.6428
▁ഏകമ്പി	-10.6428
▁വിപരിണാമ	-10.643
▁നിദ്ദേസ	-10.6431
ക്ഖണ	-10.6431
▁ഏകദേസ	-10.6432
▁ആപോ	-10.6433
ധുര	-10.6433
▁പരിനിബ്ബുതോ	-10.6434
ാകാരം	-10.6435
▁ഇസ്സരോ	-10.6436
▁ഭാവേത്വാ	-10.6436
▁ഏയ്യ	-10.6444
ഥേര	-10.6444
ീര	-10.6445
▁വിമുത്ത	-10.6446
▁പുഥുജ്ജനസ്സ	-10.6447
▁ഉപേക്ഖായ	-10.6447
മജ്ഝിമ	-10.6449
▁താവദേ	-10.6449
▁ഗാവോ	-10.6458
▁അന്തേവാസിക	-10.646
കാരേന	-10.6461
▁നിപജ്ജ	-10.6466
▁തണ്ഹ	-10.6467
ജാതം	-10.6467
▁സനിദസ്സനസപ്പടിഘ	-10.6468
▁ഭവേസു	-10.6468
▁വചീ	-10.6469
യാന	-10.647
▁ഏവന്തി	-10.6471
ളി	-10.6472
▁വിപാകപച്ചയ	-10.6473
▁ഭാവേന്തോ	-10.6476
▁സക്ഖി	-10.6477
▁തുമ്ഹ	-10.6478
ഞ്ഞോ	-10.6479
▁ഠാനാ	-10.6479
ത്ഥന്തി	-10.6479
പൂരണ	-10.6481
▁ഉപഗത	-10.6481
കതമാ	-10.6486
▁ദേവപുത്ത	-10.6488
▁ഹത്ഥീ	-10.6489
▁സോതാപത്തിഫല	-10.6491
ാവഹ	-10.6493
▁ഛന്ദരാഗ	-10.6494
▁സമ്ബഹുലേ	-10.6497
▁പരിച്ചജ	-10.6498
▁സൂപ	-10.6501
ചതുക്ക	-10.6503
▁സമുദായ	-10.6503
▁രൂപകായ	-10.6509
▁മേഥുന	-10.6511
▁ഭിക്ഖവോ	-10.6515
▁നിദാനം	-10.6518
കാരകോ	-10.652
▁മേത്തം	-10.6523
▁മഹേസി	-10.6523
▁പഹൂത	-10.6523
ഞ്ചേത്ഥ	-10.6523
▁പുത്തസ്സ	-10.6524
ദുസ്സ	-10.6527
▁സമ്മാവാചാ	-10.6527
▁നരാ	-10.6528
സ്മിഞ്ഹി	-10.6532
▁അധിപ്പായേന	-10.6546
▁പടിബാഹ	-10.6557
▁ഖ്വാഹം	-10.6557
▁ആര	-10.6557
ലോചന	-10.6558
▁വിഹാസി	-10.6559
▁ധമ്മിക	-10.656
▁ധമ്മചക്കം	-10.6563
▁പഞ്ചിന്ദ്രിയാനി	-10.6563
▁പദാനം	-10.6563
▁മനാപാ	-10.6566
▁അധമ്മോ	-10.6568
▁ചോരാ	-10.6569
▁വത്തമാനേ	-10.6573
▁നാഗരാജാ	-10.6575
▁പടിലഭതി	-10.6575
യ്ഹ	-10.658
▁വിപല്ലാസ	-10.658
▁ഗായ	-10.6584
▁ഹോന്തീ	-10.6587
▁സങ്ഘാദിസേസോ	-10.6591
▁തിത്ഥിയ	-10.6591
▁പച്ചയുപ്പന്ന	-10.6591
▁ഉര	-10.6598
▁ലോകുത്തരധമ്മ	-10.6599
▁പസ്സം	-10.6602
▁ഹന്ദ	-10.6602
▁സത്തി	-10.6604
▁ദേസേന്തോ	-10.6605
▁സദേവകേ	-10.6605
▁അനാപത്തീതി	-10.6605
▁ഥുല്ലച്ചയസ്സ	-10.6607
സേട്ഠ	-10.6608
▁നിദ്ദിട്ഠ	-10.6609
▁സാഖാ	-10.6611
ാലയ	-10.6614
▁സാലി	-10.6616
▁അമനുസ്സ	-10.6618
േഹേവ	-10.662
▁അയുത്ത	-10.6621
▁ഉപക്കമ	-10.6621
ഗൂ	-10.6621
▁സുരാ	-10.6622
സഭാഗ	-10.6622
▁പവത്തനതോ	-10.6623
സങ്ഖത	-10.6624
▁അധമ്മേന	-10.6624
▁അജ്ഝുപേക്ഖ	-10.6626
▁പാന	-10.6626
▁ചീവരേ	-10.6626
▁അഭിഞ്ഞേയ്യോ	-10.6628
അധി	-10.6629
▁പകാസിതോ	-10.6634
ക്ഖി	-10.6634
പകാര	-10.6635
▁ജീവിതിന്ദ്രിയ	-10.6638
▁ഫര	-10.664
▁ഉസ്സാഹ	-10.664
▁വുത്തഞ്ഹി	-10.6641
ഇച്ചേത	-10.6644
രവ	-10.6648
ജാതകേ	-10.6649
▁ബോധിസത്ത	-10.665
▁ദുതിയജ്ഝാന	-10.6652
▁സീസേ	-10.6652
▁ദുതിയമ്പി	-10.6652
▁സമാഗതാ	-10.6654
▁പസത്ഥ	-10.6654
▁പക്ഖിപ	-10.6658
ചേതിയ	-10.666
ദ്വി	-10.6661
▁തില	-10.6667
▁പടിവിദ്ധ	-10.6668
ദാസ	-10.6671
യത്ഥ	-10.6671
മോദ	-10.6674
നവിപാകധമ്മധമ്മോ	-10.6675
▁തിധാ	-10.6675
▁സന്തക	-10.6679
▁ഉട്ഠിത	-10.6679
▁യാചി	-10.6682
▁സുദ്ധാവാസ	-10.6683
സങ്ഖേപ	-10.6683
തേസം	-10.6686
▁യോഗോ	-10.6686
ഭാസിത	-10.6688
▁പഥവിയം	-10.6693
▁വിചിത്ത	-10.6694
▁ധൂമ	-10.6694
▁വത്ഥുപുരേജാതം	-10.6695
▁അപചയഗാമി	-10.6695
കസിണ	-10.6698
ഞ്ഞായ	-10.67
▁൧൩൦	-10.67
▁താപസോ	-10.6701
▁പനേസ	-10.6702
സമയ	-10.6702
ിസ്സാ	-10.6704
വിത്ഥാര	-10.6705
▁ഫലസമാപത്തിയാ	-10.6706
▁ഉപട്ഠ	-10.6709
പദേന	-10.671
▁അന്തിമ	-10.6715
ന്ധകാര	-10.6716
▁ലജ്ജ	-10.6716
▁രുക്ഖം	-10.6717
യസ്മിം	-10.6718
ഗബ്ഭ	-10.6722
▁ഖേത്തം	-10.6725
സംയുത്തം	-10.6727
▁പോരാണ	-10.6728
▁സമ്മാവായാമോ	-10.6728
▁നിരാമിസ	-10.673
▁അസമ	-10.673
▁പാസാദ	-10.6731
കമ്പി	-10.6732
▁ഗഹിതത്താ	-10.6734
കണ്ഡ	-10.6734
ദായകോ	-10.6735
രതനം	-10.6735
▁വിദ്ധംസ	-10.6739
ധരോ	-10.674
▁സ്വാ	-10.6741
▁തച	-10.6742
ക്ഖന്ധോ	-10.6743
▁സങ്ഘാടി	-10.6745
▁കുലാനി	-10.6746
ത്ഥു	-10.6746
▁ഏതായാതി	-10.6746
▁സമാപന്നസ്സ	-10.6747
▁ധാതൂനം	-10.6747
▁ഇത്ഥന്നാമോ	-10.6752
▁മഗ്ഗാരമ്മണ	-10.676
▁അയോ	-10.6763
▁പഞ്ചവോകാരേ	-10.6764
▁ആക	-10.6765
▁കഥേതും	-10.6768
▁സമഥേഹി	-10.6769
ഭാജന	-10.6772
താനി	-10.6772
▁നഖ	-10.6772
ംയേവ	-10.6773
▁കായകമ്മ	-10.6776
▁നിരോധാ	-10.6776
▁പാകാര	-10.6779
▁ഖാദനീയം	-10.6779
പു	-10.6779
▁രാഗം	-10.6781
സന്നിസ്സിത	-10.6789
▁ഗാരവ	-10.6789
▁കുസലാകുസല	-10.679
▁ചതുത്ഥജ്ഝാന	-10.679
▁അനാസവാ	-10.6792
▁സമ്ഭവതി	-10.6792
▁നിക്ഖമി	-10.6795
സഭാവം	-10.6798
▁സുദ്ധി	-10.68
▁പരിഞ്ഞാ	-10.6801
▁ആചരിയസ്സ	-10.6801
പൂജ	-10.6803
മംസം	-10.6803
ക്ഖാ	-10.6804
പബ്ബ	-10.6805
സമ്ബോജ്ഝങ്ഗസ്സ	-10.6806
▁ദുക്കടന്തി	-10.6808
▁ഉത്താനത്ഥമേവ	-10.6813
▁അപ്പഹീന	-10.6814
തേല	-10.6815
▁മത്ഥകേ	-10.6816
▁സഞ്ചിച്ച	-10.6817
വിനാസ	-10.6819
▁ഭിക്ഖുനി	-10.6819
▁അനിമിത്ത	-10.682
ഗാമീ	-10.6822
▁അനാഗതാ	-10.6826
▁രതി	-10.6827
▁മജ്ഝത്ത	-10.6827
▁പച്ചേകബുദ്ധ	-10.6831
▁ദിവസ	-10.6831
വത്ഥുകാ	-10.6833
▁നിരുജ്ഝിസ്സന്തി	-10.6834
▁ഭാവിതോ	-10.6835
▁കുടി	-10.6836
▁അഹേതുകപടിസന്ധി	-10.6837
▁മഞ്ഞമാനോ	-10.6839
ാസീ	-10.6839
▁സേയ്യം	-10.6842
▁തഥാഗതേന	-10.6844
ാഭാവേന	-10.6847
കഞ്ച	-10.6851
ത്യാദി	-10.6852
▁വിചിന	-10.6855
▁നിയമ	-10.6855
ബോധ	-10.6857
വേസ	-10.6859
▁കയിരാ	-10.6859
▁ജരായ	-10.6859
▁കുക്കുട	-10.6861
▁ആരഭതി	-10.6862
▁സമന്നാഗതേന	-10.6868
മൂലം	-10.6871
▁വത്തന്തി	-10.6873
▁ഹാസ	-10.6873
▁അനിയ്യാനിക	-10.6877
▁വിപത്തി	-10.6879
▁സുന്ദരം	-10.6881
പദസ്സ	-10.6882
▁കതര	-10.6882
▁അതീതാ	-10.6885
▁അബ്ഭന്തരേ	-10.6885
ഹാരോ	-10.6886
▁പമോദ	-10.6887
▁വായമതി	-10.6887
▁ബ്യാപാദോ	-10.6887
▁സുഞ്ഞത	-10.6888
▁ഭേസജ്ജം	-10.689
സണ്ഠാന	-10.6892
ഭയേന	-10.6893
▁൧൨൯	-10.6893
▁മുഖേന	-10.6894
സമ്ഭവതോ	-10.6894
▁കാരാപ	-10.6899
ദിന്ന	-10.6901
▁വിമുച്ച	-10.6901
പടിച്ഛന്ന	-10.6903
▁നിബ്ബത്താ	-10.6905
▁പുരിസേന	-10.6905
▁ധനേന	-10.6905
▁പജ്ജ	-10.6905
▁സമ്പടിച്ഛ	-10.6906
▁അഗ	-10.6908
▁കരോഥാ	-10.6909
▁അനുയുഞ്ജ	-10.6909
▁ബലാനി	-10.6913
പത്ഥ	-10.6915
▁ഉപട്ഠഹ	-10.6916
▁ആരക്ഖ	-10.6916
▁അധിപ്പായ	-10.6916
ക്കമോ	-10.6917
▁പൂരിത	-10.6924
▁വേദന	-10.6925
▁ദേവീ	-10.6925
▁സത്തമോ	-10.6928
നതാ	-10.6928
പരിത്ത	-10.6929
▁കാമഭവ	-10.693
▁അഭിഭവ	-10.6934
▁ദേഥാ	-10.6936
▁പഭുതി	-10.694
▁വികാലേ	-10.694
▁രൂപാവചരം	-10.6941
ഞാണേന	-10.6941
▁ഹോഹി	-10.6942
ൂപചാര	-10.6944
▁ഖിയ്യന്തി	-10.6945
▁പദേസ	-10.6947
▁പസാദോ	-10.6948
▁ഉപ്പജ്ജനക	-10.6949
രജ	-10.6953
ാവസേസ	-10.6953
ചു	-10.6955
ഇച്ചാദി	-10.696
▁പച്ഛിമം	-10.696
▁പഞ്ഞപ	-10.6961
▁സമാധിസ്മിം	-10.6962
മരണ	-10.697
▁അവണ്ണം	-10.6971
൧൨	-10.6973
▁ഭൂതം	-10.6974
▁ഛബ്ബിധ	-10.6975
▁ഗുള	-10.6975
▁നിപാതമത്തം	-10.6977
▁ഉദാനേസി	-10.6977
▁അരണോ	-10.6979
▁൧൪൦	-10.6981
ദീ	-10.6984
▁തഥാഗത	-10.6986
▁ഗോത്തേന	-10.6987
▁പല്ലങ്ക	-10.699
▁പാഠ	-10.6992
വുട്ഠ	-10.6993
▁സേസാനി	-10.6993
പഥേ	-10.6994
▁൧൩൫	-10.6994
വരോ	-10.6994
ാനുലോമ	-10.6995
ഏസ	-10.6995
▁പബ്ബതേ	-10.6997
▁സംയോഗ	-10.7
▁ഉപാദാനസമ്പയുത്ത	-10.7002
▁രാസി	-10.7002
▁താവദേവ	-10.7002
▁ഞാണസ്സ	-10.7005
▁അദുക്ഖമസുഖം	-10.7007
ഇദാനി	-10.7009
ിത്വാതി	-10.7011
ഘര	-10.7012
▁മാനുസം	-10.7013
▁കരോമി	-10.702
▁പരമം	-10.7024
▁ദസ്സാമീ	-10.7024
▁പഹീനത്താ	-10.7029
▁ഉപസമ	-10.7029
▁അക്ഖി	-10.7032
▁പടിജഗ്ഗ	-10.7034
▁പാല	-10.7039
▁സായം	-10.7041
കാലിക	-10.7042
▁സമാനാ	-10.7042
▁യദിപി	-10.7043
▁ഉപരിമ	-10.7045
▁ഇമാനേത്ഥ	-10.7046
ാനുയോഗ	-10.7046
▁പത്തചീവരമാദായ	-10.7046
▁ആവട്ട	-10.7047
▁സമ്മതി	-10.7053
▁പവിട്ഠോ	-10.7053
വാചക	-10.7054
▁ഭാവിതത്താ	-10.7055
▁ജമ്ബുദീപ	-10.7055
▁സത്തു	-10.7056
നര	-10.7057
▁അഞ്ജന	-10.7064
▁മനസികാര	-10.7065
പടിസന്ധി	-10.7069
▁സുക്ക	-10.7075
ാതീതി	-10.7077
▁അനാസവം	-10.7078
▁മനുസ്സലോകേ	-10.7079
▁ഞ	-10.7082
യോഗേ	-10.7083
▁അട്ഠമ	-10.7086
വനം	-10.7089
▁കുബ്ബ	-10.709
▁സാമിവചനം	-10.709
ാദികാ	-10.7093
▁ഗണ്ഡ	-10.7093
രൂപേന	-10.7094
▁ആസയ	-10.7103
▁ഉദ്ദിസ	-10.7104
വച്ഛ	-10.7106
ാദിഭേദം	-10.7106
▁ആസവോ	-10.7107
വിസ്സജ്ജന	-10.7109
▁൧൩൩	-10.711
▁കോവിദോ	-10.7111
▁നേത്ത	-10.7111
ണ്ഹ	-10.7117
▁സബ്ബേഹി	-10.7117
▁ദേവതാനം	-10.7117
ാപയ	-10.7119
▁കേസാ	-10.7119
▁ഉപാദാരൂപം	-10.712
▁അത്തഭാവ	-10.7121
ദിവസ	-10.7121
ക്ഖീ	-10.7126
▁ധീരാ	-10.7127
▁൧൩൭	-10.713
▁തേജോ	-10.7131
പത്തിയാ	-10.7134
▁അഹേതുകോ	-10.7135
ലോകേ	-10.7137
▁ആദിയ	-10.714
▁അഗാരം	-10.7144
▁സമ്ഭവോ	-10.7146
▁സാദിയ	-10.7147
▁താഹി	-10.7148
▁വേസ്സന്തര	-10.7149
▁കുച്ഛിത	-10.715
▁വാസ	-10.715
▁പക്ഖേ	-10.7151
▁ബാഹു	-10.7151
ചക്കം	-10.7153
പാണി	-10.7156
▁പുനപി	-10.7157
▁നിദസ്സന	-10.7163
▁ഹേത്ഥ	-10.7163
▁സഖാ	-10.7164
▁അനുപ്പത്തോ	-10.7164
▁അനുരുദ്ധ	-10.7165
▁സംയോജനാനം	-10.7165
്വ	-10.7166
▁അനഭി	-10.7167
▁സവിതക്കസവിചാരാ	-10.7169
▁ഉദ്ധച്ചസഹഗതോ	-10.717
▁മനുസ്സേ	-10.7171
മൂലേ	-10.7173
ങ്ഗണ	-10.7174
▁വസാ	-10.7175
പഞ്ചിമേ	-10.7175
▁കാരിതേ	-10.7184
▁വിപസ്സിസ്സ	-10.7185
സയന	-10.7187
ഇമസ്മിം	-10.7187
▁സമാധിന്ദ്രിയം	-10.7187
▁ഠപിതം	-10.7188
▁പഭവ	-10.7188
▁കോട്ഠാസ	-10.719
ബ്രഹ്മചരിയ	-10.7193
▁സീഹനാദം	-10.7194
▁കമ്മുനാ	-10.7195
▁ഗച്ഛന്തേ	-10.7196
▁പാടിദേസനീയ	-10.7199
ചത്താരോമേ	-10.7199
▁പകാസേത്വാ	-10.72
സഹഗതം	-10.7201
▁സമാപന്നോ	-10.7206
വിനിച്ഛയോ	-10.7209
▁മോഹം	-10.7209
▁സക്കായ	-10.7212
നിയമ	-10.7212
▁ധമ്മധാതു	-10.7213
▁ഏകന്തേന	-10.7217
▁സക്യ	-10.7218
സാധൂ	-10.7221
▁പതിട്ഠിതാ	-10.7222
▁തസ്സാപി	-10.7222
▁പുഞ്ഞകമ്മ	-10.7223
▁വിമുത്തോ	-10.7223
കീള	-10.7224
▁അവസേസം	-10.7225
വിമോക്ഖ	-10.7227
▁കുഹിം	-10.7228
▁ഫലാനി	-10.7231
▁അപ്പമാണം	-10.7232
▁തേസമ്പി	-10.7238
▁പടിസന്ധിം	-10.7238
▁വിമാനം	-10.7239
▁അദ്ദസം	-10.724
രൂ	-10.7244
▁മാരസ്സ	-10.7244
▁പാണം	-10.7245
▁൧൩൨	-10.7246
കസ്മാ	-10.7247
▁ഥേയ്യ	-10.7247
▁ധമ്മകഥം	-10.7253
▁ഭിക്ഖുസങ്ഘോ	-10.7253
▁ഛഡ്ഡ	-10.7254
▁അനാദരിയം	-10.7255
▁ഓത്തപ്പ	-10.7257
സവന	-10.7259
▁ഖജ്ജ	-10.7262
▁വിപാചേന്തി	-10.7268
▁മുച്ച	-10.727
▁ഛാദ	-10.7271
പഞ്ചഹി	-10.7272
▁ഉദയ	-10.7273
▁ഉദായി	-10.7273
▁തിട്ഠതീതി	-10.7275
▁യുഗ	-10.7278
▁ദേഹം	-10.7279
▁അദാ	-10.7279
▁സഗ്ഗേ	-10.7279
▁നാനാവിധ	-10.728
▁പുമ	-10.7292
▁സിക്ഖാപദാനി	-10.7294
▁ഭൂതാ	-10.7295
▁അയമസ്സ	-10.7296
▁രസോ	-10.7297
▁ജന്തു	-10.73
▁സോത്ഥി	-10.7301
വാചാ	-10.7302
▁സന്തതി	-10.7302
▁അപ്പത്ത	-10.7304
▁പസ്സേയ്യ	-10.7306
▁ചണ്ഡാല	-10.7306
▁ഓതരിത്വാ	-10.7307
▁ഇച്ഛിത	-10.7307
▁സഭാവതോ	-10.7308
ദ്വയേ	-10.7308
▁പരിത്തോ	-10.731
▁ദിസ	-10.7312
താപ	-10.7312
▁അരിയസച്ച	-10.7312
▁സബ്ബഞ്ഞു	-10.7312
▁പുച്ഛന്തോ	-10.7315
ഭൂമിം	-10.7315
▁ആലയ	-10.7316
▁മഹല്ലക	-10.7318
ഖന്ധഞ്ച	-10.7322
ഭേദേ	-10.7323
▁നീച	-10.7323
▁ഉപട്ഠാതി	-10.7323
നിദാനം	-10.7325
▁വജ	-10.7327
▁ചരന്തോ	-10.7328
ിയമാനാ	-10.7329
▁ഉപ്പജ്ജന്തീതി	-10.7329
▁ദേഹീ	-10.7329
കന്ത	-10.733
▁൧൩൮	-10.733
▁ഗതം	-10.733
▁ഗച്ഛന്തം	-10.7332
സഞ്ഞാനാസഞ്ഞായതനം	-10.7332
▁തേസന്തി	-10.7335
▁വക്ഖമാന	-10.7335
▁ധുതങ്ഗ	-10.7336
സീഹ	-10.7337
▁സംയോജനാനി	-10.7338
ഗാരവ	-10.7338
▁ഛത്തിംസ	-10.7339
▁മാതുഗാമോ	-10.734
തിണ	-10.734
▁വികാര	-10.7341
▁അനുമോദ	-10.7342
▁ലോഹിതം	-10.7342
▁പഭാ	-10.7345
▁പായ	-10.7345
▁ഛത്തം	-10.7349
▁തേജോധാതു	-10.735
▁൧൩൧	-10.7352
▁സോതാപത്തിമഗ്ഗ	-10.7353
പമാണ	-10.7354
▁നീവരണാ	-10.7356
▁അചല	-10.7358
▁സമാദിന്ന	-10.736
▁ചേതി	-10.7362
▁പാനീയ	-10.7365
സമ്പയുത്തം	-10.7365
▁ഉദാന	-10.7371
▁പണാമ	-10.7371
ഹു	-10.7374
▁മഹന്തോ	-10.738
ദണ്ഡക	-10.7381
േസ്സതി	-10.7381
▁൧൩൪	-10.7381
പടിപദാ	-10.7381
▁അനുഞ്ഞാത	-10.7386
▁വത്ഥൂനി	-10.7388
▁ബ്രഹ്മലോകേ	-10.7397
▁അജ്ഝാസയ	-10.7399
▁ഇമഞ്ച	-10.7399
▁ജമ്ബു	-10.74
ാതീത	-10.7401
▁ഫസ്സപച്ചയാ	-10.7402
▁തിരച്ഛാനഗത	-10.7403
▁സുഖുമാ	-10.7405
▁സാസനസ്സ	-10.7406
▁വിഞ്ഞാണഞ്ചായതന	-10.741
▁പുരേജാതസ്സ	-10.741
ക്കമേന	-10.7411
▁ധാരേതി	-10.7418
ഗേഹ	-10.7418
▁അപച്ച	-10.7422
▁മുഞ്ചിത്വാ	-10.7426
പരിയന്ത	-10.7426
സഭ	-10.7429
▁വണ്ണേ	-10.7431
ഹങ്ഗേഹി	-10.7431
▁സണ്ഹ	-10.7433
കായാ	-10.7434
▁സന്താനേ	-10.7435
നയേ	-10.7436
▁പരികപ്പ	-10.7439
സബ്ബം	-10.7442
▁അഭിജ്ഝാദോമനസ്സം	-10.7442
▁അതിക്കമ്മ	-10.7447
ഖില	-10.7449
കുടി	-10.745
▁സിനേഹ	-10.7451
▁ഏവമേതസ്സ	-10.7452
▁ഖലു	-10.7452
▁നാരീ	-10.7453
വിനിച്ഛയ	-10.7457
▁പരിവാരേത്വാ	-10.7457
ീവ	-10.7459
▁ഠ	-10.7461
▁ദേസിത	-10.7462
▁ആണാ	-10.7463
▁സമോ	-10.7464
▁ഭദ്ര	-10.7466
▁നാമാനി	-10.7466
ലാപ	-10.7467
സമുദയോ	-10.7467
ക്ഖയ	-10.7468
ാദികോ	-10.7468
പരിയോസാന	-10.7469
▁൧൩൬	-10.7471
▁തിവിധാ	-10.7474
▁ആപന്ന	-10.7474
യോഗോ	-10.7474
▁പടിക്ഖിത്ത	-10.7475
▁വേയ്യാകരണ	-10.7475
▁മണ്ഡ	-10.748
പുത്താ	-10.7483
▁സളായതന	-10.7485
ബ്യാകത	-10.7485
▁ഏകേകം	-10.7487
▁അന്തരാമഗ്ഗേ	-10.7488
▁വുത്തി	-10.7489
▁ആദിത്ത	-10.7492
▁അഭിഭവിത്വാ	-10.7493
▁പഹ	-10.7493
▁അധമ്മിക	-10.7495
▁ആരഭ	-10.7496
▁വിഭവ	-10.7496
▁അപരാപരം	-10.7497
▁മേഘ	-10.7497
സ്സാമ	-10.7497
ഗോചര	-10.7499
▁പഹരിത്വാ	-10.7499
▁വയോ	-10.7502
▁സൂര	-10.7506
മാണവ	-10.7507
▁മഹാമോഗ്ഗല്ലാനോ	-10.7507
▁ലിഖിതം	-10.7508
▁ദിവ	-10.751
ിട്ഠ	-10.7518
▁ഇസ്സരിയ	-10.7519
▁മഹാജന	-10.752
▁പടിച്ഛാദ	-10.7521
▁അയോനിസോ	-10.7522
▁കിലമ	-10.7523
൨൦	-10.7524
▁വിനിപാതം	-10.7525
ഇമസ്സ	-10.7527
▁ഉത്താനമേവാതി	-10.7529
നീവരണ	-10.7534
▁ഗോത്ത	-10.7537
▁അജ്ഝത്തികം	-10.7537
▁സന്താ	-10.7537
▁രാധ	-10.7538
▁മുഖേ	-10.7539
സന്തതി	-10.7541
▁തയിദം	-10.7545
▁സകേ	-10.7548
▁ഓളാരികാ	-10.7549
▁ഘാനം	-10.755
▁പഠന്തി	-10.755
▁ധാരേയ്യ	-10.7553
▁ബ്യഗ്ഘ	-10.7554
▁നിബ്ബാനഞ്ച	-10.7558
▁പഹാര	-10.7559
▁സുഗന്ധ	-10.7559
▁കുലഗേഹേ	-10.756
ട്ഠിതി	-10.7561
ഗിലാന	-10.7561
▁സംയമ	-10.7563
▁പുച്ഛിതബ്ബത്താ	-10.7565
▁സമാപജ്ജിത്വാ	-10.7565
▁ആകിഞ്ചഞ്ഞായതനം	-10.7567
▁അട്ഠകഥായ	-10.7568
▁പബ്ബജ	-10.7569
▁ഭിജ്ജതി	-10.7571
▁പജായ	-10.7575
▁പവിവേക	-10.7575
▁ചങ്കമ	-10.7585
വാദിനോ	-10.7585
▁ഉത്തമോ	-10.7587
▁ചേതേതി	-10.7589
▁ജാതിം	-10.759
▁ഏതന്തി	-10.7591
പണ്ണാസ	-10.7592
▁നാഗാ	-10.7592
വത്തന	-10.7593
▁തിവിധോ	-10.7595
▁മാലാ	-10.7596
ധമ്മസ്സ	-10.7596
▁അലോഭോ	-10.7598
▁സബ്ബേസമ്പി	-10.7599
▁വിഞ്ഞാപേത്വാ	-10.7601
ാരമ്മണേ	-10.7601
▁കാരിത	-10.7602
▁വിധ	-10.7605
▁പാദം	-10.761
▁വിപാകാ	-10.761
വീസതി	-10.761
▁സമ്മാസങ്കപ്പോ	-10.761
▁പച്ചാ	-10.7613
▁യാഥാവതോ	-10.7613
▁തമ്ഹി	-10.7614
▁സാവജ്ജ	-10.7618
വുത്ഥ	-10.7619
▁അസന്ത	-10.7621
▁സേതി	-10.7621
▁സുഖീ	-10.7623
▁ഹത	-10.7624
▁വണ	-10.7625
▁ഭങ്ഗ	-10.7626
▁ചേതിയം	-10.7629
–	-10.7632
ദീസു	-10.7635
വിമുത്ത	-10.7637
▁വിഞ്ഞായതി	-10.7638
ഗുണാ	-10.764
▁ഉഗ്ഗഹ	-10.7641
▁ആബാധ	-10.7642
▁ആജാന	-10.7644
▁കത്വാതി	-10.7644
▁സങ്ഖേപോ	-10.7648
▁ദേവാനമിന്ദ	-10.7648
▁കാമാവചരേ	-10.765
സഞ്ഞോജനസമ്പയുത്ത	-10.7651
▁യുത്തി	-10.7651
കേസു	-10.7656
▁അഞ്ഞതരസ്സ	-10.7657
▁സോചതി	-10.7659
▁വിഘാത	-10.7659
▁സേക്ഖ	-10.7659
പകതി	-10.7664
▁പഞ്ഞത്തോ	-10.7664
പച്ചവേക്ഖണ	-10.7664
തസ്സാ	-10.7666
▁ബഹൂനം	-10.7669
▁ദേവാനമിന്ദോ	-10.7671
▁നിസ്സയോ	-10.7675
ന്തോപി	-10.7675
▁കാരേതബ്ബോ	-10.7675
▁ജര	-10.7677
▁ഫ	-10.7678
▁ആപദാസു	-10.7683
▁മായാ	-10.7683
മഗ്ഗേന	-10.7684
സാനം	-10.7686
▁വജ്ജേത്വാ	-10.7686
▁സമേന്തി	-10.7687
നീയം	-10.7687
▁യുദ്ധ	-10.7687
നസനിദസ്സനസപ്പടിഘ	-10.7688
വത്ഥും	-10.7689
▁ദേവരാജാ	-10.7692
▁സരൂപ	-10.7692
ിനിം	-10.7693
പോ	-10.7694
ത്ഥേരം	-10.7697
താത	-10.7698
▁ഗുണേഹി	-10.77
▁ഫുട്ഠ	-10.77
▁സുപ്പ	-10.77
▁സമണം	-10.7701
▁രൂപാവചരേ	-10.7702
▁പതിട്ഠിതോ	-10.7703
▁ഗരുക	-10.7704
▁പടിസംവേദ	-10.7704
▁സകവാദിസ്സ	-10.7712
▁കായാനുപസ്സീ	-10.7713
നിയോ	-10.7714
ുപാദാന	-10.7716
സങ്ഘാട	-10.7717
പ്പച്ചയോ	-10.7722
കിണ്ണ	-10.7724
▁പജഹതീതി	-10.7725
പഞ്ചക	-10.7726
ാതിക്കമ	-10.7728
▁സേട്ഠം	-10.773
അമ്ഹാകം	-10.7731
തണ്ഹ	-10.7735
▁രസാ	-10.7736
▁ജിത	-10.7738
▁സിക്ഖിതബ്ബം	-10.7739
▁വേവചനം	-10.774
േസോ	-10.774
ച്ഛാ	-10.7741
▁ഭാസിതസ്സ	-10.7749
കഥായം	-10.775
▁ചിന്ത	-10.7752
▁നിരോധം	-10.7752
വിപ്പയുത്തോ	-10.7752
▁തേനുപസങ്കമിംസു	-10.7754
കാസ	-10.7756
രതാ	-10.7757
അദ്ധാ	-10.7757
▁അത്തനാവ	-10.776
▁ഗച്ഛന്തസ്സ	-10.776
▁ചേതോവിമുത്തിം	-10.776
▁പരിചാര	-10.7762
▁ഗഹേതബ്ബാ	-10.7763
▁സകദാഗാമീ	-10.7763
പുബ്ബേ	-10.7765
▁൧൩൯	-10.7766
▁ഖേപ	-10.7769
ത്ഥേരഗാഥാ	-10.7772
▁പടിഗ്ഗഹ	-10.7776
▁ഓകാസോ	-10.7779
▁ബന്ധു	-10.778
ഭിക്ഖ	-10.778
▁കണ്ടക	-10.7781
മഹന്ത	-10.7782
ആഹാര	-10.7784
പരിവാരോ	-10.7789
▁അപായം	-10.779
യോഗതോ	-10.7794
▁മി	-10.7795
▁വേഗേന	-10.7797
▁പസന്നചിത്തോ	-10.7798
▁ലോകുത്തരാ	-10.7799
▁തിബ്ബ	-10.7802
▁രൂപായതനഞ്ച	-10.7802
▁വിഹരതീതി	-10.7804
▁പഭേദ	-10.7804
▁മഹപ്ഫല	-10.7806
വിനോദന	-10.781
▁അപഗത	-10.781
▁സത്തേസു	-10.781
▁സക്കസ്സ	-10.7814
▁ഭിക്ഖം	-10.7814
▁കോസല	-10.7815
ഭേദാ	-10.782
പാസാണ	-10.7822
▁നിരുജ്ഝിത്ഥാതി	-10.7823
▁ആലപതി	-10.7824
▁മത്ഥകം	-10.7824
▁സായ	-10.7825
▁പസേനദി	-10.7827
പരിച്ഛേദോ	-10.783
▁അലാഭ	-10.7832
▁പവിസതി	-10.7833
▁കാമേസുമിച്ഛാചാര	-10.7833
സ്മീതി	-10.7836
▁സിലാ	-10.7837
▁പഞ്ചസത	-10.7839
▁യോഗാവചര	-10.7841
▁പഹോതി	-10.7842
വാഹന	-10.7842
▁നിരത്ഥക	-10.7842
ട്ഠിക	-10.7843
ലക്ഖണേന	-10.7846
സമ്ഭവ	-10.7846
▁സംസയ	-10.7847
▁ഘാന	-10.7847
▁ലോകിയാ	-10.7848
ുദ	-10.785
▁ഛട്ഠോ	-10.7851
ുര	-10.7851
▁വീരിയിന്ദ്രിയം	-10.7852
▁ഭഗിനീ	-10.7853
േയ്യാമ	-10.7855
▁ആസവസമ്പയുത്ത	-10.7855
▁സങ്ഘാദിസേസ	-10.7858
▁രൂപിയ	-10.7861
ന്ത്യ	-10.7862
▁ഉഗ്ഗ	-10.7862
ഖീണാസവ	-10.7863
▁കലാപ	-10.7865
▁രൂപക്ഖന്ധ	-10.7865
▁ആപജ്ജ	-10.7866
▁പേച്ച	-10.7868
ഏത്ഥ	-10.7871
തപ	-10.7871
▁പുപ്ഫാനി	-10.7877
▁മന്തേ	-10.7878
▁ഹാ	-10.788
ിതസ്സ	-10.788
ാദിമ്ഹി	-10.7887
ാവചര	-10.7887
പുരേ	-10.7889
▁അലോഭ	-10.789
▁പഠമേന	-10.789
▁സന്ധ	-10.7898
▁ഭാജന	-10.79
ാമസേ	-10.7901
േതുന്തി	-10.7905
▁പസന്നാ	-10.7906
▁പരിഭുഞ്ജതി	-10.7906
▁ഭാസിത	-10.7908
▁ഘരാവാസ	-10.7909
യഥാപി	-10.791
▁പരാ	-10.7911
വിയ	-10.7913
▁ദേവമനുസ്സേസു	-10.7913
ഉദ്ധച്ചകുക്കുച്ച	-10.7917
▁ആചരിയാ	-10.7922
▁പാടികങ്ഖാ	-10.7922
▁പനാഹം	-10.7924
▁അതിക്കന്ത	-10.7927
▁ഗോപ	-10.7927
▁ഛട്ഠീ	-10.7929
▁പരിബ്ബാജക	-10.7929
▁സമുച്ഛേദ	-10.7929
▁ചല	-10.793
വിരോധ	-10.7933
▁സജ്ജ	-10.7933
▁ലോണ	-10.7933
▁പാപകമ്മ	-10.7934
▁കായവിഞ്ഞാണസ്സ	-10.7937
▁വിഹരതീ	-10.7938
ന്തേസു	-10.7939
▁യഞ്ഹി	-10.7941
▁പച്ചസ്സോസും	-10.7944
▁സങ്ഘമജ്ഝേ	-10.7946
▁ഇന്ദ്രിയേസു	-10.7946
▁യത്ര	-10.7946
ാകാരോ	-10.7949
വ്ഹയ	-10.795
▁ഗച്ഛതീ	-10.7956
▁കഥിനം	-10.7958
▁രൂപാവചരാനം	-10.7958
മജ്ജ	-10.7959
▁ധമ്മസ്സവന	-10.796
▁ചിതോ	-10.7961
രോച	-10.7961
▁അഭിധമ്മേ	-10.7963
▁പരിയായോ	-10.7967
▁അവിസേസേന	-10.797
▁മഹാനുഭാവ	-10.797
▁കരണേ	-10.7972
സുത	-10.7973
▁ഘോര	-10.7975
പടിപദം	-10.7977
രുചി	-10.7978
▁അഹി	-10.7978
▁ധുരം	-10.7979
▁പുനബ്ഭവോ	-10.7979
ജാതികാ	-10.798
▁പച്ഛാഭത്തം	-10.798
കുമാരോ	-10.798
▁പൂജാ	-10.7981
▁ആനന്ദം	-10.7986
▁അഭവിസ്സ	-10.799
▁ഇസ്സ	-10.7991
▁സങ്ഖാരോ	-10.7994
▁ഝാനാ	-10.7994
▁കാമാനം	-10.7997
▁മഹബ്ബലോ	-10.7997
▁വിരുദ്ധ	-10.7997
▁അസ്സാദോ	-10.7998
▁ജാഗര	-10.8001
▁ആപുച്ഛ	-10.8001
▁ആവാസോ	-10.8001
▁നായം	-10.8003
▁നിഗ്ഗണ്ഹ	-10.8004
▁അഘ	-10.8005
ാനുബന്ധ	-10.8011
▁രജോ	-10.8013
പ്പയോഗ	-10.8013
▁വസ്സസത	-10.8014
▁വിസയേ	-10.8015
▁ബ്രാഹ്മണാനം	-10.8016
ധാതൂതി	-10.8017
കത്വാ	-10.8022
▁ചതുവീസതി	-10.8022
▁മാതാപിതൂനം	-10.8023
▁ദുര	-10.8023
▁അനുപ്പാദ	-10.8028
മക്ഖിത	-10.803
വിസേസം	-10.8033
▁സംസാരേ	-10.8034
▁ധാരയ	-10.8037
▁സമഞ്ഞാ	-10.8038
രഹിത	-10.8039
അപി	-10.8039
ദേസേ	-10.8043
കുസലത്തികം	-10.8044
▁പടിജാന	-10.8046
▁അരൂപാവചര	-10.8046
▁വിഭങ്ഗ	-10.8057
▁വിചാര	-10.8058
▁അഞ്ഞിന്ദ്രിയം	-10.8059
സണ്ഠാനം	-10.806
▁ഓതാര	-10.806
▁നിയതോ	-10.8062
ട്ഠേനാതി	-10.8063
▁പഗ്ഗണ്ഹ	-10.8065
▁ലാഭോ	-10.8069
മന്തോ	-10.807
▁സുപ	-10.8071
സത്ഥാ	-10.8071
മതോ	-10.8073
▁പഭാസതീ	-10.8073
▁വുച്ചമാനോ	-10.8074
▁നിസജ്ജ	-10.8074
ഡ	-10.8077
വിജ്ജ	-10.808
ായുക	-10.8084
തീഹി	-10.8084
▁ആഹച്ച	-10.8084
▁സമ്പത്തിം	-10.8086
സുഭ	-10.8091
▁യേവ	-10.8092
▁യവ	-10.8093
▁നിയാമ	-10.8102
▁ബഹുതരാ	-10.8103
▁പരിയാദായ	-10.8103
▁മതി	-10.8104
▁സംസന്ദന്തി	-10.8105
▁മൂലേ	-10.8109
ജീവിത	-10.8111
▁മനിന്ദ്രിയഞ്ച	-10.8112
▁ഭാതാ	-10.8112
▁സേഖ	-10.8112
ഏതേ	-10.8114
▁ഖണം	-10.8119
നിന്ന	-10.812
▁അഹഞ്ച	-10.812
മാദി	-10.8122
▁അന്തം	-10.8123
▁പരാമസ	-10.8124
▁സന്തുട്ഠോ	-10.8126
▁പരികമ്മം	-10.8132
▁മഹീ	-10.8133
ഘോസ	-10.8135
▁അമിത്ത	-10.8135
ൂപപത്തി	-10.8136
▁വേധ	-10.8139
▁നപുരേജാതപച്ചയാ	-10.8142
▁ഏകജ്ഝം	-10.8142
ലാഭീ	-10.8143
▁ബഹുധാ	-10.8146
▁കപ്പതി	-10.8148
പരിസുദ്ധ	-10.8148
അത്തനോ	-10.8149
▁അനുപ്പന്നാ	-10.8152
▁ധോവിത്വാ	-10.8153
അഞ്ഞാതാവിന്ദ്രിയ	-10.8153
▁സീഘ	-10.8158
▁പരിപൂരേതി	-10.8158
▁പരിസം	-10.8158
▁രൂപഞ്ച	-10.8159
ിതാതി	-10.8159
ന്തോതി	-10.8163
▁ഛന്ദരാഗോ	-10.8163
▁ആരോഹ	-10.8165
മാതാ	-10.8168
നാനാ	-10.8169
▁അധിവചന	-10.8171
▁വിസുദ്ധി	-10.8173
▁കമ്മപഥ	-10.8176
ജല	-10.8176
േയ്യാഥ	-10.8176
പലിബോധ	-10.8181
പൂജായ	-10.8183
▁ഓലമ്ബ	-10.8185
ഖണ	-10.8186
▁ധമ	-10.8189
വിമുത്തി	-10.819
▁ഞാണാനി	-10.8191
പാഠ	-10.8192
▁൧൫൬	-10.8195
▁മഹഗ്ഘ	-10.8197
▁വഗ്ഗോ	-10.8198
ദേവോ	-10.8199
▁ആകാസാനഞ്ചായതനം	-10.82
ാവരണ	-10.82
▁അവിതഥ	-10.8201
അതീത	-10.8203
▁ലീന	-10.8209
േഥാ	-10.8216
മദ്ദ	-10.8217
സേവ	-10.8219
കുലാ	-10.822
▁നാപരം	-10.8223
▁ഇത്ഥത്തായാ	-10.8225
▁അജാനന്തോ	-10.8226
സാടക	-10.8227
▁വിദ	-10.8228
ത്തഭാവ	-10.8229
▁ഉട്ഠഹ	-10.8229
▁സിക്ഖിതബ്ബ	-10.8229
▁ഇച്ഛന്തി	-10.8232
▁വിന്ദ	-10.8234
▁ലുദ്ദ	-10.8235
▁അനനു	-10.824
▁സേക്ഖാ	-10.8244
▁ഉത്താനത്ഥമേവാതി	-10.8246
▁വിജ്ജതീ	-10.8247
▁വിരാഗാ	-10.8247
▁പാതുഭവന്തി	-10.8247
വസാ	-10.8249
മട്ഠ	-10.8253
▁രുക്ഖാ	-10.8254
▁ഥേരാനം	-10.8254
▁വായമ	-10.8258
ാദിഅ	-10.8259
▁യാചന	-10.8259
നിയാമ	-10.8259
▁അബ്ഭുതം	-10.826
▁പരിഹായന്തി	-10.8261
▁യഥ	-10.8261
ിസ്സന്തീ	-10.8262
▁യോജേതബ്ബോ	-10.8263
▁പണ	-10.8264
ദഹ	-10.8264
▁പയോജനം	-10.8265
▁വിമുച്ചതി	-10.8266
▁പടിഗ്ഗഹിത	-10.8267
രോപ	-10.8267
▁അചക്ഖുകാന	-10.8269
▁ഗണ്ഹഥാ	-10.8271
▁കരണീയോ	-10.8271
വാദി	-10.8272
▁ഭിക്ഖ	-10.8277
▁വിസാഖ	-10.8278
▁രമണീയ	-10.828
▁കിലേസോ	-10.828
ാഭാവാ	-10.828
▁അപേക്ഖ	-10.8281
മഞ്ച	-10.8283
▁കപ്പേതി	-10.8284
▁പാതു	-10.8284
▁൧൪൧	-10.8285
▁വിതക്കവിചാരാനം	-10.8287
▁കങ്ഖ	-10.8287
്വാ	-10.8289
ാനിസംസ	-10.829
ാദയോപി	-10.829
▁പാവ	-10.8291
▁നിക്ഖന്തോ	-10.8292
▁അരഹതി	-10.8292
▁വിസ്സജ്ജന	-10.8296
▁സങ്ഖാരപച്ചയാ	-10.8298
ഉപോസഥ	-10.8301
ജേ	-10.8301
▁ഘാനിന്ദ്രിയഞ്ച	-10.8303
▁വേളുവനേ	-10.8303
പേയ്യാല	-10.8303
▁നിദ്ദോസ	-10.8305
പ്പത്തം	-10.8307
▁൧൫൦	-10.8309
▁അനന്തരം	-10.8311
ാബാധ	-10.8311
▁ഫാല	-10.8313
▁രാജഗഹം	-10.8322
േഭി	-10.8322
▁കരോഹീ	-10.8324
▁ഥേരേ	-10.8325
▁ഉജും	-10.8325
▁പയോജന	-10.8331
▁നേത്വാ	-10.8335
▁അരൂപാനം	-10.8337
▁൧൪൮	-10.8337
▁ഠിതിയാ	-10.834
▁വുത്തേപി	-10.834
▁സംസരന്തോ	-10.8342
▁പഹീനം	-10.8343
▁അജാതസത്തു	-10.8343
▁സാമീ	-10.8346
സംകിലേസ	-10.8347
പദത്ഥ	-10.8348
സുത്തന്ത	-10.8349
ഭാഗിയ	-10.8349
▁നിക്ഖിത്ത	-10.835
▁പകിണ്ണക	-10.835
▁വൂപസമാ	-10.8353
▁ദുച്ചരിത	-10.8354
▁ഉപ്പജ്ജമാനാ	-10.8355
പ്പമാണോ	-10.8355
▁ആരഭി	-10.8358
▁ചിത്തുപ്പാദ	-10.8359
പാദിന്നുപാദാനിയ	-10.836
▁അസങ്ഖതാ	-10.8364
അസുക	-10.8366
ഗവ	-10.8366
▁ആകാസോ	-10.8369
ദക്ഖിണ	-10.8371
തിആദീഹി	-10.8371
▁സംവിജ്ജമാനാ	-10.8374
നഖ	-10.8377
▁അസങ്ഖ്യേയ്യ	-10.8378
പോരിസ	-10.8384
യസ്മാ	-10.8384
▁അമച്ചാ	-10.8387
▁പുഗ്ഗലിക	-10.8388
▁പേസേത്വാ	-10.839
▁ജാനതോ	-10.8391
▁ഭവിസ്സസി	-10.8392
നികായ	-10.8392
മഹം	-10.8393
രട്ഠേ	-10.8398
▁യാവദേവ	-10.8399
തിസ്സോ	-10.8401
▁മനുഞ്ഞ	-10.8402
▁ഭവിസ്സാമി	-10.8402
▁ധമ്മായതനഞ്ച	-10.8402
▁ഡംസ	-10.8405
▁രജന	-10.8406
▁ദീഘം	-10.8407
സാമ	-10.8407
▁കോസജ്ജ	-10.8408
▁ഏകവീസ	-10.8409
സത്തോ	-10.8413
▁സംസഗ്ഗ	-10.8413
▁കിലേസേഹി	-10.8416
▁അധിമത്ത	-10.8418
തബ്ബം	-10.8418
ിയന്തി	-10.842
സമുദയാ	-10.842
നിബ്ബത്ത	-10.8422
▁അത്ര	-10.8422
ളാ	-10.8423
വങ്ക	-10.8424
▁ഉപരൂപരി	-10.8425
▁നപ്പജാനാതി	-10.8425
▁ആഘാത	-10.8427
▁വിഭത്താ	-10.8428
▁പരിഭുഞ്ജിതും	-10.8428
▁കുപ്പ	-10.8429
▁ധീര	-10.8431
▁ചതുവോകാര	-10.8434
▁പാസാദിക	-10.8435
▁സനിദസ്സന	-10.8435
▁ഏവമ	-10.8439
▁രസം	-10.844
വിവേക	-10.8443
▁അവിഗത	-10.8443
▁അതീതാരമ്മണ	-10.8444
▁ലക്ഖണാനി	-10.8445
▁മോര	-10.8446
▁അദ്ദസാ	-10.8448
ാസനേ	-10.8451
▁സമതിക്കമ	-10.8453
ധോ	-10.8454
▁യസ്സാ	-10.8455
▁നഅഹേതുക	-10.8457
▁തജ്ജ	-10.8461
▁നോചിത്ത	-10.8463
▁സങ്ഗഹിത	-10.8463
സമ്പദം	-10.8464
തദ	-10.8464
▁കപ്പിയം	-10.8466
▁പക്കോസാപേത്വാ	-10.8467
▁സമാസോ	-10.8469
▁ഏകത്ഥ	-10.847
▁ഉത്തരാ	-10.8471
▁നിപത	-10.8472
▁പുരിമബുദ്ധ	-10.8472
സിത	-10.8473
▁ഉപട്ഠാക	-10.8474
▁൧൪൨	-10.8475
ത്തു	-10.8477
▁ലോഹിതക	-10.8478
▁ആരകാ	-10.8479
▁ഭിക്ഖൂസു	-10.8483
▁ബന്ധനം	-10.8487
▁മുനിന്ദ	-10.849
▁സുദ്ധിം	-10.8496
നിച്ച	-10.8496
▁ഉസഭ	-10.8498
▁പരിസുദ്ധം	-10.8499
▁പദീപ	-10.8499
കാദി	-10.8502
▁സമഗ്ഗാ	-10.8504
ിതായ	-10.8505
▁വിഭത്ത	-10.8505
ചിത്തേസു	-10.8506
▁പരിഹര	-10.8506
▁സമ്മപ്പഞ്ഞായ	-10.8507
▁ഓര	-10.8508
▁അധിഗതോ	-10.8508
ഹേതൂ	-10.8509
മായ	-10.8509
▁ദന്ധ	-10.8509
▁ബുദ്ധപൂജായി	-10.8509
▁രൂപാദി	-10.851
പാചിത്തിയ	-10.8511
▁വിസ്സജ്ജേത്വാ	-10.8514
▁പടിലോമ	-10.8516
സന്ഥത	-10.8517
▁ഉപസമ്പന്നോ	-10.8517
▁ദിന്നോ	-10.8518
▁താര	-10.8518
▁ഏകംസ	-10.8521
▁പച്ചന്ത	-10.8523
പീഠ	-10.8524
▁ഛവി	-10.8524
വിരാഗ	-10.8524
ാവയവ	-10.8524
▁പവേസ	-10.8525
▁സങ്കപ്പ	-10.8526
▁വേവചന	-10.8527
സന്ന	-10.8528
▁വിഭാവ	-10.8529
▁വിന്ദതി	-10.8529
▁മഹാമോഗ്ഗല്ലാന	-10.8529
ത്ഥമ്ഭ	-10.8531
വിഹാരം	-10.8532
▁രിത്ത	-10.8535
▁കക്ഖള	-10.8535
▁വിഹാരസ്സ	-10.8536
▁ദസബല	-10.8537
ലോകുത്തര	-10.854
പ്പച്ചയ	-10.8541
കപ്പോ	-10.8542
ദേ	-10.8545
▁അകുസലമൂല	-10.8546
▁൧൪൪	-10.8548
▁സമ്പജാനകാരീ	-10.8549
▁ദിസാസു	-10.855
സംകിലേസികോ	-10.855
ബന്ധനം	-10.855
▁ഉപ്പജ്ജിസ്സന്തി	-10.8551
▁വീഥി	-10.8553
▁ഹേമ	-10.8555
▁വദമാനോ	-10.8555
▁സേനാപതി	-10.8556
▁കാരേതി	-10.8557
▁വിപസ്സ	-10.8557
ക്ഖിത്ത	-10.8558
▁൧൪൭	-10.8558
▁അസേഖ	-10.8563
▁ധമ്മദേസനായ	-10.8564
▁ചതുക്കം	-10.8568
▁തേജ	-10.8569
നാമേന	-10.8569
കാതബ്ബ	-10.8571
ദുക്കട	-10.8575
▁വേരം	-10.8576
▁രൂപീ	-10.8578
ിമ	-10.8579
തിആദികാ	-10.8579
ത്ഥായാതി	-10.8582
▁നാന	-10.8582
▁പഹാതബ്ബസ്സ	-10.8583
▁പാദാ	-10.8584
▁നിബ്ബാനേ	-10.8585
രക്ഖിത	-10.8589
▁നദിം	-10.8589
▁തിരോ	-10.8589
▁അവഹര	-10.859
▁മാതലി	-10.8591
▁യോഗിനാ	-10.8591
▁൧൪൩	-10.8591
▁പടിവിജ്ഝ	-10.8593
▁അഗമ	-10.8593
▁ചതുരാസീതി	-10.8594
▁ഇച്ചേവ	-10.8595
▁തേസഞ്ച	-10.8595
▁അവസ്സം	-10.8597
മാനേന	-10.8599
▁മനോമയ	-10.86
▁പുമേ	-10.8601
സന്തുട്ഠ	-10.8603
▁സങ്ഗീതി	-10.8603
ചിണ്ണ	-10.8604
▁ഉപാസകാ	-10.8605
▁പഞ്ചമീ	-10.8605
ായതനം	-10.8607
▁സുഖസഹഗത	-10.8608
▁സുകത	-10.8609
▁ഇമാഹി	-10.861
ിദ്ധി	-10.861
▁ഉദ്ധട	-10.8612
മ്ബു	-10.8612
▁വേനേയ്യ	-10.8613
▁ദസസു	-10.8613
▁ഛേദന	-10.8617
സച്ഛികിരിയായ	-10.8617
പുരിസിന്ദ്രിയഞ്ച	-10.8617
▁തേലം	-10.8617
▁ദൂത	-10.8619
▁മഞ്ചപീഠ	-10.862
പുബ്ബാ	-10.862
▁ദമ്മീ	-10.8621
▁പേത്തിവിസയ	-10.8621
▁അഹോസീ	-10.8622
▁സുവ	-10.8623
▁ധാര	-10.8624
▁ബഹുസ്സുത	-10.8624
▁ദീപേ	-10.8625
സ്സാമീതിന്ദ്രിയം	-10.8626
▁വുട്ഠിതോ	-10.8628
▁പരിഹാനി	-10.8628
▁തഥാഗതേ	-10.8628
▁ഖല	-10.8631
വിസയോ	-10.8631
പാരാജിക	-10.8631
നിയ	-10.8633
സോമനസ്സ	-10.8636
ബുദ്ധി	-10.8638
സമുട്ഠാനാ	-10.864
ലേ	-10.8641
▁നാവം	-10.8643
▁സബ്ബകാലം	-10.8645
അപരേഹിപി	-10.8646
ൂപഗ	-10.8647
രുദ്ധ	-10.8649
▁കാതു	-10.865
ഞ്ഞാത	-10.8652
▁അവേച്ചപ്പസാദേന	-10.8652
▁പംസുകൂല	-10.8652
സമീപേ	-10.8654
കപ്പേ	-10.8654
▁അദിന്നാദാന	-10.8656
▁അഭിജാന	-10.8657
▁അഗ്ഗം	-10.8657
▁പകതത്ത	-10.8659
▁അവിജ്ജാപച്ചയാ	-10.8661
▁സതതം	-10.8667
▁ഓക്കമ	-10.8667
▁ഭിജ്ജ	-10.8668
സുദ്ധ	-10.8674
പരിസായ	-10.8675
▁ആമസതി	-10.8676
പരിഗ്ഗഹ	-10.8678
▁പടിക്ഖിപിത്വാ	-10.8681
▁നിരന്തരം	-10.8682
▁ഭവതീതി	-10.8683
കമ്മട്ഠാനം	-10.8684
▁സുഞ്ഞ	-10.8684
ബ്രാഹ്മണോ	-10.8688
▁ഭിന്ദതി	-10.869
▁താദിസേ	-10.8691
ദൂസ	-10.8693
േസ്സന്തി	-10.8694
▁വേര	-10.8698
▁അഞ്ഞതരേന	-10.8702
▁കരണീയ	-10.8704
ാദീനഞ്ച	-10.8704
ന്തേഹി	-10.8705
▁ജഹിത്വാ	-10.871
▁അന്ന	-10.8712
▁ഇധാതി	-10.8713
സമാസ	-10.8714
▁കതാധികാരോ	-10.8715
േകദേസ	-10.8715
▁അകാല	-10.8715
ുക്ക	-10.8717
▁ഭിയ്യോഭാവായ	-10.8717
ുപ്പത്തിയാ	-10.8718
▁ജാനാസി	-10.8719
മനോവിഞ്ഞാണധാതു	-10.872
▁ജായതേ	-10.8721
▁സഹസ്സാനി	-10.8721
▁കടത്താരൂപാനം	-10.8724
സഹസ്സം	-10.8725
ഞ്ജന	-10.8726
സുഖുമ	-10.8728
▁ഉപധി	-10.8729
▁പദുമം	-10.8734
▁൧൪൬	-10.8736
വിനിമുത്ത	-10.8737
▁പഥവിയാ	-10.874
▁വിവരിത്വാ	-10.874
▁വിവിത്ത	-10.8743
▁സന്നിസിന്നാ	-10.8743
▁വിജ്ജ	-10.8743
▁ഭവിതും	-10.8748
▁പരിയേസതി	-10.8749
വാക്യ	-10.875
▁ഭുത്വാ	-10.875
▁അരിയമഗ്ഗോ	-10.8751
▁അകാര	-10.8756
▁അവസിട്ഠ	-10.876
▁സമനുപസ്സാമി	-10.8761
നീയോ	-10.8762
സങ്ഖാതായ	-10.8762
▁സിക്ഖായ	-10.8763
▁ദഹരോ	-10.8763
ിത്ഥാതി	-10.8764
▁സുഞ്ഞം	-10.8765
▁ധാരയാമീ	-10.8766
▁ഉബ്ബ	-10.8766
▁കരോതീ	-10.8767
ാനുപസ്സീ	-10.8769
സഹായ	-10.8769
ധാന	-10.877
▁ജിവ്ഹായ	-10.877
▁അസുര	-10.8773
▁ഭസ്സ	-10.8774
▁ലോല	-10.8775
▁ഉപയോഗവചനം	-10.8778
കിത്തന	-10.8783
▁ഗന്ഥാ	-10.8783
▁ധാരണ	-10.8786
▁സാധ	-10.8787
▁യേനായസ്മ	-10.8788
▁രവ	-10.8789
▁പതിട്ഠഹി	-10.8791
▁സഹത്ഥാ	-10.8791
▁ആജീവ	-10.8792
▁ആപജ്ജതീതി	-10.8795
▁അധിമോക്ഖ	-10.8796
▁സീലാനി	-10.8798
▁നാവായ	-10.8799
▁മേതം	-10.8799
ഞ്ഞു	-10.8801
▁നാസക്ഖി	-10.8802
▁സാരണീയം	-10.8803
▁മഗ്ഗപച്ചയ	-10.8803
▁ലക്ഖ	-10.8807
പധാന	-10.8808
പുഞ്ജ	-10.8809
▁വിപസ്സതി	-10.8811
രുള്ഹ	-10.8811
വുട്ഠാന	-10.8814
▁ഥോമ	-10.8815
അവ	-10.8817
ിയാതി	-10.8818
▁അദോസോ	-10.8819
വ്ഹോ	-10.8819
▁അദ്ധാനം	-10.882
▁ഗാവ	-10.882
▁തുട്ഠ	-10.882
▁രാജപുത്ത	-10.8822
▁മഗ്ഗഞാണ	-10.8822
▁ഹിദം	-10.8822
▁അസം	-10.8823
▁സമാപത്തിയോ	-10.8826
▁അലങ്കത	-10.8828
▁സഹേതുകം	-10.8828
ടീകാ	-10.883
▁ട	-10.8832
▁പക്ഖന്ദ	-10.8834
▁തിഹേതുക	-10.8834
▁ആകാസേന	-10.8836
ാനംയേവ	-10.8836
താദിസോ	-10.8842
▁യോജേതബ്ബാ	-10.8842
▁സമ്മോദനീയം	-10.8844
▁നകമ്മപച്ചയാ	-10.8845
സങ്ഖ്യ	-10.8847
രഹിതം	-10.885
താര	-10.885
▁ചക്ഖുസമ്ഫസ്സ	-10.8853
▁പരിവത്തേത്വാ	-10.8855
▁സുത്തസ്സ	-10.8857
▁സക്കച്ച	-10.8859
▁പുഥൂ	-10.8859
സീമായ	-10.886
▁ആദിസദ്ദേന	-10.886
▁ഞാതീ	-10.8862
രജ്ജു	-10.8864
▁നയന	-10.8864
▁അവണ്ണ	-10.8866
▁വച	-10.8869
▁തീര	-10.887
▁ബ്രഹ്മവിഹാര	-10.8872
ഗ്ഗോ	-10.8873
▁വിരൂപ	-10.8874
▁അരഹന്താനം	-10.8874
▁സുപ്പതിട്ഠിത	-10.888
▁നിഹീന	-10.8883
▁തദുഭയം	-10.8885
▁രാജകുമാര	-10.8886
▁തത്രാപി	-10.8886
▁സഹജാതോ	-10.8888
▁സാദിയതി	-10.8889
കോടിയോ	-10.8889
▁ഗിലാനസ്സ	-10.889
ഗന്തബ്ബ	-10.8892
▁൧൪൯	-10.8893
▁സാസവ	-10.8894
▁൧൬൦	-10.8894
മന്ദ	-10.8895
▁രതോ	-10.8896
▁പാരമിയോ	-10.8896
▁സംസ	-10.8897
▁ദിയ	-10.8898
▁രഥം	-10.8902
▁നിധ	-10.8906
▁ചക്കം	-10.8909
▁പാരി	-10.891
▁തഞ്ചേ	-10.8912
▁ഥിനമിദ്ധ	-10.8914
സന്	-10.8914
▁ഛാരത്തം	-10.8915
ട്ഠക	-10.8915
രുണ	-10.8916
പച്ചുപട്ഠാനാ	-10.8917
▁യുജ്ജ	-10.8918
▁സോഭന	-10.8922
പരിഹാര	-10.8922
▁മഹപ്ഫലം	-10.8924
▁അനുപ്പന്നസ്സ	-10.8924
▁മുട്ഠി	-10.8926
▁സചക്ഖുകാന	-10.8926
▁മനുസ്സോ	-10.8927
▁ഉപട്ഠിത	-10.8929
▁ഏദിസ	-10.893
▁ബീജം	-10.8932
▁വേമതികാ	-10.8937
▁ആസും	-10.8938
▁പടിസംവേദേതി	-10.8938
▁ദുതിയേന	-10.8939
▁സ്വായം	-10.8939
നാമം	-10.894
▁ഏകച്ചസ്സ	-10.8941
പിടക	-10.8943
▁കരേ	-10.8945
▁കുക്കുച്ച	-10.8946
▁ദോസാ	-10.8947
സാലാ	-10.895
സമ്ഫസ്സ	-10.8952
▁ഉപസങ്കമി	-10.8952
▁വിപസ്സീ	-10.8955
▁ഭാരോ	-10.8955
▁ലാ	-10.8955
▁ബ്രഹ്മലോക	-10.8956
▁ഓക്കന്ത	-10.8958
ലോഹ	-10.8958
▁ജനസ്സ	-10.896
ലോഭ	-10.8961
▁ഓകാസേ	-10.8962
▁മുനീ	-10.8962
▁സമ്മസന	-10.8967
മാസേ	-10.8968
▁സീലവന്ത	-10.8969
▁വിചികിച്ഛാസഹഗതേ	-10.8969
സപ്പായ	-10.8971
▁തിട്ഠേയ്യ	-10.8972
ഏത്തക	-10.8972
▁കേവലഞ്ച	-10.8973
സഞ്ഞാവേദയിതനിരോധ	-10.8974
▁പിട്ഠ	-10.8974
▁ഖഗ്ഗ	-10.8974
▁ഉപസമ്പന്ന	-10.8975
൧൩	-10.8976
▁പോസോ	-10.8976
▁പവാരണായ	-10.8977
▁സഹേതുകാ	-10.8977
▁നഅകുസല	-10.8981
▁പരലോക	-10.8982
▁അനിയതോ	-10.8985
വിവട്ട	-10.8986
▁ഭബ്ബോ	-10.8987
ിന്ദ്രിയാ	-10.899
▁സത്തമീ	-10.8993
▁അനുത്തര	-10.8995
വചനേ	-10.8996
േസിം	-10.8996
▁പഞ്ചധാ	-10.8998
ജപ്പ	-10.8999
▁സന്ഥത	-10.8999
▁വിദൂ	-10.9001
ജി	-10.9004
ായാ	-10.9004
▁രതനത്തയ	-10.9004
▁ഉത്തരിം	-10.9005
▁സമനന്തരപച്ചയ	-10.9005
ിസ്സര	-10.9006
▁പിടക	-10.9007
▁അജ്ഝത്തിക	-10.9007
പരിളാഹ	-10.9013
ിയമാനം	-10.9014
നിര	-10.9014
സത്തി	-10.9016
▁മാനാനുസയം	-10.9017
▁ലോകനായകം	-10.9017
▁കാലമകാസി	-10.902
▁൧൪൫	-10.9021
ബുജ്ഝ	-10.9021
▁സല്ലേഖ	-10.9021
വിരഹിത	-10.9026
യക്ഖ	-10.9026
▁സിദ്ധം	-10.9027
▁ഗരുകം	-10.9031
സിരി	-10.9031
▁ഉട്ഠഹിത്വാ	-10.9031
കായം	-10.9032
പുപ്ഫം	-10.9033
പരിസ	-10.9034
▁ജീവം	-10.9034
▁പുല്ലിങ്ഗ	-10.9035
▁ഉപസമ്പദ	-10.9039
ുത്തമ	-10.9039
▁മത്തികാ	-10.9041
▁ആദ	-10.9042
▁പുനദിവസേ	-10.9042
▁ജാതക	-10.9044
▁ഭുസം	-10.9045
▁പവത്തമാന	-10.9045
▁മിത്തോ	-10.9046
▁ഉപേക്ഖാസഹഗതം	-10.9046
▁തമ്ബ	-10.9047
▁ഉപജ്ഝായോ	-10.9047
സ്മിഞ്ച	-10.9053
▁ജീവതി	-10.9055
ലേപ	-10.9055
▁ദുഗ്ഗന്ധ	-10.9061
▁പടിക്കൂല	-10.9061
▁നുപ്പജ്ജതീതി	-10.9063
സമാപത്തിയാ	-10.9064
▁ഗങ്ഗായ	-10.9064
▁ചതുധാ	-10.9065
ഹദയ	-10.9066
ദിസോ	-10.9068
സസ്സ	-10.9069
ഥൂപ	-10.9069
▁ഭാജ	-10.907
നിസിന്ന	-10.9071
സമോധാന	-10.9073
▁ദിട്ഠിഗതം	-10.9078
വാസോ	-10.9078
ഫരണ	-10.9081
▁സേക്ഖോ	-10.9082
നിവാരണ	-10.9083
▁പഗുണ	-10.9085
പരിയോസാനേ	-10.9085
▁സങ്ഖാരക്ഖന്ധ	-10.9086
▁അപ്പണിഹിത	-10.9087
സമ്പ	-10.9088
▁പഞ്ഞം	-10.9089
ദീഹി	-10.9089
ലിക	-10.909
▁അഞ്ഞമ്പി	-10.909
▁പരത്ഥ	-10.9094
▁ഗജ	-10.91
▁സഭാവോ	-10.9101
▁വിഞ്ഞാണഞ്ചായതനം	-10.9106
ചിത്തേ	-10.9107
▁ഖീരം	-10.9109
▁ഭാവയ	-10.911
▁അപ്പഹായ	-10.9114
ഗ്ഗേ	-10.9115
▁രജത	-10.9117
ികസ്സ	-10.9121
▁൧൫൭	-10.9121
▁മഹാസമുദ്ദേ	-10.9121
▁അയ്യ	-10.9123
▁ചേതോവിമുത്തി	-10.9127
▁ഏകോവ	-10.9127
▁പരിഞ്ഞ	-10.9127
▁ചോദനാ	-10.9129
▁നിബ്ബിദാ	-10.9129
▁രുക്ഖസ്സ	-10.9131
ാധിപ്പായോ	-10.9131
▁അസപ്പുരിസ	-10.9133
▁വിസ്സാസ	-10.9134
▁സുപിന	-10.9135
▁പരിയന്ത	-10.9136
▁ദുക്ഖോ	-10.9137
▁൧൫൩	-10.9139
▁പരിയാപുണ	-10.914
ൂപഗാ	-10.914
▁നിപ്ഫന്ന	-10.9141
▁അത്ഥേന	-10.9143
▁സന്ഥവ	-10.9144
▁സുത്തേന	-10.9145
▁കമേന	-10.9146
നാമകോ	-10.9147
▁സരതി	-10.9147
▁അരഹത്തമഗ്ഗേന	-10.9147
▁വിഭങ്ഗേ	-10.9147
▁സോതാപന്ന	-10.9149
▁പുബ്ബണ്ഹസമയം	-10.9149
▁മക്കട	-10.9151
▁കരുണായ	-10.9152
▁സമാഗമോ	-10.9153
▁സീമം	-10.9153
▁ദേഥ	-10.9155
സമ്പദായ	-10.9156
▁ബഹുല	-10.9156
▁യാവകാലിക	-10.9156
ുദ്ധ	-10.9157
ച്ഛേദന	-10.9166
▁സുപണ്ണ	-10.9166
▁പവത്തിത	-10.9167
▁പതതി	-10.9173
ദേസനായ	-10.9174
▁അഭിവാദ	-10.9174
▁ഉപ്പജ്ജമാന	-10.9178
ലതാ	-10.9181
▁സങ്ഖാരേസു	-10.9181
▁പല	-10.9184
▁ഗച്ഛതോ	-10.9187
വാപി	-10.9188
▁ഭുജ	-10.9188
▁കരോന്തീതി	-10.9191
▁സമാദിയ	-10.9192
▁ധമ്മാഭിസമയോ	-10.9193
▁അഗമംസു	-10.9193
▁ദുസ്സീലോ	-10.9194
ഗല	-10.9196
വേഗ	-10.9198
വിനയോ	-10.9201
▁കലഹ	-10.9203
▁൧൫൯	-10.9204
പടിപാടിയാ	-10.9205
▁ആരദ്ധ	-10.9206
▁പരിസുദ്ധാ	-10.9206
▁സാസവാ	-10.9207
ഗന്ധോ	-10.9209
▁വിവാദോ	-10.921
▁ആണത്തി	-10.9211
▁സേദ	-10.9213
സമത്ഥ	-10.9213
▁മഹാനുഭാവോ	-10.9214
▁പരിപുണ്ണം	-10.9215
സംയോജനം	-10.9217
ഗണോ	-10.9221
▁കേനട്ഠേന	-10.9224
▁വിഞ്ഞാണപച്ചയാ	-10.9225
▁സത്ഥം	-10.9226
ിതോതി	-10.9226
▁൧൫൫	-10.9228
ടോ	-10.9229
തത്താ	-10.9231
▁സന്തേപി	-10.9232
▁നിപ്	-10.9232
സതേഹി	-10.9233
ഭാഗോ	-10.9234
ുപച്ഛേദ	-10.9234
ാനുഗത	-10.9236
ുല	-10.9237
▁തദുപ	-10.9238
സുര	-10.9241
▁വിനസ്സതി	-10.9241
▁സൂ	-10.9241
മഹത്ത	-10.9242
▁ചക്ഖുധാതു	-10.9245
▁൧൫൪	-10.9245
▁സമ്പയുത്തപച്ചയ	-10.9246
▁ഉപ്പജ്ജമാനം	-10.9247
▁നേക	-10.9247
▁ബഹുസ്സുതാ	-10.9248
ഭീ	-10.9251
പ്പകാസന	-10.9252
▁ഏവരൂപേ	-10.9253
▁വിഞ്ഞായ	-10.9253
▁അട്ട	-10.9257
ഭണ്ഡം	-10.926
▁പസ്സതീ	-10.9261
മോക്ഖ	-10.9262
▁ഗച്ഛാമ	-10.9262
▁ചവിത്വാ	-10.9264
കടാഹ	-10.9264
▁കച്ചാന	-10.9265
സോതം	-10.9267
▁പാരിസുദ്ധി	-10.9269
പാതുഭാവ	-10.9269
▁വജിര	-10.927
കച്ചി	-10.9271
▁അരിയസ്സ	-10.9272
▁കന്താ	-10.9273
▁താദീ	-10.9275
▁ആരദ്ധവീരിയോ	-10.9281
▁യഥാഭതം	-10.9282
▁ആദികമ്മികസ്സാതി	-10.9283
▁പൂജയ	-10.9283
▁പടിനിസ്സജ്ജ	-10.9289
▁പാകതിക	-10.929
▁നപ്പ	-10.9292
▁നവവിധ	-10.9292
സദ്ദേ	-10.9293
കോടിയാ	-10.9294
നയന	-10.9295
▁കുരു	-10.9295
യതേ	-10.9296
രസ്സ	-10.9298
▁പരിനിബ്ബുതേ	-10.9298
ഭുത്ത	-10.9299
സന്താപ	-10.93
▁നവുതി	-10.9301
▁അമര	-10.9303
▁അമ്മ	-10.9304
▁ജായ	-10.9306
▁ബ്യാകര	-10.9309
വിര	-10.931
ജനപദ	-10.931
▁൧൫൧	-10.9311
▁നിട്ഠാ	-10.9313
▁യേപി	-10.9314
▁ഉപഗതോ	-10.9314
▁ഇദ്ധിപാദ	-10.9315
▁പരിയോസാനം	-10.9315
ഗോചരോ	-10.9315
വിധാനം	-10.9315
▁സമാപജ്ജതി	-10.9316
▁അപ്പമത്തക	-10.9317
▁കിസ	-10.9318
▁കാളക	-10.9319
മയോ	-10.9321
സഭാവത്താ	-10.9322
▁ഭഞ്ജ	-10.9323
ഭേസജ്ജപരിക്ഖാര	-10.9329
▁തിതിക്ഖ	-10.9331
തയോ	-10.9331
▁അചേലക	-10.9332
▁ആയസ്മന്തോ	-10.9333
ഗണന	-10.9334
▁സദ്ധമ്മം	-10.9335
സമണോ	-10.9336
ഗ്ഗഹിത	-10.9337
▁സിദ്ധ	-10.9339
▁പരിനിബ്ബായ	-10.9339
വിഞ്ഞേയ്യ	-10.934
▁ആപജ്ജിത്വാ	-10.9342
▁അപ്പം	-10.9342
▁പരിമാണ	-10.9346
▁ഉമ്മത്തകസ്സ	-10.9346
യിത്ഥ	-10.9346
▁പരിനിബ്ബുത	-10.9346
▁വല്ലി	-10.9346
ചയ	-10.9349
▁സതിന്ദ്രിയം	-10.9353
ിന്ദ്രിയാനി	-10.9356
▁വസനട്ഠാനം	-10.9356
പദേഹി	-10.9356
ബഹുല	-10.9357
വചനസ്സ	-10.9358
സന്തോസോ	-10.9359
▁൧൬൫	-10.9361
ളക	-10.9361
നീയാ	-10.9362
▁ലു	-10.9363
▁സുനഖ	-10.9365
▁൧൫൮	-10.9365
▁പരിജാനന്തി	-10.9367
▁വിതക്കവിചാര	-10.9367
▁മുണ്ഡ	-10.9367
▁തദനന്തരം	-10.9368
▁അകാ	-10.937
▁പവത്തിയാ	-10.9372
▁ലീനത്ഥപ്പകാസനാ	-10.9372
സുഖായ	-10.9372
▁ആരമ്മണപച്ചയോ	-10.9373
▁ഥാവര	-10.9373
യന്തീതി	-10.9375
▁കുലപുത്തോ	-10.9375
ത്ഥേരവത്ഥു	-10.9378
▁കോട്ഠാസേ	-10.9378
സന്താനേ	-10.938
▁സന്താപ	-10.9381
▁പേമ	-10.9381
▁വാസം	-10.9383
▁ലോകോതി	-10.9383
▁പണ്ഡക	-10.9385
▁സാമിസ	-10.9385
വഗ്ഗസ്സ	-10.9386
▁ഇത്ഥിം	-10.9386
ഥോ	-10.9388
തബ്ബാ	-10.9389
▁അപ്പവത്തി	-10.9391
ചത്താലീസ	-10.9393
▁പഞ്ചാല	-10.9393
▁ദന്ധാഭിഞ്ഞം	-10.9396
▁ആഗതേ	-10.9396
▁ഭക്ഖ	-10.9398
ൂര	-10.9401
▁ഠാ	-10.9404
▁മഞ്ഞഥ	-10.9405
▁ദിട്ഠിഗത	-10.9405
▁പടിപജ്ജതി	-10.9408
▁അട്ഠമോ	-10.9409
▁മാതുല	-10.9411
പ്പഹാര	-10.9411
▁വാദം	-10.9412
▁തുല്യ	-10.9412
▁പുരം	-10.9412
ഹത്ഥാ	-10.9413
▁തേഭൂമക	-10.9415
▁വിസോധ	-10.9416
▁ലദ്ധോ	-10.9418
സമാചാര	-10.9419
▁മഹാഭൂതാനം	-10.9419
▁ലതാ	-10.942
▁പച്ചയം	-10.942
ാനുസയ	-10.9423
ീഭൂത	-10.9425
തസ്മിം	-10.9425
േകവചന	-10.9425
ിനിയാ	-10.9426
▁അകുപ്പ	-10.9427
▁ഞാതോ	-10.9432
ഉപാദാനവിപ്പയുത്ത	-10.9433
ാനുപസ്സനാ	-10.9434
▁ഹിസ്സ	-10.9435
▁വേദിതബ്ബോതി	-10.9437
▁സച്ഛികതാ	-10.9439
▁അനവ	-10.9439
നാളി	-10.944
▁അസപ്പായ	-10.9441
▁നിയ്യാന	-10.9441
പരിയ	-10.9442
▁സരാ	-10.9443
▁ആദര	-10.9443
▁ഠിതത്താ	-10.9445
▁സങ്ഘാദിസേസാ	-10.9446
ാധിട്ഠാന	-10.9447
▁പരിണാമ	-10.945
▁ആവട്ടനാ	-10.945
▁സിങ്ഗാല	-10.9451
ദദ	-10.9452
ാരഹോ	-10.9452
▁സങ്ഖാ	-10.9452
സാഗര	-10.9454
▁ഭിക്ഖുനീതി	-10.9454
മാഗമ്മ	-10.9454
ത്ഥേരഅപദാനം	-10.9456
▁അധിഗമായ	-10.9458
▁അഭാവോ	-10.9458
വത്ഥുക	-10.9459
▁യുവ	-10.946
▁സുഞ്ഞോ	-10.9462
▁ഞാണന്തി	-10.9462
വതോ	-10.9462
▁ദസബലസ്സ	-10.9464
▁ബുദ്ധപ്പമുഖ	-10.9464
▁സമാധിം	-10.9469
ന്	-10.9471
▁ഞാണവിപ്പയുത്ത	-10.9473
▁നായകോ	-10.9473
താല	-10.9473
▁ഭവന്ത	-10.9474
ാപനം	-10.9475
പടിസംയുത്ത	-10.9475
പട്ഠാന	-10.9479
▁പഞ്ഞത്ത	-10.9479
▁ഉക്കംസ	-10.9479
▁പൂവ	-10.9479
▁കഥേന്തി	-10.9482
▁പോരാണാ	-10.9482
▁നട്ഠ	-10.9484
▁പടിലാഭ	-10.9487
▁പരിവുതോ	-10.949
മുനി	-10.9491
▁ജനക	-10.9492
▁അവിതക്ക	-10.9492
സന്നിപാത	-10.9493
▁വിനിപാത	-10.9495
▁ബോധിയാ	-10.9495
ൂപമ	-10.9501
▁സേസേസു	-10.9503
▁നഗ്ഗ	-10.9504
▁നിക്ഖിത്തോ	-10.9506
▁വിമോക്ഖാ	-10.9506
വാചകോ	-10.9508
പരാധ	-10.9508
▁ലോകിയം	-10.9508
▁പാചീന	-10.9508
▁ഛബ്ബഗ്ഗിയേ	-10.9509
▁സമ്പജാന	-10.9509
▁സിക്ഖാപദേ	-10.951
▁അന്തോഗധ	-10.951
▁രൂപാവചരാ	-10.9511
▁അനിദസ്സനസപ്പടിഘ	-10.9512
▁ലഹുക	-10.9513
▁സിക്ഖം	-10.9515
▁ഭഗിനി	-10.9519
▁മേഥുനധമ്മ	-10.9522
▁പാരഗൂ	-10.9523
പിണ്ഡപാത	-10.9527
▁പവത്തേതി	-10.9527
▁ഉക്ഖിത്ത	-10.953
ആരമ്മണ	-10.9531
▁പീതിസുഖം	-10.9533
▁ദിട്ഠിയോ	-10.9537
വിഹിത	-10.9538
▁ഖേമം	-10.9539
ദസ്സനവസേന	-10.954
▁അചിത്തക	-10.9541
പടിഗ്ഗഹണ	-10.9542
മാപജ്ജ	-10.9543
▁ഭിക്ഖുസങ്ഘേന	-10.9543
▁ഇദന്തി	-10.9544
▁വുട്ഠഹ	-10.9545
▁അത്ഥവണ്ണനാ	-10.9545
▁ജങ്ഘ	-10.9549
▁പുച്ഛന്തി	-10.955
വിധിം	-10.955
ഗുത്ത	-10.955
▁അനുഗ്ഗഹ	-10.9551
ഏ	-10.9552
▁ണ്വു	-10.9554
▁നക്ഖമതി	-10.9556
▁ദുക്ഖപടിപദം	-10.9557
▁സീദ	-10.9558
മിമം	-10.9559
▁സുഭാവിത	-10.9559
▁മാണവക	-10.9561
ദീപക	-10.9562
▁ഗല	-10.9562
▁സുധാ	-10.9562
▁ലഭേഥ	-10.9565
മുഖേ	-10.9565
ഹംസ	-10.9565
▁കായവിഞ്ഞാണം	-10.9565
▁പരാമാസ	-10.9566
കദാ	-10.9567
സഞ്ഛന്ന	-10.9568
മേസ	-10.9568
▁പാതിമോക്ഖുദ്ദേസ	-10.957
വിധാ	-10.9572
▁പടികൂല	-10.9573
▁നിബദ്ധ	-10.9575
ഗണാ	-10.9575
▁പഞ്ചങ്ഗിക	-10.9577
▁സത്തസ്സ	-10.9579
▁ചോദിതോ	-10.958
▁വിധുര	-10.958
▁ദസ്സിത	-10.9582
ത്ഥോതി	-10.9583
▁വിതക്കസ്സ	-10.9583
▁മാനുസ	-10.9583
ഗിരി	-10.9584
▁തിണ്ണ	-10.9585
▁അങ്ഗാര	-10.9586
▁ലബ്ഭാ	-10.9587
▁മേത്തചിത്ത	-10.9588
▁സാവത്ഥിം	-10.9589
▁പടിപജ്ജിതബ്ബ	-10.959
▁അജ്ഝോഹാരേ	-10.9593
മക്ഖ	-10.9599
▁അധികാര	-10.9603
വിഭാഗോ	-10.9605
▁സന്നിപതിത്വാ	-10.9605
▁പുരത്ഥിമ	-10.9606
▁ഓളാരികം	-10.9608
▁പടിക്ഖിപ	-10.9608
▁പമജ്ജ	-10.9608
▁ദുഖ	-10.9609
▁൧൬൧	-10.9614
കാരന്ത	-10.9616
അനിച്ച	-10.9617
ജീവിതിന്ദ്രിയഞ്ച	-10.9618
കതമഞ്ച	-10.9619
▁വധിത്വാ	-10.962
▁നിഗമ	-10.9621
▁ദി	-10.9621
▁നിയോജ	-10.9622
▁പരിചര	-10.9623
▁ഏകച്ചം	-10.9625
▁കാമഗുണാ	-10.9625
ഭാവോതി	-10.9627
▁ഗതോതി	-10.9634
▁അമ	-10.9635
▁ധുത	-10.9636
▁അനുഞ്ഞാതാ	-10.9637
▁ഉദ്ധച്ചസഹഗതേ	-10.9644
സത്താനം	-10.9645
▁അനുച്ഛവിക	-10.9645
ച്ഛിന്ദ	-10.9646
▁ഇധാധിപ്പേത	-10.9647
▁പാമോജ്ജം	-10.9648
▁മുദിതാ	-10.9649
▁പരിഗ്ഗഹിത	-10.9649
▁ഖിപ്പ	-10.965
▁ഭാവനാപാരിപൂരി	-10.9652
▁പവത്തന	-10.9655
▁അസങ്ഖതം	-10.9655
▁ജാതിയോ	-10.9655
▁൧൬൭	-10.9656
വാദം	-10.9656
മുട്ഠി	-10.9656
▁ലഭി	-10.9657
▁മിത്താ	-10.9659
▁നാഥോ	-10.9661
▁പിട്ഠിതോ	-10.9661
നിയത	-10.9662
▁തോസ	-10.9662
സംസട്ഠ	-10.9663
▁സമ്പാദ	-10.9666
▁ആരഞ്ഞിക	-10.9666
▁പരിബ്ബാജകാ	-10.9668
സംസഗ്ഗ	-10.9668
▁ഉപേക്ഖ	-10.967
▁അദുക്ഖമസുഖാ	-10.9672
▁മഹാഥേര	-10.9672
▁അനുസ്സരതി	-10.9672
▁യുജ്ഝ	-10.9673
▁ദുഗ്ഗത	-10.9677
▁ഗച്ഛന്തീതി	-10.9677
▁രുക്ഖേ	-10.9677
▁ഖാര	-10.9678
▁പഞ്ഹാവാരോ	-10.9681
▁ബ്രാഹ്മണേ	-10.9684
ഭൂതായ	-10.9684
▁സങ്ഖേപ	-10.9687
നയം	-10.9688
▁അനുപ്പന്ന	-10.9689
▁സത്തവിധ	-10.9689
▁പാതോ	-10.9689
പുട	-10.9691
▁സരണോ	-10.9693
▁ഇച്ച	-10.9693
▁കേസഞ്ചി	-10.9693
▁ചരമാനോ	-10.9693
▁കായഗതാസതി	-10.9695
▁യോനം	-10.9695
▁പദഭാജനേ	-10.9696
▁വിഞ്ഞുതം	-10.9696
▁പോക്ഖര	-10.9699
▁നികന്തി	-10.9699
▁പൂജേസി	-10.9699
▁പരിഞ്ഞാത	-10.97
▁ഖീണാസവാ	-10.9706
▁ലാഭം	-10.9708
മേഘ	-10.9708
▁ദിജ	-10.9708
സ്മിമ്പി	-10.9709
കപ്പിയ	-10.9709
സുഞ്ഞ	-10.9711
▁സംയോജനം	-10.9711
മുദ	-10.9713
▁പഞ്ഞത്താ	-10.9715
പത	-10.9716
പീത	-10.9717
▁പകത	-10.9719
സകം	-10.9724
▁സോധ	-10.9724
▁അയന്തി	-10.9724
അവിജ്ജാ	-10.9725
വീസ	-10.973
സമങ്ഗിനോ	-10.9731
ള്ഹ	-10.9732
▁നിസീദന	-10.9733
▁തുച്ഛ	-10.9734
സലാക	-10.9736
ാനുസാരേന	-10.9738
▁വിപ്പ	-10.9739
▁ചക്ഖുന്ദ്രിയ	-10.9739
അപ	-10.974
▁സമ്മന്തി	-10.9741
▁സതിസമ്പജഞ്ഞ	-10.9742
▁അപ്പഹീനാ	-10.9742
▁ഇദഞ്ഹി	-10.9742
വീതിക്കമ	-10.9743
▁വിരജം	-10.9745
▁അനത്ത	-10.9746
▁വത്ഥാനി	-10.9749
പണ	-10.9751
ച്ചാദിനാ	-10.9755
▁നള	-10.9758
ച്ഛി	-10.9759
നീത	-10.976
▁വേപുല്ലായ	-10.9764
▁കൂടാഗാര	-10.9765
▁പഭസ്സര	-10.9767
കാലേപി	-10.9767
▁മച്ഛരിയ	-10.9769
തിട്ഠ	-10.977
ചിത്തുപ്പാദ	-10.9771
▁നിദ്ദിട്ഠാ	-10.9772
▁ഉച്ചാര	-10.9773
▁വന്ദന	-10.9774
▁മനസോ	-10.9778
▁നിയതാ	-10.9778
▁൧൭൬	-10.9781
നനു	-10.9785
▁വചനീയോ	-10.9788
യോജനാ	-10.9789
▁അഞ്ഞതരാ	-10.979
▁പാതുഭാവോ	-10.9793
▁അഞ്ഞമഞ്ഞപച്ചയ	-10.9793
▁അച്ഛരിയ	-10.9794
പടിപന്ന	-10.9796
▁വേദനാപച്ചയാ	-10.9796
നാമോ	-10.9797
▁ഛിദ്ദ	-10.9797
▁ഉപേക്ഖകോ	-10.9797
ദാമ	-10.9799
▁നിസിന്നേ	-10.98
▁ഉദ്ദിസിത്വാ	-10.9801
▁ആവുധ	-10.9801
▁അനുസ്സാവന	-10.9801
▁കാമാവചരകുസല	-10.9801
▁ഘട്ട	-10.9802
▁ദേസേത്വാ	-10.9802
▁ദുസ്സീല	-10.9803
വീര	-10.9803
സവ	-10.9803
സഞ്ഞിതാ	-10.9804
അകുസല	-10.9805
▁അഭൂത	-10.9805
▁രുക്ഖമൂലേ	-10.9807
▁യസ്സാതി	-10.9808
ചിത	-10.9809
▁രൂപേന	-10.9809
▁ഹത്ഥേഹി	-10.981
▁അരിയസച്ചാനി	-10.9811
▁ലോമ	-10.9813
ലക	-10.9813
വിഹാരോ	-10.9813
▁കങ്ഖതി	-10.9814
▁കണ്ഡ	-10.9816
▁ദുക്ഖസമുദയോ	-10.9816
മൂലകാ	-10.9817
▁പച്ചത്ത	-10.982
▁നിവേസ	-10.982
ൂഹി	-10.9823
ദസഹായതനേഹി	-10.9826
▁൧൫൨	-10.9826
▁വിദിതാ	-10.9826
▁ഭോജനീയം	-10.983
▁സപ്പുരിസോ	-10.9831
▁ഉയ്യാനം	-10.9831
▁പച്ചേക	-10.9831
▁വിഭാവനിയം	-10.9834
▁പാതോവ	-10.9835
▁ഭാഗ	-10.9835
▁സതിം	-10.9836
▁പച്ചവേക്ഖിത്വാ	-10.9838
▁പരിച്ഛിന്ദിത്വാ	-10.9838
ാദീന	-10.9839
മത്തക	-10.984
▁യോധ	-10.984
▁അഭിഞ്ഞേയ്യാ	-10.9842
▁പട്ഠാന	-10.9844
േന്താ	-10.9844
▁പല്ലങ്കം	-10.9845
ഗുണേ	-10.9846
▁അകിരിയ	-10.985
▁രോച	-10.985
രഹിതോ	-10.985
സ്മ	-10.9851
▁വത്ഥുനാ	-10.9852
പല്ലങ്ക	-10.9854
▁ദുക്കരം	-10.9859
▁സമാഹിതോ	-10.9861
▁പവാരിത	-10.9862
ഗീത	-10.9862
▁പഹാതബ്ബഹേതുകാ	-10.9864
▁നാഞ്ഞ	-10.9867
ത്ഥേരസ്സാപദാന	-10.9867
▁ബഹല	-10.987
▁ഗതിയം	-10.9871
ചാരിക	-10.9872
▁നസഹേതുക	-10.9873
▁സീലസ്സ	-10.9873
പജ്ജോത	-10.9875
▁പതിട്ഠിതം	-10.9877
▁പിവിത്വാ	-10.9877
▁വിസയോ	-10.9878
▁വീതിവത്ത	-10.9879
▁ഭവരാഗാനുസയം	-10.988
▁അനാഗാമിമഗ്ഗ	-10.9881
▁ഇട്ഠാ	-10.9882
▁ജടില	-10.9882
▁ബ്യാകരേയ്യ	-10.9883
▁൧൭൯	-10.9883
▁ഗീത	-10.9885
ഥമ്ഭ	-10.9886
▁കാമച്ഛന്ദോ	-10.9887
▁തികിച്ഛ	-10.9888
▁൧൬൨	-10.9888
▁സുതവാ	-10.9889
▁ഉസ്സന്ന	-10.989
തീര	-10.989
ണ്ണവ	-10.9891
അങ്ഗ	-10.9893
▁ഗന്ത്വാന	-10.9893
▁പീഠ	-10.9893
▁യഥാരുചി	-10.9896
▁രൂപധാതു	-10.9897
▁ബോധിസത്തം	-10.9899
ിച്ച	-10.99
ുപേക്ഖാ	-10.9902
▁നപുംസകേ	-10.9902
▁അഞ്ഞാത	-10.9903
▁പത്തചീവരം	-10.9903
▁ധീ	-10.9904
▁വിരജ്ജ	-10.9904
▁ദുമ	-10.9905
സിനേഹ	-10.9905
▁൧൭൪	-10.9906
പുരേജാത	-10.9907
▁പരാമസതി	-10.9908
▁യഥാഭൂത	-10.9909
▁സദ്ധിന്ദ്രിയ	-10.991
▁സമ്മുഖാവിനയേന	-10.9911
▁വിപാകസ്സ	-10.9911
▁താസ	-10.9912
ടക	-10.9914
▁പാപകാനം	-10.9917
ാഭിനിവേസ	-10.9918
▁ഛളഭിഞ്ഞാ	-10.9919
സമങ്ഗി	-10.9921
▁മമായ	-10.9921
സുത്തവണ്ണനായ	-10.9924
▁അച്ഛരിയം	-10.9925
▁ഖുര	-10.9928
▁സുഖുമം	-10.9931
▁ലോകവിദൂ	-10.9932
സിതാ	-10.9934
▁ധമ്മാനുപസ്സീ	-10.9934
▁൧൭൦	-10.9936
▁ഉഗ്ഗഹേത്വാ	-10.9937
▁ഫുസതി	-10.9939
▁ബ്യത്ത	-10.994
ുട്ഠ	-10.994
▁ഉട്ഠാന	-10.994
▁സതാനി	-10.9942
▁സുവിഞ്ഞേയ്യ	-10.9943
▁കാരേ	-10.9944
ഘന	-10.9945
▁വീതരാഗ	-10.9948
വിമാനം	-10.9949
▁യംനൂനാഹ	-10.9949
▁വദേതി	-10.9951
▁വിനി	-10.9951
ത്ഥരണ	-10.9953
▁ഇച്ചേവം	-10.9953
▁തപ്	-10.9955
▁ഇത്ഥിയം	-10.9956
▁ഗന്തബ്ബോ	-10.9957
▁ഭവന്തം	-10.9959
▁ബദ്ധോ	-10.996
ോഭാസ	-10.9961
▁പരിച്ചത്ത	-10.9962
▁പഞ്ചക്ഖന്ധാ	-10.9963
▁പമാദോ	-10.9963
▁സംവച്ഛര	-10.9964
കമ്മേന	-10.9964
▁പുരിസേ	-10.9964
▁കിച്ഛ	-10.9965
▁പിദഹ	-10.9965
▁പതിട്ഠഹ	-10.9967
▁൧൬൯	-10.9968
▁ഇദമസ്സ	-10.9968
▁അദ്ധാന	-10.997
▁മണ്ഡല	-10.9971
▁ഗന്ധാ	-10.9972
പഞ്ഞത്ത	-10.9974
▁സോമനസ്സേന	-10.9974
രത്തം	-10.9976
▁വീതിസാരേത്വാ	-10.9977
▁നിക്ഖമ്മ	-10.9977
▁ഫലക	-10.9977
ിമാനി	-10.9983
▁സമന്നാഗതത്താ	-10.9984
▁ഗഹട്ഠ	-10.9985
▁പടിപത്തിയാ	-10.9986
മത്ഥി	-10.9986
വാസം	-10.9987
▁കാമാവചരാനം	-10.9988
ദിബ്ബ	-10.9988
സഞ്ചേതന	-10.9988
പ്പവത്തിയാ	-10.9988
▁വിധി	-10.9991
▁ധാ	-10.9991
ഗഹിത	-10.9992
▁ഠപിതോ	-10.9993
▁ആഗതത്താ	-10.9995
▁യോപി	-10.9996
പദട്ഠാന	-10.9998
േസ്വ	-11
സുന്ദര	-11
▁പത്ഥനം	-11
▁സോതാപത്തിഫലം	-11.0002
▁സാത	-11.0003
▁പന്ഥ	-11.0004
▁അനിച്ചതാ	-11.0005
ദുബ്ബല	-11.0006
ദന്തോ	-11.0007
മുത്തമ	-11.0008
▁ഖുദ്ദ	-11.0008
ായസ്മാ	-11.001
വിചിത്ത	-11.0011
ീധ	-11.0012
▁സയമ്പി	-11.0012
▁ഫുസേ	-11.0013
ബ്ബം	-11.0014
മകംസു	-11.0014
▁മനോദ്വാരേ	-11.0014
▁കാമവിതക്ക	-11.0016
▁ബുദ്ധേന	-11.0016
▁ആരമ്മണേസു	-11.0016
▁പധാനം	-11.0017
▁നിദ്ദിസിതബ്ബ	-11.0019
▁നിരോധധമ്മ	-11.002
ഗണ്ഹ	-11.0021
ഗമാ	-11.0021
▁നിബ്ബത്തതി	-11.0022
ാചയഗാമിനാപചയഗാമി	-11.0025
▁തദേകട്ഠ	-11.0025
സദ്ധമ്മ	-11.0025
സിലാ	-11.0025
▁ഠപേതും	-11.0027
▁മനോവിഞ്ഞാണം	-11.0029
▁ചോദേതി	-11.003
▁൧൭൩	-11.003
▁ഇത്ഥിന്ദ്രിയഞ്ച	-11.0031
▁നപുംസക	-11.0032
▁സേനം	-11.0033
▁ഉപേക്ഖാസഹഗതാ	-11.0037
ോകാസ	-11.0037
▁സുഭദ്ദ	-11.0038
▁ഏകോപി	-11.0038
ധിക	-11.0041
▁സവ	-11.0042
▁ധമ്മകഥിക	-11.0044
▁തജ്ജാ	-11.0044
▁വപ	-11.0045
▁നിബ്ബത്തേത്വാ	-11.0045
പണീത	-11.0047
നമേവ	-11.0048
▁അയ്യാ	-11.0049
▁കരോന്തീ	-11.005
▁ഏകംസേന	-11.0053
▁ഫരണ	-11.0054
▁പഞ്ഞത്തേ	-11.0057
▁പച്ഛിമാ	-11.0057
സേതി	-11.0058
▁പടിപാദ	-11.0062
▁അപ്	-11.0062
▁പസ്സി	-11.0062
വിഭവ	-11.0062
▁നന്ദി	-11.0065
മിത്തോ	-11.0068
വുദ്ധി	-11.0068
▁രജ്ജു	-11.007
സംസാര	-11.0073
▁സയമ്ഭൂ	-11.0073
▁യോനിസോമനസികാര	-11.0073
വിരഹിതോ	-11.0073
▁വിഹേഠ	-11.0075
▁ഭീതോ	-11.0075
വിപ്പയുത്തപച്ചയാ	-11.0077
പുബ്ബക	-11.0077
തേയ്യ	-11.0078
▁അസ്മാ	-11.0079
▁സുഞ്ഞതോ	-11.0079
▁ദ്വാരേസു	-11.0083
▁ഉപലബ്ഭതീതി	-11.0083
രാധ	-11.0085
▁മഹാപുരിസോ	-11.0086
▁ധമ്മസേനാപതി	-11.0087
▁സമന്നാഗതോതി	-11.0091
▁ചിത്തവിപ്പയുത്ത	-11.0093
▁ആധാര	-11.0096
▁ഇരിയ	-11.0098
▁ആകങ്ഖ	-11.0098
ദായകത്ഥേരഅപദാന	-11.0098
ഭുഞ്ജ	-11.01
ാവുധ	-11.0101
േവാതി	-11.0102
ുസ	-11.0103
▁പഞ്ചവീസതി	-11.0104
▁പപത	-11.0105
കേസ	-11.0105
തുര	-11.0105
▁൧൬൪	-11.0105
▁അപസ്സ	-11.0106
▁അഗ്ഗസാവകാ	-11.0106
വത്ഥാ	-11.0108
േത്വാതി	-11.011
▁൧൭൫	-11.0111
▁അകുസലേഹി	-11.0111
▁ആയൂഹന	-11.0111
ക്ഖിപ	-11.0112
▁ചിത്തന്തി	-11.0113
▁തുല	-11.0115
▁ഹേതുനാ	-11.0115
വോഹാരോ	-11.0117
▁സക്കാരം	-11.012
വിപ്ഫാര	-11.012
▁പയോഗോ	-11.0121
▁നിധി	-11.0121
▁അനിദസ്സന	-11.0122
▁നിക്ഖമന്ത	-11.0124
▁അബ്യാകതഞ്ച	-11.0124
▁ആനുഭാവേന	-11.0125
▁ബുജ്ഝന്തീതി	-11.0129
വിസുദ്ധി	-11.0131
▁കാലങ്കതോ	-11.0132
▁സുഭാസിത	-11.0132
▁അധിട്ഠാനം	-11.0133
▁കതമ	-11.0135
▁ചരേയ്യ	-11.0135
▁നിന്ദ	-11.0135
▁ഫുട്ഠോ	-11.0139
▁അപസ്സന്തോ	-11.0139
വിഭങ്ഗോ	-11.014
മുഖാ	-11.0143
▁സമാപജ്ജ	-11.0144
▁അഞ്ഞമഞ്ഞസ്സ	-11.0147
▁ആരമ്മണതോ	-11.0147
▁ജാതേ	-11.0148
▁സങ്ഘഭേദ	-11.0149
ഭാണവാര	-11.015
▁കമ്മനി	-11.0151
ാധികരണ	-11.0153
▁സന്താന	-11.0153
▁കാസി	-11.0153
▁സിരീ	-11.0158
▁ഗമ്ഭീരോ	-11.016
▁ഉയ്യാന	-11.016
▁യാപന	-11.016
▁ദുതിയസ്സ	-11.0162
ദാരക	-11.0164
▁ദുക്ഖസച്ച	-11.0164
▁പരിവത്തന	-11.0166
▁അമ്ബട്ഠ	-11.0166
▁വിരാഗോ	-11.0167
▁വഗ്ഗാ	-11.0167
ദിട്ഠീ	-11.0167
▁വിസജ്ജ	-11.0168
▁തീ	-11.0168
▁മരിയാദ	-11.0169
▁ഗഹപതയോ	-11.017
പക	-11.0171
▁ദിബ്ബം	-11.0175
▁പോത്ഥക	-11.0175
▁ഏത്ഥേവ	-11.0175
▁ഖന്ധേസു	-11.0175
▁൧൭൮	-11.0176
▁കലല	-11.0176
സമ്മാദിട്ഠി	-11.0177
▁അട്ഠന്നം	-11.0178
▁പടിസഞ്ചിക്ഖതി	-11.0179
വിദൂ	-11.018
▁൧൭൨	-11.0181
▁ഏകേകസ്മിം	-11.0183
▁൧൬൬	-11.0183
സങ്ഘാദിസേസ	-11.0184
▁അനുപാദായ	-11.0184
▁നാനത്തം	-11.0187
▁സുത്തന്തോതി	-11.0188
▁പടിഘാനുസയം	-11.0188
▁ആസീവിസ	-11.0189
ിസ്സഥ	-11.0191
▁സരാഗ	-11.0192
▁വേദനാക്ഖന്ധ	-11.0193
ഗമനേ	-11.0195
പ്പസങ്ഗ	-11.0196
▁പജാനാതീ	-11.0197
▁ഉക്ക	-11.0198
▁പാപികാ	-11.02
▁അഞ്ഞാസി	-11.0204
▁പോരാണക	-11.0206
▁സകലസരീര	-11.0206
സദിസേ	-11.0208
ന്തരാ	-11.0209
▁പക്ഖീ	-11.021
▁വേളുരിയ	-11.0211
▁ദേവദത്ത	-11.0212
നിയാ	-11.0212
ബാഹു	-11.0213
ഹേതുകം	-11.0213
▁സമ്പയോഗ	-11.0217
▁വിക്ക	-11.0217
പഞ്ചകം	-11.0218
▁ഘാനായതനഞ്ച	-11.0219
▁ജന്താഘര	-11.0219
▁ബ്രഹ്മേ	-11.022
▁ഹനതി	-11.0221
▁ആതുര	-11.0222
▁സീമ	-11.0224
▁സുലഭ	-11.0227
▁സമ്പഹംസ	-11.0228
ിസ്സസീ	-11.0229
▁സാതം	-11.0229
▁അസ്സോസി	-11.023
▁സബ്ബാകാരേന	-11.0231
കിത്തി	-11.0231
മോചന	-11.0238
സമുട്ഠിത	-11.0239
▁പാരിപൂരിയാ	-11.0239
▁അങ്ഗുലി	-11.024
▁സക്കാര	-11.024
▁പഠമമഗ്ഗ	-11.024
▁൧൬൮	-11.0241
കത്ത	-11.0241
▁വട്ടന്തി	-11.0245
പാദേ	-11.0246
▁അദിട്ഠ	-11.0247
സംസന്ദന	-11.0248
▁ഹീനാ	-11.0249
▁സകായ	-11.0252
ുപട്ഠാന	-11.0253
▁ആപത്തീതി	-11.0253
ാദീനമ	-11.0255
ധമ്മേന	-11.0258
▁ഗണ്ഹിത്വാ	-11.026
കരണവസേന	-11.0261
▁അഭിണ്ഹം	-11.0262
▁അസിത	-11.0263
▁യാചിത്വാ	-11.0263
▁ദുല്ലഭ	-11.0263
▁തച്ഛ	-11.0265
▁ന്ഹായ	-11.0269
▁സോകപരിദേവദുക്ഖ	-11.0269
▁കുസലമൂല	-11.0269
▁ദാനേ	-11.0269
▁ഏകൂനവീസതി	-11.0272
▁തുട്ഠോ	-11.0272
ബ്ഭന്തരേ	-11.0274
▁ഗന്ഥോ	-11.0276
▁അരണം	-11.0278
▁തബ്ബ	-11.0284
▁കലി	-11.0284
▁ഫസ്സം	-11.0286
ഉപാദാന	-11.0286
പാനം	-11.0286
▁ഉദ്ദിട്ഠ	-11.0287
▁വോദാന	-11.0288
▁പടിഗ്ഗഹണ	-11.0289
▁നിബ്ബിന്ദ	-11.0291
▁ത്വമ്പി	-11.0292
▁രൂപന്തി	-11.0293
▁അരൂപം	-11.0293
പരായണ	-11.0294
ഗുമ്ബ	-11.0297
▁സമനുപസ്സ	-11.0297
▁ഓസധ	-11.0297
▁തത്ഥാപി	-11.0298
▁സന്നി	-11.0299
ബ്ബി	-11.03
പരിയോസാനം	-11.0301
ഏകനവുതി	-11.0301
ിത്ഥീ	-11.0301
പാകാര	-11.0302
▁മാല	-11.0303
▁പോക്ഖരണീ	-11.0303
▁മുസാവാദാ	-11.0304
▁ആചയഗാമി	-11.0308
▁അരഹത്തേ	-11.0312
▁പഞ്ചവിധ	-11.0313
▁ഗച്ഛന്ത	-11.0315
▁സമാദാന	-11.0316
▁കിലേസകാമ	-11.0316
അപര	-11.0316
▁സമുച്ഛിന്ദ	-11.0319
ാദീനമ്പി	-11.0322
യാച	-11.0325
▁പൂജിതോ	-11.0325
▁ദോമനസ്സസഹഗത	-11.0327
▁പദാ	-11.0328
▁സുചരിതം	-11.0329
ടാ	-11.0329
ഖേത്ത	-11.0331
കോസ	-11.0331
▁സമ്പജാനമുസാ	-11.0331
▁ആരഞ്ഞക	-11.0332
▁ചന്ദിമാ	-11.0334
▁വിരാഗായ	-11.0335
▁പതിട്ഠാതി	-11.0339
▁പാപുണന്തി	-11.0342
യാനി	-11.0342
൧൮	-11.0342
▁പട്ഠപ	-11.0344
▁വിരമ	-11.0345
▁വിജിത	-11.0347
തതിയ	-11.0348
▁അച്ഛിന്ന	-11.0354
▁ഓട്ഠ	-11.0354
▁ബ്യഞ്ജനം	-11.0354
▁ഖയം	-11.0354
▁സോളസഹി	-11.0354
ഹിത്വാ	-11.0356
▁ഉപപന്നോ	-11.0357
ത്ഥേരേന	-11.0358
▁സാവത്ഥി	-11.036
▁ബുദ്ധവചനം	-11.0361
ട്ഠാനേസു	-11.0362
സതേ	-11.0364
കണ്ഡം	-11.0364
പ്പകരണ	-11.0364
ലേസ	-11.0364
▁ദേവതായ	-11.0365
ഹച്ച	-11.0365
പരിയായേന	-11.0366
▁സമ്മാആജീവോ	-11.0367
ലസ	-11.0368
▁നിവാസേ	-11.0368
വു	-11.0369
▁അത്ഥപടിസമ്ഭിദാ	-11.037
ഇമായ	-11.037
യന്താ	-11.037
▁ദേതീതി	-11.037
നകാലേ	-11.0371
▁സിപ്പം	-11.0372
▁ദ്വിന്നമ്പി	-11.0372
▁സോതധാതുയാ	-11.0373
ഗ്ഗണ്ഹ	-11.0373
▁ഉപ്പജ്ജ	-11.0375
ബീജം	-11.0375
▁ലഭേയ്യ	-11.0376
▁ഖീണാ	-11.0377
▁സേവിതബ്ബോ	-11.0379
മധു	-11.038
▁൧൮൪	-11.0381
▁ചേതനായ	-11.0385
നോതി	-11.0386
▁ഉഭയം	-11.0388
പടിക്ഖേപ	-11.0391
▁അകതം	-11.0391
▁പാണാ	-11.0393
ങ്ഗുലി	-11.0395
▁ഗഹിതേ	-11.0395
തുമ്ഹേ	-11.0398
▁പദത്ഥ	-11.0399
ൂപായ	-11.0399
കരണതോ	-11.04
▁അസ്സമം	-11.04
▁ചുതസ്സ	-11.04
▁അകുസലേ	-11.0402
▁ആവാസ	-11.0403
▁സോഭതി	-11.0405
▁ആയത	-11.0405
ജ്ജന	-11.0406
▁സൂല	-11.0407
▁ഏളകലോമ	-11.0409
▁ദിട്ഠാ	-11.0409
▁അനിയത	-11.041
ദാനി	-11.0411
▁സപത്ത	-11.0413
വീരിയം	-11.0414
▁വിവിച്ച	-11.0415
▁അഭിനി	-11.0415
▁പസ്സേ	-11.0418
▁തുണ്ഹസ്സ	-11.0418
▁സങ്ഖ്യം	-11.0421
▁ഥദ്ധ	-11.0422
വിമാന	-11.0424
▁സ്നേഹ	-11.0424
പരിസം	-11.0425
▁ഭുഞ്ജിതും	-11.0427
▁സരസ	-11.0428
▁അത്തഭാവോ	-11.0428
നാനത്തം	-11.0429
സ്സസി	-11.0429
▁മാതുകുച്ഛി	-11.0432
▁നിയ്യാനികം	-11.0436
സൂരിയ	-11.0436
▁പബ്ബതം	-11.0437
▁നിസേധ	-11.0438
▁൧൮൧	-11.0438
▁കുപ്പതി	-11.0439
▁ആയതനം	-11.0439
ച്ഛന്ദ	-11.0439
▁പഗ്ഗണ്ഹാതി	-11.0445
▁ബാഹിരാ	-11.0445
▁പൂജം	-11.0449
▁ഥേരീ	-11.0452
സമുദായ	-11.0453
▁തുലാ	-11.0453
പഥവീ	-11.0455
▁സങ്ഗഹിതം	-11.0455
വത്ഥൂസു	-11.0457
▁ഇണ	-11.0458
കഥന	-11.0463
ിസ്സന്തീതി	-11.0463
വസ്സിക	-11.0463
ഭാവായ	-11.0464
▁മനാപം	-11.0464
▁സീലസമ്പന്നോ	-11.0465
വിസമ	-11.0466
ബ്യത്ത	-11.0468
▁മഹാസത്തസ്സ	-11.0469
▁ആരുയ്ഹ	-11.0469
▁അന്തരന്തരാ	-11.0469
വസീ	-11.047
▁അഗാര	-11.047
▁ഉപാഹനാ	-11.0471
സംഹിത	-11.0471
▁ഗഹപതിപുത്ത	-11.0474
▁ലഭതീതി	-11.0475
ട്ഠകഥായം	-11.0476
▁സീതല	-11.0476
▁സാധേതി	-11.0477
▁സത്തധാ	-11.0477
▁ഛാദേതി	-11.0478
▁ഗമിസ്സ	-11.0479
▁തുയ്ഹ	-11.0479
▁ഗന്ഥസമ്പയുത്ത	-11.0479
▁നന്ദീ	-11.048
കട	-11.0484
▁ഥിനമിദ്ധം	-11.0485
▁ഉദ്ദേസം	-11.0488
മോഗ്ഗല്ലാന	-11.0488
▁സമ്ഭവന്തി	-11.0489
ൂനം	-11.0489
▁൧൬൩	-11.049
▁വന്ത	-11.0491
▁ഉത്തരാസങ്ഗം	-11.0491
▁മജ്ഝിമോ	-11.0493
ാനുരൂപ	-11.0494
ിഞ്ച	-11.0497
▁ദുക്കടമേവ	-11.0498
മണ്ഡിത	-11.0498
രത	-11.0501
സദ്ദാനം	-11.0501
▁ഏതായ	-11.0504
▁ഗഹണേ	-11.0507
▁അത്തഭാവം	-11.0508
ഘരം	-11.0509
സാധക	-11.0509
▁അസുദ്ധ	-11.0513
▁ദുക്ഖസ്സന്ത	-11.0513
▁ക്രിയ	-11.0516
▁പടിസല്ലാന	-11.0518
കമ്മാ	-11.0519
▁നുപലബ്ഭതി	-11.052
▁ഉതുസമുട്ഠാനം	-11.0521
▁ആമന്തേത്വാ	-11.0521
▁പുട്ഠാ	-11.0522
▁നിപന്നോ	-11.0523
ാരമ്മണോ	-11.0524
പുരേക്ഖാര	-11.0525
▁തീസുപി	-11.0528
▁മഹാവീരോ	-11.0529
▁ഛായാ	-11.053
കൂല	-11.0531
▁അബ്യാപജ്ജ	-11.0532
മ്പീ	-11.0532
▁ഗോചരോ	-11.0532
ചിര	-11.0533
▁പടിലഭിത്വാ	-11.0533
▁പാരിവാസിക	-11.0535
സന്നിഭ	-11.0535
▁ജനപദേ	-11.0535
▁പച്ചത്ഥിക	-11.0537
▁ഞാതീനം	-11.0537
▁തിവിധേന	-11.0538
▁ഏതമ്പി	-11.0538
▁ദാസി	-11.0539
▁തീരം	-11.054
▁അപ്പക	-11.0541
വിഞ്ഞത്തി	-11.0542
▁ഗിഹീനം	-11.0542
▁സമാധിസ്സ	-11.0543
▁ആസവവിപ്പയുത്തോ	-11.0543
▁പസവ	-11.0544
▁ഗന്തബ്ബ	-11.0545
▁അഞ്ഞേസു	-11.0545
▁സബ്ബത്ഥാതി	-11.0545
▁മിഗാ	-11.0547
▁യഥേവ	-11.0547
▁ദാരകാ	-11.0547
ഗഞ്ഛി	-11.0548
▁പടിപ്പസ്സദ്ധി	-11.0548
▁ഗന്ധബ്ബ	-11.0548
▁കരോന്തേന	-11.055
▁ദത്വാന	-11.055
▁ജഗ്ഗ	-11.0551
തലം	-11.0554
▁പക്ഖി	-11.0555
ാപയതി	-11.0556
▁ആദിനാ	-11.0557
▁ദിന്നേ	-11.0558
▁സപ്പച്ചയ	-11.0559
▁ദിന്നാ	-11.0559
▁നിമന്ത	-11.056
▁ഭവന്തോ	-11.0561
പടിഭാന	-11.0564
പരികമ്മ	-11.0565
▁ബഹുജന	-11.0568
▁ലോകനായകോ	-11.057
▁അഥേകദിവസം	-11.057
▁യഥയിദം	-11.057
രൂപസ്സ	-11.0572
▁വിഞ്ഞാപേ	-11.0575
▁പരിഗ്ഗഹേത്വാ	-11.0576
ധമ്മേഹി	-11.0577
▁൧൮൦	-11.0577
സംസയ	-11.0578
▁ആചയഗാമീ	-11.0578
▁പജാനന്തി	-11.0579
ുപഗ	-11.0579
മരണം	-11.0579
▁സംവട്ട	-11.058
ഇച്ചേതേ	-11.058
▁ഹോന്ത	-11.0581
▁ആനിസംസോ	-11.0581
ാധിപ്പായേന	-11.0582
▁ഇദ്ധിപാദാ	-11.0583
▁അദിന്നാദാനാ	-11.0583
▁സീലക്ഖന്ധ	-11.0584
സദിസമേവ	-11.0584
മാനസാ	-11.0585
▁അഭാവിത	-11.0587
▁ആകാരേന	-11.0587
▁നാലം	-11.0591
▁പാപേത്വാ	-11.0592
▁പക്കോസ	-11.0593
▁വിഞ്ഞൂനം	-11.0593
▁വത്തബ്ബത്താ	-11.0593
ദരഥ	-11.0593
▁മനായതനഞ്ച	-11.0594
▁ദുസ്സീല്യ	-11.06
വിഘാത	-11.0604
ദാസി	-11.0606
▁ഭിക്ഖാ	-11.0606
ട്ഠപന	-11.0606
▁വേദിയ	-11.0606
അഗ്ഗി	-11.0606
സോധന	-11.0607
▁അപ്പമാണോ	-11.0607
േയ്യോ	-11.0607
▁നിരോധായ	-11.0608
ഏകം	-11.0608
▁ഭവിസ്സന്തീ	-11.061
▁൧൭൭	-11.061
ാദിനോ	-11.061
വിചാര	-11.061
സുഞ്ഞത	-11.0612
▁ബഹുക	-11.0613
വേധ	-11.0616
▁നകാമാവചര	-11.0618
▁വട്ടതിയേവ	-11.0618
ധഞ്ഞ	-11.0618
കിച്ഛ	-11.062
▁വേസാലിയം	-11.0621
▁അനഭാവം	-11.0621
ലിത്ത	-11.0622
▁പലിബോധ	-11.0625
മോച	-11.0626
▁വിസ്സജ്ജനം	-11.0628
കസ്സപ	-11.0628
▁ആരാമോ	-11.063
▁ഹിതം	-11.0631
൧൬	-11.0633
▁വിസുജ്ഝതി	-11.0633
▁നരൂപാവചര	-11.0638
യാനം	-11.0638
▁ഏകക്ഖണേ	-11.0642
▁കരണവചനം	-11.0642
▁ഹന്ത്വാ	-11.0644
ഹമസ്മി	-11.0644
▁അകുസലഞ്ച	-11.0644
▁വിനിച്ഛയം	-11.0645
നിസ്സയപച്ചയേന	-11.0646
ാഗമ	-11.065
പാതിമോക്ഖ	-11.0652
ാരമ്ഭ	-11.0653
പല	-11.0653
ന്ദി	-11.0653
▁രൂപാദീസു	-11.0654
▁ആരമ്ഭ	-11.0657
▁സഞ്ജാന	-11.0657
ചാ	-11.066
▁പഗ്ഘര	-11.0661
വാദേ	-11.0661
വിഹാരീ	-11.0662
▁ചേതസികോ	-11.0662
▁സന്നിധി	-11.0662
▁മുഖതോ	-11.067
▁പുബ്ബചരിതാപദാന	-11.0672
▁വിവട്ടൂപനിസ്സയ	-11.0672
▁ആകങ്ഖമാനോ	-11.0675
▁അവസ്സുത	-11.0677
രംസി	-11.0678
▁ഏതി	-11.0678
▁അപദാനം	-11.068
മതം	-11.0682
പരിവാസ	-11.0683
▁ഖയോ	-11.0683
▁ആലപന	-11.0683
▁ബദ്ധാ	-11.0684
▁നാഥ	-11.0685
▁നിമിത്തേ	-11.0685
▁സേനായ	-11.0685
▁൧൮൩	-11.0686
▁പുബ്ബകമ്മം	-11.0687
▁വാതാ	-11.069
ചാരോ	-11.0692
സത്താ	-11.0693
▁പടിസങ്ഖാ	-11.0695
ാവസാനേ	-11.0695
▁സുഞ്ഞതം	-11.0697
▁പടിസന്ധിയം	-11.0699
ഗതസ്സ	-11.0701
▁കായാനുപസ്സനാ	-11.0706
ികന്തി	-11.0706
വച	-11.0707
▁രമ്മ	-11.0708
പ്ഫല	-11.071
▁ഉപേക്ഖാസഹഗത	-11.071
▁ദേവിയാ	-11.071
സങ്ഘോ	-11.0711
▁വായാമ	-11.0711
ഭൂതാനം	-11.0712
▁ലോകുത്തരോ	-11.0713
▁സബ്ബഞ്ഞുതം	-11.0714
▁കംസ	-11.0715
ദാനേ	-11.0716
▁അന്ധകാര	-11.0717
വത	-11.0718
ക്ഖോ	-11.072
▁തിണ്ണോ	-11.0721
ൂപനിസ്സയ	-11.0724
▁കാതബ്ബന്തി	-11.0724
▁പസ്സാവ	-11.0725
ആചരിയ	-11.0725
ദ്ദി	-11.0726
▁അക്ഖീനി	-11.0726
അഹ	-11.0729
▁അച്ഛിന്ദ	-11.0731
ക്ലേസ	-11.0731
▁ഉപഗച്ഛ	-11.0732
▁സുഖന്തി	-11.0734
▁അവീചി	-11.0735
▁ചരിയാ	-11.0739
കമ	-11.074
ദൂര	-11.0742
▁മനോരമം	-11.0742
▁സംവണ്ണനാ	-11.0742
▁സാഖ	-11.0744
രാജസ്സ	-11.0744
▁സങ്ഗാമ	-11.0749
▁നിബ്ബാനന്തി	-11.0749
▁നഹേതുഞ്ച	-11.075
▁കപ്പതീ	-11.075
േഥാതി	-11.075
വിഗ്ഗഹ	-11.0752
▁അഭിക്കന്ത	-11.0756
▁കായികസ്സ	-11.076
▁സമ്പന്നോ	-11.0762
ാസന്ന	-11.0763
▁വുത്തേസു	-11.0766
▁സാമികോ	-11.0767
മാനോതി	-11.0767
സന്തക	-11.0768
▁ഗജ്ജ	-11.0774
ങ്ഗോ	-11.0775
▁സയമ്ഭു	-11.0775
▁പഹീയന്തി	-11.0776
▁വിസാരദോ	-11.0776
▁ഇസയോ	-11.0778
▁വത്ഥബ്ബം	-11.0778
▁പാതുഭൂത	-11.0778
▁അദസ്സനേ	-11.0778
▁അപുച്ഛി	-11.078
▁ആനന്തരിയ	-11.078
▁അസഞ്ചിച്ച	-11.078
▁൧൯൦	-11.0782
ുനോ	-11.0786
▁അപേത	-11.0786
ാദിന്നഅനുപാദാനിയ	-11.0786
▁ഭങ്ഗാ	-11.0788
▁യാദിസോ	-11.0788
▁രോഗോ	-11.0788
കമ്പന	-11.079
▁പച്ചക്ഖതോ	-11.0791
▁൧൮൨	-11.0792
സന്നിസ്സയ	-11.0793
▁ഭവങ്ഗം	-11.0793
▁മനാപോ	-11.0795
നിദസ്സന	-11.0796
ദീപന	-11.0796
▁സോതിന്ദ്രിയം	-11.0797
▁ഇത്തര	-11.0798
▁വേദേതി	-11.0798
പരിച്ഛിന്ന	-11.0799
സതിപട്ഠാന	-11.08
▁ബ്രഹ്മുനാ	-11.08
യമാന	-11.0802
▁ആവഹ	-11.0803
▁ഇമമേവ	-11.0804
൧൪	-11.0804
ൂപസമ	-11.0808
▁ഛഡ്ഡിത	-11.0808
ചോള	-11.0812
▁സങ്ഗായ	-11.0814
▁രുച്ചതി	-11.0814
വസന	-11.0814
കുച്ഛി	-11.0819
▁ഉപ്പന്നാനം	-11.0819
ടി	-11.0819
ാനമേവ	-11.0819
▁ലാഭസക്കാര	-11.0824
അട്ഠകഥാ	-11.0824
▁പരാമട്ഠ	-11.0825
▁രുചിര	-11.0825
യുഗ	-11.0827
▁ബ്രഹ്മുനോ	-11.0828
ഹിംസ	-11.0828
▁ബജ്ഝ	-11.0829
▁ഹേസ്സതി	-11.0831
▁കേവട്ട	-11.0831
▁ഗയ്ഹതി	-11.0832
▁ആയതനാനി	-11.0837
▁സോകോ	-11.0838
▁തത്തക	-11.0841
ഗാമം	-11.0841
കാമാവചര	-11.0842
പബ്ബജിത	-11.0843
▁സമുദ്ദോ	-11.0843
▁പരേസു	-11.0846
ഭാഗേന	-11.0847
ചക്ഖൂ	-11.0848
ചാരി	-11.085
▁കരോതോ	-11.0851
▁മഹാനാഗ	-11.0855
▁നോചിത്തസമുട്ഠാന	-11.0857
▁വുട്ഠ	-11.0858
▁വചോ	-11.0859
▁സുദ്ധാവാസാനം	-11.086
നിവാസ	-11.0865
▁നിരുദ്ധ	-11.0866
▁രോപ	-11.0867
▁അഞ്ഞായ	-11.0867
▁വുത്തസ്സ	-11.0871
▁സാരിപുത്തസ്സ	-11.0871
▁ഭുസ	-11.0872
▁ബഹൂഹി	-11.0872
▁അട്ഠാന	-11.0873
▁മഹാകസ്സപ	-11.0877
▁കതസ്സ	-11.0878
ാരഹം	-11.0878
ഭാവേനേവ	-11.0878
സസ്സത	-11.0878
▁൧൭൧	-11.088
▁യുഞ്ജ	-11.0882
അത്താ	-11.0883
▁രത്തോ	-11.0883
▁ആപത്താധികരണം	-11.0883
▁ഉപപജ്ജന്തസ്സ	-11.0885
▁തത്രിദം	-11.0886
▁ഇഹ	-11.0887
▁സുഖിതോ	-11.0889
▁വത്തതീതി	-11.0889
▁വസന	-11.089
ാദ	-11.0891
▁വത്വാന	-11.0895
▁ഉദകസ്സ	-11.0896
▁ഭാവന	-11.0896
▁ആനുഭാവ	-11.0899
▁ഞേയ്യം	-11.09
ഞ്ഞേ	-11.0901
▁സങ്ഗഹിതോ	-11.0902
▁൧൮൫	-11.0902
ലക്ഖണേ	-11.0903
▁ഗാവീ	-11.0905
▁സമാനം	-11.0906
▁ചേതിയേ	-11.0907
▁സിങ്ഗ	-11.0907
▁ധമ്മതോ	-11.0909
▁ബില	-11.0909
മാതു	-11.0909
▁അഹേതുകാ	-11.091
രാമോ	-11.0912
▁അരൂപാവചരേ	-11.0914
ഛത്ത	-11.0915
▁അനഭിരതി	-11.0917
▁പകരണ	-11.0918
▁തമോ	-11.092
▁സമ്മാകമ്മന്തോ	-11.0929
ത്ഥികോ	-11.0929
▁വത്ഥുസ്സ	-11.0931
▁അനോമ	-11.0932
▁വിനിധായ	-11.0932
▁അജ്ഝഭാസി	-11.0933
▁ദന്തോ	-11.0933
▁സങ്ഖേപത്ഥോ	-11.0935
▁സങ്കേത	-11.0937
▁പരിപക്ക	-11.0937
▁കാരേന്തേ	-11.094
▁ദന്താ	-11.094
▁പത്തസ്സ	-11.094
▁സതിസമ്ബോജ്ഝങ്ഗോ	-11.0941
▁ആസങ്ക	-11.0941
▁അധിപതിപച്ചയാ	-11.0943
▁അട്ഠംസു	-11.0944
▁ബ്രഹ്മദത്തേ	-11.0948
▁കുലേസു	-11.0949
ുച്ച	-11.095
▁കനിട്ഠ	-11.0951
പോസ	-11.0951
ദസ്സനതോ	-11.0951
ട്ഠാനാനി	-11.0953
▁ബാലസ്സ	-11.0955
▁സന്തപ്പ	-11.0956
ഫ	-11.0956
ചേത	-11.0957
▁തത്ത	-11.0958
▁യസം	-11.0958
▁ഗരുഭണ്ഡ	-11.0959
▁തിഖിണ	-11.096
▁വാള	-11.096
▁പുബ്ബേനിവാസം	-11.0961
പഞ്ഹേ	-11.0961
▁കുസലേ	-11.0961
▁വിപ്പസന്ന	-11.0964
ഭിക്ഖൂനം	-11.0966
പ്പടിപന്ന	-11.0966
ട്ഠകഥാ	-11.0966
മക	-11.0967
൧൭	-11.0969
▁വചീഭേദ	-11.0969
▁വോഹാരോ	-11.0974
അലം	-11.0976
▁കുഞ്ജര	-11.0977
നുഗ്ഗഹ	-11.0978
▁പരിക്ഖയാ	-11.0978
▁സുഖഞ്ച	-11.098
ഖീണാ	-11.0981
▁ആനാപാനസ്സതി	-11.0981
പാസാദ	-11.0981
▁പരിഹീന	-11.0983
▁തിരച്ഛാന	-11.0984
അഞ്ഞം	-11.0984
രൂപൂപപത്തിയാ	-11.0985
ത്യാ	-11.0985
▁യാനം	-11.0985
പന്നോ	-11.0986
▁നോഅവിഗത	-11.0987
സണ്ഠിത	-11.0987
▁പങ്ക	-11.0991
▁അഭിസമ്ബുദ്ധോ	-11.0992
▁പച്ചയേസു	-11.0993
▁മഗ്ഗക്ഖണേ	-11.0994
▁പൂജേത്വാ	-11.0995
▁സമുട്ഠാനേന	-11.0996
താപി	-11.0998
▁കാരകോ	-11.0999
▁ലഭാമി	-11.0999
▁സുണോഹി	-11.1001
▁നോകിലേസ	-11.1001
സ്സാമി	-11.1002
▁വിധാ	-11.1004
വിരുദ്ധ	-11.1004
സദിസത്താ	-11.1005
▁സേവതോ	-11.1006
ഗ്ഗാ	-11.1006
▁മുഹുത്ത	-11.1009
▁സങ്കമ	-11.101
▁ആദിമ്ഹി	-11.101
▁അപരാ	-11.101
▁വദതീതി	-11.1011
സമന്നാഗതോ	-11.1011
▁പജാനനാ	-11.1011
▁പച്ചത്തം	-11.1012
▁പനേസാ	-11.1013
▁പരിക്ഖിത്ത	-11.1017
▁ഖാദന്തി	-11.1019
ദാര	-11.1022
വജ്ജിത	-11.1023
▁ഭവരാഗാനുസയേന	-11.1024
▁വീതരാഗോ	-11.1025
തിആദീസുപി	-11.1025
▁നിദ്ദേസേ	-11.1025
വേല	-11.1026
▁ഹീനോ	-11.1026
▁നിദ്ദിസ	-11.1029
▁വുച്ചമാന	-11.103
മച്ച	-11.1032
▁പുരാ	-11.1032
▁കാരിയ	-11.1032
സത്താഹ	-11.1035
▁ഉപത്ഥമ്ഭ	-11.1037
▁പോട്ഠപാദ	-11.1038
▁കുസീത	-11.1039
ദിവസതോ	-11.1041
▁പിണ്ഡപാതിക	-11.1042
സാവകോ	-11.1043
▁ആനീത	-11.1044
▁പവേസേത്വാ	-11.1044
▁അലജ്ജി	-11.1044
▁പസീദതി	-11.1044
മധി	-11.1045
▁ആപന്നാ	-11.1045
ുന്തി	-11.1045
ജനന	-11.1046
തബ്ബോ	-11.1047
▁പടിച്ഛന്നം	-11.1048
▁വട്ടം	-11.1048
▁മഹേസിനാ	-11.1051
▁മാതുഗാമ	-11.1051
പിയ	-11.1052
▁അനുസ്സവ	-11.1052
േവം	-11.1052
▁കുസലേന	-11.1052
▁അധിട്ഠിത	-11.1053
▁യോജേ	-11.1053
ലഗ്ഗ	-11.1054
ദ്ധോ	-11.1054
▁അനിയമ	-11.1055
▁ധീതരം	-11.1059
▁൧൯൬	-11.1061
▁നോഗന്ഥ	-11.1064
▁അസുരാ	-11.1065
▁ഭവതണ്ഹാ	-11.1065
ാപേന്തോ	-11.1065
▁അനപേക്ഖ	-11.1066
▁ആപജ്ജേയ്യ	-11.1067
▁ലിഖ	-11.1068
ചേ	-11.1068
▁ആനിസംസം	-11.1068
ദസ്സാവീ	-11.1068
▁സവിതക്കം	-11.1069
▁നിരുജ്ഝ	-11.107
▁ഉപേതോ	-11.107
ാദിഭേദ	-11.1071
▁ഉപസംഹര	-11.1072
▁പടിക്ഖേപ	-11.1072
പതിത	-11.1074
▁ഗച്ഛന്തീ	-11.1074
▁തഥാഗതാ	-11.1076
▁ഭൂമിം	-11.1079
സകുണ	-11.1079
▁കാമഗുണ	-11.1081
അനിച്ചം	-11.1082
ത്ഥര	-11.1083
▁തേനേതം	-11.1083
ഹന്ദ	-11.1085
▁സിക്ഖാപദേസു	-11.1085
▁ഭേരി	-11.1086
▁൧൮൯	-11.1086
▁അച്ചയ	-11.1086
▁വത്തു	-11.1088
▁സുദ്ധിക	-11.1088
▁ആവസ	-11.1089
▁ഭദ്ദിയ	-11.1089
▁അത്ഥങ്ഗമോ	-11.1091
▁ഇട്ഠാനിട്ഠ	-11.1092
▁അനേകപരിയായേന	-11.1093
▁സതീതി	-11.1093
▁൧൮൬	-11.1093
൧൯	-11.1094
▁ഗാഹാപേത്വാ	-11.1095
▁പുഞ്ഞക്ഖേത്തം	-11.1095
▁യോബ്ബന	-11.1097
▁ഏകക	-11.1098
▁കതപുഞ്ഞ	-11.11
▁ഉപപജ്ജന്തി	-11.11
▁ഉപലക്ഖണ	-11.1101
▁സഞ്ചേതനികാ	-11.1101
▁അപന	-11.1102
▁വുട്ഠാനം	-11.1104
രൂള്ഹ	-11.1104
▁ദിബ്ബാ	-11.1105
▁സുവിസുദ്ധ	-11.1105
▁അപ്പച്ചയ	-11.1105
ദാരു	-11.1106
▁ചാരു	-11.1106
▁വായോധാതു	-11.1107
ാവബോധ	-11.1108
▁അമനാപ	-11.1108
മപ്പ	-11.111
▁സവിതക്കസവിചാരം	-11.111
▁ബോജ്ഝങ്ഗേ	-11.1111
▁അസമത്ഥ	-11.1111
▁ഹിരോത്തപ്പ	-11.1111
▁ഉപസമ്പദം	-11.1112
▁പരിവജ്ജ	-11.1113
▁ഉപ്പജ്ജമാനോ	-11.1114
ചേതസിക	-11.1117
▁നിദസ്സനം	-11.1117
ഗതാനം	-11.1118
ാഭാവോ	-11.1118
മലം	-11.112
ീകത	-11.112
▁ഗണ്ഹന്തസ്സ	-11.112
▁രാജിനോ	-11.1121
പരിയാപന്നാ	-11.1123
▁വഞ്ച	-11.1123
▁ദിബ്ബായ	-11.1124
▁ഹോഥ	-11.1124
സങ്ഘസ്സ	-11.1125
▁ഏത്തകാ	-11.1126
▁പഠമായ	-11.1128
രണം	-11.1128
▁അനേകേ	-11.1129
ഠിത	-11.113
▁യേസു	-11.113
▁ഗില	-11.1131
സങ്ഗഹിത	-11.1132
തസ്മാതിഹ	-11.1132
▁പാപിമാ	-11.1134
▁ഹേതുദുക	-11.1134
യോഗാ	-11.1134
കാരി	-11.1136
▁സഖ	-11.1139
▁നിരോധസമാപത്തി	-11.1143
▁രാജഗഹ	-11.1145
▁അനവസേസതോ	-11.1145
▁ദേവദൂത	-11.1147
▁മയമ്പി	-11.1149
സംയോഗ	-11.1149
പരോ	-11.1149
▁യസസ്സിനോ	-11.115
ായേവ	-11.1151
▁ഗിജ്ഝ	-11.1153
▁വിസ്സജ്ജിത	-11.1153
▁നിച്ഛ	-11.1155
നാമരൂപ	-11.1157
▁സങ്ഘികം	-11.1158
▁പഞ്ഞപേതി	-11.1158
▁ദ്വന്ദ	-11.1158
▁ജടാ	-11.1159
▁ധജ	-11.1159
▁അനുപസ്സനാ	-11.116
▁സമ്പദാന	-11.1162
വിന്ദ	-11.1162
▁ഭാവേതീതി	-11.1162
▁സമുപ്പന്ന	-11.1165
ഭയാ	-11.1167
▁ഏത്തക	-11.1168
▁ഉദ്ധത	-11.1173
ഥാമ	-11.1174
▁പരാഭവ	-11.1176
▁പയുത്ത	-11.1181
▁തതോപി	-11.1181
▁പുഗ്ഗലേന	-11.1182
തവ	-11.1184
▁അഗച്ഛ	-11.1185
▁അവിക്ഖേപ	-11.1185
ദോമനസ്സ	-11.1186
▁ഏതാദിസ	-11.1186
▁തിത്ഥ	-11.119
സദ്ധ	-11.119
▁സണ്ഠാന	-11.1194
▁ഇച്ഛിതബ്ബ	-11.1195
വിപാകാ	-11.1196
▁ഇദമേത	-11.1196
ഗാമോ	-11.1196
▁ഉഭയമ്പി	-11.1198
▁അരഹതാ	-11.1198
സമ്ഭവോ	-11.1198
▁വോദാനം	-11.1198
▁പഠമസ്സ	-11.1199
▁നാനുസേന്തി	-11.12
▁മോഘമഞ്ഞ	-11.12
▁സത്തതിംസ	-11.1201
▁ആപജ്ജിം	-11.1201
▁ഭുഞ്ജേയ്യ	-11.1202
▁ഉപ്പജ്ജേയ്യും	-11.1203
ഝ	-11.1203
▁വിപ്പടിസാര	-11.1203
▁ലജ്ജി	-11.1203
▁അസമാഹിത	-11.1204
▁൧൯൧	-11.1204
ാദീനവ	-11.1205
ിയ്യതി	-11.1206
▁ഉദര	-11.1209
ന്തരായോ	-11.121
▁നഹായ	-11.1211
▁അധിമുത്ത	-11.1211
▁പാരുപിത്വാ	-11.1211
▁സമ്പടിച്ഛിത്വാ	-11.1212
▁സഹായക	-11.1218
ാദീതി	-11.1218
▁യത	-11.1219
▁പാദേന	-11.1219
നാമകാ	-11.1219
▁ചോദന	-11.122
▁ദാരകേ	-11.122
ാപേതീതി	-11.1221
▁ഉക്ഖേപനീയകമ്മം	-11.1221
▁അനേന	-11.1222
കോധ	-11.1223
▁വേഠ	-11.1223
▁ഹേതുഫല	-11.1223
▁പഞ്ചവിഞ്ഞാണ	-11.1225
▁ഞാണസമ്പയുത്ത	-11.1227
▁ഛേക	-11.1229
ോപമാ	-11.1229
▁ദുക്ഖിതോ	-11.1234
▁ഉപപജ്ജന്തീ	-11.1236
ദസ്സനോ	-11.1237
▁അനുപസമ്പന്നസ്സ	-11.1237
▁ബോധിം	-11.1237
▁വീ	-11.1237
ദല	-11.1239
▁പബ്ബജി	-11.124
▁പണ്ഡു	-11.124
മങ്ഗ	-11.1241
▁കസി	-11.1242
▁മഹാബ്രഹ്മാ	-11.1242
പേതം	-11.1244
ജവ	-11.1244
തക്ക	-11.1245
നാദ	-11.1245
▁ഭിസി	-11.1245
▁ഭൂതഗാമ	-11.1246
ാപേസും	-11.1246
▁പതിട്ഠ	-11.1246
വണ്ണനായ	-11.1247
മാനായ	-11.1248
▁ദണ്ഡം	-11.1248
▁ലജ്ജീ	-11.1249
▁ഠപേന്ത	-11.125
▁കമ്മന്തി	-11.125
▁൨൦൭	-11.1254
▁നഅരണ	-11.1255
▁തുസിത	-11.1256
▁ഗന്ധം	-11.1256
▁ലഭതേ	-11.1257
ത്തക	-11.1258
▁തദങ്ഗ	-11.1259
▁അനത്ഥായ	-11.126
വാസിക	-11.126
▁മിച്ഛത്തനിയത	-11.1262
▁ഉപട്ഠഹന്തി	-11.1263
ഗ്ഗഹ	-11.1263
▁ഖാദതി	-11.1263
▁സബ്രഹ്മചാരീനം	-11.1263
▁യോജനം	-11.1264
നിക്ഖേപ	-11.1267
ാഭിസങ്ഖാര	-11.1268
ിനോതി	-11.1268
▁കുസുമ	-11.1269
▁അഞ്ഞാതക	-11.127
▁പഠമജ്ഝാനം	-11.127
സമഥ	-11.1271
▁നിവേസനം	-11.1272
▁അനുസേതീതി	-11.1276
▁താതാ	-11.1276
▁മുസാവാദോ	-11.1276
▁പരിളാഹ	-11.1277
യഞ്ഞ	-11.1281
▁അകുസലമൂലം	-11.1282
ിണ	-11.1283
▁ആരദ്ധോ	-11.1285
▁ആപജ്ജി	-11.1285
▁സമാദഹ	-11.1286
▁ലബ്ഭ	-11.1286
ദേഹ	-11.1287
▁ദദാതി	-11.1288
▁കുസലധമ്മ	-11.1289
തേസു	-11.1291
സീഹോ	-11.1291
▁ഗന്തു	-11.1291
▁സബ്ബഞ്ഞൂ	-11.1293
▁ദജ്ജ	-11.1294
പദവണ്ണനാ	-11.1295
▁അരിയസാവകസ്സ	-11.1295
പഞ്ഞത്തിയാ	-11.1298
രമ	-11.1301
▁അനേകവിധ	-11.1302
ഗാഥാവണ്ണനാ	-11.1304
▁തിയോജന	-11.1305
▁അത്ഥങ്ഗമാ	-11.1306
ഭാവദസ്സനത്ഥം	-11.1307
▁ദുബ്ബച	-11.1308
▁സച്ചേന	-11.1308
അതി	-11.1308
▁പണിധായ	-11.1309
▁ഗണസ്സ	-11.1309
ട്ഠകഥായ	-11.1309
▁നാഹോസി	-11.1309
▁പസ്സഥ	-11.131
▁സോമനസ്സജാതോ	-11.131
▁വിഭാവേതും	-11.1311
ധോവന	-11.1311
അനുപാദാനിയോ	-11.1312
▁ആഗച്ഛന്തം	-11.1312
▁അഭിസങ്ഖാര	-11.1313
▁അക്ഖാഹി	-11.1314
ഭാഗം	-11.1314
▁ഹേതുപച്ചയ	-11.1315
▁ദദാമി	-11.1316
▁ആസീസ	-11.1317
▁ഏകവിധ	-11.1317
▁ഛവ	-11.1318
പരിപുണ്ണ	-11.1319
ഗാള്ഹ	-11.1321
▁ദൂരതോവ	-11.1321
▁സബ്ബമേതം	-11.1324
▁ദുബ്ബണ്ണ	-11.1324
▁പാസാദം	-11.1324
▁മാതുഗാമസ്സ	-11.1324
▁പാരുപ	-11.1325
▁൧൯൩	-11.1325
ഹേവ	-11.1326
ാഗത	-11.1326
▁പാണാതിപാതോ	-11.1327
▁ഞാതകാ	-11.1327
▁തിദസ	-11.1328
▁സമന്തപാസാദികായ	-11.1331
▁കിലിട്ഠ	-11.1331
▁കാമതണ്ഹാ	-11.1331
▁സന്നിപതിത	-11.1333
▁ഭാസമാന	-11.1334
സൂല	-11.1335
▁അംസ	-11.1336
▁ജനതം	-11.1336
തഥേവ	-11.1336
▁കുമ്ഭകാര	-11.1338
▁ധമ്മതാ	-11.1338
▁മുനിനോ	-11.134
▁ഏകദേസം	-11.1341
▁പസവതി	-11.1341
▁ഭു	-11.1341
▁ആവാസാ	-11.1343
▁൧൮൭	-11.1343
സഹസ്സേഹി	-11.1344
▁പാകടമേവ	-11.1345
▁ചതുരസ്സ	-11.1346
▁ദേവദത്തസ്സ	-11.1349
▁൧൯൫	-11.1349
നിസ്സരണ	-11.1349
▁അരൂപാവചരാ	-11.135
▁സിദ്ധാ	-11.1351
▁പരിക്ഖേപ	-11.1351
ങ്കുര	-11.1353
മനുസ്സാ	-11.1355
▁അനുപഞ്ഞത്തി	-11.1357
▁വിചരന്തി	-11.1358
▁അനുരുദ്ധോ	-11.1358
▁തിത്ഥിയാ	-11.1359
▁ഭണിത	-11.1364
▁രസായതനം	-11.1365
▁സങ്ഖതാ	-11.1367
▁നസ്സതി	-11.1368
▁ഭമ	-11.137
▁ലപ	-11.137
പരിവത്ത	-11.1371
▁ബഹിദ്ധാരമ്മണ	-11.1373
സിഖ	-11.1375
▁തണ്ഹാദിട്ഠി	-11.1375
▁സമ്ഭൂത	-11.1377
▁ഭാസതോ	-11.1378
▁ജീര	-11.1378
▁സകത്ഥേ	-11.138
▁പടിപ്പസ്സദ്ധ	-11.1382
▁രാജൂനം	-11.1384
▁ദേന്തോ	-11.1388
▁അനുകമ്പായ	-11.1388
▁അത്ഥകാമ	-11.1389
▁ദേഹ	-11.1389
▁അട്ഠകഥാസു	-11.1389
▁സുഞ്ഞതാ	-11.1389
ഫലാ	-11.1389
▁രജനീയ	-11.1391
ന്തിആദീനി	-11.1391
വസ്സാനി	-11.1391
പരിക്ഖിത്ത	-11.1393
▁നവമ	-11.1393
ുപായ	-11.1394
രാജാനോ	-11.1395
▁വേദിതബ്ബന്തി	-11.1395
▁ഉപട്ഠിതാ	-11.1396
▁ആകാസം	-11.1396
പാഹം	-11.1396
▁പരിച്ചാഗ	-11.1398
▁അണ്ഡ	-11.1399
▁യാതി	-11.1399
▁നിരുദ്ധാ	-11.1401
ഗുഹ	-11.1402
ത്തികേ	-11.1404
സമ്പയുത്തോ	-11.1405
▁ചിന്തയ	-11.1405
▁൧൯൮	-11.1405
▁മോ	-11.1406
▁സിദ്ധോ	-11.1407
ദസക	-11.1407
വിഗത	-11.1407
▁നവമോ	-11.1408
▁നിസ്സ	-11.141
വീമംസ	-11.1411
▁കമ്മാര	-11.1412
▁ഖാദനീയ	-11.1416
▁കരിത്വാന	-11.1418
▁ഉപചിനന്തോ	-11.1419
▁വിപാകധമ്മധമ്മോ	-11.1419
▁ഉദായീ	-11.142
▁കടി	-11.142
▁സഞ്ഞീ	-11.1421
▁മഹാജനം	-11.1422
▁ഏത്തകേന	-11.1423
▁പസു	-11.1423
▁പതിട്ഠാപേസി	-11.1425
▁കിലന്ത	-11.1427
▁അജാന	-11.1428
മുദു	-11.1428
▁ഖിപ്പമേവ	-11.1429
▁വിഭൂത	-11.1432
▁മന്താ	-11.1433
▁പടിപന്ന	-11.1433
▁സമന്ത	-11.1433
▁ഉപാസ	-11.1435
▁സംസാരോ	-11.1436
▁ആഹട	-11.1438
▁അപച	-11.1445
▁കണ	-11.1449
ബന്ധനേന	-11.145
▁വിസേസനം	-11.145
▁പരിയേസിത്വാ	-11.145
▁അദിസ്വാ	-11.145
▁കാമോ	-11.1451
അരൂപ	-11.1452
▁കുപിതോ	-11.1452
▁രഞ്ജ	-11.1453
സമണബ്രാഹ്മണ	-11.1453
▁അപരിസുദ്ധ	-11.1454
▁ചതുര	-11.1454
പച്ചുപട്ഠാനം	-11.1455
വണ്ണേന	-11.1457
ചന്ദന	-11.1458
▁ഠാനേന	-11.1458
ിത്ഥിയോ	-11.1459
▁ഏതദേവ	-11.146
ദര	-11.1461
▁ആസവക്ഖയ	-11.1462
നേക	-11.1462
▁ഝാനാനി	-11.1464
▁പുനബ്ഭവ	-11.1466
നാവ	-11.1466
▁അദസ്സനം	-11.1466
▁ബുദ്ധസാസനേ	-11.1467
സമ്ബോജ്ഝങ്ഗം	-11.147
▁സമ്ബോധി	-11.1471
▁ഭിക്ഖുനീഹി	-11.1472
ാചയഗാമിനാപചയഗാമീ	-11.1474
▁തികപാചിത്തിയം	-11.1474
▁അഘാനകാന	-11.1474
▁സുത്തന്തഭാജനീയ	-11.1475
▁സമ്മോദി	-11.1475
▁ഓസാര	-11.1476
▁പസയ്ഹ	-11.1477
▁ഞേയ്യ	-11.1478
പരിയാപന്നം	-11.1479
ാഭിസമയ	-11.148
▁പേസിത	-11.1485
▁വേദേഹ	-11.1487
മതീ	-11.1488
▁ആബാധോ	-11.1489
▁മിന	-11.1492
പത്ഥനാ	-11.1493
▁ഹത്ഥപാസേ	-11.1498
▁൨൧൫	-11.1498
▁തേനസ്സ	-11.1499
ചരിയം	-11.1499
▁മീയ	-11.1499
മിച്ഛാ	-11.15
▁പത്തചീവര	-11.1501
▁അബ്ഭാ	-11.1502
▁വിപ്പമുത്തോ	-11.1503
ചിന്ത	-11.1503
▁അരൂപീ	-11.1505
▁വിഭത്തോ	-11.1508
ഛന്ന	-11.1508
▁അപ്പിയ	-11.1511
▁പബ്ബജിം	-11.1513
▁ചിത്തസമ്പയുത്ത	-11.1516
▁അജ്ഝാവസ	-11.1517
▁വേജ്ജ	-11.1518
▁ആഹാരസമുട്ഠാനം	-11.1519
കുസുമ	-11.1521
▁കരി	-11.1521
▁ദാതബ്ബാ	-11.1521
▁സംവാസ	-11.1523
വചനീയ	-11.1523
ഞ്ഹേതം	-11.1524
▁ഭിക്ഖുസങ്ഘേ	-11.1525
▁സംവരം	-11.1526
▁ഗണ്ഹേയ്യ	-11.1528
▁ദിബ്ബേഹി	-11.1528
▁ഭിസ	-11.1529
▁തീഹാകാരേഹി	-11.153
▁യഥാസുഖം	-11.1531
▁നച്ചഗീത	-11.1531
▁ചോരോ	-11.1532
▁പേതം	-11.1533
▁ഏതസ്മാ	-11.1534
ിതബ്ബതോ	-11.1534
▁ജനിന്ദ	-11.1536
▁സക്കോമി	-11.1538
▁൨൨൦	-11.154
▁ഭദ്ദേ	-11.154
▁അനാഗാമിഫല	-11.1541
▁വായാമോ	-11.1543
▁അഭിക്കന്തം	-11.1544
▁തിരച്ഛാനയോനി	-11.1544
▁വിസദ	-11.1546
▁സത്തമാ	-11.1546
സമാഗമ	-11.1546
▁പസാദേത്വാ	-11.1548
▁തേത്തിംസ	-11.1548
▁൧൮൮	-11.155
ാഭിമുഖ	-11.1551
▁പേസല	-11.1553
▁നിയുത്തോ	-11.1554
▁ഫസ്സാ	-11.1555
വിസേസേന	-11.1556
▁൧൯൪	-11.1557
▁ഉപജ്ഝായസ്സ	-11.156
▁വത്ഥുകാമ	-11.1564
സപ്പി	-11.1566
▁മഹായസോ	-11.1568
▁പച്ഛിമേ	-11.1569
വാദിത	-11.157
▁വദാമീ	-11.1571
൧൫	-11.1574
▁ദായകോ	-11.1575
▁ഓപ	-11.1576
▁ആവജ്ജനായ	-11.1579
▁വൂപസന്ത	-11.158
▁വേപുല്ലം	-11.158
ൂന	-11.1582
പ്പഭവ	-11.1583
▁മഹന്തേന	-11.1585
സഗ്ഗ	-11.1588
▁ഏവമത്ഥോ	-11.1589
▁സമണധമ്മം	-11.1589
▁ദ്വാരേ	-11.1591
▁പുരേഭത്തം	-11.1593
കുസലതാ	-11.1594
▁ചതുപ്പദ	-11.1594
▁തിലോക	-11.1596
▁സ്വേ	-11.1596
സന്തോ	-11.1596
▁ലോ	-11.1597
മുച്ച	-11.1598
ഉദ	-11.1599
▁ഭുമ്മം	-11.16
ിര	-11.16
▁സമാപജ്ജി	-11.1602
▁നിയ്യാനിക	-11.1604
▁ദ്വാസട്ഠി	-11.1605
ാഗമോ	-11.1607
ാനുകമ്പ	-11.1608
▁ആരദ്ധവീരിയ	-11.1608
▁ഗുണോ	-11.1609
▁അനേകേഹി	-11.1612
േത	-11.1612
▁പമുദിത	-11.1612
▁൨൦൫	-11.1616
▁ആരുപ്പ	-11.1619
▁സംവ	-11.1619
▁വിമുത്തം	-11.1619
സഞ്ഞോജന	-11.1619
▁മുത്തം	-11.1621
▁ദട്ഠബ്ബ	-11.1622
▁ചാല	-11.1622
സവോ	-11.1622
രജ്ജം	-11.1622
▁പാപകേ	-11.1623
▁വിജ്ജതീതി	-11.1624
▁ചിത്തോ	-11.1625
▁ജാനിതബ്ബം	-11.1626
▁സാരമ്ഭ	-11.1627
സമ്ഭ	-11.1628
▁കേസേ	-11.1628
കമ്മന്ത	-11.1629
▁സാരജ്ജ	-11.1629
▁വിഹിംസാ	-11.163
▁ആവാസം	-11.1631
മിധ	-11.1632
▁ചക്ഖായതന	-11.1632
കോപ	-11.1633
▁കരോന്ത	-11.1636
▁ആലോപ	-11.1636
ദ്വാദസ	-11.1637
▁ധമ്മായതന	-11.1639
▁ദണ്ഡക	-11.164
▁അപ്പടിഘ	-11.164
▁നിവത്ഥ	-11.164
ുപോസഥ	-11.1641
▁അത്ഥേസു	-11.1643
▁മഹതിയാ	-11.1644
▁പച്ചയാനം	-11.1645
▁ദീപം	-11.1645
▁ഠാനമേതം	-11.1646
▁സന്തികാ	-11.1647
▁ജലം	-11.1648
കൂജ	-11.1649
▁ഥലേ	-11.1651
▁നുപ്പജ്ജിസ്സതീ	-11.1652
▁പഠമതരം	-11.1652
▁ഗമിസ്സാമി	-11.1653
വിനിച്ഛയകഥാ	-11.1653
▁അവിതക്കഅവിചാരം	-11.1653
▁ആരോചേത്വാ	-11.1654
▁൧൯൨	-11.1655
ഉദ്ധ	-11.1655
▁ഓദന	-11.1655
സങ്കപ്പ	-11.1659
▁മാഗധ	-11.166
ാമിസ	-11.1661
അധമ്മ	-11.1661
▁ഭവിതബ്ബ	-11.1663
ിതുകാമാ	-11.1663
▁മുതം	-11.1664
▁പട്ട	-11.1666
ഭാണക	-11.1667
▁സമ്ബോധ	-11.1668
രാമ	-11.1668
▁വദാമീതി	-11.1669
▁വിത്ഥാരിത	-11.1671
▁മരതി	-11.1672
നീയേ	-11.1673
▁പഞ്ചസതാ	-11.1673
▁മഹാസാവജ്ജ	-11.1674
▁പാസാദേ	-11.1674
▁ഓതിണ്ണ	-11.1676
പ്ഫ	-11.1677
▁അസദിസ	-11.1677
ഗുണോ	-11.1677
▁നിവാസന	-11.1678
▁സദേവക	-11.1679
മസ	-11.168
▁കപ്പോ	-11.1682
▁ഗച്ഛന്താ	-11.1682
▁അസമ്മോഹ	-11.1683
▁ഭവേയ്യാതി	-11.1683
▁൨൦൯	-11.1684
മത്തികാ	-11.1687
സാരോ	-11.1687
▁ദവ	-11.1688
പുഗ്ഗലോകാസാ	-11.1689
▁ആരോപേ	-11.1689
▁സക്യപുത്ത	-11.1696
യോജനം	-11.1697
സീമ	-11.1697
▁രുന്ധ	-11.1697
൪൦	-11.1697
▁സാണ	-11.17
▁തഥാഗതബലം	-11.17
ഖാദനീയ	-11.1701
▁സമുട്ഠിതം	-11.1702
▁അക്കമ	-11.1703
▁വാണിജാ	-11.1703
▁പിതരാ	-11.1703
നായക	-11.1704
▁അധിപ്പേതത്താ	-11.1707
▁നേരയിക	-11.1708
മണ്ഡലേ	-11.1708
നിഗ്ഗഹ	-11.1709
▁അജാനിത്വാ	-11.1709
▁൧൯൭	-11.1709
യാവതാ	-11.1711
▁ഹിരി	-11.1711
▁വുസിതം	-11.1712
മ്ബര	-11.1714
▁കപി	-11.1714
ണ്ഠ	-11.1714
▁പഞ്ചക	-11.1715
▁കമ്ബല	-11.1716
▁ജേട്ഠക	-11.1716
▁കസ്സപസ്സ	-11.1717
ുപട്ഠ	-11.1718
▁അസദ്ധമ്മ	-11.1718
പുരം	-11.1718
ാദിഅത്ഥ	-11.172
▁ഉഭോസു	-11.172
▁ആഗച്ഛേയ്യ	-11.1722
▁ഉപദ്ദവ	-11.1723
▁ഗാമന്തര	-11.1725
▁ചേതസികാ	-11.1725
ലാഭോ	-11.1726
▁ഉപ്പജ്ജതീ	-11.1727
വാസേ	-11.1727
▁അഭിസമയ	-11.1727
▁ജാതിപച്ചയാ	-11.1727
▁നിരവസേസ	-11.1728
വിക്ഖേപ	-11.173
സിഖര	-11.1731
▁കല്യാണം	-11.1731
അഗ്ഗ	-11.1732
▁തദനുരൂപ	-11.1733
▁ഫുല്ല	-11.1734
സാസനം	-11.1735
▁ബാഹാ	-11.1735
▁സസ്സതോ	-11.1737
ദേസോ	-11.1738
▁കഥേതബ്ബ	-11.1739
▁ഠിതേന	-11.174
പരാമാസവിപ്പയുത്ത	-11.1741
▁അപ്പേകച്ച	-11.1741
വിമുത്തിഞാണദസ്സന	-11.1741
▁സേനാസനാനി	-11.1741
▁അധിമുച്ച	-11.1743
▁അജ്ഝത്തികാ	-11.1745
▁നിദ്ദിട്ഠോ	-11.1746
▁വസ്സസതം	-11.1746
▁൨൦൬	-11.1747
▁ഛേദ	-11.1747
▁പടിപന്നാ	-11.1747
▁ദുക്ഖിത	-11.1749
▁അന്വ	-11.1749
▁പീണ	-11.1752
▁ഭണന്തി	-11.1753
▁അഭവ	-11.1754
സങ്ഗീതി	-11.1754
വേദനം	-11.1754
▁വിചികിച്ഛായ	-11.1754
▁രോസ	-11.1754
ഥി	-11.1755
▁മുച്ഛ	-11.1755
മത്തേനേവ	-11.1757
▁ഓരുയ്ഹ	-11.1757
▁സമ്പജ്ജതി	-11.1758
▁ജാനാഥ	-11.1758
▁൨൦൦	-11.1762
▁പദഹതി	-11.1764
മാരുയ്ഹ	-11.1765
▁അധിട്ഠാതബ്ബ	-11.1765
▁സരദ	-11.1767
▁അനുയുത്തോ	-11.1767
ജാതിക	-11.1769
▁ചതുബ്ബിധോ	-11.1771
ചതുക്കം	-11.1772
ചിത്താനം	-11.1775
▁രസേ	-11.1777
വിപാകം	-11.1777
ഗമോ	-11.1779
നിദസ്സനം	-11.1779
▁അപുബ്ബം	-11.178
▁ഗുണവ	-11.1781
▁ആഗമനം	-11.1784
സാഖാ	-11.1784
▁അഭിമുഖ	-11.1784
▁ഗണനാ	-11.1785
പുരിമ	-11.1785
പരക്കമ	-11.1789
▁ഇമിനാപി	-11.1791
▁പാദേഹി	-11.1792
▁ധമ്മിയാ	-11.1794
▁അചിര	-11.1794
തവേ	-11.1797
▁വചനത്ഥോ	-11.1797
രിയാ	-11.1797
ദായകത്ഥേരസ്സ	-11.1797
▁ഉളാരം	-11.18
▁ദിട്ഠിഗതിക	-11.1804
യോപി	-11.1805
ഘം	-11.1806
▁പാതിമോക്ഖസംവര	-11.1808
▁നിഗണ്ഠ	-11.1808
ഇരിയാപഥ	-11.1808
▁അരിട്ഠ	-11.1811
▁അഹന്തി	-11.1811
▁ലോകിയോ	-11.1812
വിപ്പയുത്തചിത്ത	-11.1813
▁സകദാഗാമിഫല	-11.1814
▁സപ്പാണക	-11.1814
▁ഉച്ചാവച	-11.1814
▁വിഹഞ്ഞ	-11.1815
പാദോ	-11.1817
സല്ലക്ഖണ	-11.1818
ദമ	-11.1818
േമീതി	-11.182
▁വീരിയാരമ്ഭ	-11.182
▁അദാസിം	-11.1821
മുത്താ	-11.1821
ജ്ഝായ	-11.1823
▁ഉപ്പാദിത	-11.1823
▁അഭിനിവേസ	-11.1824
▁സല്ലപ	-11.1825
നാസ	-11.1825
ഹട	-11.1827
▁ദിട്ഠാനുസയ	-11.183
▁അസ്സം	-11.183
സദ	-11.1831
▁പായാസി	-11.1832
▁ന്ഹാന	-11.1833
▁ഞത്തിയാ	-11.1834
▁മൂലാനി	-11.1834
രൂപജീവിതിന്ദ്രിയ	-11.1836
▁ന്ഹാരു	-11.1837
▁ദന്തകട്ഠ	-11.1837
▁ദുക്ഖനിരോധോ	-11.1842
▁വീണാ	-11.1843
▁കച്ഛ	-11.1843
ഹാസ	-11.1844
▁രതനാനി	-11.1846
പ്പഭാ	-11.1846
▁ഭഗ്ഗ	-11.1848
ാനുപസ്സ	-11.1849
ിംസൂ	-11.1849
▁ഭുമ്മ	-11.185
▁സബ്ബഞ്ഞുതഞ്ഞാണം	-11.185
▁കുമുദ	-11.1853
▁ആചിക്ഖി	-11.1853
ധികാര	-11.1854
▁പടിഗ്ഗഹിതം	-11.1856
▁ധര	-11.1856
▁അദു	-11.1857
▁ദുമ്മ	-11.1857
▁സബ്ബകിലേസ	-11.1857
▁വിജയ	-11.1858
യാചന	-11.1858
ിന്ദ്രിയോ	-11.1859
▁അപരിമാണ	-11.1861
▁അദ്ദ	-11.1861
▁ബിന്ദു	-11.1867
▁൨൧൩	-11.1868
▁ഥന	-11.1869
▁ഭജതി	-11.1873
▁ചീവരപിണ്ഡപാത	-11.1874
▁പരിഭുത്ത	-11.1875
ഗത്ത	-11.1877
▁അനഞ്ഞസാധാരണ	-11.1877
▁വിദിതോ	-11.1879
▁ആഭുജിത്വാ	-11.188
▁ലോകസ്മി	-11.1881
▁വദേയ്യും	-11.1881
▁ചേതോസമ്ഫസ്സജ	-11.1882
▁അഭിനീഹാര	-11.1884
മാരോ	-11.1885
▁ഉപസന്ത	-11.1885
▁പിപാസ	-11.1888
▁നദതി	-11.1889
▁൨൨൮	-11.189
▁അങ്ഗജാതം	-11.1891
യുഗം	-11.1894
പകരണ	-11.1894
▁യോജിത	-11.1894
▁ചീവരാനി	-11.1896
▁ധാരേന്തി	-11.1899
▁നവഹി	-11.1901
▁ചേതിയസ്സ	-11.1902
പ്പത്തി	-11.1903
▁ഛുപ	-11.1905
പ്പമാണാ	-11.1905
▁കപ്പം	-11.1907
സച്ചപരിയോസാനേ	-11.1908
▁പിത്ത	-11.1909
പരിയാദാന	-11.1911
ഘടനാ	-11.1912
ചേതനായ	-11.1912
▁നദി	-11.1914
ദുട്ഠ	-11.1915
▁മനോരമാ	-11.1915
ഭാവതോതി	-11.1919
▁പസീദ	-11.192
▁പദഹ	-11.1921
സുണ	-11.1921
▁ഭത്തു	-11.1921
വസം	-11.1922
▁കില	-11.1923
▁൨൧൬	-11.1923
▁൨൩൪	-11.1924
▁നിരോധേ	-11.1925
▁അബ്യാപാദ	-11.1928
▁യതി	-11.1928
പച്ചയസ്സ	-11.1928
▁വസ്സികസാടിക	-11.1929
▁ഹദയേ	-11.1929
സബ്ഭാവതോ	-11.193
▁അധികം	-11.193
▁കയവിക്കയ	-11.193
▁അഗ്ഗഹേസി	-11.193
▁പദച്ഛേദോ	-11.193
▁അഭിധമ്മഭാജനീയ	-11.1931
▁പാദമൂലേ	-11.1932
▁൨൩൬	-11.1933
▁ആരുള്ഹ	-11.1933
▁ഉപമായ	-11.1935
▁ധോത	-11.1937
▁സപ്പടിഘ	-11.1938
▁താദി	-11.1939
▁ബലവതര	-11.194
▁മന്ദോ	-11.1942
▁സമുട്ഠാനാദീനി	-11.1943
▁വിരതോ	-11.1944
വത്ഥുകഥാവണ്ണനാ	-11.1945
▁ആദാസ	-11.1945
വിസയം	-11.1947
▁സാരാഗോ	-11.1948
▁൨൩൮	-11.195
അത്ഥേ	-11.1951
▁സബ്ബഥാപി	-11.1951
സമുട്ഠാനോ	-11.1953
▁൨൧൮	-11.1954
സീത	-11.1954
▁സന്തീരണ	-11.1955
▁സബ്ബധി	-11.1956
▁ഖാദിത്വാ	-11.1958
േയ്യുന്തി	-11.1958
വില	-11.1963
▁പഞ്ചദസ	-11.1965
മിച്ചാദി	-11.1966
▁ഉപചയോ	-11.1966
▁നേത്തി	-11.1967
▁സുചരിത	-11.1967
▁പമുഖ	-11.1968
▁അസക്കുണേയ്യ	-11.197
▁അതീതോ	-11.1976
ദുഗ്ഗ	-11.1977
▁കാമധാതു	-11.1978
▁ജലിത	-11.1978
▁വിപാകാനം	-11.1981
▁൨൦൩	-11.1983
▁ഉപകാരക	-11.1984
▁൨൧൦	-11.1985
▁യസസ്സി	-11.1986
സൂചി	-11.1987
▁നിരോധസമാപന്ന	-11.1989
▁കാമൂപസംഹിതാ	-11.199
▁ചിണ്ണ	-11.199
▁രുക്ഖമൂല	-11.199
▁ചഞ്ഞേ	-11.199
▁അഹിത	-11.1992
▁പസാരേത്വാ	-11.1992
▁യോഗിനോ	-11.1992
സാത	-11.1994
▁തഥാരൂപം	-11.1994
▁ക്രിയത്ഥാ	-11.1995
▁ദണ്ഡേന	-11.1996
ഭവങ്ഗ	-11.1997
▁മച്ചുനോ	-11.2
▁ഭിന്നാ	-11.2002
▁അനുഭവിത്വാ	-11.2002
മഥ	-11.2002
▁കുണ്ഡല	-11.2003
ഭാവഞ്ച	-11.2003
▁സാമഞ്ഞതോ	-11.2006
ാദിക	-11.2007
▁കിംകാരണാ	-11.2008
ാദീനന്തി	-11.201
ന്തസ്സാതി	-11.2015
▁കുട	-11.2018
▁അനേകാനി	-11.202
▁അന്നപാന	-11.202
തുല	-11.202
▁സിക്ഖേയ്യ	-11.2022
▁കായദുച്ചരിത	-11.2022
വചനോ	-11.2022
ബ്യാകരണ	-11.2025
▁മോഹാ	-11.2026
▁മഹി	-11.2026
ലങ്കാര	-11.2027
സോതാപത്തിഫലാദീനി	-11.2027
▁ആജീവക	-11.2029
ിതാനം	-11.2029
▁മജ്ഝിമാ	-11.2029
▁നിരോധസച്ചം	-11.2031
▁സേയ്യാ	-11.2031
▁ഫലേ	-11.2031
▁സമ്പയുത്തസ്സ	-11.2034
▁൧൯൯	-11.2038
▁വിമുത്തിയാ	-11.204
ുദ്ധാര	-11.204
സേചന	-11.2041
▁ആഭതം	-11.2041
▁അജാനന്ത	-11.2041
▁താവതിംസ	-11.2042
പല്ലവ	-11.2042
▁ഭാവനാമയ	-11.2044
രാജി	-11.2044
▁സേനാസനേ	-11.2044
േസ്സാമീതി	-11.2046
▁പരിഗ്ഗണ്ഹ	-11.2046
▁പഹാരം	-11.2047
▁ബാഹിയ	-11.2047
▁അരോഗോ	-11.2048
▁൨൩൭	-11.2048
▁മഹിദ്ധികോ	-11.2048
▁അപ്പീതിക	-11.205
▁മജ്ഝിമം	-11.205
▁നിരന്തര	-11.205
▁൨൪൩	-11.2051
▁നിസീദാപേത്വാ	-11.2052
▁പംസുകൂലിക	-11.2052
▁ഭയാനക	-11.2054
▁നിമന്തേത്വാ	-11.2054
▁അവിതക്കം	-11.2054
▁ദീപിതാ	-11.2055
▁കുസലചിത്ത	-11.2056
▁ജി	-11.2058
▁സുഭം	-11.2058
▁വിഭാവേതി	-11.2058
▁അഞ്ഞതിത്ഥിയാ	-11.2062
▁സുരാമേരയ	-11.2065
▁ഉസ്സുക്കം	-11.2065
▁യഥാവുത്തം	-11.2065
▁വിസാഖേ	-11.2069
▁ബ്യസന	-11.2069
▁൨൦൮	-11.207
പരിഗ്ഗഹോ	-11.207
▁നപ്പജഹന്തി	-11.207
▁സബ്ബസത്താനം	-11.207
സ്	-11.2072
▁ആഗതോതി	-11.2072
ക്ഖന്ധാ	-11.2073
ൂപമോ	-11.2073
▁ഭവിസ്സ	-11.2074
▁ദജ്ജാ	-11.2075
▁പരേന	-11.2075
▁രമ്മേ	-11.2076
▁പരിമണ്ഡല	-11.2077
ബ്രൂഹ	-11.2077
▁ഉന്നത	-11.208
▁മഞ്ഞേയ്യ	-11.2081
▁അനോത്തപ്പം	-11.2084
▁അയോനിസോമനസികാര	-11.2085
▁ദാനേന	-11.2085
▁പോഥ	-11.2087
ഭാജ	-11.2089
നിപാതോ	-11.2089
▁ദീപേന്തി	-11.209
▁അപദാനേ	-11.209
▁നിസ്സരണഞ്ച	-11.209
▁സമഥാ	-11.2093
▁അനുപാദാ	-11.2093
▁വിഞ്ഞാണേ	-11.2093
▁പച്ചേകസമ്ബുദ്ധോ	-11.2094
▁൨൧൯	-11.2094
ഹേതുദുകം	-11.2096
▁വീമംസാ	-11.2097
വുട്ഠി	-11.2098
പത്താ	-11.2099
ിസ്സരോ	-11.21
▁നാമഗോത്ത	-11.21
▁അവേക്ഖ	-11.2101
▁വച്ച	-11.2103
▁നിബ്ബാനായ	-11.2105
▁ഉപസന്തോ	-11.2105
▁ജീവികം	-11.2106
▁ഉഭിന്നമ്പി	-11.2107
▁പണിധീതി	-11.2107
▁ധമ്മസഭായം	-11.2107
▁മഹീപതി	-11.2107
▁പവത്തിയം	-11.2108
▁പുഞ്ഞകമ്മേന	-11.2109
▁തുവ	-11.2109
▁സമിദ്ധ	-11.211
▁പഞ്ചകാമഗുണ	-11.211
▁നാരിയോ	-11.2112
▁പരിക്ഖിപിത്വാ	-11.2113
▁൨൩൩	-11.2113
▁൨൩൦	-11.2114
▁പഞ്ചവോകാരാനം	-11.2115
▁ഗതിം	-11.2118
യ്യാ	-11.2118
▁ഗന്ധകുടി	-11.2119
ഥു	-11.212
▁രോ	-11.212
▁സബ്ബനാമ	-11.2123
▁പതിരൂപ	-11.2124
▁ഘടേത്വാ	-11.2125
▁അപരാധ	-11.2126
▁അന്തരായോ	-11.2127
ക്കമ്മ	-11.2128
▁൨൦൧	-11.2132
▁ദട്ഠും	-11.2133
ത്തന്തി	-11.2133
▁ഹിതസുഖ	-11.2138
▁വിപച്ച	-11.2138
▁സുദിന്ന	-11.2139
▁വിഭാഗ	-11.214
▁ചീവരേന	-11.2141
▁പടിക്ഖേപോ	-11.2142
▁വിഗ്ഗഹ	-11.2142
▁അപരമ്പി	-11.2144
▁നീവരണസമ്പയുത്ത	-11.2144
വിവരണ	-11.2145
പണിഹിത	-11.2147
▁അനൂന	-11.215
▁നിഗ്	-11.215
▁ദേസേതബ്ബ	-11.2151
വിഭത്ത	-11.2153
കൂടം	-11.2153
▁നികായ	-11.2155
വിനിച്ഛയം	-11.2155
▁വികിര	-11.2155
▁അരൂപാവചരാനം	-11.2156
▁വസ്സേ	-11.2158
▁അഗ്ഗിക്ഖന്ധ	-11.216
▁അഗ്ഗസാവക	-11.2162
ദ്ധാ	-11.2165
▁അഗ്ഗിവേസ്സന	-11.2166
▁സളായതനം	-11.2167
▁വിബ്ഭമ	-11.2168
▁സമൂഹതാ	-11.2168
▁പാതി	-11.2169
▁ഉപ്പതിത്വാ	-11.217
പടല	-11.2171
▁ധമ്മവിചയോ	-11.2171
▁൨൨൯	-11.2171
നിസ്സിതോ	-11.2175
പ്പദേസേ	-11.2177
ദ്ധജ	-11.2177
▁തസ	-11.2181
▁കീദിസം	-11.2183
ികോതി	-11.2184
സമ്മത	-11.2187
▁൨൦൪	-11.2187
ഉച്ച	-11.2188
▁ദക	-11.2188
▁ആചര	-11.2189
▁ഏത്തകമേവ	-11.2193
ഭുജ	-11.2194
▁നിക്ഖമതി	-11.2194
▁സിയന്തി	-11.2195
▁അക	-11.2196
▁സബ്ബസങ്ഖാര	-11.2197
മദ്ദന	-11.22
▁നോഉപാദാന	-11.2203
താവ	-11.2205
▁ഹായ	-11.2206
രത്തി	-11.2206
▁ഫുട്ഠസ്സ	-11.2207
▁സബ്ബതോ	-11.2207
▁അപ്പമത്താ	-11.2209
▁അപ്പവത്ത	-11.2209
▁ആദാന	-11.2211
▁ഹന്തി	-11.2211
▁ഇതീതി	-11.2212
▁പീതിസമ്ബോജ്ഝങ്ഗ	-11.2215
▁സമ്പടിച്ഛന	-11.2215
▁കമ്മവാചായ	-11.2216
▁ഠപേതബ്ബ	-11.2217
▁കുടിം	-11.2218
▁വിചരതി	-11.2218
▁വിജാനാതി	-11.2218
▁സമണബ്രാഹ്മണാനം	-11.2219
▁ഏകവീസതി	-11.222
▁ഉപാഹന	-11.2222
▁താദിസസ്സ	-11.2223
▁അന്തരം	-11.2223
സംവാസ	-11.2225
▁യാവതതിയം	-11.2226
▁വിഞ്ഞാതബ്ബോ	-11.2226
ഇച്ചേവ	-11.2226
▁ഘമ്മ	-11.2227
▁പവത്തത്താ	-11.2228
▁പുച്ഛിതാ	-11.223
േന്തേന	-11.223
ചത്താരിമാനി	-11.2231
കിര	-11.2231
▁൨൦൨	-11.2232
▁അയമായസ്മാ	-11.2233
▁തൂരിയ	-11.2233
▁൨൩൨	-11.2233
കമേവ	-11.2233
പഥോ	-11.2233
ാചരിയോ	-11.2234
▁ഉദാഹരണ	-11.2234
▁സംവത്തന്തീ	-11.2235
▁സമാദിയിത്വാ	-11.2235
▁ഫോട്ഠബ്ബാ	-11.2237
▁സാരമ്മണ	-11.2238
ച്ചേവ	-11.2238
ത്ഥികാ	-11.224
▁സങ്ഗഹേത്വാ	-11.2242
▁വരോ	-11.2242
പവാരണാ	-11.2242
▁മാതങ്ഗ	-11.2243
▁൨൧൨	-11.2244
▁കുട്ഠ	-11.2244
▁അനുസന്ധി	-11.2244
▁ധമ്മരാജാ	-11.2244
▁സാവകേ	-11.2246
▁കാരുഞ്ഞ	-11.2249
▁൨൧൪	-11.2249
▁മാതുഗാമേന	-11.2249
▁ഏവരൂപ	-11.225
▁നയിദം	-11.225
▁൨൧൧	-11.225
▁കാകോ	-11.2252
▁നാളി	-11.2252
ധാതുയോ	-11.2252
▁ദസ്സനീയ	-11.2254
▁ചാഹം	-11.2254
ദിനാ	-11.2255
▁ചാപ	-11.2255
▁ഇമാസം	-11.2256
ഗമനേന	-11.2256
▁൨൨൪	-11.226
ഏകോ	-11.2262
▁നിമ്മ	-11.2262
▁ആതപ	-11.2263
▁അഭിന്ന	-11.2263
▁൨൨൧	-11.2263
വത്ഥൂ	-11.2263
മയേ	-11.2263
▁പരാമാസോ	-11.2264
▁പാദേസു	-11.2265
▁അധിമോക്ഖോ	-11.2267
ാവി	-11.2268
വിവിത്ത	-11.2268
▁സീഹനാദ	-11.227
നേതം	-11.2271
യോഗ്ഗ	-11.2273
നിദ്ദിട്ഠ	-11.2274
▁൨൨൫	-11.2275
▁സംയുത്ത	-11.2275
മദോ	-11.2277
ലബ്ഭ	-11.2285
ാലി	-11.2286
▁ചോള	-11.2286
▁സുഖവിപാക	-11.2287
▁ഗുന്നം	-11.2287
▁പടിലാഭോ	-11.2289
▁സുത്താനി	-11.2289
▁കാരണന്തി	-11.229
പ്പച്ചയാ	-11.229
▁വവത്ഥപേതി	-11.2291
▁അനുപസമ്പന്ന	-11.2291
▁ദോസസ്സ	-11.2292
▁അത്തഹിതായ	-11.2292
▁സമിദ്ധി	-11.2292
▁വണ്ണവാദീ	-11.2292
▁വിവദ	-11.2294
▁ഭാസിസ്സാമീ	-11.2295
▁വത്തമാനാ	-11.2299
▁ബ്യസനം	-11.2299
ുസ്സദ	-11.2299
▁മഗ്ഗസച്ചഞ്ച	-11.23
▁൨൨൬	-11.2301
▁ദ്വിത്തം	-11.2301
▁പുച്ഛിംസു	-11.2301
പഭേദ	-11.2304
▁അന്ധകാരേ	-11.2306
ഉതു	-11.2307
▁൨൨൨	-11.2307
▁ഏതിസ്സാ	-11.2308
യതീ	-11.2309
▁പിഹിത	-11.2309
▁പരിസാസു	-11.231
ഫലോ	-11.2311
ോകാസോ	-11.2312
▁കുസലഞ്ച	-11.2313
▁ചതുരങ്ഗ	-11.2313
▁സചിത്തക	-11.2313
▁വക്ഖാമി	-11.2316
▁അഹിതായ	-11.2316
▁പതിത്വാ	-11.2318
▁വദേ	-11.2318
▁ധുന	-11.2319
▁അപരിപുണ്ണ	-11.2321
▁ആരാമം	-11.2322
ജ്ഝോ	-11.2325
സൂര	-11.2325
▁ഗണ്ഹതോ	-11.2325
ന്തേവ	-11.2327
▁ഫലദാന	-11.2327
നിവേസന	-11.2329
▁വിനോദ	-11.233
▁അരൂപാവചരം	-11.233
വന്ദന	-11.2331
▁തദനു	-11.2331
▁വലാഹക	-11.2332
മത്തന്തി	-11.2333
ഹതോ	-11.2333
പിട്ഠേ	-11.2334
▁ബോധിപക്ഖിയ	-11.2334
പരം	-11.2335
▁ജീയ	-11.2338
▁൨൧൭	-11.234
ഭാവേനാതി	-11.2341
▁സുണന്തി	-11.2342
▁മുത	-11.2344
ഗരുക	-11.2344
▁പതിട്ഠാപേ	-11.2344
▁സോയേവ	-11.2345
ഭരിത	-11.2345
▁പരിഭുഞ്ജിതബ്ബ	-11.2346
▁വിദിത	-11.2346
▁കപില	-11.2347
മഹാപുരിസലക്ഖണ	-11.2347
▁ഉത്ത	-11.2348
▁വക്ക	-11.2349
▁ഭരിയായ	-11.2349
▁ഹഞ്ഞ	-11.2349
ാദിവണ്ണനാ	-11.235
▁യത്തകം	-11.2351
പരിയാപന്നോ	-11.2354
▁മഹാപഥവീ	-11.2354
▁ആനേഞ്ജ	-11.2355
▁രാജകുല	-11.2355
▁പേക്ഖമാനോ	-11.2355
ച്ഛാദന	-11.2355
▁വിധമ	-11.2356
സാലായ	-11.2356
▁ഉപട്ഠാകോ	-11.2359
▁പരിക്ഖീണ	-11.2359
▁വണ്ണാ	-11.2359
▁നപ്പടി	-11.236
▁കരണീയേന	-11.2362
▁ദസാതി	-11.2364
▁വത്തബ്ബമേവ	-11.2364
▁ആപുച്ഛിത്വാ	-11.2365
പാരുത	-11.2366
▁൨൩൫	-11.2367
▁നിദ്ദാ	-11.2368
▁യത്തക	-11.2369
▁മഹാവിഹാര	-11.2369
▁പരിവേണ	-11.237
▁പഹിതത്തോ	-11.2371
▁സമ്മാസമ്ബോധിം	-11.2373
▁ലേണ	-11.2373
ാച	-11.2374
▁വിഞ്ഞേയ്യം	-11.2374
▁ഡ	-11.2375
▁പഭാസ	-11.2377
▁ഉക്ഖിത്തക	-11.2377
സമുദയ	-11.2377
▁അപ്പേവ	-11.2379
▁സഞ്ചരിത്ത	-11.2379
ഇത്ഥി	-11.238
▁സീതം	-11.2381
▁അപ്പസദ്ദ	-11.2382
▁ദാസോ	-11.2383
ിസു	-11.2383
▁മഹന്തേ	-11.2384
▁വിസാല	-11.2387
▁ആഭാ	-11.2389
പ്പയോജന	-11.239
▁സങ്ഗണ്ഹ	-11.2391
▁ആല	-11.2393
▁സപരിവാര	-11.2394
സൂപ	-11.2394
▁പാപകോ	-11.2395
ബ്ഭന്തര	-11.2395
മിത	-11.2395
സങ്കേത	-11.2396
സനം	-11.2396
കിലേസോ	-11.2396
സ്സരോ	-11.2397
അത്ഥോ	-11.2399
▁കിത്താവതാ	-11.24
▁വിക്ഖേപ	-11.2403
തുകാമോ	-11.2403
ദേയ്യ	-11.2406
▁പപഞ്ചസൂദനിയാ	-11.2408
▁പാതുരഹോസി	-11.2408
ഉപ്പന്ന	-11.2409
▁ഉട്ഠാ	-11.2409
▁സീലേ	-11.2413
▁മോഘ	-11.2413
മണ്ഡ	-11.2413
വതിയാ	-11.2414
▁ആവസഥ	-11.2415
▁നോപരാമാസ	-11.2415
▁൨൪൦	-11.2416
▁ഇദ്ധ	-11.2417
▁ചിത്തചേതസികാ	-11.2418
▁ഉപപജ്ജേയ്യ	-11.2419
വിസയത്താ	-11.242
▁താവകാലിക	-11.242
▁സമ്മസ	-11.2421
▁ഏസനാ	-11.2421
▁൨൨൭	-11.2421
▁അരിയപുഗ്ഗല	-11.2422
ധജ	-11.2423
▁പബ്ബജിതസ്സ	-11.2423
▁സാധന	-11.2424
ാദിഭാവേന	-11.2425
▁വിജ്ഝിത്വാ	-11.2425
ാവഹം	-11.2426
▁൨൨൩	-11.2427
▁ആരോചേതി	-11.2427
▁സഞ്ജാനാതി	-11.2433
ഖീര	-11.2435
▁മനോവിഞ്ഞാണ	-11.2436
വിലാസ	-11.2437
▁നാരദ	-11.2438
ധിപ്പേത	-11.2439
▁അചേതസിക	-11.2439
▁ധുരനിക്ഖേപ	-11.2442
▁വത്താ	-11.2442
അന്തര	-11.2443
▁മഹതീ	-11.2444
▁അഗ്ഗിനാ	-11.2445
▁വിഹേസ	-11.2445
▁ഉഗ്ഗഹിത	-11.245
▁കുണപ	-11.2451
▁അഹും	-11.2453
സമത്ഥതാ	-11.2455
പാദാ	-11.2456
▁പടിച്ചസമുപ്പാദോ	-11.2456
▁പടിപത്തിം	-11.2456
▁വിഞ്ഞേയ്യോ	-11.2456
▁സമ്പദാ	-11.2459
▁ഭാവേന	-11.2463
ാപയി	-11.2463
▁ഗു	-11.2465
ളാര	-11.2465
▁ലിച്ഛവി	-11.2469
▁വുദ്ധിം	-11.2469
▁ആചരിയുപജ്ഝായ	-11.247
▁ജാതിജരാമരണ	-11.2471
▁ദുട്ഠുല്ല	-11.2471
▁നപ്പജഹതീതി	-11.2472
ാഹരണ	-11.2472
▁ഭവിസ്സാമീ	-11.2472
▁പബ്ബജ്ജായ	-11.2474
▁ഉക്കണ്ഠ	-11.2474
പച്ചനീയാനുലോമം	-11.2475
വിമാനവണ്ണനാ	-11.2476
▁രി	-11.2478
▁പാദോ	-11.2478
▁പകാസേസി	-11.2478
ഡി	-11.2479
സമുദയം	-11.2481
▁പസ്സസി	-11.2481
▁സദിസാ	-11.2481
ധാതും	-11.2484
▁ഭോതി	-11.2484
ഗമ്മ	-11.2485
വോഹാരേന	-11.2485
▁സമ്പജ്ജ	-11.2485
▁ആവരണ	-11.2486
ുണ	-11.2487
▁നോനീവരണ	-11.2488
ബന്ധു	-11.2488
▁മരണേന	-11.2489
▁സരം	-11.2489
സേക്ഖ	-11.249
▁അജാനന്തസ്സ	-11.2491
ത്വാന	-11.2492
▁ദുഹേതുക	-11.2494
▁അനാഥ	-11.2496
▁ആസവസമ്പയുത്തോ	-11.2501
▁നിട്ഠം	-11.2504
താദീഹി	-11.2505
▁അഗ്ഗേ	-11.2506
▁ദ്വേധാ	-11.2506
നുലോമപച്ചനീയം	-11.2509
▁സാരിപുത്തത്ഥേര	-11.251
ഭിന്ദ	-11.2512
സദ്ദതോ	-11.2512
▁ചിന്താ	-11.2513
▁പുനപ്പുന	-11.2513
▁ഖീയതി	-11.2514
▁൨൩൯	-11.2515
▁കോട്ഠാസോ	-11.2515
▁പവേദ	-11.2516
വാസീനം	-11.2516
▁പരിയോസാനേ	-11.2516
▁അത്താതി	-11.2518
▁നിസീദിതബ്ബം	-11.252
▁൨൩൧	-11.2521
▁സതിപട്ഠാനേ	-11.2521
ഹേതുതോ	-11.2523
▁വുട്ഠാനസ്സ	-11.2524
▁കുലപുത്താ	-11.2525
മിച്ചേവ	-11.2525
ഭുയ്യ	-11.2525
▁പവാരണം	-11.2526
▁ജീവിതേ	-11.2526
▁പാമോജ്ജ	-11.2526
▁നയാ	-11.2529
▁പരിഹാര	-11.253
▁സമുട്ഠാപ	-11.2531
▁പുട	-11.2533
▁ജാനാഹി	-11.2534
▁പാസാദോ	-11.2535
▁പുരിസപുഗ്ഗലോ	-11.2535
▁കരോമീ	-11.2535
▁ഹേസ	-11.2536
▁ധിതി	-11.2536
പതീ	-11.2537
▁കാരണേ	-11.2537
▁ഉപ്പജ്ജന	-11.2538
▁അകുസലവിപാക	-11.254
▁സഠ	-11.2542
▁ദാസീ	-11.2544
ബ്യസന	-11.2545
▁ഏകവിധേന	-11.2547
▁സഹസേയ്യ	-11.2548
പുരിസാ	-11.2551
▁പാണിനോ	-11.2553
▁പുഞ്ഞേന	-11.2554
▁ലാഭസക്കാരസിലോക	-11.2554
▁കുദാസ്സു	-11.2554
നത്ഥോ	-11.2559
▁മിത	-11.256
മുഗ്ഗ	-11.2562
▁ലദ്ധനാമ	-11.2564
ഘാതക	-11.2564
ഭാജനം	-11.2565
▁ഉപവസ	-11.2567
▁ഗണോ	-11.2568
മരിയാദ	-11.257
▁പദേസം	-11.2572
▁നഗരസ്സ	-11.2572
▁ഹതോ	-11.2572
ല്യ	-11.2574
▁നിയ്യാത	-11.2575
ബഹൂ	-11.2575
‘‘	-11.2575
ാധിപ	-11.2576
▁പതിട്ഠാന	-11.2576
ക്ഖമ	-11.2576
▁ഗോത്രഭുസ്സ	-11.2579
▁ഖണിക	-11.2579
േയ്യാസീ	-11.2582
▁സമ്ബോധായ	-11.2584
▁അച്ചി	-11.2584
വിസേസാ	-11.2585
▁പമത്ത	-11.2587
▁ഉദ്ദ	-11.2588
നിപ്ഫാദന	-11.2589
▁ജിനം	-11.2591
വിസുദ്ധ	-11.2591
▁നിവേസന	-11.2591
▁കിസ്മിഞ്ചി	-11.2592
▁പചിത്വാ	-11.2592
▁ബ്യത്തേന	-11.2592
▁പരിഗ്ഗഹോ	-11.2593
▁ബാള്ഹ	-11.2593
▁വയപ്പത്തോ	-11.2595
▁ഉപാഗമി	-11.2596
▁തസ്മിഞ്ച	-11.2596
ഏസോ	-11.2596
സമുഗ്ഘാത	-11.2596
▁പഠമപാരാജിക	-11.2596
ഹതം	-11.2597
ഗ്ഗഹണേ	-11.2598
▁പബ്ബജിസ്സാമി	-11.2598
ാഹാരോ	-11.2598
ബദ്ധോ	-11.2599
▁തണ്ഹക്ഖയ	-11.26
വിപസ്സനായ	-11.2601
▁അഗ്ഗമഗ്ഗസമങ്ഗീ	-11.2601
▁തേയേവ	-11.2604
▁സമേ	-11.2605
▁ഗണ്ഹിതും	-11.2607
വിതാന	-11.2609
▁ദുല്ലഭോ	-11.261
▁അവസ്സ	-11.2613
▁വിവാദാധികരണം	-11.2614
▁ദുബ്ഭിക്ഖ	-11.2616
ബ്രഹ്മാ	-11.2617
▁ഗീവാ	-11.2617
▁വിസേസേത്വാ	-11.2618
കാമം	-11.2619
▁മദ്ദി	-11.262
▁കോട്ഠ	-11.2625
▁അഭിരമ	-11.2625
▁ഉപസമ്പാദേ	-11.2625
▁മഹാസമുദ്ദോ	-11.2628
ഗ്ഘനക	-11.2631
▁ദേയ്യധമ്മ	-11.2634
▁പരിക്ഖാരോ	-11.2636
▁ഉപാദാരൂപ	-11.2636
▁മഹഗ്ഗതോ	-11.2636
▁കാസാവ	-11.264
ഗുള	-11.2641
പച്ചയേന	-11.2641
സാരീ	-11.2641
കമ്മന്തി	-11.2642
▁അഖണ്ഡ	-11.2645
അച്ഛരിയം	-11.2647
▁കുസലാബ്യാകത	-11.2648
▁ലച്ഛ	-11.2648
▁പാരാജികാ	-11.265
ഭാവിത	-11.2651
▁പടിഭാനപടിസമ്ഭിദ	-11.2652
▁യഥാപി	-11.2652
ചരിയായ	-11.2653
നവക	-11.2654
വസേനപി	-11.2655
മജ്ഝത്ത	-11.2655
▁പടിസ്സുത്വാ	-11.2656
▁ആരാധ	-11.2656
▁ഝാനങ്ഗ	-11.2658
ഗബ്ഭോ	-11.2658
▁പബ്ബാജേതബ്ബോ	-11.2658
സരിക്ഖ	-11.266
▁പട്ഠപേത്വാ	-11.2661
▁ഇതരഥാ	-11.2661
▁ദമ്മി	-11.2662
▁യകാര	-11.2662
▁വുത്തനയത്താ	-11.2662
▁കാരണഭൂത	-11.2663
▁സഉത്തര	-11.2665
▁അപ്പത്വാ	-11.2666
▁രഥേസഭ	-11.2666
▁പേമം	-11.2667
സങ്ഖാതാനം	-11.2668
▁പച്ചുപ്പന്നാ	-11.2669
ന്ഥ	-11.2669
ാഭിമുഖോ	-11.267
▁സമുദയസച്ചഞ്ച	-11.2671
▁വിരോചതി	-11.2672
▁ഫോട്ഠബ്ബം	-11.2672
▁കമ്മഫല	-11.2672
▁സമാസേ	-11.2673
ത്തേപി	-11.2677
▁നാനാകരണം	-11.2677
▁അനുസ്സതി	-11.2677
▁പീതിസഹഗതോ	-11.2678
▁മനുസ്സഭൂതാ	-11.2678
▁അസാര	-11.2679
നിരുത്തി	-11.2679
ാഹു	-11.2681
▁ജപ്പ	-11.2682
▁അസ്സദ്ധിയ	-11.2683
പടിഞ്ഞം	-11.2683
▁ധാരേന്ത	-11.2684
▁ഭവനം	-11.2684
ഇച്ച	-11.2685
▁നദാദി	-11.2685
▁ദുഗ്ഗ	-11.2687
▁സൂരിയേ	-11.2688
▁ദിട്ഠിഗതാനം	-11.2689
▁൨൪൨	-11.2691
▁ജേതവനം	-11.2691
▁മഗ്ഗഹേതുക	-11.2691
▁നിസജ്ജായ	-11.2692
▁സദിസം	-11.2695
സമ്മതോ	-11.2695
േസ്സതീ	-11.2697
▁മോക്ഖോ	-11.2697
വിസയാ	-11.2698
▁സമുദാചര	-11.2698
ാനോ	-11.2698
▁ആണാപ	-11.2699
▁സമ്മജ്ജ	-11.27
▁പരലോകേ	-11.27
മേവാ	-11.2701
പരിദീപന	-11.2702
▁ഭവരാഗാനുസയ	-11.2704
പരിവത്തന	-11.2705
▁കീ	-11.2705
▁ഉണ്ഹം	-11.2707
പരിബ്ബാജക	-11.2708
▁സച്ചാനം	-11.2709
▁അനുരക്ഖ	-11.271
ചമ്മം	-11.271
▁നാമികപദമാലാ	-11.2711
മുട്ഠ	-11.2711
▁പണിധി	-11.2712
▁ചതുബ്ബിധാ	-11.2712
ദേവീ	-11.2712
ാഗാര	-11.2714
▁സച്ഛികിരിയാ	-11.2714
കഹാപണ	-11.2714
▁സരീരസ്സ	-11.2715
▁ഭാവനം	-11.2716
▁സന്തിട്ഠതി	-11.2719
▁അയഞ്ഹേത്ഥ	-11.2719
പ്പയോഗോ	-11.2719
▁സദ്ദായതനം	-11.272
ിഹ	-11.2721
പൂതി	-11.2725
▁ജാനിതും	-11.2726
പിതാ	-11.2726
▁സാരത്തോ	-11.2727
▁സുത്തേസു	-11.2728
▁രോഹണ	-11.2728
▁സമാപത്തിയാ	-11.2728
▁സാസവോ	-11.2729
▁അരഹതീതി	-11.2733
▁സിഥില	-11.2735
▁ഖന്തിം	-11.2736
▁ഗബ്ഭം	-11.2737
▁സമ്മാസമ്ബുദ്ധാ	-11.2737
▁പത്ഥനായ	-11.2738
പച്ഛിമചിത്തസ്സ	-11.2739
▁സന്ന	-11.2739
▁വാതേന	-11.2739
▁രുചി	-11.2739
▁അഭ	-11.2742
▁നിരാ	-11.2742
▁ഹരി	-11.2743
ഗാമിനീ	-11.2743
▁സാനുസയോതി	-11.2744
▁സീമായ	-11.2744
ുമ	-11.2744
▁വിസാഖാ	-11.2747
രഞ്ഞ	-11.2748
▁ധമ്മികം	-11.2749
▁സമാപന്ന	-11.2749
▁൨൪൧	-11.2749
▁സസ്സതദിട്ഠി	-11.2749
▁ദുക്ഖസച്ചഞ്ച	-11.2749
ബലവ	-11.275
▁ഗന്ഥവിപ്പയുത്ത	-11.275
▁യദേവ	-11.2752
▁ദ്വയ	-11.2753
▁മഞ്ഞന്തി	-11.2755
▁മഹഗ്ഗതം	-11.2756
വിഞ്ഞാണം	-11.2756
▁അഥോപി	-11.2758
▁അട്ഠിക	-11.2758
▁ബാരാണസി	-11.2758
▁വമ്മിക	-11.276
▁സങ്ഖതം	-11.2762
വ്ഹേ	-11.2768
▁വിക്ഖമ്ഭിത	-11.2769
ലോകം	-11.2769
▁സമ്മത്ത	-11.2769
▁തദഹു	-11.2773
പദാ	-11.2775
▁ഥു	-11.2775
തരേ	-11.2775
ാസനം	-11.2777
മാനത്ത	-11.2778
ിതേന	-11.2779
ക്കോസ	-11.2779
ധാതൂ	-11.2779
▁ഏകേകസ്സ	-11.278
▁വുത്തലക്ഖണ	-11.2781
ചതുന്നവുതി	-11.2782
പാവുരണ	-11.2782
ദോസാ	-11.2782
▁അനാഗതാരമ്മണ	-11.2783
▁ഇത്ഥിപുരിസ	-11.2783
അനന്തര	-11.2783
▁ഗന്ധായതനം	-11.2783
▁അന്തലിക്ഖേ	-11.2783
▁ദ്വിക്ഖത്തും	-11.2784
▁തബ്ബി	-11.2785
▁പരദാര	-11.2785
ബിന്ദു	-11.2785
▁പഥവീകസിണ	-11.2787
▁വിപ്പമുത്ത	-11.279
ക്ഖേത്ത	-11.2793
▁ഹു	-11.2793
▁കതകിച്ച	-11.2793
ലപ	-11.2794
▁ഇധാവുസോ	-11.2794
മയി	-11.2795
▁കമ്മജ	-11.2798
വിരതി	-11.2799
▁അസാത	-11.2804
▁കഥന്തി	-11.2804
▁അനുപ്പത്താ	-11.2806
താള	-11.2808
▁ഉപാസകം	-11.2808
ബ്ഭവ	-11.281
▁നിച്ചല	-11.281
▁മലം	-11.2811
സാരം	-11.2815
▁ഫുട	-11.2819
▁സമാധിനാ	-11.2827
▁ഗമിസ്സതി	-11.2829
ച്ഛായ	-11.2829
▁പാപേ	-11.2829
കിരിയം	-11.2832
▁തിട്ഠന്ത	-11.2832
▁ഇന്ദ്രിയസംവര	-11.2833
▁സേതു	-11.2833
സക്കോ	-11.2835
▁ഹരന്തി	-11.2836
ലോല	-11.2837
ഉപനിസ്സയ	-11.2839
വിവാദ	-11.2841
േയ്യു	-11.2841
▁മുദ്ധ	-11.2842
▁നപ്പജാനന്തി	-11.2846
▁സണ്ഠാതി	-11.2846
▁അസമ്ഭിന്ന	-11.2846
▁വിചക്ഖണോ	-11.2846
▁പസന്നമാനസോ	-11.2846
▁അനാവില	-11.2846
▁ഇസ്സരിയം	-11.2848
ധായ	-11.2848
▁ഉപട്ഠപേത്വാ	-11.2848
▁സംസയോ	-11.2849
▁തിചീവര	-11.2849
▁രൂപധമ്മ	-11.285
▁മാനത്ത	-11.285
▁പവിവിത്ത	-11.285
▁വിഹിത	-11.2851
▁സക്കര	-11.2851
മൂലാ	-11.2851
ഇതിപി	-11.2851
▁പടിബലേന	-11.2852
▁യഥാസമ്ഭവം	-11.2855
സുക്ക	-11.2856
മനുസാസ	-11.2858
വിപാകോ	-11.2859
▁സാമണേരസ്സ	-11.286
പ്പത്തിയാ	-11.2862
നന്ത	-11.2863
യാമി	-11.2865
▁അപരിയാപന്നാ	-11.2865
▁പജഹന്തോ	-11.2866
സങ്ഗഹം	-11.2867
അല	-11.2867
വസ്സോ	-11.2869
▁അജ്ജേവ	-11.2873
▁പജഹഥ	-11.2874
▁സത്ഥുസാസന	-11.2875
▁അഭിസമയോ	-11.2876
▁ഛേകോ	-11.2877
▁സാസപ	-11.2878
▁മിഗോ	-11.2879
▁കലഹം	-11.288
ഞ്ജലി	-11.288
രണേ	-11.2881
▁വിഞ്ഞാപേതി	-11.2882
▁ദേന്ത	-11.2882
പോതക	-11.2883
ജയ	-11.2884
▁ഉഭോഹി	-11.2884
ദസ്സനാ	-11.2889
▁കങ്ഖം	-11.2891
▁യായം	-11.2892
▁പുബ്ബാ	-11.2893
▁ആരാ	-11.2895
▁ഇന്ദ്രിയന്തി	-11.2895
▁ഹോതൂതി	-11.2896
▁ഗാഥാസു	-11.2896
▁ദര	-11.2896
▁കഥിനുദ്ധാരോ	-11.2898
▁യമ്ഹി	-11.2898
▁മത്ഥക	-11.2902
▁പച്ഛാജാതേ	-11.2902
വാചായ	-11.2902
▁രുപ്പന	-11.2905
▁പബ്ബതാ	-11.2905
▁ഭജന്തി	-11.2906
▁ഗണം	-11.2906
പരിയോസാനാ	-11.2909
▁വിയാകാസി	-11.291
▁കായസുചരിത	-11.291
▁അനാസവ	-11.291
▁ദലിദ്ദ	-11.2911
▁രൂപാരമ്മണം	-11.2911
സമഞ്ഞാ	-11.2912
▁തൂല	-11.2913
▁മരണസ്സ	-11.2913
ണ്ണോ	-11.2913
▁സങ്ഖാരുപേക്ഖാ	-11.2913
മൂലകേ	-11.2914
▁മച്ഛരിയം	-11.2915
▁ഏളക	-11.2916
▁പതിതം	-11.2916
▁കഥന	-11.2916
വാണിജ	-11.2917
▁ബ്രഹ്മചരിയവാസോ	-11.2917
ദേവാ	-11.2918
തുമ്ഹാകം	-11.2919
▁ഇദ്ധിവിധ	-11.292
▁ആസാ	-11.2922
▁മനോകമ്മം	-11.2922
▁കരിംസു	-11.2924
▁പച്ചുപ്പന്നേ	-11.2926
▁പഠമമേവ	-11.2927
ാതിആദീസു	-11.2927
▁ലിങ്ഗം	-11.2927
▁ഗദ്രഭ	-11.2928
▁മാസോ	-11.2929
▁പതിരൂപം	-11.2929
▁വന്ദേ	-11.2929
▁കിത	-11.2929
▁നുത്ഥ	-11.293
▁പിണ്ഡപാതോ	-11.2931
സന്ധ	-11.2932
▁സുദസ്സന	-11.2932
▁ഏവരൂപസ്സ	-11.2933
▁അച്ഛാദ	-11.2934
▁സംസന്ദ	-11.2936
▁ആകാസധാതു	-11.294
▁ദിട്ഠധമ്മ	-11.294
കുലപുത്ത	-11.2941
ബ്യാധി	-11.2948
സ്സാമീതി	-11.2948
▁വചനത്ഥം	-11.2949
പരിഞ്ഞാ	-11.2949
▁ഉപഗതാ	-11.2951
▁പരാമാസസമ്പയുത്ത	-11.2951
ദ്വേമേ	-11.2955
നിട്ഠ	-11.2955
ഗച്ഛതി	-11.2957
▁പുച്ഛായ	-11.2958
▁പാടിഹാരിയം	-11.2959
സംവണ്ണനായ	-11.2961
▁സംവിദഹ	-11.2961
▁ബുദ്ധോതി	-11.2963
▁ദുപ്പഞ്ഞോ	-11.2963
▁പോസേ	-11.2963
▁അജ്ഝോഹര	-11.2966
▁ഞാണദസ്സന	-11.2966
ദീപനാ	-11.2967
▁വിക്ഖമ്ഭന	-11.2967
അസ	-11.2968
പുത്തം	-11.2972
ഭക്ഖോ	-11.2973
▁സിസ്സോ	-11.2973
▁കാമച്ഛന്ദ	-11.2973
ാധിട്ഠാനം	-11.2973
▁അനവകാസോ	-11.2974
▁നഅരൂപാവചര	-11.2974
▁അഞ്ഞാതികായ	-11.2975
ഖോ	-11.2976
▁ഭോജനാനി	-11.2976
ാനുസ്സതി	-11.2977
▁അരുണുഗ്ഗമന	-11.2977
യന്ത	-11.2978
സരൂപ	-11.2979
▁പജാന	-11.298
▁തപ്പച്ചയാ	-11.298
ീയമാന	-11.2981
▁ഭാഗോ	-11.2985
▁കപ്പേസി	-11.2986
▁അരഹതം	-11.2986
▁ഭായി	-11.2987
▁സപ്പുരിസാ	-11.2988
▁ഉപാദാനാ	-11.2988
▁ഭവന്തീതി	-11.299
▁ദീപേന്തോ	-11.2992
ഗം	-11.2992
ൂപമം	-11.2993
▁വുട്ഠി	-11.2996
▁സോതവിഞ്ഞാണ	-11.2996
▁വിനാപി	-11.2996
▁യക്ഖാ	-11.2997
▁നിമന്തിതോ	-11.2999
ഞാത	-11.2999
▁സബ്ബകാമ	-11.3
ങ്കരോ	-11.3001
ിത്ഥി	-11.3002
ഗ്ഗഹണേനേവ	-11.3002
അനിദസ്സനസപ്പടിഘോ	-11.3003
▁കദ്ദമ	-11.3004
▁ധോവന	-11.3005
▁അനോകാസ	-11.3006
▁വേപുല്ല	-11.3006
▁ഏകദിവസ	-11.3007
▁വചനേ	-11.3007
▁പവാരണ	-11.3007
▁അരുണ	-11.3007
ഭഗ്ഗ	-11.301
▁ഛന്നോ	-11.3011
▁ബഹുവിധ	-11.3011
▁അസ്സമേ	-11.3014
സമന്നാഗത	-11.3016
അട്ഠാനമേതം	-11.3016
▁ചിത്തേകഗ്ഗതാ	-11.3017
▁സമത്തം	-11.3017
വാദേന	-11.3021
▁അഭൂതം	-11.3021
▁ദുബ്ഭ	-11.3023
▁അധിഗച്ഛ	-11.3024
ലായ	-11.3028
▁ദേസയ	-11.3029
▁നിബ്ബുത	-11.3031
സാസനേ	-11.3034
▁സല	-11.3034
ആദേസോ	-11.3035
ുബ്ഭ	-11.3035
▁വഗ്ഗു	-11.3036
▁മത്താ	-11.3036
ോദയ	-11.3037
ത്തമ	-11.3037
ദ്ദു	-11.3039
▁ദിയ്യമാന	-11.3039
▁മുയ്ഹ	-11.304
▁അനത്ഥം	-11.304
▁പഞ്ചവോകാരം	-11.304
മത്താനം	-11.3041
അബ്ഭ	-11.3042
▁ഫാസുക	-11.3042
▁വുത്തോയേവ	-11.3042
▁കായാ	-11.3045
▁അഭിഭൂ	-11.3045
▁കരിസ്സന്തി	-11.3045
ോകാസം	-11.3046
പുഥുജ്ജന	-11.3047
▁ഞാ	-11.3049
▁സംഹര	-11.3049
കവാട	-11.3049
▁അരിയായ	-11.3052
▁ഓഭാസോ	-11.3052
▁അന്തരായാ	-11.3053
▁മാപേത്വാ	-11.3058
▁അസക്കോന്താ	-11.3058
▁പീതിസഹഗതാ	-11.3058
ക്രിയ	-11.3058
▁സംവത്തതീ	-11.3059
▁സമാധിയതി	-11.3059
▁ഓദനം	-11.3059
▁ത്വഞ്ച	-11.306
▁സക്കം	-11.3061
യാഗു	-11.3061
കരോതി	-11.3062
▁സച്ഛികരോതി	-11.3062
▁പവത്തിതം	-11.3062
പഞ്ഞം	-11.3065
▁കപണ	-11.3067
▁സ്മാ	-11.3067
▁ബന്ധനാ	-11.3068
▁സഹജാതപച്ചയാ	-11.3069
ുത	-11.3072
▁സമയാ	-11.3072
▁സോതേന	-11.3072
ദബ്ബ	-11.3075
▁ദോണ	-11.3076
സമായോഗ	-11.3076
▁നിവിട്ഠ	-11.3077
▁വിനയകമ്മ	-11.3078
▁യാഥാവ	-11.3079
▁ഭയതോ	-11.308
▁ഏകാബദ്ധ	-11.308
ഖത്തിയ	-11.3082
▁വിവിധാ	-11.3082
മിച്ച	-11.3082
▁പുച്ഛിത	-11.3083
▁അജ്ഝത്തബഹിദ്ധാ	-11.3084
▁നാഗരാജ	-11.3084
വിക്ഖമ്ഭ	-11.3087
▁വിരജ്ജതി	-11.309
▁ഝാനപച്ചയ	-11.3091
▁കുമാരം	-11.3091
സമന്നാഗതം	-11.3092
▁ചജ	-11.3093
ലിത	-11.3097
▁അഞ്ഞതോ	-11.3098
▁വിഞ്ഞാണന്തി	-11.3098
▁ദീപയ	-11.3099
▁അനുമോദനം	-11.3103
ഭാസാ	-11.3104
▁പച്ചനീയുദ്ധാരോ	-11.3104
▁മഹേസക്ഖ	-11.3104
▁സമോധാനപരിവാസ	-11.3105
വിരഹിതം	-11.3105
▁അലജ്ജീ	-11.3105
▁അലഭിത്വാ	-11.3105
▁നേസാദ	-11.3105
▁ദസാഹ	-11.3105
▁അദംസു	-11.3106
▁ഖുജ്ജ	-11.3107
▁ക്യ	-11.3107
▁ആണാപേസി	-11.3107
▁തസ്മാതിഹ	-11.3112
▁ധുത്ത	-11.3113
മഹഗ്ഗത	-11.3113
▁കമ്മവിപാക	-11.3114
ിയേ	-11.3114
▁അഗ്ഗീ	-11.3115
നിബ്ബ	-11.3115
ജനോ	-11.3116
▁അസോക	-11.3117
മാനാനം	-11.3117
നിവത്തി	-11.3118
▁നിസീദിതും	-11.312
▁മനുസ്സേഹി	-11.3121
ുപ്പല	-11.3122
▁വിസ്സജ്ജേതി	-11.3123
▁ദിട്ഠേന	-11.3125
▁ദസ്സാമി	-11.3126
▁നിദ്ദായ	-11.3132
▁നന്ദോ	-11.3133
▁ദാതു	-11.3133
പ്പസന്ന	-11.3134
▁സുദ്ധോ	-11.3134
സൂകര	-11.3135
▁തുട്ഠി	-11.3135
▁സുഖിതാ	-11.3136
▁ആവാട	-11.3136
▁നിബ്ബത്തന്തി	-11.3138
▁ദുക്ഖവിപാക	-11.3139
ഭീത	-11.3139
▁നവത്തബ്ബ	-11.3139
ാഹീതി	-11.3139
▁മഹാകസ്സപോ	-11.3139
ഗണനാ	-11.3139
▁പരിത്താ	-11.314
▁നിബ്ബത്തം	-11.314
▁ഛഡ്ഡേ	-11.3143
▁സമ്മുഖാവിനയോ	-11.3143
▁ഭൂതാനി	-11.3145
▁രമ്മം	-11.3145
▁അനുമാന	-11.3146
വിനിബന്ധ	-11.3148
▁ആഭത	-11.3148
▁ചക്ഖാദി	-11.3151
വേലായ	-11.3152
മനുയുത്തോ	-11.3153
▁ഖായതി	-11.3154
പൂജാ	-11.3154
ജായ	-11.3155
▁ഛിന്ദതി	-11.3156
▁സബ്ബഞ്ച	-11.3157
▁സമ്പതി	-11.3158
▁മനോസമ്ഫസ്സ	-11.3159
നലക്ഖണാ	-11.3161
▁വിജായ	-11.3161
▁ഉദ്ധച്ചസഹഗതം	-11.3161
▁നിപ്ഫാദേ	-11.3164
▁കാരയി	-11.3165
▁കായസംസഗ്ഗ	-11.3166
▁അയ്യോ	-11.3167
▁ദാഠ	-11.3168
▁ദയാ	-11.3168
▁സാമഞ്ഞഫല	-11.3168
▁പച്ഛിമസ്സ	-11.3169
▁അലഭന്തോ	-11.317
▁നഅനാസവ	-11.317
▁മഹാസുദസ്സന	-11.3171
▁പാപുണിംസൂതി	-11.3171
▁പച്ചവേക്ഖമാനോ	-11.3173
▁പുബ്ബന്ത	-11.3173
▁പച്ചവേക്ഖണാ	-11.3173
▁സുഭാ	-11.3174
▁മധുരം	-11.3174
▁ദേവതേ	-11.3175
▁അരൂപസഞ്ഞീ	-11.3175
▁കരിസ്സാമാ	-11.3175
ങ്ഗാനി	-11.3177
▁യമഹം	-11.3177
ആപത്തി	-11.3179
▁ലോകധാതു	-11.318
ക്ഖേപ	-11.3181
▁സക്കുണേയ്യ	-11.3182
▁രുച്ച	-11.3182
▁ഛദന	-11.3183
▁ഗേഹസിത	-11.3184
▁ഗത്ത	-11.3184
▁വത്തബ്ബതം	-11.3186
▁കച്ചായന	-11.3189
വസി	-11.3191
▁രൂപാരമ്മണ	-11.3192
▁വക്ഖാമ	-11.3195
ഖല	-11.3195
▁നിയ്യാതി	-11.3195
▁ഉപമം	-11.3196
▁യാഗും	-11.3197
കണ്ഹ	-11.3198
▁ഉരഗ	-11.3199
വിഭാവ	-11.3201
▁നരക	-11.3201
▁സുദ	-11.3204
വിജയ	-11.3204
▁മഗ്ഗങ്ഗം	-11.3205
▁കോസലോ	-11.3206
▁പരിതോ	-11.3207
▁ആഘാതോ	-11.3207
▁കീളാ	-11.3207
നിയാമേന	-11.3207
▁പത്തബ്ബ	-11.3208
പക്ഖിക	-11.3208
ിദ	-11.3208
സുക്കവിസ്സട്ഠിയാ	-11.321
▁അഹൂ	-11.321
▁ഞാതക	-11.3214
അയ്യ	-11.3214
▁പഗ്ഗഹേത്വാ	-11.3216
അജ്ഝ	-11.3222
▁നിബ്ബിദായ	-11.3222
▁ഏകധമ്മ	-11.3223
ാമാ	-11.3227
കുതോ	-11.3229
▁ജേഗുച്ഛ	-11.3231
▁അതിസയ	-11.3233
▁അനാദര	-11.3234
▁ജാതരൂപ	-11.3234
▁കാമഭോഗീ	-11.3237
▁ഗിലാനാ	-11.3237
▁ആഹിണ്ഡ	-11.3237
ഗങ്ഗ	-11.3237
▁ഉപദ്ദുത	-11.3237
▁ചിത്തസ്സേകഗ്ഗതാ	-11.3238
▁അനനുസ്സുതേസു	-11.3239
▁യുവാ	-11.324
▁ഭേ	-11.324
▁ഇദമ	-11.324
▁പണ്ഡിതേഹി	-11.3241
ഭാവദസ്സന	-11.3242
▁പിയരൂപം	-11.3244
▁ഓത്തപ്പം	-11.3244
▁യാദിസാ	-11.3247
▁താദിസാ	-11.3247
നിസജ്ജ	-11.3248
ുത്തമം	-11.325
▁ഹേതുസമ്പയുത്ത	-11.3251
▁അനുപ്പ	-11.3252
സങ്ഗാഹക	-11.3253
▁ഗോചരം	-11.3253
▁വേസ്സന്തരോ	-11.3253
▁സന്ഥര	-11.3254
കിസ്സ	-11.3255
▁വസന്ത	-11.3255
▁രതാ	-11.3257
വിസേസേ	-11.3258
ന്തൂതി	-11.3262
▁മൂലായ	-11.3262
▁സത്ഥാര	-11.3262
പഞ്ഹാ	-11.3262
ത്തിംസ	-11.3264
തച്ഛ	-11.3265
▁ബാഹ	-11.3266
▁ഭയാ	-11.3266
സനേ	-11.3269
▁മുഹുത്തം	-11.3272
തന	-11.3273
വാചി	-11.3273
▁മഗധ	-11.3273
▁നിവത്തിത്വാ	-11.3274
▁നിസ്സയപച്ചയ	-11.3275
▁ഭവാഭവ	-11.3277
▁രൂപായതന	-11.3279
▁ഗബ്ഭോ	-11.328
▁ദസമ	-11.3282
▁വതായം	-11.3282
നിരയ	-11.3283
▁സുജാതോ	-11.3283
പാരിപൂരി	-11.3284
▁സമോധാന	-11.3284
ഗോചരാ	-11.3285
ബലാ	-11.3286
▁അലത്ഥ	-11.3287
ചാല	-11.3287
▁സീഹസ്സ	-11.3288
്ത	-11.3288
▁ജനപദേസു	-11.329
ഇമ	-11.3291
▁സന്തീതി	-11.3291
നദീ	-11.3291
▁അധിഗതം	-11.3292
▁അഞ്ഞഥത്തം	-11.3292
▁പരിവാരിതോ	-11.3292
▁സമ്മാദിട്ഠിയാ	-11.3292
▁വിഭൂതം	-11.3294
▁അഗ്ഗഫല	-11.3295
▁ഉണ്ണ	-11.3296
▁ബലേന	-11.3299
▁കപ്പാസ	-11.33
യമ	-11.3302
▁മുദുക	-11.3303
ട്ഠീനി	-11.3304
▁ഭുമ്മത്ഥേ	-11.3305
▁ഭാരം	-11.3305
▁തേവീസതി	-11.3306
താപന	-11.3306
▁ഏകഗ്ഗതാ	-11.3308
ബോജ്ഝങ്ഗ	-11.3309
▁ലങ്ഘ	-11.3309
▁പരിക്ഖയം	-11.3311
▁കോധം	-11.3313
▁അജിന	-11.3313
▁വിദിതം	-11.3314
▁അസഞ്ഞ	-11.3315
▁സദേവകസ്സ	-11.332
▁ജാനാതീ	-11.3326
▁ഗാമസ്സ	-11.3326
▁ഭി	-11.3327
യട്ഠി	-11.333
▁പിതാമഹ	-11.3331
▁സങ്ഘകമ്മ	-11.3333
▁ജാനതാ	-11.3334
അഞ്ഞമഞ്ഞപച്ചയേന	-11.3336
▁ഉച്ഛേദദിട്ഠി	-11.3336
▁ദായ	-11.3337
▁പസ്സാമീ	-11.3339
▁രത്തിയോ	-11.3342
മ്ഹസേ	-11.3342
രോഗോ	-11.3343
▁വിപസ്സന	-11.3345
വചനതോ	-11.3346
▁അക്ഖാതാ	-11.3346
വികതി	-11.3347
▁പരാജയോ	-11.3347
സഞ്ഞിസ്സ	-11.3347
മിദ	-11.3348
സിക്ഖാ	-11.3348
ഞ്ചേതം	-11.3349
▁ചങ്കമന്ത	-11.335
നവിപാകധമ്മധമ്മം	-11.3351
▁പാരമീ	-11.3352
▁വിതക്കം	-11.3352
▁കതോതി	-11.3353
▁ബ്രാഹ്മണേന	-11.3353
വിജാനന	-11.3354
▁ദാരുണ	-11.3354
▁നിക്ഖമന	-11.3356
▁നിസ്സജ്ജ	-11.3356
▁സുതോ	-11.3357
▁ആദീനവഞ്ച	-11.3357
ാഭിരത	-11.3357
വികല	-11.3358
▁ധാരേതു	-11.3359
▁വുത്ഥ	-11.336
ാഭിധാന	-11.3361
ന്വ	-11.3362
വാല	-11.3362
രേതി	-11.3363
കരേ	-11.3364
▁സകുണോ	-11.3365
േകോ	-11.3366
▁വിക്കിണ	-11.3368
ജഞ്ഞ	-11.3368
▁തദഹുപോസഥേ	-11.337
▁മാഗണ്ഡിയ	-11.337
▁ധമ്മികോ	-11.3371
▁ചിത്തസഹഭു	-11.3371
▁കാമാവചരോ	-11.3372
ാമാതി	-11.3373
ത്തര	-11.3373
▁യാചക	-11.3373
▁മാനുസക	-11.3374
കിലമഥ	-11.3375
▁വുത്തമത്ഥം	-11.3375
▁മഹന്താ	-11.3375
▁പടിച്ഛാദേത്വാ	-11.3376
▁പസീദിത്വാ	-11.3378
▁അമോഹ	-11.3379
▁ഗവം	-11.3381
▁പടിഗ്ഗാഹക	-11.3381
സീസം	-11.3381
▁പരിപാക	-11.3383
▁അഭിസങ്ഖത	-11.3383
▁ഖീയ	-11.3385
ായു	-11.3386
അട്ഠാരസ	-11.3387
ഗാമിനോ	-11.3388
▁അകാലേ	-11.3388
▁ഞാപേതബ്ബോ	-11.3391
▁ആദീനവാ	-11.3391
▁വിബ്ഭന്ത	-11.3391
നിദാനാ	-11.3391
▁വത്തബ്ബന്തി	-11.3392
ലാഭാ	-11.3392
▁രുഹ	-11.3392
▁സകദാഗാമിമഗ്ഗ	-11.3393
സയം	-11.3393
▁പസ്സിതും	-11.3398
ദോമനസ്സുപായാസാ	-11.3398
▁അപരിക്ഖിത്ത	-11.3398
▁അവിപ്പടിസാര	-11.34
▁പാസംസോ	-11.34
▁ധമ്മപടിസമ്ഭിദാ	-11.3401
▁സുണന്തോ	-11.3401
▁വിപ്പസന്നേന	-11.3401
▁അകാരണ	-11.3402
ത്ഥമേവ	-11.3402
▁ഭവപച്ചയാ	-11.3405
▁ഖയേ	-11.3407
ന്തരായ	-11.3408
ീയം	-11.3408
▁അട്ഠങ്ഗുല	-11.3409
▁അദസ്സന	-11.341
▁മാരിസാ	-11.3411
▁അജാനന	-11.3411
▁ഉപനിസ്സയോ	-11.3412
▁പസംസന്തി	-11.3412
▁മാരം	-11.3413
▁യോഗാവചരോ	-11.3414
ഗണ്ഡ	-11.3414
▁തല	-11.3415
വവത്ഥാന	-11.3416
പടിലാഭോ	-11.3421
്യം	-11.3422
ധിട്ഠാന	-11.3423
ഞാണസ്സ	-11.3424
തുന്ന	-11.3425
▁സച്ഛികിരിയായ	-11.3425
▁അക്ഖാത	-11.3427
ചല	-11.3431
യസ	-11.3432
▁സമുഗ്ഘാത	-11.3434
▁വേഹാസം	-11.3435
▁കല്ല	-11.3436
▁മഹാപഞ്ഞോ	-11.3437
▁അപചയഗാമീ	-11.3438
▁മുട്ഠസ്സതി	-11.3438
▁കാനിചി	-11.3438
▁യുഗനദ്ധ	-11.3438
▁പടിവിരതാ	-11.3439
▁ആവ	-11.3439
ാദിഭാവ	-11.3439
▁യാവദത്ഥം	-11.3439
▁ദേവതാഹി	-11.344
▁ദേസനാപരിയോസാനേ	-11.344
ദന്തി	-11.3441
▁ഭിക്ഖാചാര	-11.3442
ഗുണേന	-11.3442
പബ്ബതേ	-11.3443
▁നസഹജാതേ	-11.3443
▁ഥീ	-11.3443
▁പച്ചനീയം	-11.3444
ാപീ	-11.3445
▁നിബ്ബാനധാതുയാ	-11.3445
▁രസ്സത്തം	-11.3445
▁സുഗ്ഗഹിത	-11.3445
രിത്വാ	-11.3445
▁കപ്പസതസഹസ്സ	-11.3446
▁മനുസ്സഭൂതോ	-11.3446
പച്ഛാ	-11.3447
▁ഏഥ	-11.3448
ബുദ്ധസ്സ	-11.3448
▁ബുദ്ധഗുണ	-11.3448
▁രുചിയാ	-11.3448
▁അഗാരവോ	-11.3449
▁ഗേധ	-11.3449
▁തപ്പടിപക്ഖ	-11.3449
▁ഉപനിധായ	-11.345
▁പണ്ഡര	-11.3452
▁ഉപഹത	-11.3452
ലോകിയ	-11.3453
ങ്ഗുട്ഠ	-11.3454
▁സാധൂതി	-11.3454
▁ഓപമ്മ	-11.3455
▁പച്ചയാകാര	-11.3455
ദാഹ	-11.3457
▁അന്തരധായ	-11.3457
▁ഏകരസ	-11.3458
▁സേസാനം	-11.3458
▁ഉദയബ്ബയ	-11.3458
▁നഹാന	-11.3459
▁ചതുത്ഥസ്സ	-11.3459
▁ബ്രാഹ്മണീ	-11.346
കോവിദോ	-11.3461
▁അധിട്ഠഹ	-11.3462
ബഹുലാ	-11.3462
▁അഭിഭൂത	-11.3464
▁അനിയതാ	-11.3464
▁അകാമ	-11.3464
▁നിസ്സാര	-11.3465
▁വേരി	-11.3467
▁അവധി	-11.3467
ദൂത	-11.347
ആകാസ	-11.347
▁രുദ	-11.3472
▁സംസട്ഠ	-11.3472
പഠമം	-11.3473
നകോ	-11.3474
▁ഗരുഭണ്ഡം	-11.3475
▁വിനാസം	-11.3475
▁സംവസ	-11.3475
സേല	-11.3475
▁ഥുതി	-11.3476
സംയുത്തേ	-11.3482
▁പാച	-11.3482
അനന്ത	-11.3483
തേജ	-11.3487
രാനം	-11.3489
▁കാസ	-11.3491
സേഖ	-11.3493
▁ലോമാ	-11.3494
ഭവോ	-11.3494
▁നപുംസകലിങ്ഗ	-11.3494
▁പാടിഹാരിയ	-11.3495
പയോഗേ	-11.3498
രോപന	-11.3499
മണ്ഡപ	-11.35
▁പരിയുട്ഠാന	-11.3504
▁ഭേസജ്ജാനി	-11.3504
▁പാപിമ	-11.3505
കാസീ	-11.3505
▁വിത്ഥത	-11.3505
▁മനസികരോന്തോ	-11.3506
▁മിഥില	-11.3506
▁വൂപസമ്മതി	-11.3506
▁ദ്വാവീസതി	-11.3506
ാദിഭാവോ	-11.3507
▁ആപജ്ജന്തി	-11.3508
▁മഹാപച്ചരിയം	-11.3508
▁ആഭസ്സര	-11.3509
▁സമാപജ്ജന	-11.3509
▁സുനക്ഖത്ത	-11.351
▁അനുഗത	-11.3511
ഉത്തര	-11.3512
▁പരിവേണം	-11.3512
▁ഉപനീത	-11.3513
▁സമുട്ഠാപേതി	-11.3514
ന്തരേന	-11.3515
നസീലോ	-11.3515
▁പരിപൂരേന്തി	-11.3515
▁മഹത്ത	-11.3515
കരുണാ	-11.3515
▁അസമ്പത്ത	-11.3517
കോട്ഠാസേ	-11.3518
മത്തിക	-11.3518
▁ആണത്ത	-11.3518
▁അട്ഠാരസഹി	-11.3518
▁നിക്ഖേപ	-11.3519
വിത്ത	-11.3519
▁കായിന്ദ്രിയം	-11.352
സേനോ	-11.3521
ഏതദഗ്ഗം	-11.3521
▁ഉപാദാനിയ	-11.3522
സിങ്ഗ	-11.3522
▁പീതിം	-11.3523
▁വസ്സൂപനായിക	-11.3523
▁പത്ഥേതി	-11.3525
▁പരിസുദ്ധോ	-11.3525
▁കിമി	-11.3526
▁മൂസിക	-11.3526
▁പടിസന്ഥാര	-11.3528
ത്തീ	-11.3531
വിതക്കോ	-11.3531
ികേന	-11.3531
ത്ഥീ	-11.3533
സമ്മതാ	-11.3533
▁ഭവേയ്യും	-11.3533
▁വിസുദ്ധിയാ	-11.3534
▁സുഖിനോ	-11.3537
▁മഹാവുത്തി	-11.3537
▁സമ്മപ്പധാനാ	-11.3539
▁ഏകപദ	-11.3541
▁ഗുഹ	-11.3542
▁സഘാനകാന	-11.3542
▁പിയരൂപാ	-11.3544
കസാവ	-11.3545
▁അവധാരണ	-11.3545
▁പച്ചേകബുദ്ധാ	-11.3547
▁ഖണോ	-11.355
▁ജട	-11.3553
▁സുഖദുക്ഖം	-11.3553
▁ഗഹേതബ്ബാനി	-11.3556
സമാസോ	-11.3557
മജ്ഝഗ	-11.3558
▁സഭിക്ഖുകാ	-11.3558
▁ആനിസംസാ	-11.356
▁സുകരം	-11.356
▁മാരേ	-11.356
പച്ചുപ്പന്നം	-11.3561
ലക്ഖ	-11.3561
സമുദാചാര	-11.3562
▁കായവിഞ്ഞത്തി	-11.3563
▁അമിത	-11.3564
▁പുണ്ഡരീക	-11.3567
▁അനാഗാമിസ്സ	-11.3568
▁പരിണത	-11.3569
▁അരിയസാവക	-11.357
ദസ്സി	-11.3572
▁ഹദയവത്ഥു	-11.3572
▁അനധി	-11.3574
▁നിരനുസയാ	-11.3574
▁നആസേവനപച്ചയാ	-11.3574
▁ഭേരവ	-11.3575
▁അഭിത്ഥവ	-11.3577
▁കരോസി	-11.3577
പ്പഹാനേന	-11.3577
നവിപാകധമ്മധമ്മ	-11.3578
▁അഹിരിക	-11.3578
്പയുത്തലോഭസഹഗത	-11.3579
സങ്ഘാത	-11.3579
▁മഹേസീ	-11.358
▁സന്ധായേത	-11.3581
▁നിവാരേ	-11.3582
▁ആയതനേഹി	-11.3582
▁സമുദാചരന്തി	-11.3582
▁സന്നദ്ധ	-11.3583
▁ജാനി	-11.3583
▁ദേസേയ്യ	-11.3586
▁ഭണേ	-11.3586
ഭത	-11.3588
▁പിടകത്തയ	-11.359
നക്ഖത്ത	-11.359
വലാഹക	-11.3591
▁പണ്ണാസ	-11.3591
ഭഗവതോ	-11.3591
▁ദമിള	-11.3592
▁നാമരൂപസ്സ	-11.3592
▁സുപിനം	-11.3593
▁തേമാസം	-11.3594
ചതൂഹി	-11.3595
▁തളാക	-11.3596
ചേതസോ	-11.3596
പച്ചുപട്ഠാനോ	-11.3596
▁രജ്ജേ	-11.3596
▁പച്ചവേക്ഖണഞാണ	-11.3597
▁അസക്കോന്ത	-11.3597
ുപ്പ	-11.3599
മുദ്ദിക	-11.3599
സ്സരാ	-11.3601
▁നിദ്ദിട്ഠം	-11.3601
▁പാദകജ്ഝാന	-11.3602
രൂപാനം	-11.3602
പ്പകാരം	-11.3604
▁ഭിന്നോ	-11.3606
മാനസം	-11.3607
സങ്ഖാതേഹി	-11.3609
സഞ്ഞി	-11.3609
▁അഭിഭൂതോ	-11.361
കമ്മാനി	-11.361
▁മാതര	-11.361
▁അകപ്പിയം	-11.361
▁പജാപതി	-11.3613
▁തഥാവിധ	-11.3614
വസ്സസഹസ്സാനി	-11.3616
▁അനിച്ചാനുപസ്സനാ	-11.3616
ാദിഭേദേ	-11.3617
അരഹത്ത	-11.3618
▁പാതുഭവതി	-11.3619
▁ചമ്മം	-11.3621
▁വിതക്കേ	-11.3622
▁ആകങ്ഖതി	-11.3623
ഭജ	-11.3624
▁വിചികിച്ഛാസഹഗതം	-11.3627
▁വിചരന്ത	-11.3628
▁വിരാജ	-11.3628
മേതന്തി	-11.3629
▁സബ്ബാനിപി	-11.363
ഫാണിത	-11.3631
ഇച്ചാദിനാ	-11.3632
▁ആസവേഹി	-11.3633
പുബ്ബഭാഗ	-11.3633
ിയോതി	-11.3634
▁ഗണ്ഹാതീതി	-11.3635
▁പരിഞ്ഞേയ്യ	-11.3635
▁ഏകത്തം	-11.3635
ജ്ജു	-11.3636
▁അഗാ	-11.3636
▁ചാതുമഹാരാജിക	-11.3636
▁സബ്ബലോകേ	-11.3637
▁വേദനാനം	-11.3638
▁അനാപത്തീ	-11.3639
▁അവിപാക	-11.364
▁വിജ്ജമാനേ	-11.364
തേജോ	-11.3641
▁അഗ്ഗസാവികാ	-11.3643
ാതിആദി	-11.3643
▁അബ്ഭാചിക്ഖ	-11.3644
▁സേസപദേസുപി	-11.3644
▁സത്തരതനസമ്പന്നോ	-11.3644
▁പരിപൂരകാരീ	-11.3645
▁ഹന്ദാഹം	-11.3646
▁ലഹും	-11.3646
ലോപേ	-11.3647
▁അരിയവംസ	-11.3647
പദട്ഠാനാ	-11.3649
▁ഏകദേസേന	-11.3649
▁ദുമ്മനോ	-11.3649
▁അഭിസേക	-11.365
മപി	-11.3651
യ്യോ	-11.3651
▁ഉപപന്നാ	-11.3652
▁ചതുസച്ചധമ്മ	-11.3652
ാഭരണ	-11.3652
▁അപാകട	-11.3653
▁അഭിസമ്ബുദ്ധ	-11.3656
▁നിമന്തന	-11.3658
പേതവത്ഥു	-11.3658
▁ഗാള്ഹ	-11.3659
▁പസിദ്ധ	-11.3661
യായ	-11.3661
▁പടിച്ഛ	-11.3663
▁സംവിജ്ജതി	-11.3663
▁അനാരമ്മണ	-11.3666
▁രാഹു	-11.3666
പുബ്ബങ്ഗമ	-11.3666
ഹേതൂതി	-11.3667
▁കുസലേഹി	-11.3667
യന്തം	-11.3667
▁പിസാച	-11.3669
▁പച്ചേസ്സ	-11.3669
▁അജ്ജതഗ്ഗേ	-11.3671
▁ആസേവന	-11.3673
▁മഹാകരുണാ	-11.3673
മനസികാരോ	-11.3674
▁പരിയോദാത	-11.3676
▁ഥോക	-11.3677
▁ആയതനാനം	-11.3677
▁ഗമിസ്സാമീ	-11.3677
▁സമന്തചക്ഖു	-11.3677
▁മയൂര	-11.3678
▁രംസി	-11.3683
നന്ദീ	-11.3684
പുബ്ബം	-11.3684
▁ഘംസ	-11.3684
▁നാവ	-11.3688
▁ലോകനാഥ	-11.3688
▁പയ	-11.3689
മദാസി	-11.369
അനാഗത	-11.369
പരായണോ	-11.3691
ഘരേ	-11.3697
▁മുഗ്ഗ	-11.3698
▁പടിനിസ്സഗ്ഗ	-11.3699
▁അനത്തമനോ	-11.3699
ഫലക	-11.3703
നകം	-11.3705
▁ബ്രഹ്മചാരീ	-11.3705
സമ്പത്ത	-11.3706
ട്ഠാനന്തി	-11.371
കതിചി	-11.371
▁ദോസേന	-11.3711
▁അത്ഥതകഥിന	-11.3713
▁അധിവാസന	-11.3713
▁ഗാരയ്ഹോ	-11.3713
▁കതിപയ	-11.3714
▁സിഖീ	-11.3714
▁ഉച്ഛിജ്ജ	-11.3714
▁പടിബലോ	-11.3715
ന്തസ്സാപി	-11.3715
▁പതിട്ഠാപേത്വാ	-11.3716
▁ധാരേതീതി	-11.3716
▁ജഹന്തി	-11.3717
▁കമ്മവാചാ	-11.3717
▁ഓസക്ക	-11.3722
▁ഇദ്ധിപാദം	-11.3722
▁തഞ്ഞേവ	-11.3722
▁കപിലവത്ഥു	-11.3722
▁ജേട്ഠോ	-11.3725
ാഭിമുഖം	-11.3726
▁അസന്തം	-11.3726
മച്ഛരിയ	-11.3727
▁വിഹാരാ	-11.3727
വിഭാവനാ	-11.3728
▁അബ്യാകതമൂല	-11.373
ഉപാസക	-11.373
ഭിക്ഖവോ	-11.3733
▁പതിട്ഠാസി	-11.3733
▁ജഹതീതി	-11.3734
▁അവസാനേ	-11.3734
▁പരിയാ	-11.3736
ാനിസംസാ	-11.3737
മഞ്ഞായ	-11.3737
▁അപ്പമഞ്ഞാ	-11.3738
▁കരോന്തേ	-11.3738
▁നന്ദിയ	-11.3738
▁ഉപായോ	-11.3738
▁വുത്തേന	-11.3739
പടിപത്തിയാ	-11.374
▁വിജമ്ഭ	-11.374
▁നാളികേര	-11.3743
▁ദൂതം	-11.3745
▁പകാസേതി	-11.3746
▁പകാസന	-11.3746
വതം	-11.3747
അയ	-11.3748
ഇട്ഠ	-11.3748
രത്തിം	-11.3749
▁൨൪൪	-11.375
▁ഇട്ഠക	-11.375
▁വിഞ്ഞാണക്ഖന്ധ	-11.375
▁കുസലവിപാക	-11.3752
▁അതിമാന	-11.3752
▁ചന്ദിമസൂരിയാ	-11.3754
▁അത്ഥങ്ഗത	-11.3754
▁പരമത്ഥോ	-11.3754
ധിഗത	-11.3754
▁പകാരേഹി	-11.3755
പടിഗ്ഗാഹക	-11.3756
ദായികാ	-11.3757
▁പസാദം	-11.3757
നാമകം	-11.3757
▁സീലാദിഗുണ	-11.3758
അനാ	-11.376
▁അപ്പമാദോ	-11.376
▁തന്	-11.3761
ദുക്ഖസ്സ	-11.3762
▁സഭാവേന	-11.3763
▁ചേതോപരിയഞാണസ്സ	-11.3765
▁സാഗരോ	-11.3766
▁സമ്ബന്ധിതബ്ബം	-11.3766
തേഹി	-11.3766
▁വിഞ്ഞാപന	-11.3768
▁സമേന	-11.3768
മാഗതം	-11.377
▁ആദീസു	-11.377
▁അകരോന്ത	-11.377
നാസിക	-11.3771
▁അസ്സുതവാ	-11.3772
▁ബ്യഞ്ജനേ	-11.3772
കത്തു	-11.3774
വയവ	-11.3775
▁ദാനാനി	-11.3775
മിഞ്ജ	-11.3776
▁അസേസ	-11.3776
▁സുസമാഹിത	-11.3779
▁സബ്ബദുക്ഖ	-11.378
▁രൂപസഞ്ഞാ	-11.378
▁ലിച്ഛവീ	-11.3783
▁സമ്പസ്സമാനോ	-11.3783
▁അട്ഠവിധ	-11.3783
▁ഉമ്മത്തികായ	-11.3783
▁മേസോ	-11.3784
▁ദിട്ഠിഗതവിപ	-11.3785
▁അരോഗ	-11.3786
▁ധാരേതബ്ബ	-11.3786
▁ആരോചിത	-11.3786
▁അനിച്ചാദി	-11.3787
▁ഗിര	-11.3787
▁ധമ്മരാജ	-11.3787
പരമം	-11.3789
▁ഠാനന്തി	-11.3789
ധാരാ	-11.379
▁വിധാന	-11.379
▁സദേവമനുസ്സായ	-11.3792
▁അനുപസ്സതി	-11.3792
ച്ഛാദ	-11.3793
ിയത്ഥേരഅപദാന	-11.3794
ഹിതം	-11.3794
▁പുരോഹിത	-11.3796
▁ധഞ്ഞം	-11.3797
▁ഹേമന്ത	-11.3798
▁മന്ദാ	-11.3799
▁സംഖിത്ത	-11.3801
പബ്ഭാര	-11.3802
ബാഹിര	-11.3802
വേകല്ല	-11.3802
തേതി	-11.3806
ഗുണേഹി	-11.3806
▁ഫലേന	-11.3806
ാഗന്ത്വാ	-11.3809
▁സമനുഭാസന	-11.3809
▁മേഘോ	-11.381
▁പരിഹരതി	-11.381
▁വിവേകജം	-11.381
▁വിഹത	-11.3811
പരിസ്സയ	-11.3811
ഛക്ക	-11.3812
▁അബ്ഭുതോ	-11.3813
▁ഭുഞ്ജന്തസ്സ	-11.3813
നമോ	-11.3814
▁ധമ്മാരമ്മണ	-11.3815
▁മന്തി	-11.3815
▁പജാനാതീതി	-11.3818
ജാതിയാ	-11.3819
▁ബ്യാപാര	-11.3819
▁ബാഹിരക	-11.3819
▁നിപകോ	-11.3822
ചേതിയം	-11.3824
ക്ഖണേയേവ	-11.3824
സട	-11.3825
നിബ്ബത്തക	-11.3825
▁൨൪൮	-11.3825
▁സിമ്ഹി	-11.3827
▁വത്ഥൂഹി	-11.3829
ങ്കോ	-11.383
വണ്ണനായം	-11.3832
▁ഠപേന്തോ	-11.3834
▁ഝാനേന	-11.3836
▁യസ്സായസ്മ	-11.3836
▁പരിപുണ്ണോ	-11.3836
പരേ	-11.3836
▁രാ	-11.3837
ഹുത	-11.3838
▁സംവണ്ണ	-11.3839
▁അസേക്ഖോ	-11.3839
▁സിര	-11.3841
യന്തീ	-11.3841
▁സന്ദിട്ഠികം	-11.3842
▁ഭയേന	-11.3843
▁ഥൂപം	-11.3843
ത്തസ്സ	-11.3844
▁മഹാഥേരോ	-11.3845
▁ദ്വീഹ	-11.3845
▁ജാനിതബ്ബ	-11.3845
ലാഭിനോ	-11.3846
േയ്യാഥാ	-11.3846
▁താള	-11.3846
ഇച്ഛ	-11.3847
▁സമ്മതാ	-11.3848
▁പരിസ്സയ	-11.3848
ട്ഠാനേയേവ	-11.3849
▁തത്തകം	-11.3849
ദണ്ഡോ	-11.3849
▁ഇത്ഥ	-11.3851
▁വാഹ	-11.3853
▁അഹഞ്ഹി	-11.3853
ിന്ദോ	-11.3853
▁അങ്കുര	-11.3855
▁കുദ്ധോ	-11.3855
▁വിവേകനിസ്സിതം	-11.3856
▁കുതോചി	-11.3856
ഭരണ	-11.3856
▁ഉമ്മാദ	-11.3857
▁ഉമ്മത്തക	-11.3857
▁ഇച്ചേതം	-11.3859
▁വുത്താനം	-11.3859
▁വസ്സസഹസ്സാനി	-11.3859
ഭൂതാനി	-11.386
▁വദന്തീതി	-11.3862
▁വന്ദി	-11.3864
ാതിആദിമാഹ	-11.3864
▁വചസാ	-11.3864
▁അപച്ചം	-11.3865
▁യേഭുയ്യ	-11.3866
വിദ്ധംസന	-11.3866
▁അമൂ	-11.3867
▁രാഗേന	-11.3868
മച്ഛര	-11.3868
സമ്ബന്ധോ	-11.3869
വീഥിയം	-11.3869
▁പിഹ	-11.3869
▁മതേ	-11.387
▁മേദ	-11.387
ഗതേന	-11.3871
ാദീസൂതി	-11.3872
▁ഠപന	-11.3873
▁അധിപ്പായം	-11.3874
▁ഭാഗം	-11.3874
▁ഓക്കമതി	-11.3875
▁പാണിനാ	-11.3877
▁അനേകസത	-11.3878
സമാധീ	-11.3878
പരിക്ഖേപ	-11.3878
▁പരിവാസ	-11.388
▁സീലാദി	-11.3882
▁ഓതരതി	-11.3882
സോളസ	-11.3886
▁അധമ്മം	-11.3886
▁യാപേതി	-11.3887
▁സാധൂ	-11.3887
▁പാപുണിത്വാ	-11.3891
ധൂമ	-11.3894
കിണ്ണം	-11.3895
▁സഹായോ	-11.3895
ഇമാനി	-11.3897
▁പുരക്ഖതോ	-11.3897
▁പസംസാ	-11.39
▁സതിവിനയ	-11.3901
▁സുമനാ	-11.3902
അമ്ഭോ	-11.3903
▁പസ്സതാ	-11.3904
ട്ഠിതോ	-11.3905
▁ഏകാദസമം	-11.3905
▁രുഹതി	-11.3908
▁സേനക	-11.3908
▁സീലഞ്ച	-11.391
▁കരോമ	-11.391
▁ഭണ്ഡാഗാരിക	-11.391
▁ഗിമ്ഹ	-11.3911
▁പലാസ	-11.3911
▁സക്കാതി	-11.3913
▁പാപാനി	-11.3914
മാനാതി	-11.3915
ഇദ	-11.3916
▁ഗതീ	-11.3916
▁ഠിതോതി	-11.3916
▁പതന്തി	-11.3917
▁൨൬൫	-11.3918
പരിവുത	-11.3918
നാകാരോ	-11.3918
▁അഗ്ഗട്ഠാന	-11.3918
ാദിഗുണ	-11.3919
▁നിപജ്ജി	-11.3921
▁ജച്ചന്ധ	-11.3924
▁നവിപാകപച്ചയാ	-11.3924
▁തതുത്തരി	-11.3924
ഗ്ഗേന	-11.3925
▁വിസ്സുതോ	-11.3925
കുടിക	-11.3926
▁ധി	-11.3926
▁ഉപപത്തിക്ഖണേ	-11.3927
മഞ്ജ	-11.3927
▁ദണ്ഡോ	-11.3928
▁അനിദസ്സനോ	-11.3929
▁ജാതോതി	-11.3929
സമ്പയോഗ	-11.393
ചരിതോ	-11.3931
ദിട്ഠിയാ	-11.3932
▁അനോത്തപ്പ	-11.3934
▁നോചിത്തസംസട്ഠ	-11.3935
▁സുവിഭത്ത	-11.3936
▁സമൂഹോ	-11.3939
▁അമ്ഹ	-11.3939
▁൨൬൩	-11.394
▁വീരോ	-11.3943
▁നീവരണവിപ്പയുത്ത	-11.3943
ബിമ്ബ	-11.3943
▁ആരോപ	-11.3944
▁ഖേത്തേ	-11.3944
▁പരിഹായ	-11.3944
അഭിക്കന്തം	-11.3945
▁ഏദിസോ	-11.3945
▁വേലായം	-11.3947
▁സന്ഥരിത്വാ	-11.3947
വിഭൂസിത	-11.3948
▁പടിസല്ലാനാ	-11.3948
൨൨	-11.3951
▁അപക്കമ	-11.3952
പച്ഛിമ	-11.3952
▁ഭിക്ഖുസങ്ഘ	-11.3953
▁നരാസഭോ	-11.3953
▁പച്ചയഭൂത	-11.3953
പയോഗോ	-11.3953
സമ്പദ	-11.3955
▁ഛക്ക	-11.3957
കോസല്ല	-11.3957
▁വുത്തപ്പകാരേന	-11.3957
▁അന്നം	-11.3959
സദിസാനി	-11.396
▁മഹായസ	-11.3963
ദിസായ	-11.3963
▁മേഘിയ	-11.3964
▁സാതിസയ	-11.3964
▁പനേതേ	-11.3964
▁വവത്ഥിത	-11.3965
▁പീഠം	-11.3967
▁മച്ഛോ	-11.3968
▁ആരാമിക	-11.3968
▁൨൪൬	-11.3971
മസ്സാതി	-11.3972
▁ദീപങ്കര	-11.3973
േതബ്ബന്തി	-11.3973
▁ചലന	-11.3974
വതാ	-11.3974
ചക്കവാള	-11.3976
▁നിരനുസയോതി	-11.3977
▁കഥിനേ	-11.3978
▁നിച്ഛയ	-11.3978
ാദായ	-11.3979
▁അന്വാ	-11.398
▁അപ്പിച്ഛ	-11.398
വിരഹിതാ	-11.398
▁൨൪൫	-11.3982
▁ആരോപിത	-11.3982
▁കാണ	-11.3984
▁അസമ്ഭവതോ	-11.3984
▁സേഖിയ	-11.3984
ാനഞ്ചേവ	-11.3985
കമ്പ	-11.3986
▁വിഹിംസ	-11.3988
▁ഉപചിത	-11.3988
▁വാദിത	-11.3988
▁ആമന്ത	-11.3989
▁ചേസ	-11.3989
ഭാണീ	-11.399
സേനാസനം	-11.399
ിച്ഛാ	-11.399
▁പഥവീകസിണം	-11.3991
▁സോവണ്ണ	-11.3993
▁വിസേസാധിഗമ	-11.3993
പതിരൂപക	-11.3993
▁ബഹുതരം	-11.3993
▁സമാദപേ	-11.3995
ധമ	-11.3995
▁ഗാഥാദ്വയമാഹ	-11.3995
▁ചേതനാപണിധീഹി	-11.3995
▁തിവേദനന്തി	-11.3996
▁നേസോഹമസ്മി	-11.3996
▁ദുക്ഖസ്സന്തകരോ	-11.3997
▁നിലീയ	-11.3997
▁സാതരൂപം	-11.3997
▁ഭുഞ്ജിതബ്ബം	-11.3998
▁ഫുസന	-11.3998
▁കതമേസം	-11.3998
രുക്ഖേ	-11.3999
മേയ്യ	-11.3999
▁സോതാപന്നാ	-11.4
ിമ്ഹി	-11.4
▁സഞ്ജാനന	-11.4
വിതക്കവിചാരമത്താ	-11.4
▁മാതികം	-11.4001
▁മുദിത	-11.4002
▁ഗോതമീ	-11.4002
▁തിട്ഠതു	-11.4004
▁ഭഗവന്തോ	-11.4004
വാരി	-11.4005
▁സുഖോ	-11.4006
ാധീന	-11.4006
ഇച്ചായസ്മാ	-11.4008
▁ഇച്ഛാമി	-11.4009
ഭവന	-11.4009
▁അനഞ്ഞഥാ	-11.4009
▁മാതുയാ	-11.401
ാപേക്ഖ	-11.4011
▁കദലി	-11.4012
▁ഠാനസോ	-11.4014
▁പടിച്ഛന്നാ	-11.4015
▁സഭിക്ഖുകോ	-11.4015
അജ്ഝത്ത	-11.4016
▁സുഞ്ഞാ	-11.4016
▁ഫരതി	-11.4018
ചൂള	-11.4018
ഹരണം	-11.4018
സാമത്ഥിയ	-11.4019
ഉപ്പാദ	-11.4019
തോവ	-11.402
▁ഇച്ഛായ	-11.4021
▁പാപസ്സ	-11.4021
ദീപനത്ഥം	-11.4022
▁ആരോഗ്യ	-11.4023
▁ഗാമാ	-11.4024
▁രത്തിന്ദിവ	-11.4024
സത്തമ	-11.4025
▁തുമ്ഹാക	-11.4025
പതന	-11.4029
▁വാചസിക	-11.403
ജനാ	-11.4031
അന്ത	-11.4032
▁മാരണ	-11.4033
▁അപ്പിച്ഛാ	-11.4033
▁പഹിണ	-11.4035
▁അചരി	-11.4036
ക്ഖന്ധം	-11.4036
▁ഝായതി	-11.4037
▁ഉബ്ഭ	-11.4038
▁കോസ	-11.4039
▁നീവരണേ	-11.4039
കഥിന	-11.4039
▁അനുമോദന	-11.4044
ാവഹാര	-11.4045
▁സന്തോസ	-11.4045
▁പീതിസഹഗത	-11.4046
പരിസങ്കിത	-11.4046
▁പരിഭവ	-11.4047
▁ജീവക	-11.4047
സമ്ഭവാ	-11.4048
▁ദുപ്	-11.4049
▁അഗ്ഗഹിത	-11.4049
▁ദുബ്ഭാസിത	-11.405
▁അപ്പിയോ	-11.4051
ഹാനി	-11.4051
▁അനുപ്പന്നാനം	-11.4054
▁അരക്ഖിത	-11.4055
▁വളഞ്ജ	-11.4055
▁അപണ്ണക	-11.4055
▁അരിയമഗ്ഗേന	-11.4059
യഞ്ഹി	-11.4061
▁വട്ടദുക്ഖ	-11.4062
▁നിദ്ദ	-11.4063
▁സുഖാവഹ	-11.4063
▁ഫോട്ഠബ്ബേ	-11.4066
▁കോധനോ	-11.4067
▁യാവതായുകം	-11.4067
▁ബ്രാഹ്മണമഹാസാല	-11.4067
▁അഞ്ഞാതാവീ	-11.4067
▁അനാഗതംസഞാണസ്സ	-11.4068
കതേ	-11.4068
▁തബ്ഭാവ	-11.4068
▁നിദ്ധാരേത്വാ	-11.4069
സമ്മതം	-11.407
▁പസ്സസിസ്സാമീ	-11.407
▁സലക്ഖണ	-11.407
▁സമോധാനേത്വാ	-11.4072
▁നിസ്സട്ഠ	-11.4072
▁വസനട്ഠാന	-11.4073
ജരാ	-11.4073
പ്യത്ര	-11.4074
▁പഞ്ചഹാകാരേഹി	-11.4075
▁ദ്വിപദ	-11.4075
▁അനുസന്ധിം	-11.4076
▁ഭാജനം	-11.4076
▁സാത്ഥികാ	-11.4076
▁മോഘപുരിസ	-11.4077
▁മച്ഛേര	-11.4078
▁അപ്പമാണാ	-11.4079
▁സാരിപുത്തം	-11.4082
പരാജിത	-11.4082
▁മദ്ദിത്വാ	-11.4083
▁പവരോ	-11.4084
▁ആളവക	-11.4085
ഉപേക്ഖാ	-11.4085
▁ഗവേസന്തോ	-11.4085
▁ഹിമ	-11.4086
ഫരുസ	-11.4087
▁ദുപ്പഞ്ഞ	-11.409
▁താവതാ	-11.409
ണേയ്യ	-11.4092
പരിയന്തം	-11.4093
ഭിക്ഖവേ	-11.4093
▁അപരിയാപന്ന	-11.4094
ചതുര	-11.4094
▁മഹബ്ബലാ	-11.4095
▁കാമഗുണേസു	-11.4095
▁ഉപസംഹരതി	-11.4096
▁അധമ്മകമ്മ	-11.4097
▁൨൫൬	-11.4097
▁വിനട്ഠ	-11.4097
ഭേരി	-11.4099
▁പരിത്താരമ്മണം	-11.4099
ഭാജനീയ	-11.4101
ദസ്സിത	-11.4101
▁സൂച	-11.4102
▁ഉപ്പജ്ജനതോ	-11.4103
ദായകം	-11.4105
▁കമല	-11.4105
കിഞ്ച	-11.4109
▁നിദ്ദം	-11.4111
ാനാഗത	-11.4112
▁കായസങ്ഖാര	-11.4112
പൂജം	-11.4114
▁സുത്തപദ	-11.4114
▁സുഖസഹഗതാ	-11.4115
▁തഥൂപമ	-11.4115
▁തേനാവുസോ	-11.4115
▁ഗണ്ഠി	-11.4115
▁അദോസ	-11.4115
▁സാമത്ഥിയ	-11.4117
ഭൂമക	-11.4118
▁ബഹൂസു	-11.4119
ബോധിസത്ത	-11.412
കഹം	-11.412
▁ആയാച	-11.412
▁ജേതവന	-11.4121
പിതു	-11.4121
▁അസങ്ഗഹിത	-11.4121
കരണത്ഥം	-11.4122
▁രഥോ	-11.4122
▁പക്കന്ത	-11.4123
▁സവിചാരം	-11.4123
സരാ	-11.4124
▁ഓതര	-11.4128
▁ഗണഭോജന	-11.4128
▁സല്ലക്ഖേ	-11.413
സ്മീ	-11.413
ബാല	-11.4131
▁കുഹക	-11.4131
നവുതി	-11.4133
▁പോ	-11.4134
▁അഭിവാദന	-11.4134
▁മാസാ	-11.4135
▁തയോപി	-11.4135
▁ആദികമ്മിക	-11.4137
▁പസ	-11.414
▁കായചിത്ത	-11.414
▁വികാലഭോജന	-11.4141
▁സമാനസംവാസക	-11.4142
▁അനുഗ്ഗണ്ഹ	-11.4142
▁ബുദ്ധാനുസ്സതി	-11.4143
▁ദുമ്മേധ	-11.4143
▁കിഞ്ചന	-11.4144
▁ഭദ്ദന്തേ	-11.4144
തിസ്സത്ഥേരോ	-11.4145
▁ആഗമിസ്സതി	-11.4146
▁ഓസാരണ	-11.4147
▁നിച്ഛര	-11.4148
സക്കാര	-11.4149
കാരിനോ	-11.4151
▁വിഞ്ഞായതീതി	-11.4151
ഭാവേപി	-11.4152
▁കേനചിദേവ	-11.4152
▁അന്തരധാന	-11.4153
വരേ	-11.4154
ക്ഖന്ധേ	-11.4154
▁സപ്പടിഘം	-11.4155
ാഭിഭൂ	-11.4155
പിട്ഠ	-11.4155
▁മഹഗ്ഗതാ	-11.4156
▁യഥാസകം	-11.4156
▁സിജ്ഝതി	-11.4156
കുക്കുച്ച	-11.4157
ദഹന	-11.4158
▁സവിതക്ക	-11.4158
▁സലാക	-11.4159
▁അനിദസ്സനം	-11.4159
ഭൂതപുബ്ബം	-11.416
▁പുച്ഛാമ	-11.4161
▁ചത്താരോപി	-11.4161
ത്ഥാനം	-11.4161
▁സാവസേസ	-11.4161
▁ദാരകോ	-11.4162
▁വിസത്തികാ	-11.4163
ാവജ്ജന	-11.4163
▁നഹേതുപച്ചയോ	-11.4163
▁വികപ്പന	-11.4164
▁ഭവിതബ്ബന്തി	-11.4164
▁ആപായിക	-11.4164
▁൨൬൪	-11.4165
ാദീനീതി	-11.4167
ിമ്ഹാ	-11.4169
ച്ചാ	-11.417
▁ബ്യാകരണ	-11.417
▁ജരാമരണസ്സ	-11.4171
▁വോട്ഠബ്ബന	-11.4173
പദേസേ	-11.4173
ുപ്പന്നം	-11.4174
ഞാണാനി	-11.4177
▁തഹം	-11.4178
▁പരിവാരേ	-11.418
▁ധേനു	-11.4181
ഇച്ചേവമാദീ	-11.4182
▁ഉദപാദീതി	-11.4183
▁സന്നിപതന്തി	-11.4184
▁ആയൂ	-11.4185
പുഗ്ഗലസ്സ	-11.4186
വിചികിച്ഛാ	-11.4188
വിഭാഗേന	-11.4189
മച്ചു	-11.4191
▁വാല	-11.4191
പരിപൂരണ	-11.4193
കുസലസ്സ	-11.4194
ഭതോ	-11.4196
വ്ഹ	-11.4196
▁രജനീയാ	-11.42
▁വസ്സിക	-11.42
▁സബ്ബസ്മിം	-11.4201
▁വിഹ	-11.4201
കോസല്ലം	-11.4203
▁സുണന്ത	-11.4204
▁ദണ്ഡി	-11.4207
▁അങ്ഗീരസ	-11.4208
നിജ്ഝാന	-11.4209
▁ഓവദതി	-11.4209
▁സംവേജ	-11.4209
നാഥ	-11.421
▁൨൬൯	-11.421
▁മരണധമ്മ	-11.4211
ഫലാനി	-11.4212
▁അഗ്ഗമക്ഖായതി	-11.4213
▁പരിദീപിത	-11.4213
▁പവാരേതബ്ബം	-11.4213
▁അനാവാസോ	-11.4214
അനാഥപിണ്ഡിക	-11.4214
സദിസതാ	-11.4214
▁ഫരുസാ	-11.4216
പാളിയാ	-11.4216
▁വിജ	-11.4216
▁പമുഞ്ച	-11.4217
▁ദേവമനുസ്സ	-11.4217
സഹായോ	-11.4218
▁പരിമജ്ജ	-11.4219
നിഗ്ഘോസ	-11.4219
▁സലാകഭത്ത	-11.4219
▁ജനാനം	-11.4221
▁അല്ലീയ	-11.4221
▁൨൮൦	-11.4221
▁നിസ്സിത	-11.4222
▁ഗഹിതാനി	-11.4222
▁മിച്ഛത്ത	-11.4224
▁വുത്തേഹി	-11.4225
▁ഏകാഹപ്പടിച്ഛന്ന	-11.4226
▁നിയമേത്വാ	-11.4226
▁വിഞ്ഞൂഹി	-11.4228
സ്സന്തീ	-11.4228
▁അധിട്ഠാതി	-11.423
▁അപായേസു	-11.4231
▁വഞ്ചന	-11.4232
ഗോചരം	-11.4233
ാപേന്തസ്സ	-11.4234
▁ദുക്ഖസമുദയ	-11.4234
ഹതാ	-11.4235
യമാനം	-11.4236
▁ദേവേഹി	-11.4237
▁സാരമ്മണോ	-11.4239
വഹ	-11.424
▁൨൬൭	-11.4242
▁നിബ്ബായ	-11.4244
▁അനാഗാമി	-11.4246
▁രാഗാദയോ	-11.4249
▁അസ്സാദഞ്ച	-11.4249
▁പടിപജ്ജി	-11.4249
സമ്ഫസ്സോ	-11.4251
▁സമന്നാഗത	-11.4251
വണിജ്ജ	-11.4251
▁അസ്സദ്ധ	-11.4251
▁പുമാ	-11.4251
ഗോചരേ	-11.4251
ഭം	-11.4254
▁കാരയ	-11.4255
▁തണ്ഹാപച്ചയാ	-11.4256
▁ദുതിയദിവസേ	-11.4256
▁ഉപട്ഠാപേ	-11.4257
ഗയ്ഹ	-11.4259
ഹാകാരേഹി	-11.4259
▁ഏകാദസഹി	-11.4259
▁സുകതം	-11.426
൩൦	-11.426
പുഗ്ഗലം	-11.4262
▁താണ	-11.4262
▁വിജ്ജു	-11.4263
▁പാരമിം	-11.4263
സസ്സതോ	-11.4263
ദുക്ഖാ	-11.4264
▁നേക്ഖമ്മം	-11.4265
▁ഗണ്ഹഥ	-11.4267
സരീരം	-11.4268
൫൦	-11.4269
▁പിസുണ	-11.4269
ാതിക്കമേ	-11.4269
▁൨൫൮	-11.4273
▁പൂരേന്ത	-11.4274
ുജ്ജന	-11.4276
▁വചീദുച്ചരിത	-11.4276
▁വിസ്സ	-11.428
▁പഞ്ഞാബലം	-11.4286
▁ധതരട്ഠ	-11.4286
▁അഭാസഥ	-11.4286
▁വചനമബ്രവി	-11.4287
▁സണികം	-11.4287
താവസേന	-11.4288
പരേത	-11.4288
▁ബ്രൂ	-11.429
▁സചിത്തകം	-11.4293
▁വണ്ണിത	-11.4293
▁മാനേ	-11.4293
▁ദസമോ	-11.4293
▁കഥയ	-11.4293
▁വുത്തമേവത്ഥം	-11.4293
▁അഭിനിവേസോ	-11.4294
▁ഏതദഗ്ഗേ	-11.4295
▁പുരിമാനി	-11.4295
▁ഉത്തരോ	-11.4295
ീയിത്ഥാതി	-11.4295
സഹിതം	-11.4297
▁സതാ	-11.4298
രിത	-11.4299
പപഞ്ച	-11.43
▁സാമഞ്ഞം	-11.43
▁ദസധാ	-11.4302
▁സൂദ	-11.4303
▁പവിസന്തി	-11.4304
▁ചിന്തിത	-11.4305
▁നിബ്ബത്തിത	-11.4305
ൂനി	-11.4306
▁സദ്ദേന	-11.4306
ാദീനിപി	-11.4306
സമ്ഭൂത	-11.4307
പസ്സേ	-11.4309
▁മഹാഭോഗ	-11.4311
▁ചാര	-11.4312
മേവേതം	-11.4313
▁വോദാനസ്സ	-11.4313
▁പുഥ	-11.4313
▁പുരേജാത	-11.4314
▁വസ്സസഹസ്സ	-11.4314
▁തേവിജ്ജ	-11.4315
സിനാ	-11.4316
▁ധംസ	-11.4316
സേവിത	-11.4316
കാരകാ	-11.4317
▁സമ്ഭവതോ	-11.4318
സമുജ്ജല	-11.4319
▁ഓപപാതിക	-11.432
▁പടിഞ്ഞായ	-11.4321
൨൩	-11.4322
▁വിപസ്സി	-11.4323
ഖി	-11.4325
▁തതിയജ്ഝാന	-11.4326
പവിട്ഠ	-11.4327
ആരാമ	-11.4327
പച്ചനീക	-11.4328
▁വമ	-11.4328
▁ജനതാ	-11.433
▁ആചിണ്ണ	-11.4331
ദസകം	-11.4333
▁ആഗതാനി	-11.4334
▁൨൬൬	-11.4335
▁൨൪൭	-11.4335
▁സദ്ധമ്മസ്സ	-11.4337
ന്ദ്രിയ	-11.4337
▁കടുക	-11.4338
൨൧	-11.4339
നുഗ	-11.4339
ുഭ	-11.434
പഞ്ചിമാനി	-11.434
▁ദഹരാ	-11.4341
▁സക്ഖര	-11.4341
▁വിഭത്തം	-11.4343
▁തചോ	-11.4345
ജ്ജാ	-11.4346
അഡ്	-11.4347
വസേനാപി	-11.4347
നികായട്ഠകഥായ	-11.4347
▁സിസ്സാ	-11.4348
ാരഹാ	-11.4352
സരീരോ	-11.4353
▁നിദ്ധാരിത	-11.4353
▁നിയമോ	-11.4353
▁സഭാ	-11.4354
▁ദേവരാജ	-11.4354
▁അവിജ്ജാസവോ	-11.4355
▁ബന്ധതി	-11.4355
▁അധിവാസേ	-11.4355
▁രട്ഠാ	-11.4356
▁സിത	-11.4356
ധേയ്യ	-11.4358
▁പരിവിതക്കോ	-11.4359
▁ചവതി	-11.4359
▁കബള	-11.4359
▁സാരോ	-11.436
▁ഭിക്ഖുനുപസ്സയ	-11.436
▁സായന്ഹസമയം	-11.436
▁ഉമ്മുജ്ജ	-11.4361
▁മഹബ്ഭയ	-11.4361
▁നാനുസേതീതി	-11.4361
▁ജരം	-11.4361
മാരബ്ഭ	-11.4362
▁അനനുഞ്ഞാത	-11.4362
▁അരിയകന്ത	-11.4362
▁ഫണ	-11.4363
▁മങ്കു	-11.4364
ലട്ഠി	-11.4365
▁൨൬൨	-11.4367
▁സോധേത്വാ	-11.4368
▁വദന്തസ്സ	-11.4371
സുമന	-11.4372
▁ഭഗ	-11.4375
▁അരിയമഗ്ഗം	-11.4377
▁മദ്ദീ	-11.4377
▁വാദേ	-11.4378
▁സമുച്ചയ	-11.4379
ടം	-11.438
▁സമ്മുഖീഭാവ	-11.4381
▁ആരക്ഖം	-11.4383
▁സംവരായ	-11.4384
▁രൂപേസു	-11.4385
▁കാമസുഖ	-11.4385
▁പണ്ഡിതാനം	-11.4386
▁അരഹത്താ	-11.4386
▁അമൂള്ഹവിനയ	-11.4387
▁തസ്സേവം	-11.4389
▁നിഗ്ഗത	-11.4391
പുപ്ഫാനി	-11.4392
▁അരിയേന	-11.4394
▁സാമീചി	-11.4394
▁കുട്ട	-11.4394
▁സബ്ബധമ്മ	-11.4395
▁രക്ഖണ	-11.4396
▁ഉപലബ്ഭ	-11.4397
▁ഓവാദോ	-11.4398
▁തേപിടക	-11.4398
സങ്ഖാരാ	-11.4399
▁ഗന്ഥനിയ	-11.4399
▁നിവാരണ	-11.4399
▁ഭാവിതം	-11.4403
▁സമാഹിതേ	-11.4404
▁ആകിണ്ണ	-11.4405
▁പണ്ഡ	-11.4406
▁ജനേതീതി	-11.4408
ദോസം	-11.4408
▁വിപ്പകത	-11.4408
▁നമേ	-11.4409
ദസ്സനത്ഥ	-11.4411
▁സീഹള	-11.4411
ായതനാനി	-11.4412
▁ആനാപാന	-11.4413
▁കമ്പതി	-11.4415
▁പഞ്ഹസ്സ	-11.4415
▁കുസലകമ്മ	-11.4416
പീഠം	-11.4416
മാഗതോ	-11.4418
▁നുപ്പജ്ജിത്ഥാതി	-11.4419
മൂ	-11.4419
▁ഏവമയം	-11.442
▁കാമഭവേ	-11.4422
ഗമേ	-11.4423
പദേസോ	-11.4425
പരിഗ്ഗഹിത	-11.4425
സദ്ധോ	-11.4427
▁പണീതാ	-11.4428
▁വിതക്കഞ്ച	-11.4428
▁ആയുപ്പമാണം	-11.4428
▁൨൫൩	-11.4429
ാതിക്കന്ത	-11.4429
പാടിഹാരിയ	-11.4431
ആസവ	-11.4431
▁ഇദ്ധീ	-11.4433
▁ഝാനാനം	-11.4433
▁സമിഞ്ജിത	-11.4434
▁സണ്ഠപ	-11.4434
▁അബ്യാബജ്ഝ	-11.4435
▁വിലുമ്പ	-11.4435
ൂപസംഹിത	-11.4435
▁ബഹവോ	-11.4436
▁സഞ്ഞത	-11.4436
▁കാസിരാജ	-11.4436
▁അലഭമാന	-11.4436
▁സല്ലക്ഖ	-11.4436
▁അനാഥപിണ്ഡികോ	-11.4437
▁വിനിച്ഛിന	-11.4437
▁പുരക്ഖത്വാ	-11.4437
▁അത്ഥുദ്ധാര	-11.4438
▁സുരാപാന	-11.4439
▁പരിസ്സയാ	-11.444
▁അധമ്മകമ്മേ	-11.4441
▁ദസ്സയ	-11.4442
▁അഭാവം	-11.4442
ായസ്മതോ	-11.4442
രജന	-11.4442
▁സമാനത്ഥ	-11.4443
▁അങ്ഗപച്ചങ്ഗ	-11.4443
▁മോചേത്വാ	-11.4444
▁രട്ഠപാല	-11.4444
▁ലോമം	-11.4444
▁പച്ചവേക്ഖ	-11.4446
സംയുത്തവണ്ണനാ	-11.4448
▁വയം	-11.4449
ജു	-11.445
▁ചക്ഖുസ്സ	-11.445
▁വുത്തത്ഥമേവ	-11.4451
▁അസമ്മിസ്സ	-11.4453
ദയ	-11.4453
▁സാരമ്ഭം	-11.4454
▁സുസ്സൂസ	-11.4455
▁ഛദ്ദന്ത	-11.4457
▁ചരിത	-11.4459
ഗേഹേ	-11.4459
ഫുല്ല	-11.4461
▁പടിഗ്ഗഹോ	-11.4462
▁ദമേ	-11.4462
പീളന	-11.4463
പിലോതിക	-11.4464
മരിയ	-11.4465
▁ചിത്താ	-11.4465
▁ഭാരദ്വാജ	-11.4466
പക്ഖന്ദ	-11.4468
▁പദേസു	-11.4469
സുഖേന	-11.447
സമ്ബാധ	-11.4471
▁ഗമിസ്സന്തി	-11.4471
സാരിപുത്ത	-11.4473
ാലുക	-11.4474
▁വണ്ണതോ	-11.4475
അന്തോ	-11.4475
പരിഭോഗോ	-11.4476
▁സസങ്ഖാര	-11.4476
▁സോതാപന്നസ്സ	-11.4478
▁വിഞ്ഞാതം	-11.4478
▁ബഹൂപകാര	-11.4479
▁പടിഹഞ്ഞ	-11.4479
ുഗ്ഗത	-11.4482
▁൨൪൯	-11.4482
▁സുഖസഹഗതോ	-11.4482
▁കീളന്തി	-11.4483
ദൂസക	-11.4483
▁ഞാതകേ	-11.4483
യാപി	-11.4484
കായേ	-11.4485
▁വരേ	-11.4485
പലാസ	-11.4487
▁ബ്രഹ്മാനം	-11.4487
ച്ഛിദ്ദ	-11.4488
അമ്മ	-11.4489
▁ധമ്മവിനയ	-11.4489
▁പുച്ഛേയ്യ	-11.449
▁ഹരതി	-11.4491
സമ്പി	-11.4491
▁ഗിലാനപച്ചയ	-11.4492
▁പടിബദ്ധ	-11.4492
അമ്ബ	-11.4493
▁അമ്ഭോ	-11.4495
▁സുതാ	-11.4498
വധ	-11.4498
▁൨൫൧	-11.4499
▁ദീപിതോ	-11.4499
▁മോഹഞ്ച	-11.45
പച്ചയം	-11.45
▁ബാരാണസിം	-11.4503
കായേന	-11.4508
ച്ഛദ	-11.4508
▁ഭാവിത്ഥ	-11.4508
സ്വാക്ഖാത	-11.4509
▁വുച്ചന്തേ	-11.451
▁അവിപരിണാമധമ്മ	-11.451
▁പോരിസാദ	-11.451
▁ഉപ്പാദേതബ്ബ	-11.4511
▁നിബ്ഭയ	-11.4511
▁മിത്താമച്ച	-11.4511
▁അപരിസേസ	-11.4512
▁കല്യാണമിത്തതാ	-11.4512
▁ഗണേ	-11.4512
▁ദായാദോ	-11.4512
▁താവതിംസാ	-11.4514
▁കോസമ്ബിയം	-11.4515
▁സണ്ഠഹ	-11.4515
സങ്ഖ്യാ	-11.4515
▁വചീവിഞ്ഞത്തി	-11.4516
▁അധിചിത്ത	-11.4517
▁സക്കത്വാ	-11.4517
▁തദപി	-11.4518
▁സതസഹസ്സം	-11.4519
▁ഉദപാന	-11.452
ഗീവ	-11.4521
▁ബലി	-11.4523
▁ബന്ധനേ	-11.4523
▁പല്ലങ്കേന	-11.4524
▁പജ്ജല	-11.4524
വത്തബ്ബേ	-11.4524
▁ചരിമ	-11.4525
പരമത്ഥ	-11.4525
▁പുത്തേഹി	-11.4526
▁ബ്രഹ്മഞ്ഞ	-11.4526
▁ഛിജ്ജ	-11.4526
നാമാ	-11.4528
▁അനുമോദിത്വാ	-11.4531
ങ്ഗാര	-11.4533
▁ധമ്മപദ	-11.4533
▁ഇച്ഛസി	-11.4534
ന്ധര	-11.4534
ധോത	-11.4535
▁ഭണേയ്യ	-11.4535
▁ഗച്ഛഥ	-11.4536
▁ലേഡ്ഡു	-11.4537
ദ്ദസ	-11.4538
ട്ഠാനിയ	-11.4538
ാനമേതം	-11.4538
▁൨൫൯	-11.4539
▁സച്ഛികതം	-11.4539
▁പുബ്ബസ്സ	-11.454
സിക്ഖാപദഞ്ച	-11.454
▁വിരോധ	-11.4545
▁സുസാന	-11.4546
▁ഹാനി	-11.4546
സന്ഥര	-11.4548
ാരോചന	-11.4548
ബഹുവചന	-11.4548
▁രട്ഠവ	-11.4549
▁ഭാസിതമ്പേതം	-11.455
▁അങ്ഗണ	-11.4552
▁സമ്മത	-11.4553
ാദീഹീതി	-11.4553
▁ജാതിജര	-11.4553
ാദികഥാ	-11.4554
▁ഖീണാസവാനം	-11.4554
പ്പടിപത്തി	-11.4558
▁മഹാകസ്സപത്ഥേര	-11.4559
▁൨൫൭	-11.456
▁മഹാഭൂത	-11.4562
▁ണി	-11.4562
▁മനുസ്സലോക	-11.4563
▁അന്തരധായതി	-11.4564
▁സമ്മത്തനിയത	-11.4564
▁സുപുപ്ഫിത	-11.4565
ങ്ഗപഞ്ഹോ	-11.4565
ഭിസി	-11.4566
ഭാണി	-11.4567
▁ദേമാ	-11.4568
▁സുവിമുത്ത	-11.4568
▁നിസ്സട	-11.4569
രൂപീ	-11.457
▁കോടിസതസഹസ്സ	-11.457
▁പഹാതബ്ബഹേതുകഞ്ച	-11.457
ത്ഥീതി	-11.4573
▁പണ്ഡിതം	-11.4574
▁കിലമതി	-11.4575
▁ധമ്മകമ്മേ	-11.4575
പ്പടിസംവേദീ	-11.4577
▁പതിസ്സ	-11.4578
▁ജഹാതി	-11.4579
▁വീരിയബലം	-11.4582
▁ഏവമേത	-11.4582
▁സപ്പടിഭയ	-11.4586
▁ചിത്തസഹഭൂ	-11.4586
▁അഗിലാനസ്സ	-11.4587
▁അപരന്ത	-11.4588
ഭോഗോ	-11.4588
▁സദ്ധാദേയ്യ	-11.4588
▁സംവിഗ്ഗ	-11.459
▁സഗാരവോ	-11.4592
പരാ	-11.4592
▁പവേധ	-11.4593
▁ഇജ്ഝതി	-11.4594
▁ആണാപേതി	-11.4596
▁ഭന്ത	-11.4597
▁൨൭൩	-11.4598
-‘	-11.4599
കന്ദ	-11.4599
സംവേഗ	-11.4599
▁പവസ്സ	-11.4599
▁ഭഗ്ഗവ	-11.4599
വിദ്ധ	-11.4602
ഭോജനേ	-11.4602
▁പവത്തമാനം	-11.4603
▁ദസ്സേന്തി	-11.4604
പകത	-11.4604
▁ആപജ്ജിതബ്ബ	-11.4604
സംവത്തനിക	-11.4605
▁സുവണ്ണം	-11.4605
▁ലമ്ബ	-11.4605
വിപസ്സന	-11.4605
▁കഥേതബ്ബം	-11.4605
▁പവേസന	-11.4606
കിച്ചാ	-11.4606
▁സാമഞ്ഞഫലാനി	-11.4608
പാതോ	-11.4609
[...]
