<unk>	0
<s>	0
</s>	0
,	-3.12857
။	-3.61523
ံ	-4.04999
.	-4.17396
▁‘‘	-4.20589
တိ	-4.21878
’’	-4.45018
▁	-4.50909
ာ	-4.54874
▁န	-4.55073
▁စ	-4.58468
ော	-4.707
၊	-4.96158
ေ	-4.98008
▁ဝာ	-4.98174
သ္သ	-4.98717
န္တိ	-5.09041
▁–	-5.19865
ေန	-5.36304
▁ပန	-5.48608
တိ။	-5.53415
▁တံ	-5.61892
?	-5.62367
။ပေ	-5.69354
▁တတ္ထ	-5.73185
▁သော	-5.85757
▁ဟောတိ	-5.86313
▁ဧဝံ	-5.87327
ပိ	-5.93298
▁ခော	-5.95316
-	-5.96331
▁အ	-5.99891
တော	-6.0203
ဉ္စ	-6.03066
▁ဘိက္ခဝေ	-6.05
’	-6.07982
▁တေ	-6.09477
▁တသ္သ	-6.09755
ာတိ	-6.10071
ာနံ	-6.10106
▁နာမ	-6.10328
န	-6.12399
ံ။	-6.1963
▁ဟိ	-6.21904
ာနိ	-6.31464
ေဟိ	-6.32899
ဝ	-6.39513
ာယ	-6.4407
;	-6.5044
▁‘	-6.50917
ေသု	-6.52925
ဝသေန	-6.54951
▁ဓမ္မော	-6.55713
▁တေသံ	-6.57606
▁မေ	-6.57688
▁ဓမ္မံ	-6.59394
▁။	-6.60431
▁ဓမ္မာ	-6.62051
▁အယံ	-6.63323
▁တေန	-6.64149
ော။	-6.64458
▁ဟောတိ။	-6.66646
▁ယထာ	-6.68437
▁ပဋိစ္စ	-6.7036
န္တိ။	-6.71638
▁အတ္ထော။	-6.72265
ာ။	-6.725
▁ယံ	-6.73578
▁ဥပ္ပဇ္ဇတိ	-6.75685
နံ	-6.76455
▁ဘိက္ခု	-6.76559
▁ဝိယ	-6.77127
▁သ	-6.78952
▁ဒ္ဝေ	-6.7954
▁ယော	-6.81351
ိ	-6.81518
▁နော	-6.81906
▁အထ	-6.82441
▁ဧတ္ထ	-6.83376
▁ဧကံ	-6.84151
ီ	-6.84587
ာဒိ	-6.85473
▁တသ္မာ	-6.87293
မ္ပိ	-6.87463
▁ကတ္ဝာ	-6.88078
▁ဘဂဝာ	-6.88463
▁ဘန္တေ	-6.88727
▁ဣဒံ	-6.89741
▁တထာ	-6.89843
▁တတော	-6.91076
တ္တာ	-6.93057
က	-6.95678
▁ဝုတ္တံ	-6.95796
တာ	-6.97604
ယ	-7.02554
▁အတ္တနော	-7.04841
မေဝ	-7.0887
အ	-7.09548
▁ပဉ္စ	-7.10501
▁ဝုတ္တံ။	-7.10812
▁ယသ္သ	-7.12439
▁အာဟ	-7.13031
▁ဣဓ	-7.13809
ောတိ	-7.16721
▁ယေ	-7.17571
▁စိတ္တံ	-7.17791
ံ၊	-7.17951
▁တီဏိ	-7.18607
▁သာ	-7.19539
▁ပစ္စယော။	-7.20177
▁အတ္ထိ	-7.21152
တီတိ	-7.21274
ယေဝ	-7.22226
သု	-7.2229
▁တသ္မိံ	-7.23482
ယာ	-7.235
▁နဝ	-7.248
မ	-7.2572
▁သတ္တ	-7.27286
▁ဣတိ	-7.27388
▁ဘိက္ခူ	-7.30544
တာယ	-7.31858
▁နိဋ္ဌိတာ။	-7.32846
ကော	-7.33013
ယော	-7.36191
ေတိ	-7.37064
▁ကိံ	-7.38132
▁ဧဝ	-7.38549
ိတ္ဝာ	-7.40354
▁မဟာ	-7.4052
ဍ္	-7.41142
နာ	-7.41426
▁ဓမ္မသ္သ	-7.43977
ေ။	-7.44977
▁ပစ္စယော	-7.45996
▁စ။	-7.46149
▁အာပတ္တိ	-7.47284
▁ဘဂဝတော	-7.47292
ဟိ	-7.47532
▁နတ္ထိ	-7.48355
▁စေဝ	-7.48594
ယံ	-7.48968
▁ဧက	-7.49419
▁ဝုစ္စတိ	-7.5049
▁သဗ္ဗ	-7.50536
▁ယတ္ထ	-7.54381
▁ဟုတ္ဝာ	-7.55367
တံ	-7.55581
▁ဣမိနာ	-7.55859
▁ရူပံ	-7.56626
မ္ဟိ	-7.56773
▁သု	-7.57045
သ	-7.57352
▁ဓမ္မ	-7.58218
▁ဣမေ	-7.58427
▁ယာ	-7.5929
▁အာမန္တာ။	-7.61447
ေယ္ယ	-7.62584
▁ဣမံ	-7.62708
သိ	-7.62765
▁ခန္ဓာ	-7.63966
န္တော	-7.64491
ကံ	-7.65508
▁သဒ္ဓိံ	-7.66716
▁ယေန	-7.66759
▁ဝ	-7.66938
▁ဟောန္တိ	-7.66979
▁ကထံ	-7.67574
▁တ္ဝံ	-7.68574
▁ဟေတု	-7.68664
▁ပုန	-7.70625
▁ပ	-7.71142
▁တယော	-7.71618
▁မံ	-7.72718
▁အာဝုသော	-7.72912
တီ	-7.7419
▁ရာဇာ	-7.74279
▁နု	-7.74553
▁ဒိသ္ဝာ	-7.7483
ကာ	-7.7645
▁ဂဟေတ္ဝာ	-7.76713
ာ၊	-7.7693
▁သစေ	-7.7727
▁၁	-7.77598
▁ဟောတီတိ	-7.77876
သုတ္တံ	-7.78131
ာပိ	-7.78289
▁ဧကော	-7.79448
▁ဘဂဝတာ	-7.7947
▁ဆ	-7.79663
▁ဟေတုပစ္စယာ။	-7.80162
သုတ္တဝဏ္ဏနာ	-7.81087
▁အဟံ	-7.8123
▁ဣဒာနိ	-7.81266
▁အတ္ထော	-7.81763
ာဒီသု	-7.81873
ော၊	-7.81925
▁မမ	-7.82208
▁ဝိ	-7.83266
▁မာ	-7.8349
▁သတိ	-7.83569
▁ပုဂ္ဂလော	-7.85791
ာဒီနံ	-7.85984
▁သဟ	-7.86371
နိ	-7.87132
▁သတ္ထာ	-7.87361
▁ပစ္စယာ	-7.88636
▁နာမ။	-7.88928
တ္ထ	-7.89215
ပ	-7.89289
▁ဥပ	-7.89369
▁ပညာ	-7.89883
ု	-7.90124
▁ယသ္မာ	-7.92451
▁စတ္တာရော	-7.93543
ေတ္ဝာ	-7.93899
▁တာဝ	-7.94258
▁သိယာ	-7.94618
▁သဗ္ဗံ	-7.94692
▁အနု	-7.9517
နော	-7.95226
▁တဒာ	-7.95467
▁သုတ္ဝာ	-7.96321
▁နဟေတု	-7.96996
▁တေနာဟ	-7.97205
▁မဟာရာဇ	-7.97243
တေ	-7.97869
▁ကတံ	-7.98294
▁ခန္ဓေ	-7.98783
ဘာဝံ	-7.99341
▁ဝတ္ဝာ	-7.99509
တိအာဒိ	-7.99975
ိတ	-8.00038
▁အဋ္ဌ	-8.00414
▁သမယေ	-8.00636
တိအာဒိနာ	-8.01519
ာဒီဟိ	-8.01676
▁ပုဗ္ဗေ	-8.02749
▁ကမ္မ	-8.02946
▁ဒသ	-8.02988
ာဒယော	-8.03412
သဒ္ဒော	-8.0345
▁ဧတံ	-8.0345
ိကာ	-8.03664
▁ဒုက္ခ	-8.03912
▁စိတ္တ	-8.0432
▁စတ္တာရိ	-8.04336
▁သဗ္ဗေ	-8.04391
▁စေ	-8.04461
▁အာရဗ္ဘ	-8.04855
ဘာဝေန	-8.04883
▁ကိရ	-8.05381
သော	-8.05698
ီတိ	-8.06411
▁ဝတ္တဗ္ဗေ	-8.06975
▁ဝေဒနာ	-8.07688
တ	-8.09225
ာနီတိ	-8.09359
▁သန္ဓာယ	-8.09572
▁အသ္သ	-8.09621
၇	-8.09937
ာဒီနိ	-8.10057
▁၂	-8.10588
▁ကော	-8.10641
▁ဌပေတ္ဝာ	-8.10656
ကထာ	-8.10875
▁ဣမသ္မိံ	-8.11201
ိက	-8.116
▁ဘိက္ခုနော	-8.12384
ကာလေ	-8.12977
▁ဂန္တ္ဝာ	-8.13087
န္တီတိ	-8.13885
▁အာယသ္မာ	-8.14032
▁ကိဉ္စိ	-8.1405
▁အဟောသိ	-8.14402
▁ဝိဟရတိ	-8.14669
၉	-8.15426
▁ပဌမံ	-8.15809
▁ဓမ္မေ	-8.16044
စ	-8.16086
၅	-8.16161
▁ပရံ	-8.16254
▁မယာ	-8.16284
▁ရူပ	-8.16454
▁ဝတ္ထု	-8.16747
၃	-8.16821
▁ဘော	-8.16927
▁ဝတ	-8.17091
ဘာဝော	-8.17609
▁အတ္ထ	-8.18032
▁ယာဝ	-8.18089
၄	-8.18458
▁လောကေ	-8.18712
▁ဘဂဝန္တံ	-8.18853
▁အညံ	-8.18918
▁သမ	-8.19035
▁စ၊	-8.19079
▁ကမ္မံ	-8.19104
၆	-8.19266
မာ	-8.19621
▁တဏ္ဟာ	-8.20321
ေနာတိ	-8.20458
ဓမ္မ	-8.20499
▁ပဌမ	-8.20904
၈	-8.2119
▁ဣတော	-8.21559
၁	-8.22027
▁ပဋိ	-8.22071
▁အန	-8.22882
တု	-8.23231
▁ဒသ္သေတုံ	-8.23243
▁ဒသ္သေတိ။	-8.23556
▁ဒိဋ္ဌိ	-8.23878
ေပိ	-8.24041
▁ဝုစ္စတိ။	-8.24235
ဝဂ္ဂော	-8.24446
▁နေဝ	-8.24685
▁ယောဇနာ။	-8.25275
▁ဗုဒ္ဓ	-8.25439
▁စာတိ	-8.26015
▁ဝာ။	-8.26216
၂	-8.26329
▁သမ္မာ	-8.26568
▁ဒုက္ခံ	-8.27355
ဝိ	-8.27498
ိယ	-8.27529
နေ	-8.27541
ဝာ	-8.28235
ာနိ။	-8.28315
▁မယ္ဟံ	-8.28582
ဝဏ္ဏနာ	-8.28588
▁ဝေဒိတဗ္ဗော။	-8.28679
ဘာဝ	-8.29473
တ္ထာယ	-8.29683
▁ယဒိ	-8.30162
ေဝ	-8.30407
▁သမန္နာဂတော	-8.30667
တိအာဒိ။	-8.31189
ထ	-8.31394
▁ဘဝ	-8.31395
▁ခန္ဓာနံ	-8.31396
ကေ	-8.31582
▁ဒသ္သေန္တော	-8.31799
▁ဝုတ္တ	-8.31808
▁ဈာနံ	-8.32484
ိတုံ	-8.32699
ာဝ	-8.32802
▁ဟေတုယာ	-8.32935
▁ထေရော	-8.33201
ရူပ	-8.33263
▁ဇာတိ	-8.3338
▁တေသု	-8.33483
▁စိတ္တသ္သ	-8.34334
▁ဝသေန	-8.34729
▁ရညော	-8.3513
ိတာ	-8.35205
▁အန္တော	-8.35352
▁ဒေဝ	-8.35412
တ္တ	-8.35479
▁ကရောတိ	-8.35518
▁၃	-8.35725
ဋ္ဌေန	-8.35998
▁ဝစနံ	-8.36411
ေနေဝ	-8.36584
▁သမ္ဗန္ဓော။	-8.36789
▁တသ္သာ	-8.36889
သ္မိံ	-8.37245
▁တု	-8.37932
▁ဖလ	-8.38772
▁ဟေဋ္ဌာ	-8.38891
▁ကသ္မာ	-8.39094
ိံ	-8.39139
▁ကေစိ	-8.39297
▁ဧသ	-8.39516
▁ဟောန္တိ။	-8.39579
▁ပရ	-8.39782
▁ဗ္ရာဟ္မဏ	-8.40167
▁ဝေဒိတဗ္ဗံ။	-8.40415
တော။	-8.40575
▁ပဋ္ဌာယ	-8.40619
ိယာ	-8.40683
▁ရာဇ	-8.40785
တ္ထံ	-8.40795
▁ဟေဝံ	-8.4086
▁ကာမ	-8.40945
▁ဘိက္ခူနံ	-8.41633
▁ဝဋ္ဋတိ။	-8.41885
ဇ္ဇ	-8.4221
▁ကတမေ	-8.42524
▁ဒုတိယ	-8.42667
ေ၊	-8.42669
▁ပရိ	-8.43315
ဟေတု	-8.43365
▁မဂ္ဂ	-8.43514
▁၊	-8.43594
▁ကတ	-8.43905
▁တတ္ရ	-8.44089
ိတော	-8.44239
ိ။	-8.44252
ကမ္မ	-8.44305
ယေ	-8.44505
▁အာဟ။	-8.44581
▁တာနိ	-8.44814
▁သမယေန	-8.45156
▁ဉာဏ	-8.45314
▁အတိ	-8.4532
ဇ	-8.45462
▁၄	-8.45551
ဟ	-8.45594
န္တသ္သ	-8.45954
▁ပစ္ဆာ	-8.46403
မာနော	-8.46439
▁ကုသလာ	-8.46768
▁ဝော	-8.46878
▁တေဟိ	-8.47043
န္တီ	-8.47064
▁ဉာဏံ	-8.47682
သိက္ခာပဒဝဏ္ဏနာ	-8.47722
▁ပုစ္ဆာ	-8.48142
▁သတ္တာ	-8.48862
၀	-8.4907
▁ဝေဒနာယ	-8.49099
▁သုခ	-8.4912
▁ဇာနာတိ	-8.49254
▁နိသ္သာယ	-8.49319
▁ဥပ္ပဇ္ဇန္တိ	-8.49479
▁ဧတဒဝောစ	-8.49479
▁ဧဝမေဝ	-8.49549
▁သဗ္ဗတ္ထ	-8.49599
▁ဥပသင္ကမိတ္ဝာ	-8.49741
▁သုခံ	-8.50696
▁၇	-8.51013
▁ဣမသ္သ	-8.51145
သံ	-8.51414
▁တဝ	-8.5183
▁သေသံ	-8.52238
▁ဗုဒ္ဓသ္သ	-8.52249
▁ပညာယ	-8.52318
▁တ	-8.5237
▁ဝုတ္တေ	-8.52452
▁ပုရိသော	-8.52549
လ	-8.52876
▁ဟောတီ	-8.52891
ပ္ပ	-8.52927
အယံ	-8.53007
▁‘‘‘	-8.5309
▁သညာ	-8.53305
▁ဣမာ	-8.5345
န္တာ	-8.53741
▁ပတ္တ	-8.53908
ဉ္စေဝ	-8.5401
▁ဧသေဝ	-8.54103
ိတံ	-8.54402
▁၅	-8.54598
▁အတ္တနာ	-8.54733
▁သင္ဃော	-8.54957
▁ဗုဒ္ဓော	-8.54978
▁တီဏိ။	-8.55418
▁ကုသလံ	-8.55453
▁အဘိ	-8.55714
▁ဧကမန္တံ	-8.56229
နံ။	-8.56408
▁သမာဓိ	-8.56416
ပစ္စယာ	-8.56524
▁ကောစိ	-8.5663
▁ဥပ္ပဇ္ဇတိ။	-8.57157
▁အာနန္ဒ	-8.57271
▁ဟေတုပစ္စယာ	-8.57327
ာမိ	-8.5745
▁ဒာနံ	-8.57814
▁ပာပ	-8.57886
▁၆	-8.57921
ဧဝံ	-8.58452
▁အာရမ္မဏေ	-8.58553
▁ဩ	-8.58585
▁ဝေဒိတဗ္ဗာ။	-8.58962
▁အတ္ထံ	-8.59009
▁အာ	-8.59051
▁ဒတ္ဝာ	-8.59222
▁ဂစ္ဆတိ	-8.59661
▁သီလ	-8.59754
တိအာဒီသု	-8.60258
▁သက္ကာ	-8.60578
▁သယံ	-8.60938
ရ	-8.60972
သဒ္ဒေန	-8.61129
▁အဟောသိ။	-8.6121
ေတီတိ	-8.61236
သ္သာတိ	-8.61407
▁ဓမ္မေဟိ	-8.6155
▁ပဒ	-8.61735
ကိံ	-8.61868
▁သန္တိကေ	-8.62022
▁ဥပရိ	-8.62232
▁အကုသလာ	-8.62305
ဝတ္ထု	-8.62332
▁ဓမ္မာနံ	-8.62398
▁အဓိပ္ပာယော။	-8.62751
တ္တံ	-8.62926
▁ယတော	-8.62927
သာ	-8.63175
▁အပ္ပ	-8.63332
စိတ္တ	-8.6336
▁ကာယ	-8.63378
▁မဂ္ဂော	-8.63637
▁တာ	-8.63723
ဋ္ဌာနေ	-8.64002
ကထာဝဏ္ဏနာ	-8.64499
▁ဥ	-8.646
သ္သေဝ	-8.64602
▁၈	-8.64741
▁အဝ	-8.65327
▁ဥပ္ပဇ္ဇိသ္သတိ	-8.65483
▁တထာဂတော	-8.65496
▁မယံ	-8.65686
▁က	-8.65693
ဉ္ဟိ	-8.65901
▁ဝိညာဏံ	-8.65918
ဝဏ္ဏ	-8.65928
▁နိ	-8.66459
▁၉	-8.66763
▁စီဝရံ	-8.66884
ေတုံ	-8.66907
ဏ	-8.67428
▁ဓမ္မေသု	-8.67599
▁အတ္တာနံ	-8.67614
▁ပုဗ္ဗ	-8.67687
▁ဗ္ရာဟ္မဏော	-8.68061
ိံသု	-8.68176
▁ဘိက္ခုနာ	-8.68346
▁၁၀	-8.68525
▁ဝေ	-8.68707
ောပိ	-8.68981
▁ဣမာနိ	-8.69092
▁ဒ	-8.69375
▁နယေန	-8.69814
▁ဣမေဟိ	-8.69865
▁နာနာ	-8.69873
န္တ	-8.69973
▁ပဟာယ	-8.70034
▁နယော။	-8.70193
▁နတ္ထိ။	-8.70491
▁ဧတေ	-8.70594
▁ဝုတ္တာ	-8.71263
▁ကာလေ	-8.71291
တိအာဒိမာဟ။	-8.71521
▁နိဗ္ဗာနံ	-8.71789
▁စက္ခု	-8.71825
ဘာဝတော	-8.7198
မ္ဟာ	-8.7217
▁အာဒိ	-8.72225
▁မဂ္ဂံ	-8.72693
▁ပဋိသန္ဓိက္ခဏေ	-8.72957
င္ဂ	-8.73797
ဖလ	-8.73803
▁ဝိနာ	-8.74089
▁တာယ	-8.74354
▁သင္ဃသ္သ	-8.74366
▁ဂာထာ	-8.74414
ပဒ	-8.74655
▁ပစ္စယ	-8.74844
▁ဓာတု	-8.74845
▁ပုရိမ	-8.74872
ေန္တော	-8.75099
▁ပဝတ္တ	-8.7544
▁သာဓု	-8.75467
သုတ္တ	-8.75794
▁ယထာဘူတံ	-8.75899
သီ	-8.76199
▁ကာယသ္သ	-8.7664
▁ကိလေသ	-8.76904
သညာ	-8.77012
▁ယသ္မိံ	-8.77337
▁ဗဟု	-8.77467
▁စတူဟိ	-8.77786
▁ဉတ္ဝာ	-8.77828
ဋ္ဌ	-8.77857
▁ဝုတ္တော	-8.77939
▁တိသ္သော	-8.78358
▁မ	-8.78415
▁ဝတ္ထုံ	-8.78458
▁သဒ္ဓာ	-8.78488
▁ဧကာ	-8.78514
ာနီ	-8.78787
▁ဝဏ္ဏ	-8.78789
▁သာဝတ္ထိယံ	-8.78962
▁ဥပသမ္ပဇ္ဇ	-8.79099
▁သဗ္ဗေသံ	-8.79195
▁စတု	-8.79234
▁ဒ္ဝိန္နံ	-8.79284
▁ဌာနံ	-8.79389
▁ကာလ	-8.79701
▁ဒသ္သေတ္ဝာ	-8.79797
ာယံ	-8.80043
မာန	-8.80449
▁သတ္ထု	-8.80525
▁ဥပပဇ္ဇန္တာနံ	-8.80698
ပီတိ	-8.8071
▁ဧတမတ္ထံ	-8.80743
▁လောက	-8.80819
ဓာတု	-8.80868
အတ္ထိ	-8.81012
▁အတ္တ	-8.81123
▁ဥဒက	-8.81165
မဂ္ဂ	-8.81259
▁ကတမော	-8.81652
ာနဉ္စ	-8.81728
▁အာရမ္မဏပစ္စယေန	-8.81829
ဟံ	-8.81977
▁ကာတုံ	-8.82182
နတော	-8.82454
ာပေတ္ဝာ	-8.82534
▁ကတမံ	-8.82625
▁ယဒာ	-8.83072
▁ဈာန	-8.83133
ဋ္ဌာနံ	-8.83471
ာဟိ	-8.83576
ဋ္ဌော	-8.83576
ာဒိဝသေန	-8.83618
▁ဂဟပတိ	-8.83619
ဒ	-8.83969
▁တေနေဝ	-8.83974
▁စေတနာ	-8.84136
ိကံ	-8.84145
▁တုမ္ဟေ	-8.84304
▁သီလံ	-8.84326
တ္ထော	-8.8439
ကသ္သ	-8.84468
မဟာ	-8.84655
▁အဝိဂတေ	-8.84722
ောဝ	-8.84724
▁ပသ္သတိ	-8.85115
▁ဗုဒ္ဓံ	-8.8538
▁ပနေတ္ထ	-8.85397
▁သစ္စ	-8.8543
မာနာ	-8.85677
▁ဝဒန္တိ။	-8.85688
▁ဌိတော	-8.85828
▁ပုရိသ	-8.86072
ယထာ	-8.8656
▁မနော	-8.86593
ေန၊	-8.86626
အဟံ	-8.86899
▁တထေဝ	-8.86974
▁ဒေသနာ	-8.86993
သ္သ၊	-8.87081
ဘိ	-8.87224
▁ဧတေန	-8.87225
သတ္တ	-8.87281
▁နယော	-8.88099
▁ကုသလော	-8.88138
ကေန	-8.88429
▁နိသိန္နော	-8.88469
ဉာဏ	-8.88754
▁တီဟိ	-8.88768
▁ဒဋ္ဌဗ္ဗံ။	-8.88806
▁အမ္ဟာကံ	-8.89184
▁ဥပနိသ္သယပစ္စယေန	-8.89285
▁ကေနစိ	-8.89288
ာန	-8.89293
▁ဒေတိ	-8.89399
သမ	-8.89563
▁မူလ	-8.89651
▁ဘိက္ခုနီ	-8.90357
▁စီဝရ	-8.90413
▁နိဗ္ဗာန	-8.90491
▁ဗဟိဒ္ဓာ	-8.90671
▁ကတိ	-8.90716
▁ဖလံ	-8.90731
ကာယ	-8.90909
ပုန	-8.90915
တ္ထေ	-8.91114
▁ပသ္သ	-8.91221
သ္သု	-8.91402
ိကော	-8.91453
▁ရူပာနံ	-8.91525
▁အပိ	-8.91856
ိံသု။	-8.91922
▁နနု	-8.92086
▁ဒုက္ကဋံ	-8.92123
▁တဉ္စ	-8.92176
▁အဝိဇ္ဇာ	-8.92321
▁သုတ္တ	-8.9252
▁ယ	-8.92548
▁စတုန္နံ	-8.92602
ကံ။	-8.92621
တေန	-8.92783
မတ္တ	-8.92817
▁သေသ	-8.92999
▁တီသု	-8.93203
▁ဥပ္ပဇ္ဇိတ္ထ	-8.93241
▁ကတ္ထ	-8.93245
နာမ	-8.93259
ဒာန	-8.93787
ူ	-8.93821
▁အာပတ္တိယော	-8.93974
ဒိ	-8.94043
န္တေ	-8.94092
▁တတ္ထေဝ	-8.94097
▁ကာယေန	-8.94165
▁ပဉ္စဟိ	-8.94289
န္တံ	-8.94466
▁မနုသ္သာ	-8.94525
▁သတ္တာနံ	-8.94536
ာနု	-8.94543
ကော။	-8.94563
ကမ္မံ	-8.94739
▁ဌာနေ	-8.94837
▁ကာရဏံ	-8.94967
ကထံ	-8.9506
▁သင္ခာရာ	-8.95126
▁အရဟတ္တံ	-8.95169
▁ဒေဝတာ	-8.95213
▁အဂ္ဂ	-8.95358
▁ဂော	-8.95511
▁အတ္တာ	-8.95542
▁ပတ္ဝာ	-8.95645
▁ကပ္ပ	-8.95652
ဋ္ဌာန	-8.95991
▁ခန္ဓ	-8.9602
▁ဝိသ္သဇ္ဇနာ	-8.96333
သီလ	-8.96466
▁ဝုတ္တနယေနေဝ	-8.96502
ူပ	-8.97144
▁ဝာစာယ	-8.97213
▁ဒသ္သနေန	-8.97269
ပရိ	-8.97278
▁ဂုဏ	-8.97318
▁စတသ္သော	-8.97349
ာနန္တိ	-8.97677
▁အညတ္ရ	-8.97688
ဣဒံ	-8.97721
က္ခ	-8.97757
▁သာရိပုတ္တ	-8.97779
ိနော	-8.98359
▁ပဋိပဒာ	-8.98522
▁စတူသု	-8.98582
သ္သာ	-8.98631
▁ဥဒကံ	-8.98927
▁ဝတ္တ	-8.98971
▁ဘဝိသ္သတိ	-8.99192
▁သုဝဏ္ဏ	-8.99201
▁ယထာဝုတ္တ	-8.99344
▁ဌတ္ဝာ	-8.99434
▁ပုည	-8.99628
▁ကေဝလံ	-8.99781
ဠ	-8.99966
▁ဂာထမာဟ	-8.99978
▁ဝိသုံ	-9.00129
▁ကေန	-9.00181
▁စပရံ	-9.00449
▁ဒေဝာ	-9.00651
▁ဒာန	-9.00694
ကာရ	-9.00726
▁ဥပေက္ခာ	-9.00782
▁ကတမာ	-9.01093
▁ဧကေန	-9.0116
▁ဝိစိကိစ္ဆာနုသယ	-9.01251
▁ဧကတော	-9.01264
▁ဘိက္ခုံ	-9.01412
▁သာသနံ	-9.01574
ပဋိ	-9.01642
▁ဝုတ္တာ။	-9.0175
▁ဘာဝနာယ	-9.01806
▁တသ္သေဝ	-9.02036
ကရဏ	-9.02179
မတ္တံ	-9.02569
▁ယထာဟ	-9.02574
▁အတ္ထီတိ	-9.02606
ဉ္စ၊	-9.02699
▁ဥပ္ပန္နံ	-9.02844
▁အာရမ္မဏ	-9.02947
ဓမ္မာ	-9.03214
ေဟီတိ	-9.03532
▁ဝုတ္တန္တိ	-9.03552
▁အနုပ	-9.03665
▁ဣမေသံ	-9.03918
▁အဗ္ယာကတော	-9.04002
ဝိပာက	-9.04023
▁အနာပတ္တိ	-9.04258
ဂ္ဂ	-9.04293
▁ဒုက္ကဋသ္သ။	-9.04335
▁အည	-9.04467
▁ဖသ္သော	-9.04523
▁ဝတ္တဗ္ဗံ	-9.04774
ိယံ	-9.04787
▁စက္ခာယတနံ	-9.04862
▁သဗ္ဗသော	-9.05101
▁ရာဂော	-9.05127
တာ။	-9.05146
▁စက္ခုန္ဒ္ရိယံ	-9.05161
နန္တိ	-9.05549
▁ဒီဃ	-9.05632
ဂုဏ	-9.05669
▁ဝိနယ	-9.05731
▁သရ	-9.06038
▁ပရသ္သ	-9.06266
▁အညော	-9.06296
▁ဝတ္ထုသ္မိံ	-9.06308
ပစ္စယ	-9.06618
န္တု	-9.06697
▁အကုသလံ	-9.06731
▁အတ္ထေ	-9.06739
▁သဒ္ဒ	-9.06849
▁အာဂန္တ္ဝာ	-9.06887
ဓ	-9.06906
▁ဝိပသ္သနာ	-9.06913
သင္ခာတံ	-9.06965
▁ဒ္ဝီဟိ	-9.07073
သညီ	-9.07184
ဒေဝ	-9.0728
▁ဒိဋ္ဌ	-9.07281
▁သမာန	-9.07328
▁ဂောတမ	-9.07376
▁အဇ္ဈတ္တံ	-9.07629
မေ	-9.07764
▁အရဟတော	-9.07812
▁ဗဟိ	-9.07886
▁ဗ္ရဟ္မ	-9.07892
ယေဝ။	-9.0791
▁ပဇာနာတိ	-9.0796
ဝတ္တ	-9.08009
တသ္သ	-9.08035
▁ပုပ္ဖ	-9.08084
▁တိဏ္ဏံ	-9.08135
▁ကရောန္တော	-9.08174
▁ဝဒန္တိ	-9.08182
▁ဒောသ	-9.08219
▁အတ္ထိပစ္စယ	-9.08315
▁ကာလံ	-9.08352
▁ခန္ဓံ	-9.08535
▁ပာဠိယံ	-9.08691
▁ဥပ္ပဇ္ဇတီတိ	-9.09101
▁သေယ္ယထာပိ	-9.09312
▁လောကော	-9.09502
သုခ	-9.0958
▁ယဒိဒံ	-9.09586
▁ဘဝေ	-9.09635
▁နတ္ထီတိ	-9.09688
ာဟံ	-9.0969
ာနံ၊	-9.09801
ဒုက္ခ	-9.09836
သဒ္ဒသ္သ	-9.10177
▁တဒ	-9.10188
▁နိဗ္ဗတ္တ	-9.10382
▁ကုသလ	-9.10411
ေသိ	-9.10412
သဒ္ဒ	-9.10553
ပတ္တ	-9.10559
▁စေတ္ထ	-9.10783
▁ကာ	-9.1091
တ္တာ။	-9.11018
ဘဝ	-9.1133
ာဘိ	-9.11435
▁သက္ကော	-9.11519
▁မရဏာ	-9.11797
ဓမ္မော	-9.11806
▁ဓမ္မာ။	-9.12016
▁ဝေဒနာက္ခန္ဓော	-9.12038
▁ဒုတိယံ	-9.12054
▁အယမ္ပိ	-9.12091
▁မာရ	-9.12211
▁ဥပ္ပန္န	-9.12272
သိက္ခာပဒံ	-9.12387
▁ပတ္တော	-9.12508
▁ဌိတ	-9.12608
▁သင္ဃ	-9.12646
▁ပီတိ	-9.12656
▁ကမ္မေ	-9.12679
▁အဘိညာ	-9.12693
▁ဒ္ဝီသု	-9.13004
▁မဇ္ဈေ	-9.13027
ဧက	-9.13178
▁မနသိ	-9.13218
▁ဆန္ဒ	-9.13277
ရာဇ	-9.13294
▁ဖလံ။	-9.13344
▁အာဂတ	-9.13464
▁ဣ	-9.13481
▁ဝသ္သ	-9.13487
▁တယာ	-9.13499
▁သုဋ္ဌု	-9.13634
▁တာသံ	-9.13697
▁ဝဒတိ။	-9.13902
▁ဟေတုပစ္စယေန	-9.13961
▁ဒောသော	-9.14013
▁ဟတ္ထိ	-9.14024
▁ကသ္သစိ	-9.1405
▁နဟေတုပစ္စယာ	-9.14051
▁ဒိသာ	-9.14088
နီ	-9.14219
စ္စ	-9.14243
ိသ္သတိ	-9.14247
▁သုတံ	-9.14351
▁လက္ခဏ	-9.14556
ဇာတကံ	-9.14722
ဘူတော	-9.14748
▁ဂောတမော	-9.1489
▁ဝဋ္ဋတိ	-9.15055
▁ဘာဝေတိ	-9.15235
▁ဗောဓိသတ္တော	-9.15491
သ္မာ	-9.15882
▁ကံ	-9.1596
▁အဗ္ယာကတာ	-9.15979
▁ဒသ္သန	-9.16412
▁သောဠသ	-9.16421
ကိစ္စ	-9.16427
နု	-9.16439
နိသ္သယ	-9.1654
ဝသေနေဝ	-9.16653
သေ	-9.16763
မ္ဟိ၊	-9.16868
▁ဝစန	-9.16977
ဥ	-9.1698
ိယော	-9.16984
▁ပဝတ္တိ	-9.17053
▁သမ္ဗဟုလာ	-9.17138
▁ကာယော	-9.17146
▁ဝုတ္တတ္တာ	-9.17243
ကာရော	-9.17253
▁ဥပာဒာယ	-9.17304
ယန္တိ	-9.17366
’’’	-9.17505
▁လောကံ	-9.17524
▁အညေ	-9.17565
န္တရ	-9.17607
▁အဝသေသာ	-9.17609
▁ဝသ	-9.17619
▁ဝုတ္တော။	-9.17641
▁လဒ္ဓ	-9.17648
▁တတိယ	-9.17701
▁နာဂ	-9.18071
ရူပံ	-9.18086
▁ဂရုံ	-9.18237
▁ဝရ	-9.18301
▁သမ္မာသမ္ဗုဒ္ဓ	-9.18535
▁ဗဟူ	-9.18571
▁သရဏံ	-9.18612
ာသိ	-9.18727
▁အာဒာယ	-9.18995
▁မနုသ္သ	-9.19016
▁ဓန	-9.19038
▁အဇ္ဇ	-9.19065
ဘူတံ	-9.19101
▁ဗလ	-9.19236
ဣဓ	-9.19263
ီနံ	-9.19282
▁ကု	-9.19452
▁ယေသံ	-9.195
▁သကလ	-9.195
▁ဓမ္မဒေသနံ	-9.19525
▁သမ္မာဒိဋ္ဌိ	-9.19547
ဘာဝေ	-9.19556
▁အတ္ထတော	-9.19568
▁ဝိညာဏ	-9.19609
▁တေနုပသင္ကမိ	-9.19656
▁နိစ္စ	-9.19772
▁ဂစ္ဆ	-9.19788
▁တထာဂတသ္သ	-9.19971
▁ပုဂ္ဂလသ္သ	-9.20144
သဗ္ဗ	-9.20212
က္ခဏေ	-9.20258
ပညာ	-9.20292
လက္ခဏံ	-9.20349
▁အာပတ္တိံ	-9.20403
▁ဣန္ဒ္ရိယာ	-9.20694
▁ဒ္ဝာဒသ	-9.20723
▁ဝိပာက	-9.20727
▁ဒုက္ခာ	-9.20753
ာဒိနာ	-9.20919
ေတံ	-9.20927
တိပိ	-9.20954
▁ဘာသိတံ။	-9.21125
ဘူတ	-9.21335
▁ဧတသ္သ	-9.21358
ကရ	-9.21468
▁ပုရေ	-9.21493
ေယ္ယာတိ	-9.21639
▁မာန	-9.21645
ာပ	-9.21803
▁သရီရ	-9.21906
▁နေသံ	-9.21916
▁ကာရဏေန	-9.21922
ဘူတာ	-9.22085
▁ကရောန္တိ	-9.22252
▁ဣန္ဒ္ရိယ	-9.22465
▁ဘေဒာ	-9.22638
▁သံ	-9.22675
ဗလ	-9.2272
▁ပာဒ	-9.22833
▁ဝိဇ္ဇာ	-9.22965
▁ပိယ	-9.23004
▁ပုဂ္ဂလာ	-9.23053
▁အညမညံ	-9.23162
▁အနန္တရပစ္စယေန	-9.23193
▁ဘဝံ	-9.23249
▁သာသန	-9.23452
▁ဂဏ	-9.23477
ဋ	-9.23526
▁မုခ	-9.23526
▁သမဏော	-9.23714
တောတိ	-9.23969
▁စိတ္တသမုဋ္ဌာနံ	-9.23988
ဂစ္ဆ	-9.2401
သိ။	-9.24103
▁သုတ္တံ	-9.24126
▁ကာရဏ	-9.2422
▁သင္ဃံ	-9.2424
▁ပရေသံ	-9.24342
▁မာတာ	-9.24394
▁ကုလ	-9.24508
▁စတုတ္ထ	-9.24647
နေန	-9.2468
အဝိတက္ကဝိစာရမတ္တ	-9.24689
▁ဝိပာကော	-9.24829
ေတ္ထ	-9.24985
ီယတိ	-9.24995
▁ပစ္စ	-9.25082
▁သက	-9.25161
▁ပုတ္တော	-9.25277
▁ပာဠိ	-9.25372
သစေ	-9.25426
ရော	-9.25598
▁ဧကသ္မိံ	-9.25743
▁ဂာမ	-9.25746
▁ကထေသိ။	-9.25892
▁တဒာ။	-9.25914
▁ဂတော	-9.26027
▁သန္တ	-9.2605
▁ဒ္ဝိ	-9.26138
ပဉ္စ	-9.26143
▁ပတိ	-9.26245
▁အင္ဂ	-9.26288
▁ပိတာ	-9.26413
▁ဒာနိ	-9.26461
▁ပဉ္စန္နံ	-9.26462
ိတဗ္ဗံ	-9.26583
ည	-9.26627
▁ဟတ္ထ	-9.26794
▁နိရုဇ္ဈတိ	-9.27061
▁ဘဝိသ္သတိ။	-9.27143
ဇာတကဝဏ္ဏနာ	-9.27155
ုပ	-9.27156
▁ဣစ္စာဒိ။	-9.27354
ိနီ	-9.27357
ိကာယ	-9.27552
▁အာယသ္မတော	-9.27775
ဣတိ	-9.27864
လက္ခဏ	-9.27866
အာရမ္မဏေ	-9.27931
▁ပရမ	-9.28112
▁ဟ	-9.28139
▁ဧတ္ထာတိ	-9.28142
▁အပ	-9.28335
▁ဘာဝနာ	-9.28409
▁ဒဋ္ဌဗ္ဗော။	-9.28487
▁သုဒ္ဓ	-9.28584
▁ရဇ္ဇံ	-9.28615
▁အဂ္ဂိ	-9.28742
လောက	-9.28847
ဗုဒ္ဓ	-9.28898
▁သိယာ။	-9.28902
▁မောဟ	-9.29086
▁နိဋ္ဌိတံ။	-9.2911
▁အာယသ္မန္တံ	-9.2918
စ္ဆ	-9.29199
▁ဧသာ	-9.29213
▁အပိစ	-9.294
▁ကတ္ထစိ	-9.29475
ေယ္ယ။	-9.29494
ကာလ	-9.29554
▁ဝီရိယံ	-9.29597
▁ဝိသေသ	-9.29893
▁အဍ္	-9.29912
ရာဇာ	-9.29937
ကပ္ပ	-9.30033
န္တေန	-9.30035
▁သတော	-9.30046
▁ဥပ္ပာဒက္ခဏေ	-9.30127
▁အရဟာ	-9.30133
▁ဒုဂ္ဂတိံ	-9.30212
▁သန္တိကံ	-9.30482
▁ပုတ္တ	-9.30592
▁အတ္ထာယ	-9.30613
▁ဂန္ဓ	-9.30716
▁ဇီဝ	-9.30792
▁သမာနော	-9.30803
▁အကုသလော	-9.30872
▁ဒိဗ္ဗ	-9.3097
▁အာရမ္မဏံ	-9.31033
မိ	-9.31067
▁ဇီဝိတ	-9.3111
▁သန္တိ	-9.31112
▁ဇ	-9.31144
▁ရာဂ	-9.31263
▁ပညတ္တံ	-9.31336
▁တိဋ္ဌတိ	-9.31359
▁စိတ္တေန	-9.31479
ရု	-9.31497
▁ဂဟိတ	-9.31528
▁မနသာ	-9.31538
▁သာရ	-9.31795
နဝသေန	-9.31888
▁ကိသ္မိံ	-9.31909
တတ္ထ	-9.3203
▁ဥဒ္ဓံ	-9.32177
▁စိတ္တသမုဋ္ဌာနာန	-9.32237
ကာမ	-9.32564
▁ဥပ္ပဇ္ဇိသ္သတိ။	-9.32681
▁သစ္စံ	-9.32718
▁ယဉ္စ	-9.32877
▁ဧကာဒသ	-9.3304
▁၁၁	-9.33057
▁သုတ	-9.33145
▁စရ	-9.33245
▁ထေရသ္သ	-9.33554
ိသ္သန္တိ	-9.33559
▁အာနန္ဒော	-9.33711
▁ဝန	-9.33751
▁ခ	-9.33814
▁အာဟရိတ္ဝာ	-9.33819
▁နိသီဒိ။	-9.33884
▁သိက္ခာ	-9.33908
▁နဘာဝနာယ	-9.33928
တရ	-9.33929
ဒိဋ္ဌိ	-9.3417
▁အတီတ	-9.34192
▁အသ	-9.34192
▁ဂတိ	-9.34222
▁ပဒံ	-9.34326
ေသူတိ	-9.34332
ကုလ	-9.34375
▁ဒ္ဝယံ	-9.34381
▁ပဉ္ဟံ	-9.34396
▁နိရုဇ္ဈိသ္သတိ	-9.34417
▁ဗ္ရဟ္မစရိယံ	-9.34467
▁ပုနပ္ပုနံ	-9.34488
▁ဇန	-9.34504
▁လဘတိ	-9.34527
▁ပစ္ဆိမ	-9.35019
▁ဧသော	-9.35065
ရေ	-9.35129
▁သမဏ	-9.35301
▁မရဏ	-9.35326
▁နာမံ	-9.35403
ဥပ	-9.35511
▁ကာယေ	-9.35523
▁ဇေတဝနေ	-9.35555
ဓမ္မံ	-9.35653
▁အန္တရာ	-9.35796
ဒောသ	-9.35816
▁ပတ္တံ	-9.36003
ာရမ္မဏ	-9.36054
အာဒိ	-9.36239
ဘေဒ	-9.36333
▁ပကတိ	-9.36383
▁ဒ္ဝာရ	-9.36434
သဟသ္သ	-9.36497
▁သဗ္ဗာ	-9.36498
▁ဝိဟရတိ။	-9.36523
▁သဒာ	-9.36579
▁ပရေ	-9.36628
▁ရုက္ခ	-9.36732
မန	-9.36792
ာနမ္ပိ	-9.36795
▁ဝစနတော	-9.36797
▁ဥတ္တရ	-9.36802
သမ္ပယုတ္တ	-9.3694
မူလ	-9.3699
▁မနိန္ဒ္ရိယံ	-9.37148
န္တိအာဒိ	-9.37175
မုခ	-9.37258
စိတ္တော	-9.3729
▁သမ္မ	-9.37319
▁တန္တိ	-9.37384
▁ပုရိမာ	-9.37401
▁ဒုက္ခသ္သ	-9.37433
▁ပဋိဃာနုသယ	-9.37715
▁ဝဋ္ဋတီတိ	-9.37725
▁သဗ္ဗေပိ	-9.3774
ရသ	-9.3777
▁ဥဘယ	-9.37846
▁မိဂ	-9.37892
ဝစန	-9.3793
▁ဝိပ္ပယုတ္တပစ္စယ	-9.37936
▁ပုရတော	-9.38018
စီဝရ	-9.38054
ဝာဒ	-9.38107
ဝစနံ	-9.38122
▁ဧဝရူပံ	-9.38142
အာ	-9.38223
▁တဒေဝ	-9.3826
▁ဝိဟရန္တော	-9.3827
▁ဂစ္ဆတိ။	-9.38289
▁အညတရော	-9.38417
▁ဖသ္သ	-9.38459
▁ဘတ္တ	-9.38463
▁ဝဋ္ဋ	-9.38496
▁ဝုတ္တနယေန	-9.38509
▁ဧကစ္စော	-9.38554
မု	-9.38656
▁သင္ခာရ	-9.38765
▁သဟသ္သ	-9.38866
▁ဥတ္တမ	-9.3888
▁ဥဘော	-9.38896
▁ဘိက္ခုနိယော	-9.38981
▁ကိသ္သ	-9.3919
▁သတ	-9.39192
▁ဝိယ။	-9.3922
▁ဒီပ	-9.39318
▁အာသဝာ	-9.39403
▁ဧတ္တာဝတာ	-9.39415
ဂတံ	-9.39515
▁ဟောတု	-9.39528
▁ကရောတိ။	-9.39672
▁ဌိတာ	-9.39694
▁အဓိပတိပစ္စယေန	-9.39742
ပဒံ	-9.39869
▁ဝိဟာရ	-9.40007
▁တမ္ပိ	-9.40018
▁ရူပာယတနံ	-9.40026
▁ပစ္စုပ္ပန္န	-9.40092
▁တတိယံ	-9.40167
ေသိ။	-9.40418
ေဟိ၊	-9.40473
▁ဓာတူဟိ	-9.40604
▁တုမ္ဟာကံ	-9.40606
▁ဝီရိယ	-9.407
နဉ္စ	-9.40852
▁နအဓိပတိယာ	-9.40866
▁အနေက	-9.40931
ိတဗ္ဗ	-9.40969
▁ပထဝီ	-9.4111
▁ဟောန္တီတိ	-9.41117
ပဋိသမ္ဘိဒာ	-9.41139
▁ရသ	-9.41191
▁ပိဏ္ဍာယ	-9.41259
▁ကရေယ္ယ	-9.41276
▁မောဟော	-9.4146
ရိ	-9.41528
ကာရဏ	-9.41537
▁ဘာဝော	-9.41684
▁တေရသ	-9.41786
သာရ	-9.41905
▁ပဟာတဗ္ဗော	-9.41943
▁ဣဒ္ဓိ	-9.41996
▁ဘယ	-9.42024
▁မဇ္ဈိမ	-9.42045
ဝသ္သ	-9.42071
▁ကမ္မသ္သ	-9.42143
▁အနာပတ္တိ။	-9.42268
▁ဘဝန္တိ	-9.42272
▁ရ	-9.42373
▁နိစ္စံ	-9.42386
▁သုတ္တေ	-9.42482
ဝိသေသ	-9.42595
ဒသ္သန	-9.42774
▁ဒု	-9.4278
ဓမ္မေ	-9.42879
▁ဘင္ဂက္ခဏေ	-9.42885
မိဝ	-9.42891
▁ဝိသ	-9.42918
မယံ	-9.42942
▁သမယံ	-9.42943
ဃ	-9.43022
▁ကပ္ပေ၊	-9.43037
▁စဝန္တာနံ	-9.43205
▁အဋ္ဌာရသ	-9.43239
မသ္သ	-9.43251
ဝဂ္ဂ	-9.43275
▁သာသနေ	-9.4331
စိတ္တံ	-9.43347
▁ပညတ္တိ	-9.43396
ိတေ	-9.43483
▁ကာယံ	-9.43563
▁ဟေတူ	-9.43616
▁သုခာယ	-9.43709
ဉ္စာတိ	-9.43725
ခ	-9.43768
▁အကုသလ	-9.43931
▁တမေဝ	-9.43937
ာနိ၊	-9.4397
▁အဓိ	-9.44022
▁အာပတ္တိယာ	-9.44127
ကိစ္စံ	-9.44183
ဂတ	-9.44306
▁အဋ္ဌကထာယံ	-9.44351
နိဒ္ဒေသဝဏ္ဏနာ	-9.44449
ပာဒ	-9.4453
▁သောပိ	-9.44587
ဂ	-9.44712
▁ဓမ္မေန	-9.44843
သ္သာပိ	-9.44856
န္တိအာဒိနာ	-9.44877
ောမနသ္သိန္ဒ္ရိယံ	-9.44881
ေယ္ယုံ	-9.4507
ဘယ	-9.45163
▁ဗောဓိ	-9.45171
▁အတီတံ	-9.45211
ဒ္ဝာရ	-9.45251
▁ဝာစာ	-9.45267
▁ဝုတ္တဉ္ဟေတံ	-9.45271
▁မဟန္တံ	-9.45412
ဆ	-9.4542
▁ပာစိတ္တိယ	-9.45424
▁ဘာဝ	-9.45441
မေဝ။	-9.4545
▁ဘိက္ခုနိယာ	-9.45507
▁စန္ဒ	-9.45522
▁သမ္ပယုတ္တကာနံ	-9.45548
▁ပဓာန	-9.45619
▁ပုဋ္ဌော	-9.45647
ိသ္သာမီ	-9.45652
ဘိက္ခု	-9.45719
န္န	-9.45737
▁မဟာဘူတေ	-9.45791
▁ရေ	-9.45917
ိတံ။	-9.46042
မယ	-9.46042
ဝာရ	-9.46099
ဇ္ဈ	-9.46136
▁အသ္သာတိ	-9.46146
▁ကမ္မပစ္စယေန	-9.46192
▁ကုတော	-9.46243
▁ပညတ္တံ။	-9.46248
▁ဣတ္ထီ	-9.46276
▁ကရောတီတိ	-9.46279
▁အညထာ	-9.46407
▁ဘဝိသ္သတီ	-9.46487
▁ပဝိသိတ္ဝာ	-9.46553
▁ဘူမိ	-9.46626
▁လ	-9.46663
ဝရ	-9.46685
▁အထသ္သ	-9.46715
ီဟိ	-9.46742
တ္ထေရော	-9.46808
ကုသလံ	-9.46822
▁ဝန္ဒိတ္ဝာ	-9.46883
▁ကထာ	-9.46977
▁အာပဇ္ဇတိ။	-9.47076
▁ဥပ္ပာဒ	-9.47168
ပရ	-9.47209
ပညတ္တိ	-9.47245
▁ပာစိတ္တိယသ္သ။	-9.47288
ာမ	-9.47289
ထာ	-9.47347
▁၁၂	-9.47359
ပုဗ္ဗ	-9.474
သဟဇာတ	-9.47421
နီယ	-9.47571
▁အညတရံ	-9.47661
▁ဝဇ္ဇ	-9.47694
▁နောဝိဂတေ	-9.47821
ကာနံ	-9.47835
▁အာရောစေသုံ။	-9.47942
နိမိတ္တ	-9.47942
▁ဒသ္သေတိ	-9.47992
▁ဒိန္န	-9.47997
▁ဘိက္ခူဟိ	-9.4803
ဘူမိ	-9.48115
တ္တယ	-9.48123
▁ဥပ္ပတ္တိ	-9.48151
ပီ	-9.4816
▁အညေန	-9.48235
▁စိတ္တေ	-9.48258
ဗ္ဗ	-9.48318
ဟာရ	-9.4832
ယတော	-9.48336
သီတိ	-9.48369
▁ဒိန္နံ	-9.48377
▁စေတသာ	-9.48387
နိဒ္ဒေသော	-9.48439
▁ဧဝမ္ပိ	-9.48532
▁ဇီဝိတိန္ဒ္ရိယံ	-9.48631
▁ကိစ္စ	-9.48689
ယတိ	-9.48766
▁အသညသတ္တာနံ	-9.4877
ပုပ္ဖ	-9.48792
▁ဇာတ	-9.4886
▁ဗ္ရာဟ္မဏာ	-9.48949
▁ဓာတုယော	-9.49027
▁စတုတ္ထံ	-9.49032
▁နန္ဒ	-9.49035
▁နိမိတ္တ	-9.49088
ဒေသ	-9.49093
▁ဗန္ဓ	-9.49174
▁ဇိန	-9.49234
▁ဧကသ္သ	-9.49381
▁နာမာတိ	-9.49481
▁အာသိ	-9.49495
နယ	-9.4968
▁ဧဝဉ္စ	-9.49711
ဂတော	-9.49745
▁ဇာတော	-9.49827
▁အာပဇ္ဇတိ	-9.49885
ဓိ	-9.49993
တ္ဝာ	-9.50085
သမ္ပတ္တိ	-9.50088
▁ပသာဒ	-9.50115
▁ဂာထာယော	-9.50132
▁သင္ဃေန	-9.50152
▁နဝိပ္ပယုတ္တေ	-9.5022
ဝာရော	-9.50274
▁ဝဒတိ	-9.50286
▁သန္တော	-9.50352
▁ဝိဟာရံ	-9.50367
▁အရိယသာဝကော	-9.50392
▁ဒုက္ကဋံ။	-9.50476
ာကာရ	-9.50512
▁အာဂတော	-9.50548
ာဟ	-9.50675
ာယာတိ	-9.50693
▁မဏိ	-9.5079
▁သမုဋ္ဌာတိ	-9.50791
▁ဆန္နံ	-9.50811
သ္မိ	-9.5082
▁ဘူတ	-9.50862
▁ပဏ္ဍိတော	-9.50926
▁ဧတေသံ	-9.50958
▁ယာနိ	-9.51018
▁ဇီဝိတံ	-9.51102
ဂ္ဂဟဏေန	-9.51119
▁ဗာလ	-9.51153
▁ဧတရဟိ	-9.51174
▁ခုဒ္ဒက	-9.51259
▁စောရ	-9.51378
▁နဂရံ	-9.5151
▁ပဝတ္တေ	-9.5154
▁ဝိဟာရေ	-9.51596
▁သေနာသနံ	-9.51644
▁ကသ္သ	-9.51708
▁သဟဇာတပစ္စယေန	-9.5178
အထ	-9.51895
▁ကိဉ္စာပိ	-9.51967
▁စူဠ	-9.52013
သန္တိ	-9.52022
တ္ဝေဝ	-9.52029
▁အညာ	-9.52188
▁ဂဏ္ဟ	-9.52261
▁သုဒံ	-9.52471
▁ပနသ္သ	-9.52509
သဒိသ	-9.52631
ကာ။	-9.52693
▁ဂ	-9.52844
▁ဘိယ္ယော	-9.52923
▁အရိယ	-9.52942
▁ပာစိတ္တိယံ	-9.52993
▁အဘိဝာဒေတ္ဝာ	-9.53035
အဝိဂတ	-9.5327
ဘ	-9.53311
▁ရတန	-9.53335
ဇာတိ	-9.53688
ိတာ။	-9.5372
▁နီလ	-9.53888
▁သာရိပုတ္တော	-9.53925
▁နိရောဓ	-9.53954
▁ကာမရာဂာနုသယော	-9.54107
▁ရူပက္ခန္ဓော	-9.54198
ဂ္ဂဟဏ	-9.54257
ဝေ	-9.54276
▁ပနေတံ	-9.54288
▁ဒုက္ခာယ	-9.54294
ေထ	-9.54356
▁အာဟာရေ	-9.54374
▁အညသ္သ	-9.54694
▁ဗလဝ	-9.54747
▁အဗ္ယာကတံ	-9.54858
▁ဆိန္န	-9.55118
ေသုပိ	-9.55165
▁ပာစိတ္တိယံ။	-9.55184
▁သိ	-9.55213
ယသ္သ	-9.55292
▁ပဗ္ဗဇိတ္ဝာ	-9.55301
▁လောကိယ	-9.55346
▁ကတေ	-9.55361
ယေဝာတိ	-9.55375
ပစ္ဆာဇာတေ	-9.55446
▁ယုတ္တ	-9.55451
▁ဂစ္ဆန္တိ	-9.55535
▁တိဏ	-9.5556
▁အာယတိံ	-9.55604
▁မဂ္ဂသ္သ	-9.55709
▁ဗ္ယဉ္ဇန	-9.55782
မာနံ	-9.5593
▁ဂာထာယ	-9.56019
ဂော	-9.56034
▁ပုထု	-9.56044
▁သောမနသ္သ	-9.56187
ုပ္ပတ္တိ	-9.56339
▁ဟေတုံ	-9.56414
▁ဝဒာမိ	-9.56461
▁ဝိပာကံ	-9.56548
မိဒံ	-9.56559
ာဒိတော	-9.56588
သူ	-9.56592
ရတန	-9.56622
▁ဒေဝာနံ	-9.56667
ဒာနံ	-9.56692
▁ပုစ္ဆ	-9.56744
▁ယက္ခ	-9.57132
▁လောဘ	-9.57188
▁မဟ	-9.57302
သမာဓိ	-9.57328
တာတိ	-9.57421
ဘာသ	-9.57485
▁နေဝဒသ္သနေန	-9.57564
▁သမ္ပဇာနော	-9.57581
မေတံ	-9.57683
ယံ။	-9.57724
္ယ	-9.57851
▁ဝိသေသော	-9.57863
▁ကာမရာဂာနုသယ	-9.58018
ဝိဟာရ	-9.58096
ာပေတိ	-9.58105
▁သဂ္ဂ	-9.5814
▁ဂဟေတဗ္ဗံ။	-9.58267
မန္တ	-9.58349
▁ပုရိသသ္သ	-9.58352
▁ဧ	-9.58385
ပုစ္ဆာ	-9.58389
နာ။	-9.58449
▁အာကာသေ	-9.58472
▁ခန္ဓော	-9.58492
▁ရူပသ္သ	-9.58494
▁နိရ	-9.58495
မေဝာတိ	-9.58502
ရတ္တ	-9.58515
ုံ	-9.58516
▁ပဋိသန္ဓိ	-9.58568
▁ဥဒပာဒိ	-9.58579
▁ဘယံ	-9.58629
သီသ	-9.58694
▁မဂ္ဂေ	-9.5871
ပ္	-9.58728
ဝုတ္တိ	-9.58767
ကုသလော	-9.58805
▁လောကသ္သ	-9.58811
▁ဥပ္ပဇ္ဇိသ္သတီတိ	-9.58827
▁တတ္ထာတိ	-9.58834
▁သုဘ	-9.5892
▁ကာလေန	-9.58944
ဂဏ	-9.58949
▁နာဂသေန	-9.5899
▁ကရ	-9.59
▁ကထ	-9.59045
ဝန	-9.59136
▁သီဟ	-9.59146
▁အသတိ	-9.5916
ဘာဝတော။	-9.59162
ဘတ္တ	-9.59282
▁ဒိဝသေ	-9.59317
ဘော	-9.59419
▁ဒုတိယေ	-9.59475
▁ခန္ဓေဟိ	-9.59492
ယော။	-9.59497
▁ပဋိဃာနုသယော	-9.59576
▁ဓမ္မာယတနံ	-9.59595
▁၁၃	-9.59601
ဂန္ဓ	-9.59731
ဂမန	-9.59864
▁မေတ္တာ	-9.59913
▁ပာဒေ	-9.59926
ာပန	-9.59942
သာဓု	-9.6
▁နဝိပာကေ	-9.60021
ဘာဝနာ	-9.60132
ေသု။	-9.60143
▁ဝဒေယ္ယ	-9.60178
▁ဝိတက္က	-9.6018
▁ကာမေ	-9.60181
ိသ္သ	-9.60226
▁ဘိန္န	-9.60258
▁ဥတ္တရိ	-9.6026
▁ဘဝေယ္ယ	-9.60358
▁စိန္တေတ္ဝာ	-9.60412
▁နအာသေဝနေ	-9.60654
▁ဒိဝာ	-9.60728
▁ဝိတက္ကော	-9.60837
သတ	-9.60855
▁ပစ	-9.60892
▁နိသ္သဂ္ဂိယံ	-9.60918
ဝဋ္ဋ	-9.60966
▁အာဟာရ	-9.60983
▁ဌာနေသု	-9.61064
ဇ္ဈာန	-9.61119
▁သဘာဝ	-9.61238
မတ္တမေဝ	-9.61248
▁အဝိ	-9.61278
▁နပုရေဇာတေ	-9.61298
▁ကရိတ္ဝာ	-9.61399
ပုည	-9.61413
ဘောဂ	-9.61452
▁ဣတ္ထံ	-9.61461
▁ဒဏ္ဍ	-9.6153
▁သေယ္ယထိဒံ	-9.61553
ဗန္ဓ	-9.61595
▁သက္ကောတိ	-9.61662
▁ပဋိပန္နော	-9.61734
ဟေတုယာ	-9.61735
▁ဉာဏေန	-9.61736
▁ခဏ	-9.61807
သုတ္တာဒိဝဏ္ဏနာ	-9.61876
ဓာရ	-9.61931
▁ဝီသတိ	-9.61979
▁အဇ္ဈတ္တ	-9.62013
▁ပိတု	-9.6202
▁အာဟရ	-9.62036
▁နကမ္မေ	-9.62282
▁အနာ	-9.62311
▁သင္ဃေ	-9.62374
▁ဝဏ္ဏော	-9.62435
ဝိပ္ပယုတ္တ	-9.62504
▁ဝဋ္ဋတီ	-9.6253
ာမီ	-9.62532
▁အဓိပတိယာ	-9.6264
▁ဣတ္ထိ	-9.62695
▁အာစရိယ	-9.62724
▁အရိယာ	-9.62764
▁ဝိဂတ	-9.62881
▁ဘဝတိ	-9.62986
သူတိ	-9.63026
▁ယောဇနာ	-9.63083
▁ဧဝ။	-9.63198
▁နိသီဒိတ္ဝာ	-9.63204
▁၁၄	-9.63221
▁ဥပ္ပန္နာ	-9.63377
▁ပုရိသိန္ဒ္ရိယံ	-9.63528
ကရော	-9.63588
မလ	-9.63593
▁အာသဝာနံ	-9.63607
▁အယ	-9.63779
မတ္တေ	-9.63842
▁သေဋ္ဌ	-9.63873
▁အနိဒသ္သနအပ္ပဋိဃ	-9.63901
ေဟီ	-9.63995
▁မန္တ	-9.6404
နိဒ္ဒေသေ	-9.64043
ဒ္ဓ	-9.64059
▁ကာဠ	-9.6414
▁ပဒုမ	-9.64171
▁ဝိဇ္ဇတိ။	-9.64221
▁ဂရဟ	-9.64256
▁စက္ခုံ	-9.64397
▁ပဝတ္တာ	-9.64559
ဝာရေ	-9.64593
▁အနုလောမ	-9.64625
ကိလေသ	-9.64635
▁ဒိဋ္ဌိယာ	-9.64636
▁သစ္စာနိ	-9.64695
▁နဒီ	-9.64865
ာဒိကေ	-9.64887
▁ဗဟုံ	-9.64914
▁ဂဏ္ဟာတိ	-9.64923
▁သတံ	-9.64966
▁အနာဂတ	-9.65011
ဉာဏံ	-9.65079
▁လောကုတ္တရ	-9.65111
▁ပဟီနာ	-9.65111
▁ဗာလော	-9.65158
▁ဝိစိကိစ္ဆာ	-9.65215
ိသ္သာမိ	-9.65217
▁ဧတဒဟောသိ	-9.65235
▁ပကတူပနိသ္သယော	-9.65236
ကတ	-9.65241
▁ဌာန	-9.65289
တဒာ	-9.65332
ပ္ပတ္တော	-9.65399
ီယ	-9.65428
ကန္တိ	-9.65515
ကထဉ္စ	-9.65544
▁ပရိဇာနာတိ	-9.65665
နယော	-9.65723
▁ပာဌော	-9.65764
ိတတ္တာ	-9.65823
စိတ္တသ္သ	-9.65857
▁ဝုစ္စန္တိ	-9.65902
▁ပဟာနာယ	-9.65924
ေနပိ	-9.6597
▁၅၉	-9.65996
▁ဓနံ	-9.66052
▁အကတ္ဝာ	-9.66127
ဝဂ္ဂဝဏ္ဏနာ	-9.66179
ဘန္တေ	-9.66205
▁ပဋိဝိရတော	-9.66243
▁ဃဋ	-9.66307
ပစ္စယော	-9.66333
တောပိ	-9.66349
▁တာတ	-9.66381
▁တဏ္ဟာယ	-9.66518
▁အလံ	-9.66562
▁အဓိဋ္ဌာန	-9.66592
သု။	-9.66639
▁ဇာတိယာ	-9.66705
▁အယမေဝ	-9.66756
▁ဘုဉ္ဇ	-9.66822
▁ဥပနိသ္သာယ	-9.66856
▁ကိလေသာ	-9.66886
ဟတ္ထ	-9.66892
▁သမတ္တာ။	-9.66895
ယောဂ	-9.66975
▁သီသ	-9.66987
မော	-9.6706
သမ္ပန္နော	-9.67074
ပုတ္တ	-9.67137
▁ဟေတုသ္သ	-9.67178
▁စေတသော	-9.67225
နဋ္ဌေန	-9.67366
▁ကောဓ	-9.67467
သရ	-9.67512
▁အာမန္တေသိ	-9.67545
▁ဇာတာ	-9.67563
▁ဝတ္ထ	-9.67688
▁ဝု	-9.6769
▁ကေသ	-9.67724
သမုဋ္ဌာန	-9.67726
ိ၊	-9.6773
▁ဂရု	-9.67795
လိင္ဂ	-9.67867
▁ဇာလ	-9.67882
ဝသေနာတိ	-9.67953
▁ဝတ္တုံ	-9.67987
▁ပဉ္စသု	-9.68007
▁ပဝိသ	-9.68014
အာဒယော	-9.68019
ဒသ	-9.68099
▁ကဒာစိ	-9.68145
▁တသ္သတ္ထော	-9.68301
ဣမေ	-9.68451
တ္တေ	-9.68473
▁ဥပေက္ခိန္ဒ္ရိယံ	-9.68531
ကိရိယာ	-9.6859
▁တမ	-9.68595
တတော	-9.68696
ဒုကံ	-9.68789
▁အနိစ္စတော	-9.68843
ညေဝ	-9.68931
▁တမတ္ထံ	-9.68952
တူ	-9.68968
▁ဂစ္ဆတီတိ	-9.6905
▁စက္ကဝတ္တီ	-9.69058
▁ပရိဒေဝ	-9.69124
▁ပဗ္ဗတ	-9.69176
အနုဇာနာမိ	-9.69205
▁ပစ္ဆိမာနံ	-9.69269
▁ပဇဟတိ	-9.6929
▁ဥပာလိ	-9.69386
▁ခဏေ	-9.69431
▁အနုသယာ	-9.69459
▁ရာဇာနံ	-9.69582
▁ပရော	-9.69599
▁ပူရ	-9.69685
▁အဟံ။	-9.69693
▁ဒသ္သ	-9.69712
▁ဇနာ	-9.69797
▁ပဟာန	-9.69829
ပစ္စ	-9.69837
▁အန္တ	-9.69879
ိနော။	-9.69888
▁ပာဏ	-9.69914
နာတိ	-9.69916
ရာဂ	-9.70075
▁ဂမ	-9.7012
▁မုနိ	-9.70199
တ္ယ	-9.70234
▁တုယ္ဟံ	-9.70275
အတ္ထ	-9.70403
▁ခာဒ	-9.70432
▁သီတ	-9.70453
▁ဝေဒ	-9.70464
ိတော။	-9.70505
တရော	-9.70554
▁ပုညံ	-9.70561
▁စေတံ	-9.70563
နက	-9.70566
ဂာမ	-9.70588
ဗန္ဓန	-9.70591
▁အယမေတ္ထ	-9.70609
▁ပုစ္ဆိတ္ဝာ	-9.70685
▁သညာက္ခန္ဓော	-9.70726
▁၁၅	-9.70879
ာရမ္မဏံ	-9.70885
▁မဟန္တ	-9.70903
▁ဒုတိယော	-9.70907
▁ပရိပုဏ္ဏ	-9.70997
▁ဉာတိ	-9.71054
▁ဣမာယ	-9.71056
တ္ထာ	-9.71065
▁ဟီ	-9.7107
ယိတ္ဝာ	-9.71098
▁ဂမန	-9.71099
▁နိမိတ္တံ	-9.71112
ပဏ္ဏ	-9.7114
▁နိသ္သယ	-9.71386
တ္ထိ	-9.71391
▁သယမေဝ	-9.71552
▁ဇရာ	-9.71592
ပသ္သ	-9.71633
▁အက္ခ	-9.71742
▁အာဂမ	-9.71754
▁၅၇	-9.7178
▁ပုဂ္ဂလ	-9.71793
▁ဧတ္ထာပိ	-9.71817
▁ဥပ္ပန္နော	-9.71826
▁မနာယတနံ	-9.71853
▁ကထဉ္စ	-9.71917
▁ဃာနိန္ဒ္ရိယံ	-9.72025
ဝာဒီ	-9.72036
▁ဗုဒ္ဓာနံ	-9.72072
▁ပညိန္ဒ္ရိယံ	-9.72077
▁အတိဝိယ	-9.72177
▁ကာမာဝစရ	-9.72309
▁အဒာသိ။	-9.72321
▁အသုဘ	-9.72419
နတ္ထိယာ	-9.7243
▁ဣဓေကစ္စော	-9.72581
▁ကိလေသေ	-9.72596
ာသု	-9.7265
နေ။	-9.72714
▁ကာယသင္ခာရော	-9.72724
ဝိဓ	-9.72801
ယိ။	-9.72809
▁အတိရေက	-9.72899
ီ။	-9.72909
ဇန	-9.72922
▁အညတ္ထ	-9.72968
▁ဂတ	-9.72982
▁သတ္တရသ	-9.73017
▁ဂာမံ	-9.73347
▁တသ္သုဒ္ဒာနံ	-9.73353
ေယ္ယံ	-9.73406
▁၅၆	-9.73409
▁တထ	-9.73482
▁၁၆	-9.73567
ဝတ္ထ	-9.73573
▁အမတ	-9.73698
မတ္တေန	-9.73713
ဟီတိ	-9.73749
▁၂၂	-9.73766
▁ဣတ္ထိန္ဒ္ရိယံ	-9.73773
မ္ဟ	-9.73801
▁ဝာစံ	-9.73895
သတိ	-9.73956
▁ပာရာဇိက	-9.73971
▁ရထ	-9.73988
ေတီ	-9.74006
▁ဇာတကံ	-9.74029
▁အာယု	-9.741
▁အဘာသိ	-9.74145
က္ခန္ဓ	-9.74196
▁ဝိတ္ထာရေန	-9.74259
လ္လ	-9.74272
▁အဟေသုံ	-9.74296
▁ဟီန	-9.74309
သင္ဃ	-9.74331
▁ဣဒမ္ပိ	-9.74368
သုခံ	-9.74372
▁အပ္ပဋိ	-9.7451
▁ကသ္သပ	-9.74524
▁နုပ္ပဇ္ဇတိ	-9.74594
▁ပဟာတဗ္ဗဟေတုကော	-9.74602
▁တဉ္ဟိ	-9.74699
ေသု၊	-9.74711
▁ပန္နရသ	-9.74738
▁သရီရံ	-9.74765
ယိ	-9.74839
သဟ	-9.74866
မံ	-9.74882
▁ဝေဒနံ	-9.749
▁ဒိဋ္ဌေဝ	-9.74925
▁အရညေ	-9.74945
နော။	-9.74981
▁ပဟီနော	-9.75021
▁အဝိဇ္ဇာနုသယ	-9.75055
▁သဒ္ဓိန္ဒ္ရိယံ	-9.75099
▁မဟာသတ္တော	-9.75106
ေတဗ္ဗ	-9.75119
သေယ္ယထာပိ	-9.75157
▁ဗီဇ	-9.75202
▁ပာဌော။	-9.75338
▁ဥပ္ပဇ္ဇိတ္ထာတိ	-9.7548
ကုသလ	-9.75511
▁လဘိတ္ဝာ	-9.75548
▁အတ္တနိ	-9.7556
သတာနိ	-9.75569
ာမီတိ	-9.7559
▁မိစ္ဆာဒိဋ္ဌိ	-9.75596
▁မရဏံ	-9.75706
▁ဒောမနသ္သံ	-9.75711
▁နိက္ခမိတ္ဝာ	-9.75724
န္တာနံ	-9.75738
▁ရောဂ	-9.75778
ေယေဝ	-9.75805
ပုဂ္ဂလ	-9.75814
ကာရီ	-9.7583
▁သမ္ပ	-9.75872
ကာလော	-9.7591
ဩ	-9.75959
▁အာဂတာ	-9.76014
▁ဘာသ	-9.76048
▁ပဗ္ဗဇိတော	-9.76053
▁သမံ	-9.76104
▁ဂဟဏ	-9.76169
▁သတ္ထာရံ	-9.76185
ဟိတ	-9.76218
▁ဝဏ္ဏံ	-9.76281
သင္ခာတ	-9.76287
▁၆၇	-9.76309
▁ပရတော	-9.76322
န္တိအာဒီသု	-9.76323
▁ဧတသ္မိံ	-9.76338
▁စက္ခုနာ	-9.76387
ရာ	-9.7646
▁ပုညာနိ	-9.76476
▁မုတ္တ	-9.76522
ယ္ယ	-9.76556
ဝာတိ	-9.76692
သစ္စ	-9.76709
▁ကေ	-9.76761
▁ဥတု	-9.7677
▁ပယောဂေ	-9.76787
▁မဓုရ	-9.76927
▁ဣတရေသံ	-9.76929
တ္ထေရသ္သ	-9.76933
ဘဏ္ဍ	-9.7698
ဃာတ	-9.76996
▁အညမည	-9.77078
▁သဒ္ဒံ	-9.77078
▁ဝေဒနာသု	-9.7709
ဒံ	-9.77117
ဝိညာဏ	-9.77229
▁နယ	-9.77245
သမ္ပတ္တိယာ	-9.77259
▁ဂန္ထ	-9.77307
▁ကာမေဟိ	-9.77316
ကရဏံ	-9.77341
▁တဟိံ	-9.77417
▁ရူပာနိ	-9.77422
▁ပဌမေ	-9.77425
▁ဣမေသု	-9.77466
▁အနန္တရေ	-9.77473
တုံ	-9.77527
▁ကတိဟိ	-9.77534
▁နာဘိဇာနာမိ၊	-9.77552
▁ဥဒ္ဒေသ	-9.77724
▁သဟဇာတံ	-9.77741
▁အဟမေဝ	-9.77744
▁ပရိတ္တ	-9.77767
▁ဆန္ဒော	-9.7782
▁အကာသိ။	-9.77919
▁ဂိဟိ	-9.78026
ာဒီသုပိ	-9.78035
▁သမုဒယော	-9.78088
▁ဧတေနာတိ	-9.7811
▁ဌိတံ	-9.78126
▁လိင္ဂ	-9.78144
စိ	-9.78206
▁ဝသ္သာနိ	-9.78212
▁ဘတ္တံ	-9.7825
လက္ခဏာ	-9.78271
▁ဇလ	-9.78291
▁ယာစ	-9.7832
ီယတီတိ	-9.78326
▁ပိဝ	-9.78428
သညာယ	-9.7848
▁နာမရူပ	-9.78482
▁ကတော	-9.78498
▁ရတ္တ	-9.78502
▁ဒုသ္သ	-9.78667
▁တိံသ	-9.78677
▁ဝိပာကေ	-9.78725
▁ဝိဝေက	-9.78759
▁ယောဇေတဗ္ဗံ။	-9.78784
▁မင္ဂလ	-9.78812
▁အနုသာသ	-9.78813
▁ဂာထံ	-9.78826
ာမိ၊	-9.7891
ာကာရေန	-9.78915
▁ဧကံ။	-9.78922
▁ဗ္ရာဟ္မဏသ္သ	-9.79013
▁၁၇	-9.79078
▁ဒီပေတိ။	-9.79202
ဘာဂ	-9.79206
▁ဂတာ	-9.79249
▁တရ	-9.7925
▁သစ္စိကဋ္ဌပရမတ္ထ	-9.79309
▁၅၈	-9.79323
▁ရူပေ	-9.79345
▁သဟဇာတ	-9.79355
▁ယာယ	-9.7937
နတ္ထိ	-9.79415
▁မံသ	-9.7943
▁မာနာနုသယော	-9.79463
▁ဝိတ္ထာရတော	-9.79509
▁ဒုက္ကဋ	-9.79519
စိတ္တသမုဋ္ဌာနဉ္စ	-9.79539
▁နိရောဓော	-9.79597
ဋ္ဌံ	-9.79679
▁နိရုဇ္ဈိတ္ထ	-9.7977
နိမိတ္တံ	-9.79794
▁ဝိဒိတ္ဝာ	-9.79915
▁ဧဝမာဒိနာ	-9.79999
▁ကတမာနိ	-9.80009
▁တုဝံ	-9.80052
▁ဂတော။	-9.80085
ဘောဇန	-9.80211
▁ကမ္မေန	-9.80223
▁နသမ္ပယုတ္တေ	-9.80249
စက္ခု	-9.80308
ကာရသ္သ	-9.80363
▁ဝစီသင္ခာရော	-9.80393
▁ပုဏ္ဏ	-9.80427
ေယ္ယာ	-9.80519
▁ကာမဓာတုယာ	-9.80579
▁သိက္ခာပဒံ	-9.80629
▁အမ္ဗ	-9.80638
သတံ	-9.80644
▁နိဝတ္တ	-9.80714
▁အပရဘာဂေ	-9.80719
▁တိသ္သ	-9.80748
ဒ္ဒ	-9.80758
▁အာစိက္ခ	-9.808
▁ပကာသေန္တော	-9.80802
▁အာဝိ	-9.80807
▁သံဝရ	-9.80846
▁ရတ္တိ	-9.80855
▁ဘာသိတံ	-9.8088
နတ္ထာယ	-9.80943
▁ရာဇဂဟေ	-9.8098
▁ဒူရေ	-9.81066
▁၆၁	-9.81081
▁ပုဂ္ဂလံ	-9.81195
▁အာဟာရော	-9.81224
န္ဒ	-9.81225
သဘာဝ	-9.81255
▁လဘ	-9.81297
ကတမေဟိ	-9.81328
▁ဩဘာသ	-9.81336
ုတ္တရ	-9.81356
▁၇၀	-9.81441
ဒာ	-9.81457
▁အာရမ္မဏာဓိပတိ	-9.81503
▁ရတ္တိံ	-9.81575
မံသ	-9.81577
မာသ	-9.81613
▁အရည	-9.81712
▁ကပ္ပိယ	-9.81769
မုခေန	-9.81821
ာယတန	-9.81842
က္က	-9.81849
▁ဝေဒိတဗ္ဗော	-9.81902
▁သမ္မုခာ	-9.81917
▁ဝဒ	-9.81919
▁ဥဒာဟု	-9.81967
ဏံ	-9.81973
▁ဇာနန္တိ	-9.81987
▁အာဂမ္မ	-9.82003
▁ကတာ	-9.82248
▁အရူပ	-9.82295
အနု	-9.82321
ဣမံ	-9.82383
▁ပာသာဏ	-9.82431
▁စာပိ	-9.8249
ဗ္ယ	-9.82493
▁နမဂ္ဂေ	-9.82501
▁၆၅	-9.82593
▁အပရ	-9.82594
▁သေသမေတ္ထ	-9.82608
▁သမဏဗ္ရာဟ္မဏာ	-9.82612
▁သေသာ	-9.82617
▁ဒေသ	-9.82621
မနော	-9.82672
ိကာ။	-9.82687
သ္မိံ၊	-9.82786
ပက္ခ	-9.8279
▁အနန္တ	-9.82799
▁ဧဝဉ္ဟိ	-9.828
▁အကပ္ပိယ	-9.8282
▁ဥဒ	-9.82879
▁အသံကိလိဋ္ဌ	-9.82946
▁အဘာသိတ္ထာတိ။	-9.8308
ေနာ	-9.83109
▁မုခံ	-9.83165
▁သမ္မာသမ္ဗုဒ္ဓော	-9.83171
ဝိသယ	-9.83198
တရံ	-9.83215
သ္သိဒံ	-9.83362
▁ယေဘုယ္ယေန	-9.8339
▁အရိယော	-9.83392
▁ဒိသ္ဝာန	-9.8354
▁သညာယ	-9.83542
▁သမန္တတော	-9.83574
▁ခမ	-9.83616
▁၈၀	-9.83628
▁ဗုဒ္ဓာ	-9.83628
▁ဧဝာတိ	-9.83629
▁အာယတန	-9.83636
▁မုသာ	-9.83666
က္	-9.83669
ကိလေသာ	-9.83697
ဇာ	-9.837
သုဏာတု	-9.83725
▁၆၆	-9.83746
▁၁၈	-9.83817
▁ကမ္မဋ္ဌာန	-9.83938
▁ဧကန္တ	-9.84026
▁တိက	-9.84033
▁ဘဏ	-9.8406
▁သေတ	-9.84083
ရာသိ	-9.841
▁ဝိယာတိ	-9.84125
▁ဌပိတ	-9.8414
▁ယောနိသော	-9.84145
▁ဧကာယ	-9.84165
ဟန	-9.84294
▁၅၅	-9.84361
▁အဓော	-9.84371
▁၆၉	-9.84429
▁နဂရ	-9.84469
▁ပုရေဇာတပစ္စယေန	-9.84582
မာဟ	-9.84622
▁ကုသလသ္သ	-9.84623
▁၇၄	-9.84706
▁သဒ္ဓာယ	-9.84736
▁မန	-9.84747
▁၁၉	-9.84824
မယာ	-9.84904
▁ဧတေသု	-9.84912
ာပတ္တိ	-9.84974
▁အတီတေ	-9.85032
ေသိ၊	-9.8505
▁မာတု	-9.85058
မဇ္ဈေ	-9.85198
▁သာဓာရဏ	-9.85234
▁ဝိပသ္သနံ	-9.85246
ယုတ္တ	-9.85319
▁ရက္ခ	-9.85325
▁ဧဝမေတံ	-9.85362
▁ကမ္မဋ္ဌာနံ	-9.85403
ဝေဒနာ	-9.85433
▁စတုတ္ထံ။	-9.85455
▁သာလ	-9.85504
▁ဃာနာယတနံ	-9.85512
▁ဒုက္ခသစ္စံ	-9.8556
▁၆၂	-9.85566
▁အနန္တရ	-9.85585
ဓမ္မာနံ	-9.85617
▁ဟရ	-9.85652
▁သမထ	-9.85668
▁သာဝက	-9.85684
▁ဒဠ္ဟ	-9.85692
ာဓိပတိ	-9.8576
▁သရဏ	-9.85807
▁ကေဟိစိ	-9.8584
ရတော	-9.85898
▁အဇ	-9.85904
▁ဘောဂ	-9.85906
▁ဒန္တ	-9.85963
▁ဒေဝော	-9.85997
▁ရူပဓာတုယာ	-9.86043
လောမ	-9.86052
▁ဥပ္ပဇ္ဇန္တိ။	-9.86106
▁ပဉ္စမံ။	-9.8615
သဒိသံ	-9.86171
▁ကရုဏာ	-9.86242
▁ထ	-9.86246
▁၆၈	-9.86257
▁ကုလေ	-9.86284
▁ဗာဟိရ	-9.86304
▁နိရယံ	-9.86317
▁၆၀	-9.86329
ိသ္သတီ	-9.86345
ာဒိကံ	-9.86366
▁အန္တမသော	-9.86397
ဒုက	-9.86405
▁ကိရိယာ	-9.86592
▁တတိယေ	-9.86596
နာယ	-9.86629
▁၂၀	-9.8663
▁ဂစ္ဆေယ္ယ	-9.86651
▁ဥပောသထ	-9.86653
▁မဓု	-9.86666
▁သမ္ပယုတ္တော	-9.86669
▁ဟန	-9.86757
▁စိန္တေသိ	-9.86774
ိဒံ	-9.86782
▁နိဗ္ဗတ္တော	-9.86802
▁ဧကစ္စေ	-9.86942
တ္ရ	-9.8699
▁ဝိညာဏက္ခန္ဓော	-9.8711
▁ဥပလဗ္ဘတိ	-9.87124
▁ဟိတ	-9.87158
▁သုခာ	-9.87201
မနု	-9.87282
▁နာသ	-9.87335
▁အပာယ	-9.8737
▁ဣစ္ဆ	-9.87422
ထ။	-9.87587
▁ဥပနိသ္သယေ	-9.87588
▁ပရိဝတ္တ	-9.87694
▁သဟဇာတာ	-9.87769
▁ပဏ္ဍိတာ	-9.87879
▁အဟေသုံ။	-9.87937
▁ဒုတိယံ။	-9.87958
▁၂၁	-9.88117
▁နေက္ခမ္မ	-9.88124
▁အဒာသိ	-9.88126
▁စရတိ	-9.88146
ိတုကာမော	-9.88154
နတ္ထံ	-9.88211
▁သဟဇာတေ	-9.88253
▁နဥပနိသ္သယေ	-9.88342
▁ခတ္တိယ	-9.88387
▁ဥပာဒာန	-9.88422
တဏ္ဟာ	-9.88446
▁လောဘော	-9.88464
▁ဧဝမာဟ	-9.8848
▁မိတ္တ	-9.88513
ိတဗ္ဗံ။	-9.88585
▁ဟေတုပစ္စယော	-9.88598
▁ဥဒကေ	-9.88633
▁ဟတ္ထေ	-9.88651
ေက	-9.88674
▁အနဝဇ္ဇ	-9.88729
▁အက္ကောသ	-9.88858
▁သဒ္ဒော	-9.88894
▁သမန္တာ	-9.8893
▁ပုတ္တံ	-9.88934
▁ရူပံ။	-9.88954
▁ဘောဇန	-9.89003
▁ပရိဝာရ	-9.89025
ဒ္ဝယ	-9.8905
▁ဒ္ဝိဓာ	-9.89063
ဝတီ	-9.89082
▁နိသ္သယေ	-9.89102
▁မုဉ္စ	-9.8922
▁အဘာဝတော	-9.89318
▁ဟဉ္စိ	-9.89358
▁သုစိ	-9.89381
သင္ခာတာ	-9.89393
▁သင္ခာရက္ခန္ဓော	-9.89404
▁သန္တေ	-9.89408
▁သာမည	-9.89474
▁တုဏ္ဟီ	-9.89513
▁ပစ္ဆိမဘဝိကာနံ	-9.8954
နေဝ	-9.89552
ကေဟိ	-9.89667
▁မနုသ္သာနံ	-9.89679
▁လောဟိတ	-9.89732
▁ပုစ္ဆိ။	-9.89761
▁လာဘ	-9.8979
▁ဘိက္ခုသ္သ	-9.89825
▁မိစ္ဆာ	-9.89869
▁ဝိဟရ	-9.89944
▁ဝိမုတ္တိ	-9.90034
▁ဈာနေ	-9.90108
ေမိ	-9.90126
▁သဗ္ဗော	-9.90177
ဧဝ	-9.90246
▁ဂိလာန	-9.90257
▁အညေသံ	-9.90258
▁၂၃	-9.90263
▁၉၀	-9.90283
နဈာနေ	-9.90313
▁ဂစ္ဆန္တော	-9.90351
▁ပသ္သတိ။	-9.90363
▁သီသံ	-9.90386
▁ဘာဝိတာ	-9.90389
ဝံသ	-9.90414
▁ပူရေတ္ဝာ	-9.9045
▁ဣမိသ္သာ	-9.90455
▁သေဝ	-9.90457
▁က္ဝစိ	-9.90502
ဗ္ဘ	-9.90551
▁သန္ဒ	-9.90557
မာဟ။	-9.90562
▁ပဏ္ဍိတ	-9.90697
▁ပဗ္ဗဇ္ဇာ	-9.90699
ဇာန	-9.90748
▁မဂ္ဂေန	-9.90849
▁ဘဝော	-9.90864
▁စုဒ္ဒသ	-9.90871
▁အနိစ္စံ	-9.90895
ာရဟ	-9.90926
▁ဘရိယာ	-9.90929
▁ယေဟိ	-9.90932
▁နိရယ	-9.91023
ပုရိသ	-9.91165
ဒေသနာ	-9.91165
▁ဥဏ္ဟ	-9.91182
အဟော	-9.91186
▁ဣရိယာပထ	-9.91191
ာနေဝ	-9.91192
▁၈၆	-9.91209
▁ဇာနာမိ	-9.91291
ကောဋိ	-9.91348
▁ကာလော	-9.91422
▁သံသာရ	-9.91428
ဝဇ္ဇ	-9.91451
▁သေနာသန	-9.9151
▁၈၃	-9.91597
ာရ	-9.91608
မဂ္ဂော	-9.91614
▁သမ္	-9.91617
▁အဘိညာယ	-9.91669
ရုက္ခ	-9.91691
ပဉ္ဟော	-9.91697
▁ဒက္ခိဏ	-9.91711
န္တိပိ	-9.91712
▁ကာမာ	-9.9173
▁မညေ	-9.91861
▁လဗ္ဘတိ။	-9.91941
▁အကတ	-9.91946
သမယေ	-9.91952
▁အရူပဓာတုယာ	-9.91958
▁ဝိကပ္ပ	-9.92043
▁၈၄	-9.92096
▁အရဟံ	-9.92097
အဘိ	-9.92138
မူလက	-9.92284
အာဒီနံ	-9.92289
ဂ္ဂဟဏံ	-9.92323
▁သဗ္ဗာနိ	-9.92329
▁တတိယံ။	-9.92471
▁မာတာပိတရော	-9.92517
▁ဣတ္ထန္နာမ	-9.9258
▁ဟောတိ၊	-9.92583
▁ဧကေက	-9.92628
▁အနုတ္တရံ	-9.92727
အနန္တရေ	-9.92742
▁မန္ဒ	-9.9277
▁ရမ	-9.92778
▁၇၁	-9.92784
▁၂၄	-9.928
▁ဥဒ္ဒိသ္သ	-9.92811
ကတံ	-9.92816
▁ဝန္ဒ	-9.92868
▁ဘဝိသ္သန္တိ	-9.92903
▁ပရိယာယေန	-9.92968
▁ဝဂ္ဂ	-9.93064
မ္ပီတိ	-9.93067
▁တေနေဝာဟ	-9.9313
▁သမုဒယသစ္စံ	-9.93228
▁ပဇာနာတိ။	-9.9327
▁၇၂	-9.93302
ဟာ	-9.93398
▁သမ္ပယုတ္တာ	-9.93462
ိတ္ထ	-9.93503
သည	-9.93554
▁ဗောဇ္ဈင္ဂာ	-9.93561
▁သဟေတုက	-9.93627
▁ဧဝရူပော	-9.93651
▁ပာပံ	-9.93704
▁ဆဗ္ဗဂ္ဂိယာ	-9.93719
▁သတ္တမံ။	-9.93785
ဝဏ္ဏံ	-9.93799
▁သတ္တေ	-9.938
▁ကာမေသု	-9.93826
▁နိရုဇ္ဈတိ။	-9.93924
လက္ခဏော	-9.93941
▁စိတ္တသင္ခာရော	-9.93976
▁လဗ္ဘတိ	-9.9398
▁တက္က	-9.94015
▁တေပိ	-9.94062
ဝ၊	-9.94079
▁၇၈	-9.94099
▁အဓိကရဏံ	-9.94115
ဏိ	-9.94142
▁၇၅	-9.94161
မနုသ္သ	-9.94196
တိအာဒီနိ	-9.94198
▁ပကာသ	-9.94198
▁ဆသု	-9.94217
▁ကသိဏ	-9.94273
▁အဓိဝစနံ။	-9.94277
▁အတိက္ကမ	-9.9435
▁ပဟာတဗ္ဗံ	-9.94352
ဟီ	-9.94373
▁ဧဝမေတ္ထ	-9.94472
▁၂၅	-9.94475
▁နူန	-9.94492
▁၇၆	-9.9451
ကာနိ	-9.9454
ပုတ္တော	-9.94556
နယေန	-9.94557
▁ဒာတုံ	-9.94566
ဝဂ္ဂေ	-9.94572
ပ္ပဝတ္တိ	-9.94614
ဂာထာ	-9.94689
မီ	-9.94782
▁အသ္သာဒ	-9.94787
▁သမာ	-9.94882
▁ဝစနေန	-9.94907
▁၂၆	-9.94918
▁ဝစ္ဆ	-9.94926
▁ဧတသ္သာတိ	-9.94944
▁ဣဒဉ္စ	-9.94947
ဒု	-9.94987
▁အတ္ထသ္သ	-9.95
▁ဘဇ	-9.95
▁ဒိဋ္ဌံ	-9.95028
▁၇၃	-9.9504
ဂာ	-9.95059
▁ပရိပူရ	-9.95072
ဖလံ	-9.95127
ဝာသ	-9.95168
▁ဒေသေတိ	-9.9523
▁ပဌမော	-9.95253
▁အဋ္ဌာသိ။	-9.95308
▁ဒိသ္သတိ	-9.95313
▁ဧဝမသ္သ	-9.95343
▁ကာရ	-9.95367
▁ဝတ္တဗ္ဗာ	-9.95372
▁ဝီမံသ	-9.95374
ဘေဒော	-9.95404
ဏီ	-9.95407
▁အဒ္ဓာ	-9.95426
▁သဒိသ	-9.95537
ဇဝန	-9.95645
ိံ။	-9.95671
ဂတိ	-9.95672
▁သင္ဂဟ	-9.957
▁သိက္ခ	-9.95719
▁ကရောန္တသ္သ	-9.95727
▁သိယာတိ	-9.95729
▁၁၀၀	-9.95763
▁ပညာယတိ	-9.95779
မဏိ	-9.9581
ဈာန	-9.95886
ပဗ္ဗတ	-9.95929
▁အရူပေ	-9.95941
မုပ	-9.95953
▁ဝတ္ထုဉ္စ	-9.95961
▁ဆဋ္ဌံ။	-9.95968
▁ပက္ခ	-9.96005
▁၇၉	-9.96022
▁ဘဏ္ဍ	-9.96043
▁သတ္တမေ	-9.96082
ဓီ	-9.96097
ီသု	-9.96119
▁ဃရ	-9.96121
▁ဥပ္ပဇ္ဇိတ္ထ။	-9.96149
▁ဒေဝဒတ္တော	-9.96206
ဂ္ဃ	-9.9622
▁ဣသိ	-9.96235
▁၈၂	-9.96286
▁ဘ	-9.96304
▁သင္ဂဏ္ဟာတိ။	-9.96339
▁အဘိနန္ဒတိ	-9.96349
▁ဝိဘဇိတ္ဝာ	-9.96399
အန	-9.96426
▁ပရိသာ	-9.96427
▁ပောသ	-9.96439
▁မုဒု	-9.96476
▁ကရဏ	-9.96487
▁စတုတ္ထေ	-9.96507
▁စေဝ၊	-9.96534
▁အနုပာဒိန္န	-9.96549
▁၈၁	-9.96557
ဒတ္တ	-9.96634
▁ပဒာနိ	-9.96649
▁ဥဠာရ	-9.96654
▁ဝဓ	-9.96686
▁သဒ္ဓမ္မ	-9.96698
▁၂၇	-9.96747
ဇာတော	-9.96779
▁အဗ္ဘ	-9.96788
▁ဂာမေ	-9.96802
နိဒာန	-9.96804
ကာရဏံ	-9.96855
သုတ္တေ	-9.96868
▁နေတံ	-9.969
▁ကိ	-9.96916
▁ဟဒယ	-9.9693
ကတာ	-9.96962
တ္တာတိ	-9.96973
၁၀	-9.97066
နသမနန္တရေ	-9.97129
▁ပနာဝုသော	-9.9717
▁ဒိသ္သတိ။	-9.97231
▁၂၈	-9.97262
▁အဟော	-9.9733
သဒိသော	-9.97512
▁၈၈	-9.97559
ဉ္ဇ	-9.97577
ဒသ္သနတ္ထံ	-9.97582
▁ပမာဏ	-9.97652
▁ဘေသဇ္ဇ	-9.97665
ဇာတ	-9.97685
▁နေဝဝိပာက	-9.97706
▁သုဂတော	-9.97792
▁နိရုဇ္ဈိသ္သတိ။	-9.97799
▁အနာဂတေ	-9.97822
▁၈၉	-9.97854
▁အစ္ဆ	-9.98011
ဇာလ	-9.98042
▁ပဌမဇ္ဈာန	-9.981
ကိရိယ	-9.98112
▁ဝိဇ္ဇမာန	-9.98118
▁ဆိန္ဒ	-9.98236
စေတနာ	-9.98249
▁ဧဝမေဝံ	-9.98269
▁ဗောဓိသတ္တသ္သ	-9.98328
▁သမဏာ	-9.98328
▁ကောဋိ	-9.98407
▁ဒောမနသ္သ	-9.9841
ဝိသ	-9.98468
▁ပုထုဇ္ဇနော	-9.98522
ဝဏ္ဏော	-9.98532
▁အဂမာသိ။	-9.98538
▁အညတရ	-9.98568
▁နိသီဒ	-9.98601
▁သကံ	-9.98627
ကု	-9.98631
▁မစ္ဆ	-9.9864
▁သက္က	-9.98658
▁နမသ္သ	-9.98684
ပရိစ္ဆေဒ	-9.98703
▁ပမာဏံ	-9.98719
▁၂၉	-9.98732
မာရ	-9.98757
▁အဟ	-9.98813
▁ကဏ္ဏ	-9.98969
တန္တိ	-9.98997
▁၃၁	-9.99007
▁ဘိက္ခုနီနံ	-9.99051
▁ဘာသတိ	-9.99062
ရသော	-9.99068
▁နိဒာန	-9.99069
▁တပ	-9.99111
▁ဒသမံ။	-9.99113
▁အဓိကရဏ	-9.99186
ဏ္ဍ	-9.99229
▁အဇ္ဈ	-9.99237
▁အဝိဇ္ဇာနုသယော	-9.99238
▁ကာရေတ္ဝာ	-9.99273
▁ခယ	-9.99342
▁သဋ္ဌိ	-9.99365
▁သစ္ဆိကတ္ဝာ	-9.99393
သမ္	-9.99396
▁မာဏဝ	-9.99437
ဗ္ရဟ္မ	-9.9946
▁အာသဝဝိပ္ပယုတ္တ	-9.99479
▁ဝိနိစ္ဆယော	-9.99559
မမ	-9.99575
▁ပရိနိဗ္ဗာယိသ္သ	-9.99614
▁အဟု	-9.99619
သင္ခ	-9.99693
▁ပဏ္ဏ	-9.99708
ပယောဂ	-9.99849
ကာယော	-9.99884
ဂတာ	-10.0001
▁မဟာဘူတံ	-10.0002
သိ၊	-10.0009
▁နမော	-10.001
▁ဗ္ရဟ္မာ	-10.0014
▁၃၀	-10.0018
တဉ္စ	-10.0023
▁ဆဟိ	-10.0024
▁အာပန္နော	-10.0028
▁ရတ္တိယာ	-10.0029
န္တရေ	-10.0043
ကိ	-10.0052
▁ဝဒာမိ။	-10.0054
▁ဖုသ	-10.0064
သမ္ဗောဇ္ဈင္ဂော	-10.0066
▁ပဂေဝ	-10.0072
▁ဗလံ	-10.0074
▁ဧတာနိ	-10.0081
▁အမတံ	-10.0083
▁အနတ္ထ	-10.0084
▁အညမညေ	-10.0085
သဒိသာ	-10.0087
ေတု	-10.0087
ဣန္ဒ္ရိယ	-10.0087
သေသ	-10.0089
ဝသ	-10.0093
▁မာရော	-10.0094
▁အာနေတ္ဝာ	-10.0094
▁အဋ္ဌမံ။	-10.0095
▁ထေရာ	-10.0096
▁အာသနေ	-10.0099
▁သဟေတုကော	-10.0101
မည	-10.0103
လာ	-10.0105
▁သောဘ	-10.0105
▁ခန္ဓာ။	-10.0106
▁ပသ္သာမိ	-10.0107
▁သမောဓာနေသိ	-10.0111
တ္ထေရဂာထာဝဏ္ဏနာ	-10.0123
▁တေလ	-10.0123
▁ပသံသ	-10.0124
သမ္ဗန္ဓ	-10.0125
ဘာဝသ္သ	-10.0126
▁အနိစ္စာ	-10.0127
ဝိနယ	-10.0128
▁ဒုက	-10.0129
▁ဣဓာပိ	-10.0131
▁ရညာ	-10.0132
▁သဝန	-10.0135
▁နိဗ္ဗ	-10.0136
▁အက္ခရ	-10.0137
▁အဝသေသ	-10.0138
▁အနုကမ္ပ	-10.014
▁တ္ဝ	-10.0142
ရီ	-10.0144
▁သတ္တော	-10.0144
▁ပဋိလဒ္ဓ	-10.015
▁ပဌမံ။	-10.0151
▁ပိဋ္ဌိ	-10.0153
▁နဝမံ။	-10.0154
ယတိ။	-10.0156
ဂာဟ	-10.0161
ဝီရိယ	-10.0161
▁ပုစ္ဆိ	-10.0166
နာဂ	-10.018
ဒန္တ	-10.018
ဇံ	-10.0184
▁ဩဝာဒ	-10.0189
ာဘာဝတော	-10.0195
▁မည	-10.0197
▁ဈာနသ္သ	-10.0199
▁၈၇	-10.0202
▁ပဋိပက္ခ	-10.0207
▁နတ္ထီ	-10.021
▁မာသ	-10.0211
▁၇၇	-10.0212
▁ဩက္ကမ	-10.0216
▁အဓိပတိ	-10.0217
▁ပဋိစ္စသမုပ္ပာဒ	-10.0228
ဝေရ	-10.0229
ရေ။	-10.023
▁ဣန္ဒ္ရိယေ	-10.0233
▁တံတံ	-10.0234
▁ဗုဇ္ဈ	-10.024
▁ဇိဝ္ဟာ	-10.0244
စတု	-10.0246
ေယ္ယ၊	-10.0246
▁ဆိန္ဒိတ္ဝာ	-10.025
နဂရေ	-10.0252
စိတ္တာ	-10.0255
▁ကလ္ယာဏ	-10.0255
▁အရိယမဂ္ဂ	-10.0256
▁ဒိဋ္ဌိံ	-10.0262
▁ဈာပိတာ	-10.0265
▁၈၅	-10.0267
▁တိဋ္ဌတိ။	-10.0269
ဒီပ	-10.0269
ေတာ	-10.0275
▁ဌိတသ္သ	-10.0275
▁ဣဓေဝ	-10.0277
ဋ္ဌာ	-10.0279
▁အမ္ဟေဟိ	-10.0283
▁ဥတ္တာနမေဝ။	-10.0285
▁နကုသလော	-10.0294
▁ဣဋ္ဌ	-10.0297
ဒော	-10.0297
ကောတိ	-10.0301
▁နိဋ္ဌိတော။	-10.0304
ဒဏ္ဍ	-10.0304
▁မူလံ	-10.0306
▁ဝိဝရ	-10.0306
န္တိယာ	-10.0311
▁ရဇ္ဇ	-10.0312
ရံ	-10.0312
သင္ခာတော	-10.0314
▁ပုဂ္ဂလာနံ	-10.0322
▁စေတသိက	-10.0323
သန္တ	-10.0326
▁ပမာဒ	-10.0338
သဗ္ဗေ	-10.034
▁ကုသလေသု	-10.0345
▁နဝ။	-10.0351
▁ဟေဋ္ဌိမ	-10.0357
င္က	-10.036
▁ကုက္ကုစ္စံ	-10.036
▁စရိတ္ဝာ	-10.0361
▁စက္က	-10.037
▁ဒာသ	-10.037
▁ဂေဟ	-10.0375
တံ။	-10.0379
▁ဝာဒ	-10.038
▁ဣတရ	-10.0381
▁သည	-10.0384
▁တတိယော	-10.0384
▁သတိမာ	-10.0385
▁၃၂	-10.0389
▁ဗန္ဓန	-10.0401
ဒ္ဝယံ	-10.0402
▁ပသ္သန္တော	-10.0407
ေသီတိ	-10.041
ပာက	-10.0412
ဗီဇ	-10.0413
▁ဇဝန	-10.0417
▁အာဒိတော	-10.0431
ဟရ	-10.0434
▁ကထာယ	-10.0435
သမုဋ္ဌာနံ	-10.0438
▁ပီတ	-10.044
▁ဟောတီတိ။	-10.0441
▁အာမိသ	-10.0442
▁ဧဝရူပာ	-10.0444
ုဍ္	-10.0448
▁၃၃	-10.045
▁ပဝတ္တံ	-10.045
▁သတိယာ	-10.0455
▁ဝိသယ	-10.0458
▁လောပော	-10.0459
▁ထေရ	-10.0467
▁ပရိသာယ	-10.047
သညိနော	-10.0471
ာပေတုံ	-10.0473
▁ဗန္ဓိတ္ဝာ	-10.0476
▁ဇာတံ	-10.0484
မိစ္ဆ	-10.0486
ပန	-10.0491
▁ကတ္တု	-10.0494
ာဝုသော	-10.0495
တမ	-10.0499
ယေ။	-10.0505
▁မဂ္ဂသစ္စံ	-10.0509
▁၃၅	-10.051
မတ္တမ္ပိ	-10.0511
▁အဘာသိ။	-10.0512
▁တာဒိသံ	-10.0517
ဒိသ	-10.0518
▁ပဝ	-10.0523
ပရိယာယ	-10.0531
▁အဝတ္ဝာ	-10.0545
ဓာ	-10.0546
▁ဝိသေသတော	-10.0551
▁ဣစ္ဆာ	-10.0552
▁သုန္ဒရ	-10.056
▁အမု	-10.056
▁ဒဒေယ္ယ	-10.0561
ဂမ	-10.057
▁ခေမ	-10.0571
▁ပထဝိံ	-10.0575
ာဒိံ	-10.0576
▁သဗ္ဗမ္ပိ	-10.0578
ီ၊	-10.0579
မုတ္တ	-10.058
▁ဝုတ္တနယမေဝ။	-10.0582
▁အနိစ္စ	-10.0585
▁ကတ္တဗ္ဗ	-10.0587
ဓန	-10.059
▁ကုသလာနံ	-10.0595
▁ဂန္တုံ	-10.0605
▁အနာဂတံ	-10.0607
▁ပာရ	-10.0612
▁ပရိဘောဂ	-10.062
ကေ။	-10.062
သင္ခာတေန	-10.0629
▁၅၂	-10.0633
ဝစနေန	-10.0634
▁သဗ္ဗေသု	-10.0638
▁ကာက	-10.0638
ရက္ခ	-10.0643
▁ဆဋ္ဌ	-10.0646
ယန္တော	-10.0646
စရ	-10.0647
▁သမုဒ္ဒ	-10.065
▁သပ္ပိ	-10.0651
သဟသ္သာနိ	-10.0653
ဒသ္သနေန	-10.0654
▁လာဘီ	-10.0654
ပညော	-10.0657
▁ပဇဟ	-10.0661
ရူပာ	-10.0662
▁အဝိဇ္ဇာယ	-10.0666
▁ဓာတုယာ	-10.0667
▁ပရမတ္ထ	-10.0672
ီယတေ	-10.0686
▁အပ္ပနာ	-10.0686
▁သဉ္ဇာတ	-10.0691
▁ပဗ္ဗဇိတ	-10.0694
▁ဟေတံ	-10.0695
▁အယဉ္စ	-10.0695
တ္တိ	-10.0697
▁အညေဟိ	-10.07
▁ပဟာတဗ္ဗာ	-10.0701
▁ဧတေဟိ	-10.0703
▁၉၂	-10.0715
▁ဒာရု	-10.0716
သမာပတ္တိ	-10.0717
သမ္ပဒာ	-10.0721
ဘေဒတော	-10.0725
န္တိအာဒိ။	-10.0727
အညမညေ	-10.073
▁၃၄	-10.0732
▁ဥသ္သ	-10.0733
မဏ္ဍလ	-10.0739
ိန္ဒ	-10.0742
ရထ	-10.0746
▁မဟာမောဂ္ဂလ္လာန	-10.0746
▁၅၃	-10.0756
ဣမိနာ	-10.0756
နမ	-10.0756
ဂ္ဂာဟ	-10.0757
▁ပူဇ	-10.0757
▁အာဝဇ္ဇန	-10.0758
▁ဝိဇ္ဇတိ	-10.076
▁ကုသ	-10.0766
▁သံယောဇန	-10.0766
▁အဟု။	-10.0772
▁ဝိဝဋ္ဋ	-10.0773
▁ယံကိဉ္စိ	-10.0775
▁ပရိယာယ	-10.0783
▁ဘဝင္ဂ	-10.0784
▁ပာကဋ	-10.0785
▁ပေသ	-10.0786
▁၉၁	-10.0786
▁ဝိနယေ	-10.0788
▁သုခုမ	-10.079
စရိယာ	-10.0792
ဒ္ဝာရေ	-10.0796
ဘူ	-10.0796
ိတု	-10.0796
▁ပာပုဏ	-10.0809
ဗ	-10.081
▁အနိဋ္ဌ	-10.0816
▁ဏ	-10.0822
▁ဓည	-10.0824
▁ဝိဟရာမိ	-10.0826
▁ဝုစ္စန္တိ။	-10.0827
▁ဝိဝိစ္စေဝ	-10.0831
▁ပဏီတ	-10.0833
▁သတ္တာဟံ	-10.0836
▁၃၇	-10.0836
▁ဝေဒိတဗ္ဗာ	-10.0854
▁သမ္ပယုတ္တေ	-10.0856
▁ဈာယ	-10.086
▁သမ္ပန္န	-10.0868
ကုလေ	-10.0869
▁ဇိဏ္ဏ	-10.087
▁ပုရိသာ	-10.0872
▁အနန္တရာ	-10.0872
▁သဘာဂ	-10.0875
▁၉၅	-10.0877
▁ကိစ္စံ	-10.0883
▁အလ	-10.0887
▁အနုဇာနာမိ	-10.0889
▁ခီဏ	-10.0891
ကတမော	-10.0893
▁အသင္ဂဟိတာ	-10.0897
▁စိရံ	-10.0899
ပ္ပမာဏ	-10.0911
▁သတိပဋ္ဌာန	-10.0911
ကာရံ	-10.0911
ာနမ	-10.0914
▁ရသ္သ	-10.0915
▁အတိက္ကမိတ္ဝာ	-10.0917
▁ဂဗ္ဘ	-10.0918
▁ကမ္မာနိ	-10.0919
▁ယမက	-10.0928
▁၉၄	-10.0936
▁သတ္ထ	-10.0939
▁၃၆	-10.0939
▁ဒိသ္ဝာ၊	-10.0939
ပုရ	-10.0941
ဝော	-10.0945
▁အဋ္ဌိ	-10.0946
▁အသာဓာရဏ	-10.0947
▁၅၄	-10.0949
▁အင္ဂေဟိ	-10.0949
▁ကာယကမ္မံ	-10.0951
သာလ	-10.0952
သညံ	-10.0957
ဒိဝသေ	-10.0958
▁သောက	-10.0963
▁ထေရံ	-10.0963
မဟ	-10.0967
▁နဂရေ	-10.0967
▁အသိ	-10.0969
▁ဘဂဝတိ	-10.0971
▁ဥဘတော	-10.0977
▁သောတံ	-10.0981
▁ကဋ္ဌ	-10.0981
ဘူတေ	-10.0981
သင္ဂဟ	-10.0982
▁ဥပမာ	-10.0983
▁နိဗ္ဗတ္တိ	-10.0991
▁အသုစိ	-10.0991
▁ကဉ္စိ	-10.0992
▁ဘိန္ဒိတ္ဝာ	-10.0999
▁အကာသိ	-10.1
▁ဧဝမာဒိ	-10.1002
▁ပဒသ္သ	-10.1002
▁အာကာရ	-10.1005
▁ဒမ	-10.1011
ဝိတက္က	-10.1012
▁သင္ခာရေ	-10.1015
▁ဥပောသထံ	-10.1016
အာဒီသု	-10.1017
ကထ	-10.1017
▁ယဇ	-10.1019
ေသ	-10.102
ာရာမ	-10.102
▁ခီရ	-10.1021
▁အနတ္တာ	-10.1026
အာဟာရေ	-10.1026
▁မာနော	-10.1029
▁ပဟာနံ	-10.1033
ိသ္သတိ။	-10.1043
▁၃၉	-10.1044
▁ဣတိပိ	-10.1046
▁နာဘိ	-10.1049
ပထ	-10.1052
▁ဥဘိန္နံ	-10.1055
▁အာတာပီ	-10.106
ဒုက္ခံ	-10.1062
▁ပက္ခိပိတ္ဝာ	-10.1063
▁သမ္ပတ္တ	-10.1063
ပုဂ္ဂလော	-10.1066
▁ဝသ္သံ	-10.107
▁အညာဏ	-10.1073
ဗ္ယဉ္ဇန	-10.1074
▁နိရယေ	-10.1075
ရညော	-10.1078
▁လဘတိ။	-10.1081
▁အဂ္ဂမဂ္ဂ	-10.1082
▁စိရ	-10.1084
▁ဝိစိကိစ္ဆာသဟဂတေ	-10.1091
ညူ	-10.1094
▁သန္ဓိ	-10.1101
ဘေဒေန	-10.1112
▁ခမတိ	-10.1122
▁ဝောဟာရ	-10.1126
သစ္စံ	-10.1129
ာဟာရ	-10.1135
▁အဝိက္ခေပော	-10.1137
ဏ္ဏ	-10.1138
▁ပာရာဇိကံ	-10.114
▁အာစရိယော	-10.1141
▁ခိပ္ပံ	-10.1143
▁ဥပာသကော	-10.115
▁သောတာပတ္တိဖလ	-10.1151
▁ပုစ္ဆာမိ	-10.1151
မ္ဗ	-10.1152
▁အာရောစ	-10.1154
▁အညေပိ	-10.1156
▁သာဓုကံ	-10.1158
▁ဌိတိ	-10.1158
▁ဓ	-10.1164
စီဝရံ	-10.1166
▁ပာပုဏာတိ	-10.1169
စာရ	-10.1169
▁ပာကဋံ	-10.1171
▁၃၈	-10.1171
▁ပဋိပတ္တိ	-10.1172
▁အာရာမ	-10.1173
▁ဣန္ဒ	-10.1185
▁သံကိလေသ	-10.1186
▁သမနန္တရေ	-10.1186
▁ခီဏာသဝ	-10.1187
ာလင္ကာရ	-10.1187
မတ္တာ	-10.1189
ယမာနော	-10.1193
▁ပရိတ္တံ	-10.1194
▁မဂ္ဂာ	-10.1194
▁ဒာရ	-10.1195
▁ကထိန	-10.1195
▁နိရုတ္တိ	-10.1197
▁အန္တရေ	-10.12
▁ဒသ္သနံ	-10.1201
▁ရဟော	-10.1208
ာလ	-10.1217
▁၉၈	-10.1217
▁သမ္မုတိ	-10.1222
မာနေ	-10.1224
▁သမ္မဒေဝ	-10.1227
▁ဝိပ္ပယုတ္တေ	-10.123
ဏာ	-10.1231
ယုတ္တော	-10.1233
▁၄၁	-10.1234
စ္စာဒိ။	-10.1241
▁ပိဏ္ဍပာတ	-10.1246
ဝူပသမ	-10.1252
ေသ္သာမီ	-10.1253
ဥပာဒိန္နုပာဒာနိယ	-10.1258
▁ဒေသနံ	-10.1259
သမယော	-10.1261
သိက္ခာပဒ	-10.1266
သလ္လ	-10.1267
ဂာထာယ	-10.1269
▁အဋ္ဌင္ဂိကော	-10.127
▁ဗဒ္ဓ	-10.1278
▁အလ္လ	-10.1284
▁ဇနော	-10.1285
▁၄၀	-10.1285
▁ထေရေန	-10.1286
▁အာသေဝနေ	-10.1287
▁ပဋိသမ္ဘိဒာ	-10.1287
နာဟံ	-10.1294
သုဝဏ္ဏ	-10.1297
▁ဥဒာနံ	-10.1297
▁အသ္သာဒေတိ	-10.1299
▁နရ	-10.13
▁၆၃	-10.1303
▁ဘဝေ။	-10.1303
▁စေတိယ	-10.1305
▁ပတိဋ္ဌာ	-10.1305
▁စရေ	-10.1307
▁အကုသလာနံ	-10.1307
▁ခေတ္တ	-10.131
▁သမာဒာယ	-10.131
မ္ဘ	-10.1311
▁သာဝကာ	-10.1311
ိမေ	-10.1311
▁သရီရေ	-10.1313
▁ကာစိ	-10.1316
▁ကီဠ	-10.1317
▁ရူပာဝစရ	-10.1318
▁၉၃	-10.1319
▁ဘေဒ	-10.1323
ိတဗ္ဗော	-10.1323
▁သမ္ပယုတ္တံ	-10.1324
နိသ္သိတ	-10.1327
▁ပယောဂ	-10.1328
▁ကာတဗ္ဗံ	-10.1328
▁မတ	-10.1332
ကာလတော	-10.1335
▁ကာရဏေဟိ	-10.1336
ကောဋ္ဌာသ	-10.1342
▁လဒ္ဓာ	-10.1343
▁ဣန္ဒ္ရိယာနိ	-10.1345
ပ္ပကာရ	-10.1345
စက္က	-10.1345
▁အနုသ္သရ	-10.1352
မ္မ	-10.1352
▁ဇနေ	-10.1352
▁သဂ္ဂံ	-10.1362
ဘတ္တံ	-10.1362
ပာ	-10.1368
▁ပသ္သတော	-10.1368
သမ္ပန္န	-10.1372
▁ဝာရ	-10.1375
▁အသ္သု	-10.1375
ပ္ပဝတ္တ	-10.1377
ဂ္ဂိ	-10.1378
▁ဗ္ယ	-10.1379
စိတ္တေန	-10.1386
ဟံ။	-10.1387
▁ဝိနေယ္ယ	-10.1388
▁ပစ္စယေ	-10.1388
သင္ခာရ	-10.1388
▁ပဝတ္တတိ	-10.139
▁ဧကဒိဝသံ	-10.1392
မေတ	-10.1395
▁စိတ္တာနိ	-10.1396
▁ဝိသုဒ္ဓ	-10.1402
ယတီတိ	-10.1405
သ္မိန္တိ	-10.1409
▁ရောဒ	-10.1413
▁ဒဋ္ဌဗ္ဗာ။	-10.1413
▁ဣတ္ထိယော	-10.1416
ပာပ	-10.1417
ယာတိ	-10.1423
▁မဟာဘူတာ	-10.1424
▁သတ္တန္နံ	-10.1428
▁ဂာဟ	-10.1428
▁၄၄	-10.143
▁သီလဝာ	-10.1437
ဝုတ္တ	-10.144
▁အာသဝ	-10.144
▁ဗဟုလီကတာ	-10.1442
▁ပာတိမောက္ခံ	-10.1451
▁ဝယ	-10.1455
▁ဆန္ဒံ	-10.1459
သင္ခာတေ	-10.1464
စန္ဒ	-10.1464
▁ဘောဇနံ	-10.1466
▁သန္တကံ	-10.1467
▁ပဝတ္တတီတိ	-10.1469
▁သမာပတ္တိ	-10.1473
▁၅၀	-10.1474
▁တတ္ရာယံ	-10.1474
▁အစ္စန္တ	-10.1479
▁ဒုက္ခတော	-10.148
တ္တိက	-10.1481
ိသ္သတီတိ	-10.1481
ာနိပိ	-10.1486
▁ဩကာသံ	-10.1486
▁နိသိန္န	-10.1486
▁ဂဟဏံ	-10.1487
▁ဝတ္တဗ္ဗံ။	-10.1487
ပည	-10.149
ဘူမိယံ	-10.149
နမ္ပိ	-10.1491
▁ဓမ္မဝိနယေ	-10.1492
သံယောဇန	-10.1496
ပတိ	-10.1497
▁ဝုတ္တာတိ	-10.1497
▁ပရိသုဒ္ဓ	-10.1499
သောတ	-10.1502
▁ယောဇန	-10.1506
▁ကာယိကံ	-10.1507
▁အာရမ္မဏပစ္စယာ	-10.1513
သ္သေတံ	-10.1515
ဇော	-10.1516
▁မညသိ	-10.1517
▁၄၅	-10.1518
▁ဝာတ	-10.1521
န္ဓ	-10.1522
▁ကတ္တာ	-10.1522
▁၄၃	-10.1523
▁ဝေဠု	-10.1525
ဥဒက	-10.1527
▁တိဝိဓ	-10.1528
နိဒ္ဒေသ	-10.1532
▁သုဂတ	-10.1533
▁၁၀၂	-10.1537
န္တိအာဒိမာဟ။	-10.154
▁သေ	-10.1543
▁ဣဒမေဝ	-10.155
▁အနာထပိဏ္ဍိကသ္သ	-10.1552
လောပော	-10.1559
▁၄၂	-10.1561
▁၄၆	-10.1562
▁ဒုဗ္ဗလ	-10.1564
▁ဧတ္တကံ	-10.1564
ပ္ပဋိ	-10.1567
န္နံ	-10.1568
ပရိက္ခာရ	-10.1569
▁စက္ခုဝိညာဏံ	-10.157
▁၁၀၃	-10.1576
ပဋိစ္စဝာရာဒိ	-10.1576
▁နိဒ္ဒိဋ္ဌ	-10.1576
▁ဒိသံ	-10.1577
▁ဒေဝလောကေ	-10.1577
▁သံကိလိဋ္ဌ	-10.1578
▁ပရိသ	-10.1582
ိမ္ဟ	-10.1582
▁သာမံ	-10.1583
▁သုဏ	-10.1583
ရာဂော	-10.1586
▁ကဏ္ဟ	-10.1593
▁သမန္နာဂတာ	-10.1593
▁အနုသေန္တိ	-10.1596
▁ဧဝမာဟ။	-10.1603
▁အာလောက	-10.1604
▁ပာဏာတိပာတ	-10.161
▁ဣတ္ထိယာ	-10.1614
▁ပာပကာ	-10.1618
▁ပာကဋော	-10.1627
▁ဝိရောစ	-10.1628
▁အာကာရေဟိ	-10.1638
အဋ္ဌ	-10.1638
▁ပဝာရဏာ	-10.1641
ရူပော	-10.1641
▁သမ္ပယုတ္တ	-10.1648
ဒသ္သနံ	-10.1649
▁ဇယ	-10.1651
▁ဝနေ	-10.1651
▁ကသ	-10.1652
▁တထာပိ	-10.1657
▁ဣန္ဒ္ရိယံ	-10.1668
▁သဝိတက္ကသဝိစာရ	-10.1669
▁ပဋိပဇ္ဇ	-10.167
▁၄၉	-10.1674
မာလ	-10.1674
▁၄၇	-10.1675
▁သမ္ပယုတ္တကာ	-10.1677
ပရိဘောဂ	-10.1684
▁ဝေမတိကော	-10.1686
▁ဂဟေတုံ	-10.1687
ကတော	-10.1694
ပ္ပဟာန	-10.1695
▁အတီတာနာဂတ	-10.17
▁ဝိပသ္သနာယ	-10.1713
ေန္တီတိ	-10.1714
▁ဟိတာယ	-10.1723
▁ဒက္ခ	-10.1724
▁တဒတ္ထ	-10.1729
▁အာပတ္တိသမုဋ္ဌာန	-10.1729
ပာဠိ	-10.173
▁ဒိဗ္ဗစက္ခု	-10.1733
▁အန္တရ	-10.1736
▁ပဉ္စမေ	-10.1743
ကိရိယာယ	-10.1747
မဒ	-10.1752
ဇာနန	-10.1755
မဂ္ဂံ	-10.1762
▁ကတတ္တာ	-10.1762
ပုရိသော	-10.1764
▁ဂဟိတာ	-10.1765
▁အာကာသ	-10.177
▁ဗ္ရာဟ္မဏံ	-10.1773
ုပ္ပာဒ	-10.1774
▁ကင္ခာ	-10.1779
ဂာမိ	-10.1781
▁ယသ	-10.1783
▁ဟိတ္ဝာ	-10.1785
ဇာတာ	-10.1786
▁ယောဇေတ္ဝာ	-10.1786
ိနာ	-10.1793
တ္ထဉ္စ	-10.1794
▁ကထိတ	-10.1795
▁ဒီဃရတ္တံ	-10.1799
▁ဣတ္ထန္နာမသ္သ	-10.1801
▁ပက္က	-10.181
▁ဒောသံ	-10.1811
▁ဆတ္တ	-10.1812
▁သမ္မာသမာဓိ	-10.1815
ယောဇန	-10.1817
▁ထိရ	-10.1821
▁ကတ္ဝာ။	-10.1825
▁စရန္တိ	-10.1827
ိံသူတိ	-10.1828
▁ပဏီတံ	-10.183
▁အင္ဂံ	-10.183
နိရောဓဂာမိနီ	-10.1833
▁ဝိန	-10.1836
▁ရဇ	-10.1836
က္ကမ	-10.1839
▁အဓိပ္ပာယော	-10.185
ဝေဒ	-10.1857
▁နရော	-10.186
▁ဝဒေသိ	-10.186
▁ပလာယ	-10.1867
▁ပတ္တေ	-10.1869
▁ဝရံ	-10.187
▁ဝိဘတ္တိ	-10.1871
ာပဒာနံ	-10.1873
▁ဒဗ္ဗ	-10.1876
▁သောတာပန္နော	-10.1879
▁သတ္တဟိ	-10.1879
▁၉၆	-10.1881
▁သေဋ္ဌော	-10.1881
▁ဘဏ္ဍံ	-10.1884
▁ကိလေသာနံ	-10.1889
▁ဥစ္စ	-10.1891
▁ပိဏ္ဍ	-10.1894
▁ဓောဝ	-10.1899
▁ကာမံ	-10.1899
▁ဘဝိသ္သတီတိ	-10.1899
▁ပုစ္ဆတိ။	-10.1899
▁အဋ္ဌင္ဂိက	-10.1904
▁ဘူမိယံ	-10.1906
ာဓိက	-10.1911
သယ	-10.1913
▁အယဉ္ဟိ	-10.1913
ပဇ္ဇ	-10.1915
▁တမဟံ	-10.1916
▁ယသော	-10.1921
▁ဟတ္ထေန	-10.1921
သရီရ	-10.1922
▁သူရိယ	-10.1927
▁တ္ဝေဝ	-10.1927
ဝိဘတ္တိ	-10.1932
▁ဒေဝပုတ္တော	-10.1935
မဇ္ဈ	-10.1935
▁သုရ	-10.1938
ရသံ	-10.1939
▁သောတာပတ္တိမဂ္ဂ	-10.1945
▁တာဒိသ	-10.1946
ကဍ္	-10.1947
▁မနုသ္သေသု	-10.1947
▁ဧတေသန္တိ	-10.1953
▁နာမာ	-10.1955
▁နာမံ။	-10.1956
ပသာဒ	-10.1959
▁သဟာယ	-10.196
▁ပရိယတ္တိ	-10.1963
▁နဒသ္သနေန	-10.1963
▁ယထာရဟံ	-10.1965
ပာတ	-10.1965
သီလံ	-10.1966
▁၁၁၀	-10.1969
▁သင္ခံ	-10.1969
▁နိသိန္နံ	-10.1973
ဂန္ထ	-10.1974
▁ဝုဋ္ဌဟိတ္ဝာ	-10.198
▁ပစ္စယာနုလောမံ	-10.1982
▁အဘိဘုယ္ယ	-10.1982
▁ယဒ	-10.1986
ပဒာနိ	-10.1987
▁သမုဒယ	-10.1989
▁၉၇	-10.1991
▁၁၀၇	-10.1997
▁တိဋ္ဌ	-10.2005
▁ပု	-10.2008
ကရဏေ	-10.2009
▁မဟာဝီရ	-10.2009
သတ္ထ	-10.2012
ပာလ	-10.2013
▁တိဋ္ဌန္တိ	-10.2015
▁မဟာနာမ	-10.2016
ကုမ္ဘ	-10.2016
ဒ္ဝေ	-10.2018
▁နိသ္သရဏ	-10.2019
▁အန္ဓ	-10.2026
▁ယာဝတာ	-10.2028
▁ပဝိဋ္ဌ	-10.2035
▁ယထာက္ကမံ	-10.2038
▁အာဂစ္ဆ	-10.204
▁ဝိနာသ	-10.2045
▁ဣစ္ဆတိ	-10.2047
ဗောဓိ	-10.205
▁သက္ကစ္စံ	-10.2056
▁ဒသဟိ	-10.2056
ပ္ပဘေဒ	-10.2058
▁စာဂ	-10.2062
▁ဝုစ္စတီ	-10.2062
▁အသ္သာသ	-10.2068
▁သင္ခေပတော	-10.2068
▁ယမ္ပိ	-10.207
ကထာ။	-10.2072
▁ကန္တ	-10.2073
ဣ	-10.2074
▁ဘိက္ခုသင္ဃသ္သ	-10.2077
▁ကာရဏာ	-10.2086
▁၄၈	-10.2087
▁ဝသံ	-10.2089
ေနာပိ	-10.2092
▁မမ။	-10.2093
▁အာဂန္တုက	-10.2094
▁ပာဏာတိပာတာ	-10.2096
▁ပစ္ဆတော	-10.2098
▁နိရုဇ္ဈိသ္သတီတိ	-10.2098
▁အဗ္ယာကတသ္သ	-10.21
▁ဇီဝိတာ	-10.2101
▁ပုရိသံ	-10.2102
▁အာပတ္တီနံ	-10.2103
သန္ဓိ	-10.2105
▁နုပ္ပဇ္ဇိသ္သတိ	-10.2108
▁ဒိဗ္ဗေန	-10.2112
▁ဝတ္တမာန	-10.2116
▁အပရေ	-10.2117
▁ပဟာတဗ္ဗဟေတုကံ	-10.2117
▁ဘေဒော	-10.2118
န္တော၊	-10.2119
▁တဒာရမ္မဏ	-10.2124
▁ကပ္ပေ	-10.2125
▁ဆန္န	-10.2127
▁နိက္က	-10.213
▁ဘုဉ္ဇတိ	-10.2134
တလ	-10.2137
▁၁၀၁	-10.2138
▁ဉာယ	-10.2139
▁ဗာဟိရံ	-10.214
ူတိ	-10.2142
ပတ္တော	-10.2143
သမ္မ	-10.2149
နဝ	-10.215
▁သင္ခ	-10.2153
▁ဒဠ္ဟံ	-10.2156
▁လက္ခဏံ	-10.2157
▁ဒေသေ	-10.2158
▁ဒေန္တိ	-10.2161
▁ဝိဂတေ	-10.2161
▁တမ္ဟာ	-10.2161
▁ဒိဋ္ဌော	-10.2161
▁ဇာန	-10.2163
အာမ	-10.2166
ကာရဏာ	-10.2166
▁ဧတာ	-10.2168
▁ပစ္စယစတုက္ကံ	-10.2169
▁ဩကာသ	-10.2169
▁ဒသ္သိတ	-10.2171
▁ပဗ္ဗဇ	-10.2171
ဒိသာ	-10.2172
▁ပညာပ	-10.2172
▁တာဒိသော	-10.2173
▁အဘိဓမ္မ	-10.2174
ယု	-10.2175
▁သသ္သ	-10.2179
▁ပာတိမောက္ခ	-10.2188
▁ဒ္ဝေပိ	-10.2189
▁တာလ	-10.219
▁ဝိသမ	-10.2195
▁ဂမ္ဘီရ	-10.2198
▁ဝာပိ	-10.2204
▁နိဗ္ဗတ္တိတ္ဝာ	-10.2212
▁နိဝာသေတ္ဝာ	-10.2221
မိတိ	-10.2224
သဒ္ဒာ	-10.2226
ဋ္ဌိ	-10.2228
သာသန	-10.2229
▁ပုတ္တာ	-10.223
လိ	-10.2233
ကင္ခ	-10.2233
ဌ	-10.2238
▁သံသဋ္ဌော	-10.2239
▁ဧကတ္တ	-10.224
▁သာဝကာနံ	-10.2241
▁ပဟီန	-10.2248
▁ဘဝာ	-10.2249
သ္သပိ	-10.225
သိက္ခ	-10.2251
▁သောစ	-10.2253
▁၁၀၈	-10.2256
▁ဗ	-10.2258
▁အဋ္ဌကထာ	-10.2261
▁ဂမနံ	-10.2265
▁ယာန	-10.2265
▁ပုထုဇ္ဇန	-10.2272
▁သပ္ပ	-10.2274
▁၅၁	-10.2274
▁ပဉ္စမ	-10.2275
▁အင္ဂာနိ။	-10.2282
▁ထူပ	-10.2287
နာဒိ	-10.2291
▁ပစ္ဆာဇာတပစ္စယေန	-10.2291
သနိဒသ္သနသပ္ပဋိဃံ	-10.2296
သမ္ပတ္တိံ	-10.2298
ဝနေ	-10.2299
▁အရဟတ္တ	-10.23
▁သဒ္ဒဟ	-10.2301
ဘာရ	-10.2304
▁၉၉	-10.2306
▁၁၀၄	-10.2307
▁ပဋိပ္ပသ္သမ္ဘ	-10.231
▁သူစိ	-10.231
▁အဟမ္ပိ	-10.231
▁စမ္မ	-10.2313
မောဟ	-10.2315
ပ္ပတ္တ	-10.2317
▁ကာယတော	-10.2317
▁လောကေ၊	-10.2319
မ္ပ	-10.2326
ဝိမုတ္တ	-10.233
▁သန္တံ	-10.2332
မင္ဂလ	-10.2335
▁ဒေသနာယ	-10.2337
▁ဝိဟရေယ္ယ	-10.2342
▁ဝတ္တဗ္ဗ	-10.2344
▁ပစ္စက္ခ	-10.2344
သရဏ	-10.2348
ာဓိ	-10.2349
▁မုသာဝာဒ	-10.235
▁ခဏ္ဍ	-10.2358
ပိဏ္ဍ	-10.2358
▁ဇာနိတ္ဝာ	-10.2358
▁သီမာ	-10.2361
▁ဂေဟေ	-10.2363
▁ပာတ	-10.2363
▁နိက္ခိပ	-10.2365
ကာရက	-10.2366
▁သင္ဂဟော	-10.2367
▁ဃ	-10.237
္ယာ	-10.2372
▁မု	-10.2372
ပဋိဝေဓ	-10.2372
▁စတုရော	-10.2373
မိဂ	-10.2373
▁ကူဋ	-10.2378
▁ဒုက္ကဋသ္သာ	-10.2379
▁စတုသစ္စ	-10.2381
▁ဒသ္သေတုမာဟ	-10.2383
▁အဝိဒူရေ	-10.2383
▁နနဟေတု	-10.2384
မ္ဟီတိ	-10.2385
တ္တော	-10.2386
▁ကစ္စိ	-10.2386
▁ဒုတိယာ	-10.2388
▁ယည	-10.2392
ပဋ္ဋ	-10.2393
▁ကလ	-10.2394
▁ပရေဟိ	-10.2395
ယေန	-10.2395
ဝိသေသော	-10.2397
▁အဗ္ယာကတ	-10.2398
▁ပရိက္ခာရ	-10.2403
▁ဗုဒ္ဓေ	-10.2405
▁နီဟရ	-10.2405
▁လဂ္ဂ	-10.2405
နီတိ	-10.2412
▁ဇိဂုစ္ဆ	-10.2412
▁စာရိကံ	-10.2416
ပဒေ	-10.242
နိရောဓော	-10.2421
▁ဒသ္သနာယ	-10.2422
▁အနိ	-10.2435
ောယေဝ	-10.2438
▁သမာသ	-10.2445
▁၆၄	-10.2446
▁ဒေဝေ	-10.2446
▁ပုရာဏ	-10.2452
သမဏ	-10.2453
ုပ္ပန္န	-10.2453
▁ကဗဠီကာရော	-10.2455
ဝာရဝဏ္ဏနာ	-10.2456
▁အနုပုဗ္ဗ	-10.2457
▁မံသံ	-10.246
နိရောဓ	-10.2466
▁လာမက	-10.2467
▁ဇဟ	-10.2469
▁မောဂ္ဂလ္လာန	-10.247
▁အဂ္ဃ	-10.2471
နဂရ	-10.2471
▁ပာသ	-10.2471
သမာ	-10.2476
ိတ္ဝာန၊	-10.2476
▁သိပ္ပ	-10.2481
္	-10.2482
ေတဗ္ဗံ။	-10.2483
▁နာဂော	-10.2483
▁အဒုက္ခမသုခာယ	-10.2487
▁ဩဃ	-10.2493
▁အဟေတုက	-10.2497
▁သာဝ	-10.2498
▁အထော	-10.25
ကတ္တာ	-10.2502
▁ဃန	-10.2504
▁ဣမမတ္ထံ	-10.2504
▁မဇ္ဈ	-10.2505
▁သာသနံ။	-10.2508
ဒိသံ	-10.251
▁ကတ္တရိ	-10.2511
▁ဝိဟရန္တိ	-10.2512
တေဝ	-10.2514
▁ဣတရေ	-10.2516
ဒီဃ	-10.2516
▁သိက္ခာပဒ	-10.252
ာဒော	-10.2521
▁နာနပ္ပကာရ	-10.2526
▁နာပိ	-10.2531
▁ပရိနိဗ္ဗန္တာန	-10.2534
ကာတိ	-10.2536
တာဒိ	-10.2537
ိတတ္တံ	-10.2541
▁၁၁၅	-10.2542
▁ပယိရုပာသ	-10.2543
▁ပဋိဂ္ဂဟေတ္ဝာ	-10.2546
▁ဝတ္တဗ္ဗော	-10.2548
▁တိဏ္ဏန္နံ	-10.2553
▁ဝိဟာရော	-10.2553
ကုသလာ	-10.2554
▁ယု	-10.2557
▁မညတိ	-10.2559
ေသ္သာမိ	-10.256
▁အဓိဂတ	-10.2561
▁ရဋ္ဌ	-10.2561
▁ဝိသိဋ္ဌ	-10.2564
▁ဩဒာတ	-10.2565
▁ပဋိဃ	-10.2571
မ္ဟီ	-10.2574
▁သုဏာတိ	-10.2577
▁ဧကေနာယတနေန	-10.2577
▁အဟေတုကံ	-10.2577
▁၁၁၂	-10.2583
▁အပ္ပမာဒ	-10.2583
ဓာရဏ	-10.2584
ဝောဟာရ	-10.2589
▁ဝိညတ္တိ	-10.2591
▁သောတ	-10.2598
ဉ	-10.261
နဣန္ဒ္ရိယေ	-10.2612
▁ဒုဂ္ဂတိ	-10.2616
ဝဒ	-10.2618
▁သဒ္ဒာ	-10.2618
▁ဇာနာတီတိ	-10.262
ုတ္တမ	-10.2622
ိန္ဒ္ရိယ	-10.2623
▁တမေနံ	-10.2625
▁တိက္ခတ္တုံ	-10.2628
▁ပနာယံ	-10.2631
▁နာဟံ	-10.2632
▁ဖလသ္သ	-10.2635
▁ဒုဋ္ဌ	-10.2638
▁လဒ္ဓိ	-10.2638
ပေ	-10.2638
ယဒိ	-10.2639
▁သမုဋ္ဌာန	-10.2644
▁သယ	-10.2651
ာဒယော။	-10.2657
ဘိန္န	-10.2657
▁သုဒ္ဓံ	-10.2658
ဘိ။	-10.2661
▁၁၀၅	-10.2662
အပ္ပ	-10.2664
▁လဒ္ဓံ	-10.2665
သမ္ပယုတ္တာ	-10.2668
▁ဘဏတိ	-10.2673
▁အပရော	-10.2675
ဂ္ဂံ	-10.2682
ဟရဏ	-10.2687
▁ဥပကာရ	-10.2688
သင္ခာတသ္သ	-10.269
▁ဖာသု	-10.2692
ပုစ္ဆ	-10.2695
ဝန္တ	-10.2696
ဋ္ဋ	-10.2696
စ္ဆေဒ	-10.2699
▁နိဋ္ဌိတံ	-10.2701
▁သတ္ထရိ	-10.2702
▁ကိတ္တိ	-10.2702
▁ဓုဝ	-10.2703
ဘဝေ	-10.2704
ကရဏီယ	-10.2705
ိသ္သာမ	-10.2706
▁၁၁၈	-10.2709
▁ဧတ	-10.2713
ာစာရ	-10.2713
ိယမာနော	-10.2714
ပဋိလာဘ	-10.2716
▁မစ္စု	-10.2717
▁ဗဟုလံ	-10.2717
ကီ	-10.2717
▁အဓမ္မ	-10.2718
ဘာဝော။	-10.2722
▁ဇာယတိ	-10.2728
▁သမ္ဗန္ဓော	-10.273
▁ဝိသေသန	-10.273
▁ဘိန္ဒ	-10.2731
▁သာမဏေရော	-10.2733
▁အာဒီနဝံ	-10.2734
▁ပဋ	-10.2736
▁ခန္တိ	-10.2739
ကဏ္ဋက	-10.274
နိပာတ	-10.2742
▁ဂူထ	-10.2746
▁ကုမ္ဘ	-10.2747
ဝတ္ထုသ္မိံ	-10.2751
▁နိယတ	-10.2755
နံ၊	-10.2757
▁ကရောန္တိ။	-10.2758
▁သဒ္ဓ	-10.2761
▁ဂဟိတံ	-10.277
▁ဩလောကေန္တော	-10.2772
ဒုတိယ	-10.2775
ာနန္ဒ	-10.2776
▁အာဟာရံ	-10.2777
▁နအဓိပတိပစ္စယာ	-10.278
တ္ထော။	-10.278
▁သကဋ	-10.2784
▁ဒုဝိဓ	-10.2788
▁ကိမ	-10.2788
စရိတ	-10.279
▁ကာမရာဂာနုသယေန	-10.2794
ကဋ္ဌ	-10.2794
▁ဥပဋ္ဌာန	-10.2796
▁ဒသဝိဓ	-10.2799
▁ပစ္စေကံ	-10.2799
▁မယ္ဟံ၊	-10.28
တ္ဝ	-10.2804
▁ဝာစ	-10.2806
▁ယာဝဇီဝံ	-10.2808
▁သဝိတက္ကသဝိစာရော	-10.2811
▁ထာမ	-10.2812
▁တရုဏ	-10.2812
▁ဝူပသမ	-10.2812
▁ကရဏီယံ	-10.2816
ာပေယ္ယ	-10.2817
▁မနာပ	-10.282
▁ဟေ	-10.2821
▁ပုရေဇာတေ	-10.2822
ာယ၊	-10.2823
▁နအာရမ္မဏပစ္စယာ	-10.2827
မတ္ထ	-10.2827
▁ဝိတ္ထာရ	-10.2831
▁ဥပေတိ	-10.2843
▁ဝိစရ	-10.2843
▁ဥဒ္ဓရ	-10.2844
▁ကန္ဒ	-10.2853
▁၁၁၁	-10.2855
▁ပသန္နော	-10.2856
▁ဣန္ဒ္ရိယာနံ	-10.2858
ီန	-10.2858
▁ဘဝန္တိ။	-10.286
▁သံဝတ္တတိ။	-10.2863
▁မလ	-10.2865
ေန္တသ္သ	-10.2865
▁ဓမ္မဒေသနာ	-10.2865
▁စက္ခုန္ဒ္ရိယဉ္စ	-10.2867
ဝဏ္ဏာ	-10.2869
▁သုဏာထ	-10.2869
▁ဥက္ကဋ္ဌ	-10.2869
▁ကေဝလ	-10.2873
▁ဧကေ	-10.2874
▁မဟဂ္ဂတ	-10.2875
▁၁၁၆	-10.2877
▁ကာယာယတနံ	-10.2877
▁မာဏဝော	-10.2881
ပဌမ	-10.2883
▁သရေ	-10.2888
ဟေတုက	-10.2889
က္ခရ	-10.2893
▁အာဒီနဝော	-10.2898
ဒာယက	-10.2898
▁က္ရိယာ	-10.2898
▁ဝိပုလ	-10.29
▁ဟသ	-10.29
▁ဝုစ္စတီတိ	-10.2901
▁ဒ္ဝတ္တိံသ	-10.2903
▁ပရိဟာယတိ	-10.2906
▁ကုမာရ	-10.2906
▁ဝီတ	-10.2908
▁လဟု	-10.2912
▁သတိပဋ္ဌာနာ	-10.2913
ပူရ	-10.2914
▁သဗ္ဗထာ	-10.2915
▁အဋ္ဌမေ	-10.2915
▁အာဟာရပစ္စယေန	-10.2917
▁၁၀၉	-10.2921
ဗလံ	-10.2923
▁ပာဏိ	-10.2928
▁သစေပိ	-10.293
▁ဟံသ	-10.2932
ပဟာန	-10.2932
▁၁၁၄	-10.2935
ပ္ပတ္တာ	-10.2936
▁မုတ္တော	-10.294
▁ဒသမေ	-10.2942
▁အရဟန္တော	-10.2945
▁လဗ္ဘမာန	-10.2947
▁ခီဏာသဝော	-10.2947
▁ပဋိစ္ဆန္န	-10.2951
▁သုခေန	-10.2952
ပညာသ	-10.2952
ဝိသယေ	-10.2953
သာမည	-10.2953
ယီ	-10.2956
▁၁၁၃	-10.2957
မိသ္သက	-10.2962
▁အဝုတ္တ	-10.2968
▁ပုရေဇာတံ	-10.2968
▁တနု	-10.2973
▁အသ္သာ	-10.2973
▁ပတ	-10.2979
သာမိ	-10.298
▁အန္တေ	-10.298
▁ဒူရ	-10.2981
ရောဂ	-10.2982
▁နီဟရိတ္ဝာ	-10.2983
▁စာယံ	-10.2986
▁ကထေတ္ဝာ	-10.2986
▁စက္ကဝာဠ	-10.2991
▁ဘဒ္ဒ	-10.2997
ကူဋ	-10.3001
ိတုံ။	-10.3001
▁အာသ	-10.3002
ကဏ္ဏ	-10.3004
▁ဇာနံ	-10.3009
▁ဣတရော	-10.3009
ောသိ	-10.301
▁ကမ	-10.3011
▁ဝတ္တံ	-10.3012
▁၁၁၉	-10.3013
▁ပိယော	-10.3014
▁ဂုဏေ	-10.3015
▁ကုစ္ဆိ	-10.3016
▁စိတ္တဉ္စ	-10.3019
ဝာဒာ	-10.302
▁ပနာတိ	-10.302
ောဒက	-10.302
▁တိကံ	-10.3023
▁နအဗ္ယာကတ	-10.3026
▁ဝိဘဇ	-10.3026
▁ပဋိဂ္ဂဏ္ဟ	-10.3036
▁နိသ္သဂ္ဂိယ	-10.3039
▁ယက္ခော	-10.3039
▁ဝိဇ္ဈ	-10.3044
▁နိက္ခန္တ	-10.3045
နေယ္ယ	-10.3046
▁ဂောတ္ရဘု	-10.3048
သက္က	-10.3048
▁ဂစ္ဆန္တိ။	-10.3052
▁တသ္မိံယေဝ	-10.3053
▁ပရိနိဗ္ဗာန	-10.3054
▁သင္ခ္ယာဝာရော	-10.3055
▁ဥဒ္ဓစ္စ	-10.3058
▁ဝိပသ္သ	-10.3059
▁ပဉ္စဟင္ဂေဟိ	-10.306
▁ပာ	-10.306
▁ကိမတ္ထံ	-10.3063
▁နိဝာသ	-10.3066
ဧဝမေဝ	-10.3068
▁အဒ	-10.3068
▁သင္က	-10.3071
▁ဇာနာတိ။	-10.3071
▁သုဂတိံ	-10.3072
▁ဂောတမသ္သ	-10.3075
တ္တိကံ	-10.3075
ဣတော	-10.3076
ရိယ	-10.3078
▁ဥပာဒာ	-10.3079
တထာ	-10.308
သက	-10.308
▁ဝေဒိတဗ္ဗာနိ။	-10.3081
▁အာဂတံ	-10.3086
▁သမန္နာဂတသ္သ	-10.309
▁သမထဝိပသ္သနာ	-10.3092
မေက	-10.3093
ဃဋ	-10.3095
▁နိဂ္ရောဓ	-10.3097
▁ဝိစာရော	-10.3098
▁အဉ္ဇလိံ	-10.3101
▁သံခိတ္တေန	-10.3101
▁ဆဋ္ဌေ	-10.3103
ကာလံ	-10.3105
နိဗ္ဗာန	-10.3105
▁အန္တရဃရေ	-10.3106
▁နစ္စ	-10.3112
▁အသင္ခတ	-10.3113
▁စုန္ဒ	-10.3117
ာဒေသော	-10.3118
▁ဘူ	-10.3123
▁အာသေဝနပစ္စယ	-10.3125
▁ပုရ	-10.3126
ကာမော	-10.3129
▁သတ္တာဟ	-10.313
▁အဝိတက္ကအဝိစာရ	-10.313
▁ပပဉ္စ	-10.3132
▁ဇေဋ္ဌ	-10.3135
▁ပတ္ထယ	-10.3139
ဝာဟ	-10.3141
▁အသုက	-10.3142
စ္ဆာ	-10.3148
▁စတုက္က	-10.3149
▁နောဥပာဒာ	-10.3151
▁ကာမရာဂ	-10.3152
ယေဝာ	-10.3153
ဘူတေန	-10.3153
▁ဖရိတ္ဝာ	-10.3156
သီလော	-10.3156
▁မာတိကာ	-10.3157
ပာသ	-10.316
▁သကိံ	-10.3161
▁သတသဟသ္သ	-10.3161
▁ကုမာရော	-10.3168
ာထ	-10.3175
▁ပတ္တာ	-10.3176
▁ထောကံ	-10.3178
▁ပဝတ္တိံ	-10.3182
▁အသီတိ	-10.3188
▁မာသေ	-10.3188
▁အယမတ္ထော	-10.3189
▁ဟိံသ	-10.319
ဝိဘင္ဂ	-10.3192
▁သမူဟ	-10.3194
▁၁၀၆	-10.32
လာဘ	-10.3202
▁သေယ္ယ	-10.3204
▁ပရိဘာသ	-10.3209
ခန္ဓ	-10.3215
လော	-10.3216
ဝေသ	-10.3217
▁ဗာရာဏသိယံ	-10.3217
ပရိဝာရ	-10.3218
▁ဝုဒ္ဓိ	-10.3223
▁ရာဇာနော	-10.3225
▁ဝိနယော	-10.3227
မစ္ဆ	-10.3229
▁ဝစီကမ္မံ	-10.3234
ဗ္ရာဟ္မဏ	-10.3234
▁သတ္တမ	-10.3235
▁ဝိဝိဓ	-10.3236
▁အနုသယ	-10.3236
▁အနညာတညသ္သာမီတိ	-10.3236
▁ကာမာဝစရံ	-10.324
▁ပဋိဘာန	-10.324
▁ဩလောကေတ္ဝာ	-10.324
▁ဘောဂေ	-10.3249
▁စေပိ	-10.3254
▁အပရိ	-10.3255
▁ဒေတိ။	-10.3255
ကိဏ္ဏ	-10.3258
▁ပကတိယာ	-10.3259
▁သင္ခာရာနံ	-10.3261
▁အဘိဇ္ဈာဒောမနသ္သ	-10.3263
▁မဂ္ဂာဓိပတိ	-10.3266
▁နီဝရဏ	-10.3273
▁၁၁၇	-10.3273
▁ဉာဏံ။	-10.3273
ဖသ္သ	-10.3276
▁ဥဂ္ဂဏ္ဟ	-10.3282
သေန	-10.3283
▁ဂေဟံ	-10.3283
▁ပာက	-10.3287
▁အကုသလသ္သ	-10.329
ရုဟ	-10.3291
▁အညတရသ္မိံ	-10.3293
ဝိပသ္သနာ	-10.3296
▁ပေတ	-10.3296
▁ဟဒယံ	-10.3296
▁သင္ဂ	-10.3297
▁သမ္ဗန္ဓ	-10.3297
▁ဇောတိ	-10.3298
▁သိရိ	-10.3299
▁ဥပ္ပာဒေတိ	-10.3299
ိတဗ္ဗာ	-10.33
▁ဘဝရာဂာနုသယော	-10.3301
▁ဇိနော	-10.3303
▁ပုဂ္ဂလေ	-10.3311
▁ဟာရ	-10.3314
▁အာဂစ္ဆတိ	-10.3316
ဗဟုလော	-10.3316
▁ဂတေ	-10.3317
▁ရူပာ	-10.3317
▁ဝုတ္တာနိ	-10.3321
ိတန္တိ	-10.3323
ကထာဝဏ္ဏနာ။	-10.3323
▁ဒဋ္ဌဗ္ဗော	-10.3326
▁ဥပ္ပာဒော	-10.3329
▁လောကိယလောကုတ္တရ	-10.3329
▁အနော	-10.333
▁ပညဝာ	-10.3332
▁ဥဘောပိ	-10.3332
▁ဒုဝေ	-10.3335
▁မာနာနုသယဉ္စ	-10.3342
▁ပတ္တကလ္လံ	-10.3342
▁ဥပပတ္တိ	-10.3348
▁ဣတ္ထီနံ	-10.3351
ဘယံ	-10.3351
▁ပဋိစ္စ။။	-10.3353
သိဒ္ဓ	-10.3355
▁ပဗ္ဗာဇ	-10.3358
▁အနည	-10.336
▁နိဂ္ဂဟ	-10.3361
မိတ္တ	-10.3361
▁ပဗ္ဗဇ္ဇံ	-10.3371
▁ဂာထာဟိ	-10.3372
▁နိသိန္နာ	-10.3373
▁ဝတ္တတေ။	-10.3373
▁ဝုဋ္ဌာယ	-10.3381
▁ကိဉ္စ	-10.3382
▁ဟိရီ	-10.3384
▁ပသ္သိတ္ဝာ	-10.3386
▁ဝာသ	-10.3387
▁လောကုတ္တရံ	-10.3395
ိသ္သာမီတိ	-10.3396
ဝာဒော	-10.3396
▁နိက္ခမ	-10.3397
▁အဝောစ	-10.3399
ဂမနံ	-10.3399
ယဒာ	-10.3405
▁စတ္တာလီသ	-10.3406
▁ဒာတဗ္ဗော	-10.3407
▁ပုတ္တေ	-10.341
▁ပဒေဟိ	-10.341
▁အာဂမန	-10.3411
▁မယိ	-10.3411
ဘင္ဂ	-10.3413
ပာသာဒ	-10.3416
▁ဝီရ	-10.3417
▁ဥဋ္ဌာယာသနာ	-10.3422
က္ကန္တ	-10.3423
▁ဗ္ယာဓိ	-10.3425
▁သီလေန	-10.3426
▁နိန္န	-10.3426
▁သုက္ခ	-10.3437
▁ဝိသ္သဇ္ဇ	-10.3441
▁ဒိသ္သန္တိ	-10.3441
▁ပရိစ္ဆေဒ	-10.3445
▁စုတော	-10.3446
▁ဝာရေ	-10.3446
▁ဌိတေ	-10.3449
နီလ	-10.3449
▁ဥပ္ပန္နေ	-10.345
▁ကထေန္တော	-10.3451
▁အာရောပေတ္ဝာ	-10.3451
▁နေဝသညာနာသညာယတန	-10.3458
▁စက္ခာယတနဉ္စ	-10.3459
▁အရိယံ	-10.3459
▁ပဋိပဒံ	-10.346
▁နာမရူပံ	-10.346
▁သုမနော	-10.3461
▁ဥပာသက	-10.3462
▁ပကာရေန	-10.3465
▁ဝုတ္တပ္ပကာရ	-10.3465
▁ဇရာမရဏံ	-10.3471
▁ဝိဟရတော	-10.3472
▁ယုတ္တံ	-10.3473
▁ဝေရမဏီ	-10.3475
▁အဂ္ဂော	-10.3476
▁ဣတ္ထိလိင္ဂ	-10.3477
စရဏ	-10.3477
▁အာယသ္မတာ	-10.3477
▁အညာတာဝိန္ဒ္ရိယံ	-10.3477
▁ဗာလာ	-10.3479
▁မာတရံ	-10.3483
ဏော	-10.3484
▁ဒာ	-10.3485
ေတေ	-10.3486
ိသ္သာမာ	-10.3492
▁ဗဟုဝစန	-10.3495
▁ဝင္က	-10.3499
မဟာရာဇ	-10.3499
သဋ္ဌိ	-10.3499
▁ခရ	-10.35
▁သုခသ္သ	-10.3502
▁ပဉ္ဟာ	-10.3502
ဂာမေ	-10.3503
▁ပဂ္ဂယ္ဟ	-10.3504
▁အရ	-10.3509
စောရ	-10.3511
▁မဟာရာဇ၊	-10.3513
▁ဇနပဒ	-10.3516
ာနုဘာဝေန	-10.3517
သမာန	-10.3518
▁ပသ္သဒ္ဓိ	-10.3519
▁စုတိ	-10.352
▁အရဟန္တ	-10.3523
▁သသ	-10.3526
▁ထူလ	-10.353
▁သပ္ပုရိသ	-10.3532
သာဓာရဏ	-10.3534
▁တပ္ပ	-10.354
▁ထုလ္လစ္စယ	-10.354
▁အဘိနန္ဒ	-10.3542
▁ဥပ္ပလ	-10.3544
ာပီတိ	-10.3546
ပညာယ	-10.3547
ယဉ္စ	-10.3548
▁အနတ္တတော	-10.3548
▁တသ္သာတိ	-10.3548
▁ပိတရံ	-10.355
▁သညောဇန	-10.3552
▁နေဝသေက္ခနာသေက္ခ	-10.3556
▁ပဇာ	-10.3557
▁သာမဏေရ	-10.3558
▁ဂဝေသ	-10.3563
▁အာပောဓာတု	-10.3565
တရာ	-10.3574
▁ဘူမီသု	-10.3578
ပ္ပသာဒ	-10.3581
ဝတ္တံ	-10.3584
▁စေတ	-10.3589
▁စေတသိကံ	-10.3591
ပက္ခေ	-10.3592
▁ကာတဗ္ဗံ။	-10.3592
တ္ထေရ	-10.3593
ိယာ။	-10.3598
သုပိ	-10.3603
▁အစ္စ	-10.3605
ဟော	-10.3605
▁နပ္ပဇဟတိ	-10.3605
▁ဂိရိ	-10.3611
▁နိသီဒိ	-10.3613
▁ဥပပဇ္ဇိတ္ဝာ	-10.3615
ဘာ	-10.3616
▁ဝိသေသော။	-10.3618
ူပမာ	-10.362
▁အနုပုဗ္ဗေန	-10.3621
▁ပရဉ္စ	-10.3627
▁အသေက္ခ	-10.3628
▁ပုဗ္ဗဘာဂ	-10.3629
▁သဒ္ဒေ	-10.3632
▁ခိပ	-10.3632
▁နဝမေ	-10.3642
▁အာယ	-10.3644
▁အဂ္ဂိံ	-10.3649
▁ဒက္ခိဏာ	-10.3651
▁ပရိဇာနာတီတိ	-10.3655
▁ဝုတ္တောတိ	-10.3656
▁ဝိသုဒ္ဓိမဂ္ဂေ	-10.366
ကာမာ	-10.3662
▁ဂာထမာဟ။	-10.3663
ာဒိန္နုပာဒာနိယော	-10.3665
▁ဣဒာနေဝ	-10.3665
▁နာမ၊	-10.3666
မဘိ	-10.3666
▁ဝာစတော	-10.367
▁သမာဒပေတိ	-10.3674
တ္တေန	-10.3676
ပဋိပတ္တိ	-10.3676
▁ဒဒ	-10.3677
▁ဈ	-10.3677
▁ဝေဒယိတံ	-10.3679
မတိ	-10.3679
▁မာနတ္တံ	-10.368
▁သဗ္ဗသ္သ	-10.3681
▁အာဝာသေ	-10.3684
ကထာယ	-10.3689
▁ပစ္စုပ္ပန္နံ	-10.3692
▁ဇာနန္တော	-10.3698
ယောဂော	-10.3702
▁ပတိဋ္ဌာယ	-10.3707
▁ဗောဓ	-10.3708
▁ဝဟ	-10.371
ဟု	-10.371
▁မဇ္ဇ	-10.3715
▁ပတိဋ္ဌိတ	-10.3717
▁သမဂ္ဂ	-10.3717
▁ဥပစာရ	-10.3721
▁ကမ္ပ	-10.3721
▁ပဌမာ	-10.3722
ီယန္တိ	-10.3724
သဟသ္သာနိ၊	-10.3725
▁မယ	-10.3726
▁ဘာရ	-10.3729
▁ဒ္ဝာရံ	-10.373
ဧတ	-10.3733
ဗလေန	-10.3734
▁သေယ္ယော	-10.3737
▁ကဋတ္တာ	-10.3741
တတ္ရ	-10.3742
ဝသာနေ	-10.3745
▁ပဋိက္ကမ	-10.3747
▁ပစ္ဆာဇာတာ	-10.3752
နာနတ္တ	-10.3754
▁ဥပ္ပန္နသ္သ	-10.376
▁အနုဗန္ဓ	-10.3765
▁သဗ္ဗေဝ	-10.3773
ာဓိဂမ	-10.3778
ဋ္ဌိတ	-10.3781
▁ဣတရံ	-10.3786
မုခံ	-10.3789
ိနိ	-10.3789
က္ခတ္တုံ	-10.3789
ဋ္ဌေ	-10.3791
ေန္တီ	-10.3793
▁အစ္စယေန	-10.3793
▁ယုဇ္ဇတိ။	-10.3794
ပဝတ္တ	-10.3795
▁စရဏ	-10.38
ကာသိ	-10.3801
▁ပာန	-10.3802
▁ခယာ	-10.3803
▁ပီတိယာ	-10.3806
လု	-10.3809
ိကေ	-10.381
▁ဒေဝေသု	-10.3811
နဂရံ	-10.3814
လက္ခဏံ။	-10.3814
▁သပ္ပာယ	-10.3817
▁အဓိက	-10.3818
▁ဂန္ဓော	-10.3819
▁အနဝသေသ	-10.3819
▁အနုက္ကမေန	-10.3819
▁ကဋ	-10.3826
▁ပဋိဇာနာတိ	-10.3826
▁မဒ	-10.3828
▁ဣဒ္ဓိယာ	-10.383
▁နိသီဒတိ	-10.3832
▁ဥပ္ပာဒာယ	-10.3833
▁ဥဒ္ဓစ္စံ	-10.3835
▁ပိဏ္ဍပာတံ	-10.3837
▁ဝသန္တိ	-10.3838
▁မဂ္ဂဖလ	-10.384
▁သမ္ပတ္တိ	-10.3847
▁ဩဝာဒံ	-10.385
င္ဂံ	-10.3851
▁ဉာတ	-10.3852
ပာန	-10.3854
–-	-10.3858
▁လူခ	-10.3859
▁အဘယ	-10.3866
ပူဇ	-10.3869
▁ဥပသမ္ပဒာ	-10.3871
▁တိဝိဓံ	-10.3871
▁စိတ္တတော	-10.3873
အဋ္ဌကထာယ	-10.3876
▁ပေက္ခ	-10.3878
▁အာမန္တာ	-10.3882
▁သမတ္ထ	-10.3884
▁ပဒက္ခိဏံ	-10.3885
ဂမ္ဘီရ	-10.3886
▁သင္ခတ	-10.3886
▁တု၊	-10.389
▁ဘရ	-10.3893
▁ဝိမောက္ခ	-10.3894
▁၁၂၀	-10.3894
ပရိယာပန္န	-10.3895
▁ပဒေ	-10.3896
▁ယ္ဝာယံ	-10.3898
သမင္ဂီ	-10.3899
▁ပရိဘုဉ္ဇ	-10.39
▁သောမနသ္သံ	-10.39
ဂတေ	-10.39
▁ဇောတ	-10.39
▁အလင္ကာရ	-10.3905
▁ဥဒ္ဓ	-10.3905
▁သုတ္ဝာန	-10.3906
▁တေသံယေဝ	-10.3907
▁ဧဟိ	-10.391
▁စက္ခုဝိညာဏ	-10.3911
သတသဟသ္သ	-10.3913
▁အာရာမေ။	-10.3914
▁အပနေတ္ဝာ	-10.3915
▁သဟဓမ္မိက	-10.3915
▁သဗ္ဗေ၊	-10.3917
ဝနံ	-10.3921
▁ဝိရာဂ	-10.3921
▁ဒေဟိ	-10.3923
▁အဘာဝေန	-10.3924
ယမက	-10.3924
▁ဝေဒိတဗ္ဗံ	-10.3932
ပဋိပက္ခ	-10.3938
▁သီဟော	-10.3939
အနန္တရူပနိသ္သယော	-10.3951
▁အဝယဝ	-10.3953
▁သယန	-10.3953
အာဝုသော	-10.3956
▁လောကာ	-10.3956
▁ခိတ္တ	-10.396
▁ပကာရ	-10.3961
က္ခန္ဓော	-10.3965
▁ဥပ္ပဇ္ဇိ	-10.3966
▁ပဉ္စမံ	-10.3968
ဟတ္ထိ	-10.3968
ဘု	-10.3969
စီ	-10.397
▁ဝိညာဏသ္သ	-10.397
ေတဗ္ဗံ	-10.3971
▁အနာဂာမီ	-10.3971
▁ပုရိမနယေနေဝ	-10.3971
▁ဝတ္တတိ	-10.3971
▁သဗ္ဗာပိ	-10.3972
ပ္ပမာဏံ	-10.3972
မာနသ္သ	-10.3973
▁စိတ္တသံသဋ္ဌ	-10.3975
▁ဣတရာ	-10.398
▁သိက္ခတိ	-10.398
▁အနုရူပ	-10.3981
▁ပဉ္ဟ	-10.3981
▁မက္ခ	-10.3985
▁ဂဟေတဗ္ဗ	-10.3985
▁ကောသိယ	-10.3986
▁ပဋိညာ	-10.3988
▁ဇရာမရဏ	-10.3988
▁အမ္ဟေ	-10.3993
▁ယန္တိ	-10.3999
အညမည	-10.4003
▁သမယ	-10.4005
▁တထာ။	-10.4008
ဝစနံ။	-10.4009
▁တာသု	-10.401
▁ဘိက္ခုနိံ	-10.401
▁ဥဂ္ဂတ	-10.4016
ိတဗ္ဗန္တိ	-10.4018
ိတုန္တိ	-10.402
▁ဂောစရ	-10.4021
▁မတ္တ	-10.4022
▁ဂဟ	-10.4022
ဓနံ	-10.4025
▁ပဟာနာ	-10.4028
▁ဩဠာရိက	-10.4028
▁လောကေ။	-10.4028
▁ရာဇာ၊	-10.403
▁အာရဗ္ဘာတိ	-10.4031
▁ဥပာယ	-10.4031
တ္ထသ္သ	-10.4032
ဘူတသ္သ	-10.4037
သင္ဂ	-10.4039
▁ကိန္တိ	-10.4039
▁အရဟတ္တမဂ္ဂ	-10.404
▁တာပသ	-10.4041
▁ဒိဋ္ဌေ	-10.4044
▁ပက္ကမ	-10.4044
ကတမေ	-10.4044
ဝီထိ	-10.4046
ိတ္ဝာ၊	-10.4046
▁အပရိယာပန္နေ	-10.4047
ဒေဝတာ	-10.4048
▁ပဟာတဗ္ဗ	-10.4051
ကရဏေန	-10.4051
▁သုခဒုက္ခ	-10.4054
▁အာဝာသိကာ	-10.4056
▁အဋ္ဌဟိ	-10.4057
▁သမ္ပတ္တေ	-10.4064
သဒ္ဒံ	-10.4067
▁သော၊	-10.4067
▁ဝသိ	-10.4067
▁ထမ္ဘ	-10.4068
▁ဗဟူနိ	-10.4068
▁သုဂတိ	-10.4069
▁ဓမ္မဉ္စ	-10.4072
▁အပ္ပမတ္တော	-10.4073
▁လက္ခ	-10.4073
▁အနုသေတိ	-10.4074
▁ဂာမော	-10.4078
▁စန္ဒန	-10.4081
▁ယာဂု	-10.4081
▁ဥပဇ္ဈာယ	-10.4082
▁မဟတော	-10.4083
▁မေတ္တာယ	-10.4084
ဗ္ယာ	-10.4088
▁တုမ္ဟေဟိ	-10.4089
▁ပဝတ္တတိ။	-10.4094
မနာ	-10.4094
သေယ္ယ	-10.4094
သန္နိသ္သိတ	-10.4095
▁ဝုဒ္ဓ	-10.4097
မေတ္ထ	-10.4097
▁ဒိသာယ	-10.4097
တ္တယံ	-10.4098
ိစ္ဆ	-10.4099
သောဘ	-10.4103
သာဓန	-10.4104
▁ကောဓော	-10.4104
▁ဝိမာန	-10.4108
ာပေသိ။	-10.4108
▁အဋ္ဌမ	-10.4112
▁ခီဏာသဝသ္သ	-10.4115
▁နအကုသလော	-10.4115
▁အင္ဂာနိ	-10.4124
▁ဒုက္ခေ	-10.4125
▁သောဟံ	-10.4126
ပေက္ခ	-10.4127
▁ဒာတဗ္ဗံ	-10.4135
▁မနောဓာတု	-10.4136
▁သေဋ္ဌိ	-10.4136
▁ဝုဋ္ဌာန	-10.4137
▁ဝိနသ္သ	-10.4139
ရဇ္ဇ	-10.4139
ဝိဇ္ဇာ	-10.4141
ဝတ္ထူနိ	-10.4145
မာလာ	-10.415
ဓမ္မေသု	-10.4152
န္တရံ	-10.4152
▁ယောဂ	-10.4154
▁တတိယာ	-10.4154
ာဒီ	-10.416
ဗဟု	-10.4163
ဂု	-10.4163
▁ဥပ္ပဇ္ဇေယ္ယ	-10.4169
▁သိဗ္ဗ	-10.417
▁ပဋိလဘိသ္သန္တိ	-10.4171
▁ဒဟရ	-10.4173
ာနုဘာဝ	-10.4174
တာယာတိ	-10.4174
▁ဥဇု	-10.4176
ကတ္ထ	-10.418
▁ပဏ္ဍိတော။	-10.4183
▁ဒေဝမနုသ္သာနံ	-10.4185
▁ပတ္တိယာ	-10.4186
သမူဟ	-10.4186
ရုက္ခော	-10.4187
▁ပက္ကာမိ။	-10.4192
▁အယမ	-10.4194
▁ဇနေတိ	-10.4202
▁သမ္မာသတိ	-10.4205
ဓုရ	-10.4207
▁အာသနံ	-10.4209
ဓရ	-10.421
▁ပာပကမ္မံ	-10.4214
▁ဂဟေတဗ္ဗော။	-10.4216
သဒ္ဓာ	-10.422
ိဋ္ဌ	-10.4222
ိသ	-10.4222
▁အပ္ပမာဏ	-10.4222
▁သတိသမ္ဗောဇ္ဈင္ဂ	-10.4228
▁ဝဒန္တော	-10.423
▁အနုဝတ္တ	-10.4235
▁မောဒ	-10.4235
▁အဓိဂမ	-10.4236
▁နသရဏ	-10.4238
▁၁၂၂	-10.4241
▁ဗ္ယာ	-10.4241
▁ထုလ္လစ္စယံ	-10.4243
▁ပရက္ကမ	-10.4244
▁အပ္ပဟီနော	-10.4246
▁ဝိသေသေန	-10.4248
▁၁၂၃	-10.4251
▁ဘာဝေ	-10.4251
▁သင္ခ္ယာ	-10.4254
▁ဥပာသိကာ	-10.4256
▁အနုဘဝ	-10.4266
▁သတ္ထာရာ	-10.427
▁ပဗ္ဗဇိတာ	-10.4271
ဒယော	-10.4271
▁ကမ္မာနံ	-10.4272
တ္ထေန	-10.4273
ဂဏနာယ	-10.4274
ပာရမိ	-10.4279
▁ပာသာဒ	-10.4279
ဝိဓာန	-10.4282
▁၁၂၄	-10.4284
ိမံ	-10.4285
▁ဇညာ	-10.4288
မတ	-10.4291
▁မာနံ	-10.4293
▁ပဒေသေ	-10.4297
▁သဗ္ဗဒိသာ	-10.4303
▁အဘိဝ	-10.4304
▁သောတာယတနံ	-10.4305
▁ပုဗ္ဗဘာဂေ	-10.4305
▁အာလောကော	-10.4305
ရသာ	-10.4307
▁သ္ဝေဝ	-10.4309
ဂရု	-10.4311
▁သမ္မောဟ	-10.4315
▁သဗ္ဗလောက	-10.4315
▁အတ္တမနော	-10.4318
ယုတ္တာ	-10.432
င္ဂုလ	-10.4322
▁အရိယာနံ	-10.4324
သ္ဝာဂတံ	-10.4325
▁သံသဋ္ဌာ	-10.4328
▁နတ္ထိယာ	-10.4328
▁ဥပနိသ္သယ	-10.4329
▁ဝိညာတ	-10.433
ာရမ္မဏာ	-10.433
▁ဣန္ဒ္ရိယပစ္စယေန	-10.4332
ကလာပ	-10.4333
▁အပရေန	-10.4335
▁ပုဗ္ဗေဝ	-10.4335
ေသီ	-10.4339
▁ပာကဋာ	-10.4346
ဓရာ	-10.4348
▁ပဟရ	-10.4349
▁ကတံ။	-10.4351
မဓုရ	-10.4354
▁ပာပကံ	-10.4362
▁သဒ္ဓံ	-10.4363
▁သလ္လ	-10.4363
▁ဧတေနေဝ	-10.4363
▁သာမ	-10.4368
ဟိ။	-10.4368
▁ကတ္ဝာ၊	-10.437
ဂဟဏ	-10.4371
သင္ဂဟော	-10.4372
▁ဥပဂန္တ္ဝာ	-10.4381
စုဏ္ဏ	-10.4381
သုဒ္ဓိ	-10.4382
▁ပဋိပာဋိယာ	-10.4388
သိပ္ပ	-10.4389
▁သမီပေ	-10.439
▁ပသ္သန္တိ	-10.439
ိတာနိ	-10.4391
▁ဗောဇ္ဈင္ဂ	-10.4396
▁အာဟု	-10.4405
▁ဝုစ္စတေ	-10.4405
▁သမတ္ထော	-10.4405
စမ္မ	-10.4411
ရတိ	-10.4415
▁ဥဋ္ဌာယ	-10.4415
▁ပဋိဝေဓ	-10.4416
▁ဘဏန္တသ္သ	-10.4416
▁ဒိဝသံ	-10.4417
▁ဈာယီ	-10.4423
▁သမုဋ္ဌာနေဟိ	-10.4424
လမ္ဗ	-10.4426
▁သင္ဂဟံ	-10.4428
▁ပိယံ	-10.4429
▁ဒာတဗ္ဗ	-10.443
▁ဘာဝိတ	-10.443
ဘာဇန	-10.4431
ဏ္ဟ	-10.4437
သဟဂတ	-10.4438
မဏ္ဍလံ	-10.4439
ဝိတ္ထာရ	-10.4439
▁ကာယကမ္မ	-10.444
ရူပေ	-10.4446
▁တိရိယံ	-10.4446
▁သက္ယ	-10.4447
▁အဘာဝ	-10.4454
▁ပသန္န	-10.4454
▁မလ္လ	-10.4455
▁ပီဠ	-10.446
▁မနသိကာရော	-10.4462
▁ခန္ဓေန	-10.4466
▁ဩလောက	-10.4466
ဂ္ဂာဟော	-10.447
ပရိယန္တ	-10.4472
▁ကာမာဝစရာ	-10.4472
▁ဝိနိစ္ဆယ	-10.4475
▁ဟတ္ထပာဒ	-10.4477
▁ဗ္ယာပာဒ	-10.4477
▁ဗာဓ	-10.4477
ာနန္တရ	-10.4478
ေသုံ။	-10.4479
▁အနုလောမံ	-10.448
အည	-10.448
▁ဒုက္ခန္တိ	-10.4481
▁ဝုတ္တမ္ပိ	-10.4489
▁ဝိဘင္ဂဝာရော	-10.4492
▁ဒုဝိဓော	-10.4496
▁တတိယမ္ပိ	-10.4499
▁ပဋိဂ္ဂဟ	-10.4502
▁စန္ဒော	-10.4505
သေဋ္ဌိ	-10.4505
▁သံဝေဂ	-10.4508
▁အတ္ထီ	-10.4508
▁သုတ္တန္တ	-10.451
▁ဂုဏာ	-10.4511
ာစရိယ	-10.4514
သ္သာဒ	-10.4519
▁၁၂၁	-10.4519
▁အရဟ	-10.4521
▁ယုတ္တော	-10.4521
ဘာဝနာယ	-10.4521
ပက္က	-10.4521
▁ဘောန္တော	-10.4523
▁အဝောစ။	-10.4524
▁ကတ္တဗ္ဗံ	-10.4527
▁ဝသီ	-10.4528
အဇ္ဇ	-10.4531
▁ပရိဟရ	-10.4531
▁နာနတ္တ	-10.4533
▁ပတိတ	-10.4533
ဝာသိ	-10.4534
▁ဟီတိ	-10.4537
▁ဣဝ	-10.4537
လောဟိတ	-10.4545
ဟီန	-10.4548
▁သမန္နာဂတံ	-10.4549
ဘိက္ခူ	-10.4549
▁ဘာသိတာ	-10.4551
▁အတ္တဘာဝေ	-10.4551
▁မာရိသ	-10.4553
▁ဝိသံ	-10.4555
ဝေဒန	-10.4566
▁ပဟာတဗ္ဗဟေတုက	-10.4566
▁သဒ္ဓော	-10.4567
▁အာကိဉ္စညာယတန	-10.4567
▁ပုစ္ဆတိ	-10.4571
ယုတ္တံ	-10.4571
▁ကိရိယ	-10.4572
▁ကုသလတ္တိက	-10.4573
▁နိပဇ္ဇ	-10.458
▁သမယော	-10.458
▁စတုဗ္ဗိဓံ	-10.4582
တ္ဝံ	-10.4583
▁အာကာသာနဉ္စာယတန	-10.4584
ံယေဝ	-10.4587
▁နိရုဇ္ဈတီတိ	-10.4591
ရိဝ	-10.4591
▁အဘဗ္ဗော	-10.4593
▁ပဝတ္တော	-10.4594
▁ပဉ္ဟော	-10.4597
▁ဗလဝာ	-10.4602
ဌာန	-10.4602
▁စတုတ္ထော	-10.4604
▁ပထဝိ	-10.4604
▁ဥပာဒာနံ	-10.4604
▁ဇာနေယ္ယ	-10.4606
▁ဝတ္ထံ	-10.4608
▁သံသရ	-10.4608
လံ	-10.4613
▁ဟတ္ထတော	-10.4613
ဝန္တံ	-10.4613
▁ယောနိသောမနသိကာရ	-10.4619
▁သိဝ	-10.462
ာနုရူပံ	-10.4621
▁ဣမ	-10.4623
အနာပတ္တိ	-10.4623
▁ဝသိတ္ဝာ	-10.4624
▁ကာတဗ္ဗ	-10.4624
▁ဝိပ္ပယုတ္တာ	-10.463
▁အဝိတက္ကအဝိစာရော	-10.4634
▁ခဇ္ဇ	-10.4635
ေတဗ္ဗာ	-10.4638
▁ဝနံ	-10.4646
သာယ	-10.4648
▁ဥက္ခိပိတ္ဝာ	-10.4648
▁သမ္ဘဝ	-10.4651
▁ဓာရ	-10.4656
▁သဟသာ	-10.4656
န္ဓကာရ	-10.4662
▁အာဟရိ။	-10.4665
▁ဥပာယေန	-10.4671
▁ဝာဒော	-10.4671
ပဝတ္တိ	-10.4671
▁သင္ဂဟိတာ။	-10.4675
သင္က	-10.4675
▁သမန္နာဂတော။	-10.4675
ရဟိတ	-10.4676
▁ပာဝိသိ။	-10.4679
▁ဗ္ရဟ္မစရိယ	-10.4679
င	-10.468
▁အတ္တတော	-10.4681
▁ဩဝဒ	-10.4686
▁ကာရက	-10.469
▁ပာရံ	-10.469
▁ဥဒ္ဒိသ	-10.4695
ာဒိအ	-10.4698
▁သုဝိညေယ္ယမေဝ။	-10.4702
▁မဟာရာဇာ	-10.471
▁မဟာဇန	-10.4711
အာဒီနိ	-10.4713
▁နိဗ္ဗာနသ္သ	-10.4713
လောပ	-10.4719
▁စိတ္တသမုဋ္ဌာန	-10.4722
▁ရုက္ခော	-10.4726
▁တိတ္ထိယ	-10.4727
ပဉ္ဟ	-10.4728
▁သမ္မပ္ပဓာန	-10.4728
▁ဝသေ	-10.4728
▁ဝိနယံ	-10.4729
▁ဝီတိက္ကမ	-10.4729
▁ဖောဋ္ဌဗ္ဗာယတနံ	-10.4733
စရိယ	-10.4735
▁ဝတ္ထုသ္မိန္တိ	-10.4736
ဒသ္သနံ။	-10.4736
မုတ္တမံ။	-10.4738
ာဟီ	-10.474
▁ဗ္ရူဟိ	-10.4746
▁သမဏသ္သ	-10.4746
သီသေန	-10.4746
▁ပညပ	-10.4746
▁ပာစိတ္တိ	-10.4747
ပဒုမ	-10.4752
▁ကရောထ	-10.4752
ိမာ	-10.4762
သာခ	-10.4764
ကမ္မသ္သ	-10.4764
▁သင္ဃော။	-10.4767
▁ဧကိသ္သာ	-10.4768
ဘဒ္ဒ	-10.4769
▁ဘာယ	-10.4771
ိယမာန	-10.4771
ပစ္စုပ္ပန္န	-10.4773
ာသီ	-10.4773
မာနော။	-10.4773
▁သပ္ပီတိက	-10.4774
▁သောတာပတ္တိဖလေ	-10.4779
▁အဘာဝာ	-10.4781
▁၁၂၅	-10.4783
▁ဣမိနာဝ	-10.4786
ဝိဓံ	-10.4789
▁နိဗ္ဗုတော	-10.479
▁အနုဇာန	-10.4793
တူတိ	-10.4796
ဝိပလ္လာသ	-10.4798
▁အနဂာရိယံ	-10.48
▁သတိပိ	-10.4801
▁သမာပတ္တိံ	-10.4801
▁သိနေဟ	-10.4809
▁ဝိဇာန	-10.481
▁ဝိညူ	-10.4811
က္ခဏ	-10.4812
▁ဝိဘာဝ	-10.4821
▁သီဃံ	-10.4824
▁အဂာရသ္မာ	-10.4824
▁ဃာတ	-10.4828
မာဏဝ	-10.4831
▁ဝိဝာဒ	-10.4833
ောဒကံ	-10.4834
ထာတိ	-10.4835
ကမ္မဋ္ဌာန	-10.4836
ကုဋိ	-10.4836
▁ဒဟ	-10.4836
▁ပုရိမံ	-10.4837
▁စက္ခုဝိညာဏသ္သ	-10.4838
သေဋ္ဌ	-10.484
▁ကိရိယံ	-10.4844
▁အနာသဝော။	-10.4854
ဗုဒ္ဓော	-10.4855
▁မိသ္သက	-10.4857
▁ဧဝမာဟံသု	-10.4857
▁ပရိစ္ဆိန္န	-10.4861
ဟေ	-10.4864
▁မဉ္စ	-10.4867
ိသ္သသိ	-10.4871
ာသီတိ	-10.4872
▁သင္ဂဟိတာ	-10.4876
▁ပုထုဇ္ဇနာ	-10.4878
ဝိဟာရေ	-10.4881
▁သဟသ္သံ	-10.4882
ရောဓ	-10.4882
▁ဝိဘဝ	-10.4883
▁ပူတိ	-10.4883
ကာရာ	-10.4885
▁လောဟ	-10.4885
တလေ	-10.4886
▁ရာဟုလ	-10.4887
သမယ	-10.4887
သမ္ပန္နာ	-10.4889
▁တပော	-10.4889
▁နိရုဇ္ဈန္တိ	-10.4894
ဝာသိနော	-10.4899
▁အမောဟော	-10.49
သမ္ဗောဇ္ဈင္ဂသ္သ	-10.49
▁သံဝရော	-10.49
သောက	-10.4901
▁ဂဝ	-10.4903
▁ဒက္ခိဏေယ္ယ	-10.4903
▁နောအာသဝ	-10.4903
လီ	-10.4904
▁ဂုဏံ	-10.4906
▁စတုဗ္ဗိဓ	-10.4909
▁နိဒသ္သန	-10.4909
▁ဂိဟီ	-10.4915
▁မနသိကရောတော	-10.4916
▁အာရမ္မဏူပနိသ္သယ	-10.4917
▁သမ္ဘာဝ	-10.4919
ရဋ္ဌ	-10.4919
▁အယ္ယေ	-10.4926
ုဒ္ဒေသ	-10.4931
ာနဉ္ဟိ	-10.4934
ေတုကာမော	-10.4934
▁တဏ္ဟံ	-10.4934
▁ဝီသ	-10.4936
သမ္မုတိ	-10.4937
▁စေတော	-10.4937
▁ဂဟိတော	-10.4938
▁စက္ကဝတ္တိ	-10.494
▁ဥပောသထော	-10.4941
ကမ္မေ	-10.4944
▁တထာဂတံ	-10.4949
ိနီ။	-10.495
▁ဧဝမာဒီသု	-10.4953
ုံ။	-10.4959
▁ဥပ္ပာဒေတ္ဝာ	-10.4959
▁ဘုတ္တ	-10.4959
သာမဏေရ	-10.4961
▁မောဟသ္သ	-10.4966
▁အဝိပရီတ	-10.4968
▁ဒိဋ္ဌာနုသယော	-10.497
▁ကသ္သပော	-10.4972
▁ဓုဝံ	-10.4974
ဝသ္သံ	-10.4975
ရဏ	-10.4976
ကရာ	-10.4977
▁ဥပဋ္ဌဟ	-10.4979
▁ဧကမေဝ	-10.498
▁နိပန္န	-10.498
ဘာဂေ	-10.499
▁ကုလံ	-10.4992
▁ဖုသ္သ	-10.4993
▁အာဗာဓ	-10.4993
ဇာတိကော	-10.4995
▁၁၂၆	-10.4995
▁ဝာရိ	-10.4998
နိရောဓာ	-10.4999
▁ဝိသ္သဋ္ဌ	-10.5
▁ပုဗ္ဗေပိ	-10.5001
▁ဒုဝိဓေန	-10.5002
ရတနံ	-10.5003
မနသိကာရ	-10.5004
ဒသ္သ	-10.5009
▁ပရိယေသ	-10.5011
သမော	-10.5012
▁ဟဝေ	-10.5014
မတ္ထံ	-10.5015
▁၁၂၈	-10.5019
▁ဝာက္ယ	-10.5022
▁အာသန္န	-10.5031
▁မနောဝိညာဏဓာတု	-10.504
▁ဗုဒ္ဓုပ္ပာဒေ	-10.504
သ္ဝ	-10.5042
▁ပသ္သတီတိ	-10.5043
▁မနံ	-10.5046
▁ဆဍ္ဍေတ္ဝာ	-10.5047
▁အာရဒ္ဓံ။	-10.505
▁မဟတာ	-10.5053
▁သုမန	-10.5054
▁ဒက္ခိဏံ	-10.5057
▁အနရိယ	-10.5059
▁ဂမနေ	-10.5061
ာဒ	-10.5065
ိတ္ဝာတိ	-10.5065
ဋ္ဌာနတော	-10.5067
ေသူ	-10.5067
ခဏ္ဍ	-10.5068
▁ပဂ္ဂဟ	-10.5068
▁အတ္ထိ။	-10.5069
လဒ္ဓ	-10.507
ပာရ	-10.5074
▁ဇာနန	-10.5075
▁သရဏဂမန	-10.5076
▁ပဋိပဒာယ	-10.5083
▁ခတ္တိယော	-10.5084
▁ပညတ္တန္တိ	-10.5088
ပာရမီ	-10.5088
▁သူရိယော	-10.5088
▁အသ္သာသပသ္သာသ	-10.5092
▁အာသိ၊	-10.5096
▁ဝိသေသံ	-10.5096
▁ဘူမိယာ	-10.5097
▁ဥပသင္ကမ	-10.5097
သမံ	-10.51
▁ပာနီယ	-10.5103
▁ဥပပရိက္ခ	-10.5103
▁သကုဏ	-10.5106
ဝာစ	-10.5112
▁၁၂၇	-10.5113
▁ပစ္စယပစ္စနီယံ	-10.5116
▁တိဗ္ဗ	-10.5118
အရိယ	-10.5123
▁နိဒ္ဒေသ	-10.513
ရူပာနိ	-10.5131
မန္တော	-10.5135
ဝိကာရ	-10.5135
▁ဘောတော	-10.5136
ယာဝ	-10.5144
ိသ္သံ	-10.5146
ဝိဘာဂ	-10.5151
▁နက္ခတ္တ	-10.5154
ပဋိသန္ဓိ	-10.5154
▁ဌာနေဟိ	-10.5155
ာနန္တရံ	-10.5156
▁ပုစ္ဆိတော	-10.5157
▁ဇဝ	-10.5163
▁အဝစ	-10.5163
ယိံ။	-10.5165
သိယာ	-10.5165
ိကာတိ	-10.5165
▁အာန	-10.5166
ဇ္ဈာသယ	-10.5166
▁အရိယသစ္စံ	-10.5168
▁နိသိန္နသ္သ	-10.5168
ဘာဝာ	-10.5168
▁ဝိသဘာဂ	-10.5169
▁ဘိဇ္ဇ	-10.5172
▁ဝိပရီတ	-10.5174
▁ဒုဝိဓံ	-10.5175
နတော။	-10.5176
▁ဣဒမဝောစ	-10.5176
▁သက္ခိ	-10.5179
▁နိသ္သရဏံ	-10.5181
▁ဝိမုတ္တ	-10.5183
ပဒာနံ	-10.5183
▁ဒသ္သနတ္ထံ	-10.5184
▁ကရိသ္သာမိ	-10.5194
မာဟု	-10.5194
သဘာဂ	-10.5195
သေနာသန	-10.5197
▁ဒဋ္ဌဗ္ဗံ	-10.5201
▁မရ	-10.5202
▁ဝုတ္တာနိ။	-10.5204
▁ပရိဂ္ဂဟ	-10.5209
▁ပဉ္ဟေ	-10.5212
ပာဏ	-10.5214
▁အညသ္မိံ	-10.5214
▁ဘာသိတ	-10.5216
▁မုတ္တာ	-10.5216
သမုဒ္ဒ	-10.5219
▁ကဟာပဏ	-10.5219
ပကာရ	-10.5221
▁မာနာနုသယေန	-10.5231
နိသ္သိတံ	-10.5233
▁ပညာသ	-10.5234
▁ရက္ခိတ	-10.5236
▁ဂယ္ဟ	-10.5239
▁ဟတ္ထံ	-10.5241
▁ပုရိသာနံ	-10.5244
▁ဓီရော	-10.5245
ာသန	-10.5246
▁ပညတ္တိ။	-10.5247
▁ကတ္ဝာတိ	-10.5247
ာယသ္မတော	-10.525
ောပ	-10.5251
တ္ထေရအပဒာနဝဏ္ဏနာ	-10.5252
▁ဥဘယတ္ထ	-10.5254
▁ဒဓိ	-10.5256
▁ဂစ္ဆာမိ	-10.5257
ဆန္ဒ	-10.5261
ေတိ၊	-10.5262
သဝန	-10.5262
▁အသက္ကောန္တော	-10.5262
ပုရေ	-10.5262
▁သင္ဃာဒိသေသသ္သ။	-10.5266
သမာဒာန	-10.5269
▁ဖလသမာပတ္တိ	-10.5269
တိအာဒိကံ	-10.5271
ဏေ	-10.5271
▁ဝသန္တော	-10.5272
ညာ	-10.5274
သိဒ္ဓိ	-10.5275
▁မောစ	-10.5279
▁ဣသ္သာ	-10.528
▁သက္ကာယဒိဋ္ဌိ	-10.5282
▁ပဝုစ္စတိ။	-10.5283
သိရ	-10.5284
▁မဒ္ဒ	-10.5288
▁သမ္ဗုဒ္ဓ	-10.5289
▁ပတ္ထနာ	-10.5294
▁တ္ယ	-10.5299
▁အစ္ဆရာ	-10.53
မရ	-10.5303
▁ဝဇ	-10.5304
ဇိန	-10.5307
▁ဥဒကေန	-10.5311
▁ကညာ	-10.5314
▁ဥစ္ဆု	-10.5317
▁ကိလမ	-10.5319
▁အာဝဇ္ဇ	-10.532
ကာယာ	-10.5323
▁ကတန္တိ	-10.5326
▁ပညာဝိမုတ္တိ	-10.5327
ဝာ။	-10.5327
တသ္မာ	-10.5328
ဝာတ	-10.5328
▁သဇ္ဈာယ	-10.5329
▁ရာသိ	-10.533
▁မတော	-10.5333
▁ပထ	-10.5337
▁ဝံသ	-10.534
▁အနာပုစ္ဆာ	-10.534
▁တဏ္ဍုလ	-10.534
▁သန္နိပာတ	-10.5343
ဠိ	-10.5347
ဟတ	-10.5348
▁ဒီပေတိ	-10.535
▁ပဒဋ္ဌာန	-10.5351
▁အာရောစေသိ။	-10.5354
တဗ္ဗ	-10.5354
▁ရာဂသ္သ	-10.5357
▁ဒေသိတော	-10.5358
▁ပာဠိယာ	-10.5363
▁သမ္မာသမ္ဗုဒ္ဓေန	-10.5364
▁ဝိနောဒ	-10.5367
▁ကထိတာ	-10.5368
▁ဣသ္သရ	-10.5369
▁ဒမ္မီ	-10.537
▁တထာဂတ	-10.5376
ပဏ္ဍိတော	-10.5378
မိသ္သ	-10.5378
ပဉ္စမ	-10.5379
သင္ခေပ	-10.538
▁ဃရေ	-10.5381
ဝိသိဋ္ဌ	-10.5385
▁နိဒ္ဒေသော	-10.5386
▁သာဂရ	-10.5387
▁အတ္ထေဝ	-10.5389
သိက္ခာပဒေ	-10.5392
▁ဓာတူ	-10.5392
▁အဂ္ဂဟေတ္ဝာ	-10.5393
▁ခဂ္ဂဝိသာဏကပ္ပော	-10.5393
▁ဟိမဝန္တ	-10.5394
▁ဝိမတိ	-10.54
ပာဒက	-10.5401
▁ကထိတံ။	-10.5402
▁ဂုတ္တ	-10.5404
▁ဂဏ္ဟာတိ။	-10.5406
▁မနုသ္သလောကေ	-10.5409
▁ဒုက္ခေန	-10.5412
▁သူရ	-10.5414
▁နာနုသေတိ	-10.5415
▁ပရိကမ္မ	-10.5416
▁သဟဇာတာဓိပတိ	-10.5417
▁သေလ	-10.5418
▁သရူပတော	-10.5418
▁သူကရ	-10.542
▁အဋ္ဌသု	-10.5422
▁သင္ဃာဋိ	-10.5424
▁ဥပရိမ	-10.5424
▁သကလံ	-10.5425
ဇနက	-10.5426
▁နဒိယာ	-10.5426
▁အပ္ပတ္တ	-10.5428
မုခော	-10.5429
▁ခတ္တိယာ	-10.5433
နိဒသ္သန	-10.5437
စာရီ	-10.5437
ပဋိဗဒ္ဓ	-10.5446
လောဘ	-10.5447
▁ဟောတူ	-10.5449
▁ပာပုဏိ။	-10.545
▁ကဒာ	-10.5452
▁အာဒိံ	-10.5453
▁ဝာသေဋ္ဌ	-10.5456
▁ဒီဃော	-10.5457
▁နာဝာ	-10.5465
ဒသ္သီ	-10.5465
ကထဉ္ဟိ	-10.5467
ဒ္ဝာရံ	-10.5468
▁ပဋိလဘ	-10.5469
ရက္ခိတ	-10.5473
▁ရက္ခတိ	-10.5474
▁မဟာဇနသ္သ	-10.5474
▁ယာစိတော	-10.5477
▁သောဏ	-10.5477
▁သဟဗ္ယတံ	-10.5481
▁ဓုရ	-10.5483
▁အဗ္ဘန္တရ	-10.5484
▁ဒုစ္စရိတံ	-10.5485
▁နာသ္သ	-10.5487
ိဓ	-10.5487
ေဟိပိ	-10.5488
▁ပဋိဂ္ဂဏ္ဟာတိ	-10.549
▁ပစ္စဝေက္ခဏ	-10.549
▁ဒုက္ခက္ခန္ဓသ္သ	-10.5491
နိစ္စ	-10.5491
ပရိတ္တ	-10.5494
▁တဒုဘယ	-10.5496
▁ဏော	-10.5496
ပိဋ္ဌိ	-10.5501
▁အာစာရ	-10.5502
သဏ္ဌာန	-10.5504
▁သဒိသော	-10.5512
▁အသမ	-10.5514
သမ္မာ	-10.5514
တ္ထု	-10.5517
▁မေထုနံ	-10.5517
ဝန္တော	-10.5525
▁ပစ္စယေဟိ	-10.5525
ဘေဒံ	-10.5527
▁ပူရဏ	-10.5527
▁ကဋတ္တာရူပံ	-10.5527
▁ရူပာရူပ	-10.5528
နိယာမ	-10.5528
▁ဒသန္နံ	-10.5529
သန္တာန	-10.5531
▁ဝိမလ	-10.5532
▁မာနသံ	-10.5535
▁သင္ဃိက	-10.5542
▁သာရထိ	-10.5544
▁အနဘိ	-10.5548
▁ဥတ္တမံ	-10.5549
▁သတ္တသု	-10.5549
ာဒိကာ	-10.5549
▁ပာလ	-10.5552
▁သလ္လက္ခေတ္ဝာ	-10.5559
▁ပထဝီဓာတု	-10.5559
ပုဏ္ဏ	-10.5562
▁သမု	-10.5562
▁ကရောဟိ	-10.5563
▁အရူပိနော	-10.5564
▁သန္ဓာယာဟ	-10.5564
▁မမံ	-10.5565
▁ဝိဝဋ	-10.5565
▁ဥပဋ္ဌာနံ	-10.5566
ဂောတ္တ	-10.5569
ကာရေ	-10.5574
▁ဥဂ္ဂ	-10.5576
▁မဟေသိနော။	-10.5578
အသ္သ	-10.5581
မာတိကာ	-10.5581
▁သိသ္သ	-10.5582
▁ဘိက္ခုသင္ဃံ	-10.5583
▁ဓီတာ	-10.5584
▁တီရေ	-10.5585
ဧတံ	-10.5585
တ္တဉ္စ	-10.5588
သုဒ္ဓ	-10.5589
ိယ။	-10.5592
ပဏ္ဍိတ	-10.5592
ပတ္တိ	-10.5599
▁အနေကဝိဟိတ	-10.56
▁ဃရံ	-10.56
▁ဂိလာနော	-10.5602
▁သညောဇနသမ္ပယုတ္တ	-10.5602
ကရံ	-10.5603
▁ကာရိတေ	-10.5603
▁ဂာမဏိ	-10.5605
▁စိတ္တသမ္ပယုတ္တ	-10.5607
▁အမစ္စ	-10.5619
သမ္ဘာရ	-10.562
▁ဥပပဇ္ဇ	-10.5621
▁ဘိတ္တိ	-10.5623
ပရိသာ	-10.5623
▁အာရမ္မဏပုရေဇာတံ	-10.5623
▁သမတိက္ကမ္မ	-10.5624
▁အတ္တမနာ	-10.5625
▁ကာရာပေတ္ဝာ	-10.5627
▁အာက	-10.5627
ာတီတိ	-10.5636
▁ဉ	-10.5636
▁နိရနုသယော	-10.5636
▁အာသန	-10.564
ဝိပတ္တိ	-10.5646
ယာမ	-10.5646
▁ကထိတံ	-10.5648
▁သညံ	-10.5648
▁အာရ	-10.5649
သီမာ	-10.565
▁အာဂစ္ဆန္တိ	-10.5655
▁ဂဏ္ဍ	-10.5657
▁ဒေသေသ္သာမိ	-10.5657
သဟိတ	-10.5657
▁ကထေသိ	-10.5662
ာဂမ	-10.5663
▁ဌာနာနိ	-10.5666
▁အဘိဇ္ဈာ	-10.5668
▁ဓမ္မဓာတု	-10.5676
▁တေနာတိ	-10.5676
▁မဟာဗောဓိ	-10.5676
▁ဒိဋ္ဌဓမ္မိက	-10.5676
▁အဝိဇ္ဇမာန	-10.5677
▁အသ္မိံ	-10.5677
ဟောတိ	-10.5677
ဝာသီ	-10.5679
▁ပတ္ထ	-10.5679
▁ဘုဉ္ဇိတ္ဝာ	-10.568
▁ဝတ္တမာနေ	-10.5681
▁ဘာဝေတိ။	-10.5681
▁ပုတ္တဒာရ	-10.5681
ပစ္စယေ	-10.5682
ဘဂဝာ	-10.5683
▁ဥပေက္ခိန္ဒ္ရိယ	-10.5683
▁အညာဏံ	-10.5684
▁တေဇောဓာတု	-10.5684
▁ထောမ	-10.5684
▁အရတိ	-10.5686
သဘာဝာ	-10.5686
▁ပဒေန	-10.5686
▁နစိရသ္သေဝ	-10.569
ဥတ္တရိမနုသ္သဓမ္မ	-10.569
▁အာသယ	-10.5692
ပဒေသ	-10.5692
စတုတ္ထ	-10.57
▁ပရိပုစ္ဆ	-10.5702
▁အနုညာတ	-10.5705
▁ဂုဏဝန္တ	-10.5706
စ္ဆိန္န	-10.5708
▁ဥပာဒိန္န	-10.5709
▁ဘဝေယ္ယ။	-10.5709
▁အာဒီနဝ	-10.5713
▁မယ္ဟ	-10.5714
▁သမ္မာဝာစာ	-10.5716
▁အမနုသ္သ	-10.5716
ဝာစာ	-10.572
မဇ္ဈိမ	-10.5722
▁ဒုဝိဓာ	-10.5722
▁ဝိဇဟ	-10.5727
စိတ္တာနိ	-10.5731
▁ဥပောသထကမ္မံ	-10.5732
▁နိပာတ	-10.5732
▁သန္ဓ	-10.5736
▁ဧကဝစန	-10.5739
▁ဝိပာကပစ္စယ	-10.574
ိယမာနာ	-10.5741
▁ဧယ္ယ	-10.5742
▁ကေဝလသ္သ	-10.5745
▁ဥက္ခိပ	-10.5747
▁တဏ္ဟ	-10.5749
အဓိ	-10.5752
နိကာယ	-10.5758
▁အာဟာရာ	-10.5761
▁သနိဒသ္သနသပ္ပဋိဃ	-10.5763
▁ဟီနံ	-10.5764
▁ဒာတဗ္ဗံ။	-10.5765
▁အတုလ	-10.5766
▁တာဒိနော	-10.5773
▁အဒိန္နံ	-10.5778
သုခုမ	-10.5781
▁အရဟတ္တဖလ	-10.5782
▁တုမ္ဟ	-10.5784
▁သမ္ပရာယိက	-10.5785
ပ္ယ	-10.5787
▁သီလေသု	-10.5789
▁နောစိတ္တ	-10.5795
▁ဗဟုသ္သုတော	-10.5796
မဒ္ဒ	-10.5804
သံယုတ္တ	-10.5806
▁သမ္ပဋိစ္ဆ	-10.5806
ုရ	-10.5809
ေယ္ယုံ။	-10.5813
ာမိ။	-10.5817
ဧဟိ	-10.5819
▁ယုတ္တာ	-10.582
▁အမရ	-10.582
ဂုဏံ	-10.5821
▁ရာဂာဒိ	-10.5821
▁သဒ္ဓိဝိဟာရိက	-10.5821
▁ဂဟေတ္ဝာန၊	-10.5827
မယ္ဟံ	-10.583
▁ဘောဇနေ	-10.583
▁သေနာ	-10.5831
▁အဗ္ဘန္တရေ	-10.5831
▁အာပော	-10.5832
▁ရဋ္ဌံ	-10.5835
▁ဝေဝစန	-10.5837
သံဝရ	-10.5841
▁ဟေဝ	-10.5841
▁ဝက္ခတိ	-10.5843
ဘာသိတ	-10.5843
▁စုဏ္ဏ	-10.5844
ဝရံ	-10.5844
ဓာတုယာ	-10.5846
▁ဟောန္တု	-10.5849
▁ကလ္ယာဏမိတ္တ	-10.585
▁ဃောသ	-10.5855
ုပ္ပာဒန	-10.5856
▁ဂတာ။	-10.5857
▁ဝိပလ္လာသ	-10.5857
▁ဆေတ္ဝာ	-10.5857
▁သဗ္ဗေန	-10.5861
ပရိမာဏ	-10.5862
▁ဒုက္ကရ	-10.5864
▁သဒေဝကေ	-10.5866
▁ဥပသဂ္ဂ	-10.5868
▁ပာနီယံ	-10.5869
▁တထာရူပ	-10.5871
▁သာပိ	-10.5873
ဇာတကေ	-10.5874
▁ဖုသိတ္ဝာ	-10.5874
ဒုသ္သ	-10.5875
ိယမာနေ	-10.5875
▁သုဒ္ဓိ	-10.5876
▁ရု	-10.5877
▁ပဇ္ဇ	-10.5877
▁အာစရိယေန	-10.5879
▁နခ	-10.588
▁ပဗ္ဗဇ္ဇ	-10.5881
သမ္ဘဝ	-10.5882
▁ဝသတိ	-10.5885
▁အဒ္ဓ	-10.5885
▁ဝိကာလေ	-10.5885
▁ဆန္ဒရာဂ	-10.5887
▁အယော	-10.5887
ပဒေန	-10.5888
က္ကမော	-10.5888
▁ဗ္ရူမိ	-10.589
▁ဂောဏ	-10.5891
▁ပဉ္စဝောကာရေ	-10.5894
▁မေထုန	-10.5895
က္ရိယာ	-10.5898
ထေရ	-10.59
▁အာနိသံသ	-10.59
ဂဗ္ဘ	-10.5902
ဒီနံ	-10.5902
ိကာနံ	-10.5903
▁စုတာ	-10.5905
▁ဥပဂတ	-10.5906
▁ဂင္ဂာ	-10.5915
▁ပုထုဇ္ဇနသ္သ	-10.592
ဣစ္စေတ	-10.5924
▁ပဋိသေဓ	-10.5926
ာနုသယ	-10.5926
ဓာတူတိ	-10.5928
ဟမသ္မိ	-10.5929
ဗ္ရဟ္မစရိယ	-10.593
▁သာဝကော	-10.5932
▁သာမိ	-10.5934
▁ယမ	-10.5936
▁သဂ္ဂေ	-10.5936
ိတာတိ	-10.5938
▁အဓိပ္ပာယ	-10.5939
ပဒသ္သ	-10.5942
ဒသဟာယတနေဟိ	-10.5943
ကတမာ	-10.5944
▁ပရမတ္ထတော	-10.5944
သင္ကပ္ပ	-10.5946
▁ပဋိဝိဇ္ဈ	-10.5948
▁ကာယိက	-10.5949
▁ပစ္စနီက	-10.595
▁အဓိပ္ပေတော	-10.595
ဇီဝ	-10.5951
▁အဘိညေယ္ယော	-10.5951
▁သမ္ဗဟုလေ	-10.5953
▁အာပ	-10.5953
▁ပရိစ္စဇ	-10.5953
▁ကဉ္စန	-10.5954
▁လဗ္ဘတီတိ	-10.5954
ာကာရံ	-10.5957
▁အရညံ	-10.5959
▁ဝိနိစ္ဆယော။	-10.5962
ဝိသ္သဇ္ဇန	-10.5969
မူလံ	-10.5974
▁ဣစ္ဆိတ	-10.5975
▁ပရိစ္ဆေဒော	-10.5976
▁ဥပေက္ခာယ	-10.5978
▁ပောရာဏ	-10.598
▁ပက္ခိတ္တ	-10.598
သဘ	-10.5981
ဝိဓိ	-10.5981
▁ပဋိစ္စသမုပ္ပန္န	-10.5985
ာယပိ	-10.5986
▁ဧဝန္တိ	-10.5986
▁ဓနု	-10.5986
ပရိစ္စာဂ	-10.5986
စတ္တာရော	-10.5988
▁သာလိ	-10.5989
အတ္တ	-10.5989
▁အရူပာဝစရ	-10.5989
▁ဓမ္မိက	-10.5991
▁ကရဏံ	-10.5992
ပရမ	-10.5993
ဘီ	-10.5998
▁မတ္ထကေ	-10.6002
ပဋ	-10.6002
သ္မိဉ္ဟိ	-10.6003
▁၁၃၀	-10.6003
▁ကုဇ္ဈ	-10.6004
ဖ	-10.6004
ာပေသိ	-10.6009
▁ဘဝေသု	-10.601
နဝိပာကဓမ္မဓမ္မော	-10.601
▁ကုဋိ	-10.6014
▁တိရစ္ဆာနဂတ	-10.6016
▁ဂဏ္ဟန္တော	-10.6023
ကာရကော	-10.6026
ိယံ။	-10.603
သုတ	-10.6034
▁သုတေန	-10.6034
ပထေ	-10.6034
▁ပဉ္စိန္ဒ္ရိယာနိ	-10.6037
ေကဒေသ	-10.6038
▁ဥပက္ကမ	-10.6039
▁နိက္ခိပိတ္ဝာ	-10.604
▁ရတနံ	-10.6041
စတုက္က	-10.6044
ာကာရော	-10.6045
ဒာနေန	-10.6045
▁အဒာ	-10.605
ဗဒ္ဓ	-10.6056
သဇ္ဇ	-10.6058
▁ဝစီ	-10.6058
▁ဟောန္တီ	-10.6059
▁မဟာဒာနံ	-10.6059
▁ပယောဇ	-10.606
▁ဥဒ္ဓရိတ္ဝာ	-10.606
ဋ္ဌိတိ	-10.6061
▁ဘာဝေန္တော	-10.6062
▁သိဉ္စ	-10.6064
▁ဥတ္တာန	-10.6064
သီမ	-10.6065
▁အပစယဂာမိ	-10.6065
▁သင္ဃာဒိသေသော	-10.6067
▁မတာ။	-10.607
▁ကင္ခ	-10.6071
▁ပစ္စဝေက္ခန္တိ	-10.6072
ဉာဏေန	-10.6073
▁ဂာဝော	-10.6074
ပရိဂ္ဂဟ	-10.6076
▁ကရောန္တာ	-10.6083
▁ဖရ	-10.6084
▁မဟေသိ	-10.6085
▁ဗာဟု	-10.6085
▁စဏ္ဍ	-10.6089
▁ဝတ္ထုသ္မိံ။	-10.6089
▁ဇီဝိတိန္ဒ္ရိယ	-10.609
▁ဝေဒန	-10.6092
ာနုလောမ	-10.6093
ဘေသဇ္ဇ	-10.6094
ကုမာရ	-10.6094
▁ဒေဝပုတ္တ	-10.6095
စေတိယ	-10.6097
▁ဧကစ္စ	-10.6098
ပထံ	-10.6099
ာဓိပ္ပာယ	-10.6101
▁ပုဗ္ဗေနိဝာသ	-10.6103
တေ။	-10.6107
နိဒ္ဒေသော။	-10.6108
ဠာ	-10.6108
▁စီဝရေ	-10.6112
ယတ္ထ	-10.6113
▁ဗောဓိသတ္တ	-10.6115
ညာတ	-10.6121
▁ဘာဝေတ္ဝာ	-10.6121
▁ဟရိတ	-10.6122
▁ပတ္တိ	-10.6127
ဘယေန	-10.6128
▁သမထော	-10.6132
ဇာတံ	-10.6133
▁မဂ္ဂာရမ္မဏ	-10.6136
▁အဟေတုကပဋိသန္ဓိ	-10.6136
▁အဘိဘဝ	-10.6136
ပ္ပဟာနံ	-10.6136
▁နိရုဇ္ဈိသ္သန္တိ	-10.6137
▁သိရသာ	-10.6138
▁ဘုသ	-10.6138
▁ဗ္ရဟ္မလောကေ	-10.6138
▁သမုဒာယ	-10.6138
▁သမထေဟိ	-10.6139
ယမ္ပိ	-10.6142
ပ္ပဓာန	-10.6143
ဂာမီ	-10.6143
▁ပစ္စယုပ္ပန္န	-10.6143
▁၁၂၉	-10.6144
▁မောဟော။	-10.6146
▁ဖလသမာပတ္တိယာ	-10.6148
▁ဗုဒ္ဓိ	-10.6149
▁ဣသ္သရော	-10.615
▁သာခာ	-10.615
နိယ	-10.6151
▁ဒေသေန္တော	-10.6151
▁သသ္သတ	-10.6152
သေဝန	-10.6152
▁ကရိသ္သာမီ	-10.6154
ဒိန္န	-10.6155
▁ကာတဗ္ဗော	-10.6158
▁ဂောပ	-10.6159
▁ရူပကာယ	-10.6159
▁ဘောဇ	-10.616
သဟဂတာ	-10.6161
▁သုတန္တိ	-10.6163
ပုဗ္ဗော	-10.6165
▁ဒေသိတ	-10.6165
▁ဣတ္ထန္နာမော	-10.6171
▁အဒတ္ဝာ	-10.6172
▁ပတိဋ္ဌဟ	-10.6174
ကာသ	-10.6176
▁ဧတဒဝောစုံ	-10.6179
ဒိဋ္ဌ	-10.6179
▁ဇမ္ဗုဒီပ	-10.6183
▁ဥဒပာဒိ။	-10.6183
▁ဂောတမံ	-10.6185
ေသော	-10.6185
ဝိဘင္ဂေ	-10.6186
▁သတ္တိ	-10.6187
တေသံ	-10.6188
ယောဂေ	-10.6189
သဟာယ	-10.619
ဒ္ဝိ	-10.6191
▁ပုဗ္ဗာပရ	-10.6192
▁ဂဏန	-10.6193
▁ဧကမ္ပိ	-10.6194
ကာလိက	-10.6196
▁ပုတ္တသ္သ	-10.6196
▁ပထဝိယံ	-10.62
ဧသ	-10.6201
▁ပက္ခိပ	-10.6203
▁ဝိပရိဏာမ	-10.6203
▁ခ္ဝာဟံ	-10.6206
နန္ဒ	-10.6206
▁ဟတ္ထီ	-10.6207
▁အနနု	-10.6208
ိလ	-10.621
ရဝ	-10.6213
▁ပရိဗ္ဗာဇကော	-10.6215
▁သရော	-10.6219
ပဒာန	-10.622
▁တိဓာ	-10.6221
▁အန္တိမ	-10.6221
▁ဝုတ္တဉ္ဟိ	-10.6223
▁သမာပန္နသ္သ	-10.6223
▁မနာပာ	-10.6223
ညာယ	-10.6223
ညံ	-10.6225
▁ကောဋ္ဌာသ	-10.6228
နတာ	-10.6233
▁အယုတ္တ	-10.6237
▁ပစ္စေကဗုဒ္ဓ	-10.6237
▁တိလ	-10.6238
ရူ	-10.6238
▁တစ	-10.624
▁အဇ္ဈုပေက္ခ	-10.6241
▁ဂာယ	-10.6242
▁သုက္က	-10.6244
▁ယောဂော	-10.6244
▁အဘိက္ကမ	-10.6245
သန	-10.6246
▁ခာဒနီယံ	-10.6247
▁မဟာဇနော	-10.6251
▁ဓာတူနံ	-10.6254
▁တထာဂတေန	-10.6257
သမ္ဖသ္သ	-10.6259
▁ဇာတော။	-10.6259
▁ဥသ္သာဟ	-10.626
▁ကုလာနိ	-10.6262
▁ဧကဒေသ	-10.6265
▁ဒုက္ကဋန္တိ	-10.6265
▁ဂာရဝ	-10.6265
▁ဒိသ	-10.6266
▁အနာပတ္တီတိ	-10.6269
▁ဒုတိယဇ္ဈာန	-10.6271
▁အပ္ပဟီန	-10.6271
▁အပစ္စ	-10.6274
▁ဟာသ	-10.6275
▁နိရာမိသ	-10.6277
▁အဓမ္မော	-10.628
▁ပသ္သံ	-10.628
မ္	-10.6281
▁၁၄၀	-10.6284
▁ပဋိဝိဒ္ဓ	-10.6284
▁လောကုတ္တရဓမ္မ	-10.6285
ဒာယကော	-10.6287
▁သမ္မာဝာယာမော	-10.629
▁ကုဗ္ဗ	-10.6292
▁အရဏော	-10.6294
▁ဆဍ္ဍ	-10.6295
▁ဝိဇ္ဇ	-10.6295
▁ဧတာယာတိ	-10.6296
▁ပရိနိဗ္ဗုတော	-10.6296
▁ရူပာဝစရံ	-10.6297
▁သီသေ	-10.63
▁အဃ	-10.63
မတ္ထကေ	-10.6301
▁ပဝတ္တနတော	-10.6303
သော။	-10.6303
▁အာဒိယ	-10.6305
▁ဣဒ	-10.6305
▁ရတိ	-10.6309
ဉ္ဆ	-10.6309
သင္ခတ	-10.6311
▁ဟတ	-10.6311
▁ဇနံ	-10.6312
ဓရော	-10.6312
▁ပရိညာ	-10.632
▁မဇ္ဈတ္တ	-10.6321
ဉ္စေတ္ထ	-10.6323
▁စတုတ္ထဇ္ဈာန	-10.6324
▁အဓမ္မေန	-10.6324
ဝိကပ္ပ	-10.6326
▁စောရာ	-10.6327
ပဋိဂ္ဂဟဏ	-10.633
▁သမာဓိသ္မိံ	-10.6331
▁ဥပဋ္ဌ	-10.6333
ဝိရာဂ	-10.6334
▁တိက္ခ	-10.6335
▁သတ္တု	-10.6337
▁ဒုတိယမ္ပိ	-10.6338
▁ဘုမ္မ	-10.6339
▁ဇာယန္တိ	-10.634
▁လဇ္ဇ	-10.6341
▁သဗ္ဗညုတညာဏ	-10.6341
သယန	-10.6344
▁ဓာရယ	-10.6345
ိကော။	-10.6345
▁ဇရာယ	-10.6348
▁သမန္နာဂတေန	-10.6348
▁ပဒေသ	-10.635
▁၁၃၃	-10.6351
▁ဝာယမတိ	-10.6351
▁သေယ္ယံ	-10.6352
ဟတ္ထော	-10.6354
▁မညမာနော	-10.6354
▁ဟောဟိ	-10.6356
ဂောစရ	-10.6357
▁ဖောဋ္ဌဗ္ဗ	-10.6358
ာဒိဘေဒံ	-10.6362
▁အာမ	-10.6371
ပတ္တံ	-10.6372
▁ဌာနာ	-10.6377
▁၁၃၅	-10.6378
▁ယောနိ	-10.6378
▁ဥဋ္ဌိတ	-10.6382
▁ဆဗ္ဗိဓ	-10.6383
▁အဘိဓမ္မေ	-10.6385
▁ကထိတာ။	-10.6387
▁ဥပ္ပဇ္ဇိတ္ဝာ	-10.6389
▁အရိယသစ္စ	-10.639
▁သူပ	-10.639
▁သဗ္ဗဒာ	-10.639
▁ကာတဗ္ဗော။	-10.6391
▁၁၃၇	-10.6392
▁အနိမိတ္တ	-10.6392
▁နရာ	-10.6396
▁ပသတ္ထ	-10.6396
▁ပစ္စဝေက္ခတိ	-10.6397
ယသ္မိံ	-10.64
▁ဇရ	-10.6401
သံဝာသ	-10.6404
▁အန္တေဝာသိက	-10.6405
▁အဒုက္ခမသုခံ	-10.6406
ဝစ္ဆ	-10.6407
▁နိဒာနံ	-10.6408
▁ဘာဇန	-10.6411
▁ပဒာနံ	-10.6415
▁ဣမာနေတ္ထ	-10.6419
▁ဝယော	-10.642
▁ဗလာနိ	-10.6423
▁ဌပေတိ	-10.6423
▁ဥပာဒာနသမ္ပယုတ္တ	-10.6425
▁အဓိပ္ပာယေန	-10.6426
▁သုဒ္ဓာဝာသ	-10.6431
▁မုစ္စ	-10.6432
▁ခေတ္တံ	-10.6433
ဋ္ဌိက	-10.6434
▁သံယောဂ	-10.6435
▁မေတ္တံ	-10.6439
တ္ထန္တိ	-10.644
▁ဃဋ္ဋ	-10.6442
▁မဟာနုဘာဝ	-10.6442
▁၁၃၂	-10.6442
▁အဉ္ဇန	-10.6444
လောကေ	-10.6446
▁ပဟူတ	-10.6453
▁တာပသော	-10.6454
▁ဂဟိတတ္တာ	-10.6457
ာဘာဝေန	-10.6457
ေဟေဝ	-10.6457
▁ဓနေန	-10.6458
▁ကထေတုံ	-10.6461
▁နာဂရာဇာ	-10.6462
▁အနာဂတာ	-10.6464
ပဋိစ္ဆန္န	-10.6464
▁ဌပ	-10.6465
ယောဂေန	-10.6471
▁ပဟီနတ္တာ	-10.6478
▁ဥဇ္ဈာယန္တိ	-10.6479
ဝတ္ထုကာ	-10.6481
▁နေတ္တ	-10.6481
▁အနာသဝံ	-10.6481
ိသ္သာ	-10.6486
▁အာရဘတိ	-10.6486
▁ဒသ္သိတော	-10.6487
▁ပာဌ	-10.6491
▁အနုရုဒ္ဓ	-10.6496
▁ပရိဇာနာတိ။	-10.6496
မနောဝိညာဏဓာတု	-10.6496
▁ဒေဝီ	-10.6499
▁မနသိကာရ	-10.65
ဃရ	-10.6503
ဗောဓ	-10.6505
▁ပဘုတိ	-10.6507
▁နိရောဓာ	-10.6508
▁သက္ကောတိ။	-10.651
တေလ	-10.6512
▁ကတရ	-10.6512
▁ပံသု	-10.6515
▁ပနေသ	-10.6515
▁အနုမောဒ	-10.6515
မတ္တော	-10.6517
ပဋိပဒာ	-10.6518
▁သံဝတ္တတိ	-10.6519
▁ဂုဠ	-10.652
▁ရာဂံ	-10.6522
သာလာ	-10.6522
▁ဒသ္သိတာ	-10.6522
▁ရုက္ခံ	-10.6522
▁ဥပ္ပဇ္ဇနက	-10.6523
န္ဒ္ရိယံ	-10.6525
▁ပရမံ	-10.6525
▁မောက္ခ	-10.6528
▁သုညတ	-10.6529
လာဘီ	-10.653
▁မာနုသံ	-10.653
▁အဟေတုကော	-10.6532
▁အာရဘ	-10.6537
▁ဒေထာ	-10.6538
ကမ္ပိ	-10.6546
▁စောဒ	-10.6548
▁တေဇ	-10.6549
▁အနာဒရိယံ	-10.6552
▁ပစ္စာ	-10.6553
ဉ္ဇန	-10.6553
▁မနုသ္သေ	-10.6553
▁ကုက္ကုဋ	-10.6554
ိသ္သရ	-10.6558
▁ပစ္ဆိမံ	-10.6559
▁အက္ခိ	-10.6559
▁၁၃၁	-10.656
အာဒီဟိ	-10.656
▁ဂောတ္တေန	-10.656
▁ကရောမိ	-10.6562
▁ဟန္ဒ	-10.6564
▁ဗ္ယာပာဒော	-10.6567
▁ပာကာရ	-10.6568
▁၁၃၈	-10.6572
▁အနိယ္ယာနိက	-10.6573
▁သာယံ	-10.6574
မရဏ	-10.6574
▁ဒေဟီ	-10.6575
သံယုတ္တံ	-10.6576
▁နုပ္ပဇ္ဇတိ။	-10.6577
▁နိပာတော။	-10.6581
▁သဉ္စိစ္စ	-10.6581
ပဉ္စိမေ	-10.6582
▁ဝေသ္သန္တရ	-10.6585
▁အာသဝော	-10.6586
▁၁၃၄	-10.6586
ာဝရဏ	-10.6591
▁အတ္ထာ	-10.6593
▁ကထေတဗ္ဗ	-10.6593
▁သန္တက	-10.6594
▁ဥဒ္ဓစ္စသဟဂတော	-10.6594
မာတာ	-10.6594
ေတဗ္ဗော	-10.6595
▁အဒ္ဒသံ	-10.6597
ပု	-10.6597
▁ပဋိက္ခိတ္တ	-10.6598
▁သာဓ	-10.6602
▁ဘဝိတဗ္ဗံ	-10.6602
▁ဥရ	-10.6603
▁သကေ	-10.6604
▁ဘာဇ	-10.6605
▁စက္ခုန္ဒ္ရိယ	-10.6606
▁ပုညကမ္မ	-10.6612
ဓာဝ	-10.6614
ဒိဝသ	-10.6615
မူလေ	-10.6617
စေ	-10.6618
▁မဟီ	-10.6618
ဂောစရော	-10.662
ိတ္ဝာန	-10.6622
▁ကတ္ဝာန	-10.6623
ပူရဏ	-10.6623
▁ပသာဒော	-10.6629
ုဋ္ဌ	-10.6629
▁ပူရိတ	-10.6632
▁ဩတ္တပ္ပ	-10.6633
▁သဗ္ဗေဟိ	-10.6633
▁ဝိပတ္တိ	-10.6633
▁ပဗ္ဗတေ	-10.6638
▁ဥတ္တာနတ္ထမေဝ။	-10.6638
▁ဘဒ္ရ	-10.664
▁အာရက္ခ	-10.664
▁ဘေသဇ္ဇံ	-10.6645
▁ပုရိသေန	-10.6648
▁အတ္တဘာဝ	-10.6649
▁နိသီဒိံသု။	-10.6651
ဂာရဝ	-10.6652
တ္တံ။	-10.6653
ဝာစက	-10.6653
▁ကရောထာ	-10.6656
▁ဂစ္ဆန္တေ	-10.6658
▁ဝိညာဏဉ္စာယတန	-10.6658
နယေ	-10.666
▁ဓုတင္ဂ	-10.6663
ပာဏိ	-10.6666
▁ပည	-10.6667
▁ဥပ္ပဇ္ဇန္တီတိ	-10.6669
▁ပဏာမ	-10.667
▁ဒိဝသ	-10.6671
▁သဗ္ဗညု	-10.6675
ပဉ္စဟိ	-10.6677
▁နိယမ	-10.6679
▁သာဒိယ	-10.6682
ီဝ	-10.6684
▁ပကာသေတ္ဝာ	-10.6685
ဣဒာနိ	-10.6688
▁ပဋိပဇ္ဇိတဗ္ဗ	-10.6691
ယမာနာ	-10.6693
▁မဏ္ဍ	-10.6697
▁ပရာမာသ	-10.6697
▁ဥပသမ	-10.6699
စတ္တာရောမေ	-10.67
ပတ္ထ	-10.6701
▁ပာပုဏာတိ။	-10.6703
▁ဓမ္မကထံ	-10.6703
သမ္ဘဝတော	-10.6704
▁ဓမ္မစက္ကံ	-10.6704
▁ဖလာနိ	-10.6707
▁ဇန္တု	-10.6707
▁အဓိပ္ပေတော။	-10.671
မနသ္သိန္ဒ္ရိယဉ္စ	-10.6711
▁ဝိပသ္သိသ္သ	-10.6715
▁သဝိတက္ကသဝိစာရာ	-10.6716
▁သီဟနာဒံ	-10.672
▁ပာပကမ္မ	-10.6722
▁အာစရိယသ္သ	-10.6724
▁ပရိတ္တော	-10.6725
ကုလံ	-10.6726
ိကံ။	-10.6727
သမတ္ထ	-10.6728
ာတီတ	-10.673
▁သစ္စာ	-10.6731
▁ပကာသိတာ။	-10.6733
ကသိဏ	-10.6736
▁ဖသ္သပစ္စယာ	-10.6739
▁ကောပ	-10.6743
▁ပက္ခေ	-10.6745
▁ဘဝတိ။	-10.6746
▁ကုဟိံ	-10.6746
▁မာရသ္သ	-10.675
▁အသင္ဂဟိတာ။	-10.675
ဂူ	-10.6751
▁ဆတ္တိံသ	-10.6751
ောပမ	-10.6751
▁သံယောဇနာနိ	-10.6752
▁ကေသာ	-10.6752
▁မာတုဂာမော	-10.6752
နိယမ	-10.6756
▁ဒုက္ခနိရောဓ	-10.676
ဟန္တိ	-10.6762
ရူပေန	-10.6764
ကာရေန	-10.6764
▁ဘာဝိတတ္တာ	-10.6766
▁ပဝိဋ္ဌော	-10.6766
▁သုတ္ဝာ၊	-10.6774
▁ယဒိပိ	-10.6776
▁တာဟိ	-10.6777
▁ယေဝ	-10.6777
နသ္သ	-10.6778
▁သန္တာနေ	-10.6778
▁ဝဏ္ဏေန	-10.6782
▁မုခေန	-10.6784
▁ပရိစ္ဆေဒော။	-10.6784
▁ဉာဏသ္သ	-10.6786
▁သမ္ဗုဒ္ဓံ၊	-10.6786
▁၁၃၆	-10.6788
▁ကထေတိ	-10.679
▁သင္ကပ္ပ	-10.6791
▁ဘိက္ခုနိ	-10.6794
▁ဣမဉ္စ	-10.6795
▁သံယောဇနာနံ	-10.6796
▁ကာမာဝစရေ	-10.6798
ပေသ	-10.6799
▁တေဇော	-10.6806
ပမာဏ	-10.681
▁အာဒိတ္တ	-10.6811
▁ဘာဝိတော	-10.6812
▁သက္ကာယ	-10.6816
နိဒာနံ	-10.6819
ဒ္ဝယေ	-10.682
▁သဏ္ဟ	-10.682
▁ဂဇ	-10.6821
▁နေဝသညာနာသညာယတနံ	-10.6821
▁ပတ္တစီဝရမာဒာယ	-10.6824
ဒာသ	-10.6827
▁ထေယ္ယ	-10.6827
▁အဝသေသံ	-10.6832
သဗ္ဗံ	-10.6832
▁သုမေဓ	-10.6833
▁သေသာနိ	-10.6834
▁ဘူတံ	-10.6837
▁ရာဓ	-10.6841
▁တသ္သာပိ	-10.6842
▁ပတိဋ္ဌာပေ	-10.6847
▁အဓမ္မိက	-10.6859
▁သန္တတိ	-10.6859
▁ပသ္သေယ္ယ	-10.686
▁ပဘာ	-10.686
▁ပုရေဇာတသ္သ	-10.686
▁ဘိက္ခူတိ	-10.6861
▁ဌပိတံ	-10.6861
▁ဂောတ္တ	-10.6863
ပာသာဏ	-10.6864
▁တေသန္တိ	-10.6866
▁အနုယုဉ္ဇ	-10.6867
▁ရူပာဝစရေ	-10.6868
▁သေက္ခ	-10.687
စက္ကံ	-10.6871
▁သမာဓိန္ဒ္ရိယံ	-10.6871
ဟဋ	-10.6873
လောစန	-10.6874
▁သမ္ဘဝော	-10.6878
သီဟ	-10.688
သိတ	-10.6881
▁ပဘဝ	-10.6882
▁ဧကန္တေန	-10.6885
▁ကုစ္ဆိတ	-10.6886
▁ဇမ္ဗု	-10.6886
သာဝက	-10.6888
ကဉ္စ	-10.6888
ဒီသု	-10.6888
▁ဝိဇိတ	-10.689
▁သမာနာ	-10.6892
▁ဘာဝေတဗ္ဗာ	-10.6892
▁ဝိကာရ	-10.6894
▁ဓီရ	-10.6895
▁သာသနသ္သ	-10.6896
▁အပ္ပမာဏံ	-10.6898
▁ပဟ	-10.6899
▁ဝိနိပာတံ	-10.69
▁အာလယ	-10.69
▁သာနုသယော	-10.69
▁ပုနပိ	-10.6901
▁စဏ္ဍာလ	-10.6902
▁ပိယာ	-10.6904
က္ခီ	-10.6904
▁ဆဝိ	-10.6908
▁ဥဒာယိ	-10.6909
ဝိမောက္ခ	-10.691
သမ္ပယုတ္တံ	-10.691
▁ဇာတာ။	-10.691
▁ပရိကပ္ပ	-10.6911
သဘာဝော	-10.6912
▁အဇ္ဈတ္တိကံ	-10.6913
▁ဆတ္တံ	-10.6914
ဂေဟ	-10.6916
▁ဥပပဇ္ဇတိ။	-10.6917
▁သောတ္ထိ	-10.6921
▁သမာပန္နော	-10.6923
▁အဂာရံ	-10.6924
▁ဉတ္တိ	-10.6927
▁ဝိရတိ	-10.6932
▁ဝတ္ထူနိ	-10.6934
▁သင္ဃာဒိသေသ	-10.6941
ပဏ္ဏာသ	-10.6943
တ္ထေရံ	-10.6944
န္တေသု	-10.6945
▁ဒေဝတာနံ	-10.6948
▁ပဝိဝေက	-10.6949
▁စတုဝောကာရ	-10.695
▁သုဂန္ဓ	-10.695
ခိလ	-10.6952
▁အရဏ	-10.6952
န္တောတိ	-10.6954
▁ပုစ္ဆန္တော	-10.6955
▁သဘာဝတော	-10.6955
▁သရိတ္ဝာ	-10.6956
▁ဝိပ္ပ	-10.6962
ဒာယ	-10.6962
▁ပရိညာတ	-10.6964
ကီဠ	-10.6966
သ္သာမ	-10.6968
▁ဒသ္သာမီ	-10.6968
▁အယမသ္သ	-10.6969
ာရမ္မဏေ	-10.6972
▁မေတ္တ	-10.6973
▁စရန္တော	-10.6975
▁ကမ္မုနာ	-10.6975
▁ဥဒာန	-10.6979
သာဓူ	-10.6983
တိဏ	-10.6989
သမာပတ္တိယာ	-10.6989
▁နီဝရဏာ	-10.6991
▁ပာယ	-10.6991
▁သမာဒိန္န	-10.6994
သမ္ပန္နံ	-10.6995
တ္ထေရဂာထာ	-10.6995
▁တယိဒံ	-10.6996
▁ဧကေကံ	-10.6999
▁ပုမ	-10.7
▁သတ္ထုနော	-10.7001
▁ဗ္ယဂ္ဃ	-10.7004
ပရိယာယော	-10.7004
▁ဝိဓ	-10.7005
▁ဣစ္စ	-10.7005
▁သိက္ခာပဒာနိ	-10.7006
▁အဟိ	-10.7007
ိယတိ	-10.7009
န္တ္ယ	-10.7011
▁အတိက္ကမ္မ	-10.7013
▁တေသမ္ပိ	-10.7014
န္တံ၊	-10.7015
▁ယထ	-10.7016
▁လောဟိတံ	-10.7016
▁တိဋ္ဌတီတိ	-10.7018
–	-10.7019
▁နိဗ္ဗတ္တိ။	-10.7019
▁ရဇ္ဇု	-10.7024
▁ဒေဝာနမိန္ဒ	-10.7026
▁အကံသု။	-10.7028
နသနိဒသ္သနသပ္ပဋိဃ	-10.7029
ူပပတ္တိ	-10.703
▁အဓိပ္ပေတာ	-10.703
န္တော။	-10.7033
▁အာပန္န	-10.7033
▁မဟလ္လက	-10.7033
▁ပလ္လင္က	-10.7035
▁စိန္တ	-10.7036
▁မေဃ	-10.7036
▁ဓာရေယ္ယ	-10.7037
▁ဒေဝလောက	-10.7037
▁ဇိတ	-10.7037
▁စေတေတိ	-10.704
▁တာဝဒေဝ	-10.7041
မဂ္ဂေ	-10.7042
▁ကုသလာကုသလ	-10.7044
ပဉ္စက	-10.7045
▁သုခီ	-10.7045
▁သံယမ	-10.705
▁ဥတ္တာနမေဝာတိ။	-10.7052
▁အာပဒာသု	-10.7053
▁ဧဝမေတသ္သ	-10.7055
▁သဠာယတန	-10.7056
▁ဂဏ္ဟန္တိ	-10.706
▁နာနာဝိဓ	-10.7064
▁မုနိ။	-10.7064
▁ဝိရူပ	-10.7064
▁ပဋိသန္ဓိံ	-10.7066
သမုဒယော	-10.7067
▁ဘာသိတသ္သ	-10.7068
နရ	-10.7069
နခ	-10.7069
ပစ္စဝေက္ခဏ	-10.707
က္ခယ	-10.7071
ကန္တ	-10.7071
▁ပဘေဒ	-10.7071
▁အဝဏ္ဏံ	-10.7072
▁ဘူတာ	-10.7075
ဝရော	-10.7075
▁ပာဒံ	-10.7079
ဒဏ္ဍက	-10.708
▁မဟပ္ဖလ	-10.7081
▁ပဋိက္ခိပတိ။	-10.7089
▁ဣသ္သရိယ	-10.709
▁ဥဂ္ဂဟ	-10.709
ိမ	-10.7091
▁ပရိဗ္ဗာဇက	-10.7093
▁အဟောသီတိ။	-10.7096
▁ပာဏံ	-10.7096
▁ဩဠာရိကာ	-10.7098
▁ဟေတ္ထ	-10.7101
ဂိလာန	-10.7102
▁တိဝိဓာ	-10.7103
▁ရူပာယတနဉ္စ	-10.7103
▁အလောဘ	-10.7104
▁ပဇဟတီတိ	-10.7105
ဣမသ္မိံ	-10.7105
▁ဘင္ဂ	-10.7107
▁နိရုဇ္ဈိတ္ထာတိ	-10.7112
▁စလ	-10.7116
ိတသ္သ	-10.7119
▁ဝက္ခမာန	-10.7121
ပ္ပစ္စယော	-10.7121
ဝုတ္ထ	-10.7122
▁အဇ္ဈာသယ	-10.7123
▁သမေန္တိ	-10.7129
▁ဝုတ္တိ	-10.713
▁ခိယ္ယန္တိ	-10.7133
▁ပဋိသံဝေဒ	-10.7133
▁ဝိညာပေတ္ဝာ	-10.7133
▁အဘိဘဝိတ္ဝာ	-10.7137
ာလယ	-10.7137
▁၁၃၉	-10.7137
▁သ္ဝာ	-10.7138
▁ဝဏ္ဏေ	-10.714
▁နုပ္ပဇ္ဇိတ္ထ	-10.7144
နီယံ	-10.7144
ေန္တာ	-10.7145
▁ဝေယ္ယာကရဏ	-10.7146
▁အကာလ	-10.7147
▁ဘိက္ခုသင္ဃော	-10.7153
အတ္ထိယာ	-10.7154
▁သာဝဇ္ဇ	-10.7156
▁အတိက္ကန္တ	-10.7159
ယောနိ	-10.7159
▁အညတရသ္သ	-10.716
▁ဂစ္ဆန္တံ	-10.716
▁ဧတန္တိ	-10.7163
▁စေတိ	-10.7163
▁ဝေရ	-10.7164
▁ကူဋာဂာရ	-10.7165
▁ဂရုက	-10.7165
▁စေတောဝိမုတ္တိံ	-10.7166
▁လာဘသက္ကာရသိလောက	-10.7167
▁စေတိယံ	-10.717
▁ပက္ကမတိ	-10.717
▁ရူပိယ	-10.7171
▁ပရိယောသာန	-10.7173
▁ယုဒ္ဓ	-10.7174
▁ယောဂာဝစရ	-10.7175
▁ကာမေသုမိစ္ဆာစာရ	-10.7177
▁သတ္တမီ	-10.7179
ဝာဟန	-10.718
ပုဗ္ဗေ	-10.7181
▁အလာဘ	-10.7184
ဣမသ္သ	-10.7185
▁အပာယံ	-10.7185
▁အာကိဉ္စညာယတနံ	-10.7185
▁မုဉ္စိတ္ဝာ	-10.719
ဝ္ဟယ	-10.719
ေတ္ဝာ၊	-10.7195
▁ဖုဋ္ဌ	-10.7197
▁အနိဒသ္သနသပ္ပဋိဃ	-10.7201
▁ဝိဃာတ	-10.7202
▁ရိတ္တ	-10.7204
အဒ္ဓာ	-10.7204
စိန္တ	-10.7206
လောကော	-10.7213
▁ဃာနံ	-10.7213
မတော	-10.7215
▁နီစ	-10.7215
▁ယာထာဝတော	-10.7219
▁နိဗ္ဗတ္တာ	-10.722
▁အပဂတ	-10.722
▁ကရဏေ	-10.7221
▁အတီတာ	-10.7221
▁ဥဒယ	-10.7222
▁ရသော	-10.7225
က္ကမေန	-10.723
▁ပမောဒ	-10.7232
▁မတ္ထကံ	-10.7236
ေတုန္တိ	-10.7236
▁ပဟရိတ္ဝာ	-10.724
▁ဒေဝာနမိန္ဒော	-10.724
▁ကာယာနုပသ္သီ	-10.7247
▁ဝိစိန	-10.7247
▁ဒေသေသိ။	-10.7247
▁သာယ	-10.7249
သုဘ	-10.7249
▁ခလု	-10.725
▁လဘန္တိ	-10.725
▁မဟန္တော	-10.7251
▁သုခံ။	-10.7253
▁သကဒာဂာမီ	-10.7253
▁ဩတရိတ္ဝာ	-10.7256
ကေသ	-10.7256
▁သင္ခေပော	-10.7256
▁ရူပာဝစရာနံ	-10.7257
▁ဓာရေတိ	-10.7257
▁ဝိမုတ္တော	-10.7258
▁ဣစ္စာဒိ	-10.7258
▁သမော	-10.726
▁သမဏံ	-10.726
ဧတ္ထ	-10.726
ကသ္မာ	-10.726
▁ဝဇ္ဇေတ္ဝာ	-10.7263
▁ဝိပာကာ	-10.7265
▁နိယောဇ	-10.7267
▁ပဋိဗာဟ	-10.7268
▁အာဝဋ္ဋ	-10.7268
▁ဘဂိနီ	-10.727
▁မာယာ	-10.7271
သိရိ	-10.7274
ာသနေ	-10.7276
▁အဋ္ဌကထာယ	-10.7276
သ္မီတိ	-10.7276
▁သဇ္ဇ	-10.7278
▁နိရောဓံ	-10.7283
▁ကဏ္ဋက	-10.7283
▁သကဝာဒိသ္သ	-10.7285
ာနိသံသ	-10.7286
ာဒိမ္ဟိ	-10.7286
▁ပူရေ	-10.7288
ိသ္သန္တီ	-10.729
▁ပဉ္စသတ	-10.7291
▁ဂစ္ဆန္တသ္သ	-10.7293
▁အသမတ္ထ	-10.7295
▁ကမ္မံ၊	-10.7295
▁တိဝိဓော	-10.7298
▁ကာယဝိညာဏသ္သ	-10.7301
▁နိရုဇ္ဈိတ္ထ။	-10.7303
ပဒတ္ထ	-10.7308
▁မောဟံ	-10.7308
ခန္ဓဉ္စ	-10.731
▁အလောဘော	-10.7312
ေတဗ္ဗော။	-10.7312
ဝီသတိ	-10.7315
▁ပာဋိကင္ခာ	-10.7318
▁ဆဋ္ဌီ	-10.7318
ဂဏ္ဟ	-10.7321
▁နိဗ္ဗာနဉ္စ	-10.7321
▁ဝိစာရ	-10.7322
▁သဗ္ဗေသမ္ပိ	-10.7324
▁ပေစ္စ	-10.7324
ဒီ	-10.7324
▁ဝိပ္ပယုတ္တာ။	-10.7331
▁အတ္တနာဝ	-10.7331
သန္တတိ	-10.7331
▁ယုဇ္ဇတိ	-10.7331
သင္ဃာဋ	-10.7332
▁ပနာဟံ	-10.7334
▁ဖ	-10.7336
▁သမ္ဗုဒ္ဓော၊	-10.7337
▁နိရတ္ထက	-10.7338
ယထာပိ	-10.7339
နာနာ	-10.734
ဟင္ဂေဟိ	-10.734
▁ဍံသ	-10.7341
▁ကရဏီယ	-10.7342
▁ဝောဟရ	-10.7342
ကာရန္တ	-10.7343
▁တမ္ဟိ	-10.7345
▁ဣသ္သ	-10.7346
တသ္သာ	-10.7351
▁ဃောရ	-10.7353
ပရိယောသာနေ	-10.7354
▁မုခေ	-10.7355
▁စင္ကမ	-10.7355
အမ္ဟာကံ	-10.7356
▁သမ္မာသင္ကပ္ပော	-10.7356
ကုသလတ္တိကံ	-10.7357
▁ဝိမောက္ခော	-10.736
ိသ္သန္တိ။	-10.7364
▁ဃာန	-10.7366
▁သမာပဇ္ဇ	-10.7367
▁ကပ္ပေတိ	-10.7368
▁ပုစ္ဆိတဗ္ဗတ္တာ	-10.7368
▁အာသဝသမ္ပယုတ္တ	-10.737
▁ဘိက္ခ	-10.7371
▁ပဘာသတီ	-10.7372
▁သရူပ	-10.7375
ာနုယောဂ	-10.7376
▁ဘိက္ခု၊	-10.7377
▁သုည	-10.7383
▁ဂစ္ဆတီ	-10.7384
သတ္တော	-10.7385
▁နာဂာ	-10.7385
▁အာဇာန	-10.7391
▁သံသယ	-10.7391
▁သိလာ	-10.7393
ပရိစ္ဆေဒော	-10.7394
▁ဘိက္ခံ	-10.7395
▁ပစ္ဆာဘတ္တံ	-10.7396
ပကတိ	-10.7398
▁ပသေနဒိ	-10.7403
▁ဝဏ	-10.7405
ကထာယံ	-10.7405
▁ဝီရိယိန္ဒ္ရိယံ	-10.7405
ဒက္ခိဏ	-10.7407
▁ဒုရ	-10.7409
▁ဣန္ဒ္ရိယေသု	-10.7409
▁ပဟာရ	-10.7409
▁မန္တေ	-10.741
▁သမာပဇ္ဇိတ္ဝာ	-10.741
ဇလ	-10.7411
▁ပဏ္ဏတ္တိ	-10.7411
▁ဝိသယေ	-10.7412
▁မနိန္ဒ္ရိယဉ္စ	-10.7413
▁ဗဟုတရာ	-10.7418
▁ပဟောတိ	-10.742
▁သတ္တေသု	-10.7421
▁ဂုဏေဟိ	-10.7422
▁ပဇာယ	-10.7425
ူပာယ	-10.743
▁ဝိသ္သဇ္ဇန	-10.743
▁ပုဂ္ဂလိက	-10.7432
▁သေခ	-10.7436
ယ္ဟ	-10.7437
တဒ	-10.7438
ေယ္ယာမ	-10.7443
▁နပုရေဇာတပစ္စယာ	-10.7443
▁ကုလဂေဟေ	-10.7443
▁အစက္ခုကာန	-10.7444
▁သံသန္ဒန္တိ	-10.7444
▁ဥတ္တမော	-10.7445
▁အညိန္ဒ္ရိယံ	-10.7445
ိံသု၊	-10.7448
▁ပဋိဇာန	-10.7449
▁အစလ	-10.745
▁မိ	-10.745
ာဝစရ	-10.7457
▁ရူပက္ခန္ဓ	-10.7459
▁ပရိဝာရေတ္ဝာ	-10.746
▁ပရိပူရေတိ	-10.7462
ာနုဗန္ဓ	-10.7464
▁ပရိယာယော	-10.7465
▁ဒေဝရာဇာ	-10.7465
▁ပဝာရေ	-10.7469
ယုံ။	-10.7473
▁ပဋိဇဂ္ဂ	-10.7473
▁သံသာရေ	-10.7476
န္တောပိ	-10.7477
ိတာယ	-10.748
▁အန္တရာမဂ္ဂေ	-10.7485
▁မာလာ	-10.7486
ဝာဒိနော	-10.7486
▁ပရာမသ	-10.7488
▁အဒ္ဒသ	-10.7488
▁၁၄၁	-10.7489
မဟန္တ	-10.749
▁နိယတော	-10.7493
▁ဝိပာစေန္တိ	-10.7493
ဓမ္မသ္သ	-10.7495
▁သိနေရု	-10.7496
မာယ	-10.7496
▁ခဏံ	-10.7498
သန္တာပ	-10.7503
▁အဘဝိသ္သ	-10.7505
▁ဝိဂ္ဂဟော။	-10.7507
▁ဟာရော	-10.7509
▁ဗဟူနံ	-10.751
ုပာဒာန	-10.7513
▁အပရာပရံ	-10.7514
▁ရသာ	-10.7516
ပုဗ္ဗာ	-10.7517
▁တထာဂတော။	-10.7517
▁သမညာ	-10.7518
▁စတုက္ကံ	-10.7518
▁ဋ	-10.7519
ဗ္ယာကတ	-10.7519
▁အာနန္ဒံ	-10.7522
▁ပသန္နာ	-10.7523
▁မဟာသာဝဇ္ဇ	-10.7525
▁ပတိဋ္ဌိတော	-10.7526
လက္ခဏေန	-10.7527
င္ဂဏ	-10.7528
▁ဝသာ	-10.7528
▁ဝိရုဒ္ဓ	-10.753
▁သဒာ။	-10.753
လာပ	-10.7531
▁ကာမာနံ	-10.7532
▁ဒုက္ကဋသ္သ	-10.7533
ိတောတိ	-10.7535
ေယ္ယာထ	-10.7538
ရဋ္ဌေ	-10.7539
္ဝာ	-10.754
တ္ထေရအပဒာနံ	-10.754
ူပဂ	-10.7545
နိန္န	-10.7547
▁ပရိနိဗ္ဗာယ	-10.7549
ကဋ	-10.755
ဘာဂိယ	-10.755
▁နိဗ္ဗိဒာ	-10.7551
မက္ခိတ	-10.7552
▁ပသန္နစိတ္တော	-10.7553
▁အနဝ	-10.7555
▁ကာမဘဝ	-10.7556
▁၁၅၆	-10.7559
ဒောသော	-10.756
▁ဝုတ္တာ၊	-10.7561
ရောပ	-10.7562
တဏ္ဟ	-10.7565
▁ဓုရံ	-10.7566
▁ဩတရ	-10.7566
▁ဗ္ယာကာသိ။	-10.757
▁၁၄၈	-10.7572
ပလိဗောဓ	-10.7574
▁နိသ္သယော	-10.7574
▁ဗဟုဓာ	-10.7577
ဧတေ	-10.7577
▁ဝုဋ္ဌ	-10.7578
▁ဒိဝ	-10.7582
▁အသ္သာဒော	-10.7582
သပ္ပာယ	-10.7583
▁တိရစ္ဆာန	-10.7583
▁နိက္ခိတ္တ	-10.7583
▁ဓူမ	-10.7584
▁ပဌမေန	-10.7585
▁အသံ	-10.7586
▁ပုနဗ္ဘဝော	-10.7586
သင္ခ္ယ	-10.7588
ဝိနိစ္ဆယ	-10.7589
▁ပစ္ဆာဇာတံ	-10.7592
ဘေဒေ	-10.7592
ရဇ	-10.7592
▁အာပုစ္ဆ	-10.7593
▁သက္ကသ္သ	-10.7594
ပဋ္ဌာန	-10.7596
▁ဝိဟရတီတိ	-10.7596
လင္ကတ	-10.7598
ာဝုဓ	-10.76
▁ပာတုဘဝန္တိ	-10.76
▁ဗဟုက	-10.76
▁လုဒ္ဒ	-10.76
ဝိညေယ္ယ	-10.7603
▁ဃာနိန္ဒ္ရိယဉ္စ	-10.7604
နာနတ္တံ	-10.761
▁ဝိဒ	-10.7612
▁ကလာပ	-10.7612
အယောနိသောမနသိကာရ	-10.7613
▁ဘာတာ	-10.7616
တာတ	-10.7619
▁ပုမေ	-10.7621
မာဒိ	-10.7621
▁ဓမ္မသ္သဝန	-10.7622
သီဟော	-10.7622
ာဘာဝာ	-10.7624
▁ဝိဟရတီ	-10.7626
▁မာနုသ	-10.7628
▁လောကသ္မိံ	-10.7633
▁အဝိက္ခေပ	-10.7634
▁ပယောဇန	-10.7634
▁ဝိန္ဒ	-10.7634
▁ယဉ္ဟိ	-10.7637
▁သီဃ	-10.7638
နာဝ	-10.7641
▁နာမေန၊	-10.7642
မကာသိ	-10.7644
▁အရူပာနံ	-10.7644
▁ဝိဘင္ဂ	-10.7645
ကေသု	-10.7646
▁အာဇီဝ	-10.7646
▁ဩလမ္ဗ	-10.7647
▁ယတ္ရ	-10.7648
ိသ္သံ၊	-10.7648
အတီတ	-10.7648
▁အဟဉ္စ	-10.765
▁၁၅၀	-10.7652
▁ယုဂ	-10.7652
▁ဒူတ	-10.7654
ယာန	-10.7655
ညော	-10.7655
မံ။	-10.7656
▁တာဝဒေ။	-10.7658
ဥဒ္ဓစ္စကုက္ကုစ္စ	-10.7658
▁အဒိန္နာဒာန	-10.7662
ဇီဝိတ	-10.7662
▁ရူပဉ္စ	-10.7665
▁စိတော	-10.7666
▁အဘိဇာန	-10.7668
▁နိသဇ္ဇ	-10.7671
ပဋိပဒံ	-10.7672
ပာဌ	-10.7674
▁ယဝ	-10.7674
ာဒယောပိ	-10.7674
ာဘိမုခ	-10.7675
နိယော	-10.7677
▁သံဝတ္တန္တိ	-10.7678
▁ဆန္ဒရာဂော	-10.7678
ဒေသေ	-10.7679
▁ပုပ္ဖာနိ	-10.7682
▁အာဝာသော	-10.7683
သညောဇနဝိပ္ပယုတ္တ	-10.7683
ဝိသေသံ	-10.7683
ိတ္ထာတိ	-10.7684
▁အာကာသာနဉ္စာယတနံ	-10.7691
▁ဒေဝမနုသ္သေသု	-10.7692
▁တေနုပသင္ကမိံသု	-10.7693
ူပမ	-10.7694
▁သိက္ခိတဗ္ဗ	-10.7695
▁အဝိသေသေန	-10.7697
▁ဧကဝီသ	-10.7699
▁ကုပ္ပ	-10.77
▁လောဟိတက	-10.7702
▁ဝုတ္တမေဝ။	-10.7702
▁သင္ဂဟိတ	-10.7702
▁ဓမ္မာယတနဉ္စ	-10.7703
▁အဝိတထ	-10.7704
▁ရဟ	-10.7707
▁ဝိတက္ကဝိစာရာနံ	-10.7709
ဒ္ဒိ	-10.7712
ဒန	-10.7712
▁၁၄၂	-10.7715
▁ပူဇာ	-10.7717
သ္မိမ္ပိ	-10.7718
▁သင္ခာရပစ္စယာ	-10.772
ာဒီနဉ္စ	-10.772
▁လောကိယာ	-10.772
ဒုက္ကဋ	-10.7722
နတ္ထ	-10.7723
▁သမတိက္ကမ	-10.7725
▁မာတာပိတူနံ	-10.7726
▁ဧကဇ္ဈံ	-10.7727
▁ဝေဠုဝနေ	-10.7727
ပေယ္ယာလ	-10.7727
မဇ္ဇ	-10.7728
▁ဝာယမ	-10.7728
▁လောကသ္မိံ။	-10.7731
▁နာယံ	-10.7732
▁ဝိသုဒ္ဓိ	-10.7734
▁ပကိဏ္ဏက	-10.7735
▁ဗဟုသ္သုတ	-10.7735
▁လာဘော	-10.7735
သာနံ	-10.7735
ဂ္ဂေ	-10.774
▁မုစ္စတိ	-10.7742
▁သုရာ	-10.7743
▁ပာရိ	-10.7744
▁သေက္ခာ	-10.7747
ပ္ပယောဂ	-10.7751
▁စိတ္တုပ္ပာဒ	-10.7752
တိအာဒီဟိ	-10.7753
▁ဧဝမ	-10.7755
▁အဓိဝစန	-10.7756
▁ဈာနာ	-10.7756
▁သနိဒသ္သန	-10.7758
▁ယာစန	-10.7761
▁ဩတာရ	-10.7766
▁ပစ္စသ္သောသုံ။	-10.7767
ယောဂတော	-10.777
ာဒိကော	-10.7771
▁နအဟေတုက	-10.7771
▁ဃရာဝာသ	-10.7772
▁ဝေဂေန	-10.7772
ဥတ္တာနတ္ထမေဝာတိ။	-10.7774
▁၁၄၄	-10.7775
▁သုပ္ပ	-10.7776
▁နိဝာရ	-10.7776
▁မနုည	-10.7777
တိဋ္ဌ	-10.7777
▁မုနိန္ဒ	-10.7778
▁ပရိသံ	-10.7778
တိသ္သော	-10.7778
▁အမိတ္တ	-10.7778
▁ပရိကမ္မံ	-10.7782
▁ဝူပသမာ	-10.7785
▁ထေရေ	-10.7785
ပရိဝာရော	-10.7785
▁နတ္ထိ၊	-10.7789
▁ဇာတိံ	-10.7789
ယသ္မာ	-10.7792
▁ပယောဇနံ	-10.7792
ေထာ	-10.7795
ဝတ္တန	-10.7802
▁သံဝိဇ္ဇမာနာ	-10.7802
▁သံသဂ္ဂ	-10.7803
ကတ္ဝာ	-10.7803
ပာယ	-10.7808
▁သမ္မပ္ပညာယ	-10.7809
ာဟု	-10.781
▁၁၄၃	-10.781
▁ဗုဒ္ဓပူဇာယိ	-10.7811
▁ကမ္မပထ	-10.7812
▁သင္ဃမဇ္ဈေ	-10.7812
▁ဝိဒ္ဓံသ	-10.7812
▁လီန	-10.7812
▁ဌိတိယာ	-10.7812
▁ဝိဘတ္တ	-10.7813
▁သမာပဇ္ဇိ	-10.7813
▁သုပ	-10.7814
▁ပရိဘုဉ္ဇတိ	-10.7814
▁ဝိဇ္ဇတီ	-10.7819
▁အဗ္ဘုတံ	-10.782
▁အဓိမတ္တ	-10.7822
▁ရောစ	-10.7823
▁အဇာနန္တော	-10.7825
သာမ	-10.7825
▁ဇာဂရ	-10.7825
တီဟိ	-10.7828
လဗ္ဘ	-10.7829
▁ပဋိဂ္ဂဟိတ	-10.7833
▁သန္တုဋ္ဌော	-10.7835
▁ဧကတ္ထ	-10.7838
▁ဂင္ဂာယ	-10.7838
▁ဧကူနဝီသတိ	-10.784
▁ဥဋ္ဌဟ	-10.7841
ကပ္ပေ	-10.7842
ပီဌ	-10.7844
က္ခိ	-10.7845
ာဂမော	-10.7849
▁အနုပ္ပန္နာ	-10.785
ဂုဏာ	-10.7851
▁သမ္ပဇာနကာရီ	-10.7851
▁ဂန္ထဝိပ္ပယုတ္တ	-10.7852
▁နိဒ္ဒောသ	-10.7853
ိယာတိ	-10.7854
အပိ	-10.7854
ဝတ္ထုံ	-10.7855
▁ဥပ္ပဇ္ဇိသ္သန္တိ	-10.7855
▁စတုဝီသတိ	-10.7857
▁ကာတဗ္ဗာ။	-10.7858
▁သန္ဓာယာဟ။	-10.7859
ဗ္ဘန္တရေ	-10.786
▁ပာသာဒိက	-10.7864
▁ဩရ	-10.7865
▁ယာဝဒေဝ	-10.7866
▁အကုသလမူလ	-10.7871
ာနေဝ။	-10.7871
မူလကံ	-10.7873
ုပစ္ဆေဒ	-10.7873
အတ္တနော	-10.7873
ဘေဒာ	-10.7873
▁ကရဏီယော	-10.7877
ခဏ	-10.7877
▁သန္တာ	-10.7877
▁စတုရာသီတိ	-10.7879
▁ဝိရာဂာ	-10.788
ဝိဇ္ဇ	-10.7882
▁ပရိဟာယန္တိ	-10.7883
▁အတီတာရမ္မဏ	-10.7884
▁တာဒိသေ	-10.7885
▁အသင္ခတာ	-10.7886
▁ဝုတ္တေပိ	-10.7891
▁ဒုက္ခံ။	-10.7892
▁ယောဂိနာ	-10.7893
လိက	-10.7893
ုလ	-10.7895
▁မယာ။	-10.79
ဝာက္ယ	-10.7902
▁၁၄၇	-10.7902
▁ကရောဟီ	-10.7902
▁လောကုတ္တရာ	-10.7902
ာဝယဝ	-10.7904
နီဝရဏ	-10.7905
ာဝဟ	-10.7907
▁အာရောဟ	-10.7907
▁ဟေမ	-10.7907
▁အသေခ	-10.7907
ဝတော	-10.7908
▁ဗဟုဇန	-10.791
▁ကောသလ	-10.7919
▁အလင္ကတ	-10.792
▁နိဂ္ဂဏ္ဟ	-10.7923
သန္တာနေ	-10.7924
က္ခာ	-10.7924
▁ကလဟ	-10.7924
▁အပေက္ခ	-10.7927
▁ဩကာသော	-10.7927
▁ပဟာတဗ္ဗသ္သ	-10.7931
▁သုကတ	-10.7933
▁မာတလိ	-10.7934
▁နာပရံ	-10.7935
▁ဇေဋ္ဌက	-10.7936
▁ဣတ္ထတ္တာယာ	-10.7938
▁ကထိနံ	-10.7939
▁မောရ	-10.7941
▁ပဂ္ဂဏ္ဟ	-10.7942
သုတ္တန္တ	-10.7944
▁အာစရိယာ	-10.7946
▁သင္ခာရော	-10.7947
▁ဉာဏာနိ	-10.7948
▁အာရကာ	-10.7952
ဥပာဒာနဝိပ္ပယုတ္တ	-10.7952
▁ပရိဘုဉ္ဇိတုံ	-10.7953
သမုဒယာ	-10.7953
▁သမုစ္ဆေဒ	-10.7954
▁အာဏာ	-10.7957
▁သမ္ပဟံသ	-10.7962
▁အဝဟရ	-10.7968
▁အန္တံ	-10.7968
ရော။	-10.797
ဗုဒ္ဓိ	-10.797
န္တေဟိ	-10.7972
ပုရိသိန္ဒ္ရိယဉ္စ	-10.7974
▁ဒုစ္စရိတ	-10.7974
▁ရူပီ	-10.7975
▁ရဇော	-10.7975
၁၁	-10.7976
▁ဝဒမာနော	-10.7982
▁လက္ခဏာနိ	-10.7987
▁ပဉ္စမီ	-10.799
▁အပသ္သ	-10.7991
ဂဏော	-10.7992
▁တဇ္ဇ	-10.7992
▁ဣမာဟိ	-10.7992
▁ဥဇုံ	-10.7993
▁အသမ္မောဟ	-10.7995
လီန	-10.7997
▁နိဗ္ဗိန္ဒတိ	-10.7999
ပရိသုဒ္ဓ	-10.8
▁တထာဂတေ	-10.8001
ဝာဒိ	-10.8002
▁အတ္ရ	-10.8003
ာပေန္တိ	-10.8007
▁ရူပာဒိ	-10.8008
▁ပဒီပ	-10.8009
▁ပဟီနံ	-10.8009
▁အသင္ခ္ယေယ္ယ	-10.801
ဋ္ဌက	-10.8011
▁ဥပ္ပဇ္ဇမာနာ	-10.8012
▁ဝတ္တတိ။	-10.8014
▁ပလ	-10.8014
▁ဂန္တဗ္ဗံ	-10.8014
ာမ။	-10.8015
▁မူလေ	-10.8017
▁ဥပရူပရိ	-10.8018
တပ	-10.8018
▁ပာတု	-10.8018
ဟေတူ	-10.8021
▁ဘဝိသ္သာမိ	-10.8021
▁နိက္ခန္တော	-10.8021
▁ဒန္ဓ	-10.8021
▁မဟဗ္ဗလော။	-10.8022
▁နဒိံ	-10.8023
အသုက	-10.8024
▁သမ္ပတ္တိံ	-10.8027
▁ပေသေတ္ဝာ	-10.8028
▁ပံသုကူလ	-10.8029
သံကိလေသ	-10.8031
▁ဥဒ္ဓဋ	-10.8033
▁ဗ္ရာဟ္မဏာနံ	-10.8036
▁ကာရိတ	-10.8037
ကာဒိ	-10.8038
▁မဂ္ဂပစ္စယ	-10.804
မာနေန	-10.8041
▁သာဝတ္ထိနိဒာနံ။	-10.8042
ဂဟိတ	-10.8042
ရတာ	-10.8043
▁ပက္ခန္ဒ	-10.8044
နီတ	-10.8045
ပဋိမဏ္ဍိတ	-10.8048
▁ဥပသမ္ပန္နော	-10.8048
▁အနန္တရံ	-10.8049
ဝိနိမုတ္တ	-10.805
▁သမေတိ	-10.8053
▁ကပ္ပိယံ	-10.8053
▁သေဋ္ဌံ	-10.8054
▁သိဇ္ဈ	-10.8055
သစ္ဆိကိရိယာယ	-10.8056
▁ဇိနော။	-10.8056
▁ဝုစ္စမာနော	-10.8057
▁၁၄၆	-10.8059
▁အဇာတသတ္တု	-10.806
▁ဝိဘတ္တာ	-10.8064
▁အသန္တ	-10.8069
▁ကရေ	-10.8069
▁ဂမိသ္သ	-10.807
ရာဓ	-10.807
▁အရဟတိ	-10.8071
▁ဝိဘင္ဂေ	-10.8072
သဉ္စ	-10.8073
▁ရာဇဂဟံ	-10.8073
▁မုနီ	-10.8075
၁၂	-10.8076
တိအာဒိကာ	-10.8076
▁ဘိက္ခူသု	-10.8078
ဒ္ဒသ	-10.8079
▁သုခသဟဂတ	-10.8081
သဟဂတံ	-10.8083
ပုရေဇာတ	-10.8083
▁ရသံ	-10.8084
သမာသ	-10.8084
▁သက္ကာရ	-10.8084
▁ပေတ္တိဝိသယ	-10.8084
▁ဒန္တကဋ္ဌ	-10.8085
တ္ထာယာတိ	-10.8086
▁ပရိဘုဉ္ဇိတဗ္ဗ	-10.8091
သမီပေ	-10.8091
ုပ္ပတ္တိယာ	-10.8092
▁ကက္ခဠ	-10.8092
အာဟာရ	-10.8093
▁တေသဉ္စ	-10.8096
တ္ထေရဝတ္ထု	-10.8097
▁ဗလိ	-10.8098
ုန္တိ	-10.8099
▁ပကတတ္တ	-10.8101
▁အသုရ	-10.8102
ရုဒ္ဓ	-10.8102
▁ပရိယာဒာယ	-10.8107
▁ဇာယတေ	-10.8108
▁ပဋိလောမ	-10.8111
ပာရာဇိက	-10.8112
▁ဘုတ္ဝာ	-10.8112
▁သေနာပတိ	-10.8113
▁တေလံ	-10.8113
▁ဝုဋ္ဌာတိ	-10.8114
▁ကောသဇ္ဇ	-10.8115
▁ဝတ္တု	-10.8116
▁အနုတ္တရ	-10.8116
▁အဒ္ဒသာ	-10.8116
▁တုဋ္ဌ	-10.8117
▁သုဝ	-10.8118
ပာစိတ္တိယ	-10.812
▁အဝေစ္စပ္ပသာဒေန	-10.8121
ရဟိတာ	-10.8122
▁မနောမယ	-10.813
▁ဂာဝ	-10.813
▁လောဏ	-10.8131
နိဗ္ဗတ္တ	-10.8132
▁သင္ခေပ	-10.8133
▁ဗန္ဓနံ	-10.8135
သမ္ပန္နော၊	-10.8137
လတာ	-10.8139
ုသ	-10.8141
▁ဥဗ္ဗ	-10.8141
▁ရတနတ္တယ	-10.8141
▁ဒသသု	-10.8141
ုပဋ္ဌာန	-10.8142
ကုလာ	-10.8145
▁နကမ္မပစ္စယာ	-10.8146
▁သစက္ခုကာန	-10.8146
▁ဘိယ္ယောဘာဝာယ	-10.8146
ဟာရော	-10.8146
▁ရဇန	-10.8147
ေတ္ဝာတိ	-10.8147
▁သမနုပသ္သာမိ	-10.8148
ဋ္ဌာနံ။	-10.8151
ပရိသာယ	-10.8153
▁ဝေရံ	-10.8154
▁နယန	-10.8156
▁ပရာဘဝ	-10.8158
▁သံသရန္တော	-10.8158
သောမနသ္သ	-10.8159
ဘူမိံ	-10.816
▁ဝုဋ္ဌိတော	-10.8161
တာဒိသော	-10.8161
▁သာမီ	-10.8162
သန္တုဋ္ဌ	-10.8163
▁တိဟေတုက	-10.8164
▁ဝိဝိတ္တ	-10.8166
ာပနံ	-10.8167
▁အညတရေန	-10.8169
သာဋက	-10.8169
▁ယုတ္တိ	-10.817
▁ပဋိက္ခိပ	-10.8171
▁ဟာ	-10.8171
ဝီသ	-10.8172
ဝိရဟိတ	-10.8173
▁ဘဝတီတိ	-10.8174
▁သံသ	-10.8174
▁ရာဇပုတ္တ	-10.8174
▁ဝိတ္ထာရော	-10.8175
ကုမာရော	-10.8175
▁အဂမ	-10.8179
▁သင္ဂီတိ	-10.8179
မာသေ	-10.8179
▁တာရ	-10.8179
▁သာသဝ	-10.8181
▁သုညံ	-10.8181
လဘ	-10.8182
▁ကိလေသေဟိ	-10.8186
▁ပသီဒ	-10.8186
လေ	-10.8186
ပူဇာယ	-10.8188
ဋာ	-10.819
▁သိက္ခာယ	-10.8191
▁ဓာရယာမီ	-10.8191
▁အာရဗ္ဘ။	-10.8192
▁အဝဏ္ဏ	-10.8192
▁ဒိသာသု	-10.8193
▁ဖာလ	-10.8194
▁နိဗ္ဗာနေ	-10.8195
▁သတတံ	-10.8196
ိယန္တိ	-10.8196
▁၁၆၀	-10.8196
▁သုဒ္ဓိံ	-10.8197
▁ပရာ	-10.8197
▁ဗ္ယာကရ	-10.8199
ဋော	-10.8201
▁ဥသဘ	-10.8203
▁ပုထူ	-10.8204
မံသံ	-10.8209
▁သက္ကစ္စ	-10.8209
ပ္ပစ္စယ	-10.8211
ာဝဗောဓ	-10.8214
▁နိဟီန	-10.8216
ုဒ္ဓ	-10.822
▁အဝသ္သံ	-10.8221
▁ဗ္ရဟ္မဒတ္တေ	-10.8222
▁ပစ္စေက	-10.8223
ူပစာရ	-10.8224
ုပာဒိန္နုပာဒာနိယ	-10.8225
မဂ္ဂေန	-10.8226
ပာတိမောက္ခုဒ္ဒေသ	-10.8229
▁အနုညာတံ	-10.823
▁မဟဂ္ဃ	-10.823
▁သဟတ္ထာ	-10.8231
▁အဝသိဋ္ဌ	-10.8232
▁တီရ	-10.8233
▁ဉာတီ	-10.8237
ိယမာနံ	-10.8238
▁ဘသ္သ	-10.824
▁သာရိပုတ္တတ္ထေရ	-10.824
▁တိရော	-10.824
▁အာဒိကမ္မိကသ္သာ	-10.8241
▁မိသ္သ	-10.8242
▁ခလ	-10.8244
▁ဒသဗလ	-10.8245
▁ဝိဟာရသ္သ	-10.8245
▁ဗ္ရဟ္မဝိဟာရ	-10.8246
ိတ္ဝာ။	-10.8247
သာလာယ	-10.8247
ဝိယ	-10.8249
▁ဟိဒံ	-10.8252
ဉ္စာပိ	-10.8252
▁ဓမ္မဒေသနာယ	-10.8255
ဃာတက	-10.8258
▁အန္န	-10.8258
▁အာသိံ၊	-10.826
ဋ္ဌေနာတိ	-10.8264
▁သဟေတုကံ	-10.8265
▁ပဒုမံ	-10.8265
▁အာမသတိ	-10.8268
▁အရဟန္တာနံ	-10.8268
ပ္ပတ္တံ	-10.8271
▁အယောနိသော	-10.8272
▁မဉ္စပီဌ	-10.8274
ဘောဇနံ	-10.8274
ဥပောသထ	-10.8276
ပရိယောသာန	-10.8277
▁အနဘာဝံ	-10.8278
ဋီကာ	-10.8278
ကလ္ယာဏ	-10.828
ဘုဉ္ဇ	-10.8281
ဗ္ရာဟ္မဏော	-10.8281
▁ပာဝ	-10.8284
လောကုတ္တရ	-10.8286
▁ဩကာသေ	-10.8287
အပရေဟိပိ	-10.8289
▁ပညတ္တ	-10.829
▁မနောရမ	-10.8291
မုတ္တော	-10.8291
▁နာဝာယ	-10.8291
▁သမနန္တရပစ္စယ	-10.8291
ဋက	-10.8294
▁ပုပ္ဖံ	-10.8294
▁နအကုသလ	-10.8297
ဝစနေ	-10.8297
▁အဝိဇ္ဇာပစ္စယာ	-10.8298
တု။	-10.8298
▁ဌပေသိ။	-10.83
▁ဣဓာတိ	-10.83
ကမ္မဋ္ဌာနံ	-10.8301
ဇိ	-10.8301
ာနုပသ္သီ	-10.8304
ဒေဝော	-10.8304
▁သဗ္ဗကာလံ	-10.8304
▁ရဝ	-10.8306
▁ဘဝိတုံ	-10.831
▁အကာရ	-10.8313
ဝိဝေက	-10.8316
ဒိသော	-10.8316
ဂိရိ	-10.8318
▁မာနာနုသယံ	-10.8318
▁ဘာဝယ	-10.8323
▁အာပဇ္ဇတီတိ	-10.8325
ပစ္စုပဋ္ဌာနာ	-10.8326
▁ဝိသ္သဇ္ဇေတ္ဝာ	-10.8326
▁ဒီပေ	-10.8326
▁၁၄၉	-10.8328
ယက္ခ	-10.8331
▁အဒ္ဓာနံ	-10.8331
▁ဥပဓိ	-10.8333
▁သန္ထတ	-10.8333
▁ဒဟရော	-10.8333
▁ဇာတက	-10.8334
▁ဂိလာနသ္သ	-10.8334
▁ဓောဝိတ္ဝာ	-10.8336
▁ဂဟိတာ။	-10.8338
သုခာယ	-10.8339
▁နီဝရဏသမ္ပယုတ္တ	-10.8341
▁ဟောန္တိ၊	-10.8341
▁အာဃာတ	-10.8343
▁၁၄၅	-10.8343
▁ပထဝိယာ	-10.8345
ပုတ္တာ	-10.8346
▁သန္နိသိန္နာ	-10.8346
▁အနိယတော	-10.8347
▁မဂ္ဂဉာဏ	-10.8347
▁အဒောသော	-10.8347
▁အဘိညေယ္ယာ	-10.8348
▁နာဝံ	-10.8349
လေပ	-10.8355
▁တမ္ဗ	-10.836
▁ဂရုကံ	-10.836
▁ဝေဓ	-10.836
▁အနုပ္ပန္နသ္သ	-10.8361
▁လောကနာယကံ	-10.8362
မဟံ	-10.8362
▁ဆာရတ္တံ	-10.8363
▁ပက္ကောသာပေတ္ဝာ	-10.8363
▁အနုပ္ပန္န	-10.8364
▁ထေရာနံ	-10.8365
▁ဝိဇယ	-10.8366
▁သာဒိယတိ	-10.837
▁ဒေဟ	-10.837
▁ဝစ	-10.8371
တ္ယာဒိ	-10.8373
ဒဒ	-10.8379
▁ဩက္ကန္တ	-10.838
▁သောဘန	-10.8382
▁ဇနက	-10.8382
▁ဥပဋ္ဌာက	-10.8389
ာယတနံ	-10.839
▁ဇိဝ္ဟာယ	-10.8391
▁သီလာနိ	-10.8392
▁ကုက္ကုစ္စ	-10.8394
ေယ္ယာသိ	-10.8395
▁ဟောမိ	-10.8396
ဣစ္စ	-10.8398
▁အဓိမောက္ခ	-10.8403
▁တဒုဘယံ	-10.8403
သံကိလေသိကော	-10.8406
▁နုပ္ပဇ္ဇတီတိ	-10.8406
▁ကာတု	-10.8412
▁မဟာမုနိ။	-10.8413
▁ပဝိသတိ	-10.8413
▁အဟောသီတိ	-10.8413
▁ဧဒိသ	-10.8413
▁သ္ဝာယံ	-10.8414
▁အဓိဂတော	-10.8415
ထူပ	-10.8415
▁လောလ	-10.8415
▁၁၅၇	-10.8415
▁သမဂ္ဂာ	-10.8416
ဖရဏ	-10.8421
မောဂ္ဂလ္လာန	-10.8421
▁ဇာနတော	-10.8422
▁ပိဋက	-10.8422
▁အဇ္ဈတ္တိက	-10.8424
▁နပုံသက	-10.8424
▁ဇနသ္သ	-10.8425
န္တာ၊	-10.8426
▁ထိနမိဒ္ဓ	-10.8427
သင္ဂဟိတ	-10.8428
သိနေဟ	-10.8429
▁အာလပတိ။	-10.843
မဋ္ဌ	-10.8432
ပိဋက	-10.8434
▁မဟာသမုဒ္ဒေ	-10.8434
▁ပရိယေသတိ	-10.8436
▁ဥတ္တရိံ	-10.8436
▁သီလဝန္တ	-10.8441
သဟသ္သံ	-10.8441
▁သုတ္တသ္သ	-10.8442
▁အမစ္စာ	-10.8444
▁ဒေထ	-10.8444
▁ပဉ္စဓာ	-10.8445
ေသ္သန္တိ	-10.8445
▁အန္ဝ	-10.8446
▁ကိလေသော	-10.845
▁၁၅၃	-10.8451
▁သာရဏီယံ	-10.8451
▁ကဋတ္တာရူပာနံ	-10.8458
▁ဥပသမ္ပန္န	-10.8458
▁ဒိဋ္ဌိဂတံ	-10.8458
▁တဒည	-10.8459
▁အရိဋ္ဌ	-10.8459
▁၁၅၉	-10.8459
▁၁၅၄	-10.8459
ီယတိ။	-10.846
▁စက္ကံ	-10.8461
▁ပစ္စန္တ	-10.8462
▁အဘိဝာဒ	-10.8467
▁ကိဉ္စန	-10.8469
▁သေက္ခော	-10.847
▁ဝိညာဏဉ္စာယတနံ	-10.847
▁ဒီဃံ	-10.847
နိသိန္န	-10.8471
▁ဇဟိတ္ဝာ	-10.8471
▁ဓာရဏ	-10.8471
▁သမာပတ္တိယော	-10.8472
▁ဂစ္ဆာမ	-10.8472
▁အဟောသိံ	-10.8473
▁ဂန္ထာ	-10.8474
▁ဝေနေယ္ယ	-10.8475
ကောသ	-10.8476
▁မုဋ္ဌိ	-10.8476
▁ပာတိမောက္ခသံဝရ	-10.8477
ပဓာန	-10.8477
▁ဥပဒ္ဒဝ	-10.8479
▁ဩပ	-10.8482
▁ဝိမုစ္စ	-10.8483
▁ဇီဝံ	-10.8485
▁အဟောသီ	-10.8487
စိတ္တေသု	-10.8488
ရောဟ	-10.8494
ဝာသံ	-10.8497
▁ဥတ္တရာ	-10.8498
ဝသာ	-10.8499
ဧကံ	-10.8499
▁ပရလောက	-10.8502
ဇာတိကာ	-10.8502
▁သမာဟိတ	-10.8502
▁မေတံ	-10.8502
ာဒီနမ္ပိ	-10.8503
▁ဥပေက္ခာသဟဂတံ	-10.8505
ဧတ္တက	-10.8506
▁အသပ္ပုရိသ	-10.8507
▁အညမညပစ္စယ	-10.8508
▁၁၅၅	-10.8509
▁ပရိည	-10.8511
▁နေက	-10.8511
စ္ဆေဒန	-10.8511
▁အမ္မ	-10.8514
▁တိဋ္ဌေယ္ယ	-10.8514
▁ပဉ္စမော	-10.8516
သီလာ	-10.8518
သတ္တိ	-10.8522
ာဘိနိဝေသ	-10.8523
▁၁၅၁	-10.8525
▁ရုက္ခာ	-10.8527
ဟံသ	-10.8528
ပ္ပမာဏော	-10.8529
▁ပာဒာ	-10.8533
▁သုပ္ပတိဋ္ဌိတ	-10.8535
ဝာသော	-10.8537
▁လု	-10.8537
▁မက္ကဋ	-10.8538
▁ပစ္စေကသမ္ဗုဒ္ဓ	-10.8539
▁လဗ္ဘန္တိ	-10.854
မက္ခ	-10.8542
▁ဝိဝရိတ္ဝာ	-10.8543
▁ပကာသိတ	-10.8544
▁ဝိသ္သာသ	-10.8544
သင္ခာတာယ	-10.8546
▁ပုရိမဗုဒ္ဓ	-10.8546
္ဝ	-10.8548
▁ဒေဟံ၊	-10.8548
ဝာပိ	-10.855
▁ပဝေသ	-10.855
▁ကတာ။	-10.8555
ဝ္ဟော	-10.8555
▁နိဓ	-10.8556
▁သုပဏ္ဏ	-10.8557
ဗန္ဓနံ	-10.8557
▁ကောဋ္ဌာသေ	-10.8559
▁ဧဝရူပေ	-10.8561
သ္မိဉ္စ	-10.8563
▁သမ္ပယုတ္တပစ္စယ	-10.8564
▁ရဇတ	-10.8565
▁ကာယဝိညာဏံ	-10.8565
▁ကစ္စာန	-10.8565
▁ပရတ္ထ	-10.8569
▁ဝိညာဏပစ္စယာ	-10.8571
မန္ဒ	-10.8571
▁သမ္ပဇာနမုသာ	-10.8571
▁အာဝဋ္ဋနာ	-10.8571
ာနံယေဝ	-10.8572
မုခေ	-10.8574
▁ကိသ	-10.8575
▁စေတောဝိမုတ္တိ	-10.8578
စိရ	-10.8578
▁သာသဝာ	-10.8581
▁ဆေဒန	-10.8581
▁သလ္လေခ	-10.8583
▁ယထာဘတံ	-10.8583
▁သမ္မောဒနီယံ	-10.8583
တ္ထမ္ဘ	-10.8584
▁သဟေတုကာ	-10.8584
ဘုတ္တ	-10.8585
▁ကရောတီ	-10.8585
▁စတုဓာ	-10.8588
ဝိနာသ	-10.859
ကိတ္တန	-10.859
▁ဇာနာသိ	-10.8591
ဝုဋ္ဌာန	-10.8592
▁၁၅၈	-10.8592
မ္ဗု	-10.8593
▁ဂန္တ္ဝာ၊	-10.8595
▁ယုဝ	-10.8596
▁ပရိနိဗ္ဗုတေ	-10.8597
မေဓ	-10.8599
▁အာဒိသဒ္ဒေန	-10.8599
ဝတ္ထုက	-10.86
▁ဂဏ္ဟထာ	-10.86
▁နေတ္ဝာ	-10.8604
▁စက္ခုဓာတု	-10.8604
▁ဘက္ခ	-10.8607
▁ရုက္ခသ္သ	-10.8608
▁ဧကံသ	-10.8609
▁ဒိန္နော	-10.861
▁အရဟတ္တမဂ္ဂေန	-10.8613
▁ဝိပသ္သီ	-10.8613
ရသ္သ	-10.8614
ညု	-10.8614
အဝ	-10.8614
ရမ	-10.8617
ရဇ္ဇု	-10.8618
▁ဘုဇ	-10.862
အာရမ္မဏ	-10.8621
▁ကာဠက	-10.8622
ေသာ	-10.8626
▁စက္ခုသမ္ဖသ္သ	-10.8627
▁တာဒီ	-10.8627
▁ပရိသုဒ္ဓံ	-10.8627
ပရိသ	-10.8628
မုဒ	-10.8628
▁ပေမ	-10.8632
ဘဏ္ဍံ	-10.8634
ဇ္ဈာ	-10.8635
သပ္ပ	-10.8636
▁ဝသ္သသတ	-10.8636
ဒိဋ္ဌီ	-10.8638
▁ကုရု	-10.8638
▁သဟဇာတာဓိပတိ။	-10.8641
▁ဥပသမ္ပဒ	-10.8641
▁သင္ခာရက္ခန္ဓ	-10.8642
▁၁၆၅	-10.8643
ဝေဂ	-10.8643
ပရိဟာရ	-10.8643
▁ကရုဏာယ	-10.8645
▁စက္ခုမာ	-10.8646
ယိတ္ထ	-10.8647
ဗုဇ္ဈ	-10.8648
▁ရသ္သော	-10.8648
ာဂာရ	-10.865
သတ္ထာ	-10.8654
▁အဂ္ဂံ	-10.8657
တာလ	-10.8661
▁အညမ္ပိ	-10.8661
▁သမာဒိယ	-10.8662
ပေမ	-10.8662
▁ဝဇိရ	-10.8662
▁သန္တေပိ	-10.8668
ရဟိတံ	-10.8669
▁ဝိညာယ	-10.867
▁သတ္တဝိဓ	-10.867
▁ပရိနိဗ္ဗုတ	-10.8671
▁ပိဋ္ဌ	-10.8671
▁အာရဒ္ဓ	-10.8673
▁ဒုဂ္ဂန္ဓ	-10.8673
▁လီနတ္ထပ္ပကာသနာ	-10.8673
▁ဒန္ဓာဘိညံ	-10.8674
▁အာရဒ္ဓဝီရိယော	-10.8674
ရုဏ	-10.8678
▁သင္ခာရေသု	-10.8678
▁အာရမ္ဘ	-10.8679
▁တဉ္စေ	-10.8679
ဝေဓ	-10.8681
▁ဘိန္ဒတိ	-10.8684
▁တဒုပ	-10.8685
▁သမာသော	-10.8685
▁သုနခ	-10.8686
▁ပရိဝတ္တေတ္ဝာ	-10.8688
▁နဠ	-10.8689
▁ပဋိနိသ္သဇ္ဇ	-10.869
တဗ္ဗံ	-10.8695
▁ပရိယန္တ	-10.8696
ဂုဏေ	-10.8697
▁ဘဉ္ဇ	-10.8698
ုပဂ	-10.8703
▁သိဒ္ဓ	-10.8707
ဂဏန	-10.8708
▁ဌပိတာ	-10.871
ာနုသာရေန	-10.871
ဟဒယ	-10.871
▁ပဌမော။	-10.8712
▁မုဏ္ဍ	-10.8713
▁ဥပ္ပဇ္ဇမာန	-10.8713
▁နဂ္ဂ	-10.8714
▁သီမံ	-10.8715
▁ဌာ	-10.8716
▁ဥပာသကာ	-10.8718
▁တိတိက္ခ	-10.8721
▁ပညံ	-10.8722
▁ရာဇကုမာရ	-10.8722
▁တတ္ရာပိ	-10.8723
▁အာဒာန	-10.8724
▁အဘာဝိတ	-10.8724
▁ပဋိက္ခိပိတ္ဝာ	-10.8726
▁ဂစ္ဆတော	-10.8727
▁ပာကတိက	-10.8727
ဝာဒံ	-10.8727
▁ရထံ	-10.8727
▁နိပတ	-10.873
ပ္ပကာသန	-10.8732
ကောဋိယော	-10.8732
ဝဂ္ဂသ္သ	-10.8735
ပရိဠာဟ	-10.8737
မတ္တက	-10.8738
▁ခီရံ	-10.8742
သမ္ပဒံ	-10.8742
▁ကမေန	-10.8746
စတ္တာလီသ	-10.8748
ေသ္သတိ	-10.875
ဝိမုတ္တိ	-10.8751
▁မညထ	-10.8752
▁မိတ္တော	-10.8753
▁ကန္တာ	-10.8753
▁ဒေသိတံ	-10.8755
ဒေသနာယ	-10.8755
ဘူတာယ	-10.8755
ံသု	-10.8757
သဒ္ဒေ	-10.8757
▁သမ္မသန	-10.8759
▁ဒေသေသိ	-10.8759
▁အညာတာဝိန္ဒ္ရိယ	-10.876
ဇေ	-10.8763
ဝိပ္ဖာရ	-10.8763
စ္ဆန္န	-10.8763
နိဝာရဏ	-10.8763
▁ပုဗ္ဗဏ္ဟသမယံ	-10.8764
▁ဆဗ္ဗဂ္ဂိယေ	-10.8765
▁ပသ္သတီ	-10.8766
▁ဒသ္သိတံ	-10.8766
▁ဘဗ္ဗော	-10.8766
▁ဝိသောဓ	-10.8767
▁ဒိယ	-10.8776
▁နဝဝိဓ	-10.8779
▁ယေနာယသ္မ	-10.878
▁သိက္ခာပဒေ	-10.8782
ူရ	-10.8782
ရတ္တံ	-10.8783
▁ပဝတ္တမာန	-10.8783
▁ဗီဇံ	-10.8785
▁ဝိဇာယ	-10.8786
▁အာဏတ္တိ	-10.8788
စိတ	-10.879
ေကဝစန	-10.8791
▁ဘုသံ	-10.8793
ဟစ္စ	-10.8793
▁ဥပ္ပဇ္ဇမာနံ	-10.8793
ဝိဘဝ	-10.8794
▁သန္ထဝ	-10.88
▁သေဒ	-10.8801
ိတဗ္ဗော။	-10.8801
▁သမိဇ္ဈ	-10.8804
▁ပဝာရဏာယ	-10.8805
▁ကတာဓိကာရော	-10.8806
▁ဘာရော	-10.8807
ာနုဂတ	-10.8808
▁ဓမ္မာဘိသမယော	-10.881
▁ဝီ	-10.8813
ဝသ္သိက	-10.8813
▁ဘာသေယ္ယ။	-10.8814
▁ယသ္သာ	-10.8814
▁အရိယသ္သ	-10.8817
ဝိသယော	-10.8818
▁စဝိတ္ဝာ	-10.8819
▁နိပာတော	-10.8819
ကဋာဟ	-10.8819
▁အဋ္ဋ	-10.8822
▁တုလ္ယ	-10.8822
▁ကဏ္ဍ	-10.8823
▁နိက္ခိတ္တော	-10.8823
▁သုတ္တေန	-10.8824
▁ဝဏ္ဏိတ	-10.8824
▁ပာရိသုဒ္ဓိ	-10.8828
သုရ	-10.8828
သမုဋ္ဌာနာ	-10.8829
ဝစနသ္သ	-10.8829
ပဋိသံယုတ္တ	-10.8831
▁ဣဒ္ဓိပာဒ	-10.8831
▁ဥဒ္ဓစ္စသဟဂတေ	-10.8833
ပုပ္ဖံ	-10.8835
ပဋိပာဋိယာ	-10.8837
▁အစိတ္တက	-10.8837
▁နိဂမ	-10.8838
နီယော	-10.8841
▁နပုံသကေ	-10.8841
▁မာတုလ	-10.8842
မိမံ	-10.8842
▁သမနုပသ္သတိ	-10.8843
▁အဇ္ဈောဟာရေ	-10.8844
▁သေသေသုပိ	-10.8845
ာနုဝတ္တ	-10.8846
▁အပ္ပဝတ္တိ	-10.8846
▁ကရောန္တီတိ	-10.8848
▁ဆာဒ	-10.8848
▁အနာရမ္မဏ	-10.8851
▁ဝိက္ခေပ	-10.8852
သံသယ	-10.8854
ကဏ္ဍံ	-10.8855
▁ဝိနိပာတ	-10.8856
▁ဘောဇနံ။	-10.8856
မောက္ခ	-10.8857
▁တဒနန္တရံ	-10.8858
▁အာဟစ္စ	-10.8859
▁ဒုက္ခပဋိပဒံ	-10.8859
▁တဗ္ဗ	-10.886
ိနံ။	-10.8861
▁အစေလက	-10.8861
▁ဘူတဂာမ	-10.8861
▁မနုသ္သော	-10.8861
▁ဥမ္မတ္တကသ္သ	-10.8862
▁ဒသ္သိတော။	-10.8864
သံယောဇနံ	-10.8869
တသ္မိံ	-10.8869
▁ဝိပုလံ	-10.887
တ္ထံ။	-10.8871
ဝိဂ္ဂဟ	-10.8872
▁အဓိပ္ပေတံ။	-10.8877
ပရိယ	-10.8877
▁၁၆၁	-10.8878
▁ပဉ္စာလ	-10.8882
မဟတ္တ	-10.8883
ဂမနေ	-10.8883
နိသ္သိတာ	-10.8884
▁စောဒနာ	-10.8886
▁ကေဝလဉ္စ	-10.8886
သန္ထတ	-10.8887
ိံ၊	-10.8887
▁လဟုက	-10.8888
ဝင္က	-10.8888
▁ပဏ္ဍက	-10.889
▁သင္ဃာဒိသေသာ	-10.8892
▁ဗောဓိယာ	-10.8892
▁ပဋိလာဘ	-10.8893
▁အဋ္ဌာသိ	-10.8894
▁ဒိဋ္ဌိဂတ	-10.8895
▁ဒုတိယေန	-10.8896
▁ခိပ္ပ	-10.8896
▁ကာရေန္တေ	-10.8898
သာဂရ	-10.8903
▁နိရန္တရံ	-10.8904
ဒီပက	-10.8904
▁ပာရမိယော	-10.8906
▁အာဂတေ	-10.8906
▁အပ္ပဟာယ	-10.8907
▁အဓိကာရ	-10.8908
▁သတိန္ဒ္ရိယံ	-10.8909
ဇနပဒ	-10.8909
▁ဘဂိနိ	-10.891
▁မေထုနဓမ္မ	-10.891
▁ပရိသုဒ္ဓာ	-10.8911
▁ဂတောတိ	-10.8912
▁ဥပဇ္ဈာယော	-10.8913
▁ဘဝန္တ	-10.8913
▁ဝိစိတ္တ	-10.8914
▁အန္တောဂဓ	-10.8915
▁ပဂုဏ	-10.8916
▁ဒုမ	-10.8916
▁အပ္ပံ	-10.8916
ပဒေဟိ	-10.8918
▁သဟဇာတော	-10.8921
နီယာ	-10.8921
▁ဝူပသန္တ	-10.8922
ဒန္တော	-10.8923
ဋ္ဌာနိယ	-10.8926
က္ခိပ	-10.8927
သန္တောသော	-10.8928
▁ပဉ္စင္ဂိက	-10.893
▁ပရိဏာမ	-10.893
ပ္ပဟာရ	-10.8932
ိန္ဒ္ရိယာနိ	-10.8932
ောကာသ	-10.8933
▁အဝိတက္က	-10.8934
ာရမ္ဘ	-10.8936
▁ပုနဒိဝသေ	-10.8936
▁နိဋ္ဌာ	-10.8937
ာဓိဋ္ဌာန	-10.8937
▁အာကာသေန	-10.8937
▁သုညော	-10.8938
ပာတုဘာဝ	-10.894
▁ပဋိက္ကူလ	-10.894
ကာဠ	-10.8945
ကိစ္ဆ	-10.8948
▁သီဒ	-10.8949
သတိပဋ္ဌာန	-10.895
▁ဝိဓုရ	-10.8955
▁ဗဟုသ္သုတာ	-10.8955
စ္စာဒိ	-10.8955
ိယော။	-10.8956
▁လဘေထ	-10.8958
▁ဥပေက္ခ	-10.8958
▁သတ္ထံ	-10.8959
▁ဝိဝာဒော	-10.8959
▁ဒုသ္သီလော	-10.8963
▁ရူပာဝစရာ	-10.8965
ပာဒေ	-10.8966
နာမရူပ	-10.8966
▁နိဒ္ဒိသ	-10.8967
▁ပရိစရ	-10.897
▁ပရိဗ္ဗာဇကာ	-10.897
ဝိနိစ္ဆယကထာ	-10.8971
▁ကေနဋ္ဌေန	-10.8976
▁နိသိန္နေ	-10.8977
မကာသိ။	-10.898
▁နိပ္ဖန္န	-10.8982
▁ဝုဋ္ဌဟ	-10.8983
▁ပဉ္ဟာဝာရော	-10.8984
ာရာမေ	-10.8984
▁အတ္ထဝဏ္ဏနာ	-10.8985
▁ဝိမောက္ခာ	-10.8986
▁လောကနာထ	-10.8987
နိယတ	-10.8988
ရဟ	-10.8989
▁ဣတ္ထိံ	-10.899
▁ဣစ္စေဝ	-10.8991
▁သာမိသ	-10.8993
မုတ္တမ	-10.8996
ယန္တာ	-10.8996
▁သမာပဇ္ဇတိ	-10.8998
▁ဝေမတိကာ	-10.8999
▁အရိယမဂ္ဂော	-10.9
▁သန္တိကေ။	-10.9001
သညိတာ	-10.9001
▁သရတိ	-10.9002
▁ပရိယာပုဏ	-10.9003
▁မာဏဝက	-10.9003
ဝိဒူ	-10.9003
▁ပဟီယတိ	-10.9004
▁ပုလ္လိင္ဂ	-10.9005
▁အာကင္ခ	-10.9005
မုနိ	-10.9006
▁ဝာသံ	-10.9008
နာမေန	-10.9008
▁ပညတ္တေ	-10.9008
ကစ္စိ	-10.9009
▁ယေပိ	-10.901
▁ပီတိသုခံ	-10.9012
▁ဥဋ္ဌဟိတ္ဝာ	-10.9013
ိနိယာ	-10.9019
▁ဣဒ္ဓိဝိဓ	-10.9021
▁သင္ခာ	-10.9021
ဂမာ	-10.9023
▁ဣဒန္တိ	-10.9027
ဝိဘာဝန	-10.9027
▁ပရိယောသာနံ	-10.9031
ကပ္ပော	-10.9035
▁ဥပ္ပဇ္ဇ	-10.9035
ဗာဟု	-10.9036
▁လာ	-10.9037
ဒာရု	-10.9037
မတ္တနော။	-10.9038
ေတ	-10.9039
▁သေသေသု	-10.9041
▁နက္ခမတိ	-10.9042
▁ဧကစ္စံ	-10.9043
▁ဝိပစ္စ	-10.9045
▁သုဘာသိတ	-10.9045
▁ပဝာရိတ	-10.9045
မူလကာ	-10.9046
▁သရဏော	-10.9047
▁သာသနေ။	-10.905
▁အကုပ္ပ	-10.905
▁ဉာဏန္တိ	-10.9051
ကာယံ	-10.9052
လောဟ	-10.9053
▁ဝီထိ	-10.9056
▁၁၅၂	-10.9056
▁ဒိဇ	-10.9057
ဂန္ဓော	-10.9059
▁ဒုခ	-10.9062
▁မေတ္တစိတ္တ	-10.9064
▁ဧကောဝ	-10.9065
ဝီရ	-10.9066
▁နဝုတိ	-10.9068
▁ဗုဒ္ဓော၊	-10.9068
▁အသပ္ပာယ	-10.907
▁၁၆၇	-10.9071
ကတမဉ္စ	-10.9072
▁အာကာသော	-10.9072
▁အတ္ထေန	-10.9072
ကဒာ	-10.9075
▁ခဂ္ဂ	-10.9079
▁ဝီတရာဂ	-10.9081
▁ပဋ္ဌပ	-10.9082
▁အာရမ္မဏပစ္စယော	-10.9083
▁မဟာနုဘာဝော	-10.9085
▁လဗ္ဘာ	-10.9085
နယန	-10.9085
▁မဟာထေရ	-10.9086
▁နိသီဒန	-10.9086
▁မုဒိတာ	-10.9089
မေဃ	-10.9091
အနိစ္စ	-10.9091
ာနုသ္သတိ	-10.9094
▁အဘာဝတော။	-10.9094
▁ယာဝကာလိက	-10.9094
▁ကထိတော	-10.9096
ဘိက္ခ	-10.9097
ဝိစာရ	-10.9098
▁ဥပဋ္ဌိတ	-10.9098
သံသဂ္ဂ	-10.9102
▁ပူဇယ	-10.9102
▁ကုသလာ။	-10.9103
▁သမန္နာဂတောတိ	-10.9105
▁ဒလိဒ္ဒ	-10.9108
▁ဒုဂ္ဂတ	-10.9111
ာနုပသ္သနာ	-10.9112
▁ရုက္ခေ	-10.9113
ာယသ္မာ	-10.9113
▁ဥက္ခိတ္တ	-10.9117
▁ယထာဘူတ	-10.9118
▁အပ္ပမတ္တက	-10.9118
ဟံ၊	-10.912
ာဒီန	-10.9124
သတ္တာနံ	-10.9124
▁သုဓာ	-10.9124
▁အနုဂ္ဂဟ	-10.9128
သသ္သ	-10.9129
▁ပရိမာဏ	-10.9129
မဉ္စ	-10.9129
▁မဟာဘူတာနံ	-10.9134
▁ကာယဂတာသတိ	-10.9136
▁ဝိဘာဝနိယံ	-10.9136
▁ဝသနဋ္ဌာနံ	-10.9137
▁အာယသ္မန္တော	-10.9138
▁အစ္ဆရိယ	-10.9139
ကောဋိယာ	-10.9139
▁ဝိရဇံ	-10.9141
က္ခန္ဓကေ	-10.9141
▁ပုစ္ဆန္တိ	-10.9142
နောတိ	-10.9142
▁ဝေဒနာပစ္စယာ	-10.9142
▁၁၆၂	-10.9142
တယော	-10.9143
▁ဝိဓိ	-10.9144
▁တာသ	-10.9145
▁ပညပေန္တိ	-10.9148
ာဒီနမ	-10.915
▁ဩဠာရိကံ	-10.9152
ဘာဏက	-10.9153
▁နိဋ္ဌိတော	-10.9157
▁ဣတရသ္သ	-10.9158
▁ဂန္တ္ဝာန	-10.9158
▁ဝန္ဒန	-10.9159
▁သမ္ပဇာန	-10.9159
▁ဉာတော	-10.916
▁အနုစ္ဆဝိက	-10.916
▁၁၇၄	-10.9164
▁သပ္ပုရိသော	-10.9164
တ္တဘာဝ	-10.9164
သဉ္စေတနာ	-10.9165
ပတ	-10.9165
▁ဒောသာ	-10.9166
▁ဝိတက္ကသ္သ	-10.9167
ပုဉ္ဇ	-10.9168
ပိဏ္ဍပာတ	-10.9168
သဘာဝတ္တာ	-10.9169
▁ဘဝရာဂာနုသယံ	-10.917
▁တုလ	-10.9171
ဝတ	-10.9171
▁နသဟေတုက	-10.9176
▁အနာဂာမိမဂ္ဂ	-10.9177
▁ဌိတတ္တာ	-10.9177
▁ကရေယ္ယ။	-10.9178
▁သက္ကောန္တိ	-10.9179
▁ဓာရေတဗ္ဗ	-10.9179
▁ပကတ	-10.918
အကုသလ	-10.9181
▁ပစ္စတ္တ	-10.9182
▁ဒသဗလသ္သ	-10.9184
▁အနတ္တ	-10.9186
▁ဣဓာဓိပ္ပေတ	-10.9186
သန္နိပာတ	-10.9188
ဝိသမ	-10.9188
ပုဋ	-10.919
▁အာရညိက	-10.9191
▁အကိရိယ	-10.9192
ဘေသဇ္ဇပရိက္ခာရ	-10.9192
ူပဂာ	-10.9193
ဟတ္ထာ	-10.9196
ရူဠ္ဟ	-10.9197
ကပ္ပိယ	-10.9198
▁ပဋိကူလ	-10.9198
▁သေသော။	-10.9198
▁နိကန္တိ	-10.92
▁အာဟံသု။	-10.9201
▁ပိဋ္ဌိတော	-10.9202
သန္တက	-10.9202
▁ဝေပုလ္လာယ	-10.9203
▁ယောဓ	-10.9204
▁သမ္မုခာဝိနယေန	-10.9206
မေသ	-10.9206
ာတိက္ကမေ	-10.9206
▁အသင္ခတံ	-10.9208
▁ဥပဂတော	-10.9209
▁ကလိ	-10.9209
နာဒ	-10.9209
▁အယ္ယ	-10.921
▁နန္ဒီ	-10.921
ိဉ္စ	-10.921
▁ပဝတ္တိယာ	-10.9213
တာပ	-10.9214
▁သီမ	-10.9215
▁ဝိပသ္သတိ	-10.9216
▁ဝေဒနာ။	-10.9217
▁ပဏ	-10.9218
ဃောသ	-10.9218
▁မနသော	-10.9218
▁သဗ္ဗံ၊	-10.9218
▁ဘောဇနီယံ	-10.9219
▁အဓိဂမာယ	-10.9223
အင္ဂ	-10.9226
ရာမ	-10.9226
▁နာန	-10.9226
သံသာရ	-10.9227
ဂုတ္တ	-10.9227
▁လောကိယံ	-10.9228
၂၀	-10.9228
▁ပဝတ္တိတ	-10.9232
▁ခီဏာသဝာ	-10.9232
▁သုဘာဝိတ	-10.9236
▁ဗ္ရာဟ္မဏေ	-10.9236
▁၁၇၆	-10.9237
ိနောတိ	-10.9238
▁မာလ	-10.9239
▁ဒုတိယော။	-10.9241
ပဒဋ္ဌာန	-10.9242
စိတ္တေ	-10.9243
ဝီတိက္ကမ	-10.9244
▁ဝိပာကသ္သ	-10.9247
▁ပဗ္ဗတော	-10.925
▁သမ္မန္တိ	-10.9253
▁သောတာပန္န	-10.9253
▁ဝလ္လိ	-10.9254
ေသ္ဝ	-10.9255
▁ပဘသ္သရ	-10.9256
▁၁၆၉	-10.9257
ဇီဝိတိန္ဒ္ရိယဉ္စ	-10.926
▁ဣတ္ထိယံ	-10.9261
▁ပာပကာနံ	-10.9264
▁နိယတာ	-10.9265
▁အညာတ	-10.9265
ပညတ္တ	-10.9266
▁၁၇၉	-10.9266
▁ဒဋ္ဌဗ္ဗ	-10.9268
▁ဗန္ဓု	-10.9269
ဝိစိတ္တ	-10.927
ဝာစကော	-10.9271
ဂဏာ	-10.9272
ဝုဋ္ဌ	-10.9272
▁နိယ္ယာန	-10.9272
▁ဒိဋ္ဌိယော	-10.9273
▁၁၇၀	-10.9274
တဗ္ဗော	-10.9279
▁ဘာဝနာပာရိပူရိ	-10.9279
▁သတာနိ	-10.928
▁ရုက္ခမူလေ	-10.928
▁ကာမာဝစရာနံ	-10.9281
▁ဂလ	-10.9281
▁ကုလပုတ္တော	-10.9282
ဓမ္မေန	-10.9283
▁ဓမ္မာနုပသ္သီ	-10.9284
ဝိညတ္တိ	-10.9285
▁သုပိန	-10.9287
သုတ္တဝဏ္ဏနာယ	-10.9289
▁နိဝေသ	-10.929
▁ဆဠဘိညာ	-10.9291
▁သခာ	-10.9291
▁ဝတ္ထုနာ	-10.9294
▁နိမန္တ	-10.9294
▁ဣရိယ	-10.9295
ဘာဝောတိ	-10.9295
▁သမ္ပာဒ	-10.9295
▁ပဏ္ဍု	-10.9295
ဝိဓိံ	-10.9296
▁အာဒရ	-10.9296
သမဏော	-10.9297
▁အပ္ပဟီနာ	-10.9299
▁ပုရတ္ထိမ	-10.9307
▁ဗဟလ	-10.9311
▁တာဒိ	-10.9312
ရံ။	-10.9314
▁သံယောဇနံ	-10.9316
ဒိဗ္ဗ	-10.9316
ဉ္စေဝ၊	-10.9316
▁ဘိက္ခုနော။	-10.9316
▁သိယုံ။	-10.9316
▁အနိဒသ္သန	-10.9318
▁သုတဝာ	-10.9319
▁ဓမ္မကထိက	-10.9321
▁သဘာဝော	-10.9321
▁သတိသမ္ပဇည	-10.9321
ကဏ္ဍ	-10.9321
ယိံသု	-10.9323
▁အဒ္ဓာန	-10.9324
▁ပပတ	-10.9326
▁သဒ္ဓမ္မံ	-10.9328
▁ဉာဏဝိပ္ပယုတ္တ	-10.933
▁ယောဇေ	-10.933
▁အနုသ္သာဝန	-10.9331
ောဝ။	-10.9332
▁ဣတ္ထိန္ဒ္ရိယဉ္စ	-10.9332
▁ဂီတ	-10.9336
▁စိတ္တဝိပ္ပယုတ္တ	-10.9338
▁အပ္ပဏိဟိတ	-10.9341
▁ကံသ	-10.9341
▁ဝာဒံ	-10.9342
▁ပသဝ	-10.9342
▁ဒေသေတ္ဝာ	-10.9344
▁ပရိဝုတော	-10.9345
▁သဒ္ဓိန္ဒ္ရိယ	-10.9346
▁ဝီတိဝတ္တ	-10.9346
▁ပာတော	-10.9346
▁ဝိရဇ္ဇ	-10.9346
▁နိဗဒ္ဓ	-10.9347
မာပဇ္ဇ	-10.935
▁နိယာမ	-10.9352
▁ပဉ္စက္ခန္ဓာ	-10.9353
စာ	-10.9354
▁အသက္ကုဏေယ္ယ	-10.9354
ဝိဘာဂော	-10.9355
▁သာတ	-10.9355
မုဋ္ဌိ	-10.9356
လက	-10.9356
▁သိင္ဂာလ	-10.9356
▁ပဟာတဗ္ဗဟေတုကာ	-10.9357
▁အဒုက္ခမသုခာ	-10.9357
သိတာ	-10.9358
ပီတ	-10.9359
▁ခတ္တိယော။	-10.9359
▁ပာရာဇိကသ္သ	-10.936
▁အာပဇ္ဇိ	-10.9361
▁ဝိတက္ကဝိစာရ	-10.9362
▁သောဓ	-10.9363
ပန္ထ	-10.9364
▁ဒုက္ခသမုဒယော	-10.9365
လိတ္တ	-10.9366
သမင္ဂိနော	-10.9367
ိနိံ	-10.9367
ဇပ္ပ	-10.9368
▁ကာမဂုဏာ	-10.9369
▁မာဂဓ	-10.9374
▁တစ္ဆ	-10.9375
▁သုဝိညေယ္ယ	-10.9376
▁အယန္တိ	-10.9376
▁ဗုဒ္ဓပ္ပမုခ	-10.9376
▁၁၆၄	-10.9377
▁ဒုက္ကရံ	-10.9379
▁တိကိစ္ဆ	-10.9382
▁သောမနသ္သေန	-10.9382
▁ဥပေက္ခကော	-10.9383
▁ဣစ္စေဝံ	-10.9385
▁ဒုသ္သီလ	-10.9386
ကတ္တ	-10.9386
▁ခေမံ	-10.9388
တ္ထေရသ္သာပဒာန	-10.9388
▁ပတတိ	-10.9389
သောတံ	-10.939
ာဂတ	-10.9391
▁အရိယသစ္စာနိ	-10.9391
▁လိခိတံ။	-10.9391
သတေဟိ	-10.9394
▁သာဝတ္ထိနိဒာနံ	-10.9395
▁ရာဇဂဟ	-10.9398
▁ဂတိယံ	-10.94
▁အာစယဂာမိ	-10.9402
ဝဏ္ဏနာယ	-10.9404
▁ပရိညာယ	-10.9405
သမ္မာဒိဋ္ဌိ	-10.9406
ဋ္ဌကထာ	-10.9406
▁အသိတ	-10.9406
ိဒ	-10.9407
▁ပရိဂ္ဂဟိတ	-10.9407
▁ကတမ	-10.9408
ဗ္ဗိ	-10.9408
▁ကရောန္တီ	-10.941
▁လဒ္ဓော	-10.941
▁သာဝတ္ထိံ	-10.941
▁ပစ္စဝေက္ခ	-10.9416
န္တရာယ	-10.9417
▁နဋ္ဌ	-10.942
▁ပဋိဃာနုသယံ	-10.9421
▁ဌိတံ။	-10.9422
သမင္ဂိ	-10.9422
ာစယဂာမိနာပစယဂာမိ	-10.9423
မတ္ထိ	-10.9423
▁၁၇၃	-10.9424
▁နိက္ခမ္မ	-10.9425
▁ဝစနီယော	-10.9425
▁ဣဒဉ္ဟိ	-10.9425
▁ဌပေတုံ	-10.9426
▁မတ္တိကာ	-10.9427
ဠ္ဟ	-10.9429
▁ဗုဇ္ဈန္တီတိ	-10.943
▁နပ္ပ	-10.9431
▁အဋ္ဌဝိဓ	-10.9432
▁တဇ္ဇာ	-10.9432
▁ဂန္တဗ္ဗော	-10.9433
▁အာပဇ္ဇိတ္ဝာ	-10.9434
သ္မ	-10.9434
ဒသ္သနဝသေန	-10.9435
နိဝာသ	-10.9435
ိရ	-10.9436
ထမ္ဘ	-10.9437
▁ဝိဒိတာ	-10.9437
▁စောဒေတိ	-10.9437
▁စရေယ္ယ	-10.9438
▁ပစ္စယံ	-10.9438
▁တုစ္ဆ	-10.9439
▁ပူဝ	-10.944
▁မဏ္ဍလ	-10.944
ဒာယကတ္ထေရအပဒာန	-10.9441
▁ပရိစ္စတ္တ	-10.9442
▁နိစ္ဆ	-10.9445
▁နိဗ္ဗတ္တေတ္ဝာ	-10.9447
▁တတိယော။	-10.9448
ဂီတ	-10.9448
▁ပဇဟတိ။	-10.945
ိကသ္သ	-10.9451
▁ပာရာဇိကသ္သ။	-10.9452
▁အာဝုဓ	-10.9453
နနု	-10.9454
▁ဒသာဟ	-10.9455
▁ပောက္ခရဏီ	-10.9455
မင္ဂ	-10.9457
▁ဥဋ္ဌာန	-10.9457
▁အဘိညေယ္ယံ။	-10.9457
▁ဂဟဋ္ဌ	-10.9457
▁ဆိဒ္ဒ	-10.946
ူပနိသ္သယ	-10.9461
▁ပမဇ္ဇ	-10.9462
▁၁၆၆	-10.9464
▁ပရိပုဏ္ဏံ	-10.9465
ာဘိသင္ခာရ	-10.9467
▁ဂစ္ဆန္တီတိ	-10.9468
▁အနေန	-10.9469
▁ဣဋ္ဌာ	-10.9469
▁ရူပေန	-10.947
ဗဟုလ	-10.9471
▁ဝီတိသာရေတ္ဝာ	-10.9472
▁သယမ္ဘူ	-10.9472
▁ကေသဉ္စိ	-10.9472
▁၁၇၂	-10.9473
▁ယုဇ္ဈ	-10.9473
▁ဘိက္ခုသင္ဃေန	-10.9474
ာဗာဓ	-10.9475
▁ပဇာနာတီ	-10.9476
ီရ	-10.9476
▁ဇာတေ	-10.9479
ိမာနိ	-10.948
▁လာဘံ	-10.948
▁အညတရာ	-10.9482
▁ဧတိ	-10.9483
▁ဧကစ္စသ္သ	-10.9483
▁အသေသ	-10.9484
▁ယထာရုစိ	-10.9484
ဝိရောဓ	-10.9485
သီတ	-10.9486
▁ပာမောဇ္ဇံ	-10.9487
အပရ	-10.9489
ာတုရ	-10.9489
သန္န	-10.9492
▁ပညတ္တာ	-10.9494
▁ဂစ္ဆန္တ	-10.9494
မယော	-10.9494
▁ဒေသိတာ	-10.9495
▁အာဒ	-10.9495
▁ရူပဓာတု	-10.9496
ိန္တိ	-10.9498
▁ပလ္လင္ကံ	-10.95
အဝိဇ္ဇာ	-10.9502
ာသန္န	-10.9503
▁အဓိဝစနံ	-10.9503
▁စာပိ၊	-10.9506
ဃန	-10.9506
▁နာည	-10.9506
▁ဝိဟေဌ	-10.9508
▁တီ	-10.951
▁ဣဒမသ္သ	-10.9511
▁ခုရ	-10.9512
▁လတာ	-10.9512
▁ပရိဠာဟ	-10.9513
ထိ	-10.9515
▁ဟိသ္သ	-10.9517
▁ဝပ	-10.9519
▁ဃာနာယတနဉ္စ	-10.9521
▁အရဏံ	-10.9521
▁အဗ္ယာကတဉ္စ	-10.9523
▁လောကဝိဒူ	-10.9525
▁အနုညာတာ	-10.9528
▁ပစ္စဝေက္ခိတ္ဝာ	-10.9529
ဝိဓာနံ	-10.9529
▁ကိစ္ဆ	-10.9531
ာဓိပ္ပာယော	-10.9533
ဒာနေ	-10.9534
▁ဗောဇ္ဈင္ဂေ	-10.9534
မိတ္တော	-10.9534
▁ဝိရာဂော	-10.9538
▁ကာမစ္ဆန္ဒော	-10.9538
သင္ဃာဒိသေသ	-10.9538
▁ပဝေဒ	-10.954
▁ဥပလဗ္ဘတီတိ	-10.9542
▁ယာပန	-10.9542
▁ပုရိသေ	-10.9543
ဝုဒ္ဓိ	-10.9547
▁ပဒာလ	-10.9548
▁ပောတ္ထက	-10.9549
▁သုတ္တန္တောတိ	-10.9549
▁သန္နိပတိတ္ဝာ	-10.9549
ဒိဝသတော	-10.955
ုပေက္ခာ	-10.9551
▁လောကောတိ	-10.9553
ဒုဗ္ဗလ	-10.9555
▁ပဒဘာဇနေ	-10.9555
▁မိတ္တာ	-10.9556
▁ပမာဒော	-10.9556
▁ဇာတံ။	-10.9557
▁ဝေဠုရိယ	-10.9557
သုန္ဒရ	-10.9558
ဓိကာရ	-10.9558
ဝိဓာ	-10.9558
▁နိဂဏ္ဌ	-10.956
▁အင္ဂာရ	-10.9562
တေယ္ယ	-10.9562
▁မတံ	-10.9564
▁ဗောဓိသတ္တံ	-10.9565
▁အဒ္ဒ	-10.9566
▁သုညတော	-10.9566
▁သမာဓိံ	-10.9566
▁၁၇၅	-10.9566
▁ဇာတိယော	-10.9567
▁ကာမာဝစရကုသလ	-10.9567
▁ဥက္ကံသ	-10.9567
▁နိပုဏ	-10.9567
▁သမ္ပယုတ္တာ။	-10.957
▁သုခုမံ	-10.9572
▁အဘိမုခ	-10.9573
ပတီ	-10.9574
▁ဝိက္က	-10.9574
▁ဥက္က	-10.9575
င္ဂမ	-10.9575
ဂ္ဂဟိတ	-10.9575
ရုစိ	-10.9575
▁အာရမ္မဏေသု	-10.9578
▁သမန္နာဂတတ္တာ	-10.9578
မဓု	-10.9579
▁ပဒတ္ထ	-10.9581
▁၁၇၈	-10.9581
▁ဗုဒ္ဓေန	-10.9581
▁မေဓာဝီ၊	-10.9581
▁အနုပာဒာယ	-10.9582
▁အဓိပ္ပေတာ။	-10.9582
▁ဧကောပိ	-10.9583
သမန္နာဂတော	-10.9585
▁ပန္ထ	-10.9586
▁ဌိတော။	-10.9588
▁ဒ္ဝာရေသု	-10.959
▁အနိယတ	-10.9591
ဧ	-10.9594
▁ပဋိပာဒ	-10.9594
အပ	-10.9595
▁ဟတ္ထေဟိ	-10.9597
ဒူသက	-10.9597
▁ဖလက	-10.96
▁ဓီ	-10.9602
▁နာမေန	-10.9602
▁နိရောဓဓမ္မ	-10.9602
ဝိဟာရံ	-10.9602
▁ဗဟုလ	-10.9603
ဂ္ဃနက	-10.9604
▁မနောဝိညာဏံ	-10.9604
▁အမ	-10.9605
▁သရာ	-10.9606
ိဒ္ဓိ	-10.9607
သီမာယ	-10.9608
ဝိသုဒ္ဓိ	-10.9608
▁ဝဒေတိ	-10.9608
▁အနိစ္စတာ	-10.961
▁ဓုတ	-10.9611
သံသဋ္ဌ	-10.9612
ဧကနဝုတိ	-10.9612
ဝိမာနံ	-10.9616
▁ပရိဝတ္တန	-10.962
▁ပစ္ဆိမာ	-10.9621
▁အကာ	-10.9622
ပ္ပဘဝ	-10.9624
▁ဝိညုတံ	-10.9624
▁ပရိစ္ဆိန္ဒိတ္ဝာ	-10.9624
ကာမာဝစရ	-10.9625
▁ဒဋ္ဌဗ္ဗာ	-10.9625
▁သုလဘ	-10.9626
▁ပောရာဏာ	-10.9628
▁ဥဂ္ဂဟေတ္ဝာ	-10.9628
▁ခုဒ္ဒ	-10.9629
ကောပ	-10.9629
▁ကာသိ	-10.9631
နိယာ	-10.9632
သဒ္ဓမ္မ	-10.9632
▁အသ္မာ	-10.9637
▁မတိ	-10.9637
ပရာယဏ	-10.9638
▁သီလသ္သ	-10.9641
▁နိဒ္ဒိသိတဗ္ဗ	-10.9643
▁ဥဒ္ဒိဋ္ဌ	-10.9643
▁ဧကံသေန	-10.9644
တ္ထရဏ	-10.9645
မိဓ	-10.9646
▁သောတာပတ္တိဖလံ	-10.9647
▁သာတံ	-10.9647
▁ဒုက္ခသစ္စ	-10.9649
ုက	-10.965
▁၁၆၈	-10.965
▁ဥပဂစ္ဆ	-10.965
▁အညမညသ္သ	-10.9652
▁၁၈၄	-10.9652
ခေတ္တ	-10.9654
▁အာရမ္မဏတော	-10.9654
ကာလေပိ	-10.9656
ဘူတာနံ	-10.9656
▁နိန္ဒ	-10.9656
▁သယမ္ပိ	-10.9657
သဒိသေ	-10.9657
▁ကာလင္ကတော	-10.9658
ိတ္ထီ	-10.966
▁အာယူဟန	-10.966
ဣစ္စာဒိ။	-10.9661
ဂတသ္သ	-10.9662
▁၁၈၁	-10.9662
▁စာတိ။	-10.9663
▁မစ္ဆရိယ	-10.9665
ိကန္တိ	-10.9665
ဘာဂော	-10.9665
▁အဘာဝော	-10.9665
ောဘာသ	-10.9665
ဝိနယော	-10.9667
▁သတ္တသ္သ	-10.9668
▁တဒေကဋ္ဌ	-10.9669
▁ဒိ	-10.967
▁ထာဝရ	-10.967
▁ပိဝိတ္ဝာ	-10.9671
▁ပဋိပဇ္ဇတိ	-10.9674
▁ကုသလမူလ	-10.9676
▁ပက္ခီ	-10.9679
ိံသူ	-10.9679
▁ဌ	-10.9681
▁ဥစ္စာရ	-10.9681
▁ဓမ္မသေနာပတိ	-10.9682
▁ဝိသာခ	-10.9685
ပုရိမ	-10.9685
ီကတ	-10.9686
▁သုဘဒ္ဒ	-10.9686
▁နိဓိ	-10.9687
▁ဝဓိတ္ဝာ	-10.9687
▁ဥဒ္ဒိသိတ္ဝာ	-10.9689
ဓိက	-10.9689
နိရ	-10.9692
▁ဝောဒာန	-10.9694
▁ယသ္သာတိ	-10.9695
▁အာတုရ	-10.9695
▁နိဗ္ဗိန္ဒ	-10.9695
▁ပဝတ္တန	-10.97
ီဓ	-10.97
စာရိက	-10.9701
▁ဘီတော	-10.9701
▁ဇာယ	-10.9702
▁ပဉ္စဝိဓ	-10.9703
▁ဗ္ရဟ္မလောက	-10.9703
▁သေနံ	-10.9703
▁အာသေဝန	-10.9704
▁ကင္ခတိ	-10.9705
ူဟိ	-10.9705
နာသ	-10.9705
▁သောဏ္ဍ	-10.9705
▁က္ရိယ	-10.9706
▁ဝေဝစနံ။	-10.9709
ဒာမ	-10.9709
သမ္ဗောဇ္ဈင္ဂံ	-10.9711
တာနိ	-10.9715
▁၁၆၃	-10.9716
▁အမ္ဗဋ္ဌ	-10.9716
သ္သာမိ	-10.9716
▁အတ္ထပဋိသမ္ဘိဒာ	-10.9717
▁ဂန္ထသမ္ပယုတ္တ	-10.9717
▁နန္ဒိ	-10.9717
▁ပာစီန	-10.9719
▁ဇန္တာဃရ	-10.9719
▁ဝိရာဂာယ	-10.9719
သဘာဝံ	-10.972
▁ဖုသေ	-10.9722
▁ဓမ	-10.9723
▁မုသာဝာဒာ	-10.9724
ဝီ	-10.9724
၁၃	-10.9724
▁ပာတုဘာဝော	-10.9728
▁စန္ဒိမာ	-10.9731
▁ဧကေကသ္မိံ	-10.9731
▁ဒုလ္လဘ	-10.9731
▁အာပတ္တီတိ	-10.9732
▁အာရညက	-10.9732
ကမ္မေန	-10.9734
▁ပိဒဟ	-10.9734
▁ဘဝာဘဝ	-10.9734
ိသ္သသီ	-10.9734
▁ပူဇိတော	-10.9735
▁ဂန္ဓဗ္ဗ	-10.9736
ပဗ္ဗ	-10.9736
▁သဗ္ဗာကာရေန	-10.9737
ဂဉ္ဆိ	-10.9738
▁ဧတ္ထေဝ	-10.9741
ဝတ္ထာ	-10.9743
က္ခိတ္တ	-10.9743
န္ဒိ	-10.9747
သေဝ	-10.9748
▁အာဓာရ	-10.9749
▁အကံသု	-10.9751
သံဟိတ	-10.9753
▁စိတ္တန္တိ	-10.9754
တ္ထေရေန	-10.9754
▁ကာမဝိတက္က	-10.9755
▁သောဠသဟိ	-10.9757
ဝိနောဒန	-10.9759
သံသန္ဒန	-10.9761
▁ဝာတာ	-10.9761
ိန္ဒ္ရိယာ	-10.9762
▁ဝိသဇ္ဇ	-10.9763
နကာလေ	-10.9763
▁ပာတောဝ	-10.9764
▁ပစ္စတ္ထိက	-10.9764
▁ဒုတိယသ္သ	-10.9765
▁သတိံ	-10.9765
▁ဥယ္ယာန	-10.9766
▁ဗ္ယာကရေယ္ယ	-10.9767
▁သောကပရိဒေဝဒုက္ခ	-10.977
▁သာခ	-10.977
▁အဂ္ဂသာဝကာ	-10.9773
▁သကာယ	-10.9774
▁အရဟတ္တေ	-10.9776
ကမ္မန္တ	-10.9778
▁ပဋိဂ္ဂဟဏ	-10.9779
▁ဓာ	-10.9779
နာမံ	-10.978
ဒာရက	-10.9783
▁ဇီဝတိ	-10.9785
▁ပိဏ္ဍပာတိက	-10.9786
လသ	-10.9786
▁ဝသန	-10.9786
▁ဉာတဗ္ဗ	-10.9788
ရုဠ္ဟ	-10.9794
▁နိယ္ယာနိကံ	-10.9796
▁တ္ဝမ္ပိ	-10.9797
ယန္တီတိ	-10.9798
ပော	-10.9798
▁ယောပိ	-10.9799
▁ပဋ္ဌာန	-10.9799
တတိယ	-10.9799
▁ပဂ္ဂဏ္ဟာတိ	-10.98
ကရဏံ။	-10.9803
နာဠိ	-10.9803
ကရဏဝသေန	-10.9804
▁ဧတ္တကေန	-10.9804
▁ဒုဋ္ဌုလ္လ	-10.9807
▁အကုသလေဟိ	-10.9808
ယိံသု။	-10.9809
ပာတိမောက္ခ	-10.9811
ပဏီတ	-10.9811
ပာကာရ	-10.9812
▁ဘဝန္တံ	-10.9812
▁သင္ဃဘေဒ	-10.9815
ပုဗ္ဗက	-10.9815
ယတေ	-10.9816
▁ပရိစာရ	-10.9816
▁အရူပံ	-10.9818
▁တုဋ္ဌော	-10.9819
▁န္ဟာယ	-10.982
▁တုဏ္ဟသ္သ	-10.982
▁အာဝာသ	-10.9822
သန္နိဘ	-10.9822
▁မဟာပုရိသော	-10.9822
ုဒ္ဓာရ	-10.9825
▁ပဋိပတ္တိယာ	-10.9826
▁သောတဓာတုယာ	-10.9826
▁၁၈၀	-10.9826
ာဒိန္နအနုပာဒာနိယ	-10.9826
▁သရာဂ	-10.9828
▁အကုသလေ	-10.9828
▁အဋ္ဌန္နံ	-10.9828
သိလာ	-10.983
▁ဥသ္သန္န	-10.9831
▁သန္တာန	-10.9832
▁ဩဋ္ဌ	-10.9832
▁ဂန္ထော	-10.9833
▁ပာရိပူရိယာ	-10.9833
▁ဒုက္ခသ္သန္တ	-10.9834
▁ဆာဒေတိ	-10.9834
▁ဂာထာ။	-10.9836
▁ဒတ္ဝာန	-10.9836
▁ဝတ္တန္တိ	-10.9837
▁ပဓာနံ	-10.9837
▁ယောနံ	-10.9838
▁အဓိဋ္ဌ	-10.984
▁ဘိသ	-10.984
▁နိပ္ဖာဒ	-10.9841
ကထန	-10.9842
▁တမော	-10.9845
▁နာနတ္တံ	-10.9845
▁ကလလ	-10.9846
▁ဝိသယော	-10.9848
▁ဒာနေ	-10.985
▁သိရီ	-10.9851
▁ထေရော။	-10.9853
▁ယာစိတ္ဝာ	-10.9854
▁ဟတ္ထပာသေ	-10.9855
▁ကမ္မနိ	-10.9857
▁ဒိဗ္ဗံ	-10.9868
▁ဒေဝတာယ	-10.9868
▁ဘာဂ	-10.9869
▁ဂဟပတယော	-10.9871
▁နုပလဗ္ဘတိ	-10.9872
ဓော	-10.9874
▁ကနိဋ္ဌ	-10.9875
▁ဝေဒနာက္ခန္ဓ	-10.9878
▁အာယတ	-10.9878
▁အာစယဂာမီ	-10.988
▁ဇင္ဃ	-10.9881
▁သိက္ခံ	-10.9881
ာပေတီတိ	-10.9883
ဒာသိ	-10.9883
ဆတ္တ	-10.9885
▁ပာရိဝာသိက	-10.9885
ေသိံ	-10.9886
▁အာသီဝိသ	-10.9887
ုဏ	-10.9887
ဋ္ဌာနေသု	-10.9888
▁ပဋိသဉ္စိက္ခတိ	-10.9889
▁ယံနူနာဟ	-10.9889
▁ဧတမ္ပိ	-10.9892
▁ရောပ	-10.9893
ပ္ပကရဏ	-10.9893
▁မနာယတနဉ္စ	-10.9895
▁ပဌမမဂ္ဂ	-10.9897
▁အပသ္သန္တော	-10.9898
▁ပောရာဏက	-10.9899
ပက	-10.99
▁ဖရဏ	-10.99
ပဋိဘာန	-10.9901
▁ဉာတီနံ	-10.9901
ိသ္သန္တီတိ	-10.9901
▁အဂာရ	-10.9901
သမ္ပ	-10.9902
ပရမံ	-10.9903
▁ပတ္ထနံ	-10.9905
▁ဂန္ဓာ	-10.9907
▁အနုသ္သရတိ	-10.9908
▁အညာသိ	-10.9908
သဒ္ဒာနံ	-10.991
▁သန္နိ	-10.991
▁တုယ္ဟ	-10.9911
▁နာလံ	-10.9913
▁အာယတနံ	-10.9914
ယာစ	-10.9914
ဗီဇံ	-10.9914
▁ဟနတိ	-10.9915
▁ဥယ္ယာနံ	-10.9916
▁သီတလ	-10.9917
▁သဗ္ဗဒုက္ခ	-10.9918
▁အာဂတတ္တာ	-10.9919
▁ယထယိဒံ	-10.9922
▁သံဝဏ္ဏနာ	-10.9923
ဂုမ္ဗ	-10.9923
▁ကိလေသကာမ	-10.9923
ာယုက	-10.9924
▁သင္ခ္ယံ	-10.9925
▁အဘူတ	-10.9926
▁နိသေဓ	-10.9927
မတ္တိကာ	-10.9929
စိတ္တုပ္ပာဒ	-10.9929
▁ဒောမနသ္သသဟဂတ	-10.993
ာဝသာနေ	-10.9931
ဘာဂေန	-10.9932
ုမ	-10.9933
▁သ္နေဟ	-10.9933
▁၁၇၇	-10.9936
▁ခယံ	-10.9937
ဣမာယ	-10.9937
ာနမေဝ	-10.9937
ပေတ	-10.9939
▁အဒိဋ္ဌ	-10.994
▁နရူပာဝစရ	-10.9941
▁ဘုဉ္ဇိတုံ	-10.9941
▁ကာရေသိ	-10.9942
▁၁၈၃	-10.9943
သမ္ဘဝော	-10.9944
▁သမုစ္ဆိန္ဒ	-10.9947
▁အပေတ	-10.9948
▁အစ္ဆရိယံ	-10.9948
တ္ထောတိ	-10.9948
▁ဗာဟိရာ	-10.9949
ပ္ပဝတ္တိယာ	-10.995
▁ဇဋိလ	-10.9951
▁ဝိဟေသ	-10.9954
▁သမာဟိတော	-10.9954
ဒီဟိ	-10.9958
▁ဝိဘူတ	-10.9958
ဣစ္စေတေ	-10.9958
▁မရိယာဒ	-10.9962
▁သပတ္တ	-10.9964
▁သာဝတ္ထိ	-10.9965
▁ဇနပဒေ	-10.9968
▁ဆဋ္ဌံ	-10.9969
▁သုစရိတံ	-10.9972
▁ဝေသာလိယံ	-10.9973
▁မာတုကုစ္ဆိ	-10.9976
▁ထေရီ	-10.9977
▁သူလ	-10.9979
▁ဥပပဇ္ဇတိ	-10.998
▁သမာဒာန	-10.998
မောဒ	-10.9981
▁ဝိရမ	-10.9981
ာနုရူပ	-10.9982
▁ဘဝန္တော	-10.9982
▁ဥပပန္နော	-10.9982
နာမော	-10.9984
▁စရမာနော	-10.9985
▁ကေသေ	-10.9987
▁ပဒံ။	-10.9988
ပ္ဖလ	-10.9988
နမေဝ	-10.9989
▁၁၈၂	-10.9989
▁ဥပာဟနာ	-10.9989
ဝိဃာတ	-10.9989
▁နာနုသေတိ။	-10.999
▁မနောဒ္ဝာရေ	-10.999
ပရိပုဏ္ဏ	-10.9993
▁ဟန္တ္ဝာ	-10.9995
▁ပညာ။	-10.9995
▁အကုသလဉ္စ	-10.9995
▁အဒိန္နာဒာနာ	-10.9995
▁ဥပက္ကိလေသ	-10.9995
▁သပ္ပစ္စယ	-10.9996
စ္ဆိ	-10.9999
▁သန္တာပ	-10.9999
စ္ဆန္ဒ	-11
သု၊	-11.0001
▁ရူပန္တိ	-11.0001
▁ဝိညူနံ	-11.0003
▁ဒေဝဒတ္တ	-11.0004
▁ဧတာယ	-11.0004
▁အသ္သမံ	-11.0004
▁လဘတီတိ	-11.0005
▁နဝမ	-11.0006
▁ပရာမသတိ	-11.0007
▁အင္ဂုလိ	-11.0007
▁ဗောဇ္ဈင္ဂာ။	-11.0009
▁သတ္တမံ	-11.0013
▁ဆဝ	-11.0013
▁ဟေတုနာ	-11.0014
▁ဟောန္တ	-11.0014
ဗိန္ဒု	-11.0016
▁ဖုဋ္ဌော	-11.0017
▁ဣဏ	-11.0019
▁အနုပ္ပာဒ	-11.0019
▁ဂန္တဗ္ဗ	-11.002
▁သီလက္ခန္ဓ	-11.002
▁ဓရ	-11.0021
ဟိ၊	-11.0021
သမထ	-11.0022
ပဉ္စကံ	-11.0022
▁ဒ္ဝာသဋ္ဌိ	-11.0025
▁အာရုယ္ဟ	-11.0025
▁ခန္ဓေသု	-11.0027
▁အာမသ	-11.0029
က္လေသ	-11.0031
▁ဂဟေတဗ္ဗံ	-11.0032
▁ဗ္ရဟ္မေ	-11.0034
▁အဋ္ဌမံ	-11.0036
▁သမ္မာအာဇီဝော	-11.0038
သမုဋ္ဌိတ	-11.004
▁နိက္ခမန္တ	-11.004
ဓမ္မေဟိ	-11.0041
▁နဟေတုဉ္စ	-11.0041
▁နိရောဓာယ	-11.0042
▁သတ္တဓာ	-11.0042
▁ဂဟပတိပုတ္တ	-11.0043
▁ထိနမိဒ္ဓံ	-11.0043
▁ရမ္မ	-11.0045
▁ဧကက	-11.0046
▁သညာဝေဒယိတနိရောဓ	-11.0046
▁ပဇာနန္တိ	-11.0047
▁ပရိဂ္ဂဏ္ဟ	-11.0048
▁ဝတ္တဗ္ဗတ္တာ	-11.0048
ူန	-11.005
ေဝာတိ	-11.0053
▁စေတသိကော	-11.0055
▁ဂမ္ဘီရော	-11.0055
▁ဂဇ္ဇ	-11.0057
▁ဥဒ္ဒေသံ	-11.0058
န္တရာ	-11.0059
▁စုတသ္သ	-11.0059
▁အစ္ဆိန္န	-11.006
ယောဇနာ	-11.0061
န္	-11.0062
▁ပဝတ္တန္တိ	-11.0063
ရိတ	-11.0065
ပေတံ	-11.0066
ဝိရဟိတော	-11.0067
▁အပ္ပက	-11.0067
▁ဝန္တ	-11.0067
ပဏိဟိတ	-11.0068
▁ပဉ္စဝီသတိ	-11.0068
▁လောကနာယကော	-11.007
▁ယထာရဟံ။	-11.0071
ဝောဟာရော	-11.0073
▁ဒိဋ္ဌာ	-11.0073
မာနသ	-11.0073
▁ဒာရကာ	-11.0074
ရူပသ္သ	-11.0074
ပယ	-11.0074
ပလ	-11.0078
▁ဟိရိ	-11.0078
▁တိဝိဓေန	-11.0079
ူပသမ	-11.0079
▁အာမန္တေတ္ဝာ	-11.0079
▁အကတံ	-11.008
▁ဂဏ္ဟိတ္ဝာ	-11.0081
▁ဒ္ဝိန္နမ္ပိ	-11.0081
▁အသဉ္စိစ္စ	-11.0082
▁ပဗ္ဗဇိံ	-11.0085
▁တတ္ထာပိ	-11.0085
ဗ္ယာကရဏ	-11.0086
ဘာဝာယ	-11.0087
▁တိဏ္ဏော	-11.0087
▁အစ္ဆိန္ဒ	-11.009
▁ယာဒိသော	-11.0094
▁ကရောန္တေန	-11.0097
▁ဝဉ္စ	-11.0097
▁ဗဒ္ဓော	-11.0103
▁အရူပာဝစရေ	-11.0103
ဒေ	-11.0104
င္ဂုလိ	-11.0105
▁အဝသ္သ	-11.0107
ဥပာဒာန	-11.0109
▁သန္နိဓိ	-11.0113
ရံသိ	-11.0114
ုသ္သဒ	-11.0115
ပရိကမ္မ	-11.0115
▁အသုဒ္ဓ	-11.0117
သသ္သတ	-11.0117
▁ရုစိရ	-11.0119
▁သကလသရီရ	-11.0121
▁သဗ္ဗတ္ထာတိ	-11.0123
▁ဖသ္သံ	-11.0123
▁ဝတ္ထာနိ	-11.0123
▁အညေသု	-11.0123
▁သယမ္ဘု	-11.0128
▁ပုဗ္ဗစရိတာပဒာန	-11.0129
▁ကုဉ္ဇရ	-11.0129
▁ပူဇံ	-11.0129
▁သီလသမ္ပန္နော	-11.013
ဝု	-11.013
▁ကောသ	-11.0132
▁အာကင္ခမာနော	-11.0132
▁ပာတုဘူတ	-11.0132
▁ဥပေက္ခာသဟဂတာ	-11.0133
ဝတ္ထူသု	-11.0133
▁အဝသ္သုတ	-11.0134
ဟေတုကံ	-11.0134
▁နကာမာဝစရ	-11.0135
▁ဝာယာမ	-11.0138
▁အဗ္ယာပဇ္ဇ	-11.0139
▁မနာပံ	-11.014
▁နိဒ္ဒိဋ္ဌာ	-11.0141
▁အသ္သောသိ	-11.0143
▁အာနာပာနသ္သတိ	-11.0144
▁ဉေယ္ယ	-11.0144
▁ပဋိသင္ခာ	-11.0145
▁ဆာယာ	-11.0146
စ္ဆိန္ဒ	-11.0146
▁ပရိတသ္သ	-11.0148
▁ပာပုဏန္တိ	-11.0148
▁နိဝာသေ	-11.0149
ိသ္သထ	-11.0149
▁ဂိဟီနံ	-11.015
▁ပုဋ္ဌာ	-11.0152
▁ဝိနိစ္ဆယံ	-11.0152
▁ပောက္ခရ	-11.0154
▁ယထေဝ	-11.0155
▁ဒာသိ	-11.0156
ာဒီတိ	-11.0156
▁သောတိန္ဒ္ရိယံ	-11.016
▁ဝာပိ၊	-11.0161
▁သဗ္ဗညုတံ	-11.0161
▁သုဒ္ဓာဝာသာနံ	-11.0161
▁ဥပသံဟရ	-11.0164
▁သက္ကာရံ	-11.0165
▁ပဉ္စဝိညာဏ	-11.0168
ဝာဒေ	-11.0168
ဇနန	-11.0169
ပ္ပသင္ဂ	-11.0169
▁ပဋိလဘိတ္ဝာ	-11.017
▁ဒဇ္ဇ	-11.0171
မဒ္ဒန	-11.0171
ဒာနိ	-11.0177
▁သေသေသုပိ။	-11.0177
▁ပဋိသန္ဓိယံ	-11.0177
မ္ပီ	-11.0177
▁ဝိဝိစ္စ	-11.0178
▁ဘဝိတဗ္ဗံ။	-11.0179
▁ဇီဝိတံ။	-11.0184
ပထဝီ	-11.0185
▁ဟီနာ	-11.0186
▁နိပန္နော	-11.0187
ယိတ္ဝာန	-11.0187
▁၁၉၀	-11.0187
▁ဟေသ္သတိ	-11.0188
▁ပဂ္ဃရ	-11.0189
ဒသ္သိ	-11.019
ရဟိတော	-11.0192
▁ဣဒ္ဓိပာဒာ	-11.0192
▁၁၇၁	-11.0193
ဟိံသ	-11.0193
▁ဝိတ္ထာရိတ	-11.0193
▁ပလိဗောဓ	-11.0193
ဒုက္ကဋံ	-11.0196
▁ဝေဒိယ	-11.02
▁ဧတ္တက	-11.0201
▁ပုဗ္ဗကမ္မံ	-11.0201
▁သကတ္ထေ	-11.0202
▁လောမ	-11.0202
▁ဝတ္ဝာန	-11.0203
▁ပာဏာ	-11.0203
လက္ခဏေ	-11.0204
▁ဆဍ္ဍိတ	-11.0204
▁ဣတ္တရ	-11.0205
ပဏ	-11.0205
▁ဗ္ယတ္တ	-11.0206
▁ယုဇ္ဇ	-11.0207
▁ဒုသ္သီလ္ယ	-11.0209
▁ပာပေတ္ဝာ	-11.021
▁သဉ္စေတနိက	-11.0211
▁ဂဟိတေ	-11.0217
အဂ္ဂိ	-11.0218
လ္ယ	-11.022
▁ပာပိကာ	-11.0223
▁အဘိဏ္ဟံ	-11.0224
▁ဂန္တဗ္ဗံ။	-11.0228
တ္ထာယ။	-11.0228
▁လဘေယ္ယ	-11.0232
▁အဇ္ဈဘာသိ	-11.0234
▁မဟာသတ္တသ္သ	-11.0234
▁ဣသယော	-11.0234
▁၁၈၅	-11.0236
ပရိသံ	-11.0236
သမ္ပဇညံ	-11.0237
▁အာနုဘာဝေန	-11.0239
▁ဘဝိသ္သန္တီ	-11.024
▁တီသုပိ	-11.024
▁မတာ	-11.024
ရတ	-11.0246
▁အဝီစိ	-11.0246
▁ပသ္သေ	-11.0246
ဂာမိနိယာ	-11.025
ဝိဘင္ဂော	-11.0254
ပ္ဖ	-11.0255
▁အဓိပတိပစ္စယာ	-11.0256
ဂဝ	-11.0257
▁ဗုဒ္ဓဝစနံ	-11.0258
သာဓက	-11.0258
▁ဣမမေဝ	-11.0259
▁ဗဒ္ဓာ	-11.0261
ကဏ္ဟ	-11.0263
▁သံဝ	-11.0263
▁အညာယ	-11.0264
ဃရံ	-11.0264
▁သင္ဂာယ	-11.0264
ပဋိက္ခေပ	-11.0265
▁ပာယာသိ	-11.0265
▁ကတော။	-11.0266
ာသဝ	-11.0267
▁သမ္ဘဝန္တိ	-11.0268
▁ဗ္ရူဟ	-11.0269
▁ဓမ္မဝိစယ	-11.027
▁ဒေဝိယာ	-11.027
▁ဂောစရော	-11.0273
ခီဏာသဝ	-11.0274
▁နိမိတ္တေ	-11.0275
▁အာဂတော။	-11.0275
ဝစ	-11.0277
ဋ္ဌကထာယံ	-11.0277
တလံ	-11.0279
▁လာဘသက္ကာရ	-11.0279
▁အာဝဟ	-11.0281
▁လိစ္ဆဝိ	-11.0287
ရူပူပပတ္တိယာ	-11.0287
▁အန္တရန္တရာ	-11.0287
▁နောအဝိဂတ	-11.0287
သမုဒာယ	-11.0288
▁အန္ဓကာရ	-11.0288
▁ဗဟူပကာရ	-11.0288
▁ဝေဒိတဗ္ဗောတိ	-11.029
ဝိဟာရီ	-11.029
ာဒိဘေဒ	-11.029
ေသ္သာမီတိ	-11.0294
ပရိစ္ဆိန္န	-11.0294
▁အဘိက္ကန္တ	-11.0297
▁ပဋိပ္ပသ္သဒ္ဓိ	-11.0299
ာဇီဝ	-11.03
▁ဒေတီတိ	-11.0301
▁ဝိပသ္သနာဉာဏ	-11.0301
▁ဂတံ	-11.0302
▁လဘာမိ	-11.0302
▁သမုဋ္ဌာနေန	-11.0304
▁ပတ္တစီဝရံ	-11.0305
▁သစ္ဆိကိရိယာယ	-11.0305
▁ဣဟ	-11.0305
▁ကုလေသု	-11.0306
ပရိဒီပန	-11.0307
▁စတုရင္ဂ	-11.031
စက္ခူ	-11.0312
▁ကပ္ပတီ	-11.0314
▁ဒုက္ခော	-11.0316
▁နိဒ္ဒေသေ	-11.0316
နီယေ	-11.0318
▁သုခိတော	-11.0319
ဝေလ	-11.032
▁နောကိလေသ	-11.0322
▁ဝဂ္ဂာ	-11.0322
▁ယထာက္ကမံ။	-11.0322
▁သမာဓိသ္သ	-11.0322
▁အနေကေ	-11.0322
▁ပုဋ္ဌ	-11.0323
▁ဘဝရာဂာနုသယေန	-11.0326
▁ဝစော	-11.0326
ကောဓ	-11.0328
ဒီပန	-11.033
▁သဏ္ဌာန	-11.0331
▁မဟာကသ္သပ	-11.0331
▁နာထ	-11.0332
ာဓိပ္ပာယေန	-11.0333
▁သုခဉ္စ	-11.0334
▁ဥပ္ပန္နာနံ	-11.0335
ဝိပာကာ	-11.0336
မာတု	-11.0338
▁ပောဋ္ဌပာဒ	-11.034
▁ဗဇ္ဈ	-11.0341
▁ပဟီယန္တိ	-11.0342
▁ဘိက္ခာ	-11.0342
▁ယုဉ္ဇ	-11.0344
▁အနုတ္တရော	-11.0344
ာဘိသမယ	-11.0347
▁ပရိဂ္ဂဟေတ္ဝာ	-11.0348
ာဝသေသ	-11.0348
ယုဂ	-11.0348
▁စေတိယေ	-11.0349
▁ဖုသတိ	-11.0349
နိသ္သယပစ္စယေန	-11.0353
▁ပသ္သာဝ	-11.0353
▁သုဏောဟိ	-11.0353
▁အာရောပိတ	-11.0354
အဟ	-11.0354
ယိံ	-11.0355
▁ဘင္ဂာ	-11.0357
▁ဥတ္တရာသင္ဂံ	-11.036
▁အာရောပ	-11.0362
▁အာဒိနာ	-11.0363
▁အဟေတုကာ	-11.0363
▁သမ္မတိ	-11.0364
သူရိယ	-11.0365
ဝိရုဒ္ဓ	-11.0367
▁နောဂန္ထ	-11.0368
▁မဇ္ဈိမော	-11.0371
▁အာပတ္တာဓိကရဏံ	-11.0373
▁ရောဂော	-11.0373
မာနာယ	-11.0374
▁ဝိနိ	-11.0374
ကမ္ပ	-11.0374
▁မဟေသိနာ	-11.0376
နေက	-11.0377
▁စေတနာယ	-11.0378
▁အဂစ္ဆ	-11.0379
ဒသ္သာဝီ	-11.0379
▁လိခ	-11.0381
▁ဂရုဘဏ္ဍ	-11.0381
ဓည	-11.0381
သမ္ပဒာယ	-11.0382
ဘာဏဝာရ	-11.0385
ိတဗ္ဗာ။	-11.0386
▁ပာပံ၊	-11.0387
▁မုဟုတ္တ	-11.0388
▁အာဝသ	-11.039
ပရာယ	-11.039
▁နာနာက္ခဏိကာ	-11.039
▁သေဝတော	-11.0391
▁သင္ကေတ	-11.0391
▁ပရိစ္စာဂ	-11.0391
▁ဟေတုပစ္စယ	-11.0392
တုမ္ဟေ	-11.0393
တ္ထရ	-11.0393
▁မုခတော	-11.0393
▁အထေကဒိဝသံ	-11.0393
လာဗု	-11.0393
ာယေဝ	-11.0393
▁ဗ္ရဟ္မုနော	-11.0394
▁ဝာက္ယံ	-11.0395
▁စက္ခုမာ။	-11.0395
▁ကေဝဋ္ဋ	-11.0396
▁သင္ခေပတ္ထော	-11.0397
▁ပရေသု	-11.04
မစ္စ	-11.0402
စေတ	-11.0403
▁၁၉၆	-11.0404
▁သတ္ထုနော။	-11.0405
ကရဏတော	-11.0406
▁ပသ္သိ	-11.0407
သုည	-11.0408
▁အာပဇ္ဇ	-11.0408
▁ဏော။	-11.0408
▁၁၈၆	-11.0408
သဏ္ဌိတ	-11.0408
ာဒိနော	-11.041
▁မာတုဂာမ	-11.0411
ဝီရိယံ	-11.0411
▁တတ္တက	-11.0412
▁အနန္တရပစ္စယ	-11.0419
▁ဥဒကသ္သ	-11.0419
မဏ္ဍိတ	-11.042
▁ပရိက္ခိတ္တ	-11.0424
▁အပ္ပမာဏော	-11.0425
▁ဇီရ	-11.0426
▁တီရံ	-11.0428
▁သုဒ္ဓိက	-11.0428
▁ပရိဝဇ္ဇ	-11.0429
ဒဟ	-11.0431
▁ကတသ္သ	-11.0433
▁ဂိလ	-11.0433
သ္မိံ။	-11.0434
▁ဥဘယံ	-11.0434
▁၁၉၁	-11.0434
▁ဗဟူဟိ	-11.0434
▁ဒာရကေ	-11.0435
▁ဗာလသ္သ	-11.0436
ကူလ	-11.0436
▁ဝုတ္တေသု	-11.0441
▁သိပ္ပံ	-11.0441
▁သုညတံ	-11.0442
▁သာရိပုတ္တသ္သ	-11.0447
▁ဧကက္ခဏေ	-11.0448
အညံ	-11.0449
▁ဟေတုဒုက	-11.045
ုပ္ပဇ္ဇ	-11.0451
▁လောကုတ္တရော	-11.0453
ဂလ	-11.0454
▁ပိပာသ	-11.0455
▁ပင္က	-11.0456
▁ပဋိပန္န	-11.0458
▁ပတ္တသ္သ	-11.046
▁ဝေဒေတိ	-11.0461
သလာက	-11.0461
▁ဘေရိ	-11.0461
▁ရာဇ၊	-11.0462
သံဝရော	-11.0463
ပရိယာယေန	-11.0465
▁ကုသလေ	-11.0467
▁သေနာယ	-11.0467
▁သန္တပ္ပ	-11.047
▁အနပေက္ခ	-11.0471
ဒရထ	-11.0473
▁နိဗ္ဗေဓ	-11.0475
▁ဥပေက္ခာသဟဂတ	-11.0476
စေတသိက	-11.0477
▁ပဉ္စမော။	-11.0478
▁ဌပိတော	-11.0479
▁ဝတ္တတီတိ	-11.048
▁ပက္ခိ	-11.048
▁ဥပတ္ထမ္ဘ	-11.0482
▁ရုစ္စတိ	-11.0482
▁ဗ္ယဉ္ဇနံ	-11.0483
▁ပကရဏ	-11.0483
▁သံဝစ္ဆရ	-11.0484
▁၁၈၉	-11.0484
▁ဟောထ	-11.0484
ဝစနီယ	-11.0485
▁ရူပာဒီသု	-11.0487
▁မဂ္ဂက္ခဏေ	-11.0488
မ္ဟာ၊	-11.0488
▁ဧတာဒိသ	-11.0488
▁ပယုတ္တ	-11.0489
တ္ထိကော	-11.049
▁တပ္	-11.0491
▁ပုဗ္ဗေနိဝာသံ	-11.0497
▁အာရောစေသုံ	-11.0498
စေတောဝိမုတ္တိ	-11.0499
သကုဏ	-11.0499
▁ကယိရာ	-11.0501
▁သာမိကော	-11.0501
▁ဇိနသာသန	-11.0502
▁ပုညက္ခေတ္တံ	-11.0502
▁အဓိဋ္ဌာနံ	-11.0502
▁မယမ္ပိ	-11.0503
▁အက္ခီနိ	-11.0504
▁ပုရာ	-11.0506
▁တတ္ရိဒံ	-11.0508
▁ကတပုည	-11.051
မတံ	-11.051
▁ပက္ကောသ	-11.051
▁၂၀၇	-11.0511
▁မဟာနာဂ	-11.0512
▁သမုပ္ပန္န	-11.0515
▁ဒသ္သိတာ။	-11.0516
▁ပရာမဋ္ဌ	-11.0518
ခီဏာ	-11.0521
ိတ္ထ။	-11.0524
ယာနိ	-11.0526
▁သဝိတက္ကံ	-11.0527
▁ပတိဋ္ဌ	-11.0529
န္ဒ္ရိယ	-11.0529
ေဝံ	-11.0529
▁သဉ္ဇာန	-11.053
▁အာယတနာနိ	-11.0531
▁ဉေယ္ယံ	-11.0532
▁အာလပန	-11.0533
▁ကာယိကသ္သ	-11.0534
▁ပရိဟီန	-11.0535
အနိစ္စံ	-11.0536
ာစ	-11.0537
▁ကာယာနုပသ္သနာ	-11.0538
▁သံဝတ္တန္တိ။	-11.0538
▁အပ္ပစ္စယ	-11.054
▁ပစ္စတ္တံ	-11.0541
ယမာန	-11.0541
ဓိဋ္ဌာန	-11.0541
ာဒိက	-11.0543
ိဏ	-11.0543
▁ဘဒ္ဒိယ	-11.0543
▁ဥပပဇ္ဇန္တီ	-11.0544
▁ကရောတော	-11.0544
▁နိဒ္ဒာယ	-11.0544
အတ္တာ	-11.0545
▁ပဗ္ဗတံ	-11.0545
▁ဝိသ္သဇ္ဇိတ	-11.0546
▁စေတနာ။	-11.0547
▁နိဗ္ဗာနန္တိ	-11.0547
ပလ္လင္က	-11.0551
သမုဒယံ	-11.0551
▁ဘု	-11.0552
ေယ္ယုန္တိ	-11.0554
▁တေနေတံ	-11.0554
▁ပဒဋ္ဌာနံ။	-11.0555
▁နာနုသေန္တိ	-11.0555
▁ဝိနိဓာယ	-11.0555
▁အဒသ္သနေ	-11.0556
▁အနေကပရိယာယေန	-11.0556
▁ယတ	-11.0557
▁နအရဏ	-11.0557
▁အသမာဟိတ	-11.0558
ဘိက္ခူနံ	-11.0558
▁အဋ္ဌာန	-11.0561
▁သုခန္တိ	-11.0562
▁ဝတ္တဗ္ဗော။	-11.0562
ောပမာ	-11.0563
▁ဘဝင္ဂံ	-11.0563
▁အဘိသမ္ဗုဒ္ဓော	-11.0564
▁ဝာယောဓာတု	-11.0566
မာဒာယ	-11.0567
▁ပစ္စက္ခတော	-11.0568
▁မိစ္ဆတ္တနိယတ	-11.0569
▁ဉာ	-11.057
▁ဝိပ္ပဋိသာရ	-11.0571
▁တတ္တ	-11.0571
▁အာပဇ္ဇေယ္ယ	-11.0574
▁သင္ခာရာ။	-11.0574
မာနသော	-11.0576
ယန္တ	-11.0577
သဟသ္သေဟိ	-11.0578
▁ကုသလေန	-11.0578
▁တိခိဏ	-11.0581
▁ဣစ္ဆိတဗ္ဗ	-11.0581
▁အမနာပ	-11.0583
▁ပနေသာ	-11.0583
ဈ	-11.0584
▁တုသိတ	-11.0585
မာနောတိ	-11.0586
▁ဂဟဏေ	-11.0586
ဋ္ဌပန	-11.0587
▁ကာရကော	-11.0587
▁ဒိဗ္ဗာယ	-11.0588
▁ဝာဠ	-11.0588
▁ရာဇိနော	-11.0589
▁ပရိပက္က	-11.059
အလံ	-11.0591
▁ကထိတော။	-11.0591
▁သဗ္ဗညူ	-11.0593
▁ကထယ	-11.0595
ိစ္စ	-11.0595
▁ဝိသ္သဇ္ဇနံ	-11.0596
▁ယောဗ္ဗန	-11.0597
▁ကုသီတ	-11.0597
▁ပဋိက္ခေပ	-11.0597
▁အသုရာ	-11.0597
▁ရတ္တော	-11.0599
▁အစိရ	-11.0603
ပိယ	-11.0605
ယည	-11.0606
▁ဒ္ဝန္ဒ	-11.0607
ာပိ၊	-11.0608
တသ္မာတိဟ	-11.0608
▁မောဃမည	-11.061
▁ဝိဝဋ္ဋူပနိသ္သယ	-11.061
▁ဝုတ္တသ္သ	-11.0611
▁အနုသေတီတိ	-11.0611
▁ဂိဇ္ဈ	-11.0611
▁အာဂတာ။	-11.0612
ိတာနံ	-11.0612
▁အယ္ယာ	-11.0614
ပတ္တိယာ	-11.0615
▁အဓိမုတ္တ	-11.0616
▁သမ္ဘူတ	-11.0616
▁ရဉ္ဇ	-11.0617
▁ကာရိယ	-11.0619
▁သမ္မာကမ္မန္တော	-11.0619
ဝိဝဋ္ဋ	-11.0619
ာစရိယော	-11.0623
က္ကမ္မ	-11.0624
ဟိတ္ဝာ	-11.0624
▁သိက္ခာပဒေသု	-11.0625
ဋိ	-11.0625
▁၁၉၅	-11.0626
▁ပူဇေတ္ဝာ	-11.0626
ိတေန	-11.0627
▁အက္ခာဟိ	-11.0627
▁ဒဒာမိ	-11.0629
▁လဗ္ဘန္တိ။	-11.0629
▁အာဒိမ္ဟိ	-11.0631
သတ္တာဟ	-11.0632
▁ဘိက္ခုသင္ဃေ	-11.0636
▁ဟိတံ	-11.0637
ဘာဂံ	-11.0637
▁လဗ္ဘ	-11.0638
▁မုနိနော	-11.0639
ဘာဝေနေဝ	-11.064
▁တိဏ္ဏ	-11.0641
▁ပစ္စယေသု	-11.0642
▁နိဗ္ဗာနံ။	-11.0643
▁၁၈၇	-11.0644
လေခ	-11.0644
▁နဒိ	-11.0645
▁အာနုဘာဝ	-11.0646
▁ဝစီဘေဒ	-11.0647
▁ဝိဓာ	-11.0647
သုညတ	-11.0649
▁ဂစ္ဆန္တီ	-11.065
ုပာယ	-11.065
▁ပဇာနနာ	-11.0652
ီတိ။	-11.0653
▁ဒိန္နာ	-11.0653
▁သမနုပသ္သ	-11.0654
သင္ဃသ္သ	-11.0654
▁ခယော	-11.0654
▁သရသ	-11.0655
▁ပီဏ	-11.0656
တဗ္ဗာ	-11.0658
▁ပရိက္ခယာ	-11.0659
ဝိန္ဒ	-11.066
▁ဒဒာတိ	-11.066
▁၁၉၃	-11.0662
▁စတုရ	-11.0663
ဝိရ	-11.0664
ေတဗ္ဗာ။	-11.0665
▁ဝေဌ	-11.0666
▁ဇဂ္ဂ	-11.0666
▁ဒုဗ္ဗစ	-11.0666
▁ဒိန္နေ	-11.0667
အဂ္ဂ	-11.0669
▁ဥပပဇ္ဇန္တသ္သ	-11.067
▁ဧတ္တကာ	-11.0671
▁လဘတေ	-11.0671
သာသနံ	-11.0673
▁ဒသ္သေသိ။	-11.0677
▁မနာပော	-11.0677
▁ကာတဗ္ဗန္တိ	-11.0677
▁သမေ	-11.0678
▁ယသံ	-11.0679
▁ဟီနော	-11.068
▁တုဏ္ဟီဘူတ	-11.0681
▁ဝဋ္ဋံ	-11.0681
▁ဝုစ္စမာန	-11.0681
▁ဟိရောတ္တပ္ပ	-11.0683
▁ဘဝတဏ္ဟာ	-11.0685
▁ထုလ္လစ္စယသ္သ။	-11.0686
ကောဝိဒ	-11.0686
▁နာရီ	-11.0687
ပဉ္ဟေ	-11.0688
▁သဗ္ဗမေတံ	-11.069
▁ဝေဒေဟ	-11.0692
▁ဥဒရ	-11.0692
▁အာနိသံသော	-11.0692
▁အတ္တဘာဝံ	-11.0693
▁ဂန္တု	-11.0695
▁ဗဟိဒ္ဓာရမ္မဏ	-11.0697
▁အနဘိရတိ	-11.07
▁အနောမ	-11.07
▁သစိတ္တက	-11.0701
သဒ္ဓ	-11.0701
▁ဒန္တာ	-11.0702
▁ဇနတံ	-11.0703
ပရိဝာသ	-11.0703
▁သမ္ပဒာန	-11.0704
▁ဝဒတီတိ	-11.0704
တက္က	-11.0704
▁ဝီတရာဂော	-11.0709
▁ဂာဝီ	-11.071
▁မတံ။	-11.0711
တ္တိကေ	-11.0712
တထေဝ	-11.0712
▁ဣဒမေတ	-11.0712
ဌိတ	-11.0714
ဒေဟ	-11.0714
စောဠ	-11.072
▁ဝိပာကဓမ္မဓမ္မော	-11.0721
င္ဂော	-11.0722
▁သောမနသ္သဇာတော	-11.0722
▁အာကာရေန	-11.0723
▁အတ္ထင္ဂမာ	-11.0724
▁အနတ္ထာယ	-11.0725
▁ဝိမာနံ	-11.0728
ကမ္ပန	-11.0728
▁ဥဒ္ဓတ	-11.0729
▁အစ္စယ	-11.0733
▁အရဟတာ	-11.0733
▁တိဒသ	-11.0734
▁ဘာဝေတီတိ	-11.0734
သန္နိသ္သယ	-11.0736
▁အနုရုဒ္ဓော	-11.0736
▁ဘမ	-11.0737
▁အနိယမ	-11.0738
▁သမ္ဗောဓိ	-11.0738
မာနသော။	-11.0741
▁ဝုတ္တနယ	-11.0742
▁အာနီတ	-11.0742
▁ပဌမဇ္ဈာနံ	-11.0743
▁တိတ္ထ	-11.0744
▁၁၉၈	-11.0745
▁လဇ္ဇီ	-11.0745
▁အဓိဋ္ဌိတ	-11.0746
▁ဓဇ	-11.0747
▁ဝုဋ္ဌာနံ	-11.0747
▁ပိဟိတ	-11.0749
ူနံ	-11.0749
▁ပရိယေသိတ္ဝာ	-11.075
ဂာထာဝဏ္ဏနာ	-11.075
အာစရိယ	-11.0751
▁ဒေန္တော	-11.0752
▁သမ္မတ	-11.0753
▁သင္ဃိကံ	-11.0754
ူပမော	-11.0754
▁ပာပိမာ	-11.0755
အတ္ထော	-11.0758
▁တိယောဇန	-11.0759
ာဂန္တ္ဝာ	-11.0759
▁ဒန္တော	-11.076
▁သတီတိ	-11.0764
ဋံ	-11.0765
▁အာပဇ္ဇိံ	-11.0766
▁မနောဝိညာဏ	-11.0767
ကာရိ	-11.0768
ုနော	-11.0768
▁အနာဂာမိဖလ	-11.077
▁ဧကဝိဓ	-11.0771
အနုပာဒာနိယော	-11.0773
▁ဥပလက္ခဏ	-11.0774
▁ပဌမာယ	-11.0774
▁ကာယသံသဂ္ဂ	-11.0774
▁တိကပာစိတ္တိယံ	-11.0776
▁အဃာနကာန	-11.0776
ဥဒ္ဓ	-11.0778
▁အညာတက	-11.0778
▁ဓမ္မတော	-11.0779
ုဘ	-11.078
▁ကုသုမ	-11.0782
ပဗ္ဗဇိတ	-11.0783
▁အလဇ္ဇိ	-11.0783
ဝာသိက	-11.0783
▁သစ္စေန	-11.0783
▁ကရိသ္သတိ	-11.0789
ဟေဝ	-11.079
▁အာဝာသာ	-11.079
▁မာတုဂာမသ္သ	-11.0791
▁တတောပိ	-11.0793
▁ဒုဗ္ဗဏ္ဏ	-11.0797
▁အပ္ပိယ	-11.0798
စိဏ္ဏ	-11.0798
▁ဘိသိ	-11.0799
▁သမန္တပာသာဒိကာယ	-11.0799
ပစ္စုပဋ္ဌာနံ	-11.0801
▁ပရိက္ခေပ	-11.0801
▁သဝိတက္ကသဝိစာရံ	-11.0803
▁လဇ္ဇိ	-11.0809
▁သမန္တ	-11.081
ပုဗ္ဗင္ဂမ	-11.0811
▁ပေတံ	-11.0813
▁ဒေဝဒတ္တသ္သ	-11.0814
▁အာသဝက္ခယ	-11.0814
မရဏံ	-11.0816
▁ဝောဒာနံ	-11.0816
▁ကဏ	-11.0817
ဂာမံ	-11.082
▁အဏ္ဍ	-11.0824
င္ကုရ	-11.0825
နိက္ခေပ	-11.0826
▁ဝတ္ထုသ္သ	-11.0826
▁ဌာနေန	-11.0829
▁အပ္ပဋိဃ	-11.083
▁သုတ္တန္တဘာဇနီယ	-11.0832
▁ခာဒနီယ	-11.0833
▁ဒေဝဒူတ	-11.0833
ဝီမံသ	-11.0834
▁ပသယ္ဟ	-11.0834
ဝိသာရဒ	-11.0835
▁၂၁၅	-11.0836
▁ဥပာသ	-11.0837
▁ဇနိန္ဒ	-11.0837
▁အရူပာဝစရာ	-11.0837
▁ပသ္သထ	-11.084
▁မိဂာ	-11.084
▁သတ္တတိံသ	-11.0841
▁အသဒိသ	-11.0841
▁ကမ္မန္တိ	-11.0841
▁ပေသိတ	-11.0843
▁သံဝဋ္ဋ	-11.0843
▁နိရုဒ္ဓာ	-11.0843
▁၂၂၀	-11.0843
▁ဝောဟာရော	-11.0844
▁ပာဒေန	-11.0847
▁အာသီသ	-11.0847
ဓာတုယော	-11.0848
▁အဇာန	-11.0848
▁ခာဒန္တိ	-11.0849
▁ဟေတုဖလ	-11.0849
ဗန္ဓနေန	-11.085
ဒလ	-11.0851
▁ဗဟူ။	-11.0853
▁သမာဒပေ	-11.0854
ုပဋ္ဌ	-11.0856
▁ဧဠကလောမ	-11.0856
တာပိ	-11.0856
သန္ဒ	-11.0857
▁သုညတာ	-11.0857
ဟာယ	-11.0859
▁ဝိသာခေ	-11.086
ဂ္ဂာ	-11.086
▁သုဝိသုဒ္ဓ	-11.0861
ဂတာနံ	-11.0862
▁၁၉၂	-11.0862
▁အနေကဝိဓ	-11.0865
▁အာရုပ္ပ	-11.0867
ပာနံ	-11.0871
▁မုတံ	-11.0872
▁အနာသဝာ	-11.0872
▁သမာဒဟ	-11.0873
▁သညီ	-11.0875
သေနော	-11.0875
ပရိယာပန္နာ	-11.0876
ဂ္ဂဟ	-11.0876
▁ဘူမိံ	-11.0877
▁အရူပီ	-11.0877
▁အဘိက္ကန္တံ	-11.0878
▁နိယုတ္တော	-11.0879
▁သခ	-11.0879
သကံ	-11.0881
▁ပစ္စုဋ္ဌ	-11.0881
သတေ	-11.0882
▁ကုပ္ပတိ	-11.0885
▁အဒာသိံ	-11.0885
▁တဗ္ဗိ	-11.0887
▁ပဏိဓာယ	-11.0888
▁ရသာယတနံ	-11.0889
သီဒ	-11.0889
▁အာဘောဂ	-11.0889
သင္ဃော	-11.089
▁ဝိဘာဝေတုံ	-11.0891
▁အာရောပေ	-11.0892
▁ဥပ္ပဇ္ဇေယ္ယုံ	-11.0892
စာရော	-11.0892
▁နိဝေသနံ	-11.0892
▁ဥပဋ္ဌဟန္တိ	-11.0893
▁ပုဂ္ဂလေန	-11.0895
▁ယေသု	-11.0896
▁ရာ	-11.0897
▁၁၉၄	-11.0897
သဂ္ဂ	-11.0898
▁ပုနဗ္ဘဝ	-11.0899
▁၁၈၈	-11.0899
▁ရာဇူနံ	-11.09
ိတဗ္ဗတော	-11.09
▁အတ္တဘာဝော	-11.0901
▁သမာနံ	-11.0902
▁ဥက္ခေပနီယကမ္မံ	-11.0902
မတီ	-11.0903
▁ဥပေတော	-11.0903
သူလ	-11.0904
▁ဒိဗ္ဗာ	-11.0906
▁ပညပေတိ	-11.0906
▁သမတ္တ	-11.0907
▁တောသ	-11.0908
▁အပရာ	-11.0909
မ္ဗရ	-11.0909
▁သမုဒ္ဒော	-11.0913
▁ဂဏသ္သ	-11.0914
▁ထလေ	-11.0916
▁အနုပသမ္ပန္နသ္သ	-11.0916
▁ပဋိပ္ပသ္သဒ္ဓ	-11.0917
▁နိသ္သိတ	-11.0918
ဘာဝတောတိ	-11.0919
▁သံဝာသ	-11.0924
▁ဘာသမာန	-11.0925
▁အဘဝ	-11.0925
ဘာဝဒသ္သနတ္ထံ	-11.0926
▁ဇဋာ	-11.0926
▁ဇာယတိ။	-11.0928
▁ဘဒ္ဒေ	-11.0929
▁ကုပိတော	-11.0931
▁သောဘတိ	-11.0931
▁ဝေဇ္ဇ	-11.0931
ဠု	-11.0934
▁ဗာရာဏသိ	-11.0935
▁မဟာယသ	-11.0937
▁ဆေက	-11.0938
ဝာစာယ	-11.0939
▁အန္တရာယ	-11.0943
ာစယဂာမိနာပစယဂာမီ	-11.0944
▁နုပ္ပဇ္ဇိသ္သတီ	-11.0945
▁အနဝသေသတော	-11.0945
▁နာတိဝတ္တ	-11.0947
▁ဂာဟာပေတ္ဝာ	-11.0949
▁အာသင္က	-11.0949
ထာမ	-11.095
ထော	-11.0952
▁အဒု	-11.0952
န္တရာယော	-11.0953
▁၂၀၅	-11.0953
မူလကေ	-11.0955
▁ခိပ္ပမေဝ	-11.0956
▁အနုပသ္သနာ	-11.0957
▁ယာစတိ။	-11.0957
▁သိယုံ	-11.0958
▁ဇလိတ	-11.0958
▁အာပန္နာ	-11.0959
ဝိမာန	-11.0959
ာဒာယ	-11.0959
ာနုပသ္သ	-11.096
စာရိ	-11.0961
ပ္ပဋိပန္န	-11.0961
▁သဗ္ရဟ္မစာရီနံ	-11.0965
တဝေ	-11.0966
ာရဟော	-11.0967
ဒသ္သနတော	-11.0967
▁မဟာဝီရော	-11.0967
▁သင္ကမ	-11.0968
▁မိန	-11.097
▁ဓီတရံ	-11.097
ိတ္ထိယော	-11.0972
တိအာဒီသုပိ	-11.0973
▁ဘဏိတ	-11.0973
▁ဒာယကော	-11.0973
▁ပာဏာတိပာတော	-11.0974
နိပာတော	-11.0975
ာဝီ	-11.0975
▁အဘိသင္ခာရ	-11.0976
ပညတ္တိယာ	-11.0976
▁ကာလမကာသိ။	-11.0977
ဝဇ္ဇိတ	-11.0977
▁အာနိသံသံ	-11.0978
▁သံယုတ္တ	-11.098
▁ဂစ္ဆထ	-11.0981
▁ဇိ	-11.0982
▁စတုရသ္သ	-11.0983
▁အာဟဋ	-11.0984
▁အတ္ထကာမ	-11.0988
▁ပတိဋ္ဌာတိ	-11.099
ပုဂ္ဂလောကာသာ	-11.099
သမာဂမ	-11.0992
▁ဓီရာ	-11.0995
ုဒ	-11.0996
▁ဘဝိသ္သ	-11.0996
▁ခာရ	-11.0996
▁ဧကဒေသံ	-11.0997
▁အနုကမ္ပာယ	-11.0997
ကမ	-11.0998
ပရိဝတ္တ	-11.0999
▁သဒေဝက	-11.0999
သပ္ပိ	-11.1
▁ဗ္ရဟ္မုနာ	-11.1001
▁ပသာဒေတ္ဝာ	-11.1001
▁ထဒ္ဓ	-11.1005
▁သမုဋ္ဌိတံ	-11.1005
▁ဣတ္ထိပုရိသ	-11.1009
▁ပဝေသေတ္ဝာ	-11.101
ဟန္ဒ	-11.1011
ပာဟံ	-11.1013
▁တေဘူမက	-11.1014
▁ဝိပ္ပမုတ္တော	-11.1016
▁စိန္တယ	-11.1017
ိယ္ယတိ	-11.1017
▁တထာဂတဗလံ	-11.1017
▁ဒိဗ္ဗေဟိ	-11.1019
▁တေတ္တိံသ	-11.102
▁အတ္ထင္ဂမော	-11.1021
▁အာကာသံ	-11.1022
▁ဗုဒ္ဓသာသနေ	-11.1023
▁ပေသလ	-11.1024
ယောဂ္ဂ	-11.1027
▁သမ္ပယောဂ	-11.1031
▁ကုသလဓမ္မ	-11.1033
ကုသလတာ	-11.1033
▁၂၀၆	-11.1034
▁ဗောဓိံ	-11.1038
ာမဟံ	-11.104
▁အရိယသာဝကသ္သ	-11.1042
မေတံ။	-11.1044
ဝ္ဟ	-11.1045
မတ္တံ။	-11.1045
မဏ္ဍလေ	-11.1045
▁သံဝရံ	-11.1046
ယောဂာ	-11.1046
ဆန္န	-11.1046
▁ကဋိ	-11.1049
ဝိသယံ	-11.105
▁သကဒာဂာမိဖလ	-11.1051
▁ဂာမန္တရ	-11.1053
ာဒီနန္တိ	-11.1054
ုက္က	-11.1054
▁ပဌမသ္သ	-11.1054
▁ပုရေဘတ္တံ	-11.1057
▁တီဟာကာရေဟိ	-11.1058
▁အာရဒ္ဓဝီရိယ	-11.1059
▁သမ္ဘဝတိ	-11.1059
▁ဥဒာယီ	-11.106
▁အဝိဂတ	-11.1061
▁ဌာနမေတံ	-11.1061
▁ဧတသ္မာ	-11.1062
ဝိပ္ပယုတ္တပစ္စယာ	-11.1063
▁ဝာယာမော	-11.1067
▁မန္တာ	-11.1067
မုဒု	-11.1067
▁အာရဒ္ဓော	-11.1067
ယုတ	-11.1068
▁အာနန္တရိယ	-11.1071
မုတ္တာ	-11.1071
▁အနုသ္သဝ	-11.1072
ပန္နော	-11.1072
သံယောဂ	-11.1072
▁တဏ္ဟာဒိဋ္ဌိ	-11.1073
သ္သသိ	-11.1073
ပဒဝဏ္ဏနာ	-11.1075
▁အနာသဝော	-11.1077
▁သေနာသနာနိ	-11.1077
▁အသဒ္ဓမ္မ	-11.1078
▁ကာရေသိ။	-11.1078
▁ဘာသတိ။	-11.108
▁ယောဇနံ	-11.108
န္တိအာဒီနိ	-11.1081
▁ကာမဂုဏ	-11.1082
▁ဆေဒ	-11.1083
▁ပာသာဒေ	-11.1083
▁ဒူရတောဝ	-11.1084
▁ဖုလ္လ	-11.1085
ဘယာ	-11.1086
▁ကာတဗ္ဗာ	-11.1086
▁သန္တော၊	-11.1086
▁ဝိသဒ	-11.109
ပရာမာသဝိပ္ပယုတ္တ	-11.1092
▁ရမဏီယ	-11.1093
သမာစာရ	-11.1093
ာဒီနဝ	-11.1095
န္တရေန	-11.1096
သဒိသတ္တာ	-11.1096
စရိယံ	-11.1098
မဓိ	-11.1099
လဂ္ဂ	-11.1099
▁ပစ္စယာနံ	-11.11
▁ဧတဒေဝ	-11.1101
▁မေဓာဝီ	-11.1104
▁တိလောက	-11.1104
▁အဓိမုစ္စ	-11.1105
▁ယာနံ	-11.1105
ဝိဇာနန	-11.1105
ကိတ္တိ	-11.1106
▁သန္နိပတိတ	-11.1107
▁ရုန္ဓ	-11.1109
▁သလ္လပ	-11.1111
မလံ	-11.1115
▁ဥဘယမ္ပိ	-11.1117
▁သညာ။	-11.1117
▁ပရိပာက	-11.1117
▁ဖသ္သာ	-11.1119
▁ပာဋိဒေသနီယ	-11.1119
▁အာရာမေ	-11.1119
▁ဖောဋ္ဌဗ္ဗာ	-11.112
ဃဋနာ	-11.1121
▁ဒုက္ခိတော	-11.1122
သမောဓာန	-11.1122
▁၂၀၀	-11.1123
▁ပညာယတိ။	-11.1124
▁အဇာနိတ္ဝာ	-11.1125
ဂတ္တ	-11.1125
▁အနုယုတ္တော	-11.1125
ဓောဝန	-11.1126
▁၂၀၉	-11.1126
ဝိပ္ပယုတ္တစိတ္တ	-11.1126
▁ဝသ္သသတံ	-11.1127
ဒရ	-11.1128
▁ပာရုပိတ္ဝာ	-11.1128
▁ဉတ္တိယာ	-11.1129
▁တိတ္ထိယာ	-11.1131
▁ဝဒာမီ	-11.1131
ဒုဂ္ဂ	-11.1131
▁အပ္ပေကစ္စ	-11.1133
▁ရောသ	-11.1134
▁ဘဂ္ဂ	-11.1135
▁ပာပကေ	-11.1135
▁ဘဗ္ဗ	-11.1136
၁၈	-11.1136
ကိရ	-11.1136
▁မီယ	-11.1139
▁ဥဘောသု	-11.1141
▁သိက္ခိတဗ္ဗံ	-11.1142
▁သတ္တမာ	-11.1144
▁အဋ္ဌကထာသု	-11.1145
▁ဒိဋ္ဌာနုသယ	-11.1145
▁ပစ္ဆိမေ	-11.1145
▁နုပ္ပဇ္ဇိသ္သတိ။	-11.1147
▁သ္ဝေ	-11.1152
▁၂၁၃	-11.1155
▁နိယ္ယာနိက	-11.1155
▁ဉတ္ဝာ၊	-11.1155
▁ဘိက္ခုသင္ဃ	-11.1155
တ္တု	-11.1156
ာမ၊	-11.1157
▁ဘဂ	-11.1157
▁ဒဏ္ဍက	-11.1161
▁ဈာနာနိ	-11.1163
▁ကထေတိ။	-11.1165
▁သက္ယပုတ္တ	-11.1165
မုစ္စ	-11.1166
▁အကုသလမူလံ	-11.1166
▁အဒသ္သနံ	-11.1167
▁ကိလိဋ္ဌ	-11.1167
▁ဝေပုလ္လံ	-11.1169
▁ဝဒာမီတိ	-11.1171
▁ပော	-11.1173
ရူပဇီဝိတိန္ဒ္ရိယ	-11.1174
▁ဣဋ္ဌာနိဋ္ဌ	-11.1174
▁ဝိဟည	-11.1174
ဂန္တဗ္ဗ	-11.1175
▁ဘိက္ခုနီဟိ	-11.1175
▁ဧဝမတ္ထော	-11.1176
▁အာဂစ္ဆန္တံ	-11.1177
▁အက္ကမ	-11.1179
▁တသ	-11.1181
▁ဘတ္တု	-11.1181
ညေ	-11.1181
▁ဘောဂာ	-11.1182
▁တိရစ္ဆာနယောနိ	-11.1182
▁စေတောသမ္ဖသ္သဇ	-11.1182
▁၂၃၈	-11.1183
▁သင္ဂာမ	-11.1183
ယာဝတာ	-11.1184
▁သာရမ္ဘ	-11.1185
▁ဥပဋ္ဌိတာ	-11.1185
▁၂၂၈	-11.1186
▁လပ	-11.1187
▁ဘဝိတဗ္ဗ	-11.119
▁၂၁၀	-11.119
▁ဝီဏာ	-11.1191
▁ဒဝ	-11.1192
▁ကုမ္ဘကာရ	-11.1194
ဘာဝေန။	-11.1194
မယေ	-11.1197
▁ကသ္သပသ္သ	-11.1198
▁ကာယဒုစ္စရိတ	-11.1201
▁ပဋိသလ္လာန	-11.1204
▁ကုမုဒ	-11.1204
▁စညေ	-11.1206
ဒာယကတ္ထေရသ္သ	-11.1206
▁ပဉ္စသတာ	-11.1212
ပုဗ္ဗံ	-11.1212
▁ဓမ္မာယတန	-11.1213
▁ကာရဏံ။	-11.1213
ဝတ္ထုကထာဝဏ္ဏနာ	-11.1214
▁၂၃၆	-11.1214
▁မုသာဝာဒော	-11.1215
▁ပာသာဒံ	-11.1216
▁နေတ္တိ	-11.1216
ာပေန္တော	-11.1217
▁ကပဏ	-11.1218
▁မဟာဗ္ရဟ္မာ	-11.1219
▁အတ္ထေသု	-11.1219
ပကရဏ	-11.1219
▁ဝိပ္ပသန္န	-11.1219
မိစ္ဆာ	-11.122
▁ကသိ	-11.122
▁စက္ခာယတန	-11.1223
ဉ္ဟေတံ	-11.1224
ဝိသေသေန	-11.1224
▁ဘုဉ္ဇေယ္ယ	-11.1224
▁ရုက္ခမူလ	-11.1225
▁ဒုမ္မ	-11.1226
ဝာသေ	-11.1228
▁ပသီဒတိ	-11.123
နိသ္သရဏ	-11.1231
▁ဗိမ္ဗိသာရ	-11.1232
▁အဘိဓမ္မဘာဇနီယ	-11.1232
ာဒိအတ္ထ	-11.1232
▁မဟတိယာ	-11.1232
▁အဟန္တိ	-11.1233
ဝသီ	-11.1233
ာရဟံ	-11.1234
▁ဝိဇ္ဇတီတိ	-11.1238
▁အာဗာဓော	-11.1239
▁ဂဏ္ဟေယ္ယ	-11.1239
▁သက္ကောမိ	-11.1239
▁တဒင္ဂ	-11.124
ယာနံ	-11.1241
တ္ဝာန	-11.1242
▁ပဋိစ္ဆန္နံ	-11.1242
▁သမ္ပဋိစ္ဆိတ္ဝာ	-11.1245
ာရောစန	-11.1246
ပတ္ထနာ	-11.1246
▁သမုဋ္ဌာနာဒီနိ	-11.1246
▁နာယကော။	-11.1246
ပုရံ	-11.1247
▁နိရောဓေ	-11.1248
▁ပာပေ	-11.125
▁သန္တိကာ	-11.1252
▁ဟဒယေ	-11.1253
မတ္တေနေဝ	-11.1254
▁အန္နပာန	-11.1256
သစ္စပရိယောသာနေ	-11.1257
▁ဌပေန္တ	-11.1258
ရဇ္ဇံ	-11.126
▁ဒဏ္ဍံ	-11.1263
▁ဇာတိပစ္စယာ	-11.1263
▁ဩဒန	-11.1265
▁၂၀၃	-11.1268
မုခာ	-11.127
မော။	-11.1271
▁ဝာဏိဇာ	-11.1271
▁၂၃၄	-11.1272
▁အပစ	-11.1274
▁အနေကေဟိ	-11.1274
ယိတ္ဝာန၊	-11.1275
ယာစန	-11.1277
ဘောဇနေ	-11.1278
တေသု	-11.1278
▁အပရိမာဏ	-11.1278
▁စရိယာ	-11.1279
ဋ္ဌာနာနိ	-11.1279
▁ဥပသန္တ	-11.128
သိခရ	-11.1281
ပရက္ကမ	-11.1281
ဇဝ	-11.1283
▁၁၉၇	-11.1284
▁ဂန္ဓံ	-11.1285
▁ဓမ္မတာ	-11.1286
▁ပယောဂော	-11.1286
▁သိဒ္ဓာ	-11.1287
▁ဒုက္ခိတ	-11.1287
▁ဂမိသ္သာမိ	-11.1288
▁ဝိစရန္တိ	-11.129
▁ဩရုယ္ဟ	-11.1291
▁နိရောဓသမာပန္န	-11.1291
▁စိဏ္ဏ	-11.1291
▁စီဝရပိဏ္ဍပာတ	-11.1292
▁ပရိဘုတ္တ	-11.1293
န္တေဝ	-11.1294
▁ဝိပာကာနံ	-11.1294
▁ဝိဘတ္တော	-11.1295
▁ပရလောကေ	-11.1298
▁စာလ	-11.1299
သင္ဂီတိ	-11.13
▁ကမ္ဗလ	-11.13
▁၂၃၇	-11.1301
ပရိယာပန္နံ	-11.1301
▁၂၁၈	-11.1303
▁ဈာနပစ္စယ	-11.1304
▁ပာရုပ	-11.1305
သဏ္ဌ	-11.1307
▁ဗ္ယသန	-11.1308
▁ကုဏ္ဍလ	-11.1308
▁အာရာမော	-11.1308
▁ဂစ္ဆန္တာ	-11.1311
သတ္တာ	-11.1311
▁သန္တီရဏ	-11.1312
▁သုစရိတ	-11.1313
▁ဥဒာနေသိ	-11.1314
▁သဗ္ဗဓိ	-11.1318
န္တေ။	-11.1319
လာဘော	-11.132
▁အနုပ္ပတ္တော	-11.1321
▁ရဇနီယ	-11.1322
▁အနိစ္စာဒိ	-11.1324
▁စေတိယသ္သ	-11.1326
▁သံဝတ္တန္တီ	-11.1326
▁၂၁၆	-11.1327
▁သဉ္စ	-11.1327
ကိလိဋ္ဌ	-11.1328
ဝန္ဒန	-11.1328
ဟတော	-11.1329
ာဘာဝော	-11.1332
ပရိက္ခိတ္တ	-11.1332
▁တေရသမ	-11.1334
▁ရတနာနိ	-11.1334
▁ဗာဟာ	-11.1335
▁က္ရိယတ္ထာ	-11.1335
▁အပရာဓ	-11.1336
▁သမ္ပယုတ္တသ္သ	-11.1336
▁ဘာဝေန	-11.1336
ကသ္သပ	-11.1337
▁တာဝတိံသ	-11.1337
▁ဥပစယော	-11.1337
မနုသ္သာ	-11.1338
ပ္ပဘာ	-11.1339
မာဂတ	-11.1339
▁သမ္ဗောဓ	-11.1341
▁သောကော	-11.1343
▁ဥပသမ္ပဒံ	-11.1343
▁ဒုမ္မေဓ	-11.1344
▁သိက္ခေယ္ယ	-11.1344
▁ကပိ	-11.1345
▁ဘောတိ	-11.1346
▁ဝိဒိတော	-11.1346
ေကော	-11.1348
တရေ	-11.1349
▁အပ္ပီတိက	-11.1351
▁စိန္တိတ	-11.1352
▁ဂုဏဝ	-11.1352
ဂုဟ	-11.1353
▁စတုပ္ပဒ	-11.1354
▁မဟာဇနံ	-11.1354
ပလ္လဝ	-11.1356
▁ယထာသုခံ	-11.1356
တုလ	-11.1356
▁အဘိသမယ	-11.1358
သေတိ	-11.1358
န္တူ	-11.1359
▁နိရုဇ္ဈ	-11.136
▁ဉာဏသမ္ပယုတ္တ	-11.1361
▁၂၁၉	-11.1362
▁ပရိမဏ္ဍလ	-11.1363
▁မစ္စုနော	-11.1363
ကမ္မာ	-11.1363
▁ပဋိဂ္ဂဟိတံ	-11.1364
▁ဥပ္ပဇ္ဇမာနော	-11.1366
▁သမ္ဗုဒ္ဓော	-11.1366
▁ဓီရော၊	-11.1369
▁ကေသရ	-11.1369
▁အာဂစ္ဆေယ္ယ	-11.137
▁ဝဒေယ္ယုံ	-11.137
▁ဇာနိတဗ္ဗံ	-11.1371
▁နိရုဒ္ဓ	-11.1371
▁ဥပ္ပဇ္ဇတီ	-11.1371
စတုက္ကံ	-11.1376
▁တုဝ	-11.1378
▁မုစ္ဆ	-11.1379
ဘာဇ	-11.1383
ဒမ	-11.1384
▁ဣတ္ထ	-11.1385
▁ဒိဋ္ဌိဂတိက	-11.1386
ဒူရ	-11.1389
▁အဒိသ္ဝာ	-11.1389
င္ကရော	-11.1391
▁၂၄၃	-11.1393
▁မုတ္တံ	-11.1393
▁၂၃၃	-11.1394
▁ဂဏ္ဟန္တသ္သ	-11.1394
▁ရာမ	-11.1394
▁သာရဇ္ဇ	-11.1394
▁အဝိတက္ကအဝိစာရံ	-11.1395
▁လောကိယော	-11.1396
▁ပာဒေဟိ	-11.1396
▁ကရောန္တ	-11.1396
▁စဇ	-11.1398
▁ဧကေ။	-11.1398
▁ပသဝတိ	-11.1399
▁တန္	-11.1399
▁အဇ္ဈတ္တိကာ	-11.14
▁ပိတရာ	-11.14
ဂန္တု	-11.1401
▁သမဏဓမ္မံ	-11.1402
▁၂၀၄	-11.1402
▁နိပာတမတ္တံ။	-11.1405
▁အဘိနိဝေသ	-11.1405
သလ္လက္ခဏ	-11.1406
▁ဓာရေန္တိ	-11.1407
▁နဝဟိ	-11.1408
▁သပ္ပာဏက	-11.1408
▁နိဗ္ဗာနာယ	-11.1409
ဝာသီနံ	-11.1409
▁အနညသာဓာရဏ	-11.1409
▁ဩတိဏ္ဏ	-11.1411
▁ဒ္ဝာရေ	-11.1411
▁ဝိမုတ္တံ	-11.1414
▁ဘဝိသ္သသိ။	-11.1414
သမုဒယ	-11.1415
ဂရုက	-11.1415
ေန္တေန	-11.1415
▁ပဉ္စဝောကာရာနံ	-11.1415
ကုသုမ	-11.1416
▁၂၀၈	-11.1418
▁နာရိယော	-11.1418
▁ပဒဟ	-11.142
က္ခန္ဓက	-11.1421
▁အာရောစေတ္ဝာ	-11.1422
▁စေတသိကာ	-11.1423
▁အဓိဋ္ဌာတဗ္ဗ	-11.1423
ဂ္ဂိနာ	-11.1423
ကောဋ္ဌာသေ	-11.1423
▁ပမုခ	-11.1423
▁ဥပ္ပာဒိတ	-11.1423
▁သပ္ပဋိဃ	-11.1424
▁ဝီရိယာရမ္ဘ	-11.1425
▁ကာမတဏ္ဟာ	-11.1425
▁သမ္မသ	-11.1426
▁န္ဟာန	-11.1426
▁၂၁၁	-11.1428
▁ပဉ္စဒသ	-11.1428
နယော။	-11.143
▁နပ္ပဇဟန္တိ	-11.143
▁နေရယိက	-11.1432
▁၁၉၉	-11.1434
▁အပုစ္ဆိ	-11.1434
▁ပဏိဓီတိ	-11.1434
▁သမိဒ္ဓ	-11.1435
▁သရဒ	-11.1437
▁သာဝကေ	-11.1437
▁နောဥပာဒာန	-11.1439
▁သုရာမေရယ	-11.1439
သာဝကော	-11.1442
အဋ္ဌကထာ	-11.1445
ဘာဝဉ္စ	-11.1446
အရူပ	-11.1447
▁စတုတ္ထော။	-11.1447
▁သီလာဒိ	-11.1448
▁၂၁၂	-11.1448
ေထာတိ	-11.1449
▁သတ္ထာ၊	-11.145
▁ဉာတကာ	-11.1451
ဟေတုဒုကံ	-11.1456
▁ဟု	-11.1461
▁အရူပာဝစရာနံ	-11.1462
▁ဝသ္သိကသာဋိက	-11.1463
▁၂၁၄	-11.1464
▁ဇီဝက	-11.1464
▁အာဝာသံ	-11.1465
▁ပစ္ဆာဇာတေ	-11.1466
▁ဗိလ	-11.1467
▁ပဝုစ္စတီ	-11.1468
▁ဥစ္စာဝစ	-11.1468
▁အာဂမနံ	-11.1468
▁ဥပစိနန္တော	-11.1469
▁အန္ဓကာရေ	-11.147
ရတ္တိ	-11.147
▁ဝိစိကိစ္ဆာယ	-11.1471
▁ဝိဂ္ဂဟ	-11.1471
▁သသ္သတော	-11.1471
▁သဗ္ဗထာပိ	-11.1471
တဝ	-11.1474
▁သမာသေ	-11.1474
▁အဓိကံ	-11.1475
▁၂၀၁	-11.1475
▁သာဏ	-11.1476
ဣရိယာပထ	-11.1476
▁ဉတ္တိ။	-11.1478
▁ရသေ	-11.1478
ဝုဋ္ဌိ	-11.1478
ပတ္တီ	-11.148
ပုဏ္ဏမ	-11.1481
▁ဥပာဒာရူပံ။	-11.1481
သူပ	-11.1482
▁အဝိတက္ကံ	-11.1482
▁အင္ဂဇာတံ	-11.1484
▁နိရဝသေသ	-11.1485
▁ဃဋေတ္ဝာ	-11.1486
▁သာရာဂော	-11.1489
▁သင္ခတာ	-11.1489
▁သဗ္ဗကိလေသ	-11.149
▁ပဟာရံ	-11.1491
▁ဝိဘူသ	-11.1492
▁အာရာ	-11.1495
▁အဇာနန္တ	-11.1496
ယတီ	-11.1497
▁စောရော	-11.1497
ာမဟံ။	-11.1497
▁ဂဟိတံ။	-11.1498
▁သိယန္တိ	-11.1498
လင္က	-11.1498
▁ဥယ္ယောဇ	-11.1498
▁ဓမ္မိယာ	-11.1499
▁ဗာဟိယ	-11.1501
▁တဒနုရူပ	-11.1502
ိတေ။	-11.1503
▁ဌပေသိ	-11.1503
▁အညတိတ္ထိယာ	-11.1504
▁ဝစ္စ	-11.1506
▁ဥန္နတ	-11.1506
ဝိမုတ္တိဉာဏဒသ္သန	-11.1512
ဘဂ္ဂ	-11.1513
▁အဗ္ယာပာဒ	-11.1515
စေတနာယ	-11.1518
ယောဇနံ	-11.1519
▁ထန	-11.1519
▁ဩသာရ	-11.1519
၁၄	-11.1519
▁တေနသ္သ	-11.152
▁နိသ္သရဏဉ္စ	-11.1521
▁ကုဋ	-11.1521
▁မဟိ	-11.1522
▁အဘိနီဟာရ	-11.1523
▁ဟာယ	-11.1524
▁ပဋိပန္နာ	-11.1524
ပရော	-11.1525
မပ္ပ	-11.1525
▁ဝုသိတံ	-11.1528
▁နစ္စဂီတ	-11.1528
သမတိက္ကမ	-11.1528
▁၂၂၄	-11.153
▁ကရိ	-11.1531
▁သာရမ္မဏ	-11.1532
▁ဘယာနက	-11.1532
▁သိဒ္ဓော	-11.1532
ဒ္ဝာဒသ	-11.1539
▁သဗ္ဗနာမ	-11.1539
▁နိရန္တရ	-11.154
▁ဒီပေန္တိ	-11.1541
ာရုဠ္ဟ	-11.1541
ပ္ပဒေသေ	-11.1542
▁ဒုက္ခနိရောဓော	-11.1542
▁ကိံကာရဏာ	-11.1545
▁အာလမ္ဗ	-11.1545
▁ပမုဒိတ	-11.1545
▁သမထာ	-11.1546
▁အသောက	-11.1547
▁၂၂၅	-11.1548
▁န္ဟာရု	-11.1549
▁၂၂၂	-11.1552
▁နိရောဓသစ္စံ	-11.1553
နိကာယဋ္ဌကထာယ	-11.1553
▁၂၀၂	-11.1554
▁မဟိဒ္ဓိကော	-11.1555
လိတ	-11.1555
ဝိတ္တ	-11.1555
▁ဥပသန္တော	-11.1556
▁နရော။	-11.1557
▁ဣမာသံ	-11.1557
▁ဝစနတ္ထော	-11.1557
▁ပုစ္ဆိတ	-11.1558
ဒုဋ္ဌ	-11.156
▁ဝိညာဏေ	-11.1561
▁ပတ္တစီဝရ	-11.1561
ေမီတိ	-11.1561
▁ဘဝေယ္ယာတိ	-11.1562
▁အာရဘိ။	-11.1562
▁ဥပာဟန	-11.1563
▁၂၃၂	-11.1563
▁အရောဂော	-11.1564
ဥဒ	-11.1565
▁နိဝတ္ထ	-11.1565
▁လော	-11.1571
ဖလာ	-11.1575
▁အာလောပ	-11.1577
▁ဣတရသ္သ။	-11.1577
▁ဝိမုတ္တိယာ	-11.1578
▁နိဋ္ဌိတာ	-11.1578
▁မဟန္တေ	-11.1579
▁စိတ္တော	-11.1579
ယောပိ	-11.158
ဒသက	-11.1581
သေ။	-11.1581
ုစ္စ	-11.1582
သမုဋ္ဌာနော	-11.1582
သဗ္ဘာဝတော	-11.1583
▁ဝိဘာဂ	-11.1583
▁မာတင္ဂ	-11.1588
▁ဥပမာယ	-11.1588
ဏ္ဌ	-11.159
▁သဗ္ဗညုတညာဏံ	-11.159
ပတိတ	-11.159
ဝိသဒ	-11.159
▁ဥပ္ပတိတ္ဝာ	-11.1591
▁နာဠိ	-11.1592
▁ပသာရေတ္ဝာ	-11.1594
▁ဗိန္ဒု	-11.1596
▁၂၃၀	-11.1597
ပောရိသ	-11.1598
▁ယောဇိတ	-11.1599
▁နပ္ပဇဟတိ။	-11.1601
▁မဂ္ဂသစ္စဉ္စ	-11.1601
▁ရာဇကုလ	-11.1601
▁အာဒာသ	-11.1602
ဂမနေန	-11.1603
ဝိဝာဒ	-11.1604
ဟာကာရေဟိ	-11.1605
န္တသ္သာတိ	-11.1605
ဝဓ	-11.1607
ဂုဏော	-11.1607
ဥစ္စ	-11.1609
ာတိအာဒီသု	-11.1613
နိဗ္ဗ	-11.1614
▁ပဋိက္ခေပော	-11.1615
▁တုလာ	-11.1615
▁အဘိညေယ္ယံ	-11.1616
▁မညေယ္ယ	-11.1618
ဒ္ဓဇ	-11.1618
▁သီဟနာဒ	-11.1618
▁ဓုန	-11.1621
▁စောဠ	-11.1621
ပဋလ	-11.1622
မေဝာ	-11.1622
သောဓန	-11.1623
▁အဝေက္ခ	-11.1625
ေယ္ယာသီ	-11.1625
▁စီဝရာနိ	-11.1627
▁အပရမ္ပိ	-11.1627
▁သဠာယတနံ	-11.163
ိကေန	-11.1631
▁အနူန	-11.1631
▁စောဒန	-11.1634
ဒဏ္ဍော	-11.1638
▁၂၂၆	-11.1639
▁ကပ္ပံ	-11.164
▁ဥပကာရက	-11.164
ေယ္ယော	-11.1641
▁ဘဏန္တိ	-11.1642
▁၂၂၃	-11.1644
▁စေတသာ။	-11.1645
▁ဘာဝနာမယ	-11.1645
▁ဟန္တိ	-11.1647
ာဒိဘာဝေန	-11.1648
▁ဥဘိန္နမ္ပိ	-11.1648
▁ဂုန္နံ	-11.1649
▁ဓမ္မဝိစယော	-11.165
ဝသ္သာနိ	-11.165
ဣတ္ထိ	-11.1651
▁ဘဂဝတော၊	-11.1651
▁ပဏ္ဍိတာ။	-11.1653
▁ဒာတဗ္ဗာ	-11.1653
စတ္တာရိမာနိ	-11.1653
▁ဝိဝဒ	-11.1655
▁ကုဋိံ	-11.1655
▁အယမာယသ္မာ	-11.1655
▁ကီဒိသံ	-11.1657
တီရ	-11.1658
▁ယောဇေတဗ္ဗာ။	-11.1661
▁အနုသန္ဓိ	-11.1662
▁၂၂၁	-11.1662
▁ဝိညာတဗ္ဗော	-11.1662
▁၂၁၇	-11.1662
▁ပိသုဏာ	-11.1664
▁ဥသ္သုက္ကံ	-11.1664
▁ယာတိ	-11.1665
▁ဒီပံ	-11.1666
▁သဗ္ဗတ္ထ။	-11.1666
▁လောကသ္မိ	-11.1668
▁ဂု	-11.1669
ဘုဇ	-11.1669
▁ဥပဇ္ဈာယသ္သ	-11.167
▁တာတာ	-11.1671
▁ဒုက္ခံ၊	-11.1671
▁နဒတိ	-11.1672
ယုဂံ	-11.1672
▁ကာမဓာတု	-11.1673
▁ကုသလဉ္စ	-11.1674
▁ဝိသေသနံ	-11.1675
▁မာတုဂာမေန	-11.1675
သူစိ	-11.1675
▁အာစရ	-11.1676
နေတံ	-11.1677
▁အနေကာနိ	-11.1678
န္တူတိ	-11.1679
ဓာယ	-11.1679
▁ဝိရတော	-11.1681
▁ခီဏာ	-11.1683
▁ပဘာသ	-11.1684
▁သံသာရော	-11.1684
▁စတုဗ္ဗိဓော	-11.1684
▁ဖလဒာန	-11.1686
ဂာဠ္ဟ	-11.1687
▁အဂမာသိ	-11.1687
▁ဒ္ဝိတ္တံ	-11.1688
▁အက	-11.1691
▁ဧဝရူပ	-11.1694
▁အဘိန္န	-11.1696
▁လေဏ	-11.1696
▁အဘိနိဗ္ဗတ္တ	-11.1698
▁အာဝဇ္ဇနာယ	-11.1701
တံ၊	-11.1701
▁ဝိဇာနာတိ	-11.1703
▁နိဝာသန	-11.1703
ဂမ္မ	-11.1705
▁ယတိ	-11.1705
္တ	-11.1709
▁ပပဉ္စသူဒနိယာ	-11.1709
▁အဘိရမ	-11.171
တ္တေပိ	-11.171
▁ဇာနာထ	-11.1711
▁စီဝရေန	-11.1712
သညောဇန	-11.1713
▁သဟာယက	-11.1714
▁ကမ္မာရ	-11.1715
▁သင္ဂဏ္ဟ	-11.1715
ရာဇိ	-11.1717
လာပော	-11.1717
ရာဇာနော	-11.1719
▁အာဘတံ	-11.1719
▁မဟန္တေန	-11.172
၁၆	-11.1721
▁၂၂၉	-11.1721
▁ဝိဒိတ	-11.1722
ေယ္ယု	-11.1722
▁၂၂၇	-11.1722
သိက္ခာပဒဉ္စ။	-11.1724
▁သေနာသနေ	-11.1724
ဝောဟာရေန	-11.1728
ာဝဇ္ဇန	-11.1728
▁ယောဂိနော	-11.173
▁ယောဇေတဗ္ဗော။	-11.173
▁ဟည	-11.173
▁ကာရုည	-11.173
သံယုတ္တေ	-11.1732
▁အဂ္ဂသာဝက	-11.1732
▁ဟုတ္ဝာ၊	-11.1732
▁ဒဏ္ဍေန	-11.1732
ာဟာရော	-11.1734
▁ဣဒ္ဓ	-11.1735
သ္သရာ	-11.1735
▁ဂဏ္ဟတော	-11.1739
▁သဉ္စရိတ္တ	-11.1739
▁အာဘုဇိတ္ဝာ	-11.174
▁တထာရူပံ	-11.174
▁ပရိဝေဏ	-11.1742
▁ပီဌ	-11.1742
ေဘိ	-11.1744
▁ဇလံ	-11.1745
▁အပုဗ္ဗံ	-11.1745
ပ္ပတ္တိ	-11.1746
▁သမာပန္န	-11.1746
▁ဗ္ယသနံ	-11.1748
▁ဝဒေ	-11.1749
▁အဂ္ဂေ	-11.1749
သုံ။	-11.1749
▁သဗ္ဗသတ္တာနံ	-11.175
▁အပ္ပသဒ္ဒ	-11.175
▁အပ္ပဝတ္တ	-11.1755
▁ဇီယ	-11.1755
▁ကိတ္တာဝတာ	-11.1757
အနာဂတ	-11.1759
▁ဌိတေန	-11.176
ာဒေသေ	-11.1762
▁ဗဟုံ။	-11.1762
▁ဂဏနာ	-11.1764
▁မေ၊	-11.1764
▁ယထာဝုတ္တံ	-11.1767
▁တဒဟု	-11.1767
တာဝ	-11.1768
▁ဌပေတဗ္ဗ	-11.1769
▁ဒေဝတေ	-11.1769
▁ကယဝိက္ကယ	-11.1771
▁ယာဝတတိယံ	-11.1771
▁ဓမ္မသဘာယံ	-11.1771
▁၂၃၅	-11.1773
▁နပ္ပဇဟတီတိ	-11.1773
▁အတ္တဟိတာယ	-11.1777
ိကောတိ	-11.1777
နယံ	-11.1778
▁သာမညတော	-11.1779
▁သမဏဗ္ရာဟ္မဏာနံ	-11.178
သာရော	-11.178
▁ဖလေ	-11.178
▁ဥဒာဟရဏ	-11.1781
▁၂၃၉	-11.1781
▁ပဌမတရံ	-11.1781
ဗာဟိရ	-11.1782
▁တာဝကာလိက	-11.1783
ာတိအာဒိ	-11.1784
▁ဒေသေတဗ္ဗ	-11.1784
ပစ္စနီယာနုလောမံ	-11.1786
▁ဒာရုဏ	-11.1788
▁ဣမိနာပိ	-11.1788
▁အာသဝသမ္ပယုတ္တော	-11.1788
▁အရူပာဝစရံ	-11.1788
▁နောနီဝရဏ	-11.1789
နိမ္မိတ	-11.1789
▁ဂန္ဓကုဋိ	-11.1791
တေတိ	-11.1792
▁စိတ္တစေတသိကာ	-11.1795
▁မရတိ	-11.1796
▁ဣတီတိ	-11.1797
▁ကုသလစိတ္တ	-11.1798
▁ဥက္ကာ	-11.18
▁ဝလာဟက	-11.18
▁သောယေဝ	-11.1801
▁သီလေ	-11.1801
ပိဋ္ဌေ	-11.1801
သာခာ	-11.1802
▁ပရိသာသု	-11.1805
ဥတု	-11.1806
▁ခာဒိတ္ဝာ	-11.1806
နုလောမပစ္စနီယံ	-11.1807
ဘာဝန	-11.181
▁သမ္ပဋိစ္ဆန	-11.181
▁စိရဋ္ဌိတိက	-11.1811
ဝသန	-11.1811
▁ဒာတဗ္ဗော။	-11.1811
▁နာမဂောတ္တ	-11.1813
▁ဘာဝန	-11.1814
▁ဖုဋ္ဌသ္သ	-11.1815
▁တမ္	-11.1818
▁ဝိညေယ္ယံ	-11.1819
▁ကမ္မဝာစာယ	-11.1819
သေက္ခ	-11.1821
▁ဒာသော	-11.1823
ဗ္ဘန္တရ	-11.1823
ဘဝင္ဂ	-11.1825
▁ပုရေဇာတံ။	-11.183
▁ဓမ္မရာဇာ	-11.1831
မဏ္ဍ	-11.1831
▁နိဒ္ဒ	-11.1832
ာဒိဝဏ္ဏနာ	-11.1833
ာဘိမုခော	-11.1833
▁ဝိရုဇ္ဈ	-11.1833
သေဝိတ	-11.1835
▁ဥပပဇ္ဇေယ္ယ	-11.1837
▁ဂတိံ	-11.1837
▁ဒက	-11.1838
လပ	-11.1839
▁ဝဏ္ဏဝာဒီ	-11.1839
ပ္ယတ္ရ။	-11.184
ဝိပာကံ	-11.184
▁အကုသလဝိပာက	-11.1841
▁ကစ္ဆ	-11.1842
▁၂၄၀	-11.1842
▁ဇီဝိကံ	-11.1845
▁ယာစတိ	-11.1846
▁သုသမာဟိတ	-11.1847
▁ဇာနာဟိ	-11.1847
▁သင္ဂဟေတ္ဝာ	-11.1849
▁ဘရိယာယ	-11.1851
ပရိယောသာနံ	-11.1852
▁ကုဒာသ္သု	-11.1852
ပ္ပစ္စယာ	-11.1853
▁ဒသမ	-11.1854
▁ကပ္ပတိ	-11.1855
▁အန္တရံ	-11.1856
▁ပမတ္တ	-11.1858
ဂာမိနီ	-11.1859
မိစ္စေဝ	-11.1861
▁အာရုဠ္ဟ	-11.1861
▁အဟိတ	-11.1861
▁မဒ္ဒိ	-11.1861
▁အပရိပုဏ္ဏ	-11.1863
▁နိဋ္ဌံ	-11.1863
▁အာဘာ	-11.1865
▁အဟိတာယ	-11.1865
ာနုကမ္ပ	-11.1865
▁အနောတ္တပ္ပံ	-11.1866
ပာမောက္ခ	-11.1867
▁အတ္ထောတိ	-11.1867
အဓမ္မ	-11.1868
ဒာဟ	-11.1868
သာတ	-11.1871
▁အပရိသုဒ္ဓ	-11.1871
▁ကုဏပ	-11.1871
ဝိနိစ္ဆယံ	-11.1872
▁အဇ္ဈာဝသ	-11.1872
▁ဝိကိရ	-11.1872
▁နယိဒံ	-11.1872
ဝိဟာရော	-11.1873
▁၂၃၁	-11.1873
▁ပသ္သသိ	-11.1873
▁ဥတ္တ	-11.1874
▁အာဂတောတိ	-11.1874
▁ပဝတ္တိယံ	-11.1877
ေန္တိ၊	-11.1878
▁အပ္	-11.188
▁သောစတိ	-11.188
▁သာနုသယောတိ	-11.1881
▁သမ္ဗောဓာယ	-11.1881
▁မူလာနိ	-11.1882
▁ပတိဋ္ဌိတာ	-11.1883
▁ဌပေ	-11.1884
▁ပဗ္ဗဇိတသ္သ	-11.1885
▁ကာကော	-11.1885
ပ္ပမာဏာ	-11.1886
▁ယတ္တကံ	-11.1887
▁ပကာသိတာ	-11.1888
▁သုခဝိပာက	-11.1889
▁ဒဋ္ဌုံ	-11.189
▁ပာဒေသု	-11.1892
တ္တက	-11.1893
▁တူရိယ	-11.1893
▁ယထာပိ	-11.1894
▁ဧတိသ္သာ	-11.1896
▁သဗ္ဗသင္ခာရ	-11.1898
▁ပဉ္စကာမဂုဏ	-11.1899
▁ပဟိတတ္တော	-11.1899
ဝိသေသော။	-11.1901
▁တထာဂတာ	-11.1902
▁နိမန္တေတ္ဝာ	-11.1903
▁အဇာနန္တသ္သ	-11.1903
ုတ္တ	-11.1904
▁သမာဒိယိတ္ဝာ	-11.1904
နိဂ္ဂဟ	-11.1905
▁နိဒ္ဒာ	-11.1905
▁ဩသဓ	-11.1905
▁ဧကဝိဓေန	-11.1906
▁နိသ္သယပစ္စယ	-11.1906
▁ဥပဝသ	-11.1906
သမ္ဘူတ	-11.1908
▁အာပုစ္ဆိတ္ဝာ	-11.1909
ဖလော	-11.191
▁ပတိတ္ဝာ	-11.1911
▁ပံသုကူလိက	-11.1912
▁နိဒ္ဒိဋ္ဌော	-11.1914
▁အဂ္ဂမဂ္ဂသမင္ဂီ	-11.1916
▁ဓောတ	-11.1916
▁ပုနပ္ပုန	-11.1916
ဝိဝရဏ	-11.1917
▁ဒမေ	-11.1917
ဝိလာသ	-11.1917
၁၇	-11.1919
▁ဝိဟိံသာ	-11.1919
▁အဇ္ဈတ္တဗဟိဒ္ဓာ	-11.1919
နတ္ထော	-11.192
▁အနာသဝ	-11.192
▁ဝိဂ္ဂဟော	-11.1921
▁အနာထ	-11.1921
ပရိယောသာနာ	-11.1924
မဒော	-11.1924
▁ကာရဏန္တိ	-11.1927
▁သဉ္ဇာနာတိ	-11.1928
▁အာဝသထ	-11.193
ဟတံ	-11.193
▁အစေတသိက	-11.1931
▁သုဒိန္န	-11.1934
စ္ဆက	-11.1935
▁ထု	-11.1936
▁ပတိရူပ	-11.1936
▁ဒုဂ္ဂ	-11.1938
ဝ္ဟေ	-11.1938
▁ပကာသိတော။	-11.1938
▁နိယ္ယာတ	-11.1938
▁အပဒာနေ	-11.1938
▁ဝိဟာသိ	-11.1939
▁ပာမောဇ္ဇ	-11.1939
▁ဥပသမ္ပာဒေ	-11.194
▁ကပ္ပော	-11.194
မဇ္ဈတ္တ	-11.194
မရိယာဒ	-11.1942
▁၂၄၂	-11.1947
ဝိက္ခေပ	-11.1947
▁ဝစီကမ္မ	-11.1947
နိက္ခမ	-11.1949
▁ပဋိယာဒ	-11.1949
▁အပ္ပမတ္တာ	-11.1951
▁သူရိယေ	-11.1953
▁ကပိလ	-11.1954
နိဝေသန	-11.1956
▁ဒာနေန	-11.1957
စု	-11.1958
▁ဒ္ဝယ	-11.1959
▁ပာဒမူလေ	-11.1959
ရိယာ	-11.1959
▁ပုရိသပုဂ္ဂလော	-11.1961
▁သဌ	-11.1964
▁နောပရာမာသ	-11.1964
▁ဂေ	-11.1965
ယံ၊	-11.1965
▁ရထေသဘ	-11.1966
▁ဘာသိသ္သာမီ	-11.1966
▁ပဋိလာဘော	-11.1969
▁ပဝတ္တတ္တာ	-11.1969
ဥပ္ပန္န	-11.197
▁ပရိက္ခိပိတ္ဝာ	-11.1971
▁ပဉ္စက	-11.1972
▁အဓိမောက္ခော	-11.1973
ဝနသဏ္ဍ	-11.1973
ဒောမနသ္သ	-11.1973
▁ကရဏီယေန	-11.1974
▁အဇိန	-11.1975
▁စာပ	-11.1975
▁အသ္သံ	-11.1976
ဇာတိက	-11.1977
▁နိရောဓသမာပတ္တိ	-11.1977
ဓဇ	-11.1978
ကမ္မိက	-11.1978
▁ပရိက္ခီဏ	-11.1982
ာရိ	-11.1985
▁သီဟဠ	-11.1986
▁ဧတ္တကမေဝ	-11.1986
▁နဒာဒိ	-11.1989
▁ဒဇ္ဇာ	-11.199
▁ဒရ	-11.199
▁သံဝဏ္ဏ	-11.199
▁ဒိဋ္ဌိဂတာနံ	-11.1991
ကမေဝ	-11.1992
▁ဘဇတိ	-11.1992
ဝိမာနဝဏ္ဏနာ	-11.1993
▁မဂ္ဂဟေတုက	-11.1995
▁မနုသ္သဘူတာ	-11.1998
▁သိထိလ	-11.1998
▁သဟသ္သာနိ	-11.1998
▁နိဝာတ	-11.1999
ာမိသ	-11.1999
▁အာနေဉ္ဇ	-11.1999
▁ဝတ္တမာနာ	-11.2001
▁ဗုဒ္ဓောတိ	-11.2004
▁ဒသ္သနီယ	-11.2005
ာဓိဋ္ဌာနံ	-11.2005
▁ပဗ္ဗဇိသ္သာမိ	-11.2007
▁ဝုဋ္ဌာနသ္သ	-11.2007
ာပေက္ခ	-11.2007
▁သုတ္တာနိ	-11.2008
▁ဒောသသ္သ	-11.2009
▁အနုပသမ္ပန္န	-11.201
‘‘	-11.2012
▁သတိပဋ္ဌာနေ	-11.2012
▁မဟဂ္ဂတော	-11.2012
ဘုယ္ယ	-11.2013
သမံ။	-11.2015
▁ရောဟဏ	-11.2016
▁ပသာရ	-11.2018
▁နိရုဇ္ဈန္တိ။	-11.2019
▁သိင္ဂ	-11.2021
▁သာသဝော	-11.2023
▁ဘိက္ခာစာရ	-11.2023
▁ဘဝရာဂာနုသယ	-11.2023
တ္တမ	-11.2024
▁ဝုဒ္ဓိံ	-11.2024
▁ပရေန	-11.2026
▁မဟာပထဝီ	-11.2027
▁ဂုဏော	-11.2028
▁ပရိဟာရ	-11.2028
▁သာရတ္တော	-11.2028
▁သင္ခာရုပေက္ခာ	-11.2028
▁၂၄၁	-11.2029
▁တဏ္ဟက္ခယ	-11.2029
ပဒဋ္ဌာနာ	-11.2029
▁ဟေတုသမ္ပယုတ္တ	-11.203
▁သဥတ္တရ	-11.203
ာဒီသူတိ	-11.2032
▁ဒာသီ	-11.2033
▁ပစ္စုပ္ပန္နေ	-11.2033
▁ကုဋ္ဌ	-11.2035
သမုဂ္ဃာတ	-11.2035
အစ္ဆရိယံ	-11.2035
▁သမုဒယသစ္စဉ္စ	-11.2036
တာဠ	-11.2036
▁ယတ္တက	-11.2036
▁ပတိဋ္ဌာန	-11.2037
နိသ္သိတော	-11.2037
▁ကမ္မဖလ	-11.2038
▁ဓနံ။	-11.204
ဝိသုဒ္ဓ	-11.204
▁ဝိပ္ပမုတ္တ	-11.2043
▁သစ္ဆိကိရိယာ	-11.2044
ပ္ပတ္တိယာ	-11.2044
▁ဝိညေယ္ယော	-11.2045
သမ္ပဒ	-11.2045
▁မာနသ	-11.2045
▁သစ္စာနံ	-11.2046
▁ဂီဝာ	-11.2046
▁အာဏာပ	-11.2047
▁အပ္ပေဝ	-11.2047
ာရမ္မဏော	-11.2051
▁ဣဒမ	-11.2052
ဝသေနပိ	-11.2052
▁ဖောဋ္ဌဗ္ဗေ	-11.2053
ဗန္ဓု	-11.2053
ူပမံ	-11.2054
▁အထောပိ	-11.2054
▁ပေသေသိ။	-11.2055
▁ဒ္ဝေဓာ	-11.2056
ိသ္သရော	-11.2056
▁ပုညကမ္မေန	-11.2057
ပစ္စယသ္သ	-11.2057
▁နိသဇ္ဇာယ	-11.2058
ဘရိတ	-11.2058
နိပ္ဖတ္တိ	-11.206
▁ဇာနိ	-11.2062
▁ရုစိ	-11.2063
ပဗ္ဗတေ	-11.2066
ဍ္ဍ	-11.2067
▁ဒုလ္လဘော	-11.207
တတ္တာ	-11.2071
ဒေသော	-11.2074
စိတ္တာနံ	-11.2074
▁ကာရဏဘူတ	-11.2076
ာဟီတိ	-11.2078
▁ဈာနင္ဂ	-11.2079
က္ခော	-11.208
မနုသာသ	-11.2081
သုက္က	-11.2081
ဝတိယာ	-11.2082
▁သဗ္ဗတော	-11.2082
စတုန္နဝုတိ	-11.2083
▁ကာသာဝ	-11.2083
▁ဇာတိဇရာမရဏ	-11.2085
▁ကာမဘဝေ	-11.2087
▁နိသီဒာပေတ္ဝာ	-11.2088
▁ဒသ္သိတံ။	-11.2089
ဓာန	-11.209
▁ဥဠာရံ	-11.209
▁ဝိပ္ပကတ	-11.2091
▁အခဏ္ဍ	-11.2091
▁ဣဓာဝုသော	-11.2092
ပိတာ	-11.2094
▁အဂ္ဂိက္ခန္ဓ	-11.2094
▁အရိယပုဂ္ဂလ	-11.2095
နမော	-11.2095
ပစ္စနီက	-11.2095
ဠာရ	-11.2099
▁ဒမ္မိ	-11.2101
▁တဒနု	-11.2102
▁မဟာဝိဟာရ	-11.2103
▁ဒုဗ္ဘိက္ခ	-11.2103
▁ပီတိသဟဂတော	-11.2103
▁ဟတော	-11.2103
ဂုဠ	-11.2106
▁ဝိဝာဒာဓိကရဏံ	-11.2107
▁ဂဏ္ဟိ။	-11.2109
▁အာဝရဏ	-11.211
ကာယသ္သ	-11.2111
▁မိတ	-11.2111
▁ဒုက္ခသစ္စဉ္စ	-11.2114
▁ကရောမီ	-11.2114
▁ရုဟ	-11.2116
ဂာမော	-11.2117
▁သမ္ပဇ္ဇ	-11.2117
▁ကတိပာဟ	-11.2118
ီယံ	-11.2118
▁သမုဋ္ဌာပ	-11.2119
▁သုတ္တေသု	-11.2121
▁စိန္တာ	-11.2123
▁သရီရသ္သ	-11.2123
▁ဝက္ခာမိ	-11.2124
ဘာဝေနာတိ	-11.2125
ာနာဂတ	-11.2125
▁သပရိဝာရ	-11.2125
▁နိက္ခမိ။	-11.2128
▁ဝိလောက	-11.213
ဝဏ္ဏေန	-11.213
ထု	-11.213
▁ဂောတ္ရဘုသ္သ	-11.2131
▁ကာရေတဗ္ဗော	-11.2131
▁မန္ဒော	-11.2132
▁သတ္တရတနသမ္ပန္န	-11.2134
▁အသာတ	-11.2135
▁သဗ္ဗကာမ	-11.2136
▁အာရာမံ	-11.2138
▁ပုစ္ဆိတာ	-11.2141
ပာရုတ	-11.2142
▁မုဒ္ဓ	-11.2142
တာရ	-11.2142
▁အဓိဂစ္ဆ	-11.2142
ဂ္ဂဟဏေ	-11.2145
▁ယကာရ	-11.2146
▁နပ္ပဇာနန္တိ	-11.2147
▁အဂ္ဂိဝေသ္သန	-11.2147
▁အာဟံသု	-11.2152
▁ပဋိပတ္တိံ	-11.2153
▁ဇေတဝနံ	-11.2153
▁ဥပ္ပဇ္ဇန	-11.2156
▁မောက္ခော	-11.2156
နိဒာနာ	-11.2157
▁အနုပ္ပတ္တာ	-11.2158
ဝဟ	-11.216
▁အနုဘဝိတ္ဝာ	-11.2164
▁ဂဏ္ဟိတုံ	-11.2165
▁တေယေဝ	-11.2166
ဣစ္စေဝ	-11.2166
▁ဝိဇ္ဈိတ္ဝာ	-11.2168
▁ကာယစိတ္တ	-11.2168
▁ဧသနာ	-11.2169
က္ခန္ဓာ	-11.217
▁သမာပတ္တိယာ	-11.217
ဗ္ယသန	-11.2171
▁ဝိသေသေတ္ဝာ	-11.2174
▁ရုစ္စ	-11.2174
▁ဝိဓမ	-11.2175
ပာဒော	-11.2175
▁ဣန္ဒ္ရိယန္တိ	-11.2175
တ္ထံ၊	-11.218
▁မဇ္ဈိမံ	-11.2183
▁ပကာသယ	-11.2183
မာသက	-11.2184
ဓူမ	-11.2185
▁နိကာယ	-11.2185
▁ဉာတကေ	-11.2189
က္ရိယ	-11.2191
▁အကာလေ	-11.2193
ာရောပန	-11.2194
▁ကုလပုတ္တာ	-11.2195
ဝာဒိတ	-11.2196
▁ပုဋ	-11.2198
သဒ္ဒတော	-11.2199
၁၉	-11.22
ဘိန္ဒ	-11.2201
▁ဒုဗ္ဘ	-11.2202
▁ဇပ္ပ	-11.2203
▁နာမာနိ	-11.2203
▁လစ္ဆ	-11.2205
▁ကာရယ	-11.2207
▁ဘဝနံ	-11.2211
▁ကာမော	-11.2211
▁ပဋိသ္သုတ္ဝာ	-11.2211
▁အယဉ္ဟေတ္ထ	-11.2211
▁ဝိယာကာသိ	-11.2211
▁အစ္ဆာဒ	-11.2213
ပရိဗ္ဗာဇက	-11.2213
▁ဝိသာလ	-11.2216
ာယု	-11.2218
▁တု။	-11.2219
▁ဉာဏဒသ္သန	-11.2219
▁အဘိနိ	-11.2219
ကမ္မံ။	-11.2219
ဟေတုတော	-11.2219
သန္ဓ	-11.222
▁အပရိယာပန္နာ	-11.2223
▁အစ္စိ	-11.2225
▁ဥဂ္ဂဟိတ	-11.2226
▁သဗ္ဗာဝ	-11.2226
စင္ကမ	-11.2228
▁နိဝေသန	-11.2228
▁ဒေယ္ယဓမ္မ	-11.2229
သေနာ	-11.2229
ိတုကာမာ	-11.2229
▁ဇီဝိတေ	-11.2231
သမ္ပယုတ္တော	-11.2231
▁ဝိဟိတ	-11.2232
▁ကမ္မဇ	-11.2233
▁ပကာသေသိ	-11.2234
ဟုတ	-11.2235
▁ဒုဟေတုက	-11.2235
ဝိဟိတ	-11.2238
▁အသ္သဒ္ဓိယ	-11.2239
▁ကထန	-11.2239
တာဒီဟိ	-11.2245
▁သတ္ထုသာသန	-11.2245
ိန္ဒော	-11.2247
▁ဣန္ဒ္ရိယသံဝရ	-11.2248
▁ဝိညာယတိ။	-11.2251
▁နိဂမန	-11.2254
ဝိဘာဝ	-11.2256
ာဝဟာရ	-11.2257
ုပောသထ	-11.2257
မ္ဟေ	-11.2261
မနောရထ	-11.2262
▁ပဋိဇာနာတိ။	-11.2262
နိဒ္ဒိဋ္ဌ	-11.2263
▁သီမာယ	-11.2266
▁အဂ္ဂိနာ	-11.2267
သ္ယ	-11.2268
ဝတ္ထူ	-11.2268
ကဟာပဏ	-11.2269
▁စရိမ	-11.2271
▁ခီယ	-11.2271
▁တူလ	-11.2272
ဝိသယတ္တာ	-11.2272
▁ပဌမပာရာဇိက	-11.2273
▁ကိသ္မိဉ္စိ	-11.2274
ကူဋံ	-11.2275
▁ဣန္ဒ္ရိယံ။	-11.2275
ပဝာရဏာ	-11.2275
▁နအရူပာဝစရ	-11.2276
▁ကာမူပသံဟိတာ	-11.2277
▁အညာတိကာယ	-11.2277
▁အပဏ္ဏက	-11.2278
ပူတိ	-11.2279
▁အဋ္ဌက	-11.228
သင္ခာတာနံ	-11.228
▁ဝိဗ္ဘမ	-11.228
▁မဟပ္ဖလံ	-11.2282
▁သမုဒာစရ	-11.2282
ဒိနာ	-11.2282
ဧသော	-11.2282
ယသ	-11.2284
သမန္နာဂတံ	-11.2287
▁အန္တလိက္ခေ	-11.2288
▁သာဓန	-11.2289
▁ကတကိစ္စ	-11.229
▁နိမ္မိတ	-11.2291
▁ဝုတ္တနယတ္တာ	-11.2293
▁အနာဂတာရမ္မဏ	-11.2293
▁ဗ္ရဟ္မစရိယဝာသော	-11.2295
ာဒိဘာဝ	-11.2295
▁ပဇဟန္တော	-11.2296
ပစ္စယေန	-11.2297
▁ခန္တိံ	-11.2297
▁ဝန္ဒေ	-11.2298
ဂုဏေန	-11.2299
▁ဝိသာခာ	-11.23
ောကာသံ	-11.2302
▁နိမ္မ	-11.2303
သမ္ဘ	-11.2303
▁သာသပ	-11.2304
▁ဧကေကသ္သ	-11.2304
▁သတ္တမော	-11.2306
▁တာဒိသသ္သ	-11.2308
▁ဖောဋ္ဌဗ္ဗံ	-11.2308
ပက္ခိက	-11.231
▁ပဗ္ဗဇ္ဇာယ	-11.2311
▁ပာပကော	-11.2311
▁မဟဂ္ဂတံ	-11.2311
ကမ္မန္တိ	-11.2312
▁ပေမံ	-11.2313
▁သင္ခတံ	-11.2315
▁ဘုဉ္ဇိတဗ္ဗ	-11.2316
▁မရဏေန	-11.2317
နဝုတိ	-11.2317
ပထော	-11.2318
▁သမ္ပဇ္ဇတိ	-11.2318
ာသိ၊	-11.2318
▁ပုညေန	-11.2319
▁ဧကာဒသမ	-11.2319
▁ကိတ	-11.2322
ဝိနီတ	-11.2323
▁ဗဟုဝိဓ	-11.2324
▁နဂရသ္သ	-11.2325
▁ဝဝတ္ထိတ	-11.2325
က္ကောသ	-11.2326
▁အဓိပ္ပေတံ	-11.2327
▁ဘိ	-11.2329
▁တသ္မာတိဟ	-11.2329
က္ခမ	-11.2329
ဒ္ဝေမေ	-11.233
ခီရ	-11.233
▁ဗ္ယာကာသိ	-11.233
▁ပရဒာရ	-11.2332
▁ရိ	-11.2333
သံဝဏ္ဏနာယ	-11.2333
▁သံသန္ဒ	-11.2335
▁ကာယာ	-11.2336
▁အဂ	-11.2336
ာမာ	-11.2339
▁ဝတ္တဗ္ဗေ။	-11.2339
ကောလာဟလ	-11.234
▁ခာဒတိ	-11.2341
▁ပဉ္စဝောကာရံ	-11.2342
▁တသ္မိဉ္စ	-11.2343
▁ရုပ္ပန	-11.2344
ဝိသင္ကေတ	-11.2346
▁မဟတီ	-11.2346
▁ဣတရထာ	-11.2346
တုကာမော	-11.2349
▁အဟူ	-11.235
ဝာစိ	-11.2352
▁ဘာဝနံ	-11.2352
▁သ္မာ	-11.2353
▁ဒောဏ	-11.2354
▁သဒ္ဒာယတနံ	-11.2354
▁ဇာတရူပ	-11.2355
သဉ္ဆန္န	-11.2357
▁ဂဒ္ရဘ	-11.2357
▁ပတ္ထနာယ	-11.2358
▁ဧကဝီသတိ	-11.236
▁ပစိတ္ဝာ	-11.2362
မတ္တန္တိ	-11.2363
▁ဒာဌ	-11.2363
ဆက္က	-11.2363
▁သတိ။	-11.2363
▁ဝသ္သေ	-11.2364
▁ဝိန္ဒတိ	-11.2364
▁ပရိယောသာနေ	-11.2365
▁စရိတ	-11.2366
▁မောဟာ	-11.2366
▁သမ္မာသမ္ဗောဓိံ	-11.2366
▁ဒသ္သေသိ	-11.2368
ပာဒာ	-11.2368
▁သတီ	-11.2369
ရေတိ	-11.237
▁သုဏန္တိ	-11.2371
▁အဂမံသု။	-11.2371
▁မရဏသ္သ	-11.2374
ကာရဏံ။	-11.2375
▁ဝတ္တဗ္ဗမေဝ	-11.2375
▁နိစ္စလ	-11.2378
▁ဥပာသကံ	-11.2378
▁မိစ္ဆာ။	-11.238
▁အနုရက္ခ	-11.2381
▁ပဝာရဏံ	-11.2384
▁သမိဒ္ဓိ	-11.2384
▁ဒ္ဝ	-11.2385
▁ခဏိက	-11.2385
မိစ္စ	-11.2386
ဝသံ	-11.2387
▁အာဇီဝက	-11.2387
ကာနန	-11.2388
ာဒီသု။	-11.2389
▁အတ္တာတိ	-11.239
▁ဥပဋ္ဌာကော	-11.239
▁သုဒသ္သန	-11.2392
▁နာမိကပဒမာလာ	-11.2394
ဗဟူ	-11.2395
အတိ	-11.2396
▁ခီယတိ	-11.2397
ုပ္ပလ	-11.2398
▁ကမ္မဝိပာက	-11.24
▁ဝိဟရန္တိ။	-11.2401
▁ဗ္ယတ္တေန	-11.2402
ရာမော	-11.2403
▁ယာယံ	-11.2403
▁ကာရဏေ	-11.2405
▁ပစ္စနီယုဒ္ဓာရော	-11.2406
▁နေသာဒ	-11.2406
▁ဝမ္မိက	-11.2406
▁အာဝ	-11.2407
▁မိစ္ဆာဇီဝ	-11.2407
▁ဂန္ဓာယတနံ	-11.2407
▁ပထဝီကသိဏ	-11.2411
▁ဝိညာပေတိ	-11.2413
▁သလ	-11.2413
ဝိသယာ	-11.2413
ံသု။	-11.2416
▁အပ္ပတ္ဝာ	-11.2416
▁ဟေသ	-11.2417
▁နာနာကရဏံ	-11.2418
▁ဧကဓမ္မ	-11.2418
▁ဝတ္တတေ	-11.2422
▁ဥတ္တာနတ္ထ	-11.2422
▁ဘောဇနာနိ	-11.2422
▁က္ယ	-11.2423
နာသိက	-11.2423
▁အပဒာနံ။	-11.2423
▁ပဒဋ္ဌာနံ	-11.2424
▁ဝစနတ္ထံ	-11.2425
သမန္နာဂတ	-11.2426
ဝာဏိဇ	-11.2427
အန္တ	-11.2427
▁ပရာမာသသမ္ပယုတ္တ	-11.2427
▁ကောဋ္ဌာသော	-11.2428
▁ဒယာ	-11.2429
▁တ္ဝဉ္စ	-11.2429
▁သုဘံ	-11.243
▁ဒာတု	-11.243
▁အာကောဋ	-11.2431
▁ဒုဒ္ဒသ	-11.2434
▁ဂဗ္ဘံ	-11.2434
▁ဒုပ္ပညော	-11.2438
ဝိတာန	-11.2439
▁သက္ကရ	-11.244
ဝသ္သော	-11.2441
လောပေ	-11.2441
▁သဟဇာတပစ္စယာ	-11.2441
▁ဘေ	-11.2443
ပဘေဒ	-11.2446
တ္တရ	-11.2448
ရောစ	-11.245
▁သက္ခရ	-11.2452
▁အဒသ္သန	-11.2454
▁မနောကမ္မံ	-11.2456
▁အာကာသဓာတု	-11.2461
▁အဝိပ္ပဋိသာရ	-11.2462
ဂာမိနော	-11.2463
ဋ္ဌကထာယ	-11.2463
▁တိစီဝရ	-11.2463
င္ဂာနိ	-11.2463
▁သမ္မုခာဝိနယော	-11.2464
ပန္န	-11.2465
ဗ္ယာဓိ	-11.2465
စ္ဆာဒန	-11.2466
ဂာမကေ	-11.2468
ဘာသာယ	-11.2471
အန္တရ	-11.2471
▁ကစ္စာယန	-11.2472
▁အသမ္ဘိန္န	-11.2472
▁နအနာသဝ	-11.2472
▁မဟာသုဒသ္သန	-11.2472
▁သဏ္ဌာတိ	-11.2472
▁အနာဝိလ	-11.2472
▁အနုလောမံ။	-11.2474
▁ဒ္ဝိက္ခတ္တုံ	-11.2474
မာဒာယ၊	-11.2474
ဒေဝီ	-11.2475
▁ဓိတိ	-11.2476
▁အရူပသညီ	-11.2476
ပစ္ဆိမစိတ္တသ္သ	-11.2477
▁သံဝတ္တတီ	-11.2477
▁အလဇ္ဇီ	-11.2477
▁ပရိဂ္ဂဟော	-11.2478
▁မဟာသမုဒ္ဒော	-11.2478
▁သန္တိဋ္ဌတိ	-11.248
▁သသ္သတဒိဋ္ဌိ	-11.248
▁ဝဂ္ဂု	-11.2481
▁ပနေတ	-11.2482
▁ဇာနိတုံ	-11.2484
▁ယာစိ	-11.2484
▁လဒ္ဓနာမ	-11.2485
▁ဒိဋ္ဌေန	-11.2486
▁အရဟတီတိ	-11.2488
▁ဒီပေန္တော	-11.249
▁အာရောစေတဗ္ဗ	-11.249
ပာရိသုဒ္ဓိ	-11.2491
မောစန	-11.2492
▁ဩဒနံ	-11.2495
ဇ္ဇု	-11.2496
▁မုတ	-11.2496
▁အာဂ	-11.2497
သူရ	-11.2497
နဒီ	-11.2498
▁သဒိသာ	-11.2499
▁ဥက္ခိတ္တက	-11.2499
▁အာရောစေတိ	-11.2501
▁မဂ္ဂင္ဂံ	-11.2502
ဒဗ္ဗ	-11.2502
▁ဝိညာဏန္တိ	-11.2502
▁နိက္ခမတိ	-11.2504
▁ပာရာဇိကံ။	-11.2504
ောကာသော	-11.2505
သ္သု၊	-11.2506
▁မဓုရံ	-11.2506
▁သေတု	-11.2507
ပုရိသာ	-11.2508
ိတ္ထိယာ	-11.251
▁နာရဒ	-11.2511
▁ပုဗ္ဗန္တ	-11.2513
▁ကိလ	-11.2514
▁ဝာတေန	-11.2515
▁လောကော၊	-11.2516
▁ဗာဟုသစ္စ	-11.2516
▁မညန္တိ	-11.2516
▁မဟာနိသံသ	-11.2518
▁ပတိတံ	-11.2519
ပ္ပသန္န	-11.252
▁ပာတိ	-11.252
ဝရေ	-11.252
▁ပသု	-11.2522
▁ပစ္ဆိမသ္သ	-11.2522
အနန္တရ	-11.2523
▁ဝိရောဓ	-11.2523
စမ္မံ	-11.2524
▁သမာဓိနာ	-11.2525
မိဒ	-11.2528
▁သက္ကုဏေယ္ယ	-11.2528
▁ပတ္တဗ္ဗ	-11.2528
▁ပရိက္ခာရော	-11.2528
ကိရိယံ	-11.2528
▁ဣသ္သရိယံ	-11.2529
▁သတ္ထာရ	-11.2529
▁သာမညဖလ	-11.253
▁စိတ္တေကဂ္ဂတာ	-11.2531
▁အရိယာယ	-11.2531
▁သဗ္ဗဉ္စ	-11.2533
▁ဂဏ္ဟိ	-11.2535
▁ဘဝန္တီတိ	-11.2536
▁ဆေကော	-11.2536
▁ဓာရေန္တ	-11.2537
▁ကလဟံ	-11.2538
▁ကာမဘောဂီ	-11.2538
▁မုယ္ဟ	-11.2538
▁ကာယသုစရိတ	-11.2538
▁ဗန္ဓနာ	-11.2539
▁ပဋိဘာနပဋိသမ္ဘိဒ	-11.254
▁အနနုသ္သုတေသု	-11.254
▁ပဒေသံ	-11.254
▁ပဝိဝိတ္တ	-11.2541
မုဂ္ဂ	-11.2542
▁ဂဟဏံ။	-11.2542
▁ယမဟံ	-11.2544
▁ပာရာဇိကာ	-11.2545
▁ဆန္နော	-11.2545
▁သ္ဝ	-11.2546
▁ဥဒ္ဒ	-11.2547
▁ဝေသ္သန္တရော	-11.2547
▁ခယေ	-11.2547
▁ယထာသမ္ဘဝံ	-11.2548
▁သုခိတာ	-11.2549
န္တေ၊	-11.2549
▁ဘဝိသ္သာမီ	-11.2549
▁ကရဏီယာ။	-11.255
ဣစ္စာဒိနာ	-11.255
▁ဂေဟသိတ	-11.2551
▁ဝိနာပိ	-11.2551
▁ကရိသ္သန္တိ	-11.2551
▁နုတ္ထ	-11.2555
▁တုဋ္ဌိ	-11.2555
▁စာဟံ	-11.2556
မဟဂ္ဂတ	-11.2559
▁ရူပာရမ္မဏံ	-11.2561
▁ဧဝရူပသ္သ	-11.2561
တုမ္ဟာကံ	-11.2562
▁ပရိညေယ္ယ	-11.2563
▁ဣစ္ဆန္တိ	-11.2563
▁လိင္ဂံ	-11.2564
▁ဝာဟ	-11.2564
ဝိသေသေ	-11.2568
ဝိနိဗန္ဓ	-11.2569
▁အဘိသမယော	-11.2569
▁ပဝာရဏ	-11.257
▁သဗ္ဗဓမ္မ	-11.257
▁ကထန္တိ	-11.2571
လောလ	-11.2572
ဒာယိကာ	-11.2573
သန္တောသ	-11.2573
၁၅	-11.2575
▁အာဟာရသမုဋ္ဌာနံ။	-11.2575
ဒောသာ	-11.2577
▁ဥရဂ	-11.2578
ဉာဏသ္သ	-11.2582
▁အပရံ	-11.2582
▁မဇ္ဈိမာ	-11.2588
တေဇ	-11.2589
▁ဝိစိကိစ္ဆာသဟဂတံ	-11.2591
သရူပ	-11.2595
ေသ္သတီ	-11.2596
▁ပိတ္တ	-11.2597
▁ဒုက္ခဝိပာက	-11.2598
သတ္ထု	-11.2598
ပဋိညံ	-11.2599
သိခာ	-11.26
▁ပီတိသဟဂတာ	-11.26
▁ဝီတိနာမ	-11.2601
ာဘာဝတော။	-11.2601
သမညာ	-11.2603
▁မောဃ	-11.2604
▁ပသ္သာမီ	-11.2605
▁အညထတ္တံ	-11.2605
ပ္ပဋိသံဝေဒီ	-11.2605
▁ဝဏ္ဏာ	-11.2607
▁ဓောဝန	-11.2607
သညိသ္သ	-11.2607
ပ္ပယောဇန	-11.2608
▁ဗာဟိရံ။	-11.2608
ပ္ပယောဂော	-11.2609
▁ပိယရူပံ	-11.2612
▁ပဝတ္တိတံ	-11.2613
▁ပတိဋ္ဌဟိ။	-11.2614
▁ဘဂဝန္တ	-11.2616
ကိလေသော	-11.2617
▁ဇာနိတဗ္ဗ	-11.262
▁ဘယာ	-11.262
▁ဥဒယဗ္ဗယ	-11.262
သမ္မတော	-11.2621
ဝဝတ္ထာန	-11.2623
ကူပ	-11.2624
▁ဟောတူတိ	-11.2625
သ္သရော	-11.2626
ာဒီနိပိ	-11.2626
ထ၊	-11.2627
▁ဂန္ဓမာလ	-11.2627
ကဝာဋ	-11.2628
▁ဓာရေတု	-11.2629
ပ္ပဝေသန	-11.2629
▁ဝုတ္တလက္ခဏ	-11.2631
▁ဥဏ္ဏ	-11.2631
▁ဝိသ္သဇ္ဇေတိ	-11.2633
▁မလံ	-11.2634
▁ကောသလော	-11.2635
ဝိနိစ္ဆယော	-11.2635
▁ကာရေတိ	-11.2635
▁ပရာမာသော	-11.2635
စရိယာယ	-11.2637
▁အက္ခာတ	-11.2637
▁သမောဓာန	-11.264
▁ပတိရူပံ	-11.2642
ဝိရတိ	-11.2642
▁နဝတ္တဗ္ဗ	-11.2642
နဝိပာကဓမ္မဓမ္မံ	-11.2644
▁ဂဟေတဗ္ဗော	-11.2645
▁ဒေသယ	-11.2646
▁ဂဏော	-11.2648
▁ဧကာဗဒ္ဓ	-11.2649
▁အာဂတံ။	-11.265
စန္ဒန	-11.265
သူကရ	-11.265
▁ပဂ္ဂဟေတ္ဝာ	-11.2651
▁ဝတာယံ	-11.2652
▁နိဗ္ဗိဒာယ	-11.2655
ဧကော	-11.2656
▁ဖာသုက	-11.2656
▁နပ္ပဋိ	-11.2657
နိဗ္ဗုတ	-11.2657
▁အန္တရာယော	-11.2658
သက္ကော	-11.2658
▁အာဘတ	-11.2658
▁အမောဟ	-11.2659
▁နယောတိ	-11.2661
▁အဘိဟရ	-11.2663
သမတ္ထတာ	-11.2663
ဇည	-11.2664
▁စတုဗ္ဗိဓာ	-11.2664
▁ကာရယိ	-11.2665
▁အဂ္ဂီ	-11.2666
▁ဂတ္တ	-11.2668
ပတ္တာ	-11.2671
▁သမောဓာနပရိဝာသ	-11.2672
▁အဘိဘူ	-11.2672
▁နိမန္တိတော	-11.2672
▁ကာမစ္ဆန္ဒ	-11.2672
▁စိတ္တသဟဘု	-11.2672
▁အရုဏုဂ္ဂမန	-11.2674
▁အတိသယ	-11.2674
▁ဥပဋ္ဌပေတ္ဝာ	-11.2674
▁တိဋ္ဌန္တ	-11.2674
ယန္တီ	-11.2675
▁ရတာ	-11.2675
▁ပစ္စဝေက္ခမာနော	-11.2675
ဝိဇယ	-11.2676
ကုလပုတ္တ	-11.2676
▁အကာရဏ	-11.2676
▁အဘူတံ	-11.2676
▁ပဋိဗလေန	-11.2679
ဘဝော	-11.2679
ဝိကလ	-11.2679
▁ပဋ္ဌပေတ္ဝာ	-11.2679
▁နသဟဇာတေ	-11.268
ဒိသာယ	-11.2686
▁နိရုဒ္ဓေ	-11.2687
ာဒိဘေဒေ	-11.2688
▁ပရိသ္သယ	-11.2688
▁သမယာ	-11.2689
▁အနုပာဒာ	-11.2689
▁ဝိပ္ပသန္နေန	-11.269
▁ဗော	-11.2692
▁နိဗ္ဗုတ	-11.2692
ဒန္တိ	-11.2692
▁ယာစက	-11.2693
▁သိတ	-11.2694
▁ဂုဟ	-11.2694
▁အနတ္ထံ	-11.2695
▁နိက္ခေပ	-11.2697
▁ဝိဓာန	-11.2697
▁ဒ္ဝီဟ	-11.2697
ာကိဏ္ဏ	-11.2698
▁ဝုတ္ထ	-11.2701
▁ပရိဝာရိတော	-11.2703
▁ဝိဝိဓာ	-11.2703
▁အဂ္ဂဖလ	-11.2704
▁ဒာယ	-11.2704
ဂယ္ဟ	-11.2704
ယဋ္ဌိ	-11.2704
ဒီပနာ	-11.2705
ဘံ	-11.2707
▁ထီ	-11.2708
စ္ဆိဇ္ဇ	-11.2709
နိရုတ္တိ	-11.271
▁သမနုဘာသ	-11.2711
ဗလဝ	-11.2711
▁ဘယတော	-11.2711
ဉ္ဇလိ	-11.2714
▁ဟောမိ၊	-11.2715
▁အနောကာသ	-11.2716
အဂ္ဂဋ္ဌာနေ	-11.2718
▁ဟရန္တိ	-11.2718
▁ဥပာဒာရူပ	-11.2718
ဝာရဏ	-11.2719
▁သီဟသ္သ	-11.272
▁ဓုတ္တ	-11.272
တပ္ပ	-11.2721
▁မာနုသက	-11.2722
▁သမုဂ္ဃာတ	-11.2723
▁နိယ္ယာတိ	-11.2724
▁ပာပိမ	-11.2724
မနသိကာရော	-11.2725
လောပော။	-11.2727
▁သံသယော	-11.2727
▁ဥဒ္ဓစ္စသဟဂတံ	-11.2728
▁ဇေဂုစ္ဆ	-11.2728
▁ယမ္ဟိ	-11.2729
▁သာမဏေရသ္သ	-11.2729
ဝာဒေန	-11.2731
▁ဘာသေယ္ယ	-11.2731
▁ဝိဇ္ဇမာနေ	-11.2731
▁ဓမ္မိကံ	-11.2731
▁သုန္ဒရံ	-11.2732
မူလာ	-11.2733
▁ဝိက္ကိဏ	-11.2733
▁အဇ္ဈောဟရ	-11.2734
▁အသာရ	-11.2735
▁ဝိတက္ကေ	-11.2735
▁ဝိဘူတံ	-11.2736
ပရိဝတ္တန	-11.2736
▁သမ္မာဒိဋ္ဌိယာ	-11.2737
ပဝိဋ္ဌ	-11.2737
မယိ	-11.2738
▁ဥပနေ	-11.2738
သေလ	-11.2739
လင္ကာရ	-11.2739
▁ဥဘတောဘာဂဝိမုတ္တ	-11.2739
▁ပာပုဏိံသူတိ။	-11.2739
▁ဥပဒ္ဒုတ	-11.2739
မဉ္ဇ	-11.274
▁ဒသမံ	-11.274
▁နာနု	-11.2741
▁ယာဒိသာ	-11.2742
▁ယောဇေတဗ္ဗ	-11.2743
ိတ္ထိ	-11.2746
ာဒိဂုဏ	-11.275
ခတ္တိယ	-11.2751
▁အတီတော	-11.2753
န္တသ္သာပိ	-11.2753
▁ဂေဓ	-11.2755
ယ္ယော	-11.276
▁မစ္ဆရိယံ	-11.276
သံဝစ္ဆရ	-11.2761
▁ဝနသဏ္ဍေ	-11.2761
▁နိသ္သာရ	-11.2762
▁အဂာရဝော	-11.2764
▁ယုဝာ	-11.2764
ပဋိသမ္ဘိဒ	-11.2767
▁ဂာမသ္သ	-11.2768
▁ပရိဝဇ္ဇယ	-11.2768
▁ဖုဋ	-11.2772
▁ပိတာမဟ	-11.2773
▁ရူပဓမ္မ	-11.2774
▁အနုသေတိ။	-11.2776
စိတ္တသမုဋ္ဌာန	-11.278
▁အာဃာတော	-11.278
▁သံဝိဒဟ	-11.2782
▁လသုဏ	-11.2783
▁စက္ခာဒိ	-11.2785
▁သန္ထရ	-11.2785
တ္တီ	-11.2785
ဘက္ခော	-11.2786
▁ဝိက္ခမ္ဘိတ	-11.2788
▁ဗုဓ	-11.2789
▁ဝစနေ	-11.2789
▁ဝိတ္တ	-11.279
▁သမာဂတာ	-11.279
▁ကင္ခံ	-11.279
▁သေယ္ယော၊	-11.2791
▁နပုံသကလိင္ဂ	-11.2792
▁အာဒီနဝဉ္စ	-11.2792
ပောတက	-11.2792
▁သောတေန	-11.2793
▁ပဏိဓိ	-11.2794
▁အန္တရဓာယ	-11.2798
ဗ္ယတ္တ	-11.2801
▁ပရိဟာယ	-11.2801
▁အာဒီနဝာ	-11.2804
ဥပနိသ္သယ	-11.2804
▁ပာဋိဟာရိယံ	-11.2805
▁ဗလေန	-11.2805
သုက္ကဝိသ္သဋ္ဌိယာ	-11.2806
▁အနဝကာသော	-11.2807
▁အပစယဂာမီ	-11.2807
▁မဟီပတိ။	-11.2807
▁ယုဂနဒ္ဓ	-11.2807
▁ဃမ္မ	-11.2808
ဣမ	-11.2808
▁ဝက္ခာမ	-11.281
▁ဒေသနာပရိယောသာနေ	-11.281
▁ပစ္စုပ္ပန္နာ	-11.281
ုဂ္ဂတ	-11.2811
ယုံ	-11.2812
▁ပုစ္ဆာယ	-11.2812
▁ဝုတ္တမတ္ထံ	-11.2813
▁ဘိန္နာ	-11.2813
ပုတ္တံ	-11.2816
▁သစ္ဆိကရောတိ	-11.2817
▁ဌိတာ။	-11.2817
▁ပရိဝာရေ	-11.2818
▁ပဋိလဘတိ။	-11.2818
ဗ္ရဟ္မာ	-11.2819
▁ဒီပယ	-11.282
▁ဒသ္သာမိ	-11.2821
ဗောဇ္ဈင္ဂ	-11.2822
▁ဝတ္တဗ္ဗတံ	-11.2822
ပဉ္ဟာ	-11.2823
ဝိဂတ	-11.2823
ာဘိဓာန	-11.2823
ဘာဇနံ	-11.2825
▁ဧကရသ	-11.2826
▁ပရိပူရေန္တိ	-11.2826
▁ကဒ္ဒမ	-11.2827
ဘရ	-11.2828
ဒ္ဝယံ။	-11.2829
▁ပကာသန	-11.283
ကစ္စ	-11.283
ဣတိပိ	-11.283
▁အဇ္ဇေဝ	-11.2831
▁နိသီဒိတ္ဝာ၊	-11.2836
▁သဃာနကာန	-11.2838
▁မာတရ	-11.2839
▁ရုဒ	-11.284
ဂင္ဂ	-11.284
▁ဇာနတာ	-11.2841
▁မဟာဝုတ္တိ	-11.2842
▁ဘဝပစ္စယာ	-11.2844
သိက္ခာ	-11.2845
▁ဘာဂော	-11.2846
▁ပဋိဝိရတာ	-11.2846
▁မိဂော	-11.2846
▁ဧဠက	-11.2847
▁ကုမာရံ	-11.2849
ဝိသေသာ	-11.285
အဋ္ဌာနမေတံ	-11.2851
စယ	-11.2851
စလ	-11.2851
▁နဘ	-11.2852
▁အနိစ္စာနုပသ္သနာ	-11.2852
ပိဏ္ဍံ	-11.2853
▁သီတံ	-11.2853
ကုဋိက	-11.2855
▁ဂာထာသု	-11.2856
ပရိဘောဂေန	-11.2857
▁အာစိက္ခိတဗ္ဗ	-11.2857
သာရံ	-11.2858
▁အာသာ	-11.2858
▁ဇနပဒေသု	-11.2858
ရောပိတ	-11.286
▁အညတော	-11.286
ဋ္ဌီနိ	-11.2861
▁ဝယပ္ပတ္တော	-11.2861
ယေဝာတိ။	-11.2861
နသီလော	-11.2861
ဉ္စေတံ	-11.2862
▁သင္ဂယ္ဟ	-11.2862
ဒာရ	-11.2864
▁သမ္ပတိ	-11.2866
▁ဝိရဇ္ဇတိ	-11.2867
နာယက	-11.2867
▁ဥဏ္ဟံ	-11.2868
▁ဝိက္ခမ္ဘန	-11.2869
အနန္တ	-11.2871
▁ပဏ္ဏာသ	-11.2871
ဝစနတော	-11.2871
▁ကပ္ပသတသဟသ္သ	-11.2873
▁ကရိသ္သာမာ	-11.2873
▁ဥပမံ	-11.2875
▁နန္ဒော	-11.2876
▁မဟေသက္ခ	-11.2876
▁နအာသေဝနပစ္စယာ	-11.2876
▁အလဘန္တော	-11.2876
▁သမ္ပဒာ	-11.2876
▁ပာသံသော	-11.2876
ရုက္ခေ	-11.2877
▁စိတ္တသ္သေကဂ္ဂတာ	-11.2878
▁ဝတ္ထုပုရေဇာတံ	-11.2879
▁နာသက္ခိ	-11.288
▁အသ္သမေ	-11.288
▁ဂဝံ	-11.288
▁ဝတ္တာ	-11.2881
▁ပဏ္ဍိတေဟိ	-11.2881
ဍိ	-11.2882
ဂဗ္ဘော	-11.2882
▁အရုဏ	-11.2883
▁ပဒုဋ္ဌ	-11.2883
▁ဩဘာသော	-11.2883
▁ပရိက္ခယံ	-11.2884
▁ဥပနီတ	-11.2884
▁အနညထ	-11.2884
သေခ	-11.2884
▁မနုသ္သဘူတော	-11.2885
▁အမ္ဟ	-11.2885
▁အာယတနေဟိ	-11.2885
▁ပရာဇယော	-11.2885
သမ္ဖသ္သော	-11.2886
▁အဘိသင္ခတ	-11.289
▁ဘေသဇ္ဇာနိ	-11.2891
ရူပာနံ	-11.2891
▁မတ္တာ	-11.2892
▁အရဟတံ	-11.2892
▁သကဒာဂာမိမဂ္ဂ	-11.2894
▁ပုရိသော၊	-11.2894
▁အာမန္တ	-11.2895
▁ဝိဗ္ဘန္တ	-11.2895
ကိဉ္စ	-11.2896
သန္တော	-11.2896
▁အဋ္ဌာရသဟိ	-11.2897
▁သဘိက္ခုကာ	-11.2897
▁ဗုဒ္ဓဂုဏ	-11.2897
▁ဥပဝဒ	-11.2898
▁တုသ္သ	-11.2899
▁ပာရမီ	-11.29
ဇာယ	-11.29
▁ဝေဟာသံ	-11.29
▁သုဒ္ဓော	-11.2901
▁ဂိလာနာ	-11.2901
▁သုဏန္တော	-11.2901
▁ပဋိစ္ဆာဒေ	-11.2901
▁ဆဒန	-11.2902
ဧတဒဂ္ဂံ	-11.2902
▁အက္ခာတာ	-11.2903
▁မုဒုက	-11.2903
နိဝတ္တိ	-11.2904
▁အာရာမိက	-11.2904
▁အပရိက္ခိတ္တ	-11.2905
▁အာဝာဋ	-11.2906
သန္ထရ	-11.2906
▁သဗ္ဗလောကေ	-11.2906
▁အဘိဘူတ	-11.2906
▁ဥပဂတာ	-11.2907
▁ဓုရနိက္ခေပ	-11.2908
▁ဥစ္ဆေဒဒိဋ္ဌိ	-11.2908
ဒောမနသ္သုပာယာသာ	-11.291
▁ဝသ္သူပနာယိက	-11.2911
မေတန္တိ	-11.2912
▁ဍ	-11.2913
ဂ္ဂဟဏေနေဝ	-11.2913
သမ္မတာ	-11.2913
▁ဓမ္မိကော	-11.2915
ကသာဝ	-11.2919
ဝိနိဗ္ဘောဂ	-11.2921
▁အဓိဋ္ဌဟ	-11.2921
▁ဝိနယကမ္မ	-11.2922
▁ဂဏံ	-11.2922
▁ဧကဒိဝသ	-11.2924
▁နရက	-11.2924
ပာရိပူရိ	-11.2924
▁ကာသ	-11.2924
▁ဩတ္တပ္ပံ	-11.2925
ကိသ္သ	-11.2926
နဝက	-11.2927
ိမ္ဟာ	-11.2927
▁တာဒိသာ	-11.2928
▁ဥပာဒာနိယ	-11.2928
ကုတော	-11.2929
▁စေသ	-11.2929
တ္တိံသ	-11.2929
▁ဝဂ္ဂော။	-11.2929
ပစ္ဆာ	-11.293
▁ယောဂာဝစရော	-11.2931
ိမ္ဟိ	-11.2933
▁ဆိန္ဒတိ	-11.2934
▁ဇဋ	-11.2934
မေကံ	-11.2935
▁ဥက္ကဏ္ဌ	-11.2936
▁ကလ္လ	-11.2937
ဂဏ္ဍ	-11.2938
ဒ္ဓာ	-11.2941
▁သုဇာတော	-11.2941
ာဘိရတ	-11.2942
▁ပဋိသန္ထာရ	-11.2943
▁ယာဂုံ	-11.2943
▁ခုဇ္ဇ	-11.2944
ပယောဂေ	-11.2945
▁တဒဟုပောသထေ	-11.2945
▁မိထိလ	-11.2945
▁မနသိကရောန္တော	-11.2945
▁မုဋ္ဌသ္သတိ	-11.2945
ဝိဇ္ဈ	-11.2945
▁နာဂရာဇ	-11.2946
သဒ	-11.2946
▁အာဘသ္သရ	-11.2947
▁ကာယိန္ဒ္ရိယံ	-11.2947
▁သန္နဒ္ဓ	-11.2948
▁ရံသိ	-11.2948
ပရိယာဒာန	-11.2949
▁နဟာန	-11.2949
▁အသမ္ပတ္တ	-11.2951
▁ဒ္ဝာဒသမ	-11.2952
▁နိဗ္ဗာနဓာတုယာ	-11.2952
▁ဆဍ္ဍေ	-11.2952
မဇ္ဈဂ	-11.2953
▁ဂိရ	-11.2953
▁ကုသလာဗ္ယာကတ	-11.2954
▁အဘိဘူတော	-11.2956
▁ဝာလ	-11.2957
ပဌမံ	-11.2957
▁ပိဋကတ္တယ	-11.2959
ပုရေက္ခာရ	-11.2959
ာဒိဘာဝော	-11.296
▁ပရိယုဋ္ဌာန	-11.296
ဟာသ	-11.2961
▁ရသ္သတ္တံ	-11.2961
ပရာယဏော	-11.2961
▁နိသီဒိတုံ	-11.2962
▁အနုမာန	-11.2962
ဥပေက္ခာ	-11.2965
▁အဇ္ဇတဂ္ဂေ	-11.2968
ိယောတိ	-11.2969
▁နိသ္သဇ္ဇ	-11.297
▁စတုတ္ထသ္သ	-11.2971
▁ဣဋ္ဌက	-11.2971
▁ယက္ခာ	-11.2972
စတူဟိ	-11.2973
▁ဝိသုဒ္ဓိယာ	-11.2973
▁မဟတ္တ	-11.2974
▁ပစ္စေသ္သ	-11.2975
ဂဏနာ	-11.2975
ကောသလ္လ	-11.2975
▁ဂောစရံ	-11.2975
သင္ဂာဟက	-11.2976
နိသ္သယေ	-11.2976
▁မဟာကသ္သပော	-11.2978
▁ဥပာဒာနာ	-11.2978
▁လောကဓာတု	-11.2978
▁ပဋိလဘတိ	-11.2978
▁အလတ္ထ	-11.298
▁ဒ္ဝာဝီသတိ	-11.2981
လောကိယ	-11.2983
မ္ဟသေ	-11.2984
▁တပ္ပစ္စယာ	-11.2984
ပရိယာပန္နော	-11.2984
▁အဘိသမ္ဗုဒ္ဓ	-11.2985
▁တလ	-11.2985
▁ပာဋိဟာရိယ	-11.2986
ဂဟ	-11.2986
▁အဝဓာရဏ	-11.299
မိတ	-11.299
ကရုဏာ	-11.299
▁ဘဇန္တိ	-11.2991
▁ပဌမမေဝ	-11.2992
▁ဝိရာဇ	-11.2992
▁အဋ္ဌင္ဂုလ	-11.2993
သီတိ။	-11.2995
▁ဥပဓာရ	-11.2996
▁သံဝသ	-11.2996
▁စိတ္တံ၊	-11.2996
ဂာမိနိံ	-11.2997
▁အသက္ကောန္တာ	-11.2998
သမ္ပတ္တ	-11.2999
▁ပုဏ္ဍရီက	-11.3
▁ပဇဟထ	-11.3001
▁သာဓူတိ	-11.3001
▁အကာမ	-11.3002
▁ရတ္တိယော	-11.3003
▁မဟေသီ	-11.3004
▁သရံ	-11.3005
ဓိဂမ	-11.3005
▁နိဝေဒ	-11.3005
▁ဘဝေယ္ယုံ	-11.3006
▁ကရိသ္သတိ။	-11.3008
▁အနာဂာမိသ္သ	-11.3008
▁ဧထ	-11.3009
▁ကိမိ	-11.301
▁ဝတ္ထုပုရေဇာတံ။	-11.301
▁အရောဂ	-11.3011
▁နာမရူပသ္သ	-11.3014
ဘူတာနိ	-11.3014
▁အတ္ထတကထိန	-11.3014
▁အာဟိဏ္ဍ	-11.3014
င္ကော	-11.3017
▁အရိယဝံသ	-11.3019
▁ဣဒ္ဓိပာဒံ	-11.302
သယံ	-11.3022
ရူပက	-11.3023
စ္စေဝ	-11.3023
▁သံဝိဘာဂ	-11.3024
▁အနိယတာ	-11.3024
ရီတိ	-11.3026
▁သံသဋ္ဌ	-11.3028
ာဘရဏ	-11.3029
▁သဗ္ဗာ၊	-11.3031
▁လောမာ	-11.3031
▁အပက္ကမ	-11.3032
ဥတ္တရ	-11.3032
▁အဗ္ယာကတမူလ	-11.3033
▁အာဏတ္တ	-11.3033
နိယာမေန	-11.3035
▁ဗ္ယဉ္ဇနေ	-11.3035
ကတ္တု	-11.3035
▁သင္ဂဟော။	-11.3035
▁ဗ္ရာဟ္မဏီ	-11.3036
ဝိညာဏံ	-11.3037
▁သဒေဝကသ္သ	-11.3037
▁ပိသာစ	-11.3038
▁ဝိတက္ကံ	-11.3038
▁မာပေတ္ဝာ	-11.3038
က္ခဏေယေဝ	-11.3042
▁ရူပာရမ္မဏ	-11.3043
▁ရူပာယတန	-11.3044
▁နိရနုသယောတိ	-11.3045
▁ဘူတာနိ	-11.3047
ပက္ခန္ဒ	-11.3047
ပစ္စုပ္ပန္နံ	-11.3048
▁အဇာနန	-11.305
▁မေသော	-11.305
▁ဓမ္မရာဇ	-11.3051
ဝစနော	-11.3051
ပစ္စုပဋ္ဌာနော	-11.3052
ဝေလာယ	-11.3053
▁ကုသလဝိပာက	-11.3054
▁ဥဘောဟိ	-11.3055
▁နိပ္	-11.3055
▁မနုဇ	-11.3055
▁ဝိတ္ထတ	-11.3057
▁ပစ္စယာကာရ	-11.3058
▁ယဒေဝ	-11.3058
▁ဟဒယဝတ္ထု	-11.3059
▁မေဒ	-11.3059
ဗဟုလာ	-11.3059
ုပ္ပန္နံ	-11.3059
▁မနုသ္သေဟိ	-11.306
မဟော	-11.3061
▁ပရမတ္ထော	-11.3064
▁သဉ္ဆန္န	-11.3064
မိဉ္ဇ	-11.3065
အာကာသ	-11.3065
▁၂၄၄	-11.3067
▁အသင္ခာရိက	-11.3069
▁ဗ္ရဟ္မစာရီ	-11.307
▁သဗ္ဗာနိပိ	-11.3071
▁အတိမာန	-11.3073
ပေတဝတ္ထု	-11.3073
▁မနောသမ္ဖသ္သ	-11.3074
▁ရဇ္ဇေ	-11.3075
▁ပရိတော	-11.3076
▁အသည	-11.3082
▁ယာဝဒတ္ထံ	-11.3083
▁ဘာဂိနေယ္ယ	-11.3084
▁ဥမ္မတ္တိကာယ	-11.3085
▁ပသန္နမာနသော	-11.3085
▁အလဘိတ္ဝာ	-11.3085
▁ဘုမ္မဝစန	-11.3085
တာပန	-11.3087
▁ကရိတ္ဝာန၊	-11.3088
▁ဘုမ္မတ္ထေ	-11.3089
မူ	-11.3091
▁ဇာနာတီ	-11.3093
ဒ္ဓံ	-11.3094
▁ဒသာ	-11.3094
▁၂၄၈	-11.3095
အဗ္ဘ	-11.3095
▁ဝက္က	-11.3096
▁ဥပနိဓာယ	-11.3096
▁အပ္ပမညာ	-11.3096
▁ဝသန္တ	-11.3097
▁သပ္ပုရိသာ	-11.3097
ပောသ	-11.3097
မဝ	-11.3098
နဝိပာကဓမ္မဓမ္မ	-11.3101
▁ပရိဟာနိ	-11.3101
ပဋိည	-11.3102
သေဝနာ	-11.3104
▁ပဋိဂ္ဂာဟက	-11.3105
▁ဓမ္မဝိနယ	-11.3105
ဗလာ	-11.3105
သဟိတံ	-11.3106
ကာဠက	-11.3107
ာဒေသာ	-11.3107
▁တထာဝိဓ	-11.3109
ဃရေ	-11.3111
ကရောတိ	-11.3111
▁ထောက	-11.3112
ယာမိ	-11.3112
ဝာလ	-11.3112
▁ဝိမုစ္စတိ	-11.3113
▁ကုသလေဟိ	-11.3113
▁ဝိလ	-11.3114
▁ဟာရော။	-11.3115
▁ပစ္စဝေက္ခဏဉာဏ	-11.3115
ီယမာန	-11.3117
ဇနော	-11.3119
▁ပဇာပတိ	-11.312
▁အနာပတ္တီ	-11.312
▁သမ္မာသမ္ဗုဒ္ဓာ	-11.3121
ရတ္တိံ	-11.3121
▁သောဝဏ္ဏ	-11.3121
စေတသော	-11.3122
▁ဥပဟတ	-11.3123
ကတိစိ	-11.3123
▁ဝတ္ထူဟိ	-11.3126
ဝိရဟိတံ	-11.3126
▁မုဂ္ဂ	-11.3127
ိယတ္ထေရအပဒာန	-11.3128
▁သိမ္ဟိ	-11.3128
▁ဝိဒိတံ	-11.3128
န္တု။	-11.3129
ာဘိနန္ဒ	-11.3131
ယာဂု	-11.3131
▁သန္တောသ	-11.3132
ုယ္ယာန	-11.3132
▁ဗ္ရာဟ္မဏေန	-11.3133
▁နာဠိကေရ	-11.3136
ဖာဏိတ	-11.3139
▁နိပကော	-11.3139
▁အနတ္တမနော	-11.3141
▁ကေစိ။	-11.3142
▁ဃတ	-11.3144
▁နာဝ	-11.3145
▁ဝာသဝ	-11.3146
တုန္န	-11.3146
▁အရိယသာဝက	-11.3149
▁ပစ္စေကဗုဒ္ဓာ	-11.3149
▁အသန္တံ	-11.315
▁အာပဇ္ဇန္တိ	-11.315
▁အဓိဂတံ	-11.3151
▁လင္ဃ	-11.3152
▁အပစ္စံ	-11.3153
▁ပဗ္ဗတာ	-11.3153
▁သမာဓိယတိ	-11.3155
▁သိရ	-11.3155
▁ဘေရဝ	-11.3155
▁ကရဏီယာ	-11.3155
▁ပသိဒ္ဓ	-11.3157
▁ကာယဝိညတ္တိ	-11.3157
မပိ	-11.3157
ပညာ။	-11.316
▁ဝေဒနာနံ	-11.3161
▁ဗ္ရာဟ္မဏော။	-11.3164
▁သမဏဗ္ရာဟ္မဏ	-11.3165
▁တညေဝ	-11.3165
ဝိကတိ	-11.3166
▁ရုစိယာ	-11.3167
▁ဝုဋ္ဌိ	-11.3167
▁ပသီဒိတ္ဝာ	-11.3167
ပရိသင္ကိတ	-11.3168
မထ	-11.3168
▁သင္ဃကမ္မ	-11.3169
▁ပစ္စနီယံ	-11.3169
▁ဒာနာနိ	-11.317
▁ဇဟန္တိ	-11.317
▁ဒမိဠ	-11.3171
▁ကရောသိ	-11.3174
▁တေမာသံ	-11.3175
▁ဧကပဒ	-11.3175
ယန္တိ။	-11.3175
▁သဗ္ဗသော။	-11.3176
ပာဋိဟာရိယ	-11.3177
▁အဓမ္မံ	-11.3178
▁ပဋိသံဝေဒေတိ	-11.3178
▁ဧကဂ္ဂတာ	-11.3179
နိမ္မ	-11.318
ကမ္မာနိ	-11.318
▁အာကင္ခတိ	-11.318
လောကံ	-11.318
▁အင္ကုရ	-11.3182
▁အဗ္ဘုတော	-11.3183
တီရေ	-11.3183
▁ဝိပသ္သန	-11.3185
▁သဟသေယ္ယ	-11.3186
တန	-11.3186
▁သံဝိဇ္ဇတိ	-11.3186
▁ရူပသညာ	-11.3187
▁အမူ	-11.3187
▁ဟရိ	-11.3187
▁တဠာက	-11.3187
▁၂၆၃	-11.3189
▁ဓမ္မပဋိသမ္ဘိဒာ	-11.3189
▁ပရိတ္တာ	-11.3191
ဓမ	-11.3194
▁ပုရောဟိတ	-11.3194
▁ကတောတိ	-11.3194
▁ကာမာဝစရော	-11.3195
▁သမုဒာစရန္တိ	-11.3195
ယမ	-11.3195
▁ဘာယိ	-11.3196
▁မာရံ	-11.3198
▁ဘိဇ္ဇတိ	-11.3198
ပ္ပဋိပတ္တိ	-11.3198
ဗဟုဝစန	-11.3198
▁နာယက	-11.3199
မာရော	-11.32
ဝိတက္ကော	-11.32
▁ဝတ္တဗ္ဗန္တိ	-11.3201
▁ဆက္က	-11.3202
ဒိဋ္ဌိယာ	-11.3204
▁ဝူပသမ္မတိ	-11.3204
▁သက္ကံ	-11.3204
တ္ထီ	-11.3207
ရဏံ	-11.3208
▁အပ္ပမာဒော	-11.3211
ောဂဓ	-11.3211
ယာယ	-11.3211
▁မဟာကရုဏာ	-11.3213
ာပေတိ။	-11.3214
▁ဝိဇ္ဇု	-11.3215
▁အာသဝေဟိ	-11.3217
ပဇ္ဇောတ	-11.3219
▁အမိတ	-11.3219
▁သဒိသံ	-11.3221
ဝီတိ	-11.3222
▁ဃံသ	-11.3222
▁ရာဟု	-11.3222
▁သကုဏော	-11.3222
▁သာဂရော	-11.3224
ဘိက္ခဝော	-11.3224
▁အဂ္ဂသာဝိကာ	-11.3225
▁သမန္နာဂတ	-11.3226
▁ဒ္ဝိပဒ	-11.3227
▁နီဝရဏဝိပ္ပယုတ္တ	-11.3227
ဉာဏံ။	-11.3228
▁အဘိတ္ထဝ	-11.3228
▁ဟန္ဒာဟံ	-11.3228
ပ္ပဟာနေန	-11.3228
▁ဥပပတ္တိက္ခဏေ	-11.3228
သမ္မတံ	-11.3229
▁ပဋိစ္ဆာဒေတ္ဝာ	-11.3229
▁သေယ္ယာ	-11.3229
▁သမ္မပ္ပဓာနာ	-11.3229
▁ဥမ္မာဒ	-11.323
▁ဝေရိ	-11.3231
ာဒီနီတိ	-11.3231
ာဝဟံ	-11.3234
▁မဟန္တာ	-11.3235
▁သမုဋ္ဌာပေတိ	-11.3237
▁ယေဘုယ္ယ	-11.3239
▁အာဏာပေသိ	-11.3242
▁ကောဝိဒော	-11.3242
▁အဟိရိက	-11.3247
အဇ္ဈ	-11.3247
▁ဇဟတီတိ	-11.3247
▁ပတ္ထေ	-11.3248
▁နပ္ပဇာနာတိ	-11.3248
▁အနေကသတ	-11.3249
▁အဝိပာက	-11.325
န္ဝယ	-11.3251
နလက္ခဏာ	-11.3252
▁ဝိနာသံ	-11.3253
▁ပာဒကဇ္ဈာန	-11.3253
▁သမုပ	-11.3253
▁ပာတိမောက္ခေ	-11.3254
▁ဝိဟတ	-11.3254
နက္ခတ္တ	-11.3255
▁ဝိဇမ္ဘ	-11.3256
▁သုခိနော	-11.3257
▁မတ္ထက	-11.3257
ဘဂဝတော	-11.3258
▁ဘာရံ	-11.3259
▁ဘဏ္ဍာဂာရိက	-11.326
▁ဝိဟိံသ	-11.3262
ကုစ္ဆိ	-11.3262
ပဒာ	-11.3263
▁ဘာရဒ္ဝာဇ	-11.3265
▁မဟာပစ္စရိယံ	-11.3266
▁ပသာဒံ	-11.3268
▁ပာသာဒော	-11.3269
▁ဝုတ္တေန	-11.3269
▁သံခိတ္တ	-11.327
ာနဉ္စေဝ	-11.327
ပဋိပတ္တိယာ	-11.3271
▁အနုမောဒနံ	-11.3273
နော၊	-11.3274
▁အပ္ပိစ္ဆ	-11.3274
▁ပဋိစ္ဆ	-11.3275
▁၂၆၅	-11.3276
ာရဒ္ဓ	-11.3276
▁စမ္မံ	-11.3277
▁အဓိပ္ပာယံ	-11.3278
▁အနုဂတ	-11.3278
▁သမ္မာသမာဓိ။	-11.3279
▁ပရိဝေဏံ	-11.3281
▁အဒ္ဒသ။	-11.3281
ဂ္ဂော	-11.3281
▁ဒိဋ္ဌဓမ္မ	-11.3284
ေယ္ယာထာ	-11.3287
▁ယသသ္သိန	-11.3288
က္ခန္ဓေ	-11.329
▁ဝုတ္တာနံ	-11.3291
ဣဋ္ဌ	-11.3291
▁မုဟုတ္တံ	-11.3291
▁မတော။	-11.3294
ကူဇ	-11.3296
▁ဝေလာယံ	-11.3296
▁ကာနိစိ	-11.3297
▁သိခီ	-11.3297
▁သမ္ပသ္သမာနော	-11.3297
▁နေသောဟမသ္မိ	-11.3297
▁စေတနာပဏိဓီဟိ	-11.3297
▁မာရိသာ	-11.3297
▁သေသပဒေသုပိ	-11.3297
▁ဒုက္ခသ္သန္တကရော	-11.3298
ဝိဘာဝနာ	-11.33
▁ကုတောစိ	-11.3301
▁သာတ္ထက	-11.3302
▁ဝစနံ။	-11.3302
▁အနိဒသ္သနော	-11.3303
▁ဝာစသိက	-11.3303
▁နိဗ္ဗတ္တိတ	-11.3304
▁သုဂ္ဂဟိတ	-11.3305
▁စန္ဒိမသူရိယာ	-11.3305
▁အပာကဋ	-11.3308
▁တပ္ပဋိပက္ခ	-11.3308
▁ဝဋ္ဋတိယေဝ။	-11.3309
▁ဝသ္သသဟသ္သာနိ	-11.3309
▁နောစိတ္တသံသဋ္ဌ	-11.3311
ဗုဒ္ဓသ္သ	-11.3312
အတ္ထေ	-11.3313
▁သုခဒုက္ခံ	-11.3313
ဘူသိတ	-11.3314
▁သဘိက္ခုကော	-11.3315
▁ဉာပေတဗ္ဗော	-11.3317
▁သမ္မောဒိ။	-11.3317
▁မုဒိတ	-11.3318
▁မဟာပညော	-11.3318
▁သန္တီတိ	-11.332
▁ဘာဂံ	-11.332
ဝေကလ္လ	-11.3322
အဘိက္ကန္တံ	-11.3322
▁လေဍ္ဍု	-11.3322
ဂ္ဂေန	-11.3323
▁သေတိ၊	-11.3324
သီသံ	-11.3324
ဘာဝဒသ္သန	-11.3325
ဗိမ္ဗ	-11.3327
က္ခေပ	-11.3328
▁ဓိ	-11.3329
ဒူတ	-11.3329
▁ဝိဝေကဇံ	-11.333
စတုရ	-11.333
ဒူသ	-11.333
▁သာမိဝစနံ။	-11.3332
▁ပသ္သဒ္ဓ	-11.3333
▁ဧကာဟပ္ပဋိစ္ဆန္န	-11.3335
▁ဝိဒူ	-11.3335
သမာဓီ	-11.3335
▁မူလာယ	-11.3335
မတ္တိက	-11.3335
ေယ္ယန္တိ	-11.3339
▁ဗ္ယာကရဏ	-11.334
ာပီ	-11.334
▁ပုရက္ခတော	-11.3341
ပရိဂ္ဂဟော	-11.3343
ဒသ္သနော	-11.3346
ာလိ	-11.3347
▁ဝိဟာရာ	-11.3349
▁ဘဏေ	-11.335
▁ရာဂေန	-11.3351
ဇာတိယာ	-11.3351
တ္တန္တိ	-11.3353
▁ပသ္သိတုံ	-11.3354
ပိဋ္ဌ	-11.3356
▁ပရိပုဏ္ဏော	-11.3356
▁ဇနယ	-11.3356
အာဒေသော	-11.3356
▁ဆိဇ္ဇ	-11.3357
ပရေ	-11.3359
ဟေတူတိ	-11.3359
▁ဝိသေသာဓိဂမ	-11.336
ာတိအာဒိမာဟ။	-11.3362
▁ပောသော၊	-11.3363
▁သန္ထရိတ္ဝာ	-11.3363
▁ဝဒန္တီတိ	-11.3363
▁ဧဝံနာမကေ	-11.3364
ပိတု	-11.3364
▁ပက္ကာမိ	-11.3365
▁ပဇာနာတီတိ	-11.3366
ပရိစိတ	-11.3366
▁အစရိ	-11.3366
ာနိသံသာ	-11.3366
အညမညပစ္စယေန	-11.3367
▁တာဏ	-11.3367
▁ဂဏ္ဟာတီတိ	-11.3367
▁အသေက္ခော	-11.3368
ဗောဓိသတ္တ	-11.3368
▁မာဂဏ္ဍိယ	-11.3369
▁အညာတာဝီ	-11.3369
▁သန္ဒိဋ္ဌိကံ	-11.3369
အာပ	-11.337
▁ပရိပူရကာရီ	-11.3371
▁သာတရူပံ	-11.3372
▁ဓာရေတီတိ	-11.3373
▁ဩသက္က	-11.3374
ာပတ္တိယော	-11.3374
▁သမောဓာနေတ္ဝာ	-11.3375
နာထ	-11.3375
▁သာတ္ထိကာ	-11.3376
ပညံ	-11.3377
▁သုကရံ	-11.338
▁ဗ္ယာပာရ	-11.338
▁ဧဒိသော	-11.3381
ပုဂ္ဂလံ	-11.3382
▁အန္နံ	-11.3383
သန္	-11.3384
▁ဝုတ္တတ္တာ။	-11.3385
▁ဒူတံ	-11.3385
▁အပ္ပဋိစ္ဆန္နာယ	-11.3386
ဣစ္ဆ	-11.3387
▁မာတုယာ	-11.3388
▁ဗောဓိပက္ခိယ	-11.3388
သာမညေန	-11.3389
▁ပာပာနိ	-11.3391
▁၂၅၆	-11.3391
▁အာနိသံသာ	-11.3391
▁သဘာဝေန	-11.3391
ဖရုသ	-11.3392
နာမကံ	-11.3393
▁အပုည	-11.3395
ဝိစာရော	-11.3396
ဋ္ဌေန။	-11.3396
တ္ယာ	-11.3397
ပ္ပကာရံ	-11.3398
ဝတံ	-11.3399
▁ကုဒ္ဓော	-11.3399
▁နိက္ခမန	-11.3399
▁ပာဏိနာ	-11.3401
▁အာသေဝ	-11.3402
▁ဌပန	-11.3402
သင္ခာတေဟိ	-11.3402
ပဗ္ဘာရ	-11.3402
ဒေသနံ	-11.3403
▁၂၄၆	-11.3403
ဗဒ္ဓော	-11.3407
တစ္ဆ	-11.3407
▁တတ္တကံ	-11.3408
▁အာယတနာနံ	-11.3409
▁၂၆၄	-11.3409
▁နန္ဒိယ	-11.3409
▁ဒေသေယ္ယ	-11.341
သ္သာမီ	-11.3411
▁အဝသာနေ	-11.3412
သင္ဂဟံ	-11.3412
▁၂၄၅	-11.3413
▁တေနာဝုသော	-11.3417
▁ခိ	-11.3417
▁ပုရံ	-11.3417
မုဋ္ဌ	-11.3417
▁မာသော	-11.3417
▁ပိယရူပာ	-11.3417
ိသု	-11.3418
အလ	-11.3419
ာယတနာနိ	-11.342
▁တထူပမ	-11.3421
ပလ္လ	-11.3423
▁အနုမောဒန	-11.3423
▁ဒောသေန	-11.3424
▁သူစ	-11.3424
▁တာဠ	-11.3425
▁အာရောဂ္ယ	-11.3425
▁သေခိယ	-11.3425
▁အကရောန္တ	-11.3426
ပ္ပိယ	-11.3427
ဒုစ္စရိတ	-11.3428
▁တေဝိဇ္ဇ	-11.3428
▁အနုပ္ပန္နာနံ	-11.3429
▁စတုသစ္စဓမ္မ	-11.3431
▁ဧကဒေသေန	-11.3432
သဒ္ဒော။	-11.3433
ယဉ္ဟိ	-11.3433
▁စင္ကမန္တ	-11.3433
▁ပစ္စဝေက္ခဏာ	-11.3434
ပရံ	-11.3434
တ္ထမေဝ	-11.3435
▁ပရိဘဝ	-11.3435
က္ခယော	-11.3436
မတ္တာနံ	-11.3437
▁အဘိဝာဒန	-11.3438
▁ပရိဏတ	-11.3439
▁ဥပာယော	-11.344
▁ဂောတမီ	-11.344
▁သမာပဇ္ဇန	-11.344
မ္ဗုဇ	-11.3441
▁ဂာထာဒ္ဝယမာဟ	-11.3441
▁လိစ္ဆဝီ	-11.3441
နအနိဒသ္သနသပ္ပဋိဃ	-11.3441
▁တတုတ္တရိ	-11.3442
တေဟိ	-11.3442
္ပယုတ္တလောဘသဟဂတ	-11.3442
▁ကပိလဝတ္ထု	-11.3443
▁အဘိသေက	-11.3443
ာသနံ	-11.3444
▁ကတိပယ	-11.3444
▁နိလီယ	-11.3444
▁ပဟိဏ	-11.3444
▁ပတိဋ္ဌာပေတ္ဝာ	-11.3445
ိယေ	-11.3447
သမဏဗ္ရာဟ္မဏ	-11.3447
မုဒ္ဒိက	-11.3447
▁ပသ္သတာ	-11.3449
▁ထုတိ	-11.345
▁ဖန္ဒ	-11.3451
▁သမ္မာသင္ကပ္ပ	-11.3451
ဒုက္ခသ္သ	-11.3453
နိဗ္ဗတ္တက	-11.3454
▁မတေ	-11.3455
▁သုခာဝဟ	-11.3457
▁ဌာနသော	-11.346
▁နဟေတုပစ္စယော	-11.346
▁မဟာယသော။	-11.3461
▁အဝဓိ	-11.3463
▁သမေန	-11.3464
ပူဇာ	-11.3464
▁ဒုဗ္ဘာသိတ	-11.3464
▁အနုသ	-11.3467
ပရိညာ	-11.3467
သမာသော	-11.3468
▁နိမန္တန	-11.3469
တေဇော	-11.3471
သိနာ	-11.3473
▁သေသော	-11.3474
▁တဟံ	-11.3474
▁လိခိတ	-11.3476
အယ္ယ	-11.3477
▁ဒီပင္ကရ	-11.3477
▁ဖလေန	-11.3477
▁မန္တိ	-11.3477
ဖလက	-11.3478
▁ဘုဉ္ဇန္တသ္သ	-11.3479
လာဘာ	-11.348
▁ဝေပုလ္လ	-11.3482
လဋ္ဌိ	-11.3484
န္တသ္သ။	-11.3485
▁တာဝတာ	-11.3486
▁ဝိသ္သုတော	-11.3487
▁အာယာစ	-11.3489
▁နိဝတ္တိတ္ဝာ	-11.3489
▁ဗာဟိရက	-11.349
▁ပီဌံ	-11.349
▁မူသိက	-11.349
▁အာသုံ	-11.3491
သောဠသ	-11.3491
▁ခေတ္တေ	-11.3492
ပရိဝုတ	-11.3497
ဣမာနိ	-11.3498
▁မစ္ဆော	-11.3499
▁နာလ	-11.3499
▁သာဓူ	-11.3501
▁အဋ္ဌဝီသတိ	-11.3503
▁အဂာ	-11.3505
ဃောသော	-11.3507
ာဘိဘူ	-11.351
▁ဥပဋ္ဌာတိ	-11.3512
▁အလီန	-11.3514
▁ဇစ္စန္ဓ	-11.3514
▁ကတမေသံ	-11.3514
▁ပသ္သသိသ္သာမီ	-11.3514
▁ဥစ္ဆိဇ္ဇ	-11.3516
▁အာပာယိက	-11.3517
ဒာဌ	-11.3518
▁ဂိမ္ဟ	-11.3518
▁ဒိဋ္ဌိဂတဝိပ	-11.3518
▁နယာ	-11.3518
▁ပရိဇာနန္တိ	-11.3519
▁ပမုဉ္စ	-11.3519
▁ပဏ္ဍရ	-11.3519
▁တိဝေဒနန္တိ။	-11.3519
ပာဒိန္နုပာဒာနိယံ	-11.352
အသ	-11.3521
တိက္ကမ	-11.3521
ာဟရဏ	-11.3523
ဝတ္တဗ္ဗေ	-11.3523
▁သဒေဝမနုသ္သာယ	-11.3523
ဝေဝစန	-11.3523
▁တိဋ္ဌတု	-11.3524
▁သုဝိဘတ္တ	-11.3524
▁သပ္ပဋိဃံ	-11.3525
▁ပဋိဟည	-11.3525
▁၂၅၈	-11.3525
▁သတိဝိနယ	-11.3526
▁ဗဟုတရံ	-11.3527
▁ဝိသတ္တိကာ	-11.3527
▁အန္တရဓာန	-11.3528
▁တုမ္ဟာက	-11.3528
ပဋိဂ္ဂာဟက	-11.3529
▁ဒဏ္ဍိ	-11.353
ဣစ္စာယသ္မာ	-11.353
ဘာဝေပိ	-11.3532
▁ဖရုသ	-11.3532
▁အဓမ္မကမ္မ	-11.3532
▁ယာပေတိ	-11.3533
ေယ္ယံ။	-11.3534
▁ကောဓနော	-11.3536
▁ဝိကပ္ပန	-11.3537
ဓောတ	-11.3538
မတ္တနော	-11.3538
ေယ္ယံ၊	-11.3539
▁တိဋ္ဌန္တိ။	-11.3539
▁ပီတိသဟဂတ	-11.354
▁ပစ္စယဘူတ	-11.3541
▁အံသ	-11.3541
နိရယ	-11.3542
န္တန္တိ	-11.3542
▁သလက္ခဏ	-11.3543
▁မယူရ	-11.3543
▁ပဝရော	-11.3544
တ္ထိကာ	-11.3544
▁သာရမ္မဏော	-11.3545
▁ဝုတ္တပ္ပကာရေန	-11.3546
ာဂာရံ	-11.3547
▁အနာဝာသော	-11.3547
ခော	-11.3549
▁ဌိတောတိ	-11.3549
▁မေဃိယ	-11.355
▁ဓညံ	-11.355
▁ကာယသင္ခာရ	-11.3551
ဒ္ဝ	-11.3552
▁သမန္တစက္ခု	-11.3552
သာမတ္ထိယ	-11.3553
မဏ္ဍပ	-11.3553
▁ဣစ္ဆာယ	-11.3554
▁ဝဉ္စန	-11.3554
မသေ	-11.3555
ပစ္ဆိမ	-11.3557
ဘာဇနီယ	-11.3557
▁ထူပံ	-11.3558
▁ဧကာဒသဟိ	-11.3558
ဘိက္ခဝေ	-11.3559
▁ပလာသ	-11.356
▁တဏ္ဟာပစ္စယာ	-11.356
ဣဒ	-11.3561
▁နီဝရဏေ	-11.3562
▁အသမ္ဘဝတော	-11.3564
▁စလန	-11.3565
▁ဂတီ	-11.3565
▁လဟုံ	-11.3565
▁ဂဏ္ဌိ	-11.3565
▁၂၆၇	-11.3565
▁နိစ္ဆာရ	-11.3566
ာဒီဟီတိ	-11.3566
ဝယဝ	-11.3568
▁ဒေသိတံ။	-11.3569
▁၂၆၉	-11.357
▁ပသာဒေ	-11.357
▁ကောဝိဒော။	-11.357
▁ဝိဟ	-11.3571
သော၊	-11.3571
▁ဥပစိတ	-11.3573
▁ကာဏ	-11.3574
▁မဏ္ဍန	-11.3575
▁ဝိဇာနန	-11.3576
▁စာတုမဟာရာဇိက	-11.3576
▁သဝိတက္က	-11.3579
▁ပကာရေဟိ	-11.3579
▁ခေပ	-11.358
ပရိက္ခ	-11.3582
▁အနုသန္ဓိံ	-11.3583
▁ပထဝီကသိဏံ	-11.3584
▁ပာပုဏိတ္ဝာ	-11.3584
▁အဒောသ	-11.3586
▁ဥဗ္ဘ	-11.3587
▁သညတ	-11.3587
▁သတ္တက္ခတ္တုပရမ	-11.3588
▁သမာနသံဝာသက	-11.3588
▁ပရိဒီပိတ	-11.3588
▁ဂာမနိဂမ	-11.3589
ကာမံ	-11.359
▁ဝိဝေကနိသ္သိတံ	-11.359
▁မန္ဒာ	-11.3591
ဝဏိဇ္ဇ	-11.3592
▁ကမလ	-11.3594
▁၂၆၂	-11.3596
သမ္ပယောဂ	-11.3596
▁ပိဏ္ဍပာတော	-11.3597
▁ဝစသာ	-11.3597
▁သက္ကာတိ	-11.3598
▁ကရော	-11.3599
▁သလ္လက္ခ	-11.3599
▁မိစ္ဆတ္တ	-11.3599
▁ဝိညာယတီတိ	-11.36
▁၂၄၇	-11.3601
▁ကနက	-11.3601
ဒန္တာ	-11.3601
▁ပဌန္တိ	-11.3601
▁အရက္ခိတ	-11.3603
မုတ္တော၊	-11.3605
▁မထ	-11.3605
ဝဏ္ဏနာယံ	-11.3608
▁ဂရုဘဏ္ဍံ	-11.3609
▁ဣစ္ဆာမိ	-11.3611
▁မာနေ	-11.3611
▁ဝစနမဗ္ရဝိ	-11.3611
သမာပန္န	-11.3612
▁သဒ္ဒေန	-11.3613
▁အနဓိ	-11.3615
ဘာဝိတ	-11.3621
▁၂၆၆	-11.3622
▁ဧကတ္တံ	-11.3624
▁သဉ္ဇာနန	-11.3625
▁ဗ္ရူ	-11.3625
တ္ထာနံ	-11.3627
ာပေန္တသ္သ	-11.3628
▁နဝိပာကပစ္စယာ	-11.3628
▁ပက္ကန္တ	-11.3631
▁ဩပပာတိက	-11.3632
နန္ဒီ	-11.3634
▁အာရောစိတ	-11.3635
▁ကထေန္တိ	-11.3636
▁ဝိဇ	-11.3637
▁ကယိရ	-11.3637
▁ပုထ	-11.3637
▁ယာထာဝ	-11.3638
မေဝေတံ	-11.364
▁ပဋိသလ္လာနာ	-11.364
သီလေ	-11.3641
▁ဥပပန္နာ	-11.3642
▁ဖုသန	-11.3644
နကံ	-11.3644
ပရာဓ	-11.3646
ဋ္ဌာနန္တိ	-11.3648
▁မဟာထေရော	-11.3649
▁အသက္ကောန္တ	-11.3649
ဓာတူ	-11.3649
က္ခန္ဓံ	-11.365
▁အကပ္ပိယံ	-11.3651
သမုဒာစာရ	-11.3652
▁ဇာတောတိ	-11.3653
ဘိည	-11.3653
▁နိစ္ဆယ	-11.3655
▁အဟဉ္ဟိ	-11.3656
▁ဇရာမရဏသ္သ	-11.3656
▁ပာရမိံ	-11.3657
ဒီပနတ္ထံ	-11.3658
▁အနုသ္သတိ	-11.3659
ဋ္ဌိတော	-11.3659
ဗာလ	-11.366
▁ဂမိသ္သာမီ	-11.3661
▁ပဒစ္ဆေဒော။	-11.3662
▁ဓတရဋ္ဌ	-11.3662
▁မဟဗ္ဘယ	-11.3662
▁နာနုသေတီတိ	-11.3662
ယန္တံ	-11.3662
အမ္ဘော	-11.3663
▁နိဒ္ဓာရေတ္ဝာ	-11.3664
▁နိဗ္ဗတ္တံ	-11.3664
▁သာရိပုတ္တံ	-11.3664
ဖလာနိ	-11.3666
▁ဗုဒ္ဓာနုသ္သတိ	-11.3666
▁ဒေဝေဟိ	-11.3667
▁ဧတဒဂ္ဂေ	-11.3668
▁ပာဒော	-11.3668
▁ပညာဗလံ	-11.3669
▁သောတာပန္နာ	-11.367
▁၂၈၀	-11.367
[...]
