<unk>	0
<s>	0
</s>	0
.	-2.86537
,	-3.00349
▁	-3.75091
ti	-3.88335
▁‘‘	-4.24119
a	-4.3785
’’	-4.39742
aṃ	-4.54498
o	-4.68123
▁ca	-4.69806
▁na	-4.84953
ā	-4.86187
▁vā	-4.97394
;	-5.09855
ṃ	-5.12168
e	-5.22156
nti	-5.2491
▁–	-5.37542
▁pana	-5.50934
▁hoti	-5.56752
ena	-5.58053
pi	-5.62909
ssa	-5.68408
assa	-5.74759
▁a	-5.79795
pe	-5.79914
▁taṃ	-5.82061
?	-5.83168
▁nāma	-5.99606
▁kho	-6.01325
to	-6.14136
▁hi	-6.14387
na	-6.16118
’	-6.23139
▁vuttaṃ	-6.24339
▁bhikkhave	-6.2617
naṃ	-6.28655
▁so	-6.29118
▁evaṃ	-6.30372
va	-6.30716
▁te	-6.32115
ya	-6.32612
su	-6.35967
ānaṃ	-6.38207
-	-6.38802
▁tassa	-6.43019
hi	-6.43083
▁attho	-6.45573
▁tattha	-6.51564
▁‘	-6.54857
▁viya	-6.59127
▁Tattha	-6.59238
▁A	-6.62262
anti	-6.6243
āni	-6.64116
yā	-6.64939
ñca	-6.67992
▁me	-6.70725
▁katvā	-6.72108
ni	-6.74109
▁Na	-6.75345
i	-6.77467
▁āha	-6.77894
ehi	-6.78973
▁dhammā	-6.79766
▁tesaṃ	-6.80039
▁So	-6.81159
āya	-6.82107
tā	-6.83214
vasena	-6.83301
yeva	-6.87688
▁dhammaṃ	-6.8831
ī	-6.9069
▁dhammo	-6.91525
▁uppajjati	-6.92627
▁paccayo	-6.94545
ādi	-6.94981
▁Evaṃ	-6.96271
▁bhante	-6.98924
▁bhikkhu	-6.99069
▁sa	-6.991
▁yathā	-6.99145
ato	-6.99601
esu	-7.00329
▁bhagavā	-7.00355
ka	-7.00669
▁attano	-7.0306
▁paṭicca	-7.03391
añca	-7.03722
▁Atha	-7.05395
▁ekaṃ	-7.06919
▁ayaṃ	-7.07553
▁dve	-7.08295
yaṃ	-7.09024
▁no	-7.09471
nā	-7.1061
▁ettha	-7.15478
yo	-7.17987
si	-7.18024
▁tasmā	-7.18578
ttā	-7.19251
▁yaṃ	-7.20046
▁eva	-7.2049
▁idaṃ	-7.22811
▁vuccati	-7.23123
ko	-7.23588
▁tena	-7.23643
▁vi	-7.24353
▁tathā	-7.24481
ma	-7.27308
meva	-7.27856
▁honti	-7.28213
▁cittaṃ	-7.29037
▁pa	-7.32289
▁tato	-7.3235
mpi	-7.32403
▁pañca	-7.33565
▁mahā	-7.34193
▁tīṇi	-7.34568
▁natthi	-7.35359
kaṃ	-7.37813
▁bhikkhū	-7.3958
tiādi	-7.40458
▁atthi	-7.40499
kā	-7.41043
▁sā	-7.41262
▁yo	-7.42485
▁hutvā	-7.44188
vā	-7.44296
sa	-7.45267
āti	-7.47339
taṃ	-7.48377
itvā	-7.49032
▁Taṃ	-7.49241
oti	-7.49556
▁tasmiṃ	-7.51136
no	-7.53074
▁Tena	-7.54367
▁disvā	-7.54981
▁gahetvā	-7.55453
attā	-7.56113
▁ceva	-7.56264
▁saddhiṃ	-7.58761
▁nava	-7.58881
vi	-7.58927
mā	-7.58937
eyya	-7.60492
mhi	-7.63107
▁satta	-7.63418
▁su	-7.6343
▁ye	-7.63797
▁kiṃ	-7.64256
▁hotīti	-7.64577
▁bhagavato	-7.64624
avasena	-7.64654
di	-7.64997
▁upa	-7.65887
▁ahosi	-7.66414
tīti	-7.68634
▁Te	-7.69271
▁eka	-7.69734
▁iminā	-7.7055
▁siyā	-7.71492
tāya	-7.72279
pa	-7.72377
▁sabba	-7.73061
▁āpatti	-7.75047
▁niṭṭhitā	-7.75083
▁gantvā	-7.75089
▁anu	-7.75174
▁yassa	-7.75184
▁idha	-7.75992
▁nu	-7.76306
▁rūpaṃ	-7.7656
▁imaṃ	-7.77046
▁dhamma	-7.77211
so	-7.80469
ta	-7.80688
▁tvaṃ	-7.80757
▁sati	-7.80928
▁Yathā	-7.81361
▁Tathā	-7.81698
▁Tassa	-7.81757
u	-7.8207
▁khandhā	-7.8238
▁dhammassa	-7.82491
▁Sā	-7.82675
▁ce	-7.83003
te	-7.85299
▁maṃ	-7.85588
A	-7.85591
▁āvuso	-7.86774
▁ahaṃ	-7.86774
▁vatvā	-7.86943
eti	-7.86964
▁hetupaccayā	-7.89318
▁dasseti	-7.89816
▁sutvā	-7.9047
▁tāva	-7.91579
▁yena	-7.91697
sā	-7.91877
▁paññā	-7.92849
tiādinā	-7.93126
▁Yo	-7.93298
ādīnaṃ	-7.93509
ha	-7.93514
ādīsu	-7.93965
▁eko	-7.95382
▁mama	-7.95649
▁vaṭṭati	-7.95832
▁puna	-7.95958
▁Sa	-7.96076
saddo	-7.96178
▁paṭi	-7.9653
▁Pa	-7.97083
▁kira	-7.97104
▁hetu	-7.97874
atā	-7.98035
▁Vi	-7.98142
ke	-7.98278
▁Āmantā	-7.98413
▁bhagavatā	-7.98657
▁mā	-7.9913
ttha	-7.99432
▁rājā	-7.99657
tī	-7.99994
ampi	-8.00062
▁Ayaṃ	-8.00333
▁vuttā	-8.00342
tu	-8.00395
atīti	-8.0082
saṃ	-8.01172
▁tayo	-8.01202
▁ime	-8.01521
▁kataṃ	-8.01883
ssā	-8.01952
▁Tasmā	-8.02337
▁yattha	-8.02356
▁viharati	-8.02845
ādayo	-8.03057
▁Tenāha	-8.03168
ca	-8.05062
▁sabbaṃ	-8.05372
▁Tato	-8.06127
▁cha	-8.06263
bhāvaṃ	-8.07383
▁veditabbo	-8.07514
bhāvena	-8.07832
▁sandhāya	-8.08695
▁karoti	-8.08966
mi	-8.09245
ra	-8.0963
bhāvo	-8.09635
▁nayo	-8.10288
▁Iti	-8.10695
▁puggalo	-8.10701
tvā	-8.11053
▁yā	-8.1125
▁tadā	-8.11674
▁Ā	-8.1195
▁kammaṃ	-8.1255
me	-8.13324
ādīni	-8.13454
▁iti	-8.13876
▁mahārāja	-8.13984
haṃ	-8.14152
▁kathaṃ	-8.14417
▁Yaṃ	-8.15088
ana	-8.15137
▁kiñci	-8.15172
▁ṭhapetvā	-8.15988
▁dassetuṃ	-8.16147
▁Sace	-8.16147
▁vedanā	-8.16278
▁saha	-8.16302
la	-8.16329
▁cattāro	-8.17083
▁mayā	-8.17126
▁pari	-8.17203
ameva	-8.17572
▁pubbe	-8.17889
▁vutto	-8.18222
▁vadanti	-8.18292
▁aṭṭha	-8.185
▁loke	-8.19182
▁cāti	-8.195
etvā	-8.19691
▁mayhaṃ	-8.19953
īti	-8.20042
nī	-8.20167
tha	-8.20749
▁yojanā	-8.20829
ādīhi	-8.21267
tuṃ	-8.21466
▁gacchati	-8.22217
▁paccayā	-8.22575
▁Idha	-8.22886
ikā	-8.23222
sī	-8.233
▁ārabbha	-8.23849
▁paraṃ	-8.23964
▁veditabbaṃ	-8.23977
▁etaṃ	-8.24307
▁paṭhamaṃ	-8.24461
▁naṃ	-8.24855
bhi	-8.24948
▁ko	-8.25176
▁Ettha	-8.25187
▁bhagavantaṃ	-8.25291
▁satthā	-8.25514
▁samaye	-8.25858
▁bhikkhuno	-8.26149
atāya	-8.26473
▁dassento	-8.26789
▁atha	-8.269
nto	-8.27055
▁bho	-8.27098
▁yāva	-8.27345
▁paṭṭhāya	-8.27371
▁abhi	-8.27395
▁sam	-8.27475
▁cattāri	-8.2752
enāti	-8.28577
▁tassā	-8.29734
ne	-8.29735
▁taṇhā	-8.30953
▁citta	-8.31315
▁sambandho	-8.3151
▁dukkhaṃ	-8.31672
▁dhamme	-8.31895
▁sabbe	-8.32017
▁diṭṭhi	-8.32322
bhāvato	-8.33107
▁veditabbā	-8.33266
▁dasa	-8.3353
▁aññaṃ	-8.33887
▁vacanaṃ	-8.34031
▁vasena	-8.34185
dhamma	-8.34327
kāle	-8.34522
▁cā	-8.34732
▁imasmiṃ	-8.34961
▁vutte	-8.35371
s	-8.35584
▁khandhe	-8.3644
▁6	-8.36542
▁kamma	-8.37257
kathā	-8.37601
▁samannāgato	-8.38952
ituṃ	-8.38994
iṃ	-8.39108
aka	-8.39178
▁sammā	-8.39722
▁rañño	-8.39727
▁vattabbe	-8.39759
▁āyasmā	-8.39823
nāti	-8.39929
▁neva	-8.40038
tta	-8.40062
▁anto	-8.40265
▁vutta	-8.40645
▁sakkā	-8.40736
▁adhippāyo	-8.40855
▁Idaṃ	-8.41408
▁attha	-8.41618
itā	-8.41833
neva	-8.41937
▁vatthu	-8.42202
▁sattā	-8.42254
p	-8.42583
▁ni	-8.42665
▁jānāti	-8.4281
n	-8.43241
▁upasaṅkamitvā	-8.4354
rā	-8.43632
ayaṃ	-8.44357
ito	-8.44603
▁dukkha	-8.44679
▁jāti	-8.45173
da	-8.45799
▁pacchā	-8.45811
▁ñāṇaṃ	-8.45924
nu	-8.45962
▁Su	-8.46163
▁1.	-8.46207
▁heṭṭhā	-8.4674
anto	-8.468
se	-8.47147
▁tu	-8.4715
▁bhikkhūnaṃ	-8.47334
smiṃ	-8.47593
hetu	-8.47867
ja	-8.48162
iṃsu	-8.48644
▁bhavissati	-8.4897
▁hotī	-8.49182
▁rūpa	-8.49186
▁upari	-8.49441
iyā	-8.49709
▁idāni	-8.49939
Na	-8.49943
▁datvā	-8.50354
▁nissāya	-8.50418
▁yasmā	-8.50476
tiādīsu	-8.50549
▁santike	-8.50933
ye	-8.5105
▁vata	-8.5115
mo	-8.52052
▁samayena	-8.52425
ttaṃ	-8.52626
▁jhānaṃ	-8.52707
paccayā	-8.53186
ako	-8.53488
dhātu	-8.54076
ro	-8.54339
▁daṭṭhabbaṃ	-8.54396
ssāti	-8.5442
saddena	-8.54469
eneva	-8.54703
▁vo	-8.54902
▁deva	-8.54953
▁Idāni	-8.55432
▁Ye	-8.55473
▁cittasamuṭṭhān	-8.55908
▁kusalā	-8.55997
▁u	-8.56127
āmi	-8.56334
▁phalaṃ	-8.56453
▁uppajjanti	-8.56524
▁cittassa	-8.56581
pīti	-8.56877
▁kata	-8.56881
▁ito	-8.57423
tiādimāha	-8.57664
▁2.	-8.58238
bhāva	-8.58504
m	-8.58582
▁buddho	-8.58619
▁puriso	-8.58736
▁sukhaṃ	-8.58775
▁saññā	-8.58994
▁Mahā	-8.59049
▁etadavoca	-8.5908
ita	-8.59341
suttaṃ	-8.59412
hī	-8.60315
▁tā	-8.6049
▁ñatvā	-8.60574
itaṃ	-8.60903
nañca	-8.6096
▁koci	-8.61396
atī	-8.61558
▁vadati	-8.61952
vatthu	-8.62182
▁passati	-8.62379
anā	-8.62496
▁nahetu	-8.62641
ṭṭha	-8.62778
▁buddha	-8.6298
▁tehi	-8.63108
▁saṅgho	-8.63148
▁7	-8.63174
nanti	-8.63365
sam	-8.63633
▁khandhānaṃ	-8.63676
ttho	-8.63903
▁tāni	-8.64029
kamma	-8.64122
▁mayaṃ	-8.64135
nīti	-8.64561
yāti	-8.64614
▁keci	-8.65009
▁Yā	-8.65644
▁uppajjissati	-8.65672
ū	-8.6577
▁sace	-8.6629
vaṇṇanā	-8.66433
▁attanā	-8.66962
▁tumhe	-8.67265
▁brāhmaṇa	-8.67399
▁Rājā	-8.67433
▁8	-8.67518
▁thero	-8.67528
hā	-8.67621
anaṃ	-8.68099
▁bhava	-8.68099
▁assa	-8.6843
suttavaṇṇanā	-8.68463
▁dānaṃ	-8.68505
ve	-8.6976
ru	-8.69785
▁tathāgato	-8.69794
▁eseva	-8.69811
▁para	-8.69982
▁atthaṃ	-8.70004
▁ma	-8.70026
▁kātuṃ	-8.70083
▁Yasmā	-8.7026
▁maggo	-8.7042
▁ṭhito	-8.70674
▁satthu	-8.70769
ṭṭhāne	-8.70865
dhammā	-8.71156
▁vedanāya	-8.71581
▁imassa	-8.71587
▁deti	-8.71778
▁samādhi	-8.71965
▁attānaṃ	-8.72119
sseva	-8.72386
ṭṭhānaṃ	-8.72766
▁nā	-8.72805
▁nayena	-8.73258
▁vattabbaṃ	-8.73346
▁tesu	-8.73473
▁dhammānaṃ	-8.73475
▁nānā	-8.73634
▁an	-8.73663
▁bahu	-8.73749
ri	-8.73782
▁kāle	-8.73943
pari	-8.74309
atthaṃ	-8.74466
ppa	-8.74542
kammaṃ	-8.74631
▁ta	-8.74804
tthāya	-8.75302
▁amhākaṃ	-8.7543
▁sayaṃ	-8.75443
kāro	-8.75453
▁pajānāti	-8.75601
▁nāmaṃ	-8.758
▁sabbattha	-8.75962
rūpa	-8.76269
ṭṭhena	-8.76778
kena	-8.76962
▁dukkaṭaṃ	-8.77045
▁magga	-8.77116
▁nibbānaṃ	-8.77294
▁pucchi	-8.77548
▁ve	-8.77915
epi	-8.77969
▁brāhmaṇo	-8.78234
ṇa	-8.78648
ṭṭho	-8.78786
▁ñāṇa	-8.79027
re	-8.79151
▁cīvaraṃ	-8.79188
▁panettha	-8.7919
kassa	-8.79437
▁vinā	-8.79579
▁gāthā	-8.79593
▁ka	-8.796
▁ṭhānaṃ	-8.79739
▁Kathaṃ	-8.80252
▁gato	-8.80363
kiṃ	-8.80498
thā	-8.80639
▁hevaṃ	-8.80767
▁kāraṇaṃ	-8.80847
mhā	-8.80933
ānīti	-8.81266
▁ādi	-8.8139
dhā	-8.81451
kāya	-8.81809
hīti	-8.81816
saññā	-8.81855
▁maggaṃ	-8.81877
▁ānanda	-8.82336
▁dassetvā	-8.82471
▁3.	-8.82814
▁ati	-8.83255
opi	-8.83477
k	-8.83897
▁kāya	-8.83942
atthāya	-8.84009
▁karonti	-8.8402
tthe	-8.84024
▁saṃ	-8.84827
▁tava	-8.84857
▁akusalā	-8.84877
▁appa	-8.85105
▁catu	-8.8518
lā	-8.85296
▁āgantvā	-8.85357
idaṃ	-8.85368
kāra	-8.85517
ika	-8.85599
▁Pari	-8.85632
▁Ka	-8.85651
▁āpajjati	-8.85669
sīti	-8.86168
dā	-8.86175
▁Ni	-8.86313
mattaṃ	-8.86399
▁Sabba	-8.86679
▁bhikkhunā	-8.86811
▁Yassa	-8.86854
▁nisinno	-8.8707
▁9	-8.87333
▁visuṃ	-8.88102
▁saṅkhārā	-8.88228
▁daṭṭhabbo	-8.88329
dīnaṃ	-8.88358
5	-8.88592
▁yathābhūtaṃ	-8.88679
▁ārammaṇe	-8.88888
āpi	-8.89
▁sukha	-8.89012
▁ṭhatvā	-8.8909
▁Satthā	-8.89167
▁dhammehi	-8.89177
▁Yadi	-8.89257
▁ṭhāne	-8.89272
▁nisīdi	-8.89323
▁vuttanti	-8.89454
dha	-8.8976
▁dhammesu	-8.89949
▁viññāṇaṃ	-8.90186
▁kāma	-8.90287
▁rāja	-8.90549
▁kusalaṃ	-8.9058
▁kilesa	-8.90854
▁Sam	-8.9089
▁evameva	-8.90992
akā	-8.91093
▁yadi	-8.91307
▁pubba	-8.91526
▁4.	-8.91575
▁Kasmā	-8.91604
▁anāpatti	-8.91611
mahā	-8.91874
atthi	-8.92115
▁ekā	-8.92236
▁pavatti	-8.92284
▁‘‘‘	-8.92326
amāno	-8.9235
▁Katame	-8.92558
▁mano	-8.9284
▁vuttattā	-8.92887
ho	-8.92902
tena	-8.93017
maṃ	-8.93144
ino	-8.93223
▁10	-8.93309
▁avijjā	-8.9337
▁pahāya	-8.93504
▁phala	-8.93623
▁buddhassa	-8.93668
vaggo	-8.93824
▁kasmā	-8.93878
▁sīla	-8.93899
▁paññāya	-8.93961
ahaṃ	-8.94001
āpetvā	-8.94614
▁devā	-8.94755
▁dhātu	-8.94896
▁cettha	-8.94918
▁saddhā	-8.94968
▁patvā	-8.94986
tabbaṃ	-8.95005
▁imā	-8.95192
▁cetanā	-8.95359
li	-8.95536
▁Eka	-8.9554
dayo	-8.95551
esi	-8.95587
▁kenaci	-8.95713
▁sīlaṃ	-8.95957
▁Kiṃ	-8.96001
▁paṭhama	-8.96046
ñhi	-8.961
▁tiṭṭhati	-8.96193
dīsu	-8.96222
▁sama	-8.96445
▁bhave	-8.96601
▁Sesaṃ	-8.9671
▁udakaṃ	-8.96786
▁atthīti	-8.96883
eva	-8.9693
ntiādi	-8.96944
akaṃ	-8.97123
▁attā	-8.97177
▁saṅghassa	-8.97221
▁s	-8.97384
yi	-8.97504
▁Tesaṃ	-8.97561
▁Dhamma	-8.97563
▁labhati	-8.97919
pada	-8.97939
▁natthīti	-8.98076
▁ārammaṇapaccay	-8.98498
▁catūhi	-8.98508
▁tattheva	-8.98532
▁kālaṃ	-8.98618
▁bahi	-8.98624
▁dvinnaṃ	-8.98653
citta	-8.98794
▁paccaya	-8.98861
tassa	-8.98915
tthaṃ	-8.98996
iya	-8.99313
▁kā	-8.99603
▁santikaṃ	-8.99642
▁gahapati	-9.0002
▁ne	-9.00024
▁sattānaṃ	-9.00038
ṅga	-9.00122
▁devatā	-9.00167
ane	-9.00223
bha	-9.00278
▁cakkhu	-9.00284
▁kāyassa	-9.00362
▁karonto	-9.00364
▁adāsi	-9.0038
saddassa	-9.00436
matta	-9.00698
▁sāsanaṃ	-9.00724
yya	-9.00959
▁patto	-9.0098
ñceva	-9.01031
ntīti	-9.01166
ḷa	-9.01184
▁purisa	-9.01328
▁pada	-9.01348
issati	-9.01726
ento	-9.01961
▁loko	-9.02272
tthā	-9.02384
▁manasi	-9.02416
▁Upa	-9.02445
▁paññattaṃ	-9.02468
ova	-9.02598
d	-9.02828
▁arahattaṃ	-9.03157
aṭṭhena	-9.0317
▁ete	-9.03206
▁Tasmiṃ	-9.03219
▁vipassanā	-9.03243
bhūtā	-9.03415
▁kathesi	-9.03448
gga	-9.03488
ssu	-9.03504
b	-9.03542
▁udaka	-9.0355
▁desanā	-9.03661
▁upasampajja	-9.03861
▁5.	-9.03873
vāti	-9.03957
raṃ	-9.03988
ṭa	-9.04014
sūti	-9.04027
iko	-9.0408
▁catūsu	-9.0416
▁ekamantaṃ	-9.04331
bhūto	-9.04408
ādivasena	-9.04522
dhi	-9.04564
▁bhikkhuṃ	-9.04641
cca	-9.04689
ṭṭhā	-9.04795
▁gāthamāha	-9.05432
▁gacchanti	-9.05443
▁kevalaṃ	-9.05561
▁ekato	-9.05636
yanti	-9.05734
hu	-9.06023
▁vatthuṃ	-9.06318
vo	-9.0636
▁tāya	-9.0659
nta	-9.06627
▁ava	-9.06696
▁manussā	-9.06999
jja	-9.07143
▁Ma	-9.07212
▁ādāya	-9.07283
eyyāti	-9.07356
▁Paṭi	-9.07391
▁catunnaṃ	-9.07508
▁bhikkhunī	-9.07531
deva	-9.07536
gataṃ	-9.07699
ikkhāpadavaṇṇanā	-9.0847
ci	-9.0871
bhāve	-9.08763
▁vuttanayeneva	-9.09248
▁añño	-9.09353
▁tīhi	-9.09429
▁uppajjittha	-9.09605
nāma	-9.09609
▁U	-9.09673
▁atta	-9.09833
▁ahesuṃ	-9.09854
▁11	-9.10102
an	-9.10164
paṭi	-9.10215
vacanaṃ	-9.1041
▁loka	-9.10428
▁Pañca	-9.10497
▁nesaṃ	-9.10569
▁etamatthaṃ	-9.10779
▁7.	-9.11155
nte	-9.11447
magga	-9.11761
▁uppannaṃ	-9.11811
▁maraṇā	-9.11818
he	-9.11928
t	-9.11981
▁esa	-9.11994
▁Dutiya	-9.12081
paññā	-9.12125
▁purima	-9.12178
rūpaṃ	-9.12241
▁Ime	-9.1228
ntā	-9.12293
▁pañcahi	-9.12618
▁tīsu	-9.12717
▁abhiññā	-9.1291
▁pāṭho	-9.12916
tto	-9.12933
▁bhāsitaṃ	-9.12945
▁kassaci	-9.13097
▁paṭipadā	-9.13248
etīti	-9.13316
antīti	-9.13342
▁vanditvā	-9.13433
▁āpattiyo	-9.13463
▁bahiddhā	-9.13793
ānañca	-9.13796
▁bhāvanā	-9.14295
sū	-9.14376
▁tatheva	-9.14434
evaṃ	-9.14569
▁ṭhitā	-9.14648
ssāmi	-9.14733
▁vācāya	-9.14775
āva	-9.14916
▁No	-9.14947
kathāvaṇṇanā	-9.14962
dhammo	-9.15067
▁dukkhā	-9.15093
atha	-9.1511
mu	-9.15143
▁sabbaso	-9.15228
paññatti	-9.15317
▁tisso	-9.15321
▁kappe	-9.15324
▁pācittiyaṃ	-9.15411
▁sammāsambuddh	-9.15473
▁go	-9.1569
▁pā	-9.15757
▁pati	-9.15858
pā	-9.16153
ccha	-9.16444
▁doso	-9.16513
▁Tadā	-9.16531
▁ekasmiṃ	-9.16643
▁akāsi	-9.1673
▁sādhu	-9.16843
diṭṭhi	-9.16902
pī	-9.16998
ūpa	-9.17211
▁nirujjhati	-9.17304
assāti	-9.17518
▁catasso	-9.1759
rī	-9.17601
▁avi	-9.17665
▁bhāveti	-9.17766
rājā	-9.17822
gā	-9.17881
▁kāyena	-9.17903
▁tumhākaṃ	-9.1793
▁pavisitvā	-9.1797
▁hontīti	-9.18032
▁buddhaṃ	-9.1806
tte	-9.18226
nissayapaccayena	-9.18288
▁Iminā	-9.18433
mī	-9.18459
▁atthe	-9.18523
▁tenupasaṅkami	-9.18718
▁āgato	-9.1879
▁imāni	-9.19116
▁sabbā	-9.19202
▁hatthi	-9.19306
jā	-9.19334
▁6.	-9.19446
▁suṭṭhu	-9.19594
paṭisandhikkhaṇe	-9.19918
▁rajjaṃ	-9.2002
Sa	-9.20263
ikaṃ	-9.20297
eyyuṃ	-9.20493
▁Mā	-9.20513
▁upādāya	-9.20643
▁vuccanti	-9.2065
▁sacca	-9.20662
ataṃ	-9.21032
ntaṃ	-9.2113
▁rūpānaṃ	-9.21526
dīhi	-9.21542
Pa	-9.21552
avaṇṇanā	-9.21556
▁patta	-9.21584
▁putto	-9.21664
▁nibbāna	-9.21679
nampi	-9.21828
▁Ti	-9.21894
▁vatthusmiṃ	-9.2191
▁pavatta	-9.22034
kathaṃ	-9.22042
▁etena	-9.22088
▁mūla	-9.22093
vaṇṇa	-9.22103
bhūtaṃ	-9.22177
yevāti	-9.22521
▁lokaṃ	-9.22834
▁vacanato	-9.22856
▁ārammaṇaṃ	-9.22931
▁viseso	-9.23237
ṃsu	-9.23347
amānā	-9.23377
gato	-9.23476
▁upapajjantānaṃ	-9.23496
lo	-9.23571
abhāvena	-9.23703
kkha	-9.2371
▁antarā	-9.23743
abhāvaṃ	-9.23787
ki	-9.23928
akāle	-9.23998
vipāka	-9.24033
▁dukkaṭassa	-9.24056
▁Tesu	-9.24059
▁Bhagavā	-9.24127
▁Ko	-9.24201
go	-9.24535
▁tasseva	-9.24613
enā	-9.24655
itabbaṃ	-9.2466
▁9.	-9.24669
▁dvīsu	-9.24704
▁añña	-9.24772
▁Anu	-9.24811
▁padaṃ	-9.24887
▁upekkhā	-9.24893
ādinā	-9.2494
▁kāyo	-9.25127
▁labbhati	-9.25152
▁8.	-9.2525
▁yato	-9.25288
▁sakkoti	-9.25348
▁vijjā	-9.25661
▁etassa	-9.25671
▁pāḷi	-9.25746
▁jāto	-9.25784
▁10.	-9.26155
▁atthato	-9.26155
▁dutiyaṃ	-9.26372
Evaṃ	-9.26413
▁majjhe	-9.26618
▁suttaṃ	-9.26733
▁tiṇṇaṃ	-9.26795
dhamme	-9.26842
guṇa	-9.26854
bhūta	-9.26928
▁kusala	-9.26986
ārammaṇe	-9.27277
▁imehi	-9.27318
ṇi	-9.27421
▁gaṇhāti	-9.27532
tabba	-9.27615
tipi	-9.27675
▁yadidaṃ	-9.27714
▁cintesi	-9.27846
▁āpattiṃ	-9.27874
▁sikkhā	-9.27923
▁bahū	-9.28072
iyo	-9.28117
Ā	-9.28191
▁Va	-9.28265
vāre	-9.28289
▁aññamaññaṃ	-9.2829
▁Yathāha	-9.28347
sampanno	-9.28422
attha	-9.28485
asuttaṃ	-9.28587
pajj	-9.28715
etuṃ	-9.28905
smā	-9.29033
Yo	-9.29156
▁bhavissatī	-9.29159
▁Paṭhama	-9.29228
▁B	-9.29358
▁dissati	-9.29389
▁avigate	-9.29574
▁bhikkhuniyo	-9.29587
▁apa	-9.29719
Hetuyā	-9.29758
▁Atthi	-9.29807
▁ekena	-9.29966
▁uppatti	-9.29969
▁bhaveyya	-9.30076
▁ajjhattaṃ	-9.30185
▁dvīhi	-9.30241
▁vadāmi	-9.30455
▁āgatā	-9.30484
lakkhaṇaṃ	-9.30488
▁nibbatti	-9.30659
▁jātā	-9.30818
▁sutaṃ	-9.30827
ntī	-9.30839
do	-9.30949
jāti	-9.31035
tū	-9.31085
▁khandha	-9.31097
▁suvaṇṇa	-9.31122
ssāmī	-9.31146
ṇā	-9.31147
iyaṃ	-9.31341
▁aññe	-9.31478
▁bhavanti	-9.31604
paccayo	-9.31768
tabbā	-9.31837
▁pattaṃ	-9.3195
▁Nanu	-9.32007
▁imesaṃ	-9.32015
▁tayā	-9.32015
▁punappunaṃ	-9.3202
▁sāsane	-9.32157
▁katthaci	-9.32168
▁Dve	-9.32178
▁samaṇo	-9.32186
▁parassa	-9.32211
▁nāmā	-9.32218
▁vaṭṭatī	-9.32257
▁pāḷiyaṃ	-9.3229
▁vicikicchā	-9.32292
▁puggalassa	-9.32302
bhā	-9.3237
karo	-9.324
▁gotama	-9.32456
▁rāgo	-9.32545
ntiādinā	-9.32626
▁gotamo	-9.32653
ama	-9.3269
yati	-9.32858
▁yathāvutta	-9.32954
▁pavattā	-9.33089
▁dīpeti	-9.33203
▁piṇḍāya	-9.33229
▁gahetabbaṃ	-9.33267
pañca	-9.33357
▁Pucchā	-9.33433
san	-9.33441
▁guṇa	-9.3353
santi	-9.33547
▁āyasmato	-9.3361
▁samāno	-9.33621
▁disā	-9.33683
▁vaṭṭatīti	-9.33789
▁saṅghaṃ	-9.33827
▁i	-9.33936
▁caparaṃ	-9.33961
saññī	-9.34028
gata	-9.34037
▁uppajjatīti	-9.34135
▁Nā	-9.34172
▁pabbajitvā	-9.34198
dāna	-9.34217
▁Puna	-9.34387
saṅkhātaṃ	-9.34478
▁pāpa	-9.34579
▁agamāsi	-9.346
▁mātā	-9.34689
rasa	-9.34812
▁ārocesuṃ	-9.34842
▁panassa	-9.34887
▁divase	-9.34918
▁sāvatthiyaṃ	-9.34927
suṃ	-9.35091
pucchā	-9.35112
▁nisīditvā	-9.35239
▁kāraṇena	-9.35349
▁nirujjhissati	-9.35414
▁tañca	-9.35437
▁tāsaṃ	-9.35495
▁phasso	-9.35548
▁k	-9.35641
▁aggi	-9.35701
▁vicikicchānusay	-9.35736
massa	-9.35792
dānaṃ	-9.35826
▁yasmiṃ	-9.35861
satta	-9.36028
▁bhedā	-9.3614
▁kāraṇa	-9.36289
▁gatā	-9.36332
▁āharitvā	-9.36421
sampatti	-9.36457
īyati	-9.36488
▁cittena	-9.36521
▁paresaṃ	-9.36529
▁paññatti	-9.36709
▁bhavaṃ	-9.36809
▁sesa	-9.3682
▁jhāna	-9.36934
▁saṅgha	-9.36993
▁ajja	-9.36994
sati	-9.37013
toti	-9.37036
▁nikkhamitvā	-9.37072
vaseneva	-9.37196
▁dāni	-9.37211
▁sato	-9.37243
▁sammādiṭṭhi	-9.3725
▁sabbesaṃ	-9.37264
bho	-9.37269
dhammaṃ	-9.37319
as	-9.37341
▁dvādasa	-9.37446
dhī	-9.37471
tabbo	-9.37503
padaṃ	-9.37595
▁Cha	-9.37653
▁sakko	-9.37774
▁kusalo	-9.3785
▁dvi	-9.37919
▁anā	-9.3794
▁evamāha	-9.37985
▁vipāko	-9.38101
Puna	-9.38122
▁niṭṭhitaṃ	-9.38182
▁cintetvā	-9.38197
▁Esa	-9.38226
▁dāna	-9.38409
nena	-9.38543
▁Athassa	-9.38581
▁therassa	-9.38597
▁nāmāti	-9.38606
tara	-9.38767
▁pavattati	-9.38903
▁teneva	-9.39191
▁anantarapaccay	-9.3929
▁Thero	-9.39379
▁vijjati	-9.3944
▁kattha	-9.39474
▁evarūpaṃ	-9.39475
▁cīvara	-9.3973
āyāti	-9.39902
▁hotu	-9.40059
tthi	-9.40162
l	-9.4025
asuttavaṇṇanā	-9.40342
▁pīti	-9.40343
eyyā	-9.40348
abhāvo	-9.40373
▁āyasmantaṃ	-9.40507
▁vuttanayena	-9.40587
mevāti	-9.40681
▁Ta	-9.40712
bhāvanā	-9.40842
mayaṃ	-9.40859
▁mahantaṃ	-9.40862
ite	-9.40957
▁sarīra	-9.40981
samādhi	-9.41091
▁abyākatā	-9.41134
▁katā	-9.41159
▁vihāraṃ	-9.41241
’’’	-9.41404
▁aṭṭhāsi	-9.4147
▁brahmacariyaṃ	-9.41482
▁kathā	-9.41575
▁ana	-9.4162
▁gahitā	-9.41796
āma	-9.41852
▁uppanna	-9.41905
magge	-9.41916
tanti	-9.41923
▁kati	-9.42131
▁purato	-9.42133
▁sāriputta	-9.42201
▁ṭhita	-9.42285
▁bhāvanāya	-9.42302
▁aññatra	-9.42318
anato	-9.42386
j	-9.42414
y	-9.42463
▁jetavane	-9.42465
▁sadda	-9.42542
sutta	-9.42592
▁dinnaṃ	-9.426
kānaṃ	-9.42607
▁kātabbaṃ	-9.42653
ānanti	-9.42719
▁puggalā	-9.42834
▁tathāgatassa	-9.42844
▁cetasā	-9.4295
▁asati	-9.43086
▁kato	-9.4309
po	-9.43209
▁pakati	-9.43379
asseva	-9.43409
yathā	-9.43466
gati	-9.43556
phala	-9.43647
kāni	-9.43709
ntassa	-9.43933
antassa	-9.44388
paccaya	-9.444
vāda	-9.44414
▁bodhisatto	-9.44471
▁paṭisandhi	-9.44473
▁pure	-9.44482
▁Tatra	-9.44611
▁satthāraṃ	-9.44645
▁samā	-9.44714
cittaṃ	-9.4478
▁moho	-9.45022
▁saccaṃ	-9.45054
atthipaccayena	-9.45131
ṇ	-9.45153
▁kāla	-9.45177
▁citte	-9.45453
māha	-9.45459
▁aneka	-9.45463
rāja	-9.45584
▁udapādi	-9.45586
▁abhāsi	-9.45679
upa	-9.4571
kanti	-9.45733
Vi	-9.45905
▁aññathā	-9.4593
▁khaṇe	-9.4598
▁garuṃ	-9.46128
▁Vissajjanā	-9.46152
bhava	-9.46275
bhāvā	-9.46295
▁brāhmaṇā	-9.46322
▁Kā	-9.46329
▁manussa	-9.4635
taraṃ	-9.46367
attho	-9.46376
▁abhāvato	-9.46616
▁dutiya	-9.46633
▁khandhaṃ	-9.46831
So	-9.47012
kiccaṃ	-9.47045
▁āpattiyā	-9.47076
▁vipāka	-9.47096
▁uppannā	-9.47113
▁uddhaṃ	-9.4713
▁sabbepi	-9.47151
etha	-9.47171
▁anupa	-9.47258
▁Tā	-9.47368
▁Yattha	-9.4752
▁atthāya	-9.47521
ssāpi	-9.4755
▁pañcannaṃ	-9.47562
▁brahma	-9.47567
▁piya	-9.47643
‘‘	-9.47713
sukha	-9.47715
tāti	-9.47744
▁nagaraṃ	-9.47887
▁I	-9.479
mati	-9.47939
▁12	-9.48009
▁pitā	-9.48085
▁pucchā	-9.48163
issanti	-9.48365
mūla	-9.48414
māna	-9.48434
▁vācā	-9.48605
▁aññā	-9.4876
▁Nahetu	-9.48766
▁eso	-9.48831
▁yadā	-9.48911
▁iccādi	-9.48934
▁dhammadesanaṃ	-9.49108
ṭṭhaṃ	-9.49124
āna	-9.49153
ga	-9.49192
metaṃ	-9.4948
smi	-9.49644
kehi	-9.49842
▁jīvitaṃ	-9.49916
ssanti	-9.49928
hita	-9.4999
▁pucchitvā	-9.50041
▁cakkhundriyaṃ	-9.50078
▁adhi	-9.50114
ṭṭhāna	-9.50178
gatā	-9.50206
▁agga	-9.50241
▁tatiyaṃ	-9.50291
bhūmi	-9.50304
▁pavatte	-9.50429
ñcāti	-9.50484
▁indriyā	-9.50549
▁rājānaṃ	-9.50718
▁vattuṃ	-9.50783
▁panā	-9.51008
ñāṇa	-9.51035
▁pañhaṃ	-9.5109
▁kareyya	-9.51098
uṃ	-9.51189
▁akusala	-9.51203
▁tada	-9.51307
▁viharanto	-9.51398
▁kilesā	-9.51401
▁paṇḍito	-9.51418
māno	-9.51424
▁vattabbā	-9.51474
ake	-9.51483
▁bhūmi	-9.5153
ntu	-9.51535
▁saka	-9.51542
▁vīriyaṃ	-9.51577
sadda	-9.51581
1	-9.51775
▁api	-9.51783
▁arahato	-9.51894
▁ānando	-9.51913
▁manasā	-9.52002
▁pāda	-9.52017
▁catutthaṃ	-9.52072
sīla	-9.5214
▁aṭṭhakathāyaṃ	-9.52169
▁samma	-9.52363
kkhaṇe	-9.52371
▁ki	-9.52416
▁pare	-9.52666
▁bhikkhūhi	-9.52895
▁tampi	-9.52938
ggahaṇena	-9.53192
▁ku	-9.53223
katā	-9.53229
indriya	-9.53234
lakkhaṇa	-9.53293
▁yesaṃ	-9.53343
▁kāye	-9.53348
▁hetupaccayena	-9.53361
▁Apica	-9.5352
ānu	-9.53533
▁saraṇaṃ	-9.53541
▁ekassa	-9.53556
▁vihāre	-9.53608
▁sāsana	-9.53787
antā	-9.5383
▁vedanākkhandho	-9.53921
▁Natthi	-9.54153
▁Abhi	-9.54172
matte	-9.54205
▁āsavā	-9.54278
▁ārammaṇa	-9.5429
nimittaṃ	-9.54449
▁pathavī	-9.54451
kāraṃ	-9.54475
kicca	-9.54485
▁puñña	-9.54553
kālo	-9.54676
kiriyā	-9.54757
mana	-9.54758
▁hetū	-9.54828
Tena	-9.54835
▁ṭhitaṃ	-9.54846
▁Bhagavato	-9.55036
▁abyākato	-9.55114
▁Kamma	-9.55115
▁dīgha	-9.5514
mukha	-9.55172
laṃ	-9.55189
▁bhāvo	-9.55194
vippayuttapaccay	-9.55217
assā	-9.55264
▁Vuttañhetaṃ	-9.55346
▁dassanena	-9.55397
▁samāna	-9.55438
▁vattabbo	-9.55507
▁dhanaṃ	-9.55544
▁etadahosi	-9.55579
karaṇaṃ	-9.55708
▁soḷasa	-9.55711
▁P	-9.55799
▁du	-9.55801
▁katamo	-9.55834
cariyā	-9.55907
Kiṃ	-9.55912
▁gāma	-9.56007
▁aññataraṃ	-9.56023
ānī	-9.56042
niddeso	-9.56062
▁pacchima	-9.56233
▁purimā	-9.56238
karaṇa	-9.56317
▁Ki	-9.56327
▁kammassa	-9.56357
▁cakkhāyatanaṃ	-9.56421
vasenāti	-9.56498
vādī	-9.56533
dukkha	-9.56788
ku	-9.56886
▁sutta	-9.5689
▁bhavati	-9.56958
▁panetaṃ	-9.57083
▁kāyaṃ	-9.57119
le	-9.57165
cakkhu	-9.57263
▁vadeyya	-9.57267
▁labhitvā	-9.57339
▁ekādasa	-9.57342
▁tatra	-9.57555
eka	-9.57677
▁akusalaṃ	-9.57705
taṇhā	-9.57995
▁etarahi	-9.58141
dassanaṃ	-9.58194
▁gati	-9.58486
eyyaṃ	-9.58576
ime	-9.58774
uppatti	-9.58785
asi	-9.59133
▁visesa	-9.59172
▁paññāyati	-9.5922
▁An	-9.59299
vatta	-9.5936
▁sambahulā	-9.59425
▁ṭhānesu	-9.59445
▁samaṇa	-9.59546
sampattiyā	-9.59636
▁akatvā	-9.59957
▁karotīti	-9.60002
v	-9.60012
▁visa	-9.60058
▁āsi	-9.6013
gha	-9.60204
▁pitu	-9.60278
▁paṇamāmyahaṃ	-9.60281
▁S	-9.60284
▁bodhi	-9.60379
▁nāga	-9.60433
▁satte	-9.60613
▁pāde	-9.60644
▁laddha	-9.60663
▁sadā	-9.60763
issāmi	-9.60791
▁Si	-9.60919
▁nicca	-9.61161
▁pāpuṇāti	-9.61204
imaṃ	-9.61225
ṭṭh	-9.61255
akathā	-9.61315
▁sutte	-9.61403
▁micchā	-9.61424
▁sakala	-9.61497
dvaya	-9.61574
▁etesaṃ	-9.61576
▁putta	-9.61626
▁senāsanaṃ	-9.6163
▁janā	-9.6171
▁kate	-9.6176
▁ākāse	-9.6177
▁Satta	-9.61827
▁tadeva	-9.61883
▁bahuṃ	-9.61914
▁appaṭi	-9.61993
vacana	-9.62114
▁jīvita	-9.62153
▁vacana	-9.62199
sabba	-9.62435
▁Vā	-9.62508
tveva	-9.62513
▁adhivacanaṃ	-9.62537
▁puppha	-9.6258
▁pajahati	-9.62604
atthe	-9.62666
▁dassana	-9.62679
▁aññena	-9.62767
ṇī	-9.62781
▁kena	-9.62792
▁muni	-9.62821
▁katamaṃ	-9.63042
sampayutta	-9.63065
▁kula	-9.63289
▁dhātuyo	-9.63289
▁itthi	-9.63465
▁dhammena	-9.63491
▁niccaṃ	-9.63516
▁Aṭṭha	-9.63621
▁dibba	-9.63626
▁bhattaṃ	-9.63646
mānā	-9.63647
nnaṃ	-9.63726
▁aññassa	-9.63778
yyā	-9.63973
▁dosa	-9.64019
▁āmantesi	-9.64025
sahassāni	-9.64088
▁abhivādetvā	-9.64199
nissaya	-9.64219
▁kamme	-9.6429
abhāvato	-9.64327
r	-9.64405
asmiṃ	-9.64481
mattā	-9.64524
▁hattha	-9.64569
▁buddhā	-9.64592
ssatī	-9.64671
supi	-9.64754
dosa	-9.6479
tāni	-9.64801
sse	-9.64998
▁santa	-9.65007
▁Teneva	-9.65043
▁Ekamantaṃ	-9.65047
satāni	-9.65106
▁kuto	-9.65111
avi	-9.6514
▁vedanaṃ	-9.65143
▁Saṃ	-9.65149
nayo	-9.65385
▁va	-9.65437
▁hī	-9.65462
▁Ve	-9.65517
▁hatthe	-9.65533
anavasena	-9.65548
citto	-9.65607
bala	-9.65629
sukhaṃ	-9.65669
gāthā	-9.6568
▁divā	-9.65753
▁puṭṭho	-9.65832
aṭṭhāne	-9.65892
tukāmo	-9.65958
sampadā	-9.66011
ndriy	-9.66034
vedanā	-9.66046
sama	-9.66235
▁esā	-9.66277
midaṃ	-9.6649
▁dinna	-9.66517
▁pabbajito	-9.66551
▁kilese	-9.66552
ḷā	-9.66645
bhūte	-9.66654
▁ahu	-9.66718
▁santi	-9.6691
desanā	-9.66948
bhū	-9.66949
Ta	-9.67004
▁atītaṃ	-9.67045
kārā	-9.67053
▁pāpuṇi	-9.67175
▁parama	-9.67251
▁maraṇa	-9.67332
bhikkhu	-9.67337
vassa	-9.67347
▁kāme	-9.67422
yu	-9.6756
bhedo	-9.67631
mha	-9.67646
putto	-9.67649
▁maṇi	-9.67791
▁uppādakkhaṇe	-9.67815
savitakkasavicār	-9.67821
▁āyatiṃ	-9.67826
▁purisassa	-9.67858
▁jānanti	-9.67862
ddha	-9.67881
itattā	-9.67917
ntara	-9.67938
▁Hetu	-9.67957
▁vaṇṇa	-9.68049
▁iddhi	-9.68061
▁puññaṃ	-9.68118
▁bhayaṃ	-9.68119
▁cetaṃ	-9.68125
kāla	-9.68164
▁adhipatipaccay	-9.68408
▁vinaya	-9.68422
▁tap	-9.68455
▁mātu	-9.68464
▁Pā	-9.68513
▁vasi	-9.68518
bheda	-9.68555
▁passa	-9.68608
sace	-9.68663
Taṃ	-9.68666
▁parijānāti	-9.68825
▁Ca	-9.68855
▁bhatta	-9.68913
vāro	-9.68918
loka	-9.68937
▁avasesā	-9.68949
▁āgata	-9.68951
▁ativiya	-9.69246
▁santo	-9.69248
Yathā	-9.69349
dassana	-9.69387
▁kāmā	-9.69422
▁gahaṇaṃ	-9.69474
▁uppanno	-9.69568
▁gahita	-9.6959
2	-9.69666
▁aññataro	-9.69666
▁karitvā	-9.69709
dassanena	-9.69768
▁yojetabbaṃ	-9.6983
▁samayaṃ	-9.69893
▁saṅgahitā	-9.69914
inī	-9.69977
▁puttaṃ	-9.70013
sena	-9.70069
▁kiriyā	-9.70178
Ye	-9.70191
▁bhikkhuniyā	-9.70219
▁saṅghena	-9.70291
▁gacchanto	-9.70473
▁uttara	-9.70536
ñāṇaṃ	-9.70538
▁sampayuttā	-9.70547
vaṇṇaṃ	-9.7056
ggahaṇaṃ	-9.70676
manu	-9.70722
ate	-9.70734
▁patiṭṭhā	-9.70771
▁samaṇabrāhmaṇā	-9.70781
itabbā	-9.70789
▁viyāti	-9.70938
▁ekacco	-9.71063
▁seyyathāpi	-9.71134
▁Yadā	-9.71137
▁kadāci	-9.71137
īnaṃ	-9.71193
▁d	-9.71289
▁saddaṃ	-9.71468
▁Tassā	-9.71478
nato	-9.71586
apaccayā	-9.71618
▁vipassanaṃ	-9.71686
▁vinicchayo	-9.71707
samā	-9.71713
▁ariyasāvako	-9.71759
▁Evañca	-9.71891
▁sarīraṃ	-9.71932
ntiādīsu	-9.71973
yato	-9.72068
hāna	-9.72068
▁pucchati	-9.72074
ji	-9.72137
▁pūretvā	-9.72159
▁pahīnā	-9.72171
kāma	-9.72255
kārassa	-9.72286
▁kammaṭṭhānaṃ	-9.72297
mano	-9.72369
tti	-9.72376
ñña	-9.72497
▁hetuyā	-9.72515
Yaṃ	-9.72569
āhi	-9.72578
▁āvi	-9.72587
▁buddhānaṃ	-9.72609
taro	-9.72645
▁Cakkhu	-9.72653
▁gaṇhi	-9.72695
bhante	-9.7273
yatīti	-9.72739
rūpā	-9.7278
▁kissa	-9.72782
amhi	-9.72829
▁gāmaṃ	-9.7302
U	-9.73075
▁arahā	-9.73081
▁tameva	-9.73249
▁Keci	-9.73255
▁tad	-9.73419
▁vuttāni	-9.73461
▁Yena	-9.7347
▁itthī	-9.73487
yassa	-9.73518
ṭṭhe	-9.73556
▁bhiyyo	-9.73558
▁uttari	-9.7356
▁pahātabbo	-9.73622
▁tāta	-9.7375
▁sikkhāpadaṃ	-9.7375
vutti	-9.73808
▁jane	-9.73822
▁cassa	-9.73892
▁dassito	-9.73905
▁devānaṃ	-9.73949
▁daṭṭhabbā	-9.73967
▁dukkhassa	-9.74033
du	-9.7406
▁maggassa	-9.74199
▁yujjati	-9.74244
▁Dasa	-9.74273
añceva	-9.74293
gāma	-9.74363
▁nibbatto	-9.74435
ññū	-9.74505
pubba	-9.74549
āvuso	-9.74626
▁kālena	-9.74641
▁evāti	-9.74674
▁tatiya	-9.74756
▁vihāra	-9.74824
▁diṭṭhiyā	-9.74841
▁Ekaṃ	-9.74861
▁manussānaṃ	-9.74959
▁jāta	-9.75038
▁aya	-9.75118
▁Sabbe	-9.75164
▁jātaṃ	-9.75288
▁samannāgatā	-9.75337
▁nimittaṃ	-9.75344
lla	-9.75379
vana	-9.75382
▁viditvā	-9.75427
kusalo	-9.75439
▁kappa	-9.75449
D	-9.75512
ādikaṃ	-9.75517
gamana	-9.75518
vara	-9.75523
Su	-9.75568
▁Bhikkhu	-9.75666
▁nuppajjati	-9.75788
▁viññāṇa	-9.75813
▁khandho	-9.76086
bba	-9.76146
▁D	-9.762
▁mukha	-9.76327
lakkhaṇā	-9.76414
ṇaṃ	-9.76459
▁p	-9.76461
▁natthī	-9.76548
▁balava	-9.76592
▁etasmiṃ	-9.76609
▁paṭivirato	-9.76676
ehīti	-9.76686
▁paṭipanno	-9.76755
▁etthāti	-9.76785
antī	-9.76817
para	-9.76869
vacanena	-9.76936
▁ñāṇena	-9.76954
itabba	-9.76955
▁tuyhaṃ	-9.77013
▁pañcasu	-9.77024
▁Kāya	-9.77087
daṃ	-9.77091
▁magge	-9.77162
▁etenāti	-9.7718
maggo	-9.77188
▁vitakko	-9.7721
▁sahajātapaccay	-9.77262
▁katamā	-9.77271
▁sayameva	-9.77298
dī	-9.7732
▁māna	-9.77425
▁ekadivasaṃ	-9.77433
rato	-9.77451
▁āhari	-9.77462
kāraṇaṃ	-9.7747
ṇo	-9.77484
▁manindriyaṃ	-9.77515
▁upanissāya	-9.77522
mayā	-9.77645
▁gacchatīti	-9.77887
▁dassitā	-9.77972
▁udāhu	-9.78001
▁yutta	-9.78111
ārammaṇa	-9.78293
ṇḍ	-9.78308
4	-9.78369
▁Attano	-9.784
▁sāriputto	-9.78619
samanantare	-9.78639
▁etthāpi	-9.78648
hāra	-9.78689
▁ha	-9.7875
apa	-9.78805
ttaya	-9.78866
▁gaccha	-9.78868
ppatto	-9.78872
▁sabbo	-9.78941
dho	-9.7899
▁lokassa	-9.79361
▁eke	-9.79362
▁kātabbo	-9.79431
▁mettā	-9.79511
kara	-9.79536
pade	-9.7959
kata	-9.79697
▁pārājikaṃ	-9.79706
dassanatthaṃ	-9.79746
▁pācittiyassa	-9.79783
▁dātabbaṃ	-9.79798
▁Catu	-9.79806
matto	-9.79842
loke	-9.7997
visesa	-9.79993
▁dhātūhi	-9.80146
▁Ayampi	-9.80152
nda	-9.80156
▁nabhāvanāya	-9.80232
yevā	-9.80267
▁ubho	-9.80273
▁vīsati	-9.80397
▁rūpassa	-9.80413
kārī	-9.80572
▁ra	-9.80578
▁Eko	-9.80591
▁rukkha	-9.80596
▁mahābhūte	-9.80616
pana	-9.80676
▁dutiyo	-9.80683
koṭi	-9.80697
▁sukhāya	-9.80794
▁la	-9.80794
yena	-9.80999
▁carati	-9.81024
▁terasa	-9.81042
kampi	-9.81044
▁sante	-9.81209
▁dhana	-9.81232
▁kathitā	-9.81237
▁Seyyathāpi	-9.81277
āyā	-9.81284
abhāva	-9.81321
▁K	-9.81388
loko	-9.81405
▁deseti	-9.81472
sall	-9.81574
▁vaṇṇo	-9.81583
▁pahātabbahetuk	-9.81586
▁dātuṃ	-9.81615
▁sara	-9.81733
3	-9.81789
▁ariyā	-9.81865
phalaṃ	-9.819
patti	-9.82019
▁nadī	-9.82039
▁jīvitindriyaṃ	-9.82055
▁bha	-9.82059
▁nanda	-9.82079
▁āyu	-9.82148
avatthu	-9.82191
gacch	-9.82196
▁sīsaṃ	-9.82355
ḷ	-9.82409
kataṃ	-9.8244
hāro	-9.82442
▁vīriya	-9.82473
rakkh	-9.82477
ñcā	-9.8258
▁bojjhaṅgā	-9.82642
▁utu	-9.82796
▁gāthāya	-9.82908
▁parato	-9.82994
▁Pi	-9.83093
▁akusalo	-9.83139
jo	-9.83142
itabbo	-9.83157
▁rūpakkhandho	-9.83169
jātā	-9.83236
kāraṇa	-9.83253
▁satto	-9.83261
ābhi	-9.83289
▁yathārahaṃ	-9.83333
dda	-9.83376
▁bandhitvā	-9.83427
dhammānaṃ	-9.83447
avaggo	-9.83471
▁ubhaya	-9.83542
▁madhu	-9.8359
▁Magga	-9.8367
jj	-9.83744
▁Ettāvatā	-9.83818
▁miga	-9.83935
▁Tañhi	-9.83944
▁Tatthāti	-9.83949
6	-9.8395
athā	-9.84062
kilesa	-9.84123
▁sampayuttakānaṃ	-9.84144
desa	-9.84157
▁pacc	-9.84159
▁puññāni	-9.84253
▁araññe	-9.84336
sacc	-9.84341
▁āhāre	-9.84354
kappa	-9.84485
▁uddissa	-9.84503
▁se	-9.84511
▁atthassa	-9.84512
sikkhāpadaṃ	-9.8457
cīvara	-9.84575
sampayuttā	-9.84622
divase	-9.84685
viseso	-9.84708
▁paṇḍitā	-9.84731
▁saṅgaho	-9.84759
▁cakkhunā	-9.84831
▁13	-9.84867
▁rūpāni	-9.84894
▁garu	-9.84917
▁samuṭṭhāti	-9.84945
anatthaṃ	-9.84977
▁sāra	-9.85035
tattha	-9.85046
balaṃ	-9.85093
▁paro	-9.85128
vādo	-9.85155
▁cavantānaṃ	-9.8517
▁pabbajjā	-9.852
tañca	-9.8524
▁suta	-9.85324
▁kiñcāpi	-9.8537
▁Tenevāha	-9.85378
▁udake	-9.85427
▁saccāni	-9.85555
▁vassāni	-9.85586
▁jātiyā	-9.85588
▁arūpa	-9.85597
▁si	-9.85674
▁aṭṭhārasa	-9.85688
▁Rūpa	-9.85724
▁gandha	-9.85803
▁sampajāno	-9.85903
▁bhaṅgakkhaṇe	-9.8591
▁saṅgaṇhāti	-9.86027
▁kāmarāgānusayo	-9.8605
▁kātabbā	-9.86082
ṇe	-9.86099
kula	-9.86104
sabhāvā	-9.86211
▁rūpāyatanaṃ	-9.86268
▁sudaṃ	-9.86386
▁sikkh	-9.8644
▁nissaggiyaṃ	-9.8647
▁Ku	-9.86471
rūpe	-9.86547
assāpi	-9.86608
ntena	-9.86636
▁pahīno	-9.86694
jjha	-9.86696
yī	-9.86755
ānampi	-9.86797
nāpi	-9.8694
de	-9.86953
▁saṅghe	-9.86955
▁aṅgāni	-9.87014
ccā	-9.8705
▁āgataṃ	-9.8728
▁attani	-9.8728
▁adhippeto	-9.87284
▁vana	-9.87335
▁kammapaccayena	-9.87406
▁Ra	-9.87418
7	-9.87535
bhattaṃ	-9.87555
ppavatti	-9.87561
▁Ito	-9.87633
▁pattā	-9.87671
▁cetaso	-9.87713
ṭṭhi	-9.87731
▁vattati	-9.87738
▁dukkh	-9.87782
▁dvāra	-9.87794
▁theraṃ	-9.87845
padānaṃ	-9.8791
▁denti	-9.88126
▁puggalaṃ	-9.88145
▁ratti	-9.88148
▁kāretvā	-9.88168
ñce	-9.8834
▁brāhmaṇassa	-9.88352
▁uttama	-9.88474
▁puthu	-9.88474
bhedato	-9.8848
issāmī	-9.88556
▁jana	-9.88593
▁Etena	-9.88605
sadisaṃ	-9.88622
lu	-9.88728
▁Bha	-9.88739
▁samantato	-9.88797
kāraṇā	-9.88819
▁cāpi	-9.88853
tunti	-9.88885
patta	-9.88899
▁upāli	-9.88901
ādike	-9.88916
ccādi	-9.88935
vatī	-9.88948
gaccha	-9.88988
▁bala	-9.88991
cha	-9.89073
▁sukhā	-9.89165
sāra	-9.892
mukhena	-9.89206
▁gahitaṃ	-9.89283
▁vara	-9.89313
▁karuṇā	-9.89333
▁nibbattitvā	-9.89419
▁ānetvā	-9.89464
gandh	-9.89523
iti	-9.8953
▁bhavā	-9.89545
▁ārocesi	-9.89554
▁dutiyā	-9.89604
▁T	-9.89687
▁rāga	-9.8986
▁maggena	-9.90013
▁sammāsambuddho	-9.90019
▁mātāpitaro	-9.90102
▁saṃvattati	-9.90102
pp	-9.90175
saddā	-9.90205
saha	-9.90205
▁avitakkavicāra	-9.90229
▁pāpaṃ	-9.9031
āyaṃ	-9.90391
▁maraṇaṃ	-9.90413
▁Ādi	-9.90571
rañño	-9.90586
vaṇṇo	-9.90602
▁domanassaṃ	-9.90674
gamanaṃ	-9.90699
▁Tatiya	-9.90715
majjhe	-9.90768
▁gihi	-9.90787
▁indriya	-9.90887
ggahaṇa	-9.90903
▁bhāsati	-9.90947
nna	-9.90995
ññā	-9.91088
▁āhāro	-9.91099
▁nevasaññānāsaññ	-9.91111
ssāmā	-9.91126
sahajāta	-9.9114
▁vacanena	-9.91279
▁Sammā	-9.9132
▁rattiṃ	-9.91335
▁aññesaṃ	-9.9138
▁paṭighānusayo	-9.91487
▁vaṇṇaṃ	-9.91498
aho	-9.9152
▁āsavānaṃ	-9.91587
kkhā	-9.9173
▁tuṇhī	-9.91767
vipassanā	-9.91838
kaṅkh	-9.9192
▁saddo	-9.91982
jātakaṃ	-9.92015
vagga	-9.92037
▁ga	-9.9204
▁Pu	-9.92059
▁adhippetā	-9.92101
▁saññāya	-9.92124
ādiṃ	-9.92226
▁Imasmiṃ	-9.92315
▁Ete	-9.92322
▁Sabbesaṃ	-9.92366
kāyo	-9.92428
divasena	-9.92435
▁novigate	-9.92438
▁phal	-9.92581
▁daṇḍa	-9.92607
▁pavattaṃ	-9.92655
atu	-9.92657
▁yāni	-9.92727
īyatīti	-9.92733
▁yuttaṃ	-9.92739
▁gehaṃ	-9.92742
niddese	-9.9279
▁caritvā	-9.92868
▁vipākaṃ	-9.92873
ppaṭi	-9.92893
eyeva	-9.92935
▁byā	-9.92973
sataṃ	-9.92992
▁taṃtaṃ	-9.93013
▁naadhipatiyā	-9.93116
saññāya	-9.93133
▁lakkhaṇa	-9.93193
8	-9.93248
▁bhavo	-9.93249
▁nirodho	-9.93249
▁gaṇa	-9.93257
loma	-9.93257
▁sata	-9.93259
anu	-9.93292
▁vācaṃ	-9.9332
appaṭigho	-9.93329
▁kicca	-9.93337
▁etassāti	-9.93356
ssaṃ	-9.93422
ṇḍa	-9.9345
rū	-9.93458
▁dūre	-9.93463
atta	-9.93502
▁khandhehi	-9.93539
▁taṇhāya	-9.93548
▁saṅkhāre	-9.93559
▁atīta	-9.93567
▁cakkhuṃ	-9.93595
▁gehe	-9.93642
ggāh	-9.93657
▁padhāna	-9.93665
bal	-9.93738
▁mukhaṃ	-9.93884
▁G	-9.93935
▁micchādiṭṭhi	-9.93992
vaṃ	-9.94058
Idha	-9.94112
▁saṅkhāra	-9.94138
▁Yasmiṃ	-9.94138
▁brahmā	-9.94142
▁Ekā	-9.94159
▁gantuṃ	-9.9418
rāsi	-9.94186
▁ṭhiti	-9.94219
c	-9.94264
▁Du	-9.94356
▁sabhāva	-9.9437
▁yebhuyyena	-9.94371
▁antamaso	-9.94399
mevā	-9.94457
▁vand	-9.94526
▁saccikaṭṭh	-9.94536
▁ekanta	-9.94558
▁asam	-9.94587
▁puggala	-9.9459
enapi	-9.94616
vidha	-9.94733
yitvā	-9.94789
▁maggā	-9.9482
▁gāthāyo	-9.94847
nimitta	-9.94861
▁uddhaccasahagat	-9.9487
▁āhāra	-9.95136
▁pamāṇaṃ	-9.95197
▁aṅga	-9.95244
▁moha	-9.95291
h	-9.95361
āmī	-9.95483
pati	-9.95528
▁samaṃ	-9.95596
▁Saha	-9.95645
▁āhaṃsu	-9.95667
maya	-9.9568
mahaṃ	-9.95697
ikāya	-9.9571
▁bhaya	-9.95731
▁pāvisi	-9.95757
▁pakkhipitvā	-9.95791
añhi	-9.95814
▁da	-9.95831
ss	-9.95855
bhāgiy	-9.95859
aṭṭhānaṃ	-9.95877
vajj	-9.95914
saññino	-9.96074
▁rūpe	-9.9612
▁avatvā	-9.96186
jaṃ	-9.96202
▁nirujjhittha	-9.96223
▁ñāti	-9.96293
raso	-9.96327
▁bhariyā	-9.96335
siddhi	-9.96391
ññeva	-9.96412
▁samattā	-9.96441
▁cakkavattī	-9.96457
▁Ya	-9.96471
ḷi	-9.96478
▁11.	-9.96561
phal	-9.96572
ssāma	-9.96619
▁assāti	-9.96654
mattameva	-9.96679
▁kālo	-9.967
▁aniccato	-9.96718
▁Tassattho	-9.9673
saññaṃ	-9.96738
▁anāgate	-9.96826
▁aniccā	-9.9691
▁nāgasena	-9.96937
▁M	-9.96967
▁vitthārena	-9.96999
▁sampa	-9.9701
vane	-9.97098
kesu	-9.97167
anena	-9.97256
paṭisambhidā	-9.97449
▁dvidhā	-9.97672
▁bālo	-9.97677
bhave	-9.97695
▁diṭṭhadhamm	-9.97707
pāda	-9.97731
▁Yato	-9.97731
▁dese	-9.97753
▁gahetabbo	-9.97837
je	-9.97843
▁patte	-9.97858
▁sandhāyāha	-9.97877
dīni	-9.97901
attaṃ	-9.98114
▁chinditvā	-9.98122
▁maññe	-9.98134
▁kāmarāgānusay	-9.98149
dvayaṃ	-9.98242
ñj	-9.9827
▁devo	-9.98291
dāyak	-9.98339
▁jānāmi	-9.9835
▁uppajji	-9.98389
▁ṭhāna	-9.98446
▁mu	-9.98501
nirodho	-9.98509
bhaya	-9.98512
miva	-9.98519
sita	-9.98524
▁hatthena	-9.98538
▁bhojanaṃ	-9.98588
▁saṃsāra	-9.98602
▁Yāva	-9.98603
▁vāre	-9.98643
ssi	-9.98661
▁paṭhamo	-9.98678
▁chando	-9.98743
navippayutte	-9.98762
vī	-9.98817
natthi	-9.98852
▁ekacce	-9.98885
▁samudayo	-9.98904
▁ṭhapita	-9.98912
puriso	-9.98986
ādīsupi	-9.99018
idha	-9.99019
▁uppajjissatīti	-9.99059
ratan	-9.99074
matthaṃ	-9.99125
▁kappiya	-9.99153
ahetu	-9.99175
▁atikkamitvā	-9.99229
▁Añña	-9.99246
▁kathitaṃ	-9.99248
▁āgamma	-9.99257
▁Para	-9.99292
▁kammena	-9.99337
▁asa	-9.99339
▁dukkhāya	-9.99361
▁āsane	-9.99378
▁Evampi	-9.99421
▁Evameva	-9.99466
naya	-9.99543
▁lohita	-9.9956
▁vigata	-9.99701
▁olokento	-9.99708
▁diṭṭha	-9.99767
▁vitthārato	-9.99779
nagare	-9.99787
bhu	-9.99882
tthero	-9.99887
▁suddha	-9.99924
▁pākaṭaṃ	-9.99955
aṭṭhakathāya	-9.99975
▁lokiya	-10.0002
▁Evañhi	-10.0016
▁anusayā	-10.0016
tānaṃ	-10.0021
▁ratana	-10.0021
▁pūj	-10.0022
▁sammukhā	-10.0026
esupi	-10.0027
vāra	-10.0028
▁pakkāmi	-10.0029
mattena	-10.0031
Mā	-10.0031
▁chinna	-10.0042
topi	-10.0055
▁ap	-10.0068
sata	-10.0072
rāga	-10.0083
ntare	-10.0085
▁cūḷa	-10.0095
▁gāme	-10.0099
▁Sīla	-10.0105
▁asaññasattānaṃ	-10.0106
jana	-10.0107
jjā	-10.0111
▁kathāya	-10.0111
aṭṭho	-10.0115
▁asaṅgahitā	-10.0116
▁dassanaṃ	-10.0118
▁bhāvitā	-10.012
▁yañca	-10.0124
▁siyāti	-10.0131
kattā	-10.0134
▁ārāme	-10.0135
▁samaṇā	-10.0138
▁canda	-10.0144
▁pabbata	-10.0153
dhār	-10.0155
▁Citta	-10.0157
sara	-10.016
▁ayampi	-10.0161
▁napacchājāte	-10.0163
▁pahāna	-10.0164
▁tamatthaṃ	-10.0166
▁chand	-10.017
cchā	-10.0172
S	-10.0173
vaṇṇā	-10.0175
▁Tāni	-10.0178
ssatīti	-10.0183
ābhāvato	-10.0183
▁paripūr	-10.0184
▁pahānāya	-10.0186
catu	-10.0187
▁tiṇa	-10.0189
jāto	-10.0194
▁bhavitabbaṃ	-10.0197
g	-10.0197
avigatan	-10.0199
▁yathākkamaṃ	-10.0202
▁Attha	-10.0204
▁gahito	-10.0208
cīvaraṃ	-10.0208
▁kule	-10.0218
dīpa	-10.022
▁nanu	-10.0221
dvāre	-10.0223
▁antare	-10.0234
Ni	-10.0237
▁imāya	-10.0242
ante	-10.0245
sadisā	-10.0247
▁vipāke	-10.0249
▁tiṭṭhanti	-10.025
▁ariya	-10.0253
anatthāya	-10.0254
▁E	-10.0274
ṭā	-10.0277
▁yojetvā	-10.0277
▁ratta	-10.0279
deso	-10.0283
▁Sabbā	-10.0283
vādā	-10.0289
bhavo	-10.0289
ñño	-10.0292
▁pariyāyena	-10.0292
▁Vatthu	-10.0292
▁vaḍḍh	-10.0296
▁sīha	-10.0298
samuṭṭhānaṃ	-10.0309
jjh	-10.0313
▁aññattha	-10.0314
cetanā	-10.0315
āpesi	-10.0318
▁dhammāyatanaṃ	-10.0325
▁aṭṭhi	-10.0327
▁Imāni	-10.0331
▁Pubbe	-10.0338
jāta	-10.0338
bhedena	-10.0338
akammaṃ	-10.0339
tarā	-10.0341
▁Paññā	-10.035
manta	-10.0351
▁aparabhāge	-10.0351
▁sampayutto	-10.0357
▁b	-10.0358
▁sacchikatvā	-10.0362
kathañhi	-10.037
vippayutta	-10.037
▁Dvayaṃ	-10.0375
dvāra	-10.0375
▁dātabbo	-10.0376
▁pavattiṃ	-10.038
▁adho	-10.0381
cā	-10.0387
ttena	-10.0388
▁pākaṭo	-10.0388
ajja	-10.039
▁Sopi	-10.0392
cit	-10.0395
▁upalabbhati	-10.04
▁app	-10.0403
kamme	-10.0406
▁purisindriyaṃ	-10.0413
yampi	-10.0413
▁niraye	-10.0424
▁akaṃsu	-10.0427
sukh	-10.0428
mukhaṃ	-10.0429
▁paññindriyaṃ	-10.0431
dān	-10.0437
▁vuccatīti	-10.0437
▁rājagahe	-10.0438
▁āgacchati	-10.0445
▁kassa	-10.0445
▁vassaṃ	-10.0446
▁gam	-10.0446
riya	-10.0448
saṅkhāta	-10.0462
▁oloketvā	-10.0465
▁Imehi	-10.0466
▁aniccaṃ	-10.0469
▁nirodha	-10.0472
▁anuttaraṃ	-10.0474
▁ācariya	-10.0475
▁kāmāvacara	-10.0476
▁jīv	-10.0479
▁satiyā	-10.048
▁bhinditvā	-10.0481
▁anattā	-10.0483
▁sesā	-10.0484
kārena	-10.0486
▁pavattatīti	-10.0487
▁sappi	-10.0491
rāgo	-10.0501
▁n	-10.0501
▁Rūp	-10.0505
appa	-10.0506
kkhi	-10.051
Sace	-10.0513
bhūtassa	-10.0516
▁bhinna	-10.0517
▁pacchimānaṃ	-10.0523
▁naāsevane	-10.0527
▁han	-10.0534
▁kassapa	-10.0536
man	-10.0546
▁re	-10.0552
▁purejātapaccay	-10.0553
sādhu	-10.0563
sampattiṃ	-10.0565
▁paṭhame	-10.057
▁majjhima	-10.0571
▁Bhikkhū	-10.0573
▁12.	-10.0581
▁nagare	-10.0582
Ka	-10.0587
bhāvassa	-10.0589
▁vedanāsu	-10.059
vihāra	-10.0594
▁sahassa	-10.0598
▁sataṃ	-10.06
▁ya	-10.0603
▁upamā	-10.0609
buddha	-10.061
▁nahetupaccayā	-10.0612
▁yutto	-10.0613
saṃyojan	-10.0614
▁viharanti	-10.0615
gate	-10.0617
▁icchati	-10.0621
ṇṇa	-10.0622
▁mahārājā	-10.0625
▁bhūta	-10.0628
▁napurejāte	-10.063
▁pahātabbā	-10.0631
▁paṭisambhidā	-10.0634
▁Api	-10.064
▁kāraṇehi	-10.065
▁chasu	-10.0651
▁parisā	-10.0655
▁Cattāro	-10.0658
viññāṇ	-10.0665
▁viharāmi	-10.0669
▁icch	-10.0679
▁diṭṭheva	-10.068
puggalo	-10.0683
▁raññā	-10.0695
▁arahaṃ	-10.0709
▁vimutti	-10.0711
▁vibhajitvā	-10.0712
▁bhavissanti	-10.0713
▁āpanno	-10.0722
▁evamādi	-10.0722
yañca	-10.0725
mānaṃ	-10.0733
▁ñāṇ	-10.0738
▁kāmehi	-10.0739
yutta	-10.0749
Te	-10.0755
▁nakamme	-10.0756
▁Paṭhamaṃ	-10.0756
kamm	-10.0757
▁adhipatiyā	-10.0759
▁ettakaṃ	-10.0759
Paṭisambhidā	-10.076
cu	-10.0763
▁santakaṃ	-10.0777
▁atireka	-10.0784
sañca	-10.0788
āpatti	-10.0789
▁therā	-10.079
yoga	-10.0791
esūti	-10.0795
▁pahānaṃ	-10.0796
kkhandha	-10.0797
▁apara	-10.08
▁Bhava	-10.08
▁sarīre	-10.0802
▁Ana	-10.0803
▁bārāṇasiyaṃ	-10.0803
▁kaṃ	-10.0803
▁kāre	-10.0805
▁nipāto	-10.081
▁rūpā	-10.0815
▁okāsaṃ	-10.0816
siṃ	-10.0821
▁nisinnā	-10.0822
▁diṭṭhaṃ	-10.0822
karaṇe	-10.0824
▁amhehi	-10.0827
▁padāni	-10.0827
saṅkhāra	-10.0828
āpeti	-10.0829
▁nīharitvā	-10.083
▁kath	-10.0833
▁āgam	-10.0834
▁vaṭṭa	-10.0835
koti	-10.0837
▁vuttāti	-10.0838
▁Da	-10.0839
kī	-10.0839
▁brāhmaṇaṃ	-10.084
▁kāraṇā	-10.0842
ap	-10.0842
▁uppanne	-10.0849
▁pakāsento	-10.0854
▁sugato	-10.0857
mpīti	-10.0857
▁Bahu	-10.0873
▁pageva	-10.0879
▁tanti	-10.0886
bhaṇḍ	-10.0886
Sam	-10.0889
hanti	-10.0894
▁vass	-10.0896
▁paṭijānāti	-10.0897
sabhāva	-10.0897
▁Manussā	-10.0898
saccaṃ	-10.0898
enāpi	-10.09
kām	-10.0906
dasa	-10.0912
▁appanā	-10.0915
▁jarā	-10.0916
vādi	-10.0919
▁ariyo	-10.0923
yate	-10.0929
▁hetussa	-10.0931
sālā	-10.0935
lopo	-10.0939
▁yoniso	-10.094
lī	-10.0942
ntipi	-10.095
▁ācariyo	-10.095
▁aññamañña	-10.0951
▁c	-10.0952
▁Sama	-10.0952
▁sahajāta	-10.0953
hitaṃ	-10.0955
sanā	-10.0957
▁navipāke	-10.0959
▁tatiyo	-10.096
ññ	-10.0969
kusalaṃ	-10.0971
hara	-10.0978
▁14	-10.0983
▁evamādinā	-10.0989
hattha	-10.0992
▁Katamaṃ	-10.0993
bhayaṃ	-10.0995
▁paritta	-10.1
petvā	-10.1013
▁gahetuṃ	-10.1013
dese	-10.1014
antaṃ	-10.1023
▁saddhindriyaṃ	-10.1024
▁kam	-10.1029
▁jāyati	-10.103
▁mūlaṃ	-10.1032
sahassa	-10.1033
ñja	-10.1041
▁jānitvā	-10.1042
▁Appa	-10.1044
▁anantare	-10.1045
saddaṃ	-10.1052
▁jino	-10.1053
▁sammadeva	-10.1055
▁nivāsetvā	-10.1055
▁anta	-10.106
saṅkhātā	-10.1064
akathāvaṇṇanā	-10.1066
▁sāvakā	-10.1079
▁kāyasaṅkhāro	-10.108
āyatanaṃ	-10.1081
▁nāmarūpa	-10.1083
▁piyā	-10.1086
▁he	-10.1088
▁Evam	-10.1088
sampannā	-10.109
▁Sati	-10.1092
▁ṭhitassa	-10.1092
disā	-10.1096
▁bandh	-10.1099
sāmi	-10.11
▁gāthaṃ	-10.1101
▁saddā	-10.1101
tattā	-10.1102
pesi	-10.1104
▁upekkhindriyaṃ	-10.1106
▁nābhijānāmi	-10.1107
▁māno	-10.1107
▁labhi	-10.111
gāmi	-10.111
jātakavaṇṇanā	-10.1112
▁sīmā	-10.1121
tādi	-10.1129
▁sattarasa	-10.1131
Seyyathāpi	-10.1132
▁Sāvatthiyaṃ	-10.1134
manā	-10.1134
▁ahetuka	-10.1137
tiādīni	-10.1142
tabbanti	-10.1143
rasaṃ	-10.1144
▁laddhā	-10.1148
putta	-10.1151
▁kiccaṃ	-10.1151
▁bhūmiyaṃ	-10.1157
▁pārājika	-10.1158
▁alaṃ	-10.1163
▁tathāpi	-10.1164
▁dāru	-10.1172
▁hetaṃ	-10.1177
▁uppādeti	-10.1183
▁dā	-10.1183
▁anidassana	-10.1186
▁pariññā	-10.1189
▁kusalassa	-10.119
pañño	-10.1194
▁purisā	-10.1198
▁nonatthi	-10.1198
▁Nava	-10.12
thāti	-10.1207
▁anagāriyaṃ	-10.1216
puppha	-10.1219
▁jātakaṃ	-10.1226
aṅga	-10.1227
kāti	-10.123
▁nibbatta	-10.1231
▁paṭiccasamuppād	-10.1237
▁lokuttara	-10.1238
▁bhikkhussa	-10.1243
viññāṇa	-10.1248
▁saññākkhandho	-10.1248
▁itthannām	-10.1251
nirodhā	-10.1251
9	-10.1253
▁avijjānusay	-10.1255
dhammesu	-10.1261
thi	-10.1262
bhav	-10.1269
▁paripuṇṇa	-10.127
samāpatti	-10.1271
▁kattu	-10.1273
▁pariyes	-10.1277
▁visesato	-10.1278
▁nirayaṃ	-10.1282
▁bodhisattassa	-10.1284
hito	-10.1288
kkamo	-10.1289
▁ekāya	-10.1289
▁sopi	-10.1293
kusalā	-10.1298
▁paccaye	-10.1308
aggh	-10.1325
gāme	-10.1325
rasā	-10.1329
balena	-10.1329
▁evarūpā	-10.1335
padā	-10.1337
yutto	-10.1339
▁13.	-10.1339
▁avoca	-10.1341
▁ṭhapesi	-10.1345
▁sammāsamādhi	-10.1346
▁nimitta	-10.1351
▁apari	-10.1354
▁aññehi	-10.1356
karaṇ	-10.1357
▁ādito	-10.1362
pubbo	-10.1362
▁vivar	-10.1363
▁diṭṭhiṃ	-10.1363
ntiādimāha	-10.1363
iminā	-10.1365
▁pavatto	-10.137
▁Bodhisatto	-10.1371
mīti	-10.1373
▁15	-10.1374
kkhattuṃ	-10.1375
ādito	-10.1375
▁padassa	-10.1385
▁kismiṃ	-10.1385
▁pakās	-10.1386
▁seṭṭhi	-10.1391
▁Nānā	-10.1393
jānan	-10.1397
▁Imā	-10.1399
avā	-10.141
▁āropetvā	-10.1412
manoviññāṇadhātu	-10.1417
bhe	-10.1419
▁avidūre	-10.1428
Sā	-10.1429
hāya	-10.143
▁rattiyā	-10.1431
ākāra	-10.1434
▁Atīte	-10.1439
▁saññojan	-10.1441
▁dad	-10.1447
mukhā	-10.1466
▁paṭipajj	-10.1467
▁jīvitā	-10.1468
▁ratha	-10.147
▁ja	-10.1477
maggaṃ	-10.1477
▁Katamo	-10.1479
anujānāmi	-10.1483
▁mudu	-10.1484
bodh	-10.1486
▁evarūpo	-10.1487
▁adhikaraṇaṃ	-10.1488
pāḷi	-10.1489
▁māra	-10.1489
cāra	-10.1491
▁icchā	-10.1496
▁karontassa	-10.15
yogo	-10.1503
▁janeti	-10.1509
kato	-10.1512
▁desanāya	-10.1512
sīmā	-10.1514
▁manāyatanaṃ	-10.1516
▁mānānusayo	-10.1522
▁kañci	-10.1523
parivār	-10.1527
abhi	-10.1529
ghaṭ	-10.1535
māni	-10.1537
ettha	-10.1541
▁ṭhite	-10.1542
▁sattāhaṃ	-10.1547
▁bhagavati	-10.155
No	-10.155
aṭṭha	-10.1558
cittassa	-10.1561
▁pahātabbahetuko	-10.1567
▁indriyaṃ	-10.157
▁māse	-10.157
adhamma	-10.1571
kha	-10.1574
rūpāni	-10.1577
padāni	-10.1578
▁14.	-10.158
▁Taṇhā	-10.1585
pariyāyo	-10.16
ratana	-10.1604
▁vasati	-10.1608
▁paññape	-10.1612
▁Tatrāyaṃ	-10.1612
ddhā	-10.1617
▁kilesānaṃ	-10.1618
▁Sesamettha	-10.1621
▁Mu	-10.1623
▁man	-10.1634
māne	-10.1636
saṅgha	-10.1636
▁ano	-10.1636
▁lokasmiṃ	-10.1642
bhikkhusaṅghassa	-10.1645
dhur	-10.1648
▁imissā	-10.165
▁suṇ	-10.1664
Tassa	-10.1666
Atha	-10.1674
▁ghānindriyaṃ	-10.1678
ayi	-10.1681
▁pu	-10.169
the	-10.1692
▁saddhāya	-10.1692
catutth	-10.1693
▁puttā	-10.1698
▁ayameva	-10.1703
▁devaloke	-10.1705
issa	-10.1706
▁jhānassa	-10.1708
kālato	-10.1712
▁paricchedo	-10.1721
▁itthindriyaṃ	-10.1722
▁bhaj	-10.1726
neka	-10.1732
▁parisāya	-10.1736
▁dīgharattaṃ	-10.1737
▁uppajjitthāti	-10.1737
▁mutta	-10.1738
Bh	-10.1746
gu	-10.1748
▁phus	-10.1749
▁nivatt	-10.1751
asī	-10.1751
▁passato	-10.1752
▁channaṃ	-10.1752
vasa	-10.1754
▁suṇāti	-10.1758
▁Itthaṃ	-10.1765
sahagatā	-10.1768
ratta	-10.1777
▁anāgata	-10.1782
▁nir	-10.1784
▁pathaviṃ	-10.1785
sanaṃ	-10.1788
gi	-10.1791
▁saṭṭhi	-10.1792
▁lobho	-10.1792
▁vuṭṭhāya	-10.1794
▁arañña	-10.18
▁kāmesu	-10.18
bodhi	-10.1803
▁Tassuddānaṃ	-10.1809
▁kehici	-10.1809
▁vattaṃ	-10.1814
▁uddha	-10.1816
bhāga	-10.1816
bādh	-10.1822
rati	-10.1826
naye	-10.1826
▁kathetvā	-10.1826
heva	-10.1831
anāthapiṇḍikassa	-10.1838
▁upanissaya	-10.1841
vipallās	-10.1846
▁pañcamaṃ	-10.1849
lakkhaṇo	-10.185
cīvar	-10.185
etaṃ	-10.1853
saṅkhāto	-10.1855
āṇa	-10.1859
▁balaṃ	-10.1859
nayena	-10.1866
▁musā	-10.1871
sacca	-10.1871
vihāre	-10.1873
am	-10.1874
▁upekkhāsahagat	-10.1879
▁tādisaṃ	-10.1882
▁ahameva	-10.1888
mūle	-10.1888
vijj	-10.1888
▁vatta	-10.1891
▁purisaṃ	-10.1895
▁sand	-10.1896
kāre	-10.1897
▁anuppann	-10.1898
▁itare	-10.1902
▁karissāmī	-10.1902
puñña	-10.1903
ñc	-10.1908
▁attabhāve	-10.191
▁lokā	-10.1914
ittha	-10.1919
▁caṅkam	-10.192
▁yehi	-10.192
maṇi	-10.192
paṭipadā	-10.1924
agga	-10.1927
▁gata	-10.193
gge	-10.1932
vagge	-10.194
vatthukā	-10.1951
▁āyatana	-10.1956
mba	-10.196
ārammaṇaṃ	-10.1963
gaman	-10.1963
▁ram	-10.1964
▁pācittiya	-10.1965
sāya	-10.197
▁diṭṭho	-10.1986
vipatti	-10.1991
▁dukkhasaccaṃ	-10.1991
▁vacīsaṅkhāro	-10.2
mukhe	-10.2003
▁gamana	-10.2005
▁jhāne	-10.2009
▁etesanti	-10.2017
ttherassa	-10.2018
▁tikkhattuṃ	-10.2019
yiṃsu	-10.2025
raha	-10.2031
▁pavis	-10.2033
▁assā	-10.2036
ṅka	-10.204
▁bhikkhunīnaṃ	-10.2042
bhūmiyaṃ	-10.2042
vīsati	-10.2042
▁Ahaṃ	-10.205
rūp	-10.205
▁kaṅkhā	-10.2052
▁puggalānaṃ	-10.2054
▁rasa	-10.2054
puññ	-10.206
▁somanassa	-10.2064
▁Tañca	-10.2069
▁dīpa	-10.208
▁Tanti	-10.2088
▁anantarā	-10.2089
▁sāmi	-10.209
asikkhāpadaṃ	-10.2091
ggi	-10.2094
▁paṭighānusay	-10.2099
▁desesi	-10.2101
saṅkhātassa	-10.2102
▁abhinandati	-10.2104
bhatta	-10.2104
kālaṃ	-10.2106
▁sādhukaṃ	-10.2107
riyā	-10.2108
ras	-10.2109
▁katheti	-10.2109
▁passanto	-10.211
▁nirutti	-10.2113
▁sahajātaṃ	-10.2113
niddesavaṇṇanā	-10.2116
patto	-10.2117
▁manussesu	-10.212
▁dosaṃ	-10.212
▁uposathaṃ	-10.2121
Yā	-10.2121
▁samantā	-10.213
yamāno	-10.2131
▁pākaṭā	-10.2141
nagaraṃ	-10.2142
▁gaccheyya	-10.215
mhī	-10.2153
rah	-10.2155
▁Bhav	-10.216
▁bhaṇati	-10.2166
▁māṇava	-10.2172
dukkhaṃ	-10.2173
dāne	-10.2174
Kathañca	-10.2174
▁kāyakammaṃ	-10.2176
▁tatiyā	-10.2186
▁Imaṃ	-10.2188
mala	-10.2188
▁Diṭṭhi	-10.2198
▁vas	-10.2198
Ko	-10.221
cariya	-10.221
▁adhipati	-10.2212
▁sabbampi	-10.2216
kalyāṇ	-10.2218
gar	-10.2221
dve	-10.2224
▁anuloma	-10.2228
samaye	-10.2231
▁seyyo	-10.2237
pāde	-10.2238
▁jivhā	-10.2239
bhikkhū	-10.2241
▁samatha	-10.2241
▁nisinnaṃ	-10.2245
Ma	-10.2254
▁ayamettha	-10.2255
īya	-10.2257
▁chahi	-10.2263
▁isi	-10.2264
▁nāpi	-10.2265
▁kāresi	-10.2265
▁cārikaṃ	-10.2271
▁anukkamena	-10.2272
pan	-10.2274
pacca	-10.2276
tho	-10.2276
jjhāna	-10.2278
sava	-10.2285
▁nagara	-10.2286
▁katame	-10.229
kāsa	-10.2292
gg	-10.2294
vacane	-10.2298
▁desanaṃ	-10.23
▁chabbaggiyā	-10.23
▁labhanti	-10.2304
▁bhāva	-10.2305
▁deve	-10.231
vāsino	-10.2311
assu	-10.2313
▁Tu	-10.2315
seṭṭhi	-10.2317
▁vipassanāya	-10.2318
▁ākārehi	-10.232
kappe	-10.2322
sadiso	-10.2322
▁nāti	-10.2326
▁addasa	-10.233
▁manda	-10.233
pariyosāne	-10.2334
▁idampi	-10.2335
▁padese	-10.2339
▁ceto	-10.2341
▁vihāro	-10.2342
▁dvepi	-10.2343
▁ākāsānañcāyatan	-10.2345
▁Mi	-10.2346
ñāṇ	-10.2346
atthañca	-10.2347
Katamehi	-10.2348
▁ayamattho	-10.235
▁paṇḍita	-10.2359
bhāge	-10.2359
rūpo	-10.2363
▁āpattīnaṃ	-10.2366
▁Duggatiṃ	-10.2368
▁lābhī	-10.2371
▁indriyāni	-10.2378
▁pāṇa	-10.2383
▁sahajāte	-10.2383
saddhā	-10.2384
▁sakaṃ	-10.2386
▁sabbathā	-10.2387
▁devadatto	-10.2394
▁koṭi	-10.2394
bhedaṃ	-10.2395
▁dassanatthaṃ	-10.2396
samuṭṭhān	-10.2397
▁vuttoti	-10.2398
▁ani	-10.2398
▁jāni	-10.24
▁Pada	-10.2401
bhesajj	-10.2403
▁vippayuttā	-10.2404
▁saññaṃ	-10.2408
▁padaṭṭhānaṃ	-10.2415
▁Atta	-10.2418
dhu	-10.2429
▁māro	-10.243
▁panāyaṃ	-10.243
▁sāvakānaṃ	-10.243
▁maṃsaṃ	-10.243
▁16.	-10.2436
māsa	-10.2437
sso	-10.2442
▁khuddaka	-10.2448
vuṭṭh	-10.2449
▁viññāṇakkhandho	-10.245
mālā	-10.2457
▁nevadassanena	-10.2458
karā	-10.2459
▁kham	-10.247
▁tahiṃ	-10.247
▁yaṃkiñci	-10.2472
yyo	-10.2472
▁pesesi	-10.2477
āmīti	-10.2479
▁kukkuccaṃ	-10.2479
sambojjhaṅgo	-10.2482
▁idheva	-10.2483
▁nābhi	-10.2486
▁pacchato	-10.2486
gaṇanāya	-10.2487
Tato	-10.2489
▁sikkhati	-10.2489
▁maññati	-10.2491
▁gantabbaṃ	-10.2491
▁paṇītaṃ	-10.2491
▁pupph	-10.2493
▁sabbāni	-10.2494
▁suci	-10.25
▁aṭṭhakathā	-10.2502
upekkhā	-10.2506
▁asakkonto	-10.2514
Sādhu	-10.2519
purisa	-10.2525
▁nasampayutte	-10.2526
▁paṭipatti	-10.2527
▁15.	-10.2528
▁samudayasaccaṃ	-10.2533
▁imamatthaṃ	-10.2533
▁pabbajitā	-10.2534
ssasi	-10.2541
saṅgaho	-10.2543
▁Desanā	-10.2543
▁nān	-10.2545
▁Se	-10.2548
▁tuvaṃ	-10.2548
▁visaya	-10.2549
▁Ga	-10.255
▁ahosīti	-10.2552
▁mahāsatto	-10.2552
bhatt	-10.2555
▁karaṇa	-10.2558
▁dassitaṃ	-10.2558
▁viññatti	-10.2559
▁bodh	-10.256
sane	-10.257
mena	-10.2573
▁uppād	-10.2575
tra	-10.2579
pad	-10.258
vass	-10.258
bhūtena	-10.2581
nupassanā	-10.2588
▁rajja	-10.2589
saṅk	-10.2592
▁vaḍḍhetvā	-10.2599
khi	-10.2602
sahass	-10.2603
bbh	-10.2606
▁puggale	-10.2607
nāga	-10.2611
▁panāvuso	-10.2611
sadisa	-10.2618
▁Tayo	-10.2618
▁gabbha	-10.262
▁paccekaṃ	-10.2621
▁niṭṭhito	-10.2628
▁kammāni	-10.2635
▁atthā	-10.2642
▁samudda	-10.2643
kāmā	-10.265
kammassa	-10.2656
▁seyyathidaṃ	-10.2658
▁divasaṃ	-10.2659
▁saṃkiliṭṭh	-10.2662
▁thokaṃ	-10.2663
▁Adhi	-10.2664
savan	-10.2666
▁Sabbaṃ	-10.2666
▁puthujjano	-10.2674
▁anusās	-10.2674
▁cepi	-10.2676
devatā	-10.2679
▁satipaṭṭhānā	-10.2684
▁pariyatti	-10.2685
bhojanaṃ	-10.2686
▁imesu	-10.2686
▁ud	-10.2686
guṇā	-10.2687
▁tiṃsa	-10.2688
sabbe	-10.269
▁dehī	-10.269
sīlā	-10.269
▁ghaṭ	-10.2695
▁as	-10.2698
▁pāri	-10.2699
dhamm	-10.27
▁bhāve	-10.2701
▁paṭhamā	-10.2704
▁catuttha	-10.2706
▁itthiyo	-10.2707
▁samagg	-10.2709
▁passāmi	-10.2711
kādi	-10.2717
putt	-10.272
▁vuttanayameva	-10.2723
karaṇena	-10.2728
▁lahu	-10.2731
▁pāpakā	-10.2735
vipākanavipāka	-10.2738
▁samanupassati	-10.2739
▁sukhuma	-10.274
▁bahulaṃ	-10.274
▁āhāraṃ	-10.274
cchi	-10.2745
bhaṅg	-10.2746
buddho	-10.275
āyatana	-10.2751
vācā	-10.2751
▁khanti	-10.2754
ṭo	-10.2756
kkhip	-10.276
▁vasitvā	-10.2765
▁disāya	-10.2766
▁rakkhati	-10.2766
▁nuppajjissati	-10.277
▁Sādhu	-10.2772
▁ubhato	-10.2774
▁evametaṃ	-10.2779
▁atthī	-10.2785
▁laddhaṃ	-10.2795
vanaṃ	-10.2797
▁disaṃ	-10.2798
▁ukkhipitvā	-10.2805
▁accayena	-10.2805
▁avitakkaavicār	-10.2805
▁bhavarāgānusay	-10.2805
▁karaṇīyaṃ	-10.2808
▁asuci	-10.2808
▁vijjamāna	-10.2816
sandhi	-10.2818
sīlaṃ	-10.282
pu	-10.2821
duk	-10.2822
byā	-10.2822
sminti	-10.2827
▁phassa	-10.2831
▁paṭikkhipati	-10.2835
▁pannarasa	-10.2836
▁padehi	-10.2839
kaṇṭak	-10.2839
▁bhavissatīti	-10.284
▁Neva	-10.2842
▁ghānāyatanaṃ	-10.2843
▁phass	-10.2844
tesu	-10.2845
vaṭṭa	-10.2848
▁maṃsa	-10.2848
▁naro	-10.2848
▁khaṇa	-10.2849
kule	-10.2849
rukkha	-10.2865
▁saṅkhārānaṃ	-10.2869
liṅg	-10.2873
āyatan	-10.2876
tadā	-10.2877
▁Anto	-10.2877
sattā	-10.2879
▁nissaye	-10.2881
▁khattiyo	-10.2884
▁nāmena	-10.2884
▁upanissaye	-10.2888
vibhatti	-10.2888
Ahaṃ	-10.2894
▁Anā	-10.2895
▁Katamā	-10.2901
sutte	-10.2901
rog	-10.2902
▁ke	-10.2902
▁uṭṭhāya	-10.2907
vaggavaṇṇanā	-10.2916
dar	-10.2927
▁santaṃ	-10.2927
▁cittāni	-10.2927
▁rājāno	-10.2928
vāsī	-10.2929
▁yāya	-10.293
kka	-10.2931
▁chanda	-10.2934
parimāṇ	-10.2934
▁akkos	-10.2935
▁evamettha	-10.2939
▁bhaṇḍaṃ	-10.294
▁Ayañhi	-10.2941
vasenā	-10.2941
kapp	-10.2944
samaṃ	-10.2945
▁gaṇhanti	-10.2945
▁16	-10.2945
ssetaṃ	-10.2949
▁katattā	-10.2949
mūlaṃ	-10.2952
▁saṅgahaṃ	-10.2952
kuṭi	-10.2952
▁labbhanti	-10.2953
sādhū	-10.2953
ākārena	-10.2955
▁accanta	-10.2956
▁ādīnavaṃ	-10.2958
▁Tada	-10.2961
▁kāḷa	-10.2962
▁pahātabbaṃ	-10.2966
▁gotamassa	-10.297
▁bhavaṅga	-10.2974
▁jin	-10.2975
noti	-10.2975
ggā	-10.2977
pād	-10.2978
han	-10.2978
dito	-10.2981
▁sāmaṃ	-10.2982
▁parā	-10.2986
▁Go	-10.299
▁cari	-10.2997
▁Dukkha	-10.3002
▁samattho	-10.3007
▁varaṃ	-10.3008
▁paṭiññā	-10.301
▁bhuñja	-10.3012
cara	-10.3013
▁nikkhami	-10.3014
▁dethā	-10.3014
ñāṇena	-10.3019
kañca	-10.3021
▁āsava	-10.3024
▁Vedanā	-10.3025
ttak	-10.3026
ggaṃ	-10.3026
▁āgacchanti	-10.3027
▁dhammadesanā	-10.3029
▁sakka	-10.3029
▁Dutiye	-10.3038
▁dvāraṃ	-10.3039
▁vuṭṭhahitvā	-10.3046
karaṇīy	-10.3049
▁kāci	-10.305
▁kvaci	-10.3059
yasmā	-10.3059
▁vada	-10.306
▁pabbajjaṃ	-10.3066
▁tva	-10.3066
▁hitāya	-10.3066
tthāti	-10.307
danta	-10.3071
guṇaṃ	-10.3071
vid	-10.3076
▁sampayutta	-10.308
▁chaḍḍetvā	-10.3081
▁uposatha	-10.3085
▁madhura	-10.3086
tthassa	-10.309
▁sammuti	-10.3091
▁bhāsitā	-10.3091
▁daḷha	-10.3092
nāya	-10.3092
▁abhāvā	-10.3093
samudd	-10.3098
▁mahābhūtaṃ	-10.3099
▁uttānameva	-10.3099
▁arūpadhātuyā	-10.31
kar	-10.3102
▁Tehi	-10.3106
mattampi	-10.3109
▁phalassa	-10.3111
pariḷāh	-10.3116
ntarā	-10.3117
▁aññamaññe	-10.3119
▁upāsako	-10.312
▁kusalesu	-10.3122
gaṇ	-10.3125
▁lakkhaṇaṃ	-10.3126
▁amba	-10.3127
▁pātimokkhaṃ	-10.3128
▁nappajahati	-10.3128
▁Etaṃ	-10.3132
▁kathito	-10.3134
▁āraddhaṃ	-10.3135
pekkha	-10.3135
issaṃ	-10.3137
▁evampi	-10.3137
haraṇa	-10.3138
▁udānaṃ	-10.3141
▁Diṭṭh	-10.3142
▁laddhi	-10.3145
rammaṇaṃ	-10.3146
rammaṇa	-10.3148
kkama	-10.3148
▁pāṇātipāt	-10.3149
▁dassesi	-10.315
▁17	-10.3152
yuttā	-10.3154
vijjā	-10.3154
▁17.	-10.3156
▁bhā	-10.3156
▁somanassindriy	-10.3159
▁nirujjhanti	-10.316
mama	-10.316
amānaṃ	-10.3163
▁payoge	-10.3163
▁gahaṇa	-10.3164
kāmo	-10.3164
dassī	-10.317
ññe	-10.317
up	-10.3172
appaṭighaṃ	-10.3175
▁byañjana	-10.3178
▁veditabbāni	-10.3179
pabb	-10.3181
vimutti	-10.3181
Ki	-10.3181
▁itthiyā	-10.3182
▁khaya	-10.3184
etī	-10.3191
▁naupanissaye	-10.3195
asa	-10.3201
▁ujjhāyanti	-10.3203
▁netaṃ	-10.3204
▁phāsu	-10.3206
▁cāyaṃ	-10.3206
sitā	-10.3207
▁saggaṃ	-10.3208
hatthi	-10.3212
▁sādhāraṇa	-10.3214
ggo	-10.3214
▁khattiyā	-10.3217
▁raho	-10.3222
māti	-10.3223
▁adhippetaṃ	-10.3223
vantaṃ	-10.3225
▁maṅgala	-10.3228
▁vuccatī	-10.323
▁aññatarasmiṃ	-10.323
atoti	-10.3232
▁tasmiṃyeva	-10.3234
nissitā	-10.3235
Ya	-10.3238
saṭṭhi	-10.3239
maṃs	-10.324
bhede	-10.3242
sana	-10.3243
▁pakāsitā	-10.3245
▁vakkhati	-10.3246
vidhā	-10.3249
▁tumhehi	-10.3253
yoti	-10.3254
mukho	-10.326
yamānā	-10.326
▁niranusayo	-10.3262
▁aṅgehi	-10.327
▁saṅkhaṃ	-10.3275
vīthi	-10.3278
▁pakkosāpetvā	-10.3279
▁Samādhi	-10.328
sīsena	-10.3286
▁sampayuttakā	-10.3289
pāsāṇ	-10.3295
āpa	-10.3296
▁viññāṇañcāyatan	-10.3296
gāthāya	-10.33
▁uddis	-10.3303
▁saraṇa	-10.3306
▁V	-10.3307
▁agārasmā	-10.3313
kkhandhā	-10.3316
gāh	-10.3321
▁vaṇṇe	-10.3327
akālo	-10.3327
tvāna	-10.3328
▁seṭṭho	-10.3329
▁vinayo	-10.3331
▁Kāma	-10.3332
▁tanu	-10.3334
īyate	-10.3334
▁Etthāti	-10.3335
▁amataṃ	-10.3344
virāg	-10.3346
tt	-10.3347
▁sadde	-10.3354
▁evamassa	-10.3357
▁vibhāv	-10.3362
▁puthujjanā	-10.3368
▁padakkhiṇaṃ	-10.3371
▁Avijjā	-10.3372
▁pade	-10.3374
gamā	-10.3375
▁mahābhūtā	-10.3382
makāsi	-10.3389
▁seta	-10.339
▁kha	-10.3391
▁raj	-10.3396
▁upāyena	-10.3398
▁saṃvattanti	-10.3399
▁Sesa	-10.3401
▁seṭṭha	-10.3405
mato	-10.3405
▁avijjāya	-10.3406
▁etā	-10.3408
aṭṭhakathāyaṃ	-10.341
dharo	-10.3415
▁satthari	-10.3416
▁Up	-10.3421
suddhi	-10.3422
garu	-10.3423
▁vacī	-10.3425
▁nibbattā	-10.3426
acitto	-10.3426
siddha	-10.3426
saṅkhāte	-10.3433
khā	-10.3435
▁payoga	-10.3437
▁saṅkhepato	-10.3441
▁sāvaka	-10.3443
vattha	-10.3445
paccaye	-10.3445
najhāne	-10.3446
▁Anāpatti	-10.3447
▁sattahi	-10.3454
bhāvanāya	-10.3455
mucc	-10.3456
kho	-10.3457
▁jano	-10.3458
▁vibhaj	-10.3461
▁etāni	-10.3463
▁bāhiraṃ	-10.3463
▁cora	-10.3468
sīsa	-10.3469
acitta	-10.347
▁sampatti	-10.3473
ttikaṃ	-10.3475
passa	-10.3478
▁pasāda	-10.3478
▁samāpatti	-10.348
▁yāvajīvaṃ	-10.3483
▁vassa	-10.3485
vutth	-10.3485
▁uppāda	-10.3489
saṅkha	-10.3493
bya	-10.3499
▁buddhuppāde	-10.35
▁caranti	-10.3501
ñci	-10.3501
▁anup	-10.3508
▁bāhira	-10.351
▁kalyāṇa	-10.3511
▁araññaṃ	-10.3516
sajj	-10.3516
▁uṭṭhāyāsanā	-10.3517
▁Kiñcāpi	-10.3518
vagg	-10.3519
▁pharitvā	-10.3522
▁hīna	-10.3523
tthena	-10.3526
cittā	-10.3529
▁matā	-10.353
saṅgahit	-10.3531
▁dibbena	-10.3533
▁sampayuttaṃ	-10.3533
jjhā	-10.3535
dutiy	-10.3537
▁avijjānusayo	-10.3538
hetū	-10.3545
gaṇa	-10.3545
▁Catuttha	-10.3547
▁gamanaṃ	-10.3548
trā	-10.3549
▁maññasi	-10.3554
▁vimokkho	-10.3554
▁paṭiggahetvā	-10.3555
nāhaṃ	-10.3556
▁netvā	-10.3566
seyya	-10.3566
sappaṭighaṃ	-10.3567
pharaṇ	-10.3567
▁evañca	-10.3568
vāsa	-10.3568
vasāne	-10.357
▁sobh	-10.357
▁cittasaṅkhāro	-10.3571
▁abyākataṃ	-10.3571
▁aggiṃ	-10.3572
āhāra	-10.3575
▁uppādetvā	-10.3575
▁hotū	-10.3578
ggāho	-10.3582
▁aha	-10.3583
arūpa	-10.3587
kammā	-10.3589
▁Hañc	-10.3589
▁anuseti	-10.359
▁Kha	-10.3591
▁passitvā	-10.3591
saṅkhātena	-10.3592
samayo	-10.3595
ṭh	-10.3599
▁yāci	-10.3605
▁bhuñjitvā	-10.3607
āhāre	-10.3607
▁vasa	-10.3608
▁otaritvā	-10.361
kumāro	-10.3614
▁samo	-10.3616
▁pañhā	-10.3621
▁nīla	-10.3622
▁guṇe	-10.3625
▁18.	-10.3627
▁19.	-10.3627
▁passi	-10.3632
▁pavāraṇā	-10.3634
sak	-10.3636
anta	-10.3638
▁jānātīti	-10.3638
▁pūr	-10.364
▁buddhe	-10.3641
itvāna	-10.3643
ninn	-10.3645
pakkha	-10.3648
▁indriyānaṃ	-10.3648
▁eta	-10.3652
▁passanti	-10.3657
ārammaṇapaccayā	-10.3657
▁kusalānaṃ	-10.366
tvaṃ	-10.3662
haññ	-10.3664
▁Man	-10.3664
▁dukkhato	-10.3665
▁aṭṭhaṅgiko	-10.3668
▁paṇīta	-10.3675
yānaṃ	-10.3679
vatthā	-10.3688
mayhaṃ	-10.3693
payoga	-10.3693
bhoga	-10.3697
▁vattamāna	-10.3704
▁piṇḍapātaṃ	-10.3706
sambhavato	-10.3706
jjhān	-10.3708
raṇa	-10.3709
lok	-10.371
▁upapajjati	-10.3716
▁sāmañña	-10.3717
▁dibbacakkhu	-10.3726
▁panāti	-10.373
▁upapatti	-10.3732
▁dassāmī	-10.3733
▁Dutiyaṃ	-10.3735
sakk	-10.3738
kk	-10.3738
anīya	-10.3738
visaye	-10.3738
vut	-10.3739
P	-10.374
▁addhā	-10.3745
esa	-10.3746
kkham	-10.3746
▁evamāhaṃsu	-10.3747
▁sakkaccaṃ	-10.3754
▁upakār	-10.3757
manto	-10.3761
▁therena	-10.3761
▁lakkhaṇ	-10.3762
bandhan	-10.3763
▁putte	-10.3764
▁upaṭṭhāna	-10.3764
▁aggo	-10.3764
▁ante	-10.3765
▁Ne	-10.3767
bandh	-10.3768
kāsi	-10.3769
▁nisīdiṃsu	-10.3769
▁C	-10.377
▁saccā	-10.3772
▁ciraṃ	-10.3774
amāna	-10.3778
▁thambh	-10.378
santati	-10.3781
▁nisinna	-10.3783
rena	-10.3784
▁nibb	-10.3784
▁khiyyanti	-10.3784
īhi	-10.3788
inā	-10.3789
▁assu	-10.3791
▁kattā	-10.3791
alakkhaṇaṃ	-10.3792
▁samānā	-10.3793
▁vadanto	-10.3793
▁samayo	-10.3795
itu	-10.3799
▁Buddha	-10.3802
▁bhaṇ	-10.3807
▁viveka	-10.3809
▁liṅga	-10.3811
▁maccu	-10.3812
Kilesā	-10.3815
Bhante	-10.3817
nirodhagāminī	-10.3819
▁paramattha	-10.3822
▁dhātuyā	-10.3823
▁nūna	-10.3824
▁anupubbena	-10.3824
▁samu	-10.3828
pañcam	-10.383
▁nandi	-10.3834
▁sabbesu	-10.3839
▁nisīd	-10.3844
▁ñatti	-10.3845
▁anantara	-10.3846
▁nissaraṇa	-10.3846
▁21.	-10.3847
▁gocara	-10.385
▁sakkonti	-10.3852
ttañca	-10.3853
G	-10.3855
▁assādeti	-10.3855
raṇaṃ	-10.3859
ehī	-10.3861
akānaṃ	-10.3862
dukaṃ	-10.3862
▁pavattanti	-10.3863
yha	-10.3863
▁avutt	-10.3864
▁cuto	-10.3865
samo	-10.3866
dissa	-10.3866
▁rukkhā	-10.3867
▁bhuñjati	-10.3869
▁g	-10.3869
smimpi	-10.387
▁ādīnavo	-10.387
▁itarā	-10.3874
▁parehi	-10.3876
▁vipācenti	-10.3876
▁senāsana	-10.3879
▁yad	-10.3884
▁mayi	-10.3886
▁20.	-10.3887
▁vatthuñca	-10.3888
ānipi	-10.3888
▁hadaya	-10.3893
▁vattate	-10.3895
rūpena	-10.3895
tale	-10.3897
V	-10.3897
▁geha	-10.3898
▁sambhavati	-10.3902
asam	-10.3904
▁Aññe	-10.3906
▁etesu	-10.3909
▁apare	-10.3909
vato	-10.3909
▁vadesi	-10.3909
khaṇḍ	-10.391
vaṭṭ	-10.3921
▁sīsa	-10.3922
▁naanantare	-10.3923
vādino	-10.3923
saññ	-10.3923
kul	-10.3927
puggala	-10.3927
▁ubhopi	-10.3934
ṭṭhiti	-10.3939
ssantī	-10.3939
vaṇṇ	-10.3941
alakkhaṇā	-10.3941
▁dassanāya	-10.3948
pathe	-10.3949
▁tamhā	-10.395
▁saddhamma	-10.3952
▁pabbajita	-10.3955
pakkhe	-10.3959
▁karohī	-10.396
▁upasampadā	-10.3962
▁hari	-10.3963
mhīti	-10.3966
vāsi	-10.3971
Āma	-10.3972
dinā	-10.3972
▁dhammavinaye	-10.3978
▁sallakkhetvā	-10.3979
▁mah	-10.3983
▁etehi	-10.3986
ṇu	-10.3986
▁ayye	-10.3989
▁bahulīkatā	-10.3995
vassaṃ	-10.3995
▁aṅgaṃ	-10.3996
sānaṃ	-10.3996
▁viññāyati	-10.3996
paññāsa	-10.3996
kathāya	-10.4
▁manusse	-10.4001
▁dukkaṭassā	-10.4002
▁bīja	-10.4002
▁18	-10.4003
maṇḍalaṃ	-10.4003
hitā	-10.4003
▁Avi	-10.4004
▁Pubba	-10.4008
▁Katamāni	-10.4008
▁gacchante	-10.4014
▁vatt	-10.4016
▁vinaye	-10.4018
▁aho	-10.4018
▁paṭisandhiṃ	-10.4019
▁vibhatti	-10.4021
▁gāmo	-10.4023
bahu	-10.403
▁rūp	-10.4032
▁añjaliṃ	-10.4038
matī	-10.4038
▁vane	-10.4039
jhāna	-10.4041
samuṭṭhānā	-10.4043
▁vattabba	-10.4043
amattaṃ	-10.4043
▁cetiya	-10.4047
tathā	-10.4049
▁karontā	-10.4049
pariyāya	-10.4052
māra	-10.4055
▁gate	-10.4055
▁adhiṭṭhāna	-10.4056
▁idameva	-10.406
hato	-10.4067
▁satthārā	-10.4069
ūpamā	-10.4069
saṅkhārā	-10.4072
▁amhe	-10.4072
▁sandhi	-10.4074
▁byādhi	-10.4076
▁nissaya	-10.4077
▁mahanta	-10.4079
▁okāsa	-10.4084
hattho	-10.4084
▁paccavekkhati	-10.4086
▁tepi	-10.4088
▁chandaṃ	-10.4089
kusala	-10.4089
▁jā	-10.4089
▁paccā	-10.4091
▁22.	-10.4092
cch	-10.4094
▁kīḷ	-10.4099
▁bhojana	-10.41
nameva	-10.41
▁23.	-10.41
▁āgamana	-10.4105
▁apanetvā	-10.4106
▁bhedo	-10.4107
dhammassa	-10.4114
▁Tāya	-10.4117
▁catusacca	-10.4119
javan	-10.4119
gantvā	-10.4119
▁ek	-10.4119
▁pajah	-10.4123
pāla	-10.4124
vattaṃ	-10.4129
▁āvajjana	-10.4129
▁bāla	-10.4132
▁nāgo	-10.4134
▁upāsikā	-10.4136
▁24.	-10.4137
dhipati	-10.4138
▁kathento	-10.4139
sāmaṇer	-10.4139
yuttaṃ	-10.414
▁daḷhaṃ	-10.4142
itukāmo	-10.4146
▁bhikkhusaṅghaṃ	-10.4148
▁desitaṃ	-10.415
aṅg	-10.4152
▁ala	-10.4153
▁yu	-10.4159
▁aññepi	-10.4161
▁satimā	-10.4163
ttika	-10.4164
sād	-10.4166
nirodha	-10.417
maṃsa	-10.4171
▁yuttā	-10.4171
lābha	-10.4174
▁25.	-10.4178
hārā	-10.4179
▁anāgataṃ	-10.418
dvār	-10.419
▁26.	-10.419
▁vuttameva	-10.419
▁anicca	-10.419
samādān	-10.4196
▁diṭṭh	-10.4196
▁indriye	-10.4196
oka	-10.4199
amhākaṃ	-10.4199
▁āsanaṃ	-10.4201
▁khattiya	-10.421
▁anupādinn	-10.421
▁cira	-10.4213
▁vadh	-10.4215
ttayaṃ	-10.4217
hoti	-10.4223
vād	-10.4226
asaṅkhātaṃ	-10.4231
▁kūṭa	-10.4232
▁vivicceva	-10.4233
▁Hetupaccayo	-10.4235
▁Purim	-10.4236
mutta	-10.4241
bhaṇḍaṃ	-10.4242
▁Aparo	-10.4242
▁sīt	-10.4242
paccayena	-10.4245
▁jīva	-10.4245
ñcettha	-10.4245
nagara	-10.4247
▁kaṇṇa	-10.425
ayati	-10.4251
▁sotaṃ	-10.4251
▁gotrabhu	-10.4252
▁dakkhiṇa	-10.4253
papañc	-10.4257
▁devaputto	-10.4257
▁maggasaccaṃ	-10.4257
are	-10.4257
vatthuṃ	-10.4258
▁visesaṃ	-10.4263
ādhigam	-10.4265
▁ariyānaṃ	-10.4267
▁paṭiladdha	-10.4272
bhī	-10.4275
ther	-10.4276
▁aggahetvā	-10.4276
▁atīte	-10.4278
▁sakkhi	-10.4279
khandh	-10.4284
▁desitā	-10.4284
riyaṃ	-10.4291
▁gaṇhathā	-10.4292
ce	-10.4293
▁sagga	-10.4295
▁Mano	-10.4298
▁pamāṇa	-10.4299
gandha	-10.4303
sampannaṃ	-10.4304
▁jarāmaraṇaṃ	-10.4305
▁cuddasa	-10.4308
▁paccuppanna	-10.4309
sabhāvaṃ	-10.4316
▁hatthaṃ	-10.4316
▁khip	-10.4318
▁Kusalaṃ	-10.4319
▁tveva	-10.4322
kiriyāya	-10.4322
jātaṃ	-10.4324
▁pāpe	-10.4324
▁mata	-10.4325
puṇṇ	-10.4325
gilān	-10.4328
saṅgaha	-10.4329
▁ima	-10.434
▁pāḷiyā	-10.4345
▁siyuṃ	-10.4345
▁avikkhepo	-10.4345
sampi	-10.4347
ghāt	-10.4349
▁kitti	-10.435
▁cakkhuviññāṇaṃ	-10.4351
▁Saddhā	-10.4361
▁asi	-10.4361
▁visuddhi	-10.4363
paṭivedh	-10.4365
iddhi	-10.4366
pūraṇ	-10.4368
vidhi	-10.4371
ssāmīti	-10.4376
▁tathāgataṃ	-10.4376
▁sukhena	-10.4377
▁tela	-10.4378
▁duggati	-10.438
paricchinn	-10.4381
rath	-10.4382
vissajjan	-10.4385
▁akusalānaṃ	-10.4388
▁avasesa	-10.4388
▁vasanti	-10.4401
▁nānuseti	-10.4401
▁atītā	-10.4403
▁27.	-10.4404
antena	-10.4407
▁amata	-10.4407
▁vasaṃ	-10.441
mettha	-10.4411
▁pitaraṃ	-10.4419
▁abhiññāya	-10.442
kkhandhe	-10.4423
āneva	-10.4423
mūlā	-10.4425
itvāti	-10.4428
▁sattannaṃ	-10.4431
▁samādāya	-10.4431
kh	-10.4435
▁parinibbāyissa	-10.4436
▁dum	-10.4438
ppattā	-10.4438
katvā	-10.4439
▁assāsapassās	-10.4439
▁khippaṃ	-10.444
▁samaṇassa	-10.4441
▁pubbabhāga	-10.4442
kaṭ	-10.4443
▁dasahi	-10.4444
▁anattha	-10.4449
pattaṃ	-10.4449
▁nirodhā	-10.4449
▁sahajātā	-10.445
ññaṃ	-10.4451
▁uppādo	-10.4454
visesā	-10.4456
▁attato	-10.4456
dū	-10.4458
▁sahassaṃ	-10.4459
▁Itaresaṃ	-10.446
pavatti	-10.4461
sāmañña	-10.4461
▁bhonto	-10.4462
▁kaññā	-10.4467
▁ṭhapitā	-10.4467
ike	-10.4471
doso	-10.4471
pariccāg	-10.4478
▁ananta	-10.448
idāni	-10.448
vatthūni	-10.448
▁ahampi	-10.448
▁ārammaṇapaccayā	-10.4481
▁appahīno	-10.4483
añāṇa	-10.4484
gū	-10.4484
ṭi	-10.4484
tehi	-10.4486
▁pasanno	-10.449
kulā	-10.4491
piṭak	-10.4493
T	-10.4494
▁sampayutte	-10.4496
▁tan	-10.45
kiriya	-10.4504
vikapp	-10.4504
ghāta	-10.4505
maṃsaṃ	-10.4513
bhaṇḍa	-10.4515
apari	-10.4516
▁khīṇāsavo	-10.4517
dhe	-10.4519
▁ūna	-10.4521
▁28.	-10.4522
▁care	-10.4527
▁pariyāya	-10.4531
▁gahitattā	-10.4532
akassa	-10.4532
▁sotāpanno	-10.4535
Idaṃ	-10.4538
▁nisīdati	-10.4543
▁pese	-10.4551
bandhana	-10.4556
aṭṭhāna	-10.4558
▁samudaya	-10.4559
cand	-10.456
▁dassan	-10.456
▁dhītā	-10.4562
▁nāme	-10.4564
▁puññ	-10.4565
▁asīti	-10.4569
▁samodhānesi	-10.4574
paṇ	-10.4579
cāri	-10.4588
tāyāti	-10.4591
▁sīlavā	-10.4591
▁Tatiye	-10.4597
▁mato	-10.4598
▁29.	-10.4598
suttādivaṇṇanā	-10.4598
▁khayā	-10.4599
▁aḍḍha	-10.46
▁mānus	-10.46
▁Ke	-10.4602
▁danta	-10.4602
▁uppāde	-10.4606
Suṇātu	-10.4611
lakkhaṇe	-10.4616
Eka	-10.4619
haraṇ	-10.462
sahagato	-10.4621
rukkho	-10.4623
▁patiṭṭhāya	-10.4625
ttāti	-10.4625
▁Tamenaṃ	-10.4625
kāyā	-10.4626
▁pabhā	-10.4628
▁assās	-10.463
baddha	-10.4632
▁Mūla	-10.4632
▁nakusalo	-10.4633
nubhāvena	-10.4634
▁katanti	-10.4639
liṅga	-10.4639
▁mātaraṃ	-10.4639
▁sarūpato	-10.4639
▁gaṇha	-10.464
▁pānīyaṃ	-10.4642
▁sabb	-10.4648
▁kattabbaṃ	-10.4649
adukkhamasukhāya	-10.465
rānaṃ	-10.4651
ram	-10.4653
▁ariyaṃ	-10.4655
mupa	-10.4658
phass	-10.466
itanti	-10.4662
visa	-10.4662
▁pajā	-10.4665
gamo	-10.4665
▁ādiṃ	-10.4667
issatī	-10.4672
▁santā	-10.4672
▁duvidhaṃ	-10.4672
▁evamevaṃ	-10.4673
▁udakena	-10.4673
▁viññāṇ	-10.4673
▁30.	-10.4681
dis	-10.4683
nama	-10.4685
Anujānāmi	-10.4688
▁bhaṇḍa	-10.4688
gārav	-10.4689
▁sabbaññutaññāṇ	-10.4689
▁duk	-10.469
dvāraṃ	-10.4693
▁balavā	-10.4696
pabbata	-10.4696
▁sameti	-10.4696
▁labbhatīti	-10.4697
pubbā	-10.4697
Evameva	-10.4697
niyā	-10.4702
▁vūpasam	-10.4702
sesa	-10.4708
▁jhāpitā	-10.4708
▁padum	-10.471
sammuti	-10.4712
bhiññā	-10.4712
▁sañjāta	-10.4713
▁viharato	-10.4714
sahagataṃ	-10.4716
moh	-10.4718
▁veda	-10.472
tthī	-10.4722
▁manta	-10.4725
▁ajjhā	-10.4727
▁nissaraṇaṃ	-10.4733
▁anāsavo	-10.4737
▁santāne	-10.4739
vinicchay	-10.4743
▁nikkhanta	-10.4743
▁sīghaṃ	-10.4745
▁vematiko	-10.4746
▁duggatiṃ	-10.4748
▁31.	-10.4748
▁kesā	-10.4748
anaṭṭhena	-10.4748
▁aparena	-10.475
▁ṭhānā	-10.4751
paṭṭ	-10.4754
vidhaṃ	-10.476
▁vīmaṃs	-10.4762
▁maccha	-10.4763
▁nibbindati	-10.4767
▁vacīkammaṃ	-10.4768
▁upagantvā	-10.4771
▁Hi	-10.4773
visaya	-10.4775
pupph	-10.4782
▁ghare	-10.4784
▁nacirasseva	-10.4785
▁paṭipāṭiyā	-10.4788
māl	-10.4789
▁pakkam	-10.4795
cāro	-10.4796
▁kriyā	-10.4796
▁muccati	-10.4798
▁subha	-10.4799
▁paccayehi	-10.48
▁hatthato	-10.4801
▁māṇavo	-10.4802
vūpasam	-10.481
vipākaṃ	-10.4812
madd	-10.4814
▁hetuṃ	-10.4815
ñjan	-10.4817
▁satthuno	-10.4818
▁ettāvatā	-10.4821
I	-10.4823
▁sāmaṇero	-10.4828
▁piyo	-10.483
pāyās	-10.4833
asutta	-10.4835
▁khīra	-10.4838
magg	-10.4841
▁bhind	-10.4843
jīv	-10.485
▁evarūpe	-10.4852
▁kara	-10.4853
mādi	-10.4856
āhī	-10.4859
▁pakārena	-10.4862
▁abhāsitthāti	-10.4865
nnā	-10.4866
gho	-10.4868
▁dakkhiṇā	-10.4869
mūlakā	-10.487
dhanaṃ	-10.487
▁ācikkhi	-10.4876
Ti	-10.4876
▁Ava	-10.4879
▁ekameva	-10.4881
▁sugatiṃ	-10.4882
samaṅgī	-10.4882
▁pāṇi	-10.4882
▁devamanussānaṃ	-10.4883
▁anāgatā	-10.4884
▁vuṭṭhāti	-10.4884
ge	-10.4884
▁dubbala	-10.4886
nava	-10.4887
ṅgaṃ	-10.4887
▁Idhā	-10.4894
sīlo	-10.4901
lamb	-10.4902
▁kattabba	-10.4904
▁pāsāṇa	-10.4906
cī	-10.4908
▁indriyapaccay	-10.491
Sabba	-10.4913
sota	-10.4917
▁abbh	-10.4919
manussa	-10.492
sabhāvo	-10.492
▁nibbatte	-10.492
sobh	-10.4923
ḷo	-10.4928
tāta	-10.4929
▁tādiso	-10.4931
▁akappiya	-10.4935
▁33.	-10.4936
▁gharaṃ	-10.4938
▁jah	-10.4939
bbha	-10.4943
▁idāneva	-10.4944
▁maññ	-10.4945
▁viggaho	-10.4948
▁pakatiyā	-10.495
▁Avasesā	-10.495
vanto	-10.4951
paricchedo	-10.4952
▁pāṇātipātā	-10.4953
sikkhāpada	-10.4956
▁itarassa	-10.4956
tukāmā	-10.4959
hetuka	-10.4961
▁samatth	-10.4962
bhedā	-10.4965
▁32.	-10.4966
citte	-10.4966
saka	-10.4967
▁paramatthato	-10.4969
▁pahānā	-10.4972
▁nīvaraṇa	-10.4972
▁parisa	-10.4973
niyam	-10.4974
ppahānaṃ	-10.4976
▁brahmacariya	-10.4977
raṭṭhe	-10.4978
ved	-10.4984
▁jānanto	-10.4984
Paṭisandhikkhaṇe	-10.4986
0	-10.4986
▁35.	-10.4987
mal	-10.4989
itthannāmassa	-10.4993
▁nisinne	-10.4994
▁catuttho	-10.4996
▁pāra	-10.4999
vinaya	-10.4999
▁mānaṃ	-10.5
ala	-10.5003
▁ekissā	-10.5003
▁pañhe	-10.5005
▁gaṇhanto	-10.5006
▁dissanti	-10.5007
ātīti	-10.5007
▁abhibhuyya	-10.5008
▁puttassa	-10.5013
▁des	-10.5015
ses	-10.5016
▁paṭisev	-10.5016
▁up	-10.5022
hata	-10.5023
hana	-10.5024
▁samīpe	-10.5028
satti	-10.5029
▁dān	-10.5031
▁dukkaṭa	-10.5031
mūlakaṃ	-10.5032
▁pātimokkha	-10.5033
▁itara	-10.5035
vis	-10.5039
▁atho	-10.504
saṅkhep	-10.5044
yojanā	-10.5046
▁guṇā	-10.5049
parikkhitt	-10.505
▁Ek	-10.505
▁Itthi	-10.5052
mbh	-10.5053
uppāda	-10.5054
▁itipi	-10.5055
petīti	-10.5059
cittena	-10.506
vedan	-10.5063
▁byākāsi	-10.5064
▁ayyā	-10.5065
oyeva	-10.5065
▁bhoga	-10.5067
▁yutti	-10.5069
▁lokuttaraṃ	-10.5069
▁Catutthe	-10.5071
▁vādo	-10.5072
▁corā	-10.5073
īyanti	-10.5074
▁antara	-10.5075
▁jhānā	-10.5075
▁sīlavant	-10.5076
rammaṇ	-10.5077
▁pubbabhāge	-10.5077
▁sugati	-10.508
▁20	-10.5082
niyo	-10.5084
▁Paccayapaccanīy	-10.5087
▁rūpadhātuyā	-10.5089
hākārehi	-10.5089
▁rasā	-10.5091
▁anabhi	-10.5091
▁atikkam	-10.5091
▁veḷu	-10.5095
▁jarāmaraṇa	-10.5096
entīti	-10.5096
▁abhijjhā	-10.5098
▁nekkhamma	-10.5099
lakkhaṇena	-10.51
▁vaṭṭ	-10.5101
▁buddhi	-10.5102
▁ubhinnaṃ	-10.5104
▁gahetabba	-10.5107
▁34.	-10.5108
▁sev	-10.511
▁yakkho	-10.5111
▁lopo	-10.5111
ḍḍ	-10.5117
pakār	-10.5119
▁parittaṃ	-10.5122
▁Evarūp	-10.5123
▁duvidho	-10.5125
rūpānaṃ	-10.5125
bbi	-10.5125
▁yācati	-10.5127
sitvā	-10.5127
▁nibbatt	-10.514
▁hitvā	-10.5141
▁lobha	-10.5142
▁anusenti	-10.5144
▁cinte	-10.5144
▁uppajjamānā	-10.5146
▁rāgādi	-10.5147
bhuñj	-10.5148
vu	-10.5155
uttara	-10.5157
pāy	-10.5158
▁Ud	-10.5159
ādiko	-10.516
▁upeti	-10.5161
▁karothā	-10.5166
▁nikkhip	-10.5167
▁dammī	-10.5169
▁padena	-10.5171
▁Sukh	-10.5172
▁uppajjitvā	-10.5172
▁paharitvā	-10.5175
▁visesena	-10.5183
▁amu	-10.5185
▁pat	-10.5186
samādhī	-10.5192
pathaṃ	-10.5198
▁āra	-10.5205
▁Sāvatthinidānaṃ	-10.5205
▁vedayitaṃ	-10.5207
▁kammānaṃ	-10.5209
bhojan	-10.521
▁Hetupaccayā	-10.521
sadde	-10.5211
▁vuddhi	-10.5217
▁19	-10.5219
datth	-10.5219
rahitā	-10.5222
vipākā	-10.5222
▁suṇātha	-10.5226
▁cuti	-10.5229
avaseneva	-10.5229
▁purise	-10.5229
▁tul	-10.5229
▁Rāja	-10.5229
▁issā	-10.5231
Tattha	-10.5232
▁kumāra	-10.5232
▁ātāpī	-10.5232
rūḷh	-10.5236
▁upādāna	-10.5236
▁ovādaṃ	-10.5236
▁dutiye	-10.5238
akena	-10.5245
▁rukkho	-10.5245
▁Imassa	-10.5248
▁arahanto	-10.5249
ttheragāthā	-10.5252
▁Eta	-10.5259
gat	-10.526
▁āyasmatā	-10.5267
vibhaṅge	-10.5267
vāde	-10.5269
vavatthān	-10.5278
▁uddesa	-10.5282
▁arūpe	-10.5283
▁uda	-10.5285
sarīra	-10.5286
▁36.	-10.5286
dhāya	-10.5287
tyā	-10.5289
yye	-10.529
▁manasikāro	-10.529
dev	-10.529
▁nind	-10.5293
▁Mah	-10.5294
jān	-10.5295
▁mātikā	-10.5295
tya	-10.5296
▁sampāde	-10.5296
guḷ	-10.5297
tthu	-10.5298
kkhandho	-10.5302
▁sibb	-10.5303
diṃ	-10.5304
▁kāyikaṃ	-10.5307
adhi	-10.531
etabba	-10.5311
▁kāmāvacarā	-10.5312
▁sākhā	-10.5312
▁Tatiyaṃ	-10.5313
▁dāsa	-10.5315
pañho	-10.5318
▁lagg	-10.5319
▁sekkhā	-10.532
▁Tassāti	-10.5324
▁aññatara	-10.5324
▁tīre	-10.5328
▁saṃkhittena	-10.5328
sappāy	-10.533
brahma	-10.5331
▁Indriya	-10.5331
▁cara	-10.5332
dan	-10.5333
cakka	-10.5337
▁upaṭṭhānaṃ	-10.5338
▁vineyya	-10.5344
▁ajjhatta	-10.5344
ākāraṃ	-10.5345
▁v	-10.5348
▁visuddhimagge	-10.5351
▁samāpajjan	-10.5352
kir	-10.5352
▁pañho	-10.5354
▁kām	-10.5354
▁māre	-10.5356
▁po	-10.5357
▁bhāy	-10.536
B	-10.5366
▁sūci	-10.5366
▁piṭṭhi	-10.5368
cārī	-10.5369
atthā	-10.5369
paṭisandhi	-10.537
naaññamaññe	-10.537
▁chetvā	-10.537
ārammaṇā	-10.5372
parinibbān	-10.5374
mahārāja	-10.5376
ariya	-10.5377
▁tissa	-10.5377
▁khema	-10.5378
▁āpodhātu	-10.5378
▁sattha	-10.5381
▁gaves	-10.5381
bhāsa	-10.5384
▁N	-10.5386
▁pasannā	-10.5386
▁mahājanassa	-10.5386
assapi	-10.5386
yojana	-10.5388
avacanaṃ	-10.5389
An	-10.5391
▁mahādānaṃ	-10.5392
paṇṇ	-10.5397
▁vasanto	-10.5397
▁kāmadhātuyā	-10.5398
▁tiriyaṃ	-10.5398
sipp	-10.54
neyya	-10.5401
▁tādi	-10.5401
▁bhav	-10.5406
▁Yampi	-10.5407
▁ākāsa	-10.5408
▁vuḍḍh	-10.5409
▁Citt	-10.541
▁assād	-10.5411
▁ghara	-10.5411
▁Pāḷiyaṃ	-10.5412
▁Bho	-10.5414
▁cito	-10.5416
▁sadisa	-10.5416
pavatt	-10.5417
kammena	-10.5426
▁ṇo	-10.5426
▁sabbāpi	-10.5426
▁vatthaṃ	-10.5429
satā	-10.5429
▁saṃvar	-10.5432
▁kop	-10.5433
▁37.	-10.5434
asā	-10.5435
akamma	-10.5435
▁dhan	-10.5436
bhojana	-10.5436
▁gandhā	-10.5439
▁jātiyo	-10.5439
nanda	-10.544
▁karissati	-10.544
hānaṃ	-10.544
āsu	-10.5442
yañhi	-10.5443
▁heṭṭhima	-10.5443
▁Asa	-10.5449
Atthi	-10.5449
▁āvāse	-10.5455
pāramī	-10.5456
▁t	-10.5457
▁vaccha	-10.5457
sikkh	-10.5459
▁kārāpetvā	-10.5459
samudāy	-10.5461
▁abyākatassa	-10.5462
tan	-10.5465
▁ācariyena	-10.547
pitā	-10.5471
moha	-10.5474
mātā	-10.5477
▁Nāma	-10.5479
▁paṭipadaṃ	-10.548
▁gharāvās	-10.5482
▁21	-10.5485
▁saṅkhārakkhandh	-10.5487
▁kāyato	-10.5489
jātiko	-10.549
▁vicāro	-10.5491
▁āsevane	-10.5493
▁devamanussesu	-10.5496
itāni	-10.5496
pañña	-10.5497
satthā	-10.5498
▁pabbaji	-10.5498
▁nāmarūpaṃ	-10.5501
āsi	-10.5502
▁39.	-10.5503
padena	-10.5505
▁sīse	-10.5507
sikkhā	-10.5512
▁paṃsu	-10.5513
▁nāsakkhi	-10.5517
▁sotāpattiphale	-10.5517
▁jhāy	-10.5518
▁atthiyā	-10.5519
▁antarāmagge	-10.552
▁udāyi	-10.5522
▁sattamaṃ	-10.5525
gutt	-10.5525
▁niddeso	-10.5526
▁roga	-10.5528
▁nisinnassa	-10.5536
▁Kaṃ	-10.5536
kūl	-10.5538
ropan	-10.5539
āpetuṃ	-10.5542
▁uddharitvā	-10.5545
▁sakiṃ	-10.5549
samma	-10.555
paṭipatti	-10.5551
▁hontī	-10.5553
Cha	-10.5554
▁pavattanato	-10.5555
ratanaṃ	-10.5555
▁bahūni	-10.5558
▁māyā	-10.5559
▁vitakka	-10.5559
▁Vuttañhi	-10.556
vipāk	-10.5561
▁bhu	-10.5562
▁dukkhena	-10.5562
▁paggayha	-10.5564
karaṃ	-10.5565
▁vipassan	-10.5567
K	-10.5567
ūti	-10.5568
▁sīlena	-10.5574
Pari	-10.5576
10.	-10.5576
▁āhārā	-10.5578
▁etadavocuṃ	-10.558
▁thullaccayaṃ	-10.558
▁pahīyati	-10.5582
saya	-10.5584
āroc	-10.5587
ntaraṃ	-10.5591
▁majjha	-10.5591
▁Āpatti	-10.5593
nupa	-10.5593
vikkhep	-10.5599
▁yāc	-10.5599
▁dukkara	-10.56
macchariy	-10.56
nipāta	-10.5601
▁22	-10.5604
akkhaṇe	-10.5604
▁inda	-10.5605
yāma	-10.5605
▁rūpakkhandh	-10.5605
mātu	-10.5607
▁jina	-10.5608
▁adhippāyena	-10.5616
▁38.	-10.562
▁dinne	-10.562
▁uppannassa	-10.5621
pure	-10.5621
ratā	-10.5621
▁bhū	-10.5622
▁dassetumāha	-10.5623
suvaṇṇa	-10.5624
▁bhadda	-10.5625
bahulo	-10.5626
▁23	-10.5626
naka	-10.5629
▁sahetuko	-10.5629
▁loha	-10.5629
▁gotamaṃ	-10.563
amevāti	-10.5634
▁pabbate	-10.5634
samudayā	-10.5638
nādi	-10.5639
▁40.	-10.5639
▁paripucch	-10.5642
lābhī	-10.5642
▁kusalākusala	-10.5643
▁āpattisamuṭṭhān	-10.5644
bhisaṅkhār	-10.565
tūti	-10.565
▁bhāvetabbā	-10.5652
▁viññāṇassa	-10.5656
▁anattato	-10.5657
▁paṭiggaṇh	-10.5657
▁m	-10.5659
▁ekampi	-10.5659
iyamāno	-10.5665
▁manasikaroto	-10.5665
▁Nahetupaccayā	-10.567
bhāv	-10.5671
▁sabbadā	-10.5672
gaṇā	-10.5673
▁giri	-10.5678
▁dvā	-10.5678
hāri	-10.5679
▁guṇaṃ	-10.5687
▁tātā	-10.5688
▁bhikkhaṃ	-10.5689
▁dhovitvā	-10.569
patī	-10.5692
▁hadayaṃ	-10.5693
▁aṭṭhahi	-10.5698
▁pupphāni	-10.5701
▁paduma	-10.5702
pariccheda	-10.5702
▁veramaṇī	-10.5704
pattā	-10.5705
danti	-10.5706
▁nara	-10.5708
▁paviṭṭho	-10.571
Pañca	-10.5712
viññāṇaṃ	-10.5714
kulaṃ	-10.5714
ṭṭhānato	-10.5714
▁upaṭṭhāti	-10.5715
▁dadeyya	-10.5717
etvāti	-10.5723
ñcāpi	-10.5723
▁upasaṅkami	-10.5724
▁ācariyā	-10.5729
▁bhoge	-10.5731
▁itaraṃ	-10.5731
▁adatvā	-10.5732
▁cavitvā	-10.5734
▁saddhivihārik	-10.5735
▁ācariyassa	-10.5735
▁arahatta	-10.5738
▁tividhā	-10.574
▁Dhātu	-10.5745
▁sabbaññu	-10.5746
dhika	-10.5749
manasikār	-10.5749
▁Idhekacco	-10.5751
▁rakkha	-10.5752
▁Catutthaṃ	-10.5753
▁Dev	-10.5754
▁somanassaṃ	-10.5755
▁aggamagg	-10.5757
▁rūpāvacara	-10.576
pucch	-10.5761
dubbal	-10.5761
upāy	-10.5761
kkhar	-10.5762
▁āmisa	-10.5762
▁satipi	-10.5762
samācār	-10.5762
▁pātova	-10.5762
▁maha	-10.5764
▁cakkhumā	-10.5764
paññāya	-10.5765
dassane	-10.577
▁Sak	-10.577
▁Anujānāmi	-10.5772
▁ayo	-10.5773
sanni	-10.5775
▁samāpajjitvā	-10.5775
▁passaddhi	-10.5776
yāva	-10.5781
kāri	-10.5783
buddh	-10.5785
acittā	-10.5788
megh	-10.579
aṇa	-10.5793
samphass	-10.5793
ddhaṃ	-10.5794
gah	-10.5796
maṇḍala	-10.5796
▁kalyāṇamitt	-10.5796
▁likhitaṃ	-10.5798
▁mānattaṃ	-10.58
rāji	-10.5801
ratī	-10.5802
imasmiṃ	-10.5804
cittāni	-10.5805
▁pac	-10.5805
▁Sukha	-10.5805
▁anuññātaṃ	-10.5805
▁sambandha	-10.5807
sassa	-10.5807
sabhāvattā	-10.5808
▁kammaṭṭhāna	-10.5812
▁hatthī	-10.5814
khandhañca	-10.5814
▁gandho	-10.5815
ver	-10.5815
▁Athekadivasaṃ	-10.5816
▁pabhuti	-10.5816
kumbh	-10.5819
vādaṃ	-10.582
▁vaṇṇ	-10.582
samudayo	-10.5821
▁punadivase	-10.5823
▁rod	-10.5826
panna	-10.5826
ggahaṇ	-10.5834
santa	-10.5836
▁passatīti	-10.5837
▁gahite	-10.5839
vitthār	-10.5839
▁paved	-10.5842
▁mahānāma	-10.5846
▁aññasmiṃ	-10.5847
patha	-10.5848
issā	-10.5849
▁muttā	-10.5851
samāgam	-10.5855
▁dehi	-10.5856
▁41.	-10.5859
adhipatipaccayā	-10.586
kappo	-10.586
▁purimanayeneva	-10.586
yoge	-10.5863
▁dutiyajjhān	-10.5864
▁desito	-10.5864
aye	-10.5867
▁taruṇa	-10.5868
uddes	-10.5875
piṭṭhi	-10.5878
iyamānā	-10.5879
etabbaṃ	-10.5879
mūḷh	-10.5881
▁cakkavatti	-10.5882
▁saddh	-10.5882
▁bhikkhuniṃ	-10.5885
▁pavisati	-10.5885
ānubhāv	-10.5885
▁saṃyojana	-10.5887
▁vissajjetvā	-10.5887
amatta	-10.5891
parivāro	-10.5891
upādān	-10.5892
▁jānaṃ	-10.5893
▁abhāvena	-10.5895
muttamaṃ	-10.5895
sadd	-10.5896
sambhavo	-10.5896
▁mālā	-10.5897
▁sāvako	-10.5898
▁vāpi	-10.5901
▁Paṭiccavārād	-10.5903
▁Samā	-10.5904
▁kaṭattārūpaṃ	-10.5905
▁parivāretvā	-10.5906
▁yaj	-10.5907
▁saṅkha	-10.5909
▁pītiyā	-10.5911
▁upādā	-10.5912
▁upasampāde	-10.5912
cittesu	-10.5913
▁samatikkam	-10.5915
▁Esā	-10.5918
▁duvidhā	-10.5922
vimutta	-10.5923
▁ṭhapitaṃ	-10.5923
Upa	-10.593
bhinand	-10.593
ādhi	-10.593
▁kammā	-10.5934
ābhinives	-10.5935
▁ghāna	-10.5935
▁samāpattiṃ	-10.5936
▁javan	-10.5946
nimitt	-10.5947
▁puccha	-10.595
nū	-10.5951
somanassindriyaṃ	-10.5952
paṇṇa	-10.5952
▁jiṇṇa	-10.5954
▁vasī	-10.5954
vāc	-10.5959
▁mahato	-10.5961
▁bālā	-10.5963
▁cetopariyañāṇ	-10.5969
ndi	-10.597
▁yāthāvato	-10.5976
kkā	-10.5978
puris	-10.5978
ganth	-10.5979
kammaṭṭhānaṃ	-10.5983
▁vinay	-10.5984
dāya	-10.5984
dharā	-10.5985
aññaṃ	-10.5989
▁kodho	-10.5989
▁sukh	-10.5992
visuddhi	-10.5993
▁uposathakammaṃ	-10.5993
bhāgo	-10.5994
▁yāgu	-10.5994
siyā	-10.5995
maṭṭha	-10.5998
bāh	-10.6001
▁vimutto	-10.6001
▁vises	-10.6007
viparīt	-10.6007
▁Tisso	-10.6008
H	-10.6008
gāha	-10.6009
▁dhamm	-10.6014
▁gacchantā	-10.6014
▁karissāmi	-10.6014
▁42.	-10.6016
▁sukhasahagat	-10.6016
▁nānu	-10.6018
▁muñcitvā	-10.6018
latā	-10.602
dvi	-10.6021
pāṇi	-10.6026
▁parinibbāna	-10.6028
eyyāsi	-10.6031
▁44.	-10.6034
rattā	-10.6036
▁saṃsaranto	-10.6036
kkhaṇ	-10.6037
parisā	-10.6043
ind	-10.6044
bīja	-10.6044
disaṃ	-10.6047
▁anavajja	-10.6057
nissitaṃ	-10.6057
māhu	-10.6059
naṭṭhena	-10.6064
yan	-10.6066
▁paṭhamajjhān	-10.6067
▁padhān	-10.6068
▁tividha	-10.6069
pūr	-10.607
saṇṭhit	-10.6071
▁paccavekkhanti	-10.6071
▁pavār	-10.6071
pakk	-10.6071
▁pañc	-10.6072
▁dussa	-10.6073
▁upādānaṃ	-10.6076
▁tividhaṃ	-10.6077
▁pariggah	-10.6079
▁uyyānaṃ	-10.6081
▁dhīro	-10.6082
▁43.	-10.6082
vidū	-10.6083
▁akusalassa	-10.6084
▁hettha	-10.6088
aṭṭhakathā	-10.6089
rāma	-10.609
pura	-10.6093
dosā	-10.6095
▁45.	-10.6095
▁Assā	-10.61
▁saṃsaṭṭho	-10.6102
cet	-10.6103
▁tenāha	-10.6103
▁kathetuṃ	-10.6104
▁purāṇa	-10.6104
▁Sattame	-10.6104
▁vihāsi	-10.6107
▁vikapp	-10.6107
▁sārammaṇ	-10.6108
asaññī	-10.611
▁anuppād	-10.6113
▁akkhi	-10.6114
dhana	-10.6115
pīṭha	-10.6117
▁tadattha	-10.6118
▁vitakk	-10.612
ussāh	-10.612
▁āgate	-10.612
▁dhammakathaṃ	-10.6121
▁ārabhi	-10.6123
▁āne	-10.6123
sūkar	-10.6124
▁tiṇṇannaṃ	-10.6125
▁Deva	-10.6126
▁yvāyaṃ	-10.6126
puttā	-10.6128
▁mitta	-10.6129
▁Channaṃ	-10.613
devo	-10.613
▁vasanaṭṭhānaṃ	-10.6136
▁patthay	-10.6136
▁pādā	-10.6137
puṭ	-10.6139
samāpann	-10.6142
▁matthake	-10.6144
sayan	-10.6146
tumhe	-10.6148
vasi	-10.6148
▁passeyya	-10.6149
▁sikkhāpada	-10.615
Yassa	-10.6152
▁evamādīsu	-10.6153
▁mahatā	-10.6153
▁nikkhipitvā	-10.6157
▁virati	-10.616
pāli	-10.6161
▁parivāra	-10.6163
▁jāyanti	-10.6163
▁patthanā	-10.6164
▁dīpe	-10.6172
▁kasiṇ	-10.6174
reyya	-10.6174
Ayaṃ	-10.618
▁senā	-10.618
▁sabbena	-10.6181
▁mutto	-10.6184
▁yācito	-10.6184
▁hāro	-10.6184
▁sampatte	-10.6185
padassa	-10.6188
raka	-10.6188
▁niraya	-10.6189
ruci	-10.619
▁kulaṃ	-10.6191
▁aparāparaṃ	-10.6192
▁vorope	-10.6193
▁nīvaraṇ	-10.6194
cattālīsa	-10.6196
▁pattacīvaramād	-10.6197
▁vijān	-10.6198
▁pubbepi	-10.62
▁uposatho	-10.62
atthero	-10.6204
yogato	-10.6206
▁Dassanena	-10.6209
▁rukkhaṃ	-10.6211
▁nadiyā	-10.6211
▁tathāgatena	-10.6213
▁uṇha	-10.6213
▁kacci	-10.6213
balā	-10.6213
inda	-10.6214
ttī	-10.6215
▁mānānusayañca	-10.6215
▁saṅghādiseso	-10.6217
maṇḍ	-10.6218
dh	-10.622
kattha	-10.6221
ssidaṃ	-10.6226
▁paridev	-10.6227
raja	-10.6227
▁50.	-10.6228
vīriya	-10.6234
▁sukhassa	-10.6235
▁tesaṃyeva	-10.6236
▁puttadār	-10.6236
esuṃ	-10.624
pariyāpanna	-10.6241
ñ	-10.6242
pārami	-10.6242
▁Yañca	-10.6242
ddasa	-10.6243
miti	-10.6245
▁46.	-10.6245
vinay	-10.6247
▁parivatt	-10.6254
▁ṭhapeti	-10.6255
samīpe	-10.6257
pane	-10.6257
▁sesaṃ	-10.626
▁iddhiyā	-10.626
▁karotha	-10.6261
▁jānant	-10.6263
▁disvāna	-10.6263
▁Sara	-10.6266
cakkaṃ	-10.6267
nassa	-10.6268
daṇḍ	-10.6272
bhay	-10.6275
dhāv	-10.6276
▁mante	-10.6276
byañjan	-10.6279
nuggah	-10.6282
▁samannāgatassa	-10.6283
vīsa	-10.6283
▁yaso	-10.6284
▁paribhoga	-10.6287
amatte	-10.6287
▁apāya	-10.6287
adhammā	-10.6288
dukkh	-10.6288
ghā	-10.629
▁kat	-10.629
▁samādapeti	-10.629
vinās	-10.6292
▁dukkhakkhandh	-10.6293
tave	-10.6295
▁surā	-10.6296
▁kimatthaṃ	-10.6302
▁cīvare	-10.6302
▁dhammassavan	-10.6305
▁agamaṃsu	-10.6306
ssāv	-10.6306
▁49.	-10.6307
pakka	-10.6308
▁phoṭṭhabbāyatan	-10.6311
ṅgam	-10.6312
sayo	-10.6314
▁ārammaṇādhipati	-10.6316
upacched	-10.6317
ju	-10.6317
▁samaya	-10.6321
bandhanaṃ	-10.6322
▁nirujjhissatīti	-10.6328
mattassa	-10.633
▁lokuttarā	-10.633
▁bhitti	-10.6333
▁pakkhe	-10.6334
▁pabbaj	-10.6335
nupādinnupādāniy	-10.6336
▁kumāro	-10.6338
▁kesa	-10.6338
▁idhekacco	-10.6339
▁moce	-10.6341
▁Sutta	-10.6341
hari	-10.6342
▁duve	-10.6346
▁bhojane	-10.6347
akaraṇa	-10.6348
▁sāli	-10.6349
▁kant	-10.6349
▁Patt	-10.635
▁citt	-10.6351
▁samannāgataṃ	-10.6352
▁ekajjhaṃ	-10.6354
▁sāla	-10.6354
īva	-10.6357
▁47.	-10.6359
hite	-10.6359
▁pahīna	-10.636
▁sel	-10.6361
hatthā	-10.6363
aggi	-10.6367
▁chaṭṭhaṃ	-10.6368
▁kathina	-10.6369
▁parañca	-10.637
brahmacariy	-10.6371
▁yakkha	-10.6371
yanto	-10.6372
▁lobh	-10.6374
▁paṭipadāya	-10.6374
▁parihāyati	-10.6376
dassanato	-10.6377
▁sakalaṃ	-10.6378
▁Dibb	-10.6378
vira	-10.6379
▁nik	-10.638
▁payojanaṃ	-10.6381
▁desento	-10.6381
▁Paccuppann	-10.6382
ntesu	-10.6383
hāre	-10.6386
▁pakkhi	-10.6388
thu	-10.6389
▁aṭṭhasu	-10.639
nusandhi	-10.6391
kiles	-10.6391
kacch	-10.6392
param	-10.6395
sampayuttaṃ	-10.6395
pāpa	-10.6395
saṇṭhānaṃ	-10.6399
▁dam	-10.6399
▁Dukkh	-10.6401
avasenāti	-10.6404
sadise	-10.6405
▁kiriya	-10.6406
▁purimabuddh	-10.6407
▁gāthāhi	-10.6408
▁pakkhip	-10.6409
rodh	-10.6411
▁Hetuṃ	-10.6411
pās	-10.6412
▁vase	-10.6413
ādī	-10.6414
āla	-10.6415
jan	-10.6416
karaṇato	-10.6416
sahassaṃ	-10.6419
dassanavasena	-10.6419
▁saṅkhyā	-10.6421
▁gahetabbā	-10.6421
▁karonte	-10.6422
▁aññamaññapaccay	-10.6422
sammā	-10.6424
▁pesetvā	-10.6424
buddhi	-10.6425
rattaṃ	-10.6427
emi	-10.6428
velāya	-10.6428
smiñhi	-10.6434
▁sampatta	-10.6434
akkh	-10.6437
▁Dhamm	-10.6438
paṭisaṃvedī	-10.644
▁gantha	-10.644
▁appamatto	-10.644
▁garah	-10.6441
▁nāvā	-10.6443
▁oloke	-10.6444
Kā	-10.6446
▁nidāna	-10.6447
ṅgā	-10.6447
gandho	-10.6448
lep	-10.645
▁aṅg	-10.6453
▁catubbidhaṃ	-10.6454
mānena	-10.6454
▁48.	-10.6455
▁vivaritvā	-10.6455
▁apica	-10.6456
hāni	-10.6461
nikāy	-10.6462
▁nibbānassa	-10.6463
▁camma	-10.6464
maha	-10.6467
candan	-10.6468
▁pakkamati	-10.647
ṭe	-10.6472
etabbā	-10.6472
▁paṭipakkha	-10.6475
▁ceti	-10.6475
abhāve	-10.6476
sampanna	-10.6478
▁ekeka	-10.648
saṃsagg	-10.6482
mata	-10.6484
bhaṃ	-10.6486
▁tatha	-10.6486
hipi	-10.6488
gaṇh	-10.6488
añcāti	-10.649
▁pavuccati	-10.649
▁Ayamettha	-10.649
▁adhammik	-10.6491
paṭ	-10.6491
pacc	-10.6493
▁vī	-10.6494
▁āsanna	-10.6495
▁ñāṇassa	-10.6496
▁sāvatthiṃ	-10.6496
ādhipati	-10.6499
▁Paccayānulomaṃ	-10.6499
seva	-10.65
▁pārājikassa	-10.6501
ādikā	-10.6501
▁dhammi	-10.6502
sato	-10.6503
▁sutt	-10.6505
▁paññapenti	-10.6505
▁kuṭi	-10.6506
▁mataṃ	-10.6509
▁pakatūpanissayo	-10.6513
atthanti	-10.6518
vicār	-10.6518
▁rājagahaṃ	-10.652
▁adhiṭṭhān	-10.6523
▁paṭijān	-10.6523
ṇena	-10.6525
ak	-10.6527
▁parisuddha	-10.653
pphal	-10.6531
▁evam	-10.6531
▁Rūpaṃ	-10.6532
▁siddhaṃ	-10.6533
bhāsā	-10.6535
pāp	-10.6536
▁sineru	-10.6536
▁āṇā	-10.6537
▁pāraṃ	-10.6543
▁kabaḷīkāro	-10.6545
▁pathavi	-10.6546
▁Ha	-10.6547
māse	-10.6549
▁kārente	-10.6552
▁uddhaccaṃ	-10.6553
▁bhāv	-10.6553
sevi	-10.6553
attāti	-10.6563
byākat	-10.6563
▁gihī	-10.6565
▁sambuddho	-10.6566
▁Dvi	-10.6566
▁Brahma	-10.6568
rāg	-10.6568
deyya	-10.657
ssatha	-10.6571
▁hita	-10.6571
▁saṅghādisesassa	-10.6573
▁sotthi	-10.6575
manti	-10.6576
▁ovāda	-10.6578
▁kaṭattā	-10.658
▁āvajj	-10.658
▁Cūḷa	-10.6583
▁homi	-10.6583
▁adukkhamasukhaṃ	-10.6584
pariyāpannā	-10.6588
▁icchanti	-10.6591
saṅkhātāya	-10.6591
▁bhesajjaṃ	-10.6592
▁mānasaṃ	-10.6593
▁vagga	-10.6594
▁dukkhanti	-10.6595
nidānaṃ	-10.6597
varaṃ	-10.6597
gāmī	-10.6599
vāso	-10.6602
saṃvaro	-10.6602
▁saṅgh	-10.6603
ṭṭ	-10.6604
mabhi	-10.6604
cchatta	-10.6604
▁aṭṭhaṅgikaṃ	-10.6605
▁paṭisaṃved	-10.6605
▁vissajje	-10.6606
▁ekenāyatanena	-10.6606
▁buddhappamukh	-10.6607
▁antaraghare	-10.6607
cco	-10.6608
tama	-10.6611
vutta	-10.6612
▁makkh	-10.6613
kko	-10.6615
daṇḍa	-10.6615
brāhmaṇ	-10.6618
▁vippayutte	-10.6622
▁tiracchānagat	-10.6623
▁adhigam	-10.6624
▁Sakko	-10.6624
pattiyā	-10.6625
▁akata	-10.6633
dānena	-10.6633
paṭikkhepa	-10.6633
Katamo	-10.6633
▁khamati	-10.6635
dhāraṇ	-10.6638
▁cakka	-10.6638
subha	-10.664
assād	-10.6642
▁ahosiṃ	-10.6642
▁dabb	-10.6645
▁svā	-10.6646
▁āvāsikā	-10.6651
sādhak	-10.6652
▁sutanti	-10.6653
▁mātāpitūnaṃ	-10.6654
▁nāmāni	-10.6654
purisā	-10.6655
bhagavā	-10.6658
Ime	-10.6659
▁vanaṃ	-10.6659
yantīti	-10.666
▁upaparikkh	-10.6661
▁ayam	-10.6662
▁satiṃ	-10.6663
sikā	-10.6665
▁vissajj	-10.6666
▁paṭighānusayena	-10.6667
▁vikkhambhana	-10.667
añña	-10.6672
▁ālay	-10.6672
▁sattesu	-10.6673
bhed	-10.6673
▁there	-10.6676
▁khettaṃ	-10.6676
▁Paccayacatukkaṃ	-10.6677
▁sumano	-10.6679
yādi	-10.668
pāya	-10.668
potak	-10.668
▁vasā	-10.668
viññatti	-10.6682
▁visaṃ	-10.6683
▁brahmadatte	-10.6684
▁abyākata	-10.6685
hati	-10.6686
▁sajj	-10.6687
▁asuka	-10.6688
▁Saññā	-10.669
▁adhigata	-10.669
vīti	-10.6693
guṇe	-10.6696
iyamāne	-10.6696
▁viyā	-10.6696
mahant	-10.6701
▁Vipassanā	-10.6701
▁pattakallaṃ	-10.6701
▁jaya	-10.6706
dara	-10.6709
▁koṭṭhāse	-10.6709
▁caranto	-10.6709
▁kamm	-10.671
kāyaṃ	-10.6711
Ek	-10.6712
▁phusitvā	-10.6712
patho	-10.6716
paṭimaṇḍit	-10.6718
▁kātabba	-10.6718
nukamp	-10.6722
▁vipākā	-10.6722
▁sesesupi	-10.6723
paṭipadaṃ	-10.6724
▁patiṭṭhitā	-10.6726
▁paṭicchāde	-10.6729
Pe	-10.6729
santo	-10.6729
▁sampanna	-10.673
▁visesana	-10.673
nidāna	-10.6733
abhūtā	-10.6733
▁upādinn	-10.6733
▁āpajji	-10.6734
▁ānandaṃ	-10.6735
ādhipateyy	-10.6737
▁paribhuñj	-10.6738
▁kathinaṃ	-10.6739
riyo	-10.6739
▁karaṇaṃ	-10.674
▁ghana	-10.6744
antu	-10.6745
dhammehi	-10.6747
samaya	-10.6748
▁parideva	-10.6748
▁pañcindriyāni	-10.6749
yug	-10.6749
vāse	-10.675
▁Tap	-10.675
▁nisīdāpetvā	-10.675
vatti	-10.6751
▁panesa	-10.6752
▁bhūtā	-10.6752
ruh	-10.6753
▁nāhaṃ	-10.6755
sādi	-10.6755
▁vevacanaṃ	-10.6756
bhikkh	-10.676
▁attabhāva	-10.676
▁paṭibhāna	-10.676
▁Dhammā	-10.6765
▁piṇḍapāt	-10.6766
▁nipajji	-10.6767
▁nibbāne	-10.6768
cched	-10.6772
▁mattikā	-10.6773
pur	-10.6774
ṭṭhānā	-10.6774
▁pāpakaṃ	-10.6775
▁suviññeyyameva	-10.6775
▁uppajjeyya	-10.6775
▁virāgā	-10.6776
▁51.	-10.6777
▁ariyamagga	-10.6778
▁bandhana	-10.6779
▁gamissāmī	-10.678
▁Nid	-10.678
ṅ	-10.6781
panā	-10.6783
▁pañcamo	-10.6783
yatī	-10.6784
▁Saṅgh	-10.6786
▁sāmivacanaṃ	-10.6786
mūlaka	-10.6787
▁aṭṭhamaṃ	-10.6789
▁soṇa	-10.6789
▁dhammacakkaṃ	-10.6792
▁bhadr	-10.6792
viggah	-10.6793
dhātuyā	-10.6794
▁pasenadi	-10.6796
ṇḍi	-10.6797
▁upasam	-10.6798
▁bhinnā	-10.6799
uppattiyā	-10.6799
nam	-10.6799
▁āloko	-10.6801
▁ṭhānāni	-10.6802
▁jhāyī	-10.6804
kathāyaṃ	-10.6806
▁pasād	-10.6807
▁Apare	-10.6809
▁Imesaṃ	-10.6812
▁bhikkhā	-10.6813
kkaman	-10.6819
▁Idañca	-10.682
▁patiṭṭhito	-10.6821
kaṭṭh	-10.6821
uppanna	-10.6822
▁bhūmiyā	-10.6822
▁pabbāj	-10.6823
▁sampaṭicchitvā	-10.6824
sāmaggi	-10.6826
▁niyata	-10.6828
▁Pañcame	-10.6828
▁pāpakammaṃ	-10.683
sevanā	-10.683
dassan	-10.683
▁pubbenivās	-10.6831
▁pattiyā	-10.6837
▁mukhe	-10.6838
dahan	-10.6838
sva	-10.6838
▁vegena	-10.6841
datt	-10.6842
santāne	-10.6845
▁devesu	-10.6849
nusay	-10.685
▁Ther	-10.6851
▁uddhar	-10.6854
sutt	-10.6856
bhūmiṃ	-10.6857
paṭṭa	-10.6858
▁parikammaṃ	-10.6858
nañhi	-10.686
▁paribhuñjituṃ	-10.686
▁Sabb	-10.6861
santak	-10.6863
▁dasabalassa	-10.6866
▁cetiyaṃ	-10.6866
▁55.	-10.6868
▁amat	-10.6868
▁purejātaṃ	-10.6872
▁bhavituṃ	-10.6872
▁apāy	-10.6873
mado	-10.6873
dakkhiṇ	-10.6874
▁vatte	-10.6874
▁vattha	-10.6874
dhātūti	-10.6874
▁gūtha	-10.6875
pathavī	-10.6875
▁saññ	-10.6875
▁patth	-10.6876
▁diṭṭhe	-10.6876
nānattaṃ	-10.6878
▁sīho	-10.6878
▁byāpāda	-10.6884
cor	-10.6886
hamasmi	-10.6886
▁Āsav	-10.6888
▁Kata	-10.689
mattha	-10.6891
▁kāyāyatanaṃ	-10.6894
▁52.	-10.6895
jānana	-10.6895
▁sadiso	-10.6897
▁pañcahaṅgehi	-10.6898
▁Udaka	-10.6899
▁vuttepi	-10.6901
▁sare	-10.6903
▁ekantena	-10.6903
▁gaṇe	-10.6904
nāḷi	-10.6905
▁ariyasaccaṃ	-10.6905
▁sūriyo	-10.6906
▁pūti	-10.6909
ppakāsan	-10.6911
▁vattamāne	-10.6911
▁sīlesu	-10.6912
▁mamā	-10.6913
laṅkat	-10.6915
sādhāraṇa	-10.6918
▁53.	-10.692
E	-10.692
pabbajit	-10.6922
▁dasannaṃ	-10.6924
▁pahīnattā	-10.6925
▁sammāsati	-10.6926
saññitā	-10.6927
▁sabhāga	-10.6928
Saccaṃ	-10.6929
▁Tīṇi	-10.693
ññāya	-10.6932
pārājik	-10.6933
▁sippaṃ	-10.6935
▁abhabbo	-10.6936
▁paññāp	-10.6938
▁imināva	-10.6938
vidhāna	-10.6939
▁bahussuto	-10.6939
▁Sabbattha	-10.6939
▁āhara	-10.694
Savitakkasavicār	-10.6941
▁āhārapaccayena	-10.6942
▁cakkhuviññāṇa	-10.6944
▁ū	-10.6944
kkamena	-10.6948
ekaṃ	-10.6948
▁kiriyaṃ	-10.6949
▁rāhula	-10.6949
▁khaṇ	-10.6949
pubbe	-10.6949
▁dinnā	-10.6949
▁chaḍḍe	-10.6951
▁nimitt	-10.6951
▁jan	-10.6954
▁sabhāvato	-10.6959
▁kilam	-10.6961
▁kinti	-10.6961
▁paviṭṭha	-10.6963
mañña	-10.6963
▁uppajjanaka	-10.6963
▁ucchu	-10.6965
▁vuccamāno	-10.6965
▁medhāvī	-10.6966
▁Mahāsatto	-10.6967
▁okāse	-10.6968
visesaṃ	-10.6969
kūṭ	-10.697
savā	-10.697
▁seso	-10.697
▁Seyyathidaṃ	-10.6971
▁padānaṃ	-10.6971
yogena	-10.6971
▁Tatrā	-10.6974
īsu	-10.6975
▁54.	-10.6975
▁parāmās	-10.6976
▁Tepi	-10.6979
seyyā	-10.6981
▁janapada	-10.6983
▁manaṃ	-10.6984
ppamāṇaṃ	-10.6988
▁jaṭil	-10.6988
▁appamattak	-10.6988
mādāya	-10.6989
▁abhiññeyyo	-10.699
▁kulagehe	-10.699
aññamañña	-10.6992
▁vajjetvā	-10.6993
upādāna	-10.6993
parisuddh	-10.6998
ggahaṇe	-10.6998
▁devī	-10.6998
vacanassa	-10.6998
yaṭṭhi	-10.6998
▁purimaṃ	-10.6999
▁parisuddhaṃ	-10.7004
▁jambu	-10.7006
▁cīvar	-10.7006
▁parijān	-10.7009
▁sūriya	-10.7013
jātikā	-10.7014
▁bhijjati	-10.7014
▁cando	-10.7016
▁hīnaṃ	-10.7016
nibbāna	-10.7016
▁viññutaṃ	-10.7017
vācako	-10.7018
▁mittā	-10.7021
▁aja	-10.7024
niddesa	-10.7024
caya	-10.7028
kārako	-10.7029
▁57.	-10.7029
tiādikaṃ	-10.703
▁vaṇ	-10.703
–-	-10.7032
▁khīṇāsava	-10.7038
▁vigate	-10.7038
▁dukkaṭ	-10.7038
▁keval	-10.704
▁bhoto	-10.7042
taraṇ	-10.7043
▁vakkhamān	-10.7044
▁Kusala	-10.7048
▁lokiyā	-10.7051
bhijj	-10.7054
▁upaṭṭhāk	-10.7057
ppahāna	-10.7059
patt	-10.706
yantā	-10.706
▁niṭṭhā	-10.7063
▁vihareyya	-10.7063
▁tar	-10.7068
▁vaḍḍhati	-10.7068
▁pārisuddhi	-10.7069
desanāya	-10.7072
▁lokuttaradhamm	-10.7072
▁vītikkam	-10.7072
vidhānaṃ	-10.7074
▁vaḍḍhi	-10.7076
Kathaṃ	-10.7076
▁āpo	-10.7077
sveva	-10.7077
▁silā	-10.7078
▁hissa	-10.7078
▁gacchantaṃ	-10.708
▁mamaṃ	-10.7085
▁samāpajji	-10.7087
vibhatt	-10.709
▁sassa	-10.7091
▁etāyāti	-10.7093
▁pakāsito	-10.7094
▁Saṅ	-10.7094
▁pucchito	-10.7094
ṇṭh	-10.7098
▁saddhaṃ	-10.7098
saṅkhārakkhandho	-10.7098
jāla	-10.71
▁kāmāvacaraṃ	-10.7101
▁Cīvara	-10.7106
vibhāgo	-10.7107
ghara	-10.7108
aha	-10.7109
▁musāvād	-10.7111
▁pavattiyā	-10.7111
sakkār	-10.7112
▁tam	-10.7113
▁purejāte	-10.7115
▁adhammena	-10.7117
▁Yesaṃ	-10.7117
nevāti	-10.7117
tap	-10.7121
▁karotī	-10.7127
▁paribhuñjitabb	-10.7128
▁pathaviyaṃ	-10.7128
▁vayo	-10.7129
▁vidhā	-10.713
▁uppādāya	-10.7131
▁sup	-10.7131
▁bhāvento	-10.7132
▁pañcā	-10.7133
pariyosānaṃ	-10.7133
▁sabbehi	-10.7137
▁mārisa	-10.7137
▁Dvinnaṃ	-10.7138
▁caturo	-10.7139
▁pacchājātaṃ	-10.714
▁patiṭṭhita	-10.714
▁uggaṇh	-10.7141
senāsan	-10.7141
▁oḷārikā	-10.7143
▁jāte	-10.7143
kiṇṇa	-10.7145
▁Vuttampi	-10.7145
▁devatānaṃ	-10.7146
▁samaṇaṃ	-10.7147
ani	-10.7147
ābhāvena	-10.7149
▁manāpā	-10.7149
▁garaha	-10.715
▁abhiññeyyaṃ	-10.7151
▁labbhamān	-10.7152
▁pātu	-10.7153
▁paṭ	-10.7155
lol	-10.7156
▁saṅkhā	-10.7157
▁visaye	-10.7157
baddhā	-10.7158
▁lābha	-10.7158
kameva	-10.716
▁Tādis	-10.7164
▁nirantaraṃ	-10.7165
▁Siyā	-10.7169
▁idhāpi	-10.7173
bandha	-10.7178
▁gaṇhā	-10.7181
▁dukkhe	-10.7182
pasād	-10.7182
▁l	-10.7182
▁sundar	-10.7183
▁Di	-10.7184
▁saṅghāṭi	-10.7185
▁matthakaṃ	-10.7186
appavatt	-10.7187
eko	-10.7187
paññatt	-10.7188
▁dhammañca	-10.7188
▁sakkāyadiṭṭhi	-10.7191
▁aparā	-10.7195
samāna	-10.7195
▁piyaṃ	-10.7195
▁ba	-10.7197
nānatta	-10.7197
▁santati	-10.7201
▁sampattiṃ	-10.7205
▁pubbā	-10.7208
nāni	-10.7209
▁ācāra	-10.7209
▁pupphaṃ	-10.7211
▁andha	-10.7212
▁Ayañca	-10.7214
▁gacchāmi	-10.7214
▁vimuccati	-10.7215
Mahā	-10.7216
asaññā	-10.7216
▁Purima	-10.7218
▁upāsakā	-10.7222
▁khādanīyaṃ	-10.7224
▁ākāra	-10.7224
vaṭṭi	-10.7225
nakkhatt	-10.7226
▁bhūmīsu	-10.7229
▁mettāya	-10.723
▁āpajjatīti	-10.723
▁kaṭṭha	-10.7237
▁uttarimanussa	-10.7238
▁Sahajātā	-10.7238
▁Vutt	-10.724
samuṭṭhāna	-10.7241
▁sappa	-10.7241
▁paca	-10.7242
mūlake	-10.7243
dhara	-10.7249
▁aññāṇa	-10.725
▁puthujjana	-10.7251
apaṭi	-10.7254
lokaṃ	-10.7254
cakkhū	-10.7254
▁gambhīra	-10.7255
▁vaṇṇena	-10.726
▁āpajj	-10.7261
manussā	-10.7263
▁vācato	-10.7265
vanta	-10.7266
phalā	-10.7266
cīti	-10.7269
▁cittato	-10.7269
ajātakaṃ	-10.727
▁sahasā	-10.7271
rassa	-10.7272
▁bhāvetvā	-10.7272
paviṭṭh	-10.7274
gacchati	-10.7275
▁Gha	-10.7277
▁āsavasampayutt	-10.7277
▁hontu	-10.7281
▁Ārammaṇa	-10.7282
▁Ru	-10.7283
▁paṭigha	-10.7284
maddan	-10.7288
netaṃ	-10.7288
▁viharatī	-10.7291
micch	-10.7292
▁brahmaloke	-10.7293
▁pakkha	-10.7295
▁viññū	-10.7295
▁sukhumā	-10.7298
pariyāyena	-10.7298
▁sāvatthi	-10.73
cchand	-10.73
▁āgantuka	-10.7301
▁pākaṭa	-10.7302
▁saṃvaro	-10.7302
▁sattame	-10.7303
▁paṭisaṅkhā	-10.7309
parā	-10.731
▁dātabbā	-10.7313
▁sārathi	-10.7314
pānaṃ	-10.7316
ān	-10.7317
varo	-10.7317
▁cakkhundriyañca	-10.7317
▁paricār	-10.7321
▁Pañcamaṃ	-10.7323
▁santepi	-10.7328
▁brāhmaṇānaṃ	-10.7328
ccheda	-10.7328
▁bodhisattaṃ	-10.733
▁kantā	-10.733
dīgh	-10.7333
▁rūpādi	-10.734
samaṇ	-10.7341
▁vat	-10.7341
▁aññatarassa	-10.7341
▁buddh	-10.7341
pajjati	-10.7342
▁mahesino	-10.7343
▁ākiñcaññāyatan	-10.7343
sampadāya	-10.7344
▁ukkhepanīyakamm	-10.7344
pāt	-10.7344
▁idhā	-10.7345
▁vatth	-10.7345
ḍḍha	-10.7345
camm	-10.7346
paṭipāṭiyā	-10.7347
yadi	-10.7348
▁tāsu	-10.7348
▁arahattaphala	-10.7349
▁nigrodha	-10.735
labh	-10.735
▁vāta	-10.7351
▁ekekaṃ	-10.7351
▁kathita	-10.7352
▁pariyāpuṇ	-10.7354
▁Pacc	-10.7355
▁bhuñji	-10.7355
bhāvenāti	-10.7357
▁Dasame	-10.7361
jane	-10.7361
▁upacāra	-10.7363
▁katādhikāro	-10.7364
maṇḍap	-10.7365
▁anussar	-10.7366
▁Kassa	-10.7367
▁abhidhamma	-10.7367
▁sahāya	-10.7371
▁ajānanto	-10.7374
ppattaṃ	-10.7375
Et	-10.7375
bhāvoti	-10.7377
▁ubhay	-10.7379
▁pucchanto	-10.7379
dassāvī	-10.7381
satto	-10.7382
sāsana	-10.7382
▁bhavarāgānusayo	-10.7383
▁vijjh	-10.7387
▁Aññā	-10.7387
kamp	-10.739
▁maññamāno	-10.739
▁uṭṭhahitvā	-10.739
▁yakkh	-10.7392
▁Anidassana	-10.7396
▁khīṇāsavassa	-10.7398
▁anantaraṃ	-10.7399
▁sammāvācā	-10.74
▁khetta	-10.74
▁Chaṭṭhaṃ	-10.74
gatassa	-10.7404
vinicchayo	-10.7408
▁sampahaṃs	-10.741
pariyosānā	-10.7412
▁soka	-10.7413
mhe	-10.7413
▁vutti	-10.7413
▁sotāpattiphal	-10.7414
▁yojetabbo	-10.7415
asadisaṃ	-10.7415
▁uttamaṃ	-10.7417
▁kāretabbo	-10.7418
▁itaro	-10.7418
▁uḷāra	-10.742
▁jot	-10.7422
▁adhika	-10.7422
nussati	-10.7422
▁mettaṃ	-10.7426
▁pabbato	-10.7427
▁vitakke	-10.7429
▁56.	-10.743
mb	-10.7432
dvaye	-10.7434
▁tha	-10.7437
sabhāg	-10.7437
▁adhikaraṇ	-10.7438
▁nasanidassanas	-10.7439
▁pāramiyo	-10.744
vāsaṃ	-10.7441
▁cunda	-10.7441
▁gāhāpetvā	-10.7442
game	-10.7443
▁ārope	-10.7444
▁pīta	-10.7446
vijjamān	-10.7448
▁pacchimaṃ	-10.7451
tthambh	-10.7453
▁āsa	-10.7453
▁63.	-10.7453
upaddav	-10.7454
ini	-10.7455
sambhār	-10.7456
▁dhanu	-10.7457
▁diṭṭhā	-10.7458
bahul	-10.7458
ḷe	-10.746
▁somanass	-10.7462
dāsi	-10.7462
sate	-10.7463
▁byākar	-10.7472
diṭṭhī	-10.7474
▁ovad	-10.7475
▁taṇhaṃ	-10.7479
▁nissayo	-10.7481
▁vinass	-10.7488
▁kasi	-10.7489
thūp	-10.749
▁mayha	-10.749
rabh	-10.7492
▁Iddhi	-10.7495
▁paṭivedha	-10.7496
▁mukhena	-10.7498
mah	-10.7501
▁mūle	-10.7509
abhijjhādomanass	-10.751
nusārena	-10.7514
vimokkh	-10.7514
▁cetasika	-10.7515
▁ji	-10.7517
rājassa	-10.7518
▁uju	-10.7519
vasesa	-10.7519
bīj	-10.752
▁samāpattiyo	-10.7521
▁dhura	-10.7521
▁nacc	-10.7523
▁sannisinnā	-10.7524
▁vohāra	-10.7529
haritvā	-10.7529
sāgar	-10.7529
▁ettakā	-10.7532
▁bhikkhunisaṅgh	-10.7532
▁Saṅkhyāvār	-10.7534
▁cutā	-10.7537
baddho	-10.7538
▁yama	-10.7538
▁obhāsa	-10.7539
matthake	-10.7541
▁jala	-10.7542
▁suvi	-10.7542
▁paṭhanti	-10.7543
▁parisaṃ	-10.7543
▁thāma	-10.7543
▁nibbuto	-10.7543
ddhi	-10.7545
▁siri	-10.7545
▁āhu	-10.7546
▁Santa	-10.7548
gāmaṃ	-10.7548
kriyā	-10.7549
▁60.	-10.755
majjh	-10.7554
▁paṭiggahe	-10.7554
vijay	-10.7559
anādi	-10.7559
parihār	-10.7561
ayiṃ	-10.7561
parikkhāre	-10.7562
day	-10.7562
▁Atth	-10.7563
gatānaṃ	-10.7566
▁paṭilabhati	-10.7568
▁itthīnaṃ	-10.7568
▁tadārammaṇa	-10.757
▁saṅkhepo	-10.7571
▁nāgā	-10.7571
āmā	-10.7572
hetukaṃ	-10.7573
▁phalāni	-10.7573
tyādi	-10.7575
▁nibbattetvā	-10.7575
▁kāmavitakk	-10.7576
mugga	-10.7582
samaṅgi	-10.7582
amhā	-10.7582
▁rakkhit	-10.7583
▁anupubba	-10.7584
yog	-10.7585
▁dvayaṃ	-10.7586
▁pacchābhattaṃ	-10.7588
▁sabhāvo	-10.7592
dhan	-10.7592
bhūtānaṃ	-10.7592
dhān	-10.7593
kāraka	-10.7594
▁Vipāka	-10.7594
▁anussarati	-10.7597
▁attamano	-10.7597
▁nāg	-10.7598
▁Dasamaṃ	-10.7598
▁paṭikkhipitvā	-10.7599
pātimokkh	-10.7599
▁parivattetvā	-10.76
▁Chaṭṭhe	-10.76
▁rāg	-10.7601
▁sattasu	-10.7603
▁pucchāmi	-10.7605
nīya	-10.7606
▁tāvadeva	-10.7608
▁san	-10.761
kkhandhake	-10.7611
▁58.	-10.7613
▁kāsi	-10.7615
▁rājaputt	-10.7615
▁atth	-10.7616
lāya	-10.7616
āpan	-10.7617
▁dāsi	-10.7617
gocaro	-10.762
yoni	-10.7621
ādeso	-10.7621
▁mahi	-10.7621
▁pamāṇ	-10.7621
▁rukkhe	-10.7625
▁vipariṇāmadhamm	-10.7627
miga	-10.7629
▁paribbājako	-10.7631
▁okāso	-10.7631
▁jātiṃ	-10.7631
▁Aññathā	-10.7633
nidassan	-10.7635
▁paccuppannaṃ	-10.7636
mātikā	-10.7639
iṃsūti	-10.7641
▁pādaṃ	-10.7641
samathavipassanā	-10.7646
▁avijjamāna	-10.7646
▁joti	-10.7646
avijjā	-10.7647
▁vāri	-10.7649
▁bhikkhusaṅgho	-10.7653
▁pura	-10.7654
sabbhāvato	-10.7655
dhippāy	-10.7656
▁sikkhāpade	-10.7656
▁sambhavo	-10.7658
arā	-10.7658
udaka	-10.7659
yidaṃ	-10.7659
parāyaṇ	-10.766
▁vuṭṭhāna	-10.7661
▁sabbadisā	-10.7662
▁assādo	-10.7662
▁yassā	-10.7664
kampan	-10.7664
▁nīhar	-10.7668
maggena	-10.7669
▁nikkham	-10.767
visayā	-10.767
vacanato	-10.767
▁kārāpe	-10.7671
▁bhogā	-10.7671
▁bāhirā	-10.7672
▁vimokkhā	-10.7674
sañcetanā	-10.7676
▁sannipatitvā	-10.7679
▁sādh	-10.768
▁gamane	-10.7683
ppatta	-10.7685
▁panāhaṃ	-10.7689
rammaṇā	-10.7691
▁62.	-10.7693
▁Uppād	-10.7693
▁bheda	-10.7694
pissa	-10.7695
▁Rañño	-10.7699
▁Tasseva	-10.7701
▁devarājā	-10.7702
catukk	-10.7702
vajja	-10.7703
▁61.	-10.7708
▁vacane	-10.771
▁saṅghādisesā	-10.771
12.	-10.7713
▁ukkaṭṭha	-10.7713
▁aṭṭhā	-10.7713
nirodhaṃ	-10.7713
gharaṃ	-10.7718
parivattan	-10.7722
vibhav	-10.7723
▁kappati	-10.7724
▁Assa	-10.7724
18.	-10.7725
▁cittañca	-10.7725
▁nipātamattaṃ	-10.7725
ghāto	-10.7728
itattaṃ	-10.7728
▁kari	-10.7729
▁dhuva	-10.773
atopi	-10.7732
▁sāmī	-10.7732
▁tathāgata	-10.7733
11.	-10.7736
sampajaññ	-10.7737
▁nās	-10.7738
samuṭṭhit	-10.7739
khīr	-10.774
▁baddha	-10.7741
▁64.	-10.7743
▁Ekādasa	-10.7745
▁piv	-10.7746
ggāha	-10.7748
▁Akusalaṃ	-10.7749
▁Nis	-10.775
▁kāy	-10.7751
byasan	-10.7754
ṭṭhānāni	-10.7755
ayitvā	-10.7762
sukhuma	-10.7764
▁nāgarājā	-10.7766
▁Kamme	-10.7766
▁gāmaṇi	-10.7767
▁pacca	-10.7769
▁samādinn	-10.7772
▁sudd	-10.7773
itabbanti	-10.7773
▁savana	-10.7774
▁puṇṇa	-10.7774
ppamāṇa	-10.7777
sīmāya	-10.7777
▁Pakatūpanissayo	-10.7777
byāpād	-10.7777
▁anuttaro	-10.7778
ikāti	-10.7779
sampadaṃ	-10.7779
▁bhesajja	-10.778
karaṇavasena	-10.7782
▁yamaka	-10.7783
▁tejodhātu	-10.7783
▁hiri	-10.7785
▁diṭṭhadhammik	-10.7786
kkant	-10.7786
▁vaṇṇā	-10.7789
ṭhi	-10.779
▁pūraṇ	-10.779
▁uppajjantīti	-10.7793
saṅkapp	-10.7793
das	-10.7794
issatīti	-10.7794
▁domanass	-10.7795
▁Katihi	-10.7795
kkho	-10.7796
nantarūpanissayo	-10.7796
▁vibhattā	-10.7798
▁tiṇ	-10.7799
▁Ariya	-10.7799
ṅgu	-10.78
hetuyā	-10.7802
pāna	-10.7803
▁ārabbhāti	-10.7804
vārā	-10.7807
▁cakkhāyatanañca	-10.7807
▁heva	-10.7811
▁pītisahagat	-10.7811
▁nirujjhatīti	-10.7812
▁paṇḍak	-10.7823
▁uccār	-10.7827
paññattiyā	-10.7828
▁nuppajjittha	-10.783
▁Cu	-10.783
▁sakkassa	-10.7832
▁paccanīka	-10.7836
▁dātabba	-10.7836
▁sānusayo	-10.7837
▁samuṭṭhānehi	-10.7838
sāli	-10.7838
▁Netaṃ	-10.7839
▁cetasikaṃ	-10.7839
saddānaṃ	-10.7841
▁parikapp	-10.7842
▁idañca	-10.7842
▁code	-10.7844
peyya	-10.7845
▁Dā	-10.7846
aṅgaṃ	-10.7846
iccādi	-10.785
▁abbhantare	-10.7852
▁vaya	-10.7853
▁tapo	-10.7854
byañjana	-10.7855
▁saṃsaṭṭhā	-10.7857
mattano	-10.7857
▁pariṇām	-10.7857
▁niddesa	-10.7857
ṭīkā	-10.7858
▁kulaputto	-10.786
▁sabbeva	-10.7863
▁adisvā	-10.7865
▁satisambojjhaṅg	-10.787
▁upajjhāyo	-10.7871
▁mi	-10.7873
▁kathañca	-10.7875
▁kattari	-10.7875
▁payoj	-10.7877
rehi	-10.7879
pāta	-10.7879
▁vibhatt	-10.788
tiṭṭha	-10.788
brahmā	-10.7881
sañhi	-10.7883
▁paññavā	-10.7884
bhog	-10.7884
▁upapajjitvā	-10.7884
▁Patta	-10.7885
▁nī	-10.7885
▁Itaro	-10.7886
bujjh	-10.7892
▁gataṃ	-10.7892
nidānā	-10.7897
▁avayav	-10.7897
▁Buddh	-10.7903
Ra	-10.7903
vipphār	-10.7904
▁tāhi	-10.7905
nattha	-10.7905
▁suttassa	-10.7906
▁haṃsa	-10.7908
kkam	-10.7909
meta	-10.7909
▁samparāyik	-10.7912
▁sabbesampi	-10.7913
yuṃ	-10.7914
amma	-10.7914
▁Kismiṃ	-10.7917
▁Kati	-10.7917
ñch	-10.7919
dhāre	-10.792
▁codanā	-10.7923
▁paṇṇa	-10.7923
Sabbe	-10.7927
▁pose	-10.7933
▁seyyaṃ	-10.7935
▁pūjā	-10.7936
bhūtāya	-10.7936
dasā	-10.7937
▁khvāhaṃ	-10.7937
▁sahabyataṃ	-10.7937
saṃyuttaṃ	-10.7938
▁disāsu	-10.7938
▁gāh	-10.7939
▁nikkhanto	-10.7939
sākh	-10.7939
maka	-10.7943
alakkhaṇo	-10.7943
bhinives	-10.7943
yapi	-10.7944
▁tādise	-10.7948
▁vihariss	-10.7948
vāsik	-10.7951
▁sampayuttadhamm	-10.7953
▁aññātāvindriyaṃ	-10.7953
nāmā	-10.7954
▁hirī	-10.7954
▁aññesu	-10.7955
ucca	-10.7956
ṭṭhaka	-10.7959
▁miss	-10.7962
▁ayañca	-10.7963
▁upaṭṭhah	-10.7964
▁atītānāgata	-10.7966
▁pucchitabbattā	-10.7966
▁domanassindriy	-10.7967
▁yasa	-10.7967
▁parijānātīti	-10.7971
sap	-10.7972
▁67.	-10.7972
vihāri	-10.7973
▁Maha	-10.7974
▁sugata	-10.7976
▁pivitvā	-10.7977
▁Aṭṭhamaṃ	-10.7979
▁dār	-10.7981
yāni	-10.7983
▁dadhi	-10.7983
▁vayappatto	-10.7985
▁pathavīdhātu	-10.799
▁kesañci	-10.7991
▁sambahule	-10.7991
▁tividho	-10.7993
▁saṅkhāresu	-10.7995
▁hīnā	-10.7996
▁65.	-10.7997
▁tiṭṭhatīti	-10.7998
▁jambudīp	-10.7999
etabbo	-10.8001
▁rūpāvacarā	-10.8002
▁moggallāna	-10.8003
guṇena	-10.8003
haraṇaṃ	-10.8003
▁uppajjatī	-10.8003
▁lohitaṃ	-10.8004
ete	-10.8005
▁aṭṭhaṃsu	-10.8006
ādimhi	-10.8007
vatthū	-10.8007
ānañhi	-10.8008
vikār	-10.801
▁Kathañca	-10.8012
▁āsiṃ	-10.8013
dantā	-10.8014
▁punapi	-10.8015
Catu	-10.8016
iye	-10.8016
▁mohassa	-10.8016
▁issaro	-10.8016
Ku	-10.8018
bhāṇavār	-10.8018
sattati	-10.8019
▁sirasā	-10.8019
sāmatthiy	-10.802
▁madda	-10.802
rūpassa	-10.8023
sambojjhaṅgassa	-10.8024
ṅko	-10.8024
▁Navame	-10.8024
▁laddhanām	-10.803
eyyātha	-10.803
▁Aṭṭhame	-10.8031
bhār	-10.8032
▁samaṇadhammaṃ	-10.8034
▁Mahant	-10.8035
▁Tam	-10.8038
▁vipula	-10.804
vohāro	-10.8041
▁ahosī	-10.8045
▁sadevake	-10.8045
▁nappa	-10.8045
▁sah	-10.8046
▁vini	-10.8047
▁vitthāro	-10.8048
▁Phala	-10.8049
▁caramāno	-10.805
ves	-10.805
▁Paccaya	-10.8051
▁domanassa	-10.8052
cchinna	-10.8053
▁Heṭṭhā	-10.8053
▁Vinaya	-10.8055
addhā	-10.8058
cchād	-10.806
▁patti	-10.8061
▁66.	-10.8062
▁adinnaṃ	-10.8063
▁chavi	-10.8064
pāṭh	-10.8066
pariy	-10.8066
smīti	-10.8067
paṭal	-10.8067
kasmā	-10.8068
▁bhadde	-10.8069
bhās	-10.8069
▁upādinnupādāniy	-10.807
karaṇā	-10.8071
▁maggādhipati	-10.8073
▁amaccā	-10.8075
▁upā	-10.8076
▁samāsa	-10.8079
▁phalasamāpatti	-10.8081
vinodan	-10.8081
▁pakat	-10.8085
vinayo	-10.8085
tenupasaṅkamiṃsu	-10.8086
▁appavatti	-10.8088
gaṇo	-10.8088
▁anuññātā	-10.8089
brāhmaṇa	-10.8089
kukkucc	-10.8091
aḍḍh	-10.8095
ggahita	-10.8098
abhūtaṃ	-10.8099
cuṇṇ	-10.8099
dīsupi	-10.8101
▁sikkhāpadāni	-10.8101
▁paccavekkhitvā	-10.8101
▁nirāmis	-10.8102
yam	-10.8102
nāmo	-10.8102
veyyākaraṇ	-10.8104
▁sakkāraṃ	-10.8106
▁saṃsāre	-10.8106
ntānaṃ	-10.8106
▁cittanti	-10.8106
gāmo	-10.8108
etu	-10.8108
▁mahanto	-10.8109
▁sakya	-10.8109
▁bhaṇantassa	-10.8109
ṅk	-10.8111
brāhmaṇo	-10.8111
▁saṃyojanānaṃ	-10.8111
▁ahetukaṃ	-10.8113
nibb	-10.8113
▁dhītaraṃ	-10.8115
ssasī	-10.8117
imassa	-10.812
▁dhātūnaṃ	-10.8121
▁okkant	-10.8121
akiccaṃ	-10.8122
▁kappiyaṃ	-10.8124
▁sed	-10.8126
▁āloka	-10.8129
cc	-10.8131
▁pārupitvā	-10.8132
▁Tikaṃ	-10.8134
ntū	-10.8134
▁hā	-10.8134
paccanīk	-10.8137
yamattho	-10.8138
▁asaṃkiliṭṭh	-10.8139
cittuppād	-10.8142
▁saṅkapp	-10.8147
▁uttarā	-10.8148
kārakā	-10.815
▁akkhā	-10.8151
▁kodha	-10.8151
▁yonisomanasikār	-10.8151
nidassanaṃ	-10.8154
▁brūmi	-10.8154
▁balāni	-10.8155
▁pattacīvaraṃ	-10.8155
▁59.	-10.8158
▁duccaritaṃ	-10.8158
▁pārājikā	-10.8159
▁abhibhavitvā	-10.8159
▁kaṇha	-10.816
▁Tasmāti	-10.8161
rocan	-10.8163
▁Uppann	-10.8166
koṭiyā	-10.8168
▁Bodhi	-10.8169
▁amoho	-10.8169
mod	-10.8172
dīna	-10.8174
viya	-10.8174
▁mahāmoggallāno	-10.8175
▁vajj	-10.8176
▁anuppatto	-10.818
▁arahattamagga	-10.818
▁mātugāmo	-10.8182
nissito	-10.8182
bhāveneva	-10.8185
▁patthanaṃ	-10.8185
▁diṭṭhānusayo	-10.8186
▁khāditvā	-10.8187
kāl	-10.8189
ānuyog	-10.8189
▁asādhāraṇa	-10.8192
▁manasikāra	-10.8192
patiṭṭh	-10.8193
vidhiṃ	-10.8193
▁upaṭṭh	-10.8195
▁mañca	-10.8197
▁mahantena	-10.8203
tabbe	-10.8203
▁Gāma	-10.8206
▁jarāya	-10.8209
▁dīp	-10.8209
▁arūpino	-10.8209
paṇḍito	-10.821
▁Cittaṃ	-10.821
gahaṇ	-10.8211
▁kammaṭṭhān	-10.8212
gama	-10.8213
▁Agga	-10.8213
ttu	-10.8215
Kadā	-10.8216
▁mati	-10.8216
dassanā	-10.8216
▁pucchiṃsu	-10.8217
▁saṅgīti	-10.8218
▁lajj	-10.8218
Satta	-10.8219
▁Sattamaṃ	-10.8219
▁thera	-10.822
yogā	-10.822
▁gacchatī	-10.822
varā	-10.822
attano	-10.8221
ggayha	-10.8222
saṅghāṭ	-10.8222
▁aññāṇaṃ	-10.8225
kammanti	-10.8225
▁samādhismiṃ	-10.8226
▁paññatte	-10.8227
▁Tampi	-10.8228
▁Sikkh	-10.8229
▁vihes	-10.8231
antare	-10.8233
▁tesampi	-10.8236
▁Apa	-10.8237
sāla	-10.8237
▁sukhe	-10.8239
▁parisuddhā	-10.8239
▁nipanno	-10.824
▁byāpādo	-10.824
▁Kath	-10.824
▁Āyasmā	-10.8242
▁dhāreti	-10.8242
▁pahātabba	-10.8247
▁duṭṭha	-10.8249
▁nirodhaṃ	-10.825
▁Hīn	-10.825
haratīti	-10.8251
▁naabyākat	-10.8252
▁69.	-10.8253
▁sāyaṃ	-10.8254
▁Kilesa	-10.8254
rajju	-10.8255
▁saraṇagaman	-10.8255
▁gilāno	-10.8258
▁1-7	-10.8263
▁caturāsīti	-10.8264
▁pavivek	-10.8266
▁hohi	-10.8267
▁pāsādik	-10.8275
mutto	-10.8279
▁phuṭṭh	-10.828
purim	-10.8283
pass	-10.8284
upaṭṭhān	-10.8286
▁agāraṃ	-10.8286
▁Aneka	-10.8287
▁ṭhape	-10.8287
▁khandhena	-10.8288
guṇo	-10.829
▁vākyaṃ	-10.829
vācak	-10.8291
▁pāpuṇ	-10.8293
▁anāgāmī	-10.8293
janak	-10.8294
▁desessāmi	-10.8295
Paṭi	-10.8296
▁vitthāra	-10.8297
ña	-10.8297
▁tejo	-10.8299
▁Kāmaṃ	-10.8301
▁addhāna	-10.8301
appatto	-10.8301
▁kañcana	-10.8302
▁mahābodhi	-10.8303
▁majjhatt	-10.8305
▁anava	-10.8305
sineh	-10.8305
▁Aññaṃ	-10.8305
locan	-10.8305
▁nip	-10.8307
▁San	-10.8308
▁68.	-10.8309
▁nikkaḍḍh	-10.8309
aga	-10.8309
pariyante	-10.8312
▁jivhāya	-10.8313
▁akkha	-10.8313
khīṇāsav	-10.8314
▁samūha	-10.8315
dhippāyo	-10.8316
tur	-10.8316
▁70.	-10.8318
▁anaññātaññassām	-10.8321
▁upaḍḍha	-10.8321
▁parivuto	-10.8322
▁gilāna	-10.8322
▁āmantetvā	-10.8323
saññojan	-10.8323
pāhaṃ	-10.8327
anīyā	-10.8331
sāṭak	-10.8332
santān	-10.8336
▁sanni	-10.8336
tare	-10.8338
▁ida	-10.8342
kanta	-10.8343
▁mahaggata	-10.8347
catutthajjhān	-10.835
▁naakusalo	-10.8351
▁kassapo	-10.8351
▁Ekena	-10.8352
▁atul	-10.8355
vavatthānaṃ	-10.8356
▁adhigato	-10.8356
▁dūra	-10.8356
ekades	-10.8357
▁Namo	-10.8357
vāravaṇṇanā	-10.8357
kasiṇ	-10.836
▁sampaṭicchan	-10.8363
▁tadubhayaṃ	-10.8363
▁ñāta	-10.8364
nissita	-10.837
▁āsavakkhay	-10.8372
▁kilesehi	-10.8372
ttike	-10.8374
▁samāpannassa	-10.8377
▁karomi	-10.8378
▁kese	-10.8383
vitakka	-10.8384
mutt	-10.8385
samaññā	-10.8386
▁vatthūni	-10.8387
▁dhuraṃ	-10.8388
▁laddh	-10.839
ul	-10.8391
asukhavihār	-10.8392
bhāvāya	-10.8399
▁satti	-10.84
medha	-10.8401
▁kevalassa	-10.8401
▁liṅg	-10.8402
▁Khīṇāsav	-10.8404
adhātu	-10.8405
▁paṭilabhissanti	-10.8405
paccayaṃ	-10.8405
ratha	-10.8405
▁karohi	-10.8406
▁detha	-10.8407
sekkh	-10.8407
▁vimati	-10.8408
▁paccavekkhant	-10.8408
dhītā	-10.8409
visayo	-10.8409
▁dent	-10.8412
▁kapp	-10.8416
▁sannipāt	-10.8418
▁Sīl	-10.8419
matā	-10.842
▁ci	-10.8422
▁nīvaraṇā	-10.8423
khaṇ	-10.8424
vāyaṃ	-10.8428
pātubhāv	-10.8429
rita	-10.843
▁alābh	-10.8431
▁bhaginī	-10.8431
▁pakatatt	-10.8432
▁Eseva	-10.8433
▁purisena	-10.8434
▁bhāj	-10.8435
ṭṭhita	-10.8435
▁sundaraṃ	-10.8436
▁pavesetvā	-10.8437
▁jānana	-10.8438
yeyya	-10.8438
▁vuṭṭhāpe	-10.8439
guṇ	-10.844
pādo	-10.8442
▁anāpattīti	-10.8444
antarā	-10.8449
saṅgh	-10.8452
sito	-10.8452
▁pah	-10.8454
▁samaññā	-10.8454
▁obhās	-10.8459
▁bhāro	-10.8461
▁manodhātu	-10.8461
▁avassaṃ	-10.8463
padehi	-10.8464
▁manussaloke	-10.8465
▁takka	-10.8466
▁Navamaṃ	-10.8469
▁passaṃ	-10.8469
▁vipatti	-10.847
▁vinipātaṃ	-10.8474
▁aṭṭhakathāya	-10.8474
it	-10.8475
▁dinno	-10.8476
vandan	-10.8476
▁Ved	-10.8478
▁71.	-10.8479
▁parivāre	-10.848
bhadd	-10.848
▁aṅguli	-10.848
▁accha	-10.8481
nipphann	-10.8485
tabboti	-10.8486
sappaṭigho	-10.8487
▁pariyosānaṃ	-10.8488
antara	-10.8491
dhārā	-10.8493
bharaṇ	-10.8495
▁tamahaṃ	-10.8497
khyā	-10.8498
▁tama	-10.8498
ppavattiyā	-10.85
▁therānaṃ	-10.8501
▁jaññā	-10.8501
▁javana	-10.8502
itthi	-10.8504
gamanena	-10.8505
▁vine	-10.8506
pariyantaṃ	-10.8506
ajātakavaṇṇanā	-10.8507
▁paripuṇṇaṃ	-10.8508
koṭiyo	-10.8508
dassi	-10.8509
anāpatti	-10.8511
▁jigucch	-10.8513
▁Abyākataṃ	-10.8514
▁yācitvā	-10.8514
▁sota	-10.8514
▁paññattanti	-10.8517
muṭṭhi	-10.8519
▁mahāvīra	-10.8521
nicchay	-10.8523
▁mahāmuni	-10.8523
▁nānatta	-10.8524
saṅga	-10.8524
rakkha	-10.853
▁bandhu	-10.853
▁hara	-10.853
vītikkam	-10.8534
tukāmatāya	-10.8535
mma	-10.8537
▁yāvatā	-10.8542
pāṭ	-10.8543
▁lāmak	-10.8543
opa	-10.8545
▁majjhimā	-10.8545
amiva	-10.8546
▁abhisambuddho	-10.8546
patan	-10.8549
▁bahūnaṃ	-10.8549
▁mahājano	-10.8551
hū	-10.8551
tassā	-10.8553
tiṃsa	-10.8553
ghaṃ	-10.8553
aphala	-10.8553
▁ṭhānehi	-10.8555
maye	-10.8555
▁payirupās	-10.8555
▁vāce	-10.8557
▁asaṅkhatā	-10.8558
▁sotāpattimagg	-10.8558
▁parikamma	-10.856
saṅkhy	-10.856
tumpi	-10.8561
nulom	-10.8562
iyati	-10.8562
▁upaṭṭhāpe	-10.8563
akiriyā	-10.8567
▁gahetvāna	-10.8568
līna	-10.8569
▁dakkhiṇaṃ	-10.857
paṭipann	-10.8571
▁karaṇīyā	-10.8572
pakkaṃ	-10.8572
ida	-10.8573
▁devānaminda	-10.8574
▁samādhindriyaṃ	-10.8574
▁tidhā	-10.8574
▁pādamūle	-10.8576
hār	-10.8576
divasato	-10.8576
pañjar	-10.8577
madhu	-10.8578
akkhaṇ	-10.8579
seti	-10.8582
▁vacca	-10.8585
▁Gāthā	-10.8586
▁vattanti	-10.8587
ṭṭhānesu	-10.8589
cakkhuviññāṇassa	-10.8592
▁dasamaṃ	-10.8592
13.	-10.8593
▁Ajjh	-10.8594
▁upāya	-10.8594
▁vivaṭṭa	-10.8594
sajja	-10.8595
sve	-10.8596
āvajjan	-10.8596
nāyaṃ	-10.8601
rahitaṃ	-10.8601
▁sīta	-10.8601
Ga	-10.8602
▁pācīna	-10.8603
▁sikkhaṃ	-10.8604
▁kariṃsu	-10.8604
▁Me	-10.8606
▁paribhuñjati	-10.8606
▁ārocetvā	-10.8607
▁Tenāti	-10.861
▁ākaṅkh	-10.8611
▁kāyaduccarit	-10.8611
raho	-10.8612
▁vimucc	-10.8612
vatā	-10.8615
senā	-10.8616
vīriy	-10.8621
▁mar	-10.8621
▁Kiñca	-10.8622
▁anupādises	-10.8623
▁Suvaṇṇa	-10.8623
ppabhā	-10.8625
▁bhavesu	-10.8626
▁yojetabbā	-10.8626
▁sambuddhaṃ	-10.8628
▁pacchimā	-10.8629
▁ratanaṃ	-10.8631
▁uparūpari	-10.8632
▁appicchā	-10.8632
▁ānantariy	-10.8633
Du	-10.8633
vaḍḍhan	-10.8634
▁padā	-10.8634
▁Sacepi	-10.8635
▁samaggā	-10.8637
▁paramaṃ	-10.8637
▁adhiṭṭhānaṃ	-10.8638
▁akusale	-10.864
esīti	-10.864
ṭaṃ	-10.864
▁Des	-10.8642
▁phar	-10.8642
▁saṅkhata	-10.8643
▁pasādāya	-10.8645
▁Āma	-10.8645
ttheva	-10.8645
40.	-10.8648
▁kulāni	-10.8653
purejāta	-10.8653
▁upayogavacanaṃ	-10.8654
▁aniṭṭh	-10.8654
▁amacca	-10.8654
▁sāvake	-10.8654
bhūtesu	-10.8658
ṭṭhān	-10.8658
▁nirodhe	-10.8659
▁laddho	-10.8659
gocara	-10.866
▁pasādo	-10.866
▁khīṇa	-10.866
haṅgehi	-10.8662
▁Nīvaraṇ	-10.8662
▁yenāyasm	-10.8662
▁aññāsi	-10.8663
▁Cattāri	-10.8666
▁maggañāṇ	-10.8668
▁iṭṭhā	-10.8674
▁paṭṭhape	-10.8677
▁Nibbāna	-10.8677
▁pucchanti	-10.868
danto	-10.8681
iccete	-10.8682
gghanak	-10.8683
▁natthiyā	-10.8684
mattak	-10.8684
sattha	-10.8685
▁Satt	-10.8685
▁mānānusayen	-10.8689
▁ananu	-10.869
▁parinibbuto	-10.869
niyām	-10.869
▁sīmaṃ	-10.8691
tth	-10.8691
▁Brāhmaṇo	-10.8691
▁dutiyena	-10.8692
▁paggah	-10.8692
▁anupassanā	-10.8694
bhidhān	-10.8694
▁pakāsetvā	-10.8695
▁raso	-10.8697
▁purime	-10.8697
▁tādisā	-10.8698
bhāṇak	-10.8699
▁saritvā	-10.8699
▁atikkamma	-10.87
imāya	-10.8701
▁pāpetvā	-10.8703
▁pamād	-10.8708
ṭha	-10.871
▁param	-10.8715
▁73.	-10.8717
▁vicin	-10.8717
▁heṭṭhim	-10.8718
muhutt	-10.8718
sām	-10.8719
▁khīraṃ	-10.8719
▁arahati	-10.872
▁appahīnā	-10.8721
▁labhatīti	-10.8722
vatth	-10.8724
kaḍḍh	-10.8724
▁paribhās	-10.8726
▁vuccate	-10.8726
▁gaman	-10.8726
▁vuddh	-10.8727
▁vinayadhar	-10.8727
nimittā	-10.8728
▁24	-10.8729
▁atthena	-10.8729
ūpagā	-10.873
asamaye	-10.8733
dhammena	-10.8734
sikkhāpade	-10.8734
▁Saṅkhār	-10.8735
▁Aṭṭhakathāyaṃ	-10.8736
▁mana	-10.8736
▁vattamānā	-10.8737
▁sotāpannā	-10.8738
pariññā	-10.8741
▁Devatā	-10.8742
▁siddhā	-10.8743
▁viddhaṃs	-10.8745
pajjot	-10.8745
▁rāsi	-10.8746
▁pacchimabhavik	-10.8747
▁nappajānāti	-10.8747
bhinna	-10.8748
satehi	-10.8748
▁apekkh	-10.8749
▁bhavissāmi	-10.8749
▁sagge	-10.8749
▁vacanā	-10.8751
itthī	-10.8751
ratt	-10.8752
petaṃ	-10.8752
▁dhuvaṃ	-10.8753
▁apāyaṃ	-10.8754
▁aparisuddh	-10.8754
vipāko	-10.8761
▁rukkhamūle	-10.8761
▁Kena	-10.8763
āḷh	-10.8763
vitakko	-10.8766
▁ābādh	-10.8768
▁bhūtaṃ	-10.8769
▁navamaṃ	-10.8769
nissa	-10.8771
jegucch	-10.8776
asikkhāpad	-10.8777
▁Bāhir	-10.8777
▁āruyha	-10.8777
▁janaṃ	-10.8778
▁saṅghamajjhe	-10.8779
▁vatthusminti	-10.8781
saṃsār	-10.8781
sahāy	-10.8781
āra	-10.8782
smī	-10.8782
▁khalu	-10.8782
▁vādaṃ	-10.8783
ṅgul	-10.8783
▁sattu	-10.8783
▁pācitti	-10.8785
eyyunti	-10.8785
ametaṃ	-10.8785
bhāgā	-10.8785
▁rāgassa	-10.8785
catukkaṃ	-10.8786
amāne	-10.8787
▁pubbeva	-10.8789
▁katihi	-10.8789
sambhava	-10.879
▁dīghaṃ	-10.8793
▁mahallak	-10.8795
▁vimal	-10.8795
▁nidānaṃ	-10.8796
▁Manussa	-10.8797
meka	-10.8799
▁sīlāni	-10.8801
saṇṭhān	-10.8802
kileso	-10.8802
khaggavisāṇakapp	-10.8806
raṇā	-10.8806
ūpapatti	-10.8806
▁bhāseyya	-10.8807
▁sarā	-10.8809
pubbaṅgam	-10.8809
▁Tatheva	-10.8809
Tadā	-10.881
▁kāraṇe	-10.881
nibandh	-10.881
▁paricchinditvā	-10.8811
jīva	-10.8811
nānā	-10.8812
suddh	-10.8813
samaṅgino	-10.8813
niray	-10.8815
sattānaṃ	-10.8819
raṇī	-10.882
▁hetusampayutt	-10.8823
▁samuṭṭhā	-10.8824
akkhaṇa	-10.8826
gumb	-10.8832
▁apassanto	-10.8833
sanna	-10.8833
▁nibbidā	-10.8834
▁ārabhati	-10.8835
▁vaṅka	-10.8835
▁parinibbantānaṃ	-10.8835
nāmena	-10.8836
▁jāneyya	-10.8836
▁adaṃsu	-10.8836
maggā	-10.8837
▁ṭhapito	-10.8839
▁bhāvitattā	-10.8839
▁raṭṭha	-10.884
jin	-10.8843
▁anuggah	-10.8844
▁passāmī	-10.8847
▁vikāle	-10.8848
▁tāla	-10.8849
yutte	-10.8849
ṅge	-10.885
▁pīḷ	-10.8851
▁Sayaṃ	-10.8852
daka	-10.8853
tappa	-10.8854
▁guṇehi	-10.8855
saṃyojanaṃ	-10.8857
bhāgena	-10.8858
▁yoje	-10.886
▁āgatattā	-10.8862
▁75.	-10.8864
issāmīti	-10.8864
▁pubbaṇhasamayaṃ	-10.8864
aparamatthenā	-10.8865
▁brūhi	-10.8865
▁vicar	-10.8867
paṭipanno	-10.887
▁viññāpetvā	-10.887
ggha	-10.8871
dike	-10.8871
▁dosā	-10.8871
indriyā	-10.8872
▁ñāya	-10.8874
vaṃsa	-10.8875
▁bandhanaṃ	-10.8878
Kha	-10.888
▁pan	-10.8881
bahulā	-10.8882
visesena	-10.8883
▁cīvarāni	-10.8883
▁Saddh	-10.8885
paccayabhesajja	-10.8886
▁kātu	-10.8887
dāni	-10.8888
▁72.	-10.8888
▁74.	-10.8889
visese	-10.8889
tiādikā	-10.8892
▁vatthāni	-10.8894
▁ānāpānassati	-10.8894
bhāsi	-10.8898
▁samatho	-10.8899
▁gimh	-10.89
▁Visa	-10.89
jātapaccayena	-10.8901
▁yoni	-10.8901
▁upāsaka	-10.8902
aniddesavaṇṇanā	-10.8902
▁karontīti	-10.8905
▁dvattiṃsa	-10.8907
kuṭṭ	-10.8908
▁icc	-10.8908
▁sotāyatanaṃ	-10.8909
tva	-10.8909
▁Vibhaṅgavār	-10.891
▁Imesu	-10.891
▁att	-10.8911
▁saṃyam	-10.8911
▁kāyā	-10.8913
▁karontī	-10.8913
vatthusmiṃ	-10.8916
ṭ	-10.8916
▁sayampi	-10.8916
▁jav	-10.8917
▁cittā	-10.8919
▁ayutta	-10.892
▁araha	-10.8921
sampādan	-10.8921
māla	-10.8923
▁satipaṭṭhāna	-10.8923
▁devānamindo	-10.8923
▁udānesi	-10.8925
▁bādh	-10.8927
▁dukkaṭanti	-10.8929
▁nirā	-10.893
gī	-10.893
▁paricchinna	-10.8931
ṭṭhānanti	-10.8931
kaṭṭha	-10.8934
duka	-10.8935
▁gacchantassa	-10.8936
▁moda	-10.894
paricched	-10.8941
▁pahīnaṃ	-10.8944
▁Yad	-10.8945
ndā	-10.8945
nidd	-10.8947
▁paribbājak	-10.8949
▁sve	-10.895
▁samāso	-10.895
bhāvañca	-10.8951
▁kāmabhav	-10.8952
▁āpattīti	-10.8952
▁Upari	-10.8952
▁anulomaṃ	-10.8952
▁chabbidh	-10.8953
▁aggasāvakā	-10.8954
▁bhikkhūsu	-10.8955
janā	-10.8956
▁itthattāyā	-10.8956
▁khāda	-10.8957
▁Kar	-10.8957
▁namass	-10.8957
▁nipajj	-10.8957
▁vāyamati	-10.8958
paṇḍita	-10.8958
▁ujuṃ	-10.896
paṭibaddh	-10.8961
nantara	-10.8961
paṭipakkh	-10.8962
▁asaṃ	-10.8963
āvacar	-10.8965
madhur	-10.8966
▁anāpucchā	-10.8966
▁dasse	-10.8966
navuti	-10.8969
ayitvāna	-10.897
▁aniyat	-10.897
lābhā	-10.8978
āhaṃ	-10.8979
▁pum	-10.8981
▁Ettak	-10.8982
▁sīgha	-10.8982
▁kathenti	-10.8983
▁Saṅgha	-10.8984
giri	-10.8986
▁gāvo	-10.8986
ādīnampi	-10.8988
bhagg	-10.8988
▁appasannānaṃ	-10.8988
vohāra	-10.8989
▁kāmānaṃ	-10.899
▁dārake	-10.899
▁ahetukā	-10.8991
▁upagato	-10.8993
adhammo	-10.8995
nucchavik	-10.8997
▁suddhi	-10.8997
▁sutena	-10.8998
▁amanāp	-10.9
nahetuṃ	-10.9001
▁cetovimuttiṃ	-10.9001
▁kāmaguṇā	-10.9006
▁āhacca	-10.9007
nīla	-10.9008
▁ukkhip	-10.9009
▁Bahū	-10.9009
▁sumana	-10.901
māya	-10.9011
▁brahmavihār	-10.9012
▁anavasesato	-10.9012
▁chattaṃ	-10.9013
▁vivaṭṭūpanissay	-10.9013
▁bhāsitassa	-10.9013
▁yathāvuttā	-10.9016
▁samāpanno	-10.9018
▁pātubhavanti	-10.9018
▁vipulaṃ	-10.9018
▁sacchikiriyā	-10.9018
▁saṅkhāro	-10.9019
▁paṭisaṃvedeti	-10.9019
▁visabhāga	-10.902
▁pariyāy	-10.9022
▁vad	-10.9022
▁has	-10.9023
asaṃkilesiko	-10.9025
citt	-10.9026
amahā	-10.9027
palibodh	-10.903
▁ghaṭa	-10.9032
yante	-10.9032
yobban	-10.9033
▁Bhā	-10.9033
▁vīriy	-10.9033
▁vinayaṃ	-10.9036
attherassa	-10.9037
▁iva	-10.9037
hapetvā	-10.9037
pubb	-10.9039
▁ucca	-10.9039
▁paṭicchanna	-10.9041
▁bahussutā	-10.9043
▁pariyādāya	-10.9043
saṅkhāro	-10.9044
▁rasso	-10.9044
▁sammāvāyāmo	-10.9045
imā	-10.9045
▁avasesaṃ	-10.9046
▁āṇāpesi	-10.9046
▁addhānaṃ	-10.9048
▁virāga	-10.905
▁chadan	-10.9051
▁kucchi	-10.9054
cīr	-10.9057
▁Sū	-10.9057
āta	-10.9058
āyu	-10.9061
▁paccuppann	-10.9061
karoti	-10.9065
vicay	-10.9067
nametaṃ	-10.9067
▁Paccay	-10.9068
pallaṅk	-10.9068
sika	-10.907
▁alla	-10.9073
▁kālamakāsi	-10.9074
▁ganth	-10.9076
▁mahante	-10.9079
hīna	-10.908
▁chāyā	-10.9082
atthena	-10.9085
missa	-10.9087
▁Dutiyampi	-10.9089
vidhe	-10.9089
▁chatta	-10.9093
▁avaṇṇaṃ	-10.9095
byākaraṇ	-10.9096
▁attabhāvo	-10.9096
▁methunaṃ	-10.9097
▁rāgaṃ	-10.9098
▁tadaṅga	-10.9099
▁buddhavacanaṃ	-10.91
asadisā	-10.91
etā	-10.9102
entassa	-10.9104
▁cetāpe	-10.9105
▁pakka	-10.9106
Dhamm	-10.9106
▁abhāva	-10.9106
▁iṭṭha	-10.9109
20.	-10.9112
▁yañña	-10.9113
bhāgaṃ	-10.9114
sevana	-10.9115
makkhit	-10.9116
theyy	-10.9119
asaddo	-10.9119
pubbaṃ	-10.912
▁vāyam	-10.9122
▁nīl	-10.9124
▁abhavissa	-10.9125
▁gaṅgāya	-10.9126
mataṃ	-10.9127
rīti	-10.9128
ghoso	-10.9128
▁janapade	-10.9131
ppakāra	-10.9132
ṃsūti	-10.9135
▁rasaṃ	-10.9136
vāsīnaṃ	-10.9138
▁Kusalo	-10.9139
▁kodh	-10.9139
iccet	-10.914
ācariya	-10.914
dhaṃ	-10.914
▁sammoh	-10.9141
anāya	-10.9141
tasmiṃ	-10.9141
issasi	-10.9142
tala	-10.9142
▁sabbakālaṃ	-10.9142
rahaṃ	-10.9146
ttepi	-10.9146
▁sabbassa	-10.9147
udak	-10.9149
▁nivattitvā	-10.9149
vāpi	-10.915
16.	-10.915
uṭṭh	-10.915
▁bhaveyyā	-10.9151
vāhaṃ	-10.9151
▁jeṭṭha	-10.9153
▁nikkhamant	-10.9153
micchā	-10.9155
phalasamāpattiyā	-10.9157
▁dasavidh	-10.9157
▁76.	-10.9159
▁vaṭṭanti	-10.916
bījaṃ	-10.9162
kiriyaṃ	-10.9162
▁Hatthi	-10.9162
laṅkār	-10.9162
nipāto	-10.9163
kūṭaṃ	-10.9163
mita	-10.9163
ttanti	-10.9165
▁paccayaṃ	-10.9166
▁visiṭṭha	-10.9167
▁Puthujjan	-10.9167
▁paññatto	-10.9167
▁attabhāvaṃ	-10.9168
▁ro	-10.9171
▁baddhā	-10.9173
nākārena	-10.9174
▁Ayameva	-10.9177
bhāvi	-10.9177
▁rājakul	-10.9182
koṭṭhāse	-10.9182
▁vuḍḍhi	-10.9185
▁lā	-10.9185
paṭiññaṃ	-10.9186
15.	-10.9187
▁cittasaṃsaṭṭha	-10.9187
sevan	-10.9189
50.	-10.9191
▁saṅkhyaṃ	-10.9191
▁himavanta	-10.9193
▁antarantarā	-10.9194
▁uggah	-10.9195
vedi	-10.9195
yāpi	-10.9195
▁sādiyati	-10.9196
lapan	-10.9197
abbh	-10.9197
saṅgahe	-10.9197
▁atikkanta	-10.9199
▁raṭṭhaṃ	-10.9202
▁passatī	-10.9203
Katamā	-10.9206
▁sambodhi	-10.921
nāmaṃ	-10.9211
▁vasana	-10.9211
▁saddho	-10.9212
sālaṃ	-10.9212
▁siddho	-10.9213
vacanā	-10.9213
▁Pacchā	-10.9215
vohār	-10.9215
▁paṇṇatti	-10.9215
▁appaṃ	-10.9216
mānus	-10.9221
▁tiro	-10.9222
▁yogo	-10.9224
▁dhātū	-10.9224
ṭṭhāniy	-10.9226
▁nipanna	-10.9228
▁Dhammaṃ	-10.9228
▁paṭhamajjhāna	-10.9229
kkanta	-10.9229
▁have	-10.923
duṭṭh	-10.923
tesaṃ	-10.923
nivāraṇ	-10.9233
ggena	-10.9233
yāna	-10.9233
▁ruci	-10.9236
▁rūpārūpa	-10.9236
▁ekek	-10.9237
kiccā	-10.9237
▁saddah	-10.9237
gaṇan	-10.924
▁avaca	-10.9243
▁phusan	-10.9244
▁mahapphalaṃ	-10.9245
▁ñā	-10.9246
khaṇḍaṃ	-10.9246
▁Attanā	-10.9249
▁iriyāpatha	-10.9249
▁ñāṇāni	-10.9251
▁sappaccay	-10.9253
▁maggārammaṇ	-10.9253
▁indriyesu	-10.9253
harā	-10.9254
▁Yāya	-10.9255
▁sotaviññāṇ	-10.9255
▁palāyi	-10.9255
▁kileso	-10.9256
ppabheda	-10.9256
▁ariyamaggo	-10.9256
▁avo	-10.9256
▁dīgho	-10.9258
▁nāvaṃ	-10.9259
sambandha	-10.9259
mū	-10.9259
vasā	-10.926
▁ākiñcaññāyatana	-10.926
▁niddiṭṭhā	-10.926
▁āsana	-10.926
nurūpaṃ	-10.9261
vibhāga	-10.9262
▁katvāna	-10.9263
▁abhāvo	-10.9264
sūriy	-10.9264
sabbhāv	-10.9265
paṭipakkha	-10.9265
nivatti	-10.9266
sucarit	-10.9267
▁ñāp	-10.9268
ñcetaṃ	-10.9269
▁khādi	-10.927
▁nivesanaṃ	-10.9273
ppasād	-10.9273
▁mātukucchi	-10.9274
▁jāl	-10.9276
▁samuccheda	-10.9279
▁ludd	-10.9279
▁77.	-10.928
▁ārammaṇūpanissa	-10.928
▁pāp	-10.9281
▁saḷāyatana	-10.9282
▁Sāpi	-10.9284
▁nadiṃ	-10.9285
dasahāyatanehi	-10.9285
vacananti	-10.9286
sampayutto	-10.9286
▁panesā	-10.9286
▁ṇa	-10.9289
▁bhindati	-10.9289
▁bahutarā	-10.9289
▁paccavekkhaṇa	-10.9289
▁ṭhitattā	-10.9289
avāro	-10.929
atāti	-10.9291
▁pūjaṃ	-10.9292
piṭṭhe	-10.9292
vatthaṃ	-10.9293
▁gacchantīti	-10.9293
▁tadanantaraṃ	-10.9293
▁kuhiṃ	-10.9294
▁Vo	-10.9294
saṅkhata	-10.9296
▁diṭṭhigata	-10.9298
21.	-10.9299
icchā	-10.93
ādibhedaṃ	-10.9301
▁āgamanaṃ	-10.9301
Rūp	-10.9305
▁diṭṭhānusay	-10.9305
▁kubb	-10.9308
▁Tad	-10.9308
sneh	-10.9309
bhabb	-10.9309
▁Khe	-10.931
▁pāt	-10.9311
▁Tamatth	-10.9313
aññu	-10.9313
▁pāṇaṃ	-10.9315
ikānaṃ	-10.9315
▁codanaṃ	-10.9316
▁uddhaccakukkucc	-10.9316
▁sammodi	-10.9318
▁samānaṃ	-10.9319
sākhā	-10.932
▁Santi	-10.9321
ty	-10.9321
silā	-10.9324
▁nāse	-10.9325
▁uttamo	-10.9325
co	-10.9326
▁sanidassanas	-10.9326
yatanāni	-10.9327
ānupassanā	-10.9327
▁saro	-10.9328
divasaṃ	-10.933
▁adhivacana	-10.9331
▁patiṭṭhahi	-10.9331
▁byañjan	-10.9331
vasso	-10.9331
bhāvadassanatth	-10.9333
pañha	-10.9334
▁catuvīsati	-10.9335
▁pañcasatā	-10.9337
▁mahesi	-10.9338
▁vissajjanaṃ	-10.9338
▁āyasmanto	-10.9339
▁Pāpa	-10.9341
appaṭigh	-10.9341
▁veḷuvane	-10.9343
ppahīn	-10.9343
kathik	-10.9343
yamāne	-10.9344
▁vedanākkhandh	-10.9344
▁kappeti	-10.9344
vesa	-10.9345
▁kammunā	-10.9345
paṭiggah	-10.9345
▁Kula	-10.9346
▁pasīd	-10.9347
M	-10.9347
sannissay	-10.935
lopa	-10.935
▁māsa	-10.9351
▁Mama	-10.9352
▁mahākaruṇā	-10.9352
▁kāmaṃ	-10.9353
ppahār	-10.9354
assetaṃ	-10.9356
saññi	-10.9357
paccattharaṇ	-10.9357
Im	-10.9359
▁jīvaṃ	-10.936
▁kāyaviññāṇassa	-10.9361
paricay	-10.9363
sahassānaṃ	-10.9363
gāra	-10.9364
▁thullaccayassa	-10.9364
▁nissaṭ	-10.9367
tīre	-10.9368
▁attanāva	-10.9368
▁pariññāya	-10.9369
muttā	-10.9371
▁ākāsena	-10.9375
eyyāma	-10.9375
paṭiggāhak	-10.9375
▁Evanti	-10.9376
▁aggivessana	-10.9378
ānantaraṃ	-10.9379
paribhoga	-10.9381
▁rathaṃ	-10.9386
▁vattatīti	-10.9388
▁vay	-10.9389
▁hidaṃ	-10.939
▁yathāruci	-10.9391
▁sañjān	-10.9391
vihāraṃ	-10.9394
▁78.	-10.9395
anīyo	-10.9395
dhūp	-10.9397
▁upajjhāy	-10.94
Tathā	-10.9403
▁tathāgate	-10.9404
▁anariy	-10.9404
ṅgo	-10.9404
pakati	-10.9406
paraṃ	-10.9408
▁antaṃ	-10.9409
▁ekadesa	-10.9409
▁sammappaññāya	-10.9409
aparamatthena	-10.9409
bhisamay	-10.9411
kusalatā	-10.9412
▁vinassati	-10.9413
▁paññattā	-10.9413
▁Yañhi	-10.9413
▁vah	-10.9414
taruṇ	-10.9415
sikhā	-10.9416
▁samathehi	-10.9418
▁saṃyojanāni	-10.9418
▁thira	-10.942
▁vijjatī	-10.9421
▁paripūreti	-10.9422
amāha	-10.9424
kambal	-10.9425
pattīti	-10.9426
pattī	-10.9426
▁Cor	-10.9429
apā	-10.9429
▁suññatā	-10.943
purejātapaccayā	-10.943
▁pāpikā	-10.943
▁Sadd	-10.943
dhāraṇe	-10.9431
ṭṭhī	-10.9431
▁ora	-10.9432
▁dakkh	-10.9435
ghare	-10.9435
▁itthiṃ	-10.9439
▁upakkam	-10.944
kaḍḍhan	-10.9441
rājāno	-10.9442
▁dārakā	-10.9442
nurūpa	-10.9445
sadisattā	-10.9446
▁accharā	-10.9446
▁pasanna	-10.9448
tāpi	-10.945
▁saṅgahito	-10.945
dikā	-10.9452
▁sāsanassa	-10.9453
▁84.	-10.9457
▁āpanna	-10.9457
▁pīt	-10.9458
yanta	-10.9458
▁pal	-10.9458
pacchājātapaccay	-10.946
▁Micchā	-10.9461
▁ghānaṃ	-10.9462
▁aññampi	-10.9464
▁nadassanena	-10.9465
▁diṭṭhiyo	-10.9465
gh	-10.9468
gamane	-10.947
samudācār	-10.9471
00.	-10.9471
▁visuddha	-10.9472
▁asubha	-10.9472
▁diṭṭhigataṃ	-10.9474
▁vadamāno	-10.9474
▁80.	-10.9477
▁manusso	-10.9478
aṭṭ	-10.9478
▁paccakkhā	-10.948
▁sannidhi	-10.9481
▁vuṭṭha	-10.9484
▁byaggh	-10.9486
▁bahudhā	-10.9487
▁ārāma	-10.9487
esī	-10.9489
22.	-10.949
cāti	-10.949
▁83.	-10.9492
▁āsā	-10.9496
▁sīl	-10.9496
▁Saccaṃ	-10.9496
raṇe	-10.9497
▁Kh	-10.9498
atte	-10.9499
▁viroc	-10.9502
▁mahānubhāvo	-10.9504
añāṇaṃ	-10.9504
▁uggahetvā	-10.9507
vaṇṇena	-10.9507
▁santāna	-10.9509
▁cakkhusamphass	-10.951
▁brāhmaṇe	-10.9512
ppadhāna	-10.9512
sīda	-10.9512
diso	-10.9513
▁Chanda	-10.9514
▁piva	-10.9514
▁sāsav	-10.9514
▁āgacchantaṃ	-10.9515
▁pañcakkhandhā	-10.9515
▁bhaṇe	-10.9516
jāya	-10.9516
▁kappasatasahass	-10.9516
lli	-10.9517
pāti	-10.952
▁takk	-10.952
devā	-10.9521
▁Disvā	-10.9522
▁anukampa	-10.9522
▁sikkhitabbaṃ	-10.9523
▁pahoti	-10.9524
anaka	-10.9524
tari	-10.9524
▁86.	-10.9525
cūḷ	-10.9525
kammik	-10.9526
pañcakaṃ	-10.9526
14.	-10.9527
27.	-10.9527
▁sineh	-10.9528
kosal	-10.9534
▁Pacchimabhavik	-10.9534
▁ajātasattu	-10.9534
▁bojjhaṅge	-10.9534
▁nevācayagāmin	-10.9534
vacanīy	-10.9535
▁dhammasenāpati	-10.9535
▁samāpajjati	-10.9536
▁satthaṃ	-10.9536
sāti	-10.9537
akaraṇaṃ	-10.9537
▁Vitakk	-10.9538
▁bhāvito	-10.9539
▁dhammābhisamayo	-10.9542
▁vīriyārambh	-10.9542
hāraṃ	-10.9546
likā	-10.9546
▁sammāsaṅkappo	-10.9548
takk	-10.955
▁tass	-10.955
▁87.	-10.9551
▁noupādā	-10.9552
cittānaṃ	-10.9552
Nā	-10.9552
ruppa	-10.9552
pahān	-10.9553
vipann	-10.9554
▁pāṇā	-10.9555
▁adā	-10.9555
▁jānāsi	-10.9557
▁81.	-10.9557
▁pamāda	-10.9558
yamānaṃ	-10.956
▁visayo	-10.956
santhat	-10.956
kārant	-10.9561
iyanti	-10.9565
▁jāy	-10.9565
▁sakavādissa	-10.9566
▁amb	-10.9567
cāg	-10.9568
36.	-10.9568
gatena	-10.9568
▁pathaviyā	-10.9569
▁ved	-10.9571
▁bya	-10.9572
▁alaṅkār	-10.9573
▁samādhiṃ	-10.9573
kkhandhaka	-10.9575
▁mahābhūtānaṃ	-10.9577
▁maggaphala	-10.9579
kammāni	-10.958
vitakk	-10.958
▁vandi	-10.9581
▁seṭṭhaṃ	-10.9585
▁Hatth	-10.9586
▁acca	-10.9586
▁yojana	-10.9587
▁aññatarena	-10.9588
naindriye	-10.959
▁sīhanādaṃ	-10.959
Nāhaṃ	-10.959
▁ānisaṃsaṃ	-10.9591
▁vūpasamā	-10.9591
▁sura	-10.9591
▁paṭijagg	-10.9592
mig	-10.9593
60.	-10.9596
dāyako	-10.9597
19.	-10.9597
sālāya	-10.9597
▁sāriputtatther	-10.9597
▁gha	-10.9598
▁abhiññeyyā	-10.9598
▁ālapati	-10.9598
▁paṭippassaddhi	-10.9598
▁kāyānupassī	-10.9598
▁imānettha	-10.9599
cariyaṃ	-10.9599
ek	-10.9599
▁karissāmā	-10.9599
▁sallakkhe	-10.9601
amattena	-10.9602
▁ri	-10.9604
parikkhārā	-10.9609
hamasmī	-10.961
kam	-10.9611
▁udān	-10.9612
▁bhikkhusaṅghena	-10.9613
▁yāvadeva	-10.9615
atū	-10.9615
▁tevijj	-10.9615
sassato	-10.9618
antānaṃ	-10.962
sabb	-10.9622
▁santikā	-10.9624
kappiya	-10.9626
24.	-10.9627
tthānaṃ	-10.9627
▁Tameva	-10.9629
▁akkhīni	-10.963
▁pettivisay	-10.963
▁upet	-10.9631
▁pariggahetvā	-10.9635
nantaraṃ	-10.9636
▁pavattamānā	-10.9636
▁socati	-10.9636
panaṃ	-10.9637
▁sādhāraṇā	-10.9637
dhāraṇa	-10.9639
▁ajjhatt	-10.9641
puṇṇam	-10.9641
nisinn	-10.9642
āyo	-10.9644
nivās	-10.9644
▁gaṇhitvā	-10.9644
▁uppala	-10.9645
▁sādiy	-10.9647
yopi	-10.9649
ñhetaṃ	-10.965
pariggah	-10.9651
yehi	-10.9651
▁pariyāyo	-10.9651
ppatti	-10.9652
▁puññakamm	-10.9654
▁vimokkha	-10.9654
▁79.	-10.9655
▁pāṭi	-10.9655
▁ajjhāsaya	-10.9656
▁vītarāg	-10.9657
amattampi	-10.9657
ppaccayā	-10.966
▁Evamevaṃ	-10.966
▁Sacc	-10.9661
▁āpucch	-10.9662
▁vicār	-10.9662
▁nāhosi	-10.9663
bhāso	-10.9671
▁anekavihitaṃ	-10.9673
yatta	-10.9674
▁Idampi	-10.9674
▁dos	-10.9675
▁dvāresu	-10.9676
ssara	-10.9676
▁pubbenivāsaṃ	-10.9677
▁kadā	-10.9678
▁kammaj	-10.9679
▁jantu	-10.9681
▁nāññ	-10.9683
▁kusa	-10.9687
Yadā	-10.9688
▁pāpuṇanti	-10.969
▁Disvāna	-10.9691
▁Kappa	-10.9691
vaṅk	-10.9693
bhogo	-10.9693
▁samannāgatena	-10.9693
▁piṭṭhito	-10.9696
▁lābhaṃ	-10.9699
▁saṇha	-10.9699
▁mohaṃ	-10.97
▁gahaṇe	-10.9701
▁karissatī	-10.9701
▁sammajj	-10.9701
dana	-10.9702
▁naanidassana	-10.9702
saṃsaṭṭha	-10.9704
▁gaṅgā	-10.9704
paṭibaddha	-10.9706
▁suttena	-10.9706
▁upādārūpaṃ	-10.9708
▁desetvā	-10.9708
▁anavasesa	-10.9708
▁patita	-10.971
janan	-10.971
sant	-10.9711
satīti	-10.9711
riy	-10.9712
pañcaka	-10.9712
▁vimānaṃ	-10.9716
itassa	-10.9717
arasā	-10.9717
cakk	-10.9717
passe	-10.9718
unā	-10.972
paṇṇāsa	-10.9721
vīta	-10.9721
▁vu	-10.9722
▁apaci	-10.9725
▁uttānatthameva	-10.9725
lita	-10.9726
▁vipassati	-10.9726
17.	-10.9727
▁paṭipattiyā	-10.9727
yācan	-10.9727
▁uppatitvā	-10.9728
sahita	-10.9728
▁adhippetattā	-10.9728
▁ekekasmiṃ	-10.973
▁itthannāmo	-10.973
gami	-10.973
▁saṅgaha	-10.9731
vippavās	-10.9732
▁adhamma	-10.9732
vāri	-10.9733
▁vihārā	-10.9734
▁cariyā	-10.9734
iriyāpath	-10.9734
▁labbhamāna	-10.9735
ppasaṅg	-10.9736
tthiko	-10.9737
▁ānubhāvena	-10.9739
▁abhikkam	-10.9739
maññāya	-10.9739
▁Rāga	-10.9741
▁paccavekkhaṇā	-10.9742
▁parikkhayā	-10.9743
āvaha	-10.9744
saṅkā	-10.9747
▁sake	-10.9747
▁paṭikkam	-10.9748
▁sunakh	-10.9749
tada	-10.9751
▁sattassa	-10.9756
javana	-10.9757
aso	-10.9758
▁mahāsamudde	-10.9758
▁nāparaṃ	-10.9759
▁vicaranti	-10.9761
hāti	-10.9761
gamma	-10.9762
samath	-10.9764
▁patati	-10.9764
▁pihit	-10.9764
vibhāgena	-10.9766
▁90.	-10.9766
▁amacce	-10.9767
▁88.	-10.9768
raṅga	-10.9768
jānaṃ	-10.9768
vacano	-10.9768
vāyām	-10.9769
▁phussa	-10.9771
▁pañha	-10.9771
pāka	-10.9773
kūṭa	-10.9773
▁ad	-10.9774
ppaccayo	-10.9775
▁visodh	-10.9776
▁anāsavaṃ	-10.9778
apaññā	-10.9779
▁paccakkhato	-10.9782
▁Sahetuk	-10.9783
▁82.	-10.9783
▁maya	-10.9784
▁uppajjamānaṃ	-10.9787
pal	-10.9787
nipphatti	-10.9787
eyyu	-10.9788
Svāgataṃ	-10.9791
▁uttarāsaṅgaṃ	-10.9791
itāti	-10.9794
▁paggahetvā	-10.9795
▁padhānaṃ	-10.9797
▁pallaṅkaṃ	-10.9798
▁Sadda	-10.9798
ṅa	-10.9799
ārāme	-10.98
▁anurūpa	-10.9804
pabbat	-10.9804
ṇṇo	-10.9806
▁adhammo	-10.9807
▁kevalañca	-10.9809
sīsaṃ	-10.981
▁ubhayattha	-10.981
rava	-10.9811
▁kahāpaṇ	-10.9811
▁pāsādaṃ	-10.9814
▁Tesanti	-10.9815
ādayopi	-10.9815
tthikā	-10.9815
▁cetanāya	-10.9816
samaṇo	-10.9816
evāti	-10.9817
▁asekkh	-10.9819
ṭṭhenāti	-10.9819
āha	-10.982
▁adhimutt	-10.982
80.	-10.982
▁dhanena	-10.9821
▁gacchantī	-10.9821
▁vīriyindriyaṃ	-10.9822
puraṃ	-10.9823
▁anuppannā	-10.9823
▁tamo	-10.9825
▁abbhutaṃ	-10.9826
34.	-10.9826
▁tīsupi	-10.9826
▁Sesā	-10.9828
itukām	-10.9829
▁manosamphass	-10.9829
▁migā	-10.983
mūl	-10.983
▁Aggi	-10.9831
C	-10.9831
▁samatikkamma	-10.9832
▁parihāyanti	-10.9834
cari	-10.9834
▁purisānaṃ	-10.9835
▁Tvaṃ	-10.9835
uṇh	-10.9835
▁ekakkhaṇe	-10.9836
▁catutthajjhāna	-10.9838
▁taṇh	-10.984
bhikkhūnaṃ	-10.9842
padaṭṭhānā	-10.9843
▁arahatte	-10.9845
▁dur	-10.9846
malaṃ	-10.9847
▁nanahetu	-10.9848
koṭṭhāsa	-10.9848
kū	-10.9848
▁Bhu	-10.9851
bhat	-10.9852
ānurūpaṃ	-10.9852
▁ceteti	-10.9852
▁Nirodh	-10.9853
lobh	-10.9853
▁ājān	-10.9855
ṃsū	-10.9855
▁purejātassa	-10.9856
gocare	-10.9856
Katamañca	-10.9857
▁ñāṇanti	-10.9858
▁ṭhapetuṃ	-10.9858
▁āpannā	-10.9858
indriye	-10.9858
▁bījaṃ	-10.9861
▁dasasu	-10.9861
parisāya	-10.9862
sadisameva	-10.9863
▁pakkhitta	-10.9864
▁Dad	-10.9866
ntassāti	-10.9867
41.	-10.9868
mayo	-10.9868
▁thūla	-10.9869
vibhaṅgo	-10.9871
▁Ubhaya	-10.9872
teva	-10.9873
▁Vī	-10.9874
▁pariccheda	-10.9875
▁detīti	-10.9876
udd	-10.9881
kitti	-10.9883
▁rukkhassa	-10.9883
▁niruddhā	-10.9887
▁vuccamānā	-10.9887
▁aggahesi	-10.9887
▁kirā	-10.9889
hāsi	-10.9889
▁āvāso	-10.989
dāra	-10.989
▁vipassissa	-10.9892
▁kim	-10.9892
▁jīvati	-10.9897
Yato	-10.9897
▁sambhavanti	-10.9902
acittaṃ	-10.9902
▁imasmiṃyeva	-10.9902
▁addasaṃ	-10.9902
▁bāhu	-10.9902
▁nānattaṃ	-10.9904
▁khāy	-10.9904
ādhiṭṭhān	-10.9906
ssaro	-10.9906
▁uttāna	-10.9909
paṭisaṃyuttā	-10.9911
48.	-10.9911
▁nibbattati	-10.9913
vadan	-10.9914
▁antima	-10.9914
kilesā	-10.9917
arūpā	-10.9917
▁gotta	-10.9918
lakkh	-10.9918
▁pātimokkhuddes	-10.992
nigghos	-10.9922
▁padesa	-10.9924
santāna	-10.9924
▁rajju	-10.9925
▁nimantetvā	-10.9926
▁vuttassa	-10.9932
▁anekapariyāyen	-10.9932
▁Saraṇ	-10.9932
▁passe	-10.9932
mocan	-10.9933
▁pavattattā	-10.9934
▁dhaj	-10.9934
yama	-10.9934
38.	-10.9935
pariyāye	-10.9935
kkhī	-10.9936
maṅgal	-10.9938
▁paccakkha	-10.9939
▁paribhuñji	-10.9941
▁tatiye	-10.9941
▁visama	-10.9942
ndhakār	-10.9944
yamak	-10.9945
▁Bala	-10.9947
▁otiṇṇ	-10.9948
▁sammasan	-10.9949
teti	-10.9951
▁pāsa	-10.9952
▁sahajātādhipati	-10.9953
▁pabbatā	-10.9953
▁Yu	-10.9954
▁ayyo	-10.9956
yattha	-10.9957
pare	-10.9957
Pañcahi	-10.9959
sabhāvato	-10.9962
▁sundara	-10.9962
ekacc	-10.9963
baddhaṃ	-10.9965
▁dhīrā	-10.9965
kālepi	-10.9965
▁vattabbattā	-10.9966
ākāro	-10.9967
▁kātabbanti	-10.9968
▁paṭibhā	-10.9968
▁dvāre	-10.9968
▁uddisitvā	-10.997
▁dhammadhātu	-10.9971
▁Itare	-10.9973
▁muditā	-10.9975
Iti	-10.9976
tova	-10.9976
▁gu	-10.9976
▁dassanīy	-10.9977
▁rathe	-10.9979
▁mahāther	-10.9979
▁suññaṃ	-10.9979
▁ājīva	-10.9981
▁uppādit	-10.9981
loṇ	-10.9981
uppādan	-10.9981
nibbatti	-10.9983
▁Pāṇātipāt	-10.9984
▁Rāg	-10.9985
▁Nasanidassana	-10.9985
samuppannā	-10.9986
bhogā	-10.9986
▁upāhanā	-10.9986
▁ettheva	-10.9987
▁bhikkhuni	-10.9988
vibhāvana	-10.9988
▁vacīduccarit	-10.9989
▁aggha	-10.9989
akāraṇaṃ	-10.999
yogaṃ	-10.9991
riva	-10.9991
▁suṇant	-10.9993
dhano	-10.9995
▁adhikaraṇa	-10.9998
pārisuddhi	-11.0001
neti	-11.0001
▁tādisa	-11.0002
vaggassa	-11.0003
▁pavatteti	-11.0005
osi	-11.0005
▁ghos	-11.0006
pādi	-11.0006
paccakkh	-11.0006
asadisa	-11.0007
ṅkur	-11.0007
▁Sekkh	-11.0007
▁senāpati	-11.0008
itthiyo	-11.0009
▁paṭibāh	-11.0009
▁itthiliṅg	-11.001
▁Phal	-11.0011
gāḷh	-11.0012
▁Saka	-11.0013
ḍ	-11.0014
cattāro	-11.0015
▁aggaṃ	-11.0017
vihārī	-11.0018
23.	-11.0018
▁samannāgatattā	-11.0018
mada	-11.0019
acittassa	-11.0019
▁oruyha	-11.0019
▁paṭilabhitvā	-11.0022
tabbāni	-11.0022
▁pariccaj	-11.0022
virodh	-11.0022
▁hadaye	-11.0023
▁Nakusal	-11.0024
paramparā	-11.0025
▁85.	-11.0025
▁āsaṅk	-11.0027
ntarāyo	-11.003
01	-11.0031
▁mucci	-11.0034
▁ārammaṇesu	-11.0038
lohit	-11.0039
▁atītārammaṇ	-11.0039
▁pariyosāna	-11.0039
khetta	-11.0041
ūpāy	-11.0042
54.	-11.0042
▁bāl	-11.0043
upādinnupādāniyo	-11.0043
▁pakkos	-11.0044
ūnaṃ	-11.0045
▁sāva	-11.0045
▁gilān	-11.0045
▁uttaritar	-11.0047
▁vaggā	-11.0049
vivaṭṭ	-11.005
▁appamāṇaṃ	-11.005
31.	-11.0051
▁lajji	-11.0051
▁Svev	-11.0053
▁tāpaso	-11.0055
pattiṃ	-11.0056
▁vipākapaccay	-11.0056
ud	-11.0057
pakkhi	-11.0058
▁pariyod	-11.0059
▁91.	-11.0061
cāl	-11.0062
saṅkhār	-11.0063
kakkhaḷ	-11.0064
▁icceva	-11.0064
▁kāyakamm	-11.0066
gīt	-11.0067
▁eteneva	-11.0067
–	-11.0068
▁Soḷasa	-11.0069
roc	-11.0071
▁lābhasakkārasi	-11.0071
▁bhavatīti	-11.0074
nnampi	-11.0078
dvārena	-11.0081
pañc	-11.0082
dhāna	-11.0083
▁upacinanto	-11.0085
▁Saññojan	-11.0085
▁ussa	-11.0085
▁sāraṇīyaṃ	-11.0085
veda	-11.0086
▁vinode	-11.0086
73.	-11.0086
75.	-11.0087
▁ratanattaya	-11.0087
▁ekopi	-11.0088
▁parinibbute	-11.0088
vāhan	-11.0089
vinimutta	-11.0089
▁sesāni	-11.009
▁upagatā	-11.0091
pupphaṃ	-11.0091
bhāsan	-11.0092
49.	-11.0092
pūj	-11.0094
chā	-11.0095
ṅguli	-11.0095
rahito	-11.0096
byat	-11.0096
▁akkhara	-11.0097
▁rajata	-11.0099
▁asubh	-11.01
Da	-11.0102
▁Dvādasa	-11.0103
▁sandh	-11.0104
samūha	-11.0104
ūpasam	-11.0104
▁sacepi	-11.0106
▁sāmaññato	-11.0106
▁paribbājakā	-11.0107
▁nis	-11.0108
▁gatoti	-11.011
paduma	-11.0112
▁vohar	-11.0113
sodhan	-11.0116
▁Vigarahi	-11.0118
makaṃsu	-11.0121
▁cakkavāḷa	-11.0121
▁Rā	-11.0122
▁ārādhe	-11.0123
▁arati	-11.0123
sabbaṃ	-11.0124
▁kārāp	-11.0124
▁muṭṭhi	-11.0124
▁89.	-11.0127
nanta	-11.0128
▁tādino	-11.0128
▁vibhāveti	-11.0129
nipāte	-11.0129
aggahaṇena	-11.0133
▁yogāvacar	-11.0134
▁bhikkhūti	-11.0134
kāsaṃ	-11.0135
raṃsi	-11.0135
saṅket	-11.0137
▁lakkhaṇāni	-11.014
47.	-11.0141
ādīnañca	-11.0142
▁mādis	-11.0143
▁cāga	-11.0143
saṃyutta	-11.0143
▁pasāde	-11.0143
▁Idam	-11.0144
▁parittārammaṇ	-11.0144
piṇḍaṃ	-11.0145
sappi	-11.0145
sāro	-11.0145
▁lokoti	-11.0146
madhura	-11.0146
vatte	-11.0147
▁channa	-11.0149
▁Addasā	-11.0152
▁jānato	-11.0152
▁pahīyanti	-11.0152
▁ijjhan	-11.0152
gatanti	-11.0153
▁kāmarāga	-11.0153
▁vīta	-11.0153
▁brahmacariyavās	-11.0154
70.	-11.0154
▁vicarati	-11.0154
▁bhātā	-11.0156
▁dukkhanirodh	-11.0156
▁Upekkhā	-11.0157
▁samāgatā	-11.0158
▁nānappakāra	-11.0159
kalāp	-11.0161
ritā	-11.0161
▁Mettā	-11.0162
▁āroha	-11.0163
dukkhā	-11.0164
talaṃ	-11.0164
▁avassut	-11.0165
▁telaṃ	-11.0166
raññe	-11.0171
▁ṭhitiyā	-11.0172
▁deviyā	-11.0172
cce	-11.0172
ratti	-11.0173
▁kumbha	-11.0176
▁iddhipādā	-11.0176
▁Ācariy	-11.0176
▁vāda	-11.0178
▁dussīl	-11.0178
mbu	-11.0181
▁phoṭṭhabbā	-11.0184
nikkhep	-11.0184
hosi	-11.0185
▁sahetukā	-11.0186
pariyāpannaṃ	-11.0187
▁gambhīro	-11.0188
pharus	-11.0188
▁Dhammo	-11.0189
ppahānena	-11.019
yāvakālik	-11.0191
▁phusati	-11.0191
gotta	-11.0192
▁ñāṇavippayutt	-11.0192
▁karuṇāya	-11.0193
▁92.	-11.0195
aññeva	-11.0198
▁assaṃ	-11.02
▁ānīt	-11.02
▁kucchit	-11.02
kkanti	-11.0202
▁akataṃ	-11.0202
▁vadatīti	-11.0202
▁Bhāvanāya	-11.0203
▁paṭipajji	-11.0204
suci	-11.0204
▁Kāla	-11.0205
vicāraṇ	-11.0207
▁oḷārikaṃ	-11.0207
▁nim	-11.0209
puggalā	-11.0209
▁ubb	-11.021
▁adhippāya	-11.0211
▁vibhaṅge	-11.0213
bhinīhār	-11.0214
▁Pīti	-11.0215
▁khādati	-11.0217
▁evamattho	-11.022
jāni	-11.022
kāmarāgānusayena	-11.022
imāni	-11.0221
▁abhibhav	-11.0222
ndhā	-11.0222
tthīti	-11.0226
▁Ala	-11.0227
▁kareyyā	-11.0227
▁vuṭṭhito	-11.0228
▁vuttanay	-11.0229
ndu	-11.0229
Idh	-11.023
rūpī	-11.023
▁amitt	-11.0232
odaka	-11.0234
thambh	-11.0237
▁phale	-11.0239
56.	-11.0242
▁sīlassa	-11.0242
▁vippa	-11.0243
▁vap	-11.0244
43.	-11.0244
▁ñātakā	-11.0245
bhuj	-11.0246
▁93.	-11.0246
▁ākārena	-11.0246
▁sayana	-11.0247
parāyan	-11.0247
▁seyya	-11.0248
▁pamod	-11.0249
▁94.	-11.0249
somanassasahagat	-11.0249
▁ākaḍḍh	-11.025
tthoti	-11.025
vada	-11.0251
▁bārāṇasi	-11.0251
vādena	-11.0251
▁tāpas	-11.0252
▁Idamavoca	-11.0252
▁uttānamevāti	-11.0253
▁vibhāvetuṃ	-11.0254
▁chandarāgo	-11.0255
▁vacanīyo	-11.0255
▁Ubho	-11.0256
nibbān	-11.0256
26.	-11.0257
ānulom	-11.0257
▁kaṭattārūpānaṃ	-11.0258
▁samanupass	-11.0259
44.	-11.026
▁pāle	-11.026
▁hatthehi	-11.0262
▁tadubhaya	-11.0262
pete	-11.0263
dīpi	-11.0264
▁hetunā	-11.0264
62.	-11.0265
▁tajjā	-11.0265
▁kayirā	-11.0266
74.	-11.0266
▁dhāray	-11.0267
jjhānaṃ	-11.0269
▁āpajjitvā	-11.027
maṅgala	-11.0271
saṅgā	-11.0272
▁Kusal	-11.0272
▁pāti	-11.0273
▁avīci	-11.0277
tthato	-11.0279
panno	-11.0282
▁sahetuka	-11.0283
▁veditabboti	-11.0284
▁paññaṃ	-11.0286
▁Ārammaṇādhipati	-11.0287
▁aññamaññassa	-11.0287
▁bīj	-11.0287
pahāna	-11.0287
brū	-11.0289
▁parikkhipitvā	-11.0289
▁parivajje	-11.0291
taranti	-11.0291
▁rassa	-11.0291
▁vaṇṇit	-11.0293
▁pūjetvā	-11.0295
▁vipariṇām	-11.0295
82.	-11.0295
▁asurā	-11.0297
79.	-11.0299
▁ukkaṃs	-11.0301
mimaṃ	-11.0303
mitta	-11.0304
▁kupp	-11.0305
saṃyojana	-11.0306
▁avisesena	-11.0308
sāsan	-11.0309
vijānan	-11.0311
▁narā	-11.0312
muni	-11.0314
mante	-11.0314
▁vīra	-11.0315
rāmo	-11.0315
icc	-11.0317
vohārena	-11.0317
▁paccekabuddhā	-11.0319
issantīti	-11.0319
▁Vuccate	-11.032
▁moghamañña	-11.0321
▁tīraṃ	-11.0321
▁cintā	-11.0322
atādi	-11.0322
▁punabbhavo	-11.0323
▁paññatta	-11.0325
ttiṃsa	-11.0325
▁visesetvā	-11.0327
▁sappāya	-11.0327
52.	-11.0329
pāṭihāriy	-11.033
mār	-11.0331
05	-11.0332
▁dhūm	-11.0333
▁ukkā	-11.0333
▁Sacca	-11.0334
▁Vaṇṇa	-11.0334
Pu	-11.0336
▁āsavavippayutt	-11.0339
▁bhikkhavo	-11.0339
▁Sahajāta	-11.034
vajje	-11.0341
▁pucchāya	-11.0343
53.	-11.0343
▁ayoniso	-11.0346
amattameva	-11.0348
▁mahaggat	-11.0349
▁upane	-11.0351
sahitaṃ	-11.0353
▁asaṅkhata	-11.0356
▁gottena	-11.0357
▁paṭham	-11.036
▁nāssa	-11.0361
45.	-11.0362
▁kasiṇa	-11.0362
72.	-11.0362
▁dasā	-11.0362
▁itaresaṃ	-11.0362
hīr	-11.0363
51.	-11.0364
▁bhāsita	-11.0364
vūpasama	-11.0366
▁ācikkha	-11.0368
▁mahāmoggallān	-11.0368
vissa	-11.0371
▁akat	-11.0372
▁Dīgha	-11.0372
▁Samuday	-11.0373
▁paṇḍu	-11.0374
▁mārassa	-11.0374
▁rase	-11.0375
bhājane	-11.0376
ayanti	-11.0377
▁adhivāse	-11.0378
▁akkhar	-11.0379
▁nivāse	-11.0381
▁sammāsambodhiṃ	-11.0382
ssī	-11.0383
issāmā	-11.0383
pāra	-11.0385
▁khaṇḍa	-11.0386
gatiyā	-11.0387
▁vadhitvā	-11.0387
▁ayya	-11.0388
▁abhidhamme	-11.0388
saṅkh	-11.0388
kārake	-11.039
▁āvāsā	-11.0391
ananti	-11.0391
ādīti	-11.0392
▁Etesu	-11.0393
▁parāmaṭṭh	-11.0394
▁jīvikaṃ	-11.0394
pakkho	-11.0395
majjhim	-11.0396
▁puññakammena	-11.0397
atthāyāti	-11.0397
▁taṇḍul	-11.0397
Sukh	-11.0399
nimmit	-11.0399
sitaṃ	-11.0402
pādak	-11.0403
▁appamāṇārammaṇ	-11.0404
▁savitakk	-11.0405
▁khaṇaṃ	-11.0406
kāraṇ	-11.0407
▁apadāne	-11.0409
▁lajjī	-11.0409
paṭicchādan	-11.0412
bh	-11.0412
▁dup	-11.0414
nevā	-11.0414
▁ākāsaṃ	-11.0415
bandhanena	-11.0416
kahaṃ	-11.0417
64.	-11.042
▁vāde	-11.042
kāse	-11.0421
▁abyāpajj	-11.0423
▁ariyasaccāni	-11.0423
▁adinnādānā	-11.0423
▁sappītik	-11.0423
pettha	-11.0424
▁bhojanīyaṃ	-11.0426
▁sodhetvā	-11.0426
bujjhantīti	-11.0426
▁aññatarā	-11.0426
vini	-11.0427
rajja	-11.0427
▁mār	-11.0428
anīyaṃ	-11.0429
▁sādheti	-11.043
▁sīs	-11.043
kaṇḍa	-11.043
▁pajahatīti	-11.0431
▁jātī	-11.0431
▁yujjh	-11.0432
▁Pacchājātā	-11.0432
adukkh	-11.0433
▁paṭipajjati	-11.0434
▁viharatīti	-11.0434
▁anāsavā	-11.0434
▁sahetuk	-11.0436
▁ajānitvā	-11.0438
▁lābho	-11.0438
▁Bhū	-11.0441
sambhavā	-11.0442
▁bhavitabba	-11.0442
hānā	-11.0443
▁avitakk	-11.0443
▁Sī	-11.0443
81.	-11.0444
ambho	-11.0444
pariggaho	-11.0446
mpī	-11.0446
▁tajj	-11.0446
▁upekkhāya	-11.0447
▁Yāni	-11.0447
nanu	-11.0452
▁vissās	-11.0452
caraṇ	-11.0453
▁upādānā	-11.0453
▁Ima	-11.0454
▁viharante	-11.0454
paricchedena	-11.0455
▁Vihāra	-11.0455
▁siddhatth	-11.0456
▁tāvade	-11.0456
▁Bahiddhā	-11.0458
uppād	-11.046
▁niddos	-11.0461
▁kāka	-11.0463
▁aniccatā	-11.0463
▁vīsa	-11.0464
▁paṭhamataraṃ	-11.0464
▁nikkhitta	-11.0465
▁vimāna	-11.0465
paṭipattiyā	-11.0467
▁sammati	-11.0469
▁makkaṭ	-11.0469
▁aṭṭhannaṃ	-11.0469
paṭivedha	-11.0471
▁rājakumār	-11.0474
▁saṃvara	-11.0474
▁aniṭṭha	-11.0474
▁porāṇa	-11.0474
▁santuṭṭho	-11.0476
▁co	-11.0477
39.	-11.0478
saṅghāt	-11.0479
kaṇṇa	-11.0482
▁tatiyampi	-11.0482
purekkhār	-11.0483
asutte	-11.0485
▁paṭiggahitaṃ	-11.0485
▁vajja	-11.0485
▁ṭhap	-11.049
kumār	-11.049
▁vāseṭṭha	-11.0491
▁bhāvanāpāripūri	-11.0491
▁paccuṭṭh	-11.0494
▁tila	-11.0495
▁bhagini	-11.0496
▁bhuñjituṃ	-11.0496
▁tadanu	-11.0496
ānugat	-11.0501
vaṭṭe	-11.0502
samucched	-11.0506
▁yathāvuttaṃ	-11.0507
▁mahapphala	-11.0508
▁piṇḍapātik	-11.0509
▁vihārassa	-11.0512
mattikā	-11.0513
66.	-11.0515
▁bodhisatta	-11.0515
▁ganthā	-11.0516
▁āpajjiṃ	-11.0516
▁Yakkh	-11.0517
▁pañcavīsati	-11.0517
▁senāsane	-11.0518
▁ru	-11.052
vīthiyaṃ	-11.0521
▁pasann	-11.0522
nuloma	-11.0522
▁suttanta	-11.0522
▁Sata	-11.0523
itena	-11.0527
▁thome	-11.0528
▁ussukkaṃ	-11.053
▁nipat	-11.0531
▁muccan	-11.0533
ppakaraṇ	-11.0535
kār	-11.0535
tato	-11.0535
▁dhammadesanāya	-11.0536
kathan	-11.0536
bindu	-11.0537
▁muñc	-11.0538
amba	-11.0538
▁sipp	-11.0539
71.	-11.0539
▁māpetvā	-11.0539
▁nāvāya	-11.054
▁sugandh	-11.0542
kāso	-11.0542
ṅgula	-11.0543
addho	-11.0546
▁cattālīsa	-11.0547
▁ārammaṇato	-11.0548
vāya	-11.0548
83.	-11.0549
soti	-11.0549
rambh	-11.055
▁Nibb	-11.0552
▁ekatta	-11.0554
▁chandarāga	-11.0554
bhaye	-11.0555
iṇṇ	-11.0556
▁Mātā	-11.0557
▁ettake	-11.0558
▁kanda	-11.0559
▁phoṭṭhabbe	-11.056
▁vivaṭṭ	-11.0561
pān	-11.0561
alaṃ	-11.0561
okaparidevadukkh	-11.0562
▁garukaṃ	-11.0562
▁vinicchaya	-11.0565
▁Evamettha	-11.0565
paṭilābha	-11.0566
paro	-11.0568
▁khajj	-11.0569
▁paṭividdha	-11.0569
acetanā	-11.0569
kasāv	-11.057
▁khandhesu	-11.057
▁mahantā	-11.0572
▁padumaṃ	-11.0572
▁ekūnavīsati	-11.0572
saṅgo	-11.0573
▁Pavatt	-11.0573
▁abbhantara	-11.0578
▁dantā	-11.0578
▁Tadeva	-11.0578
▁rūpādīsu	-11.0579
▁niddā	-11.0579
▁nibbind	-11.0579
maccha	-11.058
adhamme	-11.0581
▁tiṭṭha	-11.0582
samācāro	-11.0583
eyyo	-11.0584
▁pamajj	-11.0584
▁sattamo	-11.0585
satte	-11.0585
▁paṭippassaddh	-11.0587
▁nimitte	-11.0589
▁payogo	-11.0591
▁nig	-11.0593
▁Paṭisandhi	-11.0594
▁kovido	-11.0595
sār	-11.0596
▁mahāsattassa	-11.0597
▁atthaṅgamo	-11.06
gāmini	-11.0604
▁vāsaṃ	-11.0605
▁Kāl	-11.0606
▁Vihār	-11.0607
30.	-11.061
33.	-11.061
42.	-11.061
37.	-11.0611
mokkh	-11.0611
▁sallekh	-11.0612
▁paccuppannā	-11.0612
▁Vajj	-11.0615
▁Athā	-11.0616
▁mānusaṃ	-11.0617
▁metaṃ	-11.0618
ayamāno	-11.0619
▁pāpakamm	-11.062
pabbate	-11.0621
▁bhavaṅgaṃ	-11.0623
63.	-11.0624
▁gāmā	-11.0626
aniddese	-11.0627
ann	-11.0628
paccavekkhaṇa	-11.063
bhavā	-11.063
▁taṅkhaṇ	-11.0632
▁appekacc	-11.0632
08.	-11.0633
▁santiṭṭhati	-11.0633
issāma	-11.0635
ggahaṇeneva	-11.0636
uno	-11.0637
▁bhāsi	-11.0641
pañhe	-11.0641
▁kappatī	-11.0642
▁jagg	-11.0642
mānasā	-11.0643
cchadan	-11.0643
uppādā	-11.0645
▁kāreti	-11.0645
yugaṃ	-11.0646
▁vaṭṭaṃ	-11.0651
aṃyeva	-11.0651
▁paññāvimuttiṃ	-11.0652
▁Putt	-11.0653
kubb	-11.0653
raṭṭha	-11.0653
▁nissay	-11.0654
gahaṇena	-11.0656
yantaṃ	-11.0656
▁sakadāgāmiphal	-11.0657
▁saṅgahitaṃ	-11.0657
▁sāmiko	-11.0659
▁apariyāpanne	-11.0659
paṭhama	-11.0659
▁rati	-11.066
▁tadaññ	-11.0661
▁same	-11.0662
adukaṃ	-11.0662
ṭṭhit	-11.0663
attheraapadānaṃ	-11.0664
sayā	-11.0665
84.	-11.0665
ṭṭhakathā	-11.0665
puṇṇa	-11.0666
▁bh	-11.0666
paccanīy	-11.0667
▁100.	-11.0667
68.	-11.0668
kosallaṃ	-11.0669
69.	-11.067
brahm	-11.067
▁khitta	-11.0672
uddesa	-11.0672
▁Puñña	-11.0673
ūpacāre	-11.0673
siko	-11.0673
▁karaṇavacanaṃ	-11.0674
▁sirī	-11.0674
▁97.	-11.0674
bbhantare	-11.0675
▁arahattā	-11.0677
▁munī	-11.0678
thām	-11.0679
57.	-11.068
▁pattassa	-11.068
vaḍḍh	-11.0682
dhovan	-11.0683
▁sakkomi	-11.0683
▁cātumahārājik	-11.0683
▁appaccay	-11.0689
vho	-11.0692
59.	-11.0692
ppayog	-11.0693
nicca	-11.0693
▁nandī	-11.0694
▁vighāt	-11.0696
saraṇa	-11.0696
▁pāṭihāriyaṃ	-11.0696
▁daharo	-11.0697
▁upādānakkhandh	-11.07
▁Dant	-11.0701
ñāṇassa	-11.0701
lābho	-11.0702
25.	-11.0702
phull	-11.0704
▁gahaṇ	-11.0705
03.	-11.0705
▁Mātu	-11.0705
kusalamūl	-11.0705
▁pacceka	-11.0707
▁Vaṭṭa	-11.0709
avan	-11.0709
▁sātisay	-11.0712
cārā	-11.0712
▁hont	-11.0713
ppayojan	-11.0714
daṇḍo	-11.0714
hetukā	-11.0714
ntar	-11.0715
sammādiṭṭhi	-11.0718
tumhākaṃ	-11.0718
▁daṭṭhuṃ	-11.0722
▁oḷārika	-11.0724
khattiy	-11.0724
▁pasaṃsa	-11.0725
▁dalidd	-11.0726
gamanīy	-11.0726
ññatar	-11.0727
lāpa	-11.0727
▁Dhamme	-11.0727
▁Attā	-11.0728
raññaṃ	-11.0731
mayi	-11.0731
▁akupp	-11.0731
▁āropit	-11.0731
paricit	-11.0732
▁udak	-11.0732
▁pāsāda	-11.0733
saṃyog	-11.0733
sakuṇ	-11.0733
▁bhaveyyāti	-11.0735
saṅgho	-11.0738
▁Catūsu	-11.0738
▁saṃvattatī	-11.0738
▁khādanti	-11.0738
▁nirujjhissanti	-11.0738
▁niviṭṭh	-11.0739
▁karomī	-11.0739
▁bhabbo	-11.0741
vibhūs	-11.0741
35.	-11.0742
▁sabbaññutaññāṇa	-11.0742
paccā	-11.0743
▁pariyesati	-11.0744
papāt	-11.0749
▁mahājanaṃ	-11.075
▁paṭiggaṇhāti	-11.0751
▁suñño	-11.0752
58.	-11.0754
yameva	-11.0755
▁akusalehi	-11.0758
▁tuṇhībhūt	-11.0759
▁Vacana	-11.0762
78.	-11.0762
sāvakā	-11.0762
▁majja	-11.0763
vuso	-11.0764
bhūtattā	-11.0766
jjo	-11.0766
▁paṭhamena	-11.0767
gehe	-11.0768
vādit	-11.0768
▁appamāda	-11.0771
▁95.	-11.0771
▁28	-11.0772
▁khayaṃ	-11.0772
▁sakadāgāmī	-11.0772
virahito	-11.0772
▁96.	-11.0773
▁pāpicch	-11.0773
▁Yadipi	-11.0773
▁pasannamānaso	-11.0774
▁Tīsu	-11.0774
02.	-11.0776
▁aparādh	-11.0776
▁vijah	-11.0777
▁yāna	-11.0778
▁pīṭha	-11.0779
▁asmiṃ	-11.0781
▁vadeyyā	-11.0781
9-	-11.0782
setacchatt	-11.0782
▁bhavantaṃ	-11.0782
▁patitvā	-11.0783
▁Kiles	-11.0783
▁ārāmo	-11.0784
jhān	-11.0784
dāṭh	-11.0785
▁vuttesu	-11.0786
▁kare	-11.0787
vajjan	-11.0787
satt	-11.0792
▁nibbānañca	-11.0793
kilamath	-11.0793
▁codeti	-11.0793
añcā	-11.0793
ritvā	-11.0793
▁coro	-11.0794
tayo	-11.0794
▁viditā	-11.0796
▁anusaya	-11.0796
▁saṃyojanaṃ	-11.0796
lagg	-11.0797
paribhogo	-11.0797
paccayassa	-11.0798
▁manāpaṃ	-11.0799
▁yāguṃ	-11.0799
▁saṅgah	-11.08
haṭa	-11.0801
▁avitakkaavicāro	-11.0802
mattanti	-11.0803
▁karaṇe	-11.0805
gambhīr	-11.0805
buddhā	-11.0806
▁Etā	-11.0808
▁Ro	-11.0809
▁porāṇā	-11.0809
▁pāṭikaṅkhā	-11.0809
ppamād	-11.0811
▁aggahit	-11.0812
▁attamanā	-11.0812
▁anubhavitvā	-11.0814
▁pādesu	-11.0814
▁sahassāni	-11.0814
▁98.	-11.0814
▁karaṇīyo	-11.0815
▁panete	-11.0816
ntehi	-11.0816
itthāti	-11.0817
87.	-11.0821
samphasso	-11.0822
sāsa	-11.0822
▁bhavaṅg	-11.0823
▁āvajjanāya	-11.0823
▁uddhacca	-11.0827
32.	-11.0828
▁anekehi	-11.0829
▁pabhassar	-11.0829
▁khār	-11.083
▁sukhī	-11.083
▁Rukkha	-11.083
▁upajjhāyassa	-11.0831
▁pajja	-11.0831
ṇḍā	-11.0833
aṭṭhenāti	-11.0833
lamba	-11.0833
bhāvatoti	-11.0834
manasikāra	-11.0835
▁niyatā	-11.0836
mahaggat	-11.0837
▁Nāga	-11.084
▁diṭṭhigatik	-11.0842
▁cāve	-11.0843
▁Byā	-11.0845
▁āḷavak	-11.0845
▁apacayagāmi	-11.0845
▁sandhāyet	-11.0845
▁satindriyaṃ	-11.0845
mariyād	-11.0846
▁laddhuṃ	-11.0846
padum	-11.0846
▁rūpena	-11.0847
▁Hīti	-11.0848
kalah	-11.0849
niyat	-11.085
▁sakaṭ	-11.0852
jjhāsaya	-11.0853
▁rajo	-11.0853
▁ahitāya	-11.0856
▁anuvatt	-11.0856
▁puṭṭhā	-11.0857
▁niyato	-11.0858
asīti	-11.0858
vajjā	-11.0859
dhammadhammo	-11.086
piṇḍi	-11.0862
▁ekova	-11.0865
▁adukkhamasukhā	-11.0866
▁gantho	-11.0866
▁uṭṭhā	-11.0868
passaddhi	-11.087
Aṭṭha	-11.087
▁dhañña	-11.0873
hataṃ	-11.0873
▁Sampa	-11.0874
laddha	-11.0875
▁saṃyog	-11.0876
▁suppa	-11.0876
▁cetovimutti	-11.0877
▁desetabb	-11.0878
santuṭṭh	-11.0878
▁anuppatti	-11.0879
▁gaṇṭhi	-11.0879
▁sacchikar	-11.088
saṃvās	-11.088
paṇīta	-11.088
▁paṭicchannaṃ	-11.0881
▁vadeti	-11.0881
▁Sīha	-11.0881
▁bahūpakār	-11.0883
▁niddiṭṭha	-11.0883
▁kaṅkhati	-11.0884
▁sahatthā	-11.0884
▁nappaṭi	-11.0885
▁subhāvit	-11.0887
▁jīvite	-11.0887
▁vimuttaṃ	-11.0888
▁phuṭṭho	-11.0889
saṅghassa	-11.0889
▁tadanurūp	-11.089
▁bhāvita	-11.0892
▁aniccānupassanā	-11.0892
▁dukkho	-11.0893
▁Dīp	-11.0896
samavāy	-11.0897
athāti	-11.0898
visayattā	-11.0898
entī	-11.0901
▁tatthāpi	-11.0902
vibhāvanā	-11.0904
vedanaṃ	-11.0904
suñña	-11.0904
gambhīra	-11.0907
▁sat	-11.0907
vind	-11.091
uttānatthamevāti	-11.0917
▁Idañhi	-11.0917
samudda	-11.0919
▁ruccati	-11.0919
▁nāyaṃ	-11.0921
ssantīti	-11.0922
▁sikkhāya	-11.0924
nupassan	-11.0924
▁26	-11.0924
▁bhavissasi	-11.0925
▁Ubhay	-11.0926
addha	-11.0926
▁udakassa	-11.0927
pādā	-11.0927
▁udaya	-11.0933
▁adhigamāya	-11.0934
▁anussav	-11.0934
jātake	-11.0934
▁bhūmiṃ	-11.0935
▁nidh	-11.0935
▁vattā	-11.0936
▁manomay	-11.0936
▁bahuvacana	-11.0937
▁cete	-11.0937
kārakaṃ	-11.0938
vilās	-11.0938
▁upekkh	-11.0938
▁pos	-11.0938
▁yath	-11.094
cchidd	-11.094
kaññā	-11.0941
Tasmā	-11.0942
▁nigaṇṭh	-11.0942
lābhe	-11.0942
kicce	-11.0943
▁nhāy	-11.0944
adhammaṃ	-11.0945
daratha	-11.0945
▁pūre	-11.0949
▁Piya	-11.0949
āgam	-11.0953
▁niyām	-11.0953
▁dvāsaṭṭhi	-11.0954
utu	-11.0954
▁dvinnampi	-11.0954
▁dasabal	-11.0956
▁paṭṭhapetvā	-11.0958
▁avikkhepa	-11.0959
▁Nissaya	-11.0959
▁maṅgal	-11.0961
▁māretvā	-11.0962
▁ada	-11.0963
▁sakkāya	-11.0964
▁kāyānupassanā	-11.0964
ppamāṇā	-11.0965
▁pakkh	-11.0965
▁khīṇā	-11.0966
▁jetavanaṃ	-11.0967
▁Kim	-11.0969
61.	-11.097
▁rajje	-11.097
▁yācak	-11.097
▁anāgāmi	-11.097
▁tathāgatā	-11.0971
▁maggakkhaṇe	-11.0971
kkhaya	-11.0972
▁kala	-11.0973
mpa	-11.0973
▁aniyam	-11.0976
▁ariyassa	-11.0979
▁cu	-11.0979
▁yasaṃ	-11.098
▁sīlādi	-11.0983
jānātīti	-11.0986
▁vitthāre	-11.0987
▁pārivāsik	-11.0988
▁pānīya	-11.0989
▁vātapān	-11.099
▁dassita	-11.0991
pahātabb	-11.0991
▁Añño	-11.0992
pāsa	-11.0993
antavā	-11.0994
▁vacanatthaṃ	-11.0997
sādhan	-11.0997
▁jātassa	-11.0997
▁sotadhātuyā	-11.0997
▁veraṃ	-11.1
▁vivitt	-11.1002
▁vind	-11.1003
ānanda	-11.1005
▁vivādo	-11.1007
vimānaṃ	-11.1008
▁pacitvā	-11.1008
▁āsevanapaccayen	-11.1008
chatt	-11.1009
▁paggaṇh	-11.1011
odakaṃ	-11.1011
46.	-11.1013
92.	-11.1013
ambu	-11.1013
▁upasagg	-11.1014
▁mukhato	-11.1014
▁dij	-11.1015
▁vijjamāne	-11.1016
▁dento	-11.1017
ṅgāni	-11.1017
▁chinda	-11.1018
katame	-11.102
29.	-11.102
▁bhag	-11.1021
parikkh	-11.1021
jāl	-11.1023
▁ettakameva	-11.1026
▁chārattaṃ	-11.1026
▁sampajānakārī	-11.1026
▁brahme	-11.1027
▁pāyāsi	-11.1027
▁saṅkhepattho	-11.1028
van	-11.1028
kāmaguṇ	-11.1028
indo	-11.1029
parādh	-11.103
▁bhīto	-11.103
▁anārammaṇ	-11.103
kil	-11.103
likaṃ	-11.1033
bhayena	-11.1033
vāraṃ	-11.1034
upanissayapaccay	-11.1035
▁pabbataṃ	-11.104
▁rogo	-11.1042
sakkhar	-11.1043
rāsī	-11.1043
▁satīti	-11.1045
▁ṭhān	-11.1045
▁samathavipassan	-11.1047
kalla	-11.1047
▁parinibbāyi	-11.1047
▁Saṅgho	-11.1049
▁guṇavant	-11.1049
▁dhutaṅga	-11.105
▁anumodanaṃ	-11.105
rukkhe	-11.1052
91.	-11.1053
▁App	-11.1054
lekh	-11.1055
ttassa	-11.1055
88.	-11.1055
▁yuga	-11.1056
▁bhāyi	-11.1056
▁pāmojjaṃ	-11.1057
padesa	-11.1057
▁asambhavato	-11.1058
iniṃ	-11.1058
▁paccassosuṃ	-11.1063
▁paṭissutvā	-11.1063
sīlabbataparāmās	-11.1063
▁ācariyupajjhāy	-11.1063
▁pajahan	-11.1063
▁maññatha	-11.1065
▁niddiṭṭho	-11.1066
cammaṃ	-11.1066
▁dhov	-11.1066
▁appahāya	-11.1066
▁ādīnava	-11.1067
vicāro	-11.1069
▁vajir	-11.1071
▁abyāpād	-11.1071
90.	-11.1072
rajjaṃ	-11.1073
nāmako	-11.1074
ditvā	-11.1075
▁veneyya	-11.1076
bhind	-11.1076
kālika	-11.1076
▁noāsav	-11.1076
▁vindati	-11.1076
okāso	-11.1077
yāgu	-11.1079
▁rud	-11.108
▁vikār	-11.108
vasiṭṭh	-11.108
nimitte	-11.1082
vatthūsu	-11.1084
▁saṅkhatā	-11.1084
tej	-11.1085
▁aviparīta	-11.1086
▁Sesesu	-11.1087
▁vītivatt	-11.1087
28.	-11.1088
▁sukhumaṃ	-11.109
▁Suddha	-11.1091
▁thom	-11.1092
▁ajjhattikā	-11.1093
▁paṭikkhip	-11.1093
▁ñāto	-11.1094
ābha	-11.1094
▁gīvā	-11.1095
lope	-11.1096
upādānakkhandhā	-11.1097
▁abhaya	-11.1097
▁abhiṇhaṃ	-11.1097
▁vināse	-11.1098
▁pāsāde	-11.1098
▁bhiyyobhāvāya	-11.11
▁paṭisañcikkhati	-11.11
bbā	-11.11
yit	-11.1101
▁tatthāti	-11.1102
▁phassapaccayā	-11.1105
▁pasāretvā	-11.1106
▁dha	-11.1106
padesena	-11.1107
▁appahīna	-11.1107
▁aggaṭṭhāne	-11.1108
ssāda	-11.1108
sākha	-11.1108
pat	-11.1109
nissay	-11.1109
▁kāraṇanti	-11.111
▁avippaṭisār	-11.111
paṭilābho	-11.111
▁aveccappasādena	-11.111
▁dukkaraṃ	-11.111
▁abhiram	-11.1112
▁bhikkhunīhi	-11.1113
▁cuṇṇ	-11.1116
phassa	-11.1117
89.	-11.1119
▁āvāsaṃ	-11.1119
▁Puris	-11.112
67.	-11.1122
tāpa	-11.1122
paṭibhāg	-11.1123
55.	-11.1123
Saṃ	-11.1123
▁kappesi	-11.1124
sūl	-11.1125
▁samenti	-11.1126
gav	-11.1126
▁kusale	-11.1127
▁siṅg	-11.113
▁apane	-11.113
raṇo	-11.1133
Tā	-11.1134
seno	-11.1135
▁103.	-11.1137
▁saṅkam	-11.1137
taka	-11.1137
vipariṇām	-11.114
▁vipassi	-11.1142
labbha	-11.1143
▁anāgataṃsañāṇ	-11.1143
▁parihāni	-11.1144
Abhi	-11.1146
pekkhā	-11.1147
▁aver	-11.1147
pucchan	-11.1147
▁saṃkilesa	-11.1148
▁Bāl	-11.115
▁Ganth	-11.1152
▁matta	-11.1153
cāre	-11.1156
▁dīghā	-11.1157
▁25	-11.1158
▁thaddha	-11.1158
▁etissā	-11.1159
▁upekkhāsahagatā	-11.1159
2-	-11.1161
▁tattak	-11.1161
▁gīt	-11.1161
▁cakkaṃ	-11.1163
▁subhā	-11.1163
vaḍḍhana	-11.1165
▁rūpāvacaraṃ	-11.1165
▁evā	-11.1168
vacī	-11.1168
▁āgaccha	-11.1169
▁ekaccaṃ	-11.1172
▁vesāliyaṃ	-11.1173
▁vītisāretvā	-11.1173
▁sarāg	-11.1174
▁ānisaṃso	-11.1175
▁pavattiyaṃ	-11.1175
06.	-11.1175
▁khīṇāsavā	-11.1176
tiādīhi	-11.1176
dhātuyo	-11.1178
▁upadhi	-11.1179
▁āsavo	-11.118
▁99.	-11.1181
▁viññāpeti	-11.1181
ārāma	-11.1182
▁seyyā	-11.1182
▁kaṅkh	-11.1184
▁khura	-11.1184
cint	-11.1186
lābhena	-11.1188
patthanā	-11.119
▁aṭṭhuppatti	-11.1191
▁Maraṇ	-11.1191
▁Cira	-11.1191
▁kathay	-11.1192
ddhe	-11.1193
97.	-11.1194
pabbajj	-11.1195
ṭu	-11.1196
ṭṭhito	-11.1196
vasaṃ	-11.1199
▁virāgo	-11.12
▁asuk	-11.1202
▁Pād	-11.1202
▁dāne	-11.1205
gañchi	-11.1205
ttaye	-11.1206
▁satasahassa	-11.1208
virahitā	-11.121
maṇḍale	-11.121
▁Sahajātādhipati	-11.1211
▁saṃvijjamānā	-11.1211
vacch	-11.1213
ppamāṇe	-11.1215
▁vedeti	-11.1215
▁Icc	-11.1216
▁kīdis	-11.1217
▁piṇḍ	-11.1217
rañña	-11.1218
saṃkilesa	-11.122
▁saddhindriy	-11.122
▁utti	-11.122
▁sūl	-11.1221
gīv	-11.1221
▁anaññasādhāraṇ	-11.1222
▁pitt	-11.1223
▁vattabbameva	-11.1225
ppattiyā	-11.1226
janit	-11.1226
▁abbhā	-11.1226
▁Tiṇṇaṃ	-11.1227
saṅkappo	-11.1231
āpana	-11.1232
āṇaṃ	-11.1235
massāti	-11.1236
▁acch	-11.1236
▁kāmataṇhā	-11.1237
▁bāhā	-11.1238
▁Pañcama	-11.1238
dinna	-11.1238
sāsanaṃ	-11.1239
99.	-11.1239
▁gacchāma	-11.124
▁kāyaviññāṇaṃ	-11.1241
▁vimuttiñāṇadass	-11.1241
▁anabhāvaṃ	-11.1242
▁thala	-11.1242
▁āp	-11.1242
vivaraṇ	-11.1242
paṭilābh	-11.1246
▁alabhitvā	-11.1248
▁101.	-11.1248
▁vicarant	-11.125
▁kuppati	-11.1251
▁addha	-11.1251
09.	-11.1251
▁ālapan	-11.1252
padese	-11.1252
▁saṅkhār	-11.1253
mitto	-11.1253
▁sīle	-11.1254
citaṃ	-11.1254
▁ādimhi	-11.1254
▁gāvī	-11.1255
▁catutthe	-11.1256
▁ahi	-11.1257
▁ṭhapent	-11.1258
uttama	-11.1259
▁dūratova	-11.126
āvāṭ	-11.126
▁anañña	-11.1261
▁ḍ	-11.1261
matthi	-11.1263
khe	-11.1265
āgantuk	-11.1268
▁paccayānaṃ	-11.1268
▁anāgāmiphal	-11.1269
ātikkant	-11.127
▁salla	-11.127
▁nāsa	-11.127
▁lokiyalokuttara	-11.1272
▁cakkhuviññāṇ	-11.1274
puttaṃ	-11.1275
ghaṭṭan	-11.1277
▁pajānātī	-11.1277
ṇṇā	-11.1277
▁pācittiy	-11.1278
kucchi	-11.1279
madhi	-11.1279
▁moc	-11.128
▁asakkuṇeyy	-11.128
▁pītisukhaṃ	-11.1282
abba	-11.1282
▁Aṭṭhakathā	-11.1282
▁sakaṭa	-11.1282
▁kuru	-11.1286
▁102.	-11.1286
▁chindant	-11.1287
pariyanta	-11.1287
▁kāmo	-11.1287
▁samanupassāmi	-11.1287
▁parāmasati	-11.1288
vacanāni	-11.1288
▁cetasikā	-11.129
ttikā	-11.129
▁sampajjati	-11.1291
▁bandha	-11.1292
▁dehaṃ	-11.1292
▁bhavissāmī	-11.1293
vaṇṇe	-11.1293
▁upapannā	-11.1296
▁sarīr	-11.1297
▁bhayā	-11.1297
gaṇanā	-11.1298
▁catudhā	-11.1301
▁veditabbanti	-11.1301
▁vīthi	-11.1301
sahagata	-11.1301
aññā	-11.1302
▁tathārūpaṃ	-11.1302
pannā	-11.1305
▁vasse	-11.1305
▁Tumhe	-11.1306
▁phassā	-11.1307
▁ahetuko	-11.1309
▁dhammiyā	-11.1311
nirutti	-11.1311
kulassa	-11.1311
▁ārammaṇ	-11.1316
▁maññanti	-11.1316
▁bandhanā	-11.1316
paṭibhān	-11.1319
saṅgahaṃ	-11.1319
▁rāj	-11.132
▁Tatridaṃ	-11.1324
kuṭik	-11.1325
lohita	-11.1325
98.	-11.1326
kappan	-11.1326
▁byañjanaṃ	-11.1327
▁chā	-11.1327
ranti	-11.1328
▁paṭiloma	-11.1328
▁olokent	-11.1328
▁issara	-11.1328
▁samāgamo	-11.1328
▁visesanaṃ	-11.133
āmis	-11.1332
māyā	-11.1332
Dasa	-11.1333
gaṇṭhipade	-11.1333
▁kumāraṃ	-11.1334
▁gaṇhituṃ	-11.1334
Vā	-11.1336
▁vuṭṭhānaṃ	-11.1337
▁māsā	-11.1337
▁Idhāti	-11.1339
▁ajjhattikaṃ	-11.1339
▁paccayesu	-11.1341
65.	-11.1342
uddiṭṭh	-11.1342
rogo	-11.1342
▁sītal	-11.1344
▁lakkh	-11.1344
gacchi	-11.1345
tad	-11.1346
piṇḍapāt	-11.1346
▁rūpī	-11.1347
gāmino	-11.1348
aññe	-11.1349
divasa	-11.135
sannissit	-11.1351
▁tikicch	-11.1351
▁Ratti	-11.1354
▁nigame	-11.1355
Ne	-11.1356
sotaṃ	-11.1357
ṭṭhakathāyaṃ	-11.1357
▁samādhissa	-11.1358
▁sikkhitabba	-11.1358
sīho	-11.1359
▁saṃkhitt	-11.1361
▁ārāmaṃ	-11.1361
▁demā	-11.1362
▁gatī	-11.1362
▁Vutta	-11.1365
▁upaṭṭhapetvā	-11.1365
▁saṅgahita	-11.1367
kkhayo	-11.1368
pacchā	-11.1369
massu	-11.1371
▁uttariṃ	-11.1373
▁dussīlo	-11.1376
kādayo	-11.1376
▁pali	-11.1379
kāye	-11.138
▁ganthasampayutt	-11.1381
ppaṭivedh	-11.1382
nipphādan	-11.1382
saṃsay	-11.1385
▁aniccādi	-11.1385
▁caṅkamant	-11.1386
tabbato	-11.1387
▁adhimatta	-11.1387
majja	-11.1387
▁bārāṇasiṃ	-11.1387
▁sattamā	-11.1389
rajj	-11.1389
▁pavese	-11.1389
vīriyaṃ	-11.139
ttama	-11.1392
▁paṭhamamagg	-11.1393
▁bhusaṃ	-11.1393
▁anekavidh	-11.1394
Sant	-11.1395
▁samudāya	-11.1395
ppad	-11.1395
▁Itthī	-11.1395
▁Nāg	-11.1396
▁pūrita	-11.1396
▁sekkha	-11.1396
▁pokkharaṇī	-11.1397
amu	-11.1397
vattanato	-11.1399
▁nikkhitto	-11.1399
▁moghapurisa	-11.1399
▁Arahā	-11.14
▁sannipatit	-11.1401
▁karontena	-11.1402
itoti	-11.1403
▁nigama	-11.1404
85.	-11.1404
▁yathāsambhavaṃ	-11.1405
▁tamhi	-11.1406
ajjh	-11.1406
▁ghora	-11.1407
tādiso	-11.1408
saṃvar	-11.1411
tāva	-11.1411
viññeyya	-11.1412
▁alobho	-11.1416
▁senāya	-11.1416
sahassehi	-11.1419
pekkhāya	-11.1419
▁upaṭṭhitā	-11.1423
padāna	-11.1423
yujj	-11.1423
saraṇo	-11.1424
▁janassa	-11.1425
nirapekkh	-11.1426
▁etāya	-11.1428
▁padesaṃ	-11.1429
parisaṅkit	-11.1429
mukh	-11.143
siddhito	-11.1431
bhayā	-11.1433
eso	-11.1433
payoge	-11.1433
ayo	-11.1434
▁katoti	-11.1435
▁brahmuno	-11.1435
kopi	-11.1436
▁tiṭṭheyya	-11.1437
▁yogino	-11.1437
▁29	-11.1437
tapa	-11.1437
paccavekkhaṇ	-11.1437
▁sakkacca	-11.1438
▁patiṭṭhāpetvā	-11.1438
▁samādiyitvā	-11.144
04.	-11.1441
▁30	-11.1442
ārambha	-11.1444
aṭṭhi	-11.1445
▁yuddha	-11.1446
carita	-11.1446
▁rūpañca	-11.1447
janaṃ	-11.1447
▁āyatanāni	-11.1448
▁vāyamant	-11.1448
▁anumod	-11.1449
visāṇ	-11.145
▁vaj	-11.1451
▁nagarā	-11.1452
▁bhājana	-11.1452
▁vidū	-11.1455
bandho	-11.1458
hārak	-11.1459
mant	-11.1459
▁muñca	-11.1459
▁asakkont	-11.146
▁tuyha	-11.146
▁samāse	-11.1461
▁purebhattaṃ	-11.1461
▁upasampadaṃ	-11.1461
hatā	-11.1462
▁anavases	-11.1462
▁anabhirati	-11.1463
▁paṭicch	-11.1468
▁anukampaṃ	-11.1469
▁alabhant	-11.1469
Ve	-11.1469
▁bheri	-11.1471
uppannaṃ	-11.1471
▁parihāy	-11.1472
ñā	-11.1473
▁kalāp	-11.1475
kkhaṇeyeva	-11.1475
▁tajjanīyakammaṃ	-11.1475
▁pabbājetabbo	-11.1475
07.	-11.1476
▁sodhe	-11.1476
▁mettacitt	-11.1477
visiṭṭha	-11.1477
lomahaṃs	-11.1479
▁viññāyatīti	-11.1479
mudu	-11.148
▁abhiruhitvā	-11.1481
Si	-11.1481
▁gaṇanā	-11.1481
▁samūhan	-11.1483
▁assāda	-11.1486
ārambho	-11.1488
▁gāmassa	-11.1488
▁dabba	-11.1489
vitt	-11.1491
▁paricar	-11.1491
▁bhummaṃ	-11.1494
▁Purejāt	-11.1494
bandhu	-11.1496
āpento	-11.1498
dhammatā	-11.1499
▁Abhiññā	-11.1505
▁sāma	-11.1505
▁Sammādiṭṭhi	-11.1505
▁vicāre	-11.1506
0-	-11.1508
issantī	-11.1508
sako	-11.1508
▁baddho	-11.1509
paññattīti	-11.1511
▁vepullaṃ	-11.1511
▁paviṭṭhā	-11.1512
▁nibbedhabhāgiy	-11.1513
▁yoginā	-11.1513
▁nirujjhitthāti	-11.1513
▁samuday	-11.1513
▁Kāmadhātuyā	-11.1514
▁kālaṅkato	-11.1514
▁uppajjamāno	-11.1514
bhavaṃ	-11.1514
▁parisuddhe	-11.1517
▁Buddho	-11.1517
▁saṃsar	-11.1517
kath	-11.1518
Manuss	-11.1518
▁indriyasaṃvar	-11.1519
▁pecca	-11.1519
▁akhaṇḍ	-11.1519
▁Eva	-11.152
▁pūjesi	-11.152
▁iṭṭhāniṭṭh	-11.1521
vikati	-11.1522
▁vākya	-11.1522
geha	-11.1522
katha	-11.1522
disāya	-11.1522
maraṇaṃ	-11.1522
▁vacanattho	-11.1523
▁ānisaṃsa	-11.1523
▁Akusala	-11.1524
samudayaṃ	-11.1524
ima	-11.1526
sammatā	-11.1527
ugga	-11.1528
dhātuṃ	-11.1528
▁titthiya	-11.153
▁pūjay	-11.153
▁27	-11.1531
ññāta	-11.1532
▁alaṅkata	-11.1533
▁nibbattaṃ	-11.1534
▁yanti	-11.1535
akusala	-11.1536
▁sukkha	-11.1536
▁saññat	-11.1538
▁aṭṭhakathāsu	-11.1539
ādīnanti	-11.1539
▁upanissayo	-11.1539
▁bhavissantī	-11.1539
▁dibbaṃ	-11.1544
▁vipākassa	-11.1545
cārikaṃ	-11.1548
macch	-11.1549
guhā	-11.1549
▁aññindriyaṃ	-11.1552
▁gahapatayo	-11.1552
upekkhindriyañca	-11.1552
▁pādehi	-11.1552
▁cīvarapiṇḍapāt	-11.1552
▁suddhiṃ	-11.1553
kantāra	-11.1553
▁Tayidaṃ	-11.1553
▁gabbhaṃ	-11.1553
sukhum	-11.1553
▁ñātī	-11.1553
96.	-11.1554
▁Puññ	-11.1554
caṇḍāl	-11.1555
▁manāpo	-11.1556
āhāro	-11.1557
▁atthavaṇṇanā	-11.1557
ādhippāyena	-11.1557
kusalattikaṃ	-11.1558
puggale	-11.1559
▁rūpāyatanañca	-11.1559
▁viparīta	-11.156
▁sobhati	-11.1561
kova	-11.1561
▁vattabbanti	-11.1561
gāminī	-11.1562
▁dah	-11.1562
▁paṭikkhepo	-11.1562
▁rājūnaṃ	-11.1563
paṭikkhep	-11.1563
sadisatā	-11.1563
pūv	-11.1563
▁bhāsa	-11.1565
▁ekatt	-11.1566
▁nivās	-11.1566
▁ābādho	-11.1567
pūjit	-11.1568
ataro	-11.1569
byūh	-11.1569
▁sabrahmacārīnaṃ	-11.157
paṭipāṭi	-11.157
▁pajāya	-11.157
abha	-11.1571
▁vadāmī	-11.1572
pubbaṅgamaṃ	-11.1575
madā	-11.1576
sagg	-11.1576
▁upatthambh	-11.1576
▁dibbāya	-11.1576
vāsā	-11.1581
▁khan	-11.1582
paramparāya	-11.1583
uddho	-11.1585
jjhaṃ	-11.1586
▁kukkucca	-11.1586
▁bodhiyā	-11.1586
▁sīmāya	-11.1587
▁kusalādi	-11.1588
viññā	-11.1588
▁uyyāne	-11.1589
▁vatthunā	-11.1589
▁mātali	-11.159
▁vipassī	-11.159
▁107.	-11.159
▁janaka	-11.1591
▁niccal	-11.1592
Up	-11.1594
▁brāhmaṇakule	-11.1594
▁saṃsandanti	-11.1597
▁bhajati	-11.1597
vuddhi	-11.1598
āpeyya	-11.16
▁Māna	-11.16
samaṇabrāhmaṇ	-11.16
Yadi	-11.1601
ccādinā	-11.1601
▁Hoti	-11.1602
arūpo	-11.1603
▁patiṭṭhitaṃ	-11.1603
sañchann	-11.1604
▁vidham	-11.1605
▁pakāra	-11.1606
▁Garu	-11.1607
sampa	-11.1607
brahmalok	-11.1608
▁ākāso	-11.1608
kūp	-11.161
▁gaṇana	-11.1611
karaṇo	-11.1614
▁bhāvay	-11.1615
sambhave	-11.1616
▁pacchime	-11.162
kāranta	-11.1624
vassāni	-11.1624
94.	-11.1625
▁abhibhavan	-11.1626
saṅghādises	-11.1627
āyika	-11.1627
▁jaṅgha	-11.1629
▁odan	-11.1629
▁latā	-11.163
▁gaṇhantassa	-11.1631
▁ābhujitvā	-11.1633
▁gatiyaṃ	-11.1633
sad	-11.1634
Pā	-11.1635
▁Suddhaṃ	-11.1635
Dve	-11.1635
kāyassa	-11.1636
pipāsā	-11.1638
▁appamāṇa	-11.1638
▁abbha	-11.164
jju	-11.1641
▁nikkhamma	-11.1641
▁gayha	-11.1643
sūpa	-11.1643
▁pāramī	-11.1645
senāsanaṃ	-11.1646
▁tapp	-11.1646
▁pariyesitvā	-11.1647
reti	-11.1648
jjaṃ	-11.1649
▁Khaṇ	-11.1649
paccupaṭṭhānā	-11.1649
yittha	-11.1649
▁ghaṭṭe	-11.1649
▁nāmetaṃ	-11.165
nud	-11.165
mud	-11.165
opam	-11.165
vihāro	-11.1651
▁ariyasacca	-11.1651
unna	-11.1651
▁dav	-11.1651
muddik	-11.1652
▁vaṭṭatiyeva	-11.1652
▁kulaputtā	-11.1653
▁Hattha	-11.1653
▁tiṭṭhant	-11.1653
▁pādena	-11.1656
▁hadayavatthu	-11.1656
▁antarāyo	-11.1657
▁parikkhep	-11.1658
▁dhaññ	-11.1659
▁yadipi	-11.1661
▁sumedha	-11.1661
▁viññāṇe	-11.1662
tabbāti	-11.1662
majjha	-11.1664
▁jhān	-11.1667
piṭaka	-11.1667
▁gijjhakūṭ	-11.1668
▁106.	-11.1668
▁105.	-11.1669
pañhā	-11.1669
▁ubhayaṃ	-11.1669
▁vadeyyuṃ	-11.167
yasa	-11.1671
▁etasmā	-11.1671
sammos	-11.1673
▁anant	-11.1675
▁vijjhitvā	-11.1677
▁pabheda	-11.1677
▁sañcicca	-11.1677
tisso	-11.1678
▁samuddo	-11.168
▁paccatthik	-11.1682
▁mahabbalo	-11.1682
▁anupādāya	-11.1683
▁cetiye	-11.1684
dhū	-11.1685
yatana	-11.169
▁balavatar	-11.1693
▁dhī	-11.1693
▁nikanti	-11.1694
maraṇ	-11.1695
Dhamma	-11.1696
bhāvepi	-11.1697
▁daṇḍaṃ	-11.1698
▁kusīt	-11.1698
passi	-11.1698
▁Upasampann	-11.1699
▁bhavitabbanti	-11.17
yaññ	-11.1701
▁vohāro	-11.1702
▁suññato	-11.1702
▁ukkaṇṭh	-11.1702
▁asaddhamm	-11.1705
Sabb	-11.1706
▁108.	-11.1707
▁saṃkilesabhāgiy	-11.1707
nayaṃ	-11.1709
▁thullaccay	-11.1709
vidhinā	-11.171
tejena	-11.171
▁upādiy	-11.171
▁pamādo	-11.1711
Tatra	-11.1711
▁idam	-11.1711
▁Atthato	-11.1712
▁vaṭṭadukkha	-11.1712
▁dassāmi	-11.1713
piṇḍa	-11.1713
bāhu	-11.1713
▁musāvādā	-11.1713
pariṇat	-11.1713
▁Satthu	-11.1715
▁maggaphal	-11.1716
▁tiracchānayoni	-11.1717
▁gāv	-11.1718
▁Abbh	-11.1718
nandā	-11.1719
▁dīpenti	-11.1719
▁vattabbataṃ	-11.1719
▁methun	-11.1722
dīgha	-11.1723
▁paccattaṃ	-11.1724
▁dhammatā	-11.1724
diguṇa	-11.1725
▁pārup	-11.1725
kambala	-11.1725
missaka	-11.1726
sattam	-11.1729
▁anekā	-11.1729
ciṇṇa	-11.1731
Eva	-11.1731
ppahān	-11.1731
▁dhovan	-11.1731
pāṇa	-11.1731
thūl	-11.1732
▁adhippāyaṃ	-11.1733
▁upasaṅkaman	-11.1734
ketu	-11.1737
paribbājak	-11.1739
▁arahatā	-11.1739
vācāya	-11.1741
▁pāragū	-11.1743
▁edis	-11.1743
▁nidassanaṃ	-11.1743
▁vissajjana	-11.1743
▁uddesaṃ	-11.1745
▁Vitthār	-11.1745
▁ekaṃsena	-11.1745
sañjāt	-11.1748
tiādīsupi	-11.1748
diṭṭhiyā	-11.1749
bhutt	-11.1749
▁satataṃ	-11.175
▁sabbākārena	-11.175
▁thūpa	-11.175
puñj	-11.175
▁Gaccha	-11.1751
vega	-11.1752
ānaṃyeva	-11.1752
▁asakkontā	-11.1752
▁Sattā	-11.1753
gabbha	-11.1753
ehipi	-11.1754
dhikaraṇa	-11.1755
▁pahātabbassa	-11.1755
kammādi	-11.1755
cal	-11.1756
▁khara	-11.1756
▁Dīgh	-11.1756
▁appamāṇā	-11.176
▁labbhā	-11.1761
▁anatta	-11.1761
carito	-11.1761
▁vissajjesi	-11.1762
▁parittā	-11.1762
▁sesesu	-11.1763
Yathāpi	-11.1763
▁setu	-11.1764
▁Samaṇ	-11.1764
vatiṃ	-11.1768
▁gandhe	-11.1772
vuṭṭhi	-11.1773
▁sambandhitabbaṃ	-11.1775
▁jal	-11.1777
seṭṭhino	-11.1777
devaputt	-11.1779
mall	-11.178
▁araṇo	-11.178
hacca	-11.1781
▁aneke	-11.1782
▁uddiṭṭha	-11.1783
kāsā	-11.1783
ddhaj	-11.1783
▁dhammavicaya	-11.1786
▁ovadi	-11.1786
▁104.	-11.1786
▁suvisuddh	-11.1786
asadiso	-11.1787
▁patiṭṭhāpesi	-11.1787
▁ghāte	-11.1788
▁saṅkhārupekkhā	-11.1789
▁chattiṃsa	-11.1789
yojanaṃ	-11.179
santāp	-11.179
▁bhavissa	-11.179
▁bahiddhārammaṇ	-11.1791
bhājanaṃ	-11.1792
kaṇh	-11.1793
sakaṃ	-11.1793
▁apadānaṃ	-11.1794
nidassana	-11.1795
▁sutvāna	-11.1795
▁paṭipannā	-11.1796
jīvik	-11.1797
icceva	-11.1797
▁Anicc	-11.1798
▁mada	-11.1799
▁bhavant	-11.18
▁gayhati	-11.18
▁candimasūriyā	-11.1802
▁titthiyā	-11.1803
▁saññī	-11.1803
▁Guṇa	-11.1803
▁Āsan	-11.1804
kathin	-11.1806
▁dukkhasamuday	-11.1808
itāya	-11.1808
rajan	-11.1809
▁vināpi	-11.1809
laddh	-11.181
▁dhārenti	-11.1811
▁manodvāre	-11.1815
bhāvakaraṇ	-11.1815
93.	-11.1817
▁viha	-11.1821
▁manindriyañca	-11.1825
▁purisindriyañca	-11.1825
▁tabbi	-11.1825
īyo	-11.1825
▁112.	-11.1825
ntarena	-11.1826
▁sattamī	-11.1827
▁kittak	-11.1827
▁kosalo	-11.1828
gatāya	-11.183
▁pabhāsatī	-11.183
aniddeso	-11.183
rahita	-11.183
ppakās	-11.183
▁pañcadhā	-11.1831
▁paṭipajjitabba	-11.1832
95.	-11.1832
malā	-11.1832
saṃvacchar	-11.1833
▁paṭisandhiyaṃ	-11.1834
▁sattāha	-11.1834
▁caraṇa	-11.1834
▁sabrahmacārī	-11.1835
jitaṃ	-11.1835
caṅkam	-11.1837
▁manokammaṃ	-11.1837
▁mitto	-11.1838
dvārik	-11.1839
▁niggaha	-11.1839
pekkh	-11.184
▁paṃsukūl	-11.1843
▁ninna	-11.1843
ppayogo	-11.1844
pariḷāho	-11.1845
▁bhumma	-11.1848
▁bhikkhācār	-11.1848
okāsa	-11.1848
▁Aparā	-11.1849
▁pulliṅg	-11.185
sāraṃ	-11.1851
kosalla	-11.1851
udakaṃ	-11.1851
▁āvāsa	-11.1852
▁ādīnavā	-11.1852
sampanne	-11.1854
▁santaka	-11.1855
kiccha	-11.1856
▁padaṭṭhāna	-11.1857
pamā	-11.1857
seṭṭha	-11.1859
▁het	-11.1862
jotak	-11.1862
▁upaṭṭhahanti	-11.1862
▁āgaccheyya	-11.1865
▁mātugāmassa	-11.1865
▁jānitabbaṃ	-11.1865
▁arūpī	-11.1865
ūpapann	-11.1865
uṇṇa	-11.1865
▁arahantānaṃ	-11.1865
▁dhāreyya	-11.1865
satthe	-11.1865
saṅkhātānaṃ	-11.1866
▁sammatā	-11.1866
▁āmasati	-11.1866
▁mantā	-11.1867
▁nuppajjatīti	-11.1867
Aparehipi	-11.1869
▁chaṭṭhī	-11.1869
▁khippameva	-11.187
kārikā	-11.1871
chidd	-11.1871
diṭṭh	-11.1872
▁Pāṇ	-11.1875
cetanāya	-11.1875
▁karoto	-11.1875
▁dāpesi	-11.1875
▁rūpanti	-11.1877
sambodh	-11.1877
mahiṃs	-11.1877
▁sarati	-11.1878
▁bhāra	-11.1879
▁paṇṇaṃ	-11.1879
▁Samu	-11.1879
▁passatā	-11.1879
▁samādhiyati	-11.188
76.	-11.1881
▁Sabbaññu	-11.1883
▁sūpa	-11.1883
▁viram	-11.1886
siri	-11.1887
▁saraṃ	-11.1887
parikkhāra	-11.1888
▁Pañc	-11.1889
▁vuttena	-11.1889
▁Aṭṭhama	-11.1891
▁agāravo	-11.1894
nīvaraṇ	-11.1896
▁lahuk	-11.1896
▁lu	-11.1896
dhivās	-11.1898
▁acchariyaṃ	-11.1898
▁abhāvit	-11.1901
nīvaraṇaṃ	-11.1902
▁agār	-11.1902
sesaṃ	-11.1902
▁jānātī	-11.1904
▁1-	-11.1904
▁patiṭṭhāti	-11.1905
▁arahattamaggena	-11.1905
▁kālakat	-11.1906
▁dhārayāmī	-11.1909
▁Svāyaṃ	-11.1909
asaṅkhātena	-11.1909
takkavicāramatto	-11.191
▁santhav	-11.191
▁missaka	-11.191
nubhāva	-11.1915
▁suddhaṃ	-11.1916
▁paripakk	-11.1916
▁gop	-11.1917
▁cittuppāda	-11.1917
āroh	-11.1918
patte	-11.1919
▁anekāni	-11.1919
pālak	-11.192
▁jānāmī	-11.192
▁dhammarājā	-11.1921
77.	-11.1921
▁Ekacc	-11.1923
tīnaṃ	-11.1923
ikanti	-11.1925
hetūti	-11.1926
▁tikkha	-11.1926
▁sappurisa	-11.1927
▁H	-11.1928
avatt	-11.1929
bodhisatt	-11.1932
itunti	-11.1933
▁adoso	-11.1934
ritaṃ	-11.1935
▁assamaṃ	-11.1935
▁sadisā	-11.1935
ppabhav	-11.1935
▁pabbajjāya	-11.1938
▁niyoje	-11.1939
▁paṭicchannā	-11.194
vodān	-11.1944
▁jhānāni	-11.1944
▁upakkileso	-11.1945
▁110.	-11.1945
hiṃsā	-11.1945
▁Viññāṇa	-11.1945
▁vusitaṃ	-11.1946
▁ekavidh	-11.1946
ḷaṃ	-11.1946
anakāle	-11.1946
▁saṅga	-11.1946
▁āharāpetvā	-11.1947
▁thale	-11.1948
ālaṅkār	-11.1948
vayav	-11.1949
▁anubho	-11.1949
saṅkhāre	-11.195
▁pahari	-11.1952
▁manoviññāṇaṃ	-11.1956
Deva	-11.1958
bhisek	-11.1959
pariyosāna	-11.1959
▁tesañca	-11.1959
ciṇṇaṃ	-11.1959
▁pakaraṇ	-11.196
▁Micchādiṭṭhi	-11.196
assidaṃ	-11.1961
Ito	-11.1962
▁ekaccassa	-11.1963
▁ṭhitena	-11.1964
rat	-11.1964
samāyog	-11.1965
▁methunadhamm	-11.1966
karaṇatthaṃ	-11.1967
▁majjhimaṃ	-11.1967
nāmarūpa	-11.1968
▁aṭṭhavidh	-11.1969
▁pāpakānaṃ	-11.197
▁attāti	-11.197
▁niss	-11.197
khād	-11.1973
▁paññāsa	-11.1973
▁tathārūpā	-11.1974
▁dhārent	-11.1976
asuttādivaṇṇanā	-11.1977
āyeva	-11.1978
niddiṭṭh	-11.1979
ndo	-11.198
aggahaṇaṃ	-11.198
pīḷit	-11.198
samudaya	-11.1982
gatāni	-11.1985
▁amūḷhavinay	-11.1985
▁yāvatāyukaṃ	-11.1985
▁gandhaṃ	-11.1985
▁Yaṃnūnāha	-11.1985
kolāhal	-11.1985
▁116.	-11.1985
▁paccayuppann	-11.1985
▁antaraṃ	-11.1988
sāṭheyy	-11.1988
▁gamissāmi	-11.1988
▁uppajjissanti	-11.1989
pariyatti	-11.1989
▁adhiṭṭhahitvā	-11.1989
▁sajjhāya	-11.1991
▁licchavi	-11.1992
▁dhammānupassī	-11.1995
▁ḍaṃs	-11.1995
▁Aññatra	-11.1995
Anu	-11.1995
▁jānatā	-11.1996
▁vajji	-11.1997
▁Dukkhaṃ	-11.1998
▁caturaṅg	-11.1998
dūsak	-11.2
bāhull	-11.2
▁adhikār	-11.2001
▁pariharant	-11.2005
▁gatiṃ	-11.2007
▁Nimitt	-11.2008
▁sattavidh	-11.2009
tejo	-11.201
▁kappaṃ	-11.2011
▁Catūhi	-11.2014
vedh	-11.2015
ḷaka	-11.2015
▁kukkuṭa	-11.2016
diṭṭhīti	-11.2016
▁Paññāya	-11.2018
mattānaṃ	-11.2019
kasuttavaṇṇanā	-11.202
paccuppannaṃ	-11.202
desit	-11.2021
▁guṇo	-11.2021
ph	-11.2022
▁Rath	-11.2022
vasenāpi	-11.2023
▁paṭilabhi	-11.2023
▁gabbho	-11.2024
ajjhāsay	-11.2024
▁līnatthappakās	-11.2025
▁evamet	-11.2025
▁yāvadatthaṃ	-11.2025
▁karomā	-11.2026
▁dandha	-11.2026
khandha	-11.2027
parivut	-11.2028
▁pasīdati	-11.2029
ppadese	-11.2029
▁anuññāta	-11.2031
▁upapanno	-11.2032
▁bhikkhusaṅgha	-11.2033
▁pātubhāvo	-11.2035
kammaṭṭhān	-11.2035
▁uḷāraṃ	-11.2036
yāmi	-11.2037
ātikkame	-11.2037
▁Dos	-11.2037
▁gandhakuṭi	-11.2038
▁sampayog	-11.2038
▁viññāya	-11.2042
▁abhinīhāra	-11.2043
▁ekavīsati	-11.2043
▁catubbidha	-11.2044
▁niyyā	-11.2046
▁Antarā	-11.2047
Cakkhu	-11.2047
▁kaniṭṭh	-11.2047
▁kusaladhamm	-11.2048
▁abhisame	-11.2048
▁catubbidho	-11.205
gaṇḍ	-11.205
▁nuttha	-11.2051
▁kamena	-11.2051
▁tuṭṭho	-11.2052
▁lo	-11.2054
▁sikkhāpadesu	-11.2054
▁kilant	-11.2056
▁bhavanto	-11.2057
nābhi	-11.2058
katāya	-11.2058
akoti	-11.2058
▁nālaṃ	-11.2059
▁R	-11.2059
▁yassāti	-11.206
jita	-11.206
nāg	-11.2061
satasahassa	-11.2063
▁ghānindriyañca	-11.2066
▁rato	-11.2066
▁abhiniveso	-11.2066
▁115.	-11.2066
▁majjhimanikāy	-11.2066
▁Pāp	-11.207
dūt	-11.207
▁kāmarāg	-11.2072
maṇḍal	-11.2073
▁mahāpathavī	-11.2076
▁nārī	-11.2081
▁Sampayutt	-11.2081
▁upalabbhatīti	-11.2083
ūpanissay	-11.2086
▁chindati	-11.2086
▁pāka	-11.2088
▁kaṭi	-11.2089
▁phoṭṭhabba	-11.2089
▁devi	-11.2089
▁saṅgaṇh	-11.209
saṇṭhānā	-11.209
▁sukhadukkh	-11.2091
pamāṇa	-11.2092
▁anādar	-11.2092
▁dīpento	-11.2094
lajj	-11.2095
▁satāni	-11.2095
▁garuka	-11.2096
▁mohā	-11.2096
akanti	-11.2097
mudit	-11.2099
tīhi	-11.2103
▁Vana	-11.2104
▁vātā	-11.2105
bhāsāya	-11.2105
▁asse	-11.2106
▁sandasse	-11.2106
▁dandhābhiññaṃ	-11.2107
▁gāmanigam	-11.2107
▁āraññak	-11.2107
▁cuticitt	-11.2107
akicca	-11.2107
labha	-11.2108
bhūmī	-11.2109
dosaṃ	-11.2109
▁samāhito	-11.2109
▁animitta	-11.211
▁parinibbāy	-11.211
karuṇā	-11.2111
▁nibbattanti	-11.2112
yesu	-11.2113
▁āvāsik	-11.2113
▁pasīditvā	-11.2114
▁saṅkhārapaccayā	-11.2114
▁senaṃ	-11.2116
siles	-11.2116
paribhāvit	-11.2116
▁tika	-11.2117
ṭṭhoti	-11.2117
86.	-11.2118
nīta	-11.2118
▁gilānā	-11.2119
▁pahātabbahetukā	-11.212
▁nisīditabbaṃ	-11.2121
vevacan	-11.2124
yāc	-11.2124
pabbataṃ	-11.2127
salil	-11.2129
pagam	-11.2129
paramaṃ	-11.2133
veg	-11.2133
▁manāpa	-11.2134
▁manussehi	-11.2134
▁gopālak	-11.2134
vare	-11.2135
▁bhoj	-11.2137
asaṅkhātā	-11.2138
apada	-11.2139
▁pavāraṇāya	-11.2139
▁paritto	-11.214
▁parivārena	-11.2141
▁asaṃkiliṭṭha	-11.2142
ādīsūti	-11.2144
senāsana	-11.2145
rukkhā	-11.2146
▁yojanaṃ	-11.2147
jotan	-11.2147
▁vimutta	-11.2147
▁dukkhasamudayo	-11.2147
▁moghapurisā	-11.2147
▁113.	-11.2147
▁sijjhati	-11.2147
▁kāyagatāsati	-11.2147
▁buddhapūjāy	-11.2149
▁vematikā	-11.2152
▁piṇḍapāta	-11.2153
santos	-11.2154
▁dhammāyatanañca	-11.2154
tukāmatā	-11.2155
▁sammanti	-11.2155
▁paññapeti	-11.2157
▁paggaṇhāti	-11.2158
▁mahābrahmā	-11.2158
paccavekkhaṇā	-11.216
māgamma	-11.216
vibhāgato	-11.2162
vighāt	-11.2162
▁abhinibbatt	-11.2162
parāmās	-11.2163
▁āmant	-11.2164
▁ārā	-11.2164
▁padabhājane	-11.2165
▁pakāsan	-11.2165
▁vinicchayaṃ	-11.2165
saṅkhar	-11.2166
▁hanati	-11.2167
phalo	-11.2168
macco	-11.2168
▁ubhosu	-11.2169
▁Nibbānaṃ	-11.2169
▁taṇhādiṭṭhi	-11.217
▁kahāpaṇa	-11.2172
vassasahassāni	-11.2174
▁vasal	-11.2177
rito	-11.2177
▁tadārammaṇ	-11.2178
▁appatvā	-11.2178
▁satī	-11.2178
sobhan	-11.218
kuṭ	-11.2182
ādikassa	-11.2182
vandi	-11.2182
▁thinamiddhaṃ	-11.2183
iyamānaṃ	-11.2183
▁vīṇā	-11.2185
▁suṇanto	-11.2186
gāravā	-11.2187
▁118.	-11.2188
▁114.	-11.2188
▁111.	-11.2188
▁phīt	-11.2189
▁saṃvaraṃ	-11.2189
samugghāt	-11.2189
kupp	-11.219
▁otarati	-11.2191
▁otar	-11.2192
āpadānaṃ	-11.2192
▁Vatth	-11.2192
sarīrā	-11.2193
virah	-11.2194
▁akappiyaṃ	-11.2195
siro	-11.2195
▁Bhāvanā	-11.2196
▁āpucchitvā	-11.2197
▁guṇ	-11.2197
▁saddhammaṃ	-11.2199
▁mānusak	-11.2199
Sakk	-11.22
bhāro	-11.22
▁mahākassap	-11.22
▁ajjhattārammaṇ	-11.2201
▁bhagavanto	-11.2203
netvā	-11.2204
satasahass	-11.2208
vīmaṃs	-11.2209
▁kāyika	-11.2209
▁gacchato	-11.2209
▁āyūhana	-11.2211
uppannā	-11.2212
▁uccā	-11.2214
▁Abhidhamma	-11.2214
▁chindi	-11.2214
majjhanhik	-11.2216
▁pāpima	-11.2217
dīpanato	-11.2217
ttādi	-11.2217
dam	-11.2218
vikkhambhan	-11.2218
▁Uddes	-11.2219
▁Vinā	-11.2219
varaṇa	-11.222
kārehi	-11.222
▁pubbāpara	-11.222
▁upasampada	-11.2222
▁vibhatto	-11.2222
▁bhutta	-11.2223
▁upasaṃhar	-11.2224
▁bhaṅgā	-11.2224
amukhena	-11.2224
▁karissanti	-11.2225
manasikāro	-11.2225
▁iriyāpathe	-11.2227
▁bhagavant	-11.2228
essāmī	-11.2228
▁Sabbo	-11.2228
▁āpadāsu	-11.2229
▁hirottapp	-11.2229
▁viññāta	-11.223
pubbabhāg	-11.223
▁uppajjeyyuṃ	-11.223
▁labheyya	-11.2231
taṇḍul	-11.2231
▁sammāājīvo	-11.2232
▁yathāsukhaṃ	-11.2233
▁soyeva	-11.2233
ano	-11.2234
▁apacc	-11.2235
ppo	-11.2236
▁saṃvaṇṇanā	-11.2238
muddhani	-11.2238
▁Bhūmi	-11.2239
▁sarabh	-11.224
▁dvemāsappaṭicch	-11.2241
▁Tatr	-11.2242
▁puthujjanassa	-11.2243
tasmā	-11.2244
▁bodhiṃ	-11.2244
āpattiṃ	-11.2245
cin	-11.2245
▁dukkhapaṭipadaṃ	-11.2246
vigata	-11.225
gantha	-11.2251
▁issariya	-11.2251
jī	-11.2251
▁hatthapās	-11.2252
▁Suddhāvās	-11.2253
▁Uddha	-11.2254
vīs	-11.2255
inti	-11.2255
▁dibbā	-11.2256
matteneva	-11.2256
bhāsaṃ	-11.2256
gaṇe	-11.2256
mattāya	-11.2257
Natthi	-11.2258
sambojjhaṅg	-11.2259
▁uggahita	-11.2259
▁jīra	-11.2259
▁samūho	-11.2259
ādīnipi	-11.226
dhiṭṭhāna	-11.2261
paṭiccasamuppann	-11.2261
▁vuṭṭhit	-11.2261
▁anuruddha	-11.2261
▁appamattā	-11.2261
▁tath	-11.2263
bhavi	-11.2263
▁vibhaṅga	-11.2264
nett	-11.2264
▁nibbānanti	-11.2265
▁chaṭṭho	-11.2265
dham	-11.2267
kkhitta	-11.2268
▁lābhasakkār	-11.227
▁āraddho	-11.227
vaṇijjā	-11.227
▁nakkhamati	-11.2271
▁109.	-11.2271
▁lohit	-11.2272
▁gav	-11.2273
kaṇ	-11.2273
▁Sarīra	-11.2273
▁ārambha	-11.2273
▁kaṇṭh	-11.2273
▁saṅgahetvā	-11.2274
paccekabuddha	-11.2275
▁kalyāṇadhamm	-11.2276
▁adhiṭṭhit	-11.2277
▁lābh	-11.2279
khīl	-11.228
▁divasa	-11.2282
vippayuttacitt	-11.2283
deha	-11.2284
balo	-11.2285
miñj	-11.2287
▁suññā	-11.2288
upasaṅkam	-11.2288
visayaṃ	-11.229
ṭhān	-11.2291
kammaṭṭhāna	-11.2293
▁Gu	-11.2294
ūpasaṃhit	-11.2295
▁piṇḍapāto	-11.2296
▁ariyasāvakassa	-11.2297
▁annapān	-11.2299
▁mala	-11.2299
ānulomaṃ	-11.23
upaṭṭh	-11.2302
āyapi	-11.2302
nirodh	-11.2302
pavāraṇā	-11.2303
āpajjan	-11.2303
▁anussati	-11.2304
▁patiṭṭhāsi	-11.2305
bhīt	-11.2306
▁yojanasat	-11.2306
vimān	-11.2307
▁usu	-11.2309
viddhaṃsan	-11.2312
▁yathābhataṃ	-11.2312
▁117.	-11.2312
▁udāyī	-11.2313
▁gaṇhatha	-11.2316
▁paripāk	-11.2316
▁nikkhamati	-11.2316
āpenti	-11.2316
▁Phus	-11.2317
adivase	-11.2317
▁māne	-11.2317
▁ajānantā	-11.2317
▁paṭicchādetvā	-11.2317
▁Tattheva	-11.2318
▁pavattana	-11.2318
▁Hetuduka	-11.2318
▁sabbasattānaṃ	-11.2318
▁passituṃ	-11.2318
sahitā	-11.2319
▁Vises	-11.2319
▁abhisamayo	-11.2319
▁ārocit	-11.2319
▁vuttamatthaṃ	-11.232
▁Maṇi	-11.2325
▁uppajjana	-11.2326
▁sattadhā	-11.2327
▁paricca	-11.2327
▁ussāha	-11.2329
▁parimaṇḍal	-11.2329
▁gaha	-11.2329
▁paṇītā	-11.2329
▁khāṇu	-11.2329
▁Akkh	-11.233
▁vatthussa	-11.2331
▁tiyojan	-11.2332
rase	-11.2334
▁sādhū	-11.2334
▁vimutt	-11.2336
▁jīvitakkhayaṃ	-11.2336
āvayav	-11.2336
sambojjhaṅgaṃ	-11.2336
▁āvaṭṭanā	-11.2337
sambandh	-11.2338
mudd	-11.2339
▁dāyako	-11.2339
sabhāve	-11.234
▁brahmaloka	-11.2341
thī	-11.2342
▁saṅghabhed	-11.2342
▁viññūnaṃ	-11.2343
les	-11.2343
paṭham	-11.2343
▁koṭṭh	-11.2343
samādānaṃ	-11.2344
ppakāraṃ	-11.2345
▁vippaṭisār	-11.2347
sambandho	-11.2347
cira	-11.2348
sahassā	-11.2351
▁gocaro	-11.2351
▁uttānī	-11.2351
kasiṇa	-11.2352
evarūp	-11.2353
▁amma	-11.2353
lābu	-11.2354
▁okir	-11.2354
▁duddas	-11.2354
▁Etamatthaṃ	-11.2355
jeṭṭh	-11.2355
▁anumodan	-11.2357
▁Āhāra	-11.2358
▁Kamm	-11.2359
▁kāraka	-11.2359
▁mahī	-11.236
▁āsanā	-11.236
▁avadhāraṇ	-11.2361
▁vuttānaṃ	-11.2361
yantī	-11.2362
▁vividhā	-11.2362
itipi	-11.2363
▁ekaccā	-11.2363
▁maraṇena	-11.2364
pariyesan	-11.2365
▁udāharaṇ	-11.2367
vises	-11.2369
▁thuti	-11.2369
jāṇu	-11.237
▁sukkh	-11.2371
▁lokanāth	-11.2371
▁kulesu	-11.2371
▁jalit	-11.2372
dassa	-11.2372
sabhāga	-11.2373
pariyosānakalyāṇ	-11.2373
▁Kām	-11.2376
vinicchayakathā	-11.2376
vinicchayaṃ	-11.2377
parivatt	-11.2378
vajjitā	-11.2379
ddi	-11.2379
▁bhaṇanti	-11.238
▁vede	-11.238
rādi	-11.2381
▁icchita	-11.2382
vatthuka	-11.2383
▁anusāsan	-11.2383
ṇṇav	-11.2384
pathā	-11.2385
▁bahala	-11.2385
bhavane	-11.2385
▁asamāhit	-11.2387
▁appiya	-11.2387
▁Ekato	-11.2389
▁lūkha	-11.2389
▁ārāmik	-11.2389
▁uddhaṭa	-11.2389
▁samānatth	-11.239
▁vinayakamm	-11.239
bhājana	-11.239
▁kimi	-11.2392
tal	-11.2394
▁dhammasabhāyaṃ	-11.2395
▁Aparabhāge	-11.2396
▁labhetha	-11.2397
▁sevitabbo	-11.2397
paripanth	-11.2397
▁sucaritaṃ	-11.2399
mānatta	-11.2399
sūci	-11.24
▁adhikaṃ	-11.2401
▁ekābaddh	-11.2402
▁cāhaṃ	-11.2403
▁Bhāve	-11.2403
▁bhaṅga	-11.2403
puṭṭh	-11.2404
pilotik	-11.2404
arūpaṃ	-11.2406
▁dvipad	-11.2406
manodhātu	-11.2407
▁yathāvutte	-11.2408
▁paribhuñjitvā	-11.2408
abhūto	-11.2409
▁megha	-11.2411
▁Khandh	-11.2412
▁catubbidhā	-11.2413
▁satipaṭṭhāne	-11.2413
metanti	-11.2415
▁pāṭidesanīy	-11.2416
▁asekh	-11.2418
laṅkāra	-11.2419
raj	-11.2419
▁visay	-11.242
tādīhi	-11.242
▁parijānanti	-11.2421
▁padāl	-11.2421
bhūtāni	-11.2422
▁nivāre	-11.2422
pariyāpanne	-11.2424
saṃvut	-11.2425
ṭṭhitā	-11.2426
▁paccanti	-11.2429
▁uppajjanato	-11.2429
nigrodh	-11.243
gacchatīti	-11.2431
bhadde	-11.2432
cceva	-11.2432
▁sakuṇ	-11.2436
▁Arūpa	-11.2436
▁paccanubho	-11.2437
▁sacchikatā	-11.2437
3-	-11.2438
▁ārocet	-11.244
▁parikkhayaṃ	-11.2441
sambandhe	-11.2441
asaṅkhāto	-11.2442
kahāpaṇ	-11.2443
▁āṇatti	-11.2444
▁sambhavatīti	-11.2444
catukke	-11.2444
▁upamaṃ	-11.2446
▁Maggo	-11.2446
▁līn	-11.2448
paṭivedho	-11.2449
▁tuccha	-11.2449
ārām	-11.245
▁pidah	-11.2451
▁Khandha	-11.2452
▁hiṃs	-11.2453
ḷī	-11.2453
▁tvampi	-11.2454
jano	-11.2455
itabbe	-11.2456
▁vam	-11.2457
▁upacārasīm	-11.2461
▁ṭhitānaṃ	-11.2462
▁bhikkhusaṅghe	-11.2465
▁akkam	-11.2467
▁seti	-11.2467
▁adhimokkha	-11.2468
vāta	-11.2468
▁virāgāya	-11.2469
pavattan	-11.247
lābhino	-11.2471
▁Kār	-11.2471
mantaṃ	-11.2471
gāmake	-11.2471
▁lūkh	-11.2473
kammaññatā	-11.2474
padattha	-11.2476
paṭicchanna	-11.2476
▁māgadh	-11.248
▁nānāvidh	-11.2482
▁nhāru	-11.2482
jāna	-11.2483
▁muhuttaṃ	-11.2483
sīle	-11.2485
▁saṅghika	-11.2486
▁Yāvatā	-11.2487
lokā	-11.2487
vācaka	-11.2488
▁Avases	-11.2488
pak	-11.2488
▁aggā	-11.2488
sīma	-11.2489
laka	-11.2489
▁viññāṇapaccayā	-11.249
ññutā	-11.249
padhānasaṅkhār	-11.249
▁temāsaṃ	-11.2494
bhāvī	-11.2494
vatthūnaṃ	-11.2495
▁ajjhattika	-11.2495
▁dhammikā	-11.2495
▁desa	-11.2497
▁daḷh	-11.2497
▁sañcetanik	-11.2498
▁purohita	-11.2499
cetiya	-11.2499
▁sassatadiṭṭhi	-11.25
pāripūri	-11.2501
▁vidito	-11.2501
rāsiṃ	-11.2503
▁ādhār	-11.2503
cir	-11.2506
gabbhe	-11.2506
▁khayo	-11.2507
▁āraddha	-11.2507
▁upapajjatī	-11.2508
▁sukka	-11.251
peyyāl	-11.251
▁ācariyaṃ	-11.2512
Ida	-11.2513
sīl	-11.2513
bhojane	-11.2514
▁khemaṃ	-11.2514
ghos	-11.2515
phale	-11.2515
▁pitarā	-11.2518
▁padīp	-11.2521
▁sayambhu	-11.2522
▁kāmacchando	-11.2523
▁pātubhūt	-11.2524
▁dahara	-11.2524
jina	-11.2524
therīgāthā	-11.2525
▁devatāya	-11.2528
▁viditaṃ	-11.2529
▁hesa	-11.253
▁saṇṭhāti	-11.2531
▁sutavā	-11.2531
satasahassāni	-11.2532
vuṭṭhān	-11.2532
māro	-11.2534
ṭṭhassa	-11.2535
▁rūpārammaṇ	-11.2535
▁mahaggatārammaṇ	-11.2536
karaṇanti	-11.254
kacci	-11.2541
▁mātul	-11.2543
▁desita	-11.2544
niṃ	-11.2544
vaddh	-11.2545
▁rūpārammaṇaṃ	-11.2548
vali	-11.2548
paccupaṭṭhānaṃ	-11.2549
yy	-11.2549
hīnaṃ	-11.255
ayanto	-11.2551
ṭhāna	-11.2551
▁Cara	-11.2553
ātak	-11.2553
puttassa	-11.2553
vīhi	-11.2554
jarāmaraṇ	-11.2555
māsi	-11.2557
naññeva	-11.2559
▁hīno	-11.2559
▁arogo	-11.256
tānīti	-11.2561
ṭṭhakā	-11.2561
dakaṃ	-11.2564
▁vuccamāne	-11.2565
▁anuruddho	-11.2565
▁nāyako	-11.2565
āyasmato	-11.2569
▁kujjhitvā	-11.2569
▁vāyāmo	-11.2569
▁pajānanā	-11.257
▁jetavana	-11.2572
▁nibbānadhātuyā	-11.2572
paritta	-11.2576
▁karaṇīyena	-11.2576
tel	-11.2576
▁vipākadhamma	-11.2576
ccaṃ	-11.2577
nettha	-11.2577
▁visākhā	-11.2577
nirodhasamāpatti	-11.2578
guṇehi	-11.258
suddha	-11.258
cetiy	-11.2581
▁arūpaṃ	-11.2584
▁arūpāvacara	-11.2585
paṇḍak	-11.2586
▁sāsavā	-11.2588
▁sīlā	-11.259
▁pasaṃsā	-11.2591
▁uyyāna	-11.2591
phalāni	-11.2592
▁cittasampayutt	-11.2593
dānādīni	-11.2594
▁jhānapaccay	-11.2594
▁santhat	-11.2595
sāvako	-11.2595
▁Pañcam	-11.2596
▁abhidhamm	-11.2596
▁anusandhi	-11.2596
▁imāhi	-11.2597
▁harati	-11.2597
asamannāgataṃ	-11.2597
▁sāmis	-11.2597
▁bhattā	-11.2598
pacchima	-11.2598
ādīnava	-11.2599
vitakkavicārānaṃ	-11.26
▁ched	-11.2601
visada	-11.2601
▁sambhavato	-11.2603
▁kappā	-11.2605
▁sāta	-11.2606
▁valli	-11.2607
▁sakkar	-11.2608
▁āgacchatī	-11.2609
▁āgame	-11.261
▁Catunnaṃ	-11.261
▁Sattaratana	-11.2611
▁patiṭṭhah	-11.2612
divasā	-11.2612
nadī	-11.2614
ñāṇe	-11.2615
paribhogena	-11.2616
▁vītikkama	-11.2616
▁mocetvā	-11.2616
cel	-11.2617
▁aṭṭhakathācariy	-11.2618
ratiyā	-11.2618
▁sotāpattiphalaṃ	-11.2618
vaḷañj	-11.2619
garuk	-11.262
▁subh	-11.262
ṇha	-11.2621
▁gilānassa	-11.2621
▁vade	-11.2623
▁Chand	-11.2624
▁rucc	-11.2624
▁vedan	-11.2624
▁maddi	-11.2625
▁adiṭṭh	-11.2626
▁samādah	-11.2626
vasī	-11.2627
Diṭṭh	-11.2628
Kamm	-11.2629
poṇ	-11.263
▁ābhā	-11.2631
▁uggata	-11.2632
bhikkhave	-11.2633
laṭṭhi	-11.2633
vel	-11.2635
▁saṃvega	-11.2635
dugga	-11.2637
▁imañca	-11.2637
▁atthesu	-11.2638
ūpaga	-11.2638
▁Pañh	-11.2639
▁ura	-11.264
ppaccaya	-11.264
ḷu	-11.2641
suta	-11.2642
▁pāṭha	-11.2642
▁tappaccayā	-11.2643
▁Yepi	-11.2648
▁Yanti	-11.2648
paridīpan	-11.2649
▁dhammato	-11.265
gocarā	-11.265
moc	-11.265
▁lokanāyakaṃ	-11.2651
▁nassati	-11.2651
dhik	-11.2651
▁akusalamūlaṃ	-11.2653
th	-11.2653
pūjā	-11.2655
▁phassaṃ	-11.2656
camma	-11.2658
▁chek	-11.2658
▁kapaṇ	-11.2658
▁kathanti	-11.2659
parivās	-11.266
▁nānākaraṇaṃ	-11.266
paricchede	-11.266
▁sūriye	-11.2661
▁tādī	-11.2661
▁ghaṭe	-11.2661
mand	-11.2661
▁Acc	-11.2662
▁dutiyadivase	-11.2662
samatthatāya	-11.2663
kiñcanaṃ	-11.2664
▁marati	-11.2665
▁ceta	-11.2666
ppabhedā	-11.2666
▁candana	-11.2666
▁papat	-11.2666
saddehi	-11.2668
saye	-11.2668
▁olamb	-11.2669
▁kārako	-11.267
vatiyā	-11.267
▁nibbān	-11.267
▁mān	-11.2672
▁avijjāpaccayā	-11.2673
▁uppannānaṃ	-11.2676
▁Anupasampann	-11.2677
▁pañcaṅgik	-11.2677
▁Devā	-11.2678
āraha	-11.2678
pokkharaṇi	-11.2678
pacit	-11.2678
▁ekekassa	-11.2679
jātī	-11.268
▁brāhmaṇena	-11.268
▁pāṇe	-11.2681
▁paṭipanna	-11.2682
vācaṃ	-11.2684
cchedan	-11.2684
▁paṭippassambhe	-11.2685
ttheravatthu	-11.2685
▁Ekasmiṃ	-11.2685
▁rājagaha	-11.2686
las	-11.2686
saṃyutte	-11.2686
pariggaha	-11.2686
saṃvaṇṇanāya	-11.2688
▁anupaññatti	-11.2688
▁sohaṃ	-11.2689
sambādha	-11.2689
ussa	-11.2691
disa	-11.2692
▁gantabbo	-11.2693
ītindriyaṃ	-11.2694
▁122.	-11.2694
▁sukhadukkhaṃ	-11.2694
kiccassa	-11.2696
vipassanāya	-11.2696
▁jāyate	-11.2696
▁sāmaṇera	-11.2696
▁vītināmetvā	-11.2696
▁chedana	-11.2696
▁dissamān	-11.2696
▁vitakkassa	-11.2697
▁Vaṇṇ	-11.2697
▁Nimitta	-11.2698
▁phalena	-11.2699
paṭiggahaṇā	-11.2703
dhammadhammaṃ	-11.2703
tthāyāti	-11.2706
ssevāti	-11.2706
▁mūl	-11.2707
maccharī	-11.2708
parisaṃ	-11.2708
▁upekkhako	-11.2708
▁kapi	-11.2711
khila	-11.2711
▁aṅgajātaṃ	-11.2712
▁paribhuñjant	-11.2712
pāsāda	-11.2713
▁Tāsaṃ	-11.2714
kkhaṇa	-11.2714
bhoti	-11.2714
tāla	-11.2715
▁pādo	-11.2715
▁yogāvacaro	-11.2716
▁kāyavācā	-11.2716
▁dīpitā	-11.2717
▁paresu	-11.2718
▁gāy	-11.2719
▁tassāpi	-11.272
paccupaṭṭhāno	-11.2721
ādibhāvena	-11.2723
▁ekūna	-11.2723
▁yakkhā	-11.2725
▁Gambhīr	-11.2726
viññāṇassa	-11.2727
▁viññu	-11.2728
▁parāmas	-11.2729
▁Vada	-11.2729
▁atthaṅgamā	-11.273
soko	-11.273
rasena	-11.273
▁Pañcavokāre	-11.2731
▁pavattamānaṃ	-11.2732
nissand	-11.2735
▁nīca	-11.2736
▁Ariyā	-11.2736
▁pahūta	-11.2736
▁mānānusayaṃ	-11.2737
▁visujjhati	-11.2737
▁119.	-11.2737
▁Karuṇā	-11.2737
▁mahesī	-11.2738
▁dvikkhattuṃ	-11.2739
asacchikiriyāya	-11.274
▁pav	-11.274
▁khal	-11.2742
▁jānituṃ	-11.2744
▁pātetvā	-11.2744
eyyāsī	-11.2746
phusit	-11.2746
▁uggaṇhitvā	-11.2746
samodhāna	-11.2748
pākā	-11.275
mako	-11.275
▁gaṇhissāmī	-11.2751
bhūtanti	-11.2751
kuṭa	-11.2751
▁pakāseti	-11.2752
▁agginā	-11.2752
▁kammavācāya	-11.2753
▁Bhatta	-11.2754
▁Akusal	-11.2754
▁Etanti	-11.2757
▁nimmita	-11.2757
asaṃkilesik	-11.2758
▁vikir	-11.276
dd	-11.2762
gandhaṃ	-11.2762
▁māso	-11.2762
domanass	-11.2763
▁vijjatīti	-11.2763
sārā	-11.2764
▁āraññik	-11.2764
mara	-11.2765
▁buddhasāsane	-11.2766
▁daṭṭhabba	-11.2766
adāna	-11.2766
ādhika	-11.2767
yojit	-11.2768
▁āyatanaṃ	-11.2769
Cattārome	-11.2769
▁nekkhamm	-11.2771
payogo	-11.2771
samudāgat	-11.2771
▁thinamiddha	-11.2772
suttanta	-11.2773
▁aṭṭhamo	-11.2774
▁samuṭṭhān	-11.2775
▁cetiyassa	-11.2776
etukāmo	-11.2776
kkhobh	-11.2776
gabbhaṃ	-11.2777
▁saparivār	-11.2777
vasenapi	-11.2778
▁patirūpaṃ	-11.2779
▁pavisanti	-11.2779
pāḷiyā	-11.2779
▁sayambhū	-11.278
▁paṭiññātakaraṇ	-11.278
▁mahatiyā	-11.2781
▁rakkhant	-11.2782
▁navahi	-11.2783
▁alajji	-11.2784
▁pharati	-11.2784
▁satasahassaṃ	-11.2785
upaṭṭhāk	-11.2786
▁virajaṃ	-11.2786
▁Pāḷi	-11.2787
cchinditvā	-11.2787
▁taca	-11.279
▁Sāmañña	-11.2792
▁Sīt	-11.2792
▁atīto	-11.2793
niṭṭha	-11.2794
▁tatr	-11.2795
▁gaṇhāpe	-11.2796
ācāra	-11.2796
▁jīvant	-11.2796
dīpo	-11.2797
entā	-11.2798
▁Cakka	-11.2798
kaṇḍaṃ	-11.2798
▁kali	-11.2799
▁vasituṃ	-11.2799
▁anuyuñj	-11.2799
▁paccuppanne	-11.28
▁ārammaṇakaraṇ	-11.28
8-	-11.2803
jarā	-11.2803
▁31	-11.2804
vivek	-11.2805
▁navā	-11.2805
cod	-11.2806
adhammānaṃ	-11.2808
▁uṇhaṃ	-11.2808
dhātū	-11.2809
▁mutti	-11.2809
▁pavattitaṃ	-11.2809
▁sampajānamusā	-11.281
▁suññataṃ	-11.281
vāha	-11.2811
▁jaṭā	-11.2811
ānubandh	-11.2811
satānaṃ	-11.2812
asaṅkhāta	-11.2812
attheragāthā	-11.2813
māruyha	-11.2814
apatta	-11.2814
▁bhavataṇhā	-11.2816
▁ussanna	-11.2816
▁puratthima	-11.2817
kriya	-11.2817
pākaṭ	-11.2817
▁kahaṃ	-11.282
yuddhaṃ	-11.2821
▁Sammodanīya	-11.2824
▁yāvatatiyaṃ	-11.2824
paripuṇṇa	-11.2824
▁paṇidhi	-11.2825
▁paṭipattiṃ	-11.2825
▁pariyanta	-11.2825
saṅgīti	-11.2825
ntiādīni	-11.2825
▁pasannacitto	-11.2825
▁anūn	-11.2825
▁soḷasahi	-11.2826
▁kīḷā	-11.2826
▁bali	-11.2827
sāmantā	-11.2828
▁poso	-11.2828
▁nissaggiya	-11.2828
vihiṃs	-11.2828
▁santapp	-11.2828
ndha	-11.2828
saṃsaggo	-11.2829
▁pāto	-11.2829
▁Pathavī	-11.2829
-‘	-11.283
▁ārammaṇā	-11.2832
▁kalahaṃ	-11.2833
sarīraṃ	-11.2833
▁chādeti	-11.2834
▁Paṇḍit	-11.2834
▁ārakkhaṃ	-11.2834
ṭṭhapana	-11.2835
sattu	-11.2837
▁vodānaṃ	-11.2839
▁gantabba	-11.2839
nibbattak	-11.284
ppabandh	-11.2841
▁niddese	-11.2841
▁niccā	-11.2842
iṅga	-11.2842
yitattaṃ	-11.2842
▁ekakova	-11.2843
▁dukkaṭameva	-11.2844
nātha	-11.2844
sambhāra	-11.2847
▁santāp	-11.2847
sakkhi	-11.2853
kat	-11.2854
▁pañcamī	-11.2854
madāsi	-11.2855
▁bujjhan	-11.2855
▁gahitāni	-11.2855
tac	-11.2856
▁pariggaṇh	-11.2858
cche	-11.2858
▁gihīnaṃ	-11.2859
▁nidass	-11.2859
bhūtapubb	-11.2859
▁gacchā	-11.2862
▁rajana	-11.2862
▁Itarā	-11.2862
vinaye	-11.2866
▁pavattita	-11.2867
▁ubhinnampi	-11.2868
▁kaccāna	-11.2871
▁passant	-11.2875
pātimokkhasaṃvar	-11.2877
▁Kul	-11.2877
▁paṭighānusayaṃ	-11.2877
▁Katvā	-11.2878
▁pūjito	-11.288
▁petaṃ	-11.288
▁vividha	-11.2881
upasampann	-11.2883
gahan	-11.2883
devī	-11.2884
▁jānāpe	-11.2884
▁thir	-11.2884
▁Bhikkhunī	-11.2885
tatiy	-11.2887
▁duppaññ	-11.2887
▁pakārehi	-11.2887
cetan	-11.2892
pattacīvar	-11.2892
kāyikā	-11.2895
▁Brāhmaṇa	-11.2895
▁sahāyak	-11.2896
▁āneñja	-11.2897
ādesā	-11.2898
▁nimugg	-11.2899
lokuttara	-11.2899
hatthena	-11.2901
pitu	-11.2902
▁sampajj	-11.2904
ttabhāva	-11.2905
paññāpan	-11.2905
▁kismiñci	-11.2911
kādīnaṃ	-11.2911
rakkhita	-11.2911
▁tādisassa	-11.2913
▁sammappadhāna	-11.2913
▁Puggala	-11.2913
akiriya	-11.2914
▁andhakāre	-11.2914
doṇi	-11.2915
kate	-11.2916
▁Yopi	-11.2917
padesu	-11.2918
ttara	-11.2919
▁hema	-11.292
indriyāni	-11.2921
▁sīlasampanno	-11.2921
▁aññathattaṃ	-11.2921
pado	-11.2922
▁adassane	-11.2923
▁bhuñjanti	-11.2923
▁paccatta	-11.2923
paṭisaṃyutto	-11.2923
▁opapātikā	-11.2923
uposatho	-11.2924
▁diyaḍḍha	-11.2924
cārino	-11.2924
bhayo	-11.2926
▁pubbakammaṃ	-11.2929
▁asaṅkhataṃ	-11.2929
samphassapaccayā	-11.293
▁pet	-11.293
dassano	-11.2931
▁59	-11.2932
▁soṇḍ	-11.2935
▁tiracchān	-11.2936
piṇḍ	-11.2936
ṭṭhāneyeva	-11.2937
▁vejj	-11.294
bhiññ	-11.294
ukkaṭṭh	-11.2941
▁Yassā	-11.2941
▁bhāgo	-11.2941
▁yānaṃ	-11.2942
▁Evamet	-11.2943
▁jāna	-11.2943
viveko	-11.2945
danaṃ	-11.2945
▁buddhena	-11.2946
ccho	-11.2947
▁tulā	-11.2947
▁vibhava	-11.2947
paṃsu	-11.2949
▁ṭhā	-11.2949
▁anupasampanna	-11.295
▁nāmagott	-11.295
▁vinipāt	-11.295
uyh	-11.2951
▁hitaṃ	-11.2952
daya	-11.2952
tela	-11.2953
▁kassapassa	-11.2953
ādibhāvo	-11.2955
▁123.	-11.2956
▁121.	-11.2956
sakka	-11.2956
▁mahāsattaṃ	-11.2956
▁padacchedo	-11.2957
bhāra	-11.2958
▁āpāthaṃ	-11.2958
▁sammākammanto	-11.2958
āvabodh	-11.2959
▁upanīt	-11.2961
▁Dāna	-11.2962
virahitaṃ	-11.2963
vibhāv	-11.2964
bhāvadassana	-11.2965
▁rajj	-11.2965
▁lāmaka	-11.2965
gabbhā	-11.2966
▁khamāpe	-11.2967
▁sassato	-11.2967
▁pāva	-11.2969
▁mayampi	-11.2972
ūpama	-11.2973
▁vatthabbaṃ	-11.2974
▁adhivatthā	-11.2974
▁ekavīsa	-11.2975
macca	-11.2976
▁urag	-11.2976
Kena	-11.2977
▁khagga	-11.2977
▁paṭivijjh	-11.2977
▁paṭivijjhan	-11.2978
▁Bhaya	-11.2978
▁sāriputtassa	-11.2979
▁bhāvetīti	-11.2979
yasmiṃ	-11.2979
▁cīvarena	-11.298
▁vidhi	-11.298
▁suṇanti	-11.2981
▁Gandha	-11.2982
ādo	-11.2983
▁nimante	-11.2984
parikamm	-11.2986
kacavar	-11.2986
▁titth	-11.2987
▁Kevalaṃ	-11.2988
satipaṭṭhān	-11.2988
▁Atīta	-11.2988
anicca	-11.2988
upajjhāy	-11.2988
bhañjan	-11.2991
chind	-11.2993
▁Suddh	-11.2995
▁ābhat	-11.2995
▁Dukkhāya	-11.2995
imha	-11.2995
▁ukkhitt	-11.2997
▁parammukhā	-11.2999
▁paripūrakārī	-11.3
▁puthū	-11.3001
▁senāsanāni	-11.3001
ḷārik	-11.3001
atti	-11.3001
▁āgatoti	-11.3002
▁Vīsati	-11.3002
▁macchariyaṃ	-11.3002
▁pajānāmi	-11.3002
▁lokavidū	-11.3003
▁anadhi	-11.3003
pāṇ	-11.3004
▁karaṇīya	-11.3004
cittakkhaṇ	-11.3005
▁Nand	-11.3005
▁nātho	-11.3006
▁pakaraṇe	-11.3006
Santi	-11.3006
▁dhiti	-11.3007
▁vipākābyākat	-11.3008
▁gahitāti	-11.3008
saddato	-11.3009
caritā	-11.301
mūg	-11.301
▁nagarassa	-11.3011
ahitvā	-11.3015
▁iṭṭhakā	-11.3015
▁vuḍḍhatar	-11.3017
Tassā	-11.3019
▁sammāsambuddhā	-11.3022
▁catusaccadhamm	-11.3022
uttarā	-11.3023
▁nivāsana	-11.3023
▁sudhā	-11.3024
vīci	-11.3024
▁mukh	-11.3025
▁gantu	-11.3025
▁rūpāyatan	-11.3025
▁paññapetvā	-11.3025
dāru	-11.3026
▁lokiy	-11.3026
tamaṃ	-11.3026
jeṭṭhako	-11.3027
nivesan	-11.3028
khuddak	-11.3029
▁Pārājik	-11.3029
▁bhūtagām	-11.3029
▁gaṇhato	-11.303
▁siñc	-11.3032
▁ajānant	-11.3034
acakkhukānaṃ	-11.3034
kalāpa	-11.3035
bhūtehi	-11.3035
▁saṃkiles	-11.3036
▁cakkhādi	-11.3037
▁saṅ	-11.3038
padanti	-11.3038
▁56	-11.3038
maññanā	-11.3039
▁duss	-11.3039
paricchedaṃ	-11.304
pītisomanass	-11.3041
uttari	-11.3042
vasesā	-11.3042
vigatapaccayā	-11.3043
▁loṇa	-11.3043
▁pāturahosi	-11.3045
▁120.	-11.3045
▁sammappadhānā	-11.3046
kkhara	-11.3047
mānaso	-11.3048
vayava	-11.3048
▁bhaṇḍan	-11.3048
▁dahar	-11.3048
visuddh	-11.3049
Pañcime	-11.3049
▁gocaraṃ	-11.3049
▁utusamuṭṭhānaṃ	-11.3049
samūh	-11.3049
▁tatth	-11.3049
▁otāretvā	-11.3049
parivajjan	-11.305
sajjan	-11.305
ṇanti	-11.3051
sayi	-11.3053
acittena	-11.3055
▁siṅgāl	-11.3056
▁sañjānāti	-11.3056
hārena	-11.3056
kālā	-11.306
▁Ekacce	-11.306
▁Tividh	-11.3061
nupassī	-11.3063
rājānaṃ	-11.3063
▁saṅghikaṃ	-11.3064
▁kīḷant	-11.3064
araha	-11.3064
▁Purisa	-11.3065
▁satasahass	-11.3068
phoṭṭhabb	-11.3068
yuttassa	-11.3068
▁Tāva	-11.3069
ādīhīti	-11.307
▁sūra	-11.307
▁kuṭumbik	-11.307
dikaṃ	-11.3071
▁Tatiyampi	-11.3072
ṇḍu	-11.3072
▁ānubhāva	-11.3072
taḷāk	-11.3073
mañca	-11.3073
▁abhiruh	-11.3073
pariggahita	-11.3073
▁adhisīl	-11.3075
▁Kapp	-11.3076
▁musāvādo	-11.3077
ttabhāve	-11.3077
saṅgahā	-11.3078
▁nipphāde	-11.308
▁gāmantar	-11.308
▁Tāsu	-11.3083
sadisāni	-11.3083
▁vissaṭṭh	-11.3084
mevetaṃ	-11.3085
▁sūkara	-11.3086
▁sutā	-11.3086
▁Vīriya	-11.3087
patirūpak	-11.3088
▁Tan	-11.3089
▁samuṭṭhāpeti	-11.3091
▁paññavant	-11.3091
kasaṭ	-11.3091
▁tī	-11.3097
▁vāyodhātu	-11.3098
▁vijjācaraṇa	-11.3099
▁pasav	-11.3099
▁udara	-11.31
▁pekkh	-11.31
▁pītiṃ	-11.3101
▁upādārūp	-11.3101
▁dasasahass	-11.3102
▁dhīra	-11.3104
avihār	-11.3105
▁nivatteti	-11.3105
sappa	-11.3105
▁Ārām	-11.3106
āpayi	-11.3106
▁parivatte	-11.3107
▁mandā	-11.3107
▁Vara	-11.3107
▁ārammaṇapurejāt	-11.3109
dās	-11.3109
mahābhūt	-11.311
▁ārammaṇassa	-11.311
kiccesu	-11.3111
▁vaḍḍhanti	-11.3112
▁hatthā	-11.3112
visaṃvādan	-11.3112
hāne	-11.3112
▁ummattakassa	-11.3113
▁bhavanaṃ	-11.3113
▁acc	-11.3113
▁pacchi	-11.3113
dussa	-11.3114
pāpuṇ	-11.3114
▁puraṃ	-11.3115
mas	-11.3116
▁sevato	-11.3117
▁Paccayānulom	-11.3117
▁Samuṭṭhān	-11.312
▁bil	-11.3121
dāsī	-11.3122
sahāyo	-11.3122
jānāti	-11.3123
vācik	-11.3124
anattho	-11.3125
▁kammavācā	-11.3125
▁ātap	-11.3125
▁Vuttaṃ	-11.3126
tatthā	-11.3126
▁chaṭṭha	-11.3127
▁hāsa	-11.3127
▁khādanīy	-11.3129
▁mahānubhāva	-11.313
▁ajjhāsayaṃ	-11.313
hitvā	-11.313
▁Nī	-11.313
ārahā	-11.3132
▁pavāraṇaṃ	-11.3133
▁maggapaccay	-11.3133
Atth	-11.3133
ntoti	-11.3134
ttānaṃ	-11.3134
▁vasanaṭṭhān	-11.3135
▁tadekaṭṭh	-11.3135
vāsanābhāgiy	-11.3135
uppala	-11.3136
▁samāne	-11.3136
▁bhojanāni	-11.3137
kkhandhaṃ	-11.3138
▁madditvā	-11.3138
kkhayā	-11.3139
▁ācar	-11.3139
aḍḍha	-11.314
▁Kaṇh	-11.3141
▁Tatoti	-11.3141
▁anusetīti	-11.3142
cetiyaṃ	-11.3143
majjan	-11.3144
▁adhigatā	-11.3145
byañjanā	-11.3145
ditā	-11.3146
▁lokiyaṃ	-11.3146
dhikā	-11.3147
▁otār	-11.3149
saraṇā	-11.3149
pāto	-11.3149
rukkh	-11.315
▁upamāya	-11.315
▁sabbathāpi	-11.315
▁puggalena	-11.3151
sukhena	-11.3152
āvasāne	-11.3152
cchavi	-11.3153
▁ruhati	-11.3154
▁sajjhāy	-11.3156
ttapp	-11.3157
chand	-11.3157
▁veḷuriy	-11.3158
yoniyaṃ	-11.3158
▁jāla	-11.3159
nenāti	-11.3159
navak	-11.316
▁Arahattaṃ	-11.3161
cittehi	-11.3164
parājay	-11.3166
▁phuse	-11.3168
pariyanto	-11.3168
pavāraṇ	-11.3169
nug	-11.317
ātikkam	-11.3172
▁Ahetuk	-11.3172
▁upasampanno	-11.3174
▁samaṇe	-11.3175
▁Tadubhay	-11.3176
▁santhar	-11.3177
pariyuṭṭhān	-11.3177
▁kathanaṃ	-11.3179
▁vuddhiṃ	-11.318
▁aṅkur	-11.318
▁pāpimā	-11.3181
rūpāvacar	-11.3182
▁kāyasucarit	-11.3182
▁majjhimo	-11.3184
ñāt	-11.3185
dvayassa	-11.3187
▁saṃsāro	-11.3187
▁nakkhatta	-11.3189
ussada	-11.3192
hāpetvā	-11.3193
▁napuṃsaka	-11.3193
▁muṇḍ	-11.3194
▁diyyamān	-11.3196
upādānakkhandho	-11.3197
▁cakkhundriy	-11.3199
▁ghāt	-11.3199
▁rakkhā	-11.3201
avatthusmiṃ	-11.3202
▁hotūti	-11.3204
passaṃ	-11.3205
pharasu	-11.3206
▁mahāvihār	-11.3206
▁niyy	-11.3207
▁paṭipajjant	-11.3207
▁dāso	-11.3208
tāpatti	-11.321
▁āvudh	-11.321
ācariyo	-11.3211
▁dāsī	-11.3211
parāyaṇo	-11.3212
vijjh	-11.3212
▁vicikicchāya	-11.3213
dāsa	-11.3213
▁labbh	-11.3213
▁Sakala	-11.3214
▁tathāvidh	-11.3214
yetha	-11.3218
▁idamet	-11.3218
▁pakkhand	-11.3219
▁mate	-11.322
bāl	-11.3221
▁cakkhudhātu	-11.3223
nivatt	-11.3223
▁ajjhāvas	-11.3224
▁uṭṭhāpe	-11.3224
▁nihīna	-11.3224
▁khujj	-11.3226
▁125.	-11.3226
pādaka	-11.3226
puṅgav	-11.3227
raṭṭhaṃ	-11.3227
▁paccavekkhitabb	-11.3228
▁mahatī	-11.3229
▁Dvīhi	-11.3229
▁niyametvā	-11.3231
▁parena	-11.3232
▁arahatīti	-11.3233
▁bhāsamān	-11.3234
▁kāriy	-11.3234
upekkhāsahagat	-11.3235
hatthaṃ	-11.3236
kkhattu	-11.3236
dhammoti	-11.3237
vattamān	-11.3238
▁duvidhena	-11.3238
▁lokadhātu	-11.3244
▁ṭhānena	-11.3246
catukka	-11.3247
▁devadattassa	-11.3247
sukhāya	-11.3249
▁Ghaṭ	-11.325
▁suttāni	-11.3251
yojanasatik	-11.3251
▁vip	-11.3253
▁sacchikā	-11.3256
▁dasāh	-11.3259
[...]
