<unk>	0
<s>	0
</s>	0
‌	-1.6313
්	-2.77953
.	-3.40331
,	-3.56458
ති	-3.99727
ස	-4.1853
න්	-4.3353
ඤ්	-4.56984
▁‘‘	-4.92
▁	-4.93865
ක්	-4.97266
ච්	-4.98052
ස්	-4.98664
‍	-4.99766
වා	-5.07193
▁ච	-5.07296
’’	-5.17844
ච	-5.19163
▁න	-5.20485
ට්	-5.22809
ථ	-5.33261
ත්	-5.35351
▁අ	-5.38693
තං	-5.40683
;	-5.40984
තො	-5.49796
▁වා	-5.63544
▁ධම	-5.63832
තා	-5.65587
ඞ්	-5.65651
ද්	-5.73124
▁භි	-5.78357
▁අත්	-5.84785
▁–	-5.89708
▁සම	-5.89826
ත	-5.90157
මා	-5.90833
පි	-5.92222
▁උප	-5.95359
ම්	-6.01093
ය	-6.01982
බ්	-6.04516
▁ස	-6.05412
ජ්	-6.09599
පෙ	-6.16689
▁තස	-6.1859
▁හොති	-6.18773
▁පන	-6.18879
▁පච	-6.21433
ං	-6.24516
තෙ	-6.24908
▁වුත්	-6.2573
▁තත්	-6.27606
?	-6.31624
▁පඤ	-6.34108
▁තං	-6.35642
▁සබ්	-6.39292
ම	-6.39729
පජ	-6.41247
බ	-6.46933
▁සො	-6.49873
මං	-6.51102
තස්	-6.56294
▁එවං	-6.58125
▁සත්	-6.58324
ධම්	-6.61565
හි	-6.61678
නං	-6.64859
▁ඛො	-6.65003
▁සඞ	-6.6738
▁වත්	-6.67778
▁නාම	-6.69232
▁වි	-6.70483
ථො	-6.70745
ෙය්	-6.72182
මො	-6.74274
▁චිත්	-6.75413
ඛවෙ	-6.75423
▁ග	-6.76759
▁තෙ	-6.77139
▁ද්	-6.77228
න	-6.77343
ප	-6.78217
බං	-6.78362
මිං	-6.78942
’	-6.78991
-	-6.79889
ථි	-6.84462
වණ්	-6.84661
ජති	-6.84834
▁බ්	-6.85093
▁හි	-6.87948
ප්	-6.88256
▁එත	-6.89714
ණ්	-6.90285
චයා	-6.91404
▁සන්	-6.91861
▁දස	-6.93604
▁දුක්	-6.93787
▁ද	-6.9409
තබ්	-6.94996
ධ	-6.95445
ණනා	-6.97796
ග	-6.9838
▁කත	-7.00201
කම්	-7.02979
ඛු	-7.03212
ඨ	-7.03833
සා	-7.04934
ධො	-7.05127
▁ඛන්	-7.05904
චයො	-7.06494
ඤා	-7.07558
▁ප	-7.0798
පන්	-7.08603
ධා	-7.08871
▁වු	-7.10777
▁කම්	-7.11634
ථං	-7.1204
පයුත	-7.12046
ග්	-7.12169
▁භ	-7.13045
පත්	-7.14379
▁අන	-7.16057
වෙ	-7.16346
ව	-7.16623
ද	-7.19746
▁පටිච	-7.20238
බො	-7.21361
▁අප්	-7.21405
නො	-7.22532
▁‘	-7.22582
▁මෙ	-7.24405
මත්	-7.24653
▁ම	-7.24717
සන්	-7.26153
▁තෙසං	-7.27829
▁ක	-7.29917
වත්	-7.31343
▁බුද	-7.31587
▁යස	-7.31981
තීති	-7.32211
▁යථා	-7.32285
▁නො	-7.32501
▁දි	-7.32718
▁ඉ	-7.33572
ඛන්	-7.33902
▁අයං	-7.34486
ක	-7.34689
▁සද	-7.35436
ා	-7.36649
▁තෙන	-7.36843
චයෙන	-7.37108
▁සු	-7.37124
සු	-7.37234
▁උ	-7.37426
මස්	-7.37867
තානං	-7.38015
ජ	-7.39296
ො	-7.39341
ඤත්	-7.39352
නා	-7.39458
යා	-7.39616
▁යං	-7.41129
▁නිබ්	-7.42364
සුත්	-7.42578
බෙ	-7.42831
යං	-7.42899
සො	-7.4469
සති	-7.44701
තෙන	-7.45083
▁යො	-7.45578
▁එකං	-7.46078
▁නි	-7.462
▁විය	-7.46602
ෙ	-7.46623
බා	-7.47169
ගො	-7.48499
දො	-7.49931
ඛ	-7.50307
මෙ	-7.5052
▁කි	-7.5063
▁ඡ	-7.51836
▁මග	-7.51913
රියං	-7.52185
දස්	-7.52578
කො	-7.52579
ධං	-7.53383
භ	-7.53438
තී	-7.54014
▁ආපත්	-7.54895
චිත්	-7.5556
▁අථ	-7.5602
හං	-7.57835
සං	-7.58
ඤ	-7.59264
▁පත්	-7.59342
▁ආහ	-7.59486
▁තථා	-7.59497
▁ත	-7.59813
හ	-7.6006
▁ඉදං	-7.61028
ඡා	-7.61081
▁භගවා	-7.61419
මි	-7.61581
▁තතො	-7.62882
තන්	-7.63062
ර	-7.63063
▁තීණි	-7.63113
▁ව	-7.6375
ඡන	-7.64659
හා	-7.65898
▁ර	-7.66008
ථා	-7.66366
ථු	-7.671
චං	-7.67207
යො	-7.67427
ඤං	-7.67979
තියා	-7.68366
▁නත්	-7.6838
තනො	-7.68978
▁අස්	-7.69457
▁සා	-7.69637
▁සුත්	-7.69657
ජන්	-7.69864
▁පුබ	-7.70061
ඨි	-7.70064
අ	-7.70253
රාහ	-7.7132
▁පවත්	-7.72041
▁පස	-7.73179
▁සි	-7.73574
චි	-7.73852
▁අබ්	-7.74791
ඛා	-7.74837
▁හොන	-7.75431
තු	-7.75528
▁නිට	-7.76382
▁සක්	-7.76767
▁වෙදිත	-7.76937
ධි	-7.76972
▁පුග	-7.78768
▁එව	-7.79922
රහ්	-7.8014
ඨිතා	-7.80494
▁ආරම	-7.80841
බත්	-7.81302
▁එක	-7.81475
ෙන	-7.82071
▁හෙතුප	-7.82447
ඨො	-7.8282
ඨා	-7.8313
ගං	-7.83794
මග්	-7.84026
ඛං	-7.84362
කං	-7.84536
▁විප	-7.84885
චති	-7.85336
ඨානං	-7.85498
▁නව	-7.86998
▁යෙ	-7.87825
▁පු	-7.88
තිං	-7.88302
ණ	-7.88341
▁ඉධ	-7.89464
▁පබ්	-7.89738
කප්	-7.90295
▁උද්	-7.90619
ලක්	-7.91118
▁නිස	-7.93421
▁චත්	-7.93781
සි	-7.94329
▁ල	-7.94424
▁ඉත්	-7.94451
▁උත්	-7.94461
කා	-7.94939
▁අග්	-7.96321
▁පුච	-7.97356
තිආදි	-7.98084
තත්	-7.98085
නත්	-7.98264
ඛූ	-7.98336
ුද්	-7.98789
▁අස	-7.98819
▁ඉති	-7.99332
▁දිස්	-7.99795
▁ආර	-8.00524
ඤො	-8.01895
මන්	-8.02504
නන්	-8.04238
ථෙ	-8.04784
▁ය	-8.04885
ල	-8.05289
▁ආමන	-8.05608
▁ගහෙත	-8.05887
ජා	-8.06473
ධිං	-8.0723
ධෙ	-8.0772
යෙව	-8.07997
ගෙ	-8.09815
ජිත	-8.09828
වං	-8.10265
▁පරි	-8.10649
බුද	-8.10872
පුත්	-8.11175
▁අභි	-8.11459
▁යත්	-8.11515
නි	-8.1175
කන්	-8.1207
▁චෙව	-8.12121
චක්	-8.1246
සාති	-8.12494
තණ්	-8.13459
▁අනු	-8.13951
▁කිං	-8.14446
▁අට	-8.14707
ඡ	-8.15113
▁නිරුජ	-8.15497
▁අනි	-8.15812
ඨං	-8.16288
▁වට	-8.16346
▁භගවතො	-8.16539
ික්	-8.16647
▁රූපං	-8.16882
ඤාය	-8.1705
▁ත්	-8.17168
ණං	-8.19123
ඡි	-8.19395
ඛිත	-8.19813
පච	-8.20561
ඨාන	-8.20666
▁හත	-8.20827
▁අජ	-8.20956
▁ආයස	-8.21129
වග්	-8.21396
ඡති	-8.21491
ඛණෙ	-8.21527
ඣ	-8.21714
වාන	-8.21804
▁හුත	-8.22612
වසෙන	-8.22824
▁පණ්	-8.23645
▁යා	-8.24517
ථාය	-8.24633
නෙ	-8.24834
▁පක්	-8.2513
ජං	-8.26205
▁හෙතු	-8.26291
වි	-8.2733
▁පටිස	-8.27422
ගලො	-8.27762
▁ඉමිනා	-8.28398
▁ඉමෙ	-8.28443
තානි	-8.28506
▁ඉමස	-8.2955
සත්	-8.2957
▁අනුප	-8.29787
ඨබ්	-8.30249
▁වණ්	-8.30264
සෙ	-8.30943
▁පති	-8.31009
▁ගණ්	-8.31149
මණ	-8.31208
සී	-8.31477
පස්	-8.31999
ජිස	-8.32014
▁මනුස	-8.32125
ථාති	-8.32529
▁නික්	-8.33091
▁ඉමං	-8.33793
▁භවිස	-8.3389
ගා	-8.34432
තර	-8.34548
▁දු	-8.34758
තප	-8.34813
▁ආප	-8.3485
▁මි	-8.35526
▁කප	-8.36108
▁මහා	-8.36234
ඛො	-8.36465
ඩ	-8.36491
ඩ්	-8.36825
ගන්	-8.36925
සාමි	-8.37085
▁අහොසි	-8.37424
▁අධිප	-8.37617
▁රාජා	-8.37789
තාය	-8.38054
▁අහං	-8.38349
▁කථං	-8.38625
දං	-8.38699
ධානං	-8.39115
බන	-8.39223
ිට්	-8.39324
▁සහ	-8.39347
මානං	-8.39512
▁යෙන	-8.39874
▁විජ	-8.3991
▁නු	-8.39974
ඨෙන	-8.3998
▁විස	-8.40267
▁හොතීති	-8.40714
▁තදා	-8.40959
දුක්	-8.41491
සෙව	-8.41631
▁ආවුසො	-8.42146
▁තයො	-8.42383
▁පුන	-8.4265
▁ආග	-8.42885
▁සියා	-8.43848
▁මං	-8.44067
▁පටිප	-8.44433
▁කරො	-8.44462
▁පුත්	-8.44869
ඤම	-8.44883
හෙ	-8.45052
ඤෙ	-8.45616
හස්	-8.46088
▁අවිජ	-8.46286
තරෙ	-8.46327
▁ඉච	-8.46354
▁තු	-8.46453
යස්	-8.46776
ුට්	-8.47174
ානි	-8.4759
ඤාණං	-8.48553
...	-8.48591
තාරො	-8.48749
නස්	-8.48776
ගණ්	-8.48916
▁එකො	-8.48944
ුප්	-8.49324
▁භගවතා	-8.49523
▁සචෙ	-8.49529
▁වස්	-8.49544
ඣත්	-8.49574
තුං	-8.49645
▁චෙ	-8.50003
රිය	-8.50175
▁මම	-8.50528
▁හෙ	-8.51477
දා	-8.5154
ඛි	-8.51562
▁මා	-8.51636
තිආදිනා	-8.52073
තරං	-8.52121
දිට	-8.52434
චෙ	-8.53406
▁ඉදානි	-8.53505
▁භු	-8.5356
▁චතු	-8.53577
▁පහාත	-8.53729
විප්	-8.53932
තියො	-8.53936
තවණ	-8.53985
සෙන	-8.54191
▁කස	-8.54273
ධාය	-8.54373
ඤාණ	-8.5478
අත්	-8.5528
දන්	-8.57301
සෙති	-8.57502
ධස	-8.579
▁පාචිත්	-8.58289
▁අම	-8.58373
යාති	-8.58422
▁චතුත	-8.58664
▁උපසම	-8.58913
යෙ	-8.59304
සාය	-8.60017
▁විහරති	-8.60703
▁සප	-8.60732
▁කතං	-8.61085
භි	-8.61409
▁මහාරාජ	-8.61758
චා	-8.61932
ඝො	-8.6293
මණෙ	-8.63591
ාති	-8.64145
කෙ	-8.64496
▁පටි	-8.64674
▁නහෙතු	-8.64747
ින්	-8.64965
චෙව	-8.65189
▁වෙදනා	-8.65347
ඝ	-8.65646
▁කො	-8.65773
හන්	-8.66168
▁රත්	-8.6622
ිස්	-8.66292
▁ආනන	-8.66332
තාරි	-8.66499
ඨාය	-8.67351
▁ලොකෙ	-8.67406
ඵ	-8.67607
මෙව	-8.6782
▁බ	-8.68
▁තාව	-8.68044
ණො	-8.68087
යත්	-8.68379
▁සති	-8.69084
හො	-8.69262
තතො	-8.69505
▁1.	-8.70047
▁අරහත	-8.70197
▁නිද	-8.70373
මණං	-8.70486
චො	-8.70494
තරා	-8.70519
▁උපපජ	-8.70625
▁තෙනාහ	-8.70787
චිකි	-8.70816
ානං	-8.70909
▁කා	-8.7105
මෙන	-8.71193
▁භව	-8.71205
▁උපනිස	-8.71463
▁පඨමං	-8.71478
▁යොජනා	-8.71752
ට	-8.71955
ඤෙය	-8.72025
තොති	-8.72075
ෙහි	-8.72094
▁තිට	-8.72239
▁මජ	-8.72447
▁මය්	-8.72802
ඛුනො	-8.73143
▁උක්	-8.73162
තසමු	-8.73553
▁භො	-8.73572
▁සමයෙ	-8.73706
සාමී	-8.74164
සනා	-8.74676
ටති	-8.74744
▁ජ	-8.75124
▁උපෙ	-8.75447
▁එතං	-8.75567
සනං	-8.75642
තාති	-8.75864
නිද්	-8.7621
▁ඨපෙත	-8.7621
▁සුද	-8.7625
▁ආදි	-8.76905
සනෙන	-8.76957
දත්	-8.77027
සතීති	-8.77649
▁පද	-8.77775
▁සෙය්	-8.77938
නාගතො	-8.7821
මණො	-8.78281
තෙසු	-8.78367
▁තුම	-8.78391
දෙන	-8.78483
▁අක්	-8.78504
▁කරොති	-8.78587
ඨානෙ	-8.78597
වජ්	-8.78685
▁පට්	-8.78749
ුච්	-8.78776
▁භගව	-8.78822
▁තිණ	-8.78925
ඛෙ	-8.78946
ජන	-8.79006
ඛාපද	-8.79203
▁නයො	-8.79754
ජි	-8.80401
▁සමු	-8.80409
▁විත්	-8.80479
සග්	-8.80739
▁වදන	-8.81015
තෙහි	-8.81028
▁අධි	-8.81034
▁2.	-8.82286
▁ඵස	-8.82494
▁යාව	-8.82807
▁මයා	-8.82934
මෙහි	-8.83438
▁පරං	-8.83592
කමිත	-8.83619
දිත්	-8.83701
නිමිත්	-8.83749
පති	-8.83887
මණප	-8.83996
හත්	-8.84076
දි	-8.84237
තියං	-8.84356
▁නිසි	-8.84708
ඛණ	-8.84981
▁චාති	-8.85174
ෙසු	-8.85265
මෙසු	-8.8552
▁නං	-8.85805
වුත්	-8.86183
▁කිර	-8.86682
▁රූප	-8.86888
පො	-8.87337
▁දිබ්	-8.87398
වාති	-8.88198
සානි	-8.88347
▁නෙව	-8.88444
ඛස	-8.88802
ණා	-8.89565
ගස	-8.89578
තම්	-8.90666
පා	-8.9093
▁නිප	-8.91127
ඛුනා	-8.91677
ථියා	-8.91802
ඣති	-8.91855
ථීති	-8.91972
සෙතුං	-8.92124
▁කායස	-8.92126
ඨෙ	-8.92297
මුත්	-8.92306
පං	-8.92463
▁කණ්	-8.93188
කත්	-8.93319
ථී	-8.93449
▁උපස	-8.93573
▁කාය	-8.93767
පායො	-8.93908
ඛත්	-8.9411
▁ඉතො	-8.94633
▁පර	-8.94905
▁පිණ	-8.94984
▁යදි	-8.95241
රියා	-8.95468
▁ථෙරො	-8.96614
තකං	-8.96977
▁ඡි	-8.96999
තිකං	-8.9712
▁වත	-8.97141
▁වො	-8.97253
▁පටිග	-8.97329
▁අය	-8.97466
චය	-8.97488
මණා	-8.97504
යුත්	-8.9797
▁සංව	-8.98102
▁ඉද්	-8.98265
හී	-8.98608
හාති	-8.98804
ජනා	-8.98875
ි	-8.98879
හාකං	-8.98891
▁අද්	-8.99126
ෙක්	-8.9934
▁විතක	-8.99388
ඛාරො	-8.99489
▁හෙතුයා	-8.9954
▁ඵලං	-8.99812
තනා	-8.99921
තිකෙ	-8.99971
▁සාරි	-9.0029
▁සොමන	-9.00788
▁ජානාති	-9.00795
ඛුං	-9.00957
තම	-9.01073
▁වචනං	-9.01272
▁කුසලා	-9.01323
පවත්	-9.0134
▁භණ	-9.01495
▁ඤාණං	-9.01546
සතී	-9.01654
ගෙන	-9.01662
තති	-9.01782
දෙ	-9.01899
චාදි	-9.0229
▁ඣානං	-9.02708
▁හ	-9.02875
▁සුඛ	-9.02959
▁යුත්	-9.03242
තිආදීසු	-9.03322
▁අවිත	-9.03323
ඛති	-9.03471
ඛණං	-9.03525
ගි	-9.03559
▁සමාධි	-9.03694
මාසම	-9.039
▁විහර	-9.04033
▁පරිනි	-9.04274
▁කු	-9.04407
භාවං	-9.04623
සන	-9.04696
ඛාය	-9.04707
කටං	-9.04744
භාවෙන	-9.0478
▁උග	-9.04922
▁කතමෙ	-9.05198
▁අනාපත	-9.05366
වස්	-9.05421
▁පටික	-9.05843
ඛූනං	-9.0588
නිබ්	-9.05885
▁කෙචි	-9.06014
ඨිතං	-9.06019
▁මන්	-9.06082
▁ඵල	-9.06242
බි	-9.06526
ජතීති	-9.06775
▁වසෙන	-9.06783
ඣෙ	-9.06795
නිස	-9.0717
දෙස	-9.07231
▁ආ	-9.07381
▁3.	-9.07387
▁තම	-9.07504
ලි	-9.07782
▁රජ	-9.08102
භික	-9.08417
▁රුක	-9.08529
ඝස	-9.08761
▁හෙවං	-9.08943
තක	-9.09096
▁පඨම	-9.0916
ලං	-9.09209
සානං	-9.09227
බානං	-9.09236
ිණ්	-9.0951
▁සුඛං	-9.09706
චත්	-9.10003
▁තෙසු	-9.10023
▁වඩ	-9.10126
▁චින	-9.10407
සාම	-9.10463
ඡින	-9.10639
ථෙන	-9.10742
ඩං	-9.10786
▁තිස	-9.10824
විමුත්	-9.10881
කි	-9.11209
භාවො	-9.11454
▁සාවත	-9.11474
ිද්	-9.11933
ධෙන	-9.1205
▁වන්	-9.12518
ඣිස	-9.13209
මණ්	-9.13308
චවෙ	-9.13469
▁විමුත්	-9.13591
පටිච	-9.14303
පීති	-9.14471
ාදි	-9.1455
▁මහන්	-9.14569
යුං	-9.14899
▁සංස	-9.1571
තමෙව	-9.15741
▁4.	-9.15911
තිආදිමාහ	-9.15972
මතො	-9.16047
කණ්	-9.16084
▁කල්	-9.16104
සයප	-9.16227
▁අල	-9.16529
දෙසො	-9.16711
දති	-9.1682
▁සමණ	-9.16893
▁;	-9.16923
▁බොධිසත	-9.1707
▁පුරිසො	-9.17113
▁පරිච	-9.17207
කාර	-9.17782
▁අර	-9.1807
▁පුප	-9.18198
▁නුප	-9.18574
ඛාපදං	-9.1865
▁සමයෙන	-9.18696
ථෙව	-9.18722
▁අසම	-9.18744
▁කාම	-9.1888
දොමන	-9.19061
වින්	-9.19252
▁මෙත්	-9.19508
සයො	-9.19802
▁මත්	-9.19823
▁ලබ	-9.20012
සයෙ	-9.20047
▁භත්	-9.20356
▁‘‘‘	-9.20362
▁කුසලං	-9.20393
▁වෙදනාය	-9.2042
▁සෙසං	-9.20504
▁රාජ	-9.20772
කෙන	-9.2096
▁චා	-9.20967
▁එස	-9.20982
දු	-9.21022
ථුං	-9.21116
▁ගාථා	-9.21121
ථියං	-9.21132
ඤී	-9.21392
භො	-9.21453
ඤස	-9.2148
▁එතදවොච	-9.21535
▁කුසල	-9.21771
▁තානි	-9.22088
මාදි	-9.22095
▁වෙ	-9.22245
ඨාති	-9.22301
චුප්	-9.22345
▁තෙහි	-9.22534
▁තථාගතො	-9.22641
▁පරිත්	-9.22988
▁ඉමා	-9.22993
▁දානං	-9.2312
ී	-9.23193
ගහො	-9.23584
ඛාරා	-9.23664
▁ඔ	-9.2384
ඛම්	-9.23976
▁වද	-9.2432
▁සමාප	-9.24404
පාද	-9.24638
▁මහ	-9.24642
ඵස	-9.2472
▁එවමෙව	-9.24794
▁හොතී	-9.24904
දානං	-9.24913
තරො	-9.24962
ඝං	-9.25033
ගල	-9.25099
යථාපි	-9.25611
▁පරික්	-9.2572
පුබ	-9.25804
▁දෙව	-9.25812
▁දුග	-9.25947
▁7.	-9.2603
▁සීල	-9.26249
අයං	-9.26452
බානි	-9.2653
ුත්	-9.26623
▁එසෙව	-9.26754
▁නිග්	-9.26851
ාදීසු	-9.26861
පණ්	-9.27097
ජො	-9.27165
▁ජාති	-9.27786
සෙත්	-9.27794
භති	-9.27927
වන්	-9.2815
▁5.	-9.28236
▁අතික	-9.28242
ධික්	-9.28298
භාවතො	-9.28329
▁නා	-9.28503
ිත්	-9.28627
ඣිත	-9.28663
ජෙ	-9.28784
▁කොචි	-9.28828
▁සාම	-9.28913
▁එකමන	-9.29017
එවං	-9.29185
තරි	-9.29246
▁අව	-9.29381
තෙත්	-9.29554
රියඤ	-9.29676
ඨිතො	-9.298
▁නිමිත්	-9.2983
▁අකුසලා	-9.30158
▁තප	-9.30886
කමි	-9.31147
ාරම	-9.31453
▁6.	-9.31484
ජෙය	-9.316
▁උපරි	-9.3178
සාපි	-9.32074
ආරම	-9.32121
පු	-9.32412
▁තව	-9.32578
▁අරිය	-9.32635
▁පරිභු	-9.32816
කටස	-9.32858
භා	-9.33167
▁භද්	-9.33236
▁ලොක	-9.33447
කස	-9.33699
තමං	-9.3407
කථා	-9.34124
▁යතො	-9.3423
කාරො	-9.34252
▁වදති	-9.34389
ුබ්	-9.34446
▁ලොකු	-9.34678
වෙව	-9.34736
තොපි	-9.34796
ගහෙත	-9.35144
▁අනුස	-9.35239
▁චීවරං	-9.35811
තාදි	-9.35826
▁සයං	-9.35919
▁සාධු	-9.36398
කිං	-9.36528
තිකා	-9.36987
භිදා	-9.36988
▁මනො	-9.37035
ාදීනං	-9.3732
▁විනි	-9.37599
▁නප	-9.37624
භත්	-9.37772
ඣා	-9.38089
▁කරිස	-9.38109
▁මයං	-9.38196
ථුස	-9.3826
▁ඛත්	-9.38548
නානං	-9.38935
නම්	-9.39025
සාමීති	-9.39184
සබ්	-9.39242
▁8.	-9.39492
ාතබ්	-9.39552
▁ඉමෙහි	-9.39767
▁විනා	-9.39785
▁දෙති	-9.39962
▁ඉමානි	-9.40188
සෙය්	-9.40202
▁මුත්	-9.40205
▁දුතියං	-9.40358
භාව	-9.40501
▁ලි	-9.40644
▁සෙට	-9.40733
▁බහු	-9.40888
▁9.	-9.41063
ඨානා	-9.41136
▁එතෙ	-9.41204
වයං	-9.41227
තකා	-9.41443
▁එකා	-9.4159
රුක්	-9.41645
තරපච	-9.41728
ඛිපිත	-9.41792
ඛාර	-9.41956
දස	-9.4205
▁10.	-9.42389
ගතො	-9.42854
▁සවිත	-9.42929
පම	-9.42947
ඨු	-9.42993
▁දුබ	-9.43049
▁පජානාති	-9.43321
බාන	-9.43356
පරි	-9.43575
දිස්	-9.43577
▁නාමං	-9.43982
▁සාසනං	-9.44037
වාරෙ	-9.44372
ගහ	-9.44491
තචිත්	-9.445
▁භවන	-9.44852
▁දුතිය	-9.45115
ගහිතා	-9.45131
▁ඨිත	-9.45326
▁සල්	-9.4537
▁නයෙන	-9.45641
▁භාසිතං	-9.45692
▁චෙතනා	-9.45789
▁කාලෙ	-9.45837
පුන	-9.45951
▁තා	-9.45992
මප්	-9.46047
▁යථාභූතං	-9.46054
▁ගාථමාහ	-9.4649
▁එකච	-9.46536
ලො	-9.4703
පරික්	-9.47186
විත්	-9.47243
හාය	-9.47247
▁ඤාණ	-9.4726
▁භවෙ	-9.47543
නෙන	-9.47575
ඨියා	-9.47593
ාදීහි	-9.47646
▁එකස	-9.47721
කිච	-9.47803
▁ඨිතො	-9.47824
▁ඨානං	-9.47989
▁නානා	-9.48256
▁පාති	-9.48488
▁බහිද	-9.48692
▁ගහපති	-9.48897
▁යොජෙත	-9.49042
ධන	-9.49047
බෙසං	-9.49334
වාර	-9.49453
▁ලොකස	-9.49475
▁පහාය	-9.49584
▁විසුද	-9.4966
▁කතමො	-9.49675
▁තාය	-9.49775
ථතො	-9.49944
ඨත්	-9.50152
▁කථෙ	-9.50274
ඛුසඞ	-9.50352
▁චතූහි	-9.50392
ඡිත	-9.50542
බස්	-9.50569
සික	-9.51106
ඛතො	-9.5123
▁කාල	-9.51719
පටි	-9.51736
චාති	-9.51783
පදා	-9.519
▁අවිගතෙ	-9.5203
ගතා	-9.52088
▁තන්	-9.52094
▁ජානන	-9.52153
යාකතා	-9.52208
යාකතො	-9.52331
ගෙහි	-9.52398
තෙසි	-9.52478
සනස	-9.52541
ජනං	-9.5256
▁විභත්	-9.52776
▁කතමං	-9.52881
බසො	-9.53448
ාය	-9.53513
ණෙ	-9.53757
ඤෙන	-9.53845
ඡෙදො	-9.53861
▁වසන	-9.53996
▁එවම	-9.54024
▁සීලං	-9.54041
▁සග්	-9.54177
▁වජ	-9.54215
▁කාතුං	-9.54284
▁අයම	-9.54347
▁කුසලො	-9.54481
ඛුවිඤ	-9.54501
ඨිං	-9.54607
මපච	-9.54727
යථා	-9.54764
මු	-9.54835
උප	-9.54877
සසි	-9.54929
▁පුථුජ	-9.54949
පුග	-9.55317
කම	-9.55368
▁පාප	-9.55484
සය	-9.5556
හෙතු	-9.55727
පබ්	-9.55729
ාදයො	-9.55871
▁පනෙත	-9.56051
ඩිතො	-9.56178
පාය	-9.56439
▁තෙනුපස	-9.56658
▁යදා	-9.56815
▁ඡට	-9.56944
පක්	-9.56987
▁නිසීදි	-9.57086
▁පරම	-9.57162
ඣන	-9.57279
කථාවණ	-9.57302
පී	-9.57372
ජිතබ්	-9.57418
▁අනුපාදි	-9.57422
ඉච	-9.57425
කාය	-9.57458
▁ගතො	-9.57469
▁කාරණං	-9.57519
චහි	-9.57634
▁පරස	-9.57689
කමන	-9.57722
කාලෙ	-9.58315
ෙනාති	-9.58386
සින්	-9.58494
▁තීහි	-9.58614
ගානි	-9.58743
යු	-9.58826
ඤූ	-9.58906
▁අදි	-9.58978
හීති	-9.59017
▁කථ	-9.59277
ඛ්	-9.59296
▁මිත්	-9.59503
තසම	-9.59504
ගී	-9.59521
ඩො	-9.59598
නී	-9.59599
▁නිය්	-9.59798
ාදීනි	-9.59894
▁ගොතම	-9.59908
භන	-9.60087
අහං	-9.60215
ථිප	-9.60224
ඛුනී	-9.60274
▁යථාවු	-9.60364
▁විපාක	-9.60371
තීනං	-9.60629
තාන	-9.60652
ධියා	-9.60743
▁රූපානං	-9.60773
පද	-9.60985
▁වික්	-9.61113
ගලා	-9.61176
ඛණා	-9.61214
▁කෙනචි	-9.61316
▁අරහ	-9.61604
ඡෙය	-9.61706
▁අනුත්	-9.61921
▁තතියං	-9.61925
ානීති	-9.61979
▁දෙවතා	-9.61979
පටිසම	-9.61982
▁කර	-9.61997
යෙන	-9.62051
▁කුක්	-9.62234
සිතං	-9.62262
▁සුක්	-9.6254
▁නනු	-9.62734
මී	-9.62745
▁තෙනෙව	-9.62801
▁අකුසල	-9.63064
▁ලොකො	-9.63135
ඉ	-9.63541
▁තථෙව	-9.63683
▁දෙසනා	-9.6375
▁එතෙන	-9.63865
▁සොතාපත	-9.63987
▁කති	-9.64141
රූප	-9.64159
▁මහග	-9.64571
තිපි	-9.64597
ථෙරස	-9.65013
තික	-9.65133
ලා	-9.65176
ථෙරො	-9.65409
▁තීසු	-9.65413
බල	-9.65527
▁තද	-9.65591
පටිප	-9.65684
▁ඉද	-9.65686
සිතා	-9.66029
ජාය	-9.66141
▁භාවෙති	-9.66182
ඡිම	-9.6628
භෙ	-9.66493
කොති	-9.66507
▁ලභති	-9.66666
භව	-9.66806
▁කෙන	-9.66991
උ	-9.67029
▁භවෙය	-9.67141
ඨති	-9.67449
▁කායෙන	-9.67476
▁පරිබ්	-9.67505
▁ධාතු	-9.67541
▁ජිව	-9.67592
’’’	-9.67708
සිතො	-9.67816
▁ඨානෙ	-9.67953
ඡාදි	-9.68067
▁උපාදි	-9.68164
▁ආචි	-9.68407
දක	-9.68572
වීහි	-9.68861
▁අවි	-9.68862
ඛාතං	-9.69252
▁වග්	-9.69281
▁චපරං	-9.6955
▁චතූසු	-9.69594
▁නහෙතුප	-9.69833
▁මුච	-9.69901
▁ඣාන	-9.70164
තනයෙනෙව	-9.70214
▁වාචාය	-9.70388
▁උදකං	-9.70667
▁සමාපත්	-9.70767
ලඞ	-9.70788
චාපි	-9.70849
කුච	-9.7087
ඉදං	-9.7091
ගලස	-9.70981
ඛායතනං	-9.71002
රො	-9.7101
▁ඡබ්	-9.71027
සප්	-9.71229
කර	-9.71391
▁භාවනාය	-9.71607
බහුලා	-9.71622
▁පාඨො	-9.71665
▁කොට්	-9.71914
▁ථුල	-9.71919
බජිත	-9.71937
▁මූල	-9.71984
සීති	-9.72016
▁පටිපදා	-9.72153
තපච	-9.72164
ඝෙ	-9.72194
කට	-9.72235
කට්	-9.72279
▁පරිපු	-9.72494
බජ	-9.72673
▁එකෙන	-9.72767
▁බොජ	-9.72801
රියෙ	-9.72862
▁ඵොට	-9.72883
සනාය	-9.72913
▁මරණා	-9.72976
පුණ්	-9.73193
චානි	-9.73215
▁ආසි	-9.73225
▁කතමා	-9.73248
ුණ්	-9.73439
▁රාගො	-9.73561
▁කෙවලං	-9.7359
ගසම	-9.7379
▁සාර	-9.73901
▁කථෙසි	-9.74028
සම	-9.74122
▁අකුසලං	-9.74173
▁අපි	-9.74185
▁එකතො	-9.74416
▁සං	-9.74489
ආ	-9.7453
ධෙහි	-9.7461
රත්	-9.74651
ඛෙත්	-9.74659
පදං	-9.75009
ගත	-9.75012
▁ඛිප	-9.75139
බෙපි	-9.75291
අප්	-9.75397
ලබ්	-9.75446
රන්	-9.75538
ඡත්	-9.7554
චයෙ	-9.75728
▁කං	-9.75812
▁ඛුද	-9.75826
▁අධිපතිප	-9.75829
▁පීති	-9.75939
▁බහූ	-9.76142
▁මනින	-9.76253
▁රූපස	-9.76272
කවිචාර	-9.76389
රා	-9.76642
▁අරහතො	-9.76667
▁වදාමි	-9.76933
▁ගොත්	-9.76968
▁සුප්	-9.77295
▁ජීවිති	-9.77311
කවත	-9.77412
ඛෙපො	-9.77456
ඨකථායං	-9.77505
ෙත්	-9.77621
දී	-9.77753
කරො	-9.77796
▁දළ	-9.77805
▁ගම්	-9.77825
මානි	-9.77829
තකානං	-9.78032
ධිප්	-9.78065
ඛෙප	-9.7807
සමාපත්	-9.78091
දෙසෙ	-9.78116
▁යථාහ	-9.78199
▁මුනි	-9.78209
යාකත	-9.78221
▁අකත	-9.786
▁කාලං	-9.78618
යාකතං	-9.78623
ගු	-9.78709
▁ඉමෙසං	-9.78755
▁පුරෙ	-9.78769
▁විසුං	-9.78785
වාදස	-9.78845
බොති	-9.78953
▁පුරෙජාත	-9.79054
රක්	-9.79071
▁ගාම	-9.79093
ඡෙද	-9.79121
▁පරිසු	-9.79125
▁දෙ	-9.7915
▁බහි	-9.79276
වීසු	-9.79312
තාවතා	-9.79322
සූ	-9.79339
තස	-9.7942
තක්	-9.7948
බෙන	-9.79486
▁දොසො	-9.795
පාදක	-9.79508
▁දෙවා	-9.79621
ඡං	-9.79709
ථාපි	-9.7976
▁පුරිස	-9.7977
▁සුතං	-9.79965
▁පණමාම	-9.80381
▁ආවජ	-9.80497
▁යදිදං	-9.80591
නු	-9.80681
භූත	-9.80707
පාදෙ	-9.80815
ඵල	-9.81178
▁විපාකො	-9.81316
සෙසු	-9.81585
බතො	-9.816
යහං	-9.81697
▁ජෙ	-9.81802
තෙති	-9.81845
තාරම	-9.81968
තනි	-9.82041
ඝෙන	-9.82225
▁පාළියං	-9.82265
▁මොහො	-9.82385
▁දිසා	-9.82423
ඤෙව	-9.82466
▁ගොතමො	-9.82568
▁සතිපට	-9.82651
කරණ	-9.82697
▁ඛණ	-9.82988
▁අභාසි	-9.83034
පටිඝො	-9.83117
දන	-9.83224
▁අභින	-9.83244
▁පවි	-9.83289
ඣාන	-9.83566
▁චර	-9.83617
▁වින	-9.83634
▁පදං	-9.83754
▁අභිස	-9.83762
ගතිං	-9.84108
චයං	-9.84398
▁පකත	-9.84426
▁ලොකං	-9.84473
මාන	-9.84522
පටිඝං	-9.84566
මදෙසනං	-9.8457
ගතං	-9.84571
▁තයා	-9.84576
▁උදක	-9.84599
නාය	-9.84607
ගහිත	-9.8463
ඡතීති	-9.8464
▁අප	-9.84656
▁අවසෙසා	-9.84756
භාවෙ	-9.8485
ඡාමි	-9.84873
▁කාරණ	-9.85225
▁දාන	-9.8531
▁අරියස	-9.85351
▁චෙත්	-9.85369
කමො	-9.85453
▁සදා	-9.85491
ජු	-9.85502
ගල්	-9.86068
තකො	-9.8608
▁සරණං	-9.86128
▁චීවර	-9.86171
▁ඔක	-9.86183
මුඛා	-9.86214
මහා	-9.86271
▁භෙදා	-9.86304
රිත්	-9.87173
▁අහෙසුං	-9.87182
ණෙන	-9.87471
▁ගබ්	-9.87547
▁ඝාන	-9.8764
රූපං	-9.87702
චු	-9.87962
▁භවං	-9.87985
▁කායො	-9.88003
▁පප	-9.88035
▁නිර	-9.88057
ගහණ	-9.8813
සීල	-9.88265
කථං	-9.88289
පාදො	-9.8834
▁අහු	-9.88356
▁මාතා	-9.8838
චුපට	-9.88426
ගක්	-9.88473
▁තුණ	-9.88509
▁සෙස	-9.88584
▁ගරුං	-9.88605
ධනං	-9.88659
මතා	-9.88659
සිත්	-9.88664
▁චතුබ්	-9.88762
▁පරිග	-9.88775
වාව	-9.88855
ඛිණ	-9.89178
තෙපි	-9.89331
▁මනසි	-9.89431
▁අදාසි	-9.89493
▁පුනප	-9.89517
රෙය්	-9.89641
ෙනෙව	-9.8969
▁සහජාතප	-9.8973
බොජ	-9.90138
රියානි	-9.90211
▁සහස	-9.90271
ඨාසි	-9.90309
▁තාසං	-9.90434
නිවත්	-9.90723
▁උම	-9.90823
▁එකාදස	-9.91074
ටං	-9.91105
▁තථාගතස	-9.91169
කාරං	-9.91209
භං	-9.91236
ගලං	-9.91356
ණත්	-9.91535
▁කුම	-9.91596
▁සාසන	-9.91793
ඡයො	-9.91797
▁අනිද	-9.9196
▁තිර	-9.92245
ගප	-9.9226
පුනං	-9.92264
▁ජාතො	-9.92312
▁රූපක්	-9.92397
තුප්	-9.92458
▁ගමිස	-9.92867
යානං	-9.931
මචරියං	-9.93203
▁පුණ	-9.93258
කමති	-9.93259
සිත	-9.93276
▁නෙසං	-9.93488
ධාන	-9.93544
▁යෙසං	-9.93558
තුකාමො	-9.93592
▁කථා	-9.93665
▁දෙවදත	-9.93872
ඉධ	-9.93952
▁පරෙ	-9.93963
▁අසක්	-9.94051
▁විනය	-9.94065
▁අභිධම	-9.94077
▁සාසනෙ	-9.94284
භූතා	-9.94289
ඤින	-9.94295
▁නඅ	-9.9435
▁උය	-9.94438
ඤති	-9.94677
යි	-9.94758
▁දානි	-9.94935
▁සමණො	-9.94945
▁කිලෙස	-9.9499
කිණ්	-9.95095
▁වෙදනාක	-9.95152
හෙතං	-9.95169
▁උපාදාය	-9.95211
කු	-9.9532
නාම	-9.95557
▁යුජ	-9.9579
වචනං	-9.95803
▁ආදාය	-9.95827
සෙහි	-9.9611
▁පරිවත්	-9.96172
තමො	-9.96424
සිස්	-9.96482
මිත්	-9.9653
▁පරෙසං	-9.96559
ගම්	-9.96793
ලෙ	-9.97073
▁අකුසලො	-9.97122
ජෙන	-9.97128
▁පිතා	-9.9717
වු	-9.97275
තිය	-9.97412
භූතං	-9.9745
▁ආක	-9.97653
▁විසෙසො	-9.97714
තසඞ	-9.97783
▁උපග	-9.97818
තතාය	-9.97843
ොති	-9.97881
ඩිත	-9.97948
ඡො	-9.98103
ූපනිස	-9.98143
අන	-9.98228
▁උදපාදි	-9.9838
▁අපර	-9.98417
▁ගො	-9.98432
ඤතරො	-9.98438
▁ජීවිතං	-9.98469
කථ	-9.98473
මණස	-9.98658
▁වීරියං	-9.98694
▁සොතාප	-9.98695
පනා	-9.98727
▁පරමත	-9.98779
පරියාපන	-9.98884
▁සරීර	-9.98964
රාජා	-9.98981
▁පුරිසි	-9.9906
▁ඡත්	-9.99143
කමං	-9.99272
▁සොළස	-9.99332
▁ඝට	-9.99389
ඨිත	-9.99402
▁පුරිමා	-9.99493
ඤසත	-9.99764
හෙහි	-9.99815
ඉති	-9.99822
පෙත්	-9.99868
ධින්	-9.99889
▁ආරොචෙසුං	-9.99923
සචි	-10.0005
ගුත්	-10.0008
▁විමොක	-10.0011
▁සෙ	-10.0013
ඛී	-10.0017
ධාතු	-10.0024
චසමු	-10.0026
▁නාග	-10.003
ඛෙන	-10.0033
▁එසා	-10.0039
▁අරහා	-10.0042
▁අකාසි	-10.0047
▁පාළි	-10.0047
ඛණො	-10.0052
▁කටත	-10.0053
මනුස	-10.0062
▁දොස	-10.0066
තතා	-10.0087
රු	-10.0089
▁යු	-10.0092
ගම	-10.0094
▁පරිජානාති	-10.011
▁තුය	-10.012
▁නභාවනාය	-10.0122
▁පල	-10.0124
මානො	-10.0131
▁චෙතසා	-10.0135
▁බොධි	-10.0136
ජාති	-10.0137
තමෙ	-10.0138
ඤාණස	-10.0147
▁සමානො	-10.0156
විභත්	-10.0168
▁සමුද්	-10.0183
▁කෙවල	-10.0243
▁මහාසත	-10.0256
තොව	-10.026
▁පුරිම	-10.0263
ඨස	-10.0265
▁එ	-10.0277
▁එසො	-10.0277
ඩෙ	-10.0284
විනි	-10.0302
ඨහි	-10.0313
▁භිය	-10.0316
ජාතකං	-10.0318
මීති	-10.0322
ඩිතා	-10.0326
▁ආගතො	-10.0327
▁කාරණෙන	-10.034
▁භාවනා	-10.0341
ඤානි	-10.035
▁තික	-10.0372
ජාතක	-10.0374
ඨානානං	-10.0375
▁පිය	-10.0383
▁විභ	-10.039
ඨකථාය	-10.0401
ථචි	-10.0413
▁ජීවිත	-10.0422
ඡාජාතෙ	-10.0453
ගය	-10.0464
▁භවති	-10.047
වාපි	-10.0497
ටතීති	-10.0502
තනයෙන	-10.0505
ගහණෙන	-10.0517
▁පුර	-10.0541
▁භවි	-10.055
ඩාය	-10.0583
▁ආහරිත	-10.0595
▁ජෙතවනෙ	-10.0604
කතො	-10.0608
යාදි	-10.0612
සචෙ	-10.0614
▁එකත්	-10.063
එක	-10.0657
▁ඉදම	-10.0658
ගුණ	-10.0677
▁හන	-10.0689
භවො	-10.069
ඤාත	-10.0716
ගහං	-10.0723
▁කායෙ	-10.0734
ඡෙ	-10.0737
▁ආසවා	-10.0739
▁ජානිත	-10.0739
පන	-10.0745
▁ධාතූහි	-10.0746
▁අපිච	-10.0752
තමග්	-10.0755
ුල්	-10.0759
▁නඅධිපතියා	-10.076
▁රූපායතනං	-10.0768
පිය	-10.0785
▁උභො	-10.0788
ඛුනියා	-10.079
එත	-10.0792
තරස	-10.0793
මද	-10.0796
ඛූහි	-10.0797
▁ගහිත	-10.0798
▁මනසා	-10.0813
රාජ	-10.0813
▁දෙවමනු	-10.0813
▁රතන	-10.0817
▁රස	-10.0817
▁ලොකිය	-10.0831
▁සමනුප	-10.0833
▁දුතියො	-10.085
තය	-10.086
පස	-10.0866
▁පවිසිත	-10.0874
▁11.	-10.0935
▁වෙස්	-10.0943
ධප	-10.0951
▁ථෙරස	-10.0953
කානි	-10.0955
ගහිතං	-10.0964
▁භාස	-10.0974
ඛුනියො	-10.0975
තිංස	-10.0976
▁දා	-10.0985
කානං	-10.0988
▁කායං	-10.0997
▁මොහ	-10.1004
▁බහුං	-10.1013
ජනො	-10.1015
▁ඨිතා	-10.1021
▁වචනතො	-10.1028
සනඅප	-10.1046
දාන	-10.1065
▁එවමාහ	-10.1066
වසෙනෙව	-10.107
▁තතිය	-10.1079
ඤි	-10.1081
භූතො	-10.1087
▁වාචා	-10.109
▁ධන	-10.109
ගහණං	-10.1125
▁කායවි	-10.1126
පටික	-10.1128
▁තෙරස	-10.1132
▁පරිස	-10.1138
▁අභිජ	-10.1139
ඨාරස	-10.1143
▁මුඛ	-10.1159
▁වර	-10.116
ජතී	-10.1164
ඤථා	-10.1168
▁විවි	-10.1173
ඣාය	-10.1176
සල්	-10.1177
▁හොතු	-10.1179
වාරං	-10.1183
▁අභිසම	-10.1184
▁චවන	-10.1209
කමෙන	-10.1209
ධොති	-10.1209
▁මුඤ	-10.1222
▁තමෙව	-10.1224
ඨානො	-10.1225
▁අහ	-10.1236
▁දීපෙති	-10.1238
කිත්	-10.1253
▁හෙතූ	-10.1255
▁පරො	-10.1268
▁අතීතං	-10.1271
යාණ	-10.1274
ධී	-10.1312
▁සතො	-10.1316
▁පජහති	-10.1318
▁පකති	-10.1326
▁කරිත	-10.134
▁එවරූපං	-10.1357
නාති	-10.1361
ඤතරං	-10.137
▁භෙසජ	-10.1373
▁සුවි	-10.1385
පමාණ	-10.139
ුම්	-10.1393
▁නෙක	-10.1402
▁ඛෙත්	-10.1406
සාමා	-10.1411
▁යෙභුය	-10.144
▁නොවිගතෙ	-10.1456
▁ධනං	-10.1459
▁මහාභූතෙ	-10.1466
▁ජාතා	-10.1468
සනෙ	-10.147
▁උපපත්	-10.1479
▁හෙතුං	-10.148
▁නාමාති	-10.1484
තූ	-10.1484
මම	-10.1485
තන	-10.1487
පරිච	-10.1544
▁භාවෙ	-10.155
▁සමුදයස	-10.1566
▁දක	-10.1573
▁සමාන	-10.1574
පුරිසො	-10.158
▁සමයං	-10.1586
▁පුරතො	-10.1589
ඤායති	-10.1594
▁ඔලොකෙ	-10.1604
▁ගාථායො	-10.1614
විධා	-10.1631
ඡිතබ	-10.164
පුරිස	-10.1651
ජෙත	-10.1658
▁භාවො	-10.1683
පෙතං	-10.1692
▁අතීත	-10.1697
සර	-10.1707
▁ගුණ	-10.172
▁දීප	-10.1734
▁ආගත	-10.1734
රි	-10.1748
▁චාපි	-10.1753
උපනිස	-10.1756
සුං	-10.176
▁නිසීදිත	-10.1767
▁සොපි	-10.177
▁කරොතීති	-10.1773
▁මනොවි	-10.1788
▁භයං	-10.1813
බු	-10.1822
▁විදිත	-10.1822
ඤපෙ	-10.1824
▁ධාරෙ	-10.183
▁එවමෙත	-10.1842
▁අවික	-10.1851
බායි	-10.1851
▁විවට	-10.1856
▁තදෙව	-10.1858
චන	-10.1859
ඤතො	-10.1863
▁ධාතුයො	-10.1865
ථාරං	-10.1884
ධු	-10.1895
බාති	-10.1899
▁රාග	-10.1912
තකෙ	-10.1929
▁ආස	-10.196
කතා	-10.1961
▁ආහාරෙ	-10.1966
භණ	-10.1969
▁බල	-10.197
▁නෙ	-10.1975
පජානො	-10.1991
ගමා	-10.2017
▁කාමරාගානුසයො	-10.2018
▁නෙත්	-10.2023
ාදිවසෙන	-10.2025
▁කුතො	-10.2025
▁අරියසාවකො	-10.2035
▁12.	-10.2035
නචිත්	-10.2041
පටිපත්	-10.2051
ූප	-10.2052
▁පාදෙ	-10.2052
ඛාරෙ	-10.2055
▁අභිවාදෙත	-10.206
තතීති	-10.2062
ඡානුසය	-10.2069
▁ගරු	-10.2076
ගියං	-10.2079
පටිග	-10.2087
කුසලං	-10.2091
ඣානෙ	-10.2105
ථෙරගාථා	-10.2112
▁අපු	-10.2128
▁සුත	-10.2136
▁කාමෙසු	-10.2142
▁චෙතො	-10.2145
විතක	-10.2149
▁සුදං	-10.2156
ණි	-10.2167
ෙති	-10.2175
විපාක	-10.2179
▁යානි	-10.2195
▁පථවී	-10.2198
මක්	-10.2203
▁සෙනාසනං	-10.221
සතසහ	-10.2212
කල්	-10.2222
ඣානං	-10.2226
සරො	-10.2228
▁විහාරං	-10.2233
▁ධ	-10.2258
චෙතනා	-10.2266
මිංයෙව	-10.2282
පමාණං	-10.2283
ගබ්	-10.2284
▁ගතා	-10.2287
තදා	-10.2288
ථියො	-10.2293
▁පටිවිරතො	-10.2302
▁සුඛාය	-10.2309
▁නෙවස	-10.2316
ටෙ	-10.2318
ඩා	-10.2343
ඛානං	-10.2356
කරණං	-10.2359
▁නගරං	-10.2368
ඨහිත	-10.2372
ජනෙ	-10.2375
චමං	-10.2376
▁එතරහි	-10.2377
▁සෙක	-10.2386
සමු	-10.2387
▁ඨිතං	-10.2394
ගියා	-10.2397
ධෙසු	-10.2413
අවිගතන	-10.2421
සූති	-10.244
නානි	-10.2446
▁විපාකං	-10.2449
දනං	-10.2449
▁ඨාන	-10.2455
නෙසු	-10.2457
▁සර	-10.2464
භූ	-10.2465
▁විසෙස	-10.2472
▁අසෙ	-10.2474
කිලෙසා	-10.2474
වචි	-10.2482
▁නිමන	-10.2483
▁ජාත	-10.2483
ගමො	-10.2484
▁ජනා	-10.2487
▁පඨමො	-10.2487
▁කිරියා	-10.2492
පටිස	-10.2506
නොති	-10.2508
මායතනං	-10.251
චතීති	-10.253
▁භූමි	-10.2538
ථානං	-10.2569
▁13	-10.2588
▁පටිඝානුසයො	-10.2591
▁පනෙතං	-10.2591
▁සාරම	-10.2597
▁මණි	-10.2599
ඩි	-10.26
▁ඉධෙකච	-10.2603
▁කතා	-10.2608
තාව	-10.2628
කෙසු	-10.2649
▁පටිවිජ	-10.2668
▁කිලෙසා	-10.2689
▁කාමරාගානුසය	-10.2693
▁වචීස	-10.2694
▁දුතියෙ	-10.2696
ඵලං	-10.2706
▁පාපං	-10.2707
දිස	-10.2712
▁කාමෙ	-10.2721
ඛාතා	-10.2724
▁දීඝ	-10.2727
▁බාල	-10.2727
▁අජානන	-10.273
තිකො	-10.2734
▁නආසෙවනෙ	-10.2739
ිකා	-10.2739
▁ආයතිං	-10.2747
මයං	-10.2749
▁විහාරෙ	-10.275
▁එතෙසං	-10.2779
▁අධිග	-10.2788
ඣං	-10.2788
▁ආකි	-10.2796
▁මරණ	-10.28
▁නපුරෙජාතෙ	-10.2806
▁අනෙක	-10.2816
▁සුභ	-10.2831
▁දෙවානං	-10.2834
▁වෙදනං	-10.2836
▁ඵුට	-10.2838
▁අවත්	-10.2842
කුල	-10.2855
▁ආගතා	-10.2871
▁යක	-10.2872
සහජාත	-10.2878
▁පා	-10.2884
සුක්	-10.2906
ඨකථා	-10.293
පල	-10.2932
▁පුරිසස	-10.2935
▁අනුග	-10.2936
▁කෙස	-10.2942
▁අසන්	-10.2951
▁පාපුණි	-10.2959
ජමානා	-10.2964
▁ගාථාය	-10.2969
▁රෙ	-10.297
සප	-10.2973
▁අධිපතියා	-10.2981
කඩ්	-10.2984
අස්	-10.2987
▁ජාන	-10.2989
රස්	-10.299
▁මහාප	-10.2991
▁බුජ	-10.2994
ඛර	-10.2994
ජිතුං	-10.3037
මූල	-10.3037
▁කතො	-10.3038
තසංස	-10.304
වචන	-10.3042
ඤාතං	-10.3046
▁සුචි	-10.3067
බජිතො	-10.3067
▁අනුපසම	-10.3069
ඡාය	-10.3076
▁ඵුස	-10.309
▁මහි	-10.309
▁සභාව	-10.3096
ඡතො	-10.3112
සරණ	-10.3118
▁පකාසෙන	-10.3128
▁නවිපාකෙ	-10.3132
සනිද	-10.3138
▁කුල	-10.3141
▁කාරෙ	-10.3145
නෙව	-10.3145
▁කාලෙන	-10.3147
▁අයමෙව	-10.3149
▁චතුස	-10.316
▁චෙතසො	-10.3168
වය	-10.3169
▁ජිනො	-10.3176
ථාරෙන	-10.3184
▁යම	-10.3198
▁අඩ	-10.32
දර	-10.3229
ඛාතො	-10.323
විමොක	-10.323
▁කතෙ	-10.3234
ගණ	-10.3234
යම්	-10.3242
චෙකබ	-10.3243
▁සමි	-10.3244
ගහෙ	-10.3246
▁රාජානං	-10.3256
ඛුද්	-10.3259
▁උපාලි	-10.3259
යථිදං	-10.3279
▁භය	-10.3281
තවි	-10.3295
තාපි	-10.3296
▁පොක	-10.3299
යෙවාති	-10.3306
1.	-10.3309
චනීයං	-10.331
සාධු	-10.3315
භාර	-10.3322
▁ආකාසෙ	-10.3323
වායං	-10.3329
බෙව	-10.3332
▁ඨපෙ	-10.3338
චෙන	-10.3347
ල්	-10.3352
ඣතීති	-10.3356
▁කාමා	-10.3361
▁නානත	-10.3361
ඨමං	-10.3366
▁පව	-10.3368
ලොකුත	-10.3371
▁පවු	-10.3371
▁සංකිලි	-10.3377
▁ජි	-10.3382
▁ආයු	-10.3387
ඛිතා	-10.3394
▁නාභිජානාමි	-10.34
ඨෙව	-10.3407
▁ආසවානං	-10.3409
ඛාත	-10.341
භබ්	-10.3411
ගානං	-10.3413
▁සනිද	-10.3436
ඤාණධාතු	-10.3438
▁පාද	-10.3442
ධිත්	-10.3445
ථිං	-10.3457
කප	-10.3465
▁දුප	-10.3473
මචරිය	-10.3473
▁ඤාණෙන	-10.3479
ගමග	-10.348
ඛිණං	-10.3487
▁දිවසෙ	-10.3495
කොට්	-10.3496
▁කාරෙත	-10.3499
කරං	-10.3505
▁තතියො	-10.3511
▁අනුසයා	-10.3515
ඤාස	-10.3522
▁අභික	-10.3528
තිආදීනි	-10.3544
යානි	-10.3546
▁මු	-10.3547
▁13.	-10.356
ු	-10.3563
ඛත	-10.3566
▁පටිනිස	-10.3575
▁එතදහොසි	-10.3579
▁වචන	-10.3594
ඔ	-10.361
▁අධිවචනං	-10.3615
▁අභාවතො	-10.3615
▁ඔත්	-10.3617
▁මාන	-10.3628
ිංසු	-10.364
▁චිර	-10.3645
▁තබ්	-10.3645
▁අයමෙත	-10.365
▁ජන	-10.3652
▁වස	-10.3663
ඡිතො	-10.3667
යාම	-10.3669
බෙසු	-10.3682
රී	-10.3694
සුඛ	-10.3717
▁පධාන	-10.3721
▁තක්	-10.3724
කෙහි	-10.373
▁ඨානෙසු	-10.3733
ටතී	-10.3746
ටො	-10.3756
ඛතා	-10.3757
මාහ	-10.3762
ඛමිත	-10.3784
▁ජාතියා	-10.3786
ඡිමානං	-10.3804
ඨක	-10.3821
වසෙනාති	-10.3828
▁පිතු	-10.3828
නාගතං	-10.3845
භෙද	-10.385
ඨානි	-10.3854
▁ජරා	-10.3858
යාසි	-10.386
▁ජාතං	-10.3869
▁නසම	-10.387
▁බාලො	-10.3881
ඛාරක	-10.3882
▁අරියා	-10.3892
සුතො	-10.3893
▁මනායතනං	-10.3898
ලාන	-10.3898
තීහි	-10.3902
ඨී	-10.3904
තීසු	-10.3921
▁14.	-10.3923
ජමානො	-10.3933
තනං	-10.3938
▁වසි	-10.3939
▁අලං	-10.3939
ඤානං	-10.3944
▁ජාතකං	-10.3944
ථෙසු	-10.3948
▁පහීනා	-10.3949
පට්	-10.3957
▁ආහාර	-10.3957
ඤෙහි	-10.3966
▁භාසති	-10.3971
▁අනවජ	-10.3972
රුප්	-10.3982
▁උභි	-10.3984
ඡරියං	-10.3985
ඨානාන	-10.3986
▁සක	-10.3988
▁පාපුණාති	-10.3992
ඡිකත	-10.3998
▁චරති	-10.4025
▁විමු	-10.4028
භවං	-10.4033
▁සංවිජ	-10.4051
▁වීසති	-10.407
ණානි	-10.4072
▁චතුර	-10.4073
▁නඅන	-10.4074
▁පනා	-10.4077
▁මරණං	-10.4091
ධික	-10.4099
ඨානතො	-10.4113
▁හී	-10.4114
▁නීල	-10.4117
ඛමානො	-10.4121
බහෙතුකො	-10.4156
සංයුත	-10.4158
දුබ්	-10.4159
ෙහීති	-10.4166
▁පහීනො	-10.4177
අථ	-10.4179
▁ආගම	-10.4181
සිදං	-10.4192
භූමි	-10.4195
▁භොජනං	-10.4199
▁බහුස	-10.4208
▁යොනිසො	-10.4212
කුණ	-10.4212
කාරා	-10.4213
ජානුසය	-10.4225
අනුජානාමි	-10.4229
▁මාතු	-10.4235
ුන්	-10.4245
▁දිවා	-10.4247
ගිකො	-10.4262
කුසල	-10.427
චරිතං	-10.4284
පියං	-10.4295
ඉමෙ	-10.4295
ණක	-10.4304
චතු	-10.4304
2.	-10.4308
ජී	-10.4319
ආදි	-10.432
තසහස	-10.4321
5.	-10.4328
ගතෙ	-10.4334
ඤානා	-10.4334
මනි	-10.4347
▁චූළ	-10.4362
සෙතං	-10.4373
▁ගාමං	-10.4384
ඛාරං	-10.4388
▁සරීරං	-10.4389
▁නිරුත්	-10.4391
▁කදාචි	-10.4405
▁චෙතං	-10.441
ථිකා	-10.4413
තෙව	-10.442
මණාධිපති	-10.4422
▁වෙදනාසු	-10.4427
▁බද	-10.4432
චතී	-10.4433
▁පඨමෙ	-10.4434
▁තහිං	-10.4442
ථමෙව	-10.4448
▁නදී	-10.446
ගලානං	-10.448
▁අතිවිය	-10.4487
▁අනාථප	-10.449
▁නාමා	-10.449
හති	-10.4497
▁භාවෙත	-10.4499
චසු	-10.4499
▁ආසන	-10.4513
▁පුට	-10.452
▁කාලො	-10.452
මුනා	-10.4547
ථින්	-10.4549
ඛතං	-10.455
▁විපාකෙ	-10.4552
පාදෙති	-10.4558
ගති	-10.4558
▁15	-10.457
බතං	-10.4574
ජානි	-10.4575
▁සිද	-10.4576
අබ්	-10.4583
පහීනො	-10.4584
නරස	-10.4593
▁රූපානි	-10.4603
▁16.	-10.4605
▁සහජාතං	-10.4619
▁ඉතරෙසං	-10.4623
▁සමුදයො	-10.4625
▁භුම්	-10.4628
▁ආහාරො	-10.4629
▁හිමව	-10.4629
ඨහන	-10.4638
▁මානානුසයො	-10.4639
කාලො	-10.464
▁කතිහි	-10.4645
තරස්	-10.4657
▁කිලෙසෙ	-10.4657
▁භරියා	-10.466
▁උදය	-10.466
අජ	-10.4669
▁දෙසෙති	-10.4675
සදිසං	-10.4683
▁අසංකිලි	-10.4685
මූළ	-10.4685
ඨපෙත	-10.4686
▁සයමෙව	-10.4687
▁රූපෙ	-10.4695
ඤිනො	-10.4695
▁වාචං	-10.4698
▁දසමං	-10.4698
▁14	-10.4701
පකාර	-10.4701
ථාරතො	-10.471
▁සතිසම	-10.472
ථානි	-10.4727
ඛිතො	-10.4731
▁තුවං	-10.4732
▁භාව	-10.4736
ථූනි	-10.4738
සුඛං	-10.4742
තභාවං	-10.4744
ිං	-10.475
▁කාමෙහි	-10.4759
▁කාමධාතුයා	-10.4765
රියප	-10.4765
ඨාපෙත	-10.4768
▁එතෙනාති	-10.4774
▁සෙසා	-10.4774
▁පහානාය	-10.4776
▁පඨමජ	-10.478
ඛප	-10.478
ථුනො	-10.4782
▁ගාථං	-10.4783
▁ලුද්	-10.479
ඡසි	-10.4797
▁15.	-10.4801
▁නවමං	-10.481
ඨපරම	-10.4811
7.	-10.4812
හිත්	-10.4813
▁විහාර	-10.4835
තව	-10.484
▁කෙ	-10.4841
▁ඵ	-10.485
▁බි	-10.4853
▁නිරොධ	-10.4863
▁දෙවපු	-10.4867
ජනස	-10.487
▁නාගසෙන	-10.4871
▁අධිමු	-10.4872
දෙසං	-10.4875
ඡාජාතප	-10.4876
පර	-10.4885
▁ආවි	-10.4889
කමෙ	-10.4895
▁අනාගාමි	-10.4898
▁ඉමාය	-10.4906
▁එවමාදිනා	-10.4907
තානමෙව	-10.4914
▁වන	-10.4917
▁කතමානි	-10.4918
▁අගමාසි	-10.4919
▁සයම	-10.4919
වො	-10.493
ඩල	-10.4935
ගෙසු	-10.4936
කාරෙ	-10.4944
▁භවො	-10.4946
සිනො	-10.4947
▁ඉමෙසු	-10.4956
ජිතා	-10.4959
යමෙව	-10.4964
තෙනෙව	-10.4968
අනි	-10.4971
▁ලභිත	-10.498
▁මුඛං	-10.4991
▁විග	-10.4991
පටිසංයුත	-10.5011
කිරියා	-10.5034
▁ධුත	-10.5035
6.	-10.504
▁අහමෙව	-10.5042
සරණං	-10.5042
පාදෙත	-10.5044
තමසො	-10.505
ණනාය	-10.5053
ඤු	-10.5053
දෙව	-10.5062
කාරෙන	-10.5075
▁සුඛා	-10.5082
▁තාත	-10.5089
ඵං	-10.5094
විසෙස	-10.5095
ටා	-10.5097
▁පරතො	-10.511
තසු	-10.5116
▁නරො	-10.5116
▁කිත	-10.5119
වාරො	-10.512
▁සකල	-10.5124
තාහං	-10.5131
▁ආණත්	-10.5134
දාය	-10.5136
ඤෙපි	-10.5145
ඤතා	-10.5161
තාලීස	-10.5163
බලං	-10.517
▁ඉමි	-10.5177
ගමනං	-10.5178
හෙතුයා	-10.5185
▁පාරාජිකං	-10.5185
▁ආසව	-10.5196
ඝා	-10.5199
▁නසමන	-10.5203
ෙසූති	-10.5212
මනො	-10.5215
▁එකෙ	-10.5218
අම	-10.5226
විස	-10.523
▁ඝානායතනං	-10.5232
▁බලව	-10.5233
නවිපාක	-10.5239
පාදා	-10.524
ඤාණෙන	-10.5243
▁අරූප	-10.5244
▁රාජගහෙ	-10.5246
▁දෙවො	-10.5247
බලො	-10.5248
▁සහජාතා	-10.5258
ධර	-10.5262
▁දෙසෙ	-10.5264
බණ	-10.5268
යතො	-10.5272
▁කරණ	-10.5282
යාන	-10.5285
පටිබ	-10.5293
▁අපච	-10.5307
▁යාය	-10.5313
▁ඛණෙ	-10.5316
නික්	-10.5324
ඣි	-10.5326
▁වියාති	-10.5327
▁සෙසමෙත	-10.5332
▁නිරුද	-10.5342
මානු	-10.5345
▁මුදු	-10.5346
▁අවොච	-10.5347
▁යථාරහං	-10.5358
▁ගහිතා	-10.536
චානං	-10.5361
භාවා	-10.5373
තිසමු	-10.5374
▁එවාති	-10.5377
▁මුසා	-10.5378
මික	-10.5385
▁කුලෙ	-10.539
▁17.	-10.539
▁විභජිත	-10.5391
▁අරියො	-10.5393
▁මොග	-10.5395
▁රූපධාතුයා	-10.5395
▁නිරයං	-10.5411
▁පාපකම	-10.5413
▁සංඛි	-10.5418
මිව	-10.5431
ඤෙසං	-10.5433
ණස්	-10.5436
ථාරො	-10.5446
▁තිංස	-10.5446
ාදිකෙ	-10.5456
▁අපරියාප	-10.5457
අනු	-10.5462
සිං	-10.5467
ානී	-10.5468
▁පටිඝානුසය	-10.5468
ඛාමි	-10.5468
මජ	-10.5469
▁කෙහිචි	-10.5474
දග්	-10.5474
▁භාසිත	-10.5479
▁ආකාසාන	-10.5486
නාගතා	-10.549
▁පුථු	-10.5494
ඤාතාවින	-10.5499
▁අනුරු	-10.55
චයප	-10.5503
▁ලොභො	-10.5508
▁පටිල	-10.5512
▁සහජාතෙ	-10.5517
▁ජල	-10.5542
▁දුතියා	-10.5545
මුඛ	-10.5545
▁ආවට	-10.556
▁පයොගෙ	-10.5564
▁දෙවානමි	-10.5565
▁ඤාති	-10.5567
බසඞ	-10.5573
බුතො	-10.5575
▁කථිතං	-10.5578
▁නිරොධො	-10.5579
ානු	-10.5582
විජ	-10.5598
▁ඤාත	-10.56
▁එවමෙතං	-10.5602
▁එකාය	-10.5608
▁ඣානෙ	-10.561
තරන්	-10.5611
▁චු	-10.5614
▁ගණ	-10.5615
ථකෙ	-10.5616
දක්	-10.5619
රං	-10.5621
▁විහරාමි	-10.5627
▁දදෙය	-10.5635
ඡිමභවිකානං	-10.5643
තමා	-10.5644
▁තතියෙ	-10.5646
▁ජින	-10.5654
භෙදො	-10.5657
ගමන	-10.5659
වඩ	-10.567
▁කුච	-10.5676
▁19.	-10.5678
▁අපරභාගෙ	-10.5679
ාපදානං	-10.5679
▁අනාගත	-10.5687
චනීක	-10.569
▁උදකෙ	-10.5691
▁උදාහු	-10.5695
චතො	-10.5696
▁නානප	-10.5715
ඉමං	-10.5718
ඡානුසයො	-10.5721
බග	-10.5724
ධක	-10.5728
හාර	-10.5743
මචාරී	-10.5744
වී	-10.5752
නිග්	-10.5754
▁වාපි	-10.5757
පරිවත්	-10.5764
මණානං	-10.5765
බත	-10.577
භවතො	-10.5775
▁අනාර	-10.5775
▁කුලපු	-10.5777
▁බාහිරං	-10.5783
▁එතෙසු	-10.5788
මෙත්	-10.579
දිය	-10.5798
▁නෙවද	-10.5799
භු	-10.5802
▁18.	-10.5803
චික	-10.5807
▁ලභි	-10.5818
ටක	-10.5821
ඛසච	-10.5821
ගලෙ	-10.5831
▁චරිත්	-10.5831
භතීති	-10.5836
▁මල්	-10.5836
▁අපරි	-10.5837
ඤතරස	-10.5839
ඉත්	-10.5842
ඩු	-10.5849
▁දූරෙ	-10.585
සාර	-10.5851
තවසෙන	-10.5853
ඨානෙන	-10.5866
▁භාවිතා	-10.5876
▁හදය	-10.5877
තයං	-10.588
▁අරූපධාතුයා	-10.589
▁අභිනි	-10.5893
▁ඛග	-10.5899
මස	-10.5903
ධබ්	-10.591
අභි	-10.5915
සාව	-10.5919
හන	-10.5925
ඨානානි	-10.5927
▁විචර	-10.593
▁ජායති	-10.5938
▁පාරාජික	-10.5938
කිලෙස	-10.594
ගොත්	-10.5945
▁ගහණං	-10.5945
▁උභය	-10.5947
4.	-10.5947
ඡු	-10.5949
▁ආහාරප	-10.5952
ාදිනා	-10.5953
▁මහාසමුද	-10.596
▁ලභ	-10.5962
ඛක්	-10.5967
පනං	-10.5971
▁ආහරි	-10.5989
▁උපොසථ	-10.5993
සමත්	-10.5994
පහාන	-10.6
යමානො	-10.6012
ඨසමු	-10.6018
▁අධො	-10.602
ීති	-10.6022
ජප්	-10.6022
භවෙ	-10.6038
මානා	-10.6042
ගාම	-10.6047
මුද්	-10.6062
▁20.	-10.6063
සීලො	-10.6066
දකො	-10.6067
ථකං	-10.6068
ඤතර	-10.6072
ථෙරඅපදානං	-10.6078
තානීති	-10.608
▁අතීතෙ	-10.6093
දායක	-10.6097
▁තදත	-10.6108
▁උපාදාන	-10.6111
▁21.	-10.6114
මයා	-10.612
▁දුල	-10.6121
නතො	-10.6122
ඛය	-10.613
ගිං	-10.6133
▁රු	-10.6134
▁අරහං	-10.6137
තොයෙව	-10.6138
▁කරුණා	-10.6142
ගාහො	-10.6154
ගාය	-10.6154
ඛාපදෙ	-10.6156
▁ජානාමි	-10.6165
3.	-10.6167
රවි	-10.6167
▁ගහ	-10.617
▁ථිනම	-10.6175
▁වනෙ	-10.618
රියානං	-10.6181
සදිසො	-10.6191
ාදීන	-10.62
නයො	-10.62
▁23.	-10.6207
බෙහි	-10.6225
▁අභාසිත	-10.6228
දසං	-10.6235
▁එවමෙවං	-10.6239
ඛිපති	-10.6241
පල්	-10.6249
▁කථිතා	-10.6251
මුඛෙන	-10.6251
භයං	-10.6256
ථීනං	-10.6265
▁සීසං	-10.6265
ඡරිය	-10.6268
ඛාරානං	-10.6269
▁22.	-10.6272
▁භාවෙන	-10.6277
චතෙ	-10.6281
▁සෙවිත	-10.6285
▁නිරයෙ	-10.6316
▁තථ	-10.6319
තමනො	-10.6326
තරෙන	-10.6328
▁එවරූපො	-10.635
නාමො	-10.6353
ඛුනීනං	-10.636
තභාවො	-10.6362
▁පනාවුසො	-10.6374
▁පඨමා	-10.6375
ගාථා	-10.6377
▁පූරෙත	-10.6391
ලම්	-10.6398
▁තංසම	-10.6403
තූති	-10.6407
▁දුම	-10.6414
▁ඛ	-10.6417
▁ගහිතං	-10.642
යාධි	-10.6422
වචනෙන	-10.6422
මිදං	-10.6431
▁පුරෙජාතං	-10.6434
▁ගි	-10.6435
මනු	-10.6436
තවත්	-10.6436
▁ඛ්	-10.6437
චෙතං	-10.6438
ඤපච	-10.6442
▁අරූපෙ	-10.6452
පායං	-10.6453
පජහති	-10.6455
▁මාතාපිතරො	-10.6466
▁පරියත	-10.6467
ජානුසයො	-10.6471
ථරි	-10.6472
තනතො	-10.6473
ථෙහි	-10.6481
වාහං	-10.6482
ඛයො	-10.6485
▁නෙවවිපාක	-10.6493
▁සුගතො	-10.6493
ිකො	-10.6495
▁ආරාමෙ	-10.6504
▁දීඝර	-10.6509
▁බලං	-10.6509
තග	-10.6509
ධාරො	-10.6511
ථිකො	-10.6516
ඛෙපතො	-10.6524
▁මූලං	-10.6529
ධිමග	-10.6534
ඩලං	-10.6534
▁අසි	-10.6537
ථාර	-10.6543
▁24.	-10.6547
▁සීලසම	-10.6553
▁ආනෙ	-10.6558
ඛයං	-10.6559
▁කිමත්	-10.6571
ඨියො	-10.6573
▁අසති	-10.6578
▁නාමෙන	-10.6583
චයස	-10.6598
▁මාර	-10.6601
▁ලභන	-10.6604
භූතෙ	-10.6605
ාපි	-10.6606
▁යෙහි	-10.6607
▁ඡසු	-10.6608
▁සීහ	-10.6614
සුණාතු	-10.6616
විසෙසො	-10.6617
▁26.	-10.6622
නමත්	-10.6622
▁සකං	-10.6622
▁25.	-10.6625
නාහං	-10.6628
▁ථෙරා	-10.6633
▁පටිසල්	-10.6645
▁අනුසෙ	-10.6646
ලොක	-10.6646
0.	-10.6646
සාහං	-10.6648
▁අධිකරණං	-10.665
▁සියාති	-10.6653
භය	-10.6658
ඩෙන	-10.666
සාද	-10.6662
තනයමෙව	-10.6669
මදෙව	-10.6672
▁වරං	-10.6673
▁සමා	-10.6676
▁සමං	-10.6679
යාව	-10.6682
▁සමුදය	-10.6701
ධනා	-10.6712
▁ගය	-10.672
▁නූන	-10.6722
සදිස	-10.6723
▁මානො	-10.6724
▁රම	-10.6734
ඡක	-10.6741
▁අහම	-10.6749
පරියන	-10.6749
පතීති	-10.6753
තතෙ	-10.6757
▁ගමන	-10.6767
සපො	-10.6768
▁දාතුං	-10.6773
▁මාරො	-10.6774
තකෙන	-10.6775
ධායාහ	-10.6777
▁තෙනෙවාහ	-10.6777
▁27.	-10.6782
▁සමොධානෙසි	-10.6784
ලොපො	-10.6806
ඛායතන	-10.6807
ණමිත්	-10.6807
▁පරිසා	-10.6812
තියෙව	-10.6812
▁සහෙතුකො	-10.6824
කාමි	-10.6824
▁සමණා	-10.6827
චික්	-10.6835
රායං	-10.6837
ඤායතනං	-10.6842
සාසපස	-10.6847
රෙ	-10.6851
නහෙතුං	-10.6858
තායාති	-10.6865
▁පදානි	-10.6867
▁සතං	-10.6869
අධිපතිප	-10.6873
සජා	-10.6876
රම	-10.6889
8.	-10.6899
▁සහජාතාධිපති	-10.6899
▁නකුසලො	-10.6904
▁ලොපො	-10.6915
▁නෙතං	-10.6916
▁වෙය	-10.6921
වර	-10.6922
ඨාපෙ	-10.6923
▁පමාණං	-10.6935
ගත්	-10.6938
ාන	-10.6946
▁28.	-10.6947
අහො	-10.6954
▁ඣාපිතා	-10.6958
▁නාස	-10.6966
▁උභතො	-10.6968
පායෙන	-10.6969
▁29.	-10.6972
▁මහාභූතං	-10.6985
රාසි	-10.6986
▁පුරිසා	-10.6988
ගුල	-10.6989
විසුද	-10.6992
ඛාතෙ	-10.6995
ඛමන	-10.701
▁ආගතං	-10.7017
ඛුසම	-10.7023
▁මහාමො	-10.7024
යතීති	-10.7034
▁වෙපුල	-10.7035
▁ලොභ	-10.7043
▁ආසනෙ	-10.7045
විභ	-10.7047
ුප	-10.7048
ඝර	-10.7065
ගිකං	-10.708
▁ජීව	-10.7082
කී	-10.7085
▁තෙපි	-10.7089
▁30.	-10.7089
▁පසාද	-10.709
මසඞ	-10.7097
මාසමාධි	-10.7103
▁නොඋපාදා	-10.7123
▁31.	-10.7125
ඨිකො	-10.713
▁ඡෙත	-10.7136
ීයති	-10.7145
තෙනාති	-10.7149
භොග	-10.7152
සෙසි	-10.7159
ණී	-10.716
භී	-10.7162
▁අවස	-10.7163
▁පටිජානාති	-10.7176
සයං	-10.7177
ඤවා	-10.7179
ජමාන	-10.7191
▁හීන	-10.7196
බාය	-10.72
▁ආසවසම	-10.7206
▁රහො	-10.7211
▁දබ්	-10.7215
ඛුකානං	-10.7218
පයොග	-10.722
▁අමතං	-10.722
රියො	-10.7228
▁අනාසවො	-10.7229
9.	-10.7231
කතං	-10.7232
උත්	-10.7232
▁කුසලෙසු	-10.7251
▁පරියායෙන	-10.7253
ඛිප	-10.7254
▁මධු	-10.7266
සාවී	-10.7272
▁කථින	-10.7278
▁විගත	-10.7279
මෙවාති	-10.728
▁සුණාති	-10.7281
▁ගාමෙ	-10.7283
ඤසි	-10.7286
ඝාදිසෙසස	-10.7301
▁මනොද	-10.7311
චයාදි	-10.7315
▁අනුලොමං	-10.7315
දිසිත	-10.7319
කාරස	-10.7328
▁මානත	-10.733
▁වචනෙන	-10.7349
සමානො	-10.7354
දිං	-10.736
▁පමාණ	-10.7366
සාදෙති	-10.7367
▁නාගො	-10.7368
▁එතානි	-10.7371
▁ධාතුයා	-10.7372
▁නානුසෙති	-10.7379
යාය	-10.7379
▁චරෙ	-10.739
ියා	-10.7392
ජිතං	-10.7397
▁32.	-10.7399
මුති	-10.7416
ළ්	-10.743
ධකෙ	-10.7433
මෙතං	-10.7437
▁දාරු	-10.7438
ගපච	-10.7439
▁ඨපිත	-10.744
කාරණං	-10.744
▁පාමො	-10.7441
▁ඡහි	-10.7456
▁35.	-10.7458
▁දෙසෙන	-10.746
රූහි	-10.7461
▁සතිමා	-10.7466
▁අනාගතං	-10.7475
රූ	-10.7482
ගාරම	-10.7486
සක	-10.7486
▁33.	-10.7492
▁දුවෙ	-10.7496
ජාත	-10.75
ඨික	-10.75
චීවර	-10.7502
▁එවරූපා	-10.7503
▁ධීරො	-10.7506
ඤාණක	-10.7516
ජානන	-10.7517
පාදාය	-10.7519
▁ඉධෙව	-10.7525
▁කුසලානං	-10.7531
▁පථවිං	-10.7537
▁ආරොචෙ	-10.7537
▁උතු	-10.7548
▁අනුසෙති	-10.7548
පතී	-10.7553
චාර	-10.7554
▁ඛජ	-10.7555
බලා	-10.756
සාදි	-10.7571
▁පරිය	-10.7572
▁නඉ	-10.7573
සසහ	-10.7574
තසි	-10.7574
ඤොජන	-10.7574
▁සාවකා	-10.7576
කමා	-10.759
සරෙ	-10.7595
ටන	-10.7597
උද්	-10.7603
ථක	-10.7603
▁තතියා	-10.7604
මදෙසනා	-10.7604
පයොගො	-10.7612
▁මහාක	-10.7613
රූපා	-10.7614
ඡිතං	-10.7616
ෙතබ්	-10.7617
▁කායානුප	-10.7617
▁34.	-10.7624
කතමො	-10.7625
▁භොජන	-10.7641
▁ලාභී	-10.7642
▁අනුබ	-10.7642
▁විපරිණාම	-10.7659
චායතනං	-10.7659
▁අනුජානාමි	-10.7662
දරං	-10.7665
▁ආචරිය	-10.7665
හාදි	-10.767
▁සසඞ	-10.7676
යී	-10.7681
▁ඉම	-10.7684
සනතො	-10.7685
නව	-10.7686
▁ආනෙත	-10.7693
▁සුණන	-10.7693
▁ඉධාපි	-10.7697
ධියං	-10.7699
ජලිං	-10.7699
▁අහොසීති	-10.7707
▁පටිලභි	-10.7713
ධාව	-10.7718
ඉමස	-10.7721
▁අග	-10.7723
▁චුති	-10.7724
නාමං	-10.7724
ථිලි	-10.7733
▁නගරෙ	-10.7737
▁උපොසථං	-10.7738
ඩක	-10.7738
ඤාපෙ	-10.7743
▁ණො	-10.7746
ඡතී	-10.7746
▁ජනො	-10.7755
▁විහ	-10.7755
ඛම	-10.7756
▁සෙනාසන	-10.7772
▁සාව	-10.778
▁දෙසෙස්	-10.7786
ධීති	-10.7787
▁විනයෙ	-10.7794
පහානං	-10.7797
කාති	-10.7798
▁නිපාතො	-10.7801
▁අනුයු	-10.7801
▁අහො	-10.7802
▁ජායන	-10.7802
නවසෙන	-10.7803
ආහාරෙ	-10.7805
ඛමසුඛාය	-10.7809
▁සයන	-10.7809
▁36.	-10.7817
▁පගෙව	-10.7817
දම	-10.7822
කාල	-10.7823
මර	-10.7824
තානෙ	-10.7825
තභාවෙ	-10.7825
▁කට්	-10.7829
චෙත්	-10.7834
ඤුතඤ	-10.7845
කාදි	-10.7846
▁ඛාද	-10.7847
භාති	-10.785
ඛාතෙන	-10.7852
ඵලා	-10.7855
▁චිරං	-10.788
ඛයා	-10.788
▁එතෙහි	-10.7885
නෙත්	-10.7888
▁ආදිතො	-10.7892
කත	-10.7896
▁පියා	-10.7898
▁37.	-10.7899
ජමානං	-10.7922
▁ආසෙවනෙ	-10.7925
ජනතො	-10.7929
ජාප	-10.794
▁39.	-10.7941
භාවස	-10.7944
▁ආතාපී	-10.7945
▁දාත	-10.7951
▁පාටික	-10.7956
▁ආචරියො	-10.7956
දුකං	-10.7958
▁පනාති	-10.7964
ිතබ්	-10.7965
▁ඛමති	-10.7976
ඩිතං	-10.7978
▁සාධුකං	-10.7979
▁ඉතිපි	-10.7983
▁භූත	-10.7988
▁විරජ	-10.7994
ාදිකං	-10.7997
තහි	-10.8
▁සුණාථ	-10.8009
▁සහජාත	-10.801
වික්	-10.8013
ිනී	-10.8015
පරිග	-10.8015
▁38.	-10.8017
නුපාදානියො	-10.8033
▁උදානං	-10.8041
නාගත	-10.8046
▁ථෙරං	-10.8053
▁දම්	-10.8053
▁මද	-10.8056
භවා	-10.8058
▁දෙසෙසි	-10.8059
බථා	-10.806
නමෙව	-10.8065
▁කාමං	-10.8067
මායතන	-10.8071
▁කාමාවචර	-10.8071
▁විසෙසතො	-10.8077
එව	-10.8081
▁චොර	-10.8089
චී	-10.8097
රිස්	-10.8097
ිතං	-10.8098
▁අනාගතෙ	-10.8105
▁අනොත	-10.8107
දෙසනා	-10.8109
ඡෙදං	-10.8109
▁මුද	-10.8113
▁තාදිසං	-10.8122
▁සීස	-10.8126
▁කථාය	-10.8127
බප	-10.8129
කාරණ	-10.8139
දිසා	-10.8141
පෙතො	-10.8143
▁40.	-10.8148
මිකො	-10.8154
චවාරාදි	-10.8166
හායතනෙහි	-10.8167
▁ආයතන	-10.8175
▁අවෙ	-10.818
සනො	-10.8184
චරිත	-10.8184
▁ඛය	-10.8185
▁අනා	-10.8186
ධාරම	-10.8187
▁සෙත	-10.8194
▁ලාභස	-10.8205
▁පදස	-10.8216
බොධි	-10.8224
ථාරා	-10.8225
▁ගුණව	-10.8228
භෙදතො	-10.8229
ධිකා	-10.8231
▁බාහිර	-10.8232
▁උපාසකො	-10.8238
▁අනො	-10.824
▁භූ	-10.8249
ථෙරඅපදාන	-10.825
▁වීතික	-10.825
▁අනුක්	-10.8255
▁සත	-10.8256
▁කායිකං	-10.8256
බතා	-10.8259
බමෙව	-10.8264
▁ජරාමරණං	-10.8266
කුලෙ	-10.8274
▁කුසලස	-10.8275
ඣිම	-10.8284
▁ආසෙවනප	-10.8289
▁දොසං	-10.8295
ඨමෙ	-10.8295
▁වීරිය	-10.8297
▁අකුසලානං	-10.8298
තමනා	-10.83
නීති	-10.8301
සරා	-10.8303
▁පුරිසං	-10.8304
▁පදුම	-10.8306
ථුනා	-10.8307
▁භාසිතා	-10.8307
බතෙ	-10.8309
ඛාදි	-10.831
බදා	-10.8313
2	-10.8314
▁41.	-10.8315
පමාණො	-10.8325
ථුකා	-10.8327
▁ආසවවි	-10.8327
ඝම	-10.8328
දසා	-10.8336
▁විපාකා	-10.8336
▁ඔකාසං	-10.8349
ගවසෙන	-10.8357
ඡය	-10.8361
▁හෙතං	-10.8365
ඛිපන	-10.8368
▁කාරණා	-10.837
▁අපෙ	-10.8371
පකා	-10.8374
▁පවාරණා	-10.839
අස	-10.8391
▁දෙසනං	-10.8393
▁සංසාර	-10.8393
ාදීසුපි	-10.8402
▁පහානං	-10.8414
▁ආම	-10.8415
වෙපි	-10.8417
▁ජනෙති	-10.8426
▁44.	-10.8427
ඤාසි	-10.8438
තිවසෙන	-10.8442
▁ඉසි	-10.8447
ගාහ	-10.8449
▁43.	-10.845
▁ථෙරෙන	-10.8466
සොමනස	-10.8467
ටි	-10.8475
පකාරං	-10.8475
▁ගහිතො	-10.8485
පෙතා	-10.8493
▁සතියා	-10.8494
ගිය	-10.8497
ආදයො	-10.85
▁සවන	-10.8501
▁සීලවා	-10.8503
ථසම	-10.8511
▁45.	-10.8517
▁කාචි	-10.8519
▁දිසං	-10.8522
ලෙන	-10.8523
චකං	-10.8529
ගහෙන	-10.8533
▁කුණ්	-10.8537
චාදිනා	-10.8537
▁වෙමතිකො	-10.8541
පටිනිස	-10.8543
▁එතෙස	-10.8547
දිසං	-10.855
▁රුච්	-10.8555
▁පාකටං	-10.8558
▁46.	-10.8564
▁42.	-10.8576
▁භණති	-10.8578
▁කාරණෙහි	-10.858
▁නාපි	-10.858
ෙපි	-10.858
ඛිණා	-10.8584
තයි	-10.8593
▁හිතාය	-10.8595
▁මොක	-10.8595
▁මහාභූතා	-10.8596
තුත්	-10.8596
▁50.	-10.8597
▁කූට	-10.8597
▁මන	-10.8597
මිකා	-10.8598
චයචතු	-10.8599
▁සමථවි	-10.8601
රියත්	-10.8603
යාකාසි	-10.8605
▁වසං	-10.861
▁බීජ	-10.8612
කමිංසු	-10.8613
භීර	-10.8616
ගර	-10.8618
ඡිද්	-10.8621
කරා	-10.8622
▁ආකාරෙහි	-10.8634
ඉමිනා	-10.8648
▁කාළ	-10.8654
ිය	-10.8659
ථිනිදානං	-10.8659
▁පරිප	-10.8661
යාථ	-10.8662
▁ලොහිත	-10.8662
චයානුලොමං	-10.8664
දනා	-10.8666
▁පෙත්	-10.8673
භාවනා	-10.8674
ලාය	-10.8675
▁සරීරෙ	-10.8675
▁47.	-10.8679
නාරම	-10.868
හතො	-10.8681
▁ඨිති	-10.8685
▁පණීතං	-10.8693
▁49.	-10.8702
ලක	-10.8703
▁එකග	-10.8706
ජීව	-10.8708
ජතෙ	-10.8711
▁මුට	-10.8717
ඤාතා	-10.8723
▁අනගාරියං	-10.8727
ඛවො	-10.8729
▁ගිහි	-10.8731
විපස	-10.8735
ඝට	-10.8738
▁කාරෙසි	-10.8739
බහෙතුකං	-10.8739
ඛූති	-10.874
රූපො	-10.8741
▁තාදිසො	-10.8751
▁මෙථුන	-10.8751
▁මනු	-10.8755
ඡිතා	-10.8757
▁තමහං	-10.8759
▁අනාපු	-10.8769
▁ලග	-10.8773
ඤායතන	-10.8777
කමනං	-10.8781
▁අනුලොම	-10.8781
රුය්	-10.8789
සීලං	-10.8789
▁ගු	-10.8793
ඩිකස	-10.8798
▁නිරනුසයො	-10.8798
ධාභි	-10.8802
ඤාණෙ	-10.8805
▁සාමං	-10.8821
▁භෙදො	-10.8831
පධාන	-10.8832
▁අහෙතුක	-10.8836
▁රාජානො	-10.8837
යතෙ	-10.8852
▁රූපා	-10.8854
තුම	-10.8855
▁ඔභාස	-10.8857
▁පරිමු	-10.8858
▁පාපි	-10.8862
▁අද	-10.8863
ඛකො	-10.8869
සකො	-10.8875
ඝාත	-10.8877
▁තෙල	-10.8881
ඨානෙහි	-10.8882
තමානෙ	-10.8885
යොති	-10.8886
▁අකංසු	-10.8889
කවිස	-10.8897
▁ගමනං	-10.8902
ලු	-10.8906
▁ඵලසමා	-10.8913
කිලෙසො	-10.8916
සරං	-10.8916
▁අභිභුය්	-10.8916
▁නීහරිත	-10.8925
▁සීලබ්	-10.8928
තකල්	-10.8935
▁යාවතා	-10.8938
▁වදෙසි	-10.8941
කාම	-10.8945
දව	-10.8947
▁ජීවිතා	-10.8961
▁කථෙත	-10.8962
කසවිචාරො	-10.8963
▁වචීක	-10.8963
ඛිතං	-10.8966
▁කායදු	-10.8975
▁විසු	-10.8975
මය	-10.8984
▁ගහෙතුං	-10.8985
දකං	-10.899
අග්	-10.899
ආම	-10.8993
▁අල්	-10.8993
▁විහාරො	-10.8997
රොධ	-10.8998
▁ඛීර	-10.8998
ුස්	-10.9002
▁වාරෙ	-10.9007
▁පාපකා	-10.9011
▁චෙතිය	-10.9014
යෙවා	-10.9014
ගාර	-10.9015
▁සුග	-10.9017
▁පාකටො	-10.9022
ථෙරෙන	-10.9028
චරියා	-10.903
▁48.	-10.9033
චුග	-10.9041
ූ	-10.9042
සදිසා	-10.9048
▁කිලෙසානං	-10.9053
ඛාසම	-10.9053
▁පාණාතිපාතා	-10.906
මව	-10.9061
▁මංසං	-10.9064
▁චතුරො	-10.9066
▁අපස	-10.9066
සභාව	-10.9066
තරූපනි	-10.9069
▁මුහු	-10.9079
දතො	-10.908
නප	-10.9086
▁අකි	-10.9088
▁අපරෙ	-10.9099
▁ඨ	-10.9099
පමාණා	-10.9101
සෙතුමාහ	-10.9103
▁මානානුසය	-10.9108
සසී	-10.9112
ධරිත	-10.9117
▁නිවාසෙත	-10.9117
දානි	-10.912
චෙසු	-10.9124
▁මතා	-10.9126
හොති	-10.9129
ඤාපෙත	-10.913
සමාධි	-10.913
▁හෙතුසම	-10.9131
▁ඉදමෙව	-10.9141
▁ජනෙ	-10.9146
තාරූපං	-10.9148
▁55.	-10.9153
චෙකං	-10.9157
ඛුමා	-10.9167
▁පරිසාය	-10.9168
▁භූමියං	-10.9168
සුතා	-10.917
▁පරිව	-10.9173
▁නාහං	-10.9178
▁දෙවලොකෙ	-10.9181
හෙසු	-10.9186
ඨාපෙති	-10.9193
▁මහානාම	-10.9196
චයෙහි	-10.9197
▁චි	-10.9203
▁පාවිසි	-10.9207
ාමි	-10.9215
උපෙ	-10.9221
ජෙති	-10.9223
▁බහුලීකතා	-10.9225
ධරා	-10.9225
▁51.	-10.9227
▁භාවිත	-10.9228
දිකා	-10.9233
පක	-10.9238
බුජ	-10.9244
ඨානෙසු	-10.9257
පදාය	-10.9259
▁දෙවෙ	-10.9264
▁අපරො	-10.927
මුප	-10.9273
▁විචිත්	-10.9276
ගාමෙ	-10.9285
භෙදෙන	-10.9288
▁ඣානස	-10.9289
▁විනයො	-10.9289
▁නිරොධස	-10.9295
▁එකෙනායතනෙන	-10.9299
බජිතා	-10.9307
▁54.	-10.931
▁බාලා	-10.9321
ජනක	-10.9322
සිතබ්	-10.9322
ධාති	-10.933
ගහා	-10.9331
තලික	-10.9333
ඛණෙන	-10.9334
▁මහෙසිනො	-10.9354
▁තථාපි	-10.9354
▁ආහාරං	-10.9358
ඨම	-10.9358
▁දාස	-10.9359
▁අහෙතුකං	-10.9363
▁සරෙ	-10.9364
▁කායතො	-10.9365
දෙසා	-10.9368
▁බහුලං	-10.9368
▁තදාර	-10.9374
▁කබළීකාරො	-10.9374
▁තථාගතං	-10.9377
කායො	-10.938
▁කාමරාගානුසයෙන	-10.9381
▁ගිරි	-10.9386
▁ලු	-10.9388
▁අසුභ	-10.939
පානං	-10.939
▁සමාදාය	-10.9392
▁නමො	-10.9398
▁චතුප	-10.9401
ඡිකිරියාය	-10.9407
කුම	-10.9409
▁සාවකානං	-10.9416
නක	-10.9421
▁එවමාදි	-10.9424
▁52.	-10.9424
▁එකදිවසං	-10.9427
▁වසිත	-10.9429
▁වීති	-10.9436
▁සංයුත	-10.9442
▁අථො	-10.9454
ධචිත්	-10.9457
චමෙ	-10.9457
▁නිදාන	-10.9459
ඛණානි	-10.9463
මල	-10.9466
ික	-10.9468
ඡිං	-10.9472
ඣායන	-10.9488
ඛිං	-10.9489
▁පියො	-10.9493
වාරෙසු	-10.95
▁විගතෙ	-10.95
▁මාතිකා	-10.9503
▁පො	-10.9503
ඩෙත්	-10.9505
තනෙ	-10.9505
ඨිම	-10.9521
පභා	-10.9527
කිරිය	-10.9537
▁ගුණා	-10.9537
අවිජ	-10.954
හානං	-10.9543
▁56.	-10.955
▁පරෙහි	-10.9552
ලානො	-10.9556
▁සරණ	-10.9558
මානුපස	-10.9562
ලිකා	-10.9563
▁විපාකප	-10.9563
▁53.	-10.9566
ඡයං	-10.9567
▁ඉමමත්	-10.9567
බිධං	-10.9568
සවන	-10.9571
▁ගුණෙ	-10.9573
ණම	-10.9579
▁පරිහායති	-10.958
මවිනයෙ	-10.958
සිකො	-10.9581
▁ලොකා	-10.9584
ධනෙ	-10.9588
ධිකො	-10.9595
▁කරණීයං	-10.9603
▁චාරිකං	-10.9604
යමානා	-10.961
▁අසුචි	-10.9613
▁පභ	-10.9621
ඨිතෙ	-10.9622
භද්	-10.9624
පකො	-10.9642
▁වූපස	-10.9643
▁හාරො	-10.9644
ඝාටි	-10.9646
යාපජ	-10.9646
▁කථෙති	-10.9647
▁කායායතනං	-10.9653
▁පුරෙජාතෙ	-10.9655
▁සිබ්	-10.9659
▁වසී	-10.966
▁පදුමුත	-10.9661
වසානෙ	-10.9663
ීයතීති	-10.9667
▁නී	-10.9668
▁මමං	-10.9673
නුපාදානිය	-10.9673
▁චෙපි	-10.9674
ඛෙපං	-10.9674
කුසලො	-10.9679
යාවාරො	-10.968
මසම	-10.9695
පරා	-10.9704
▁තාල	-10.9713
▁සෙසෙසුපි	-10.9717
▁දුතියස	-10.9723
තරඝරෙ	-10.9731
පරියු	-10.9732
ථනා	-10.9734
▁ජානං	-10.9736
▁සුගතිං	-10.974
රාපි	-10.974
වෙදනා	-10.9742
ඛතීති	-10.9747
ුක්	-10.9747
ඩපාත	-10.975
▁හර	-10.9751
භාවප	-10.9751
වන	-10.9753
ආදීසු	-10.9753
රූමි	-10.9761
ආදීනං	-10.9762
දෙහි	-10.9764
▁සාත	-10.9765
▁චායං	-10.9765
▁සුඛුම	-10.9768
බකි	-10.9769
▁ඛීණාසවො	-10.9771
ඤාභිස	-10.9771
▁පවිසන	-10.9774
▁කාමාවචරං	-10.9776
▁57.	-10.978
▁පාර	-10.9781
ඛාති	-10.9786
ඛමති	-10.979
▁ඵරිත	-10.9793
දූ	-10.9794
තිආදිකං	-10.9795
▁එහි	-10.9795
▁සුඛෙන	-10.9796
▁උල	-10.98
▁අමු	-10.9802
▁පහාන	-10.9805
ඩපාතං	-10.9805
යදා	-10.9809
ඤුතං	-10.981
▁සාමණෙරො	-10.9818
▁සුමනො	-10.9821
▁පනායං	-10.9822
ගොති	-10.9823
ධාදි	-10.9825
ඡාම	-10.9834
▁අවිදූරෙ	-10.9834
ජල	-10.9837
යදි	-10.984
▁දසහි	-10.9848
▁සංවර	-10.9851
පටිඝ	-10.9853
තතී	-10.9859
▁රූපායතන	-10.9862
▁ජානාතීති	-10.9871
▁සුඛස	-10.9873
▁මධුර	-10.9877
▁මානසං	-10.988
රභු	-10.9888
▁ඉතරෙ	-10.989
▁කුමාරො	-10.9894
▁සීත	-10.9898
▁නිසීද	-10.99
ඛිකා	-10.99
ඨිකා	-10.9901
ගාධිපති	-10.9903
▁පඨමස	-10.9904
▁මහාකස	-10.9904
ළ	-10.9905
ඨසු	-10.9907
ථිය	-10.9908
හෙන	-10.9913
ජනෙන	-10.9914
▁ගෙහෙ	-10.9917
▁හදයං	-10.9917
පරාය	-10.992
ථරිත	-10.9921
▁භගවති	-10.9924
ඛනාස	-10.9924
ධරො	-10.9925
ළි	-10.9931
▁භවරාගානුසයො	-10.9938
▁යාවජීවං	-10.9941
ඛමි	-10.9954
▁පහිත	-10.9955
▁ඛෙම	-10.9957
ිකං	-10.9957
▁වාසෙ	-10.9958
▁අසීති	-10.9958
ඛණිකා	-10.996
නගරෙ	-10.9964
▁ඛයා	-10.9964
මණෙසු	-10.9965
▁සාවකො	-10.9965
▁ආදීනවො	-10.9967
සාදො	-10.9972
▁පකාසිතා	-10.9975
හාරො	-10.9975
ඛීණා	-10.9979
යතා	-10.9983
▁තිකං	-10.9985
▁යසො	-10.9988
▁නාමරූපං	-11
▁පදෙ	-11.0004
විපල	-11.0006
මණි	-11.0014
▁නානාක්	-11.0015
▁60.	-11.0016
ගික	-11.0019
▁පූජෙ	-11.0021
මවසෙන	-11.0025
1	-11.0026
▁අනනු	-11.0029
ඣො	-11.0031
ඨොති	-11.0035
▁උභයත්	-11.0036
චනං	-11.0042
▁63.	-11.0042
▁58.	-11.0042
▁අවසෙස	-11.0043
▁විපත්	-11.0044
▁ආදීනවං	-11.0053
▁විපල	-11.0057
ඤාති	-11.0059
▁ආරොපෙත	-11.0059
ධුප්	-11.0061
චවි	-11.0062
▁චෙතසිකං	-11.0065
පරම	-11.0066
ජලි	-11.0069
▁ආසිං	-11.0077
▁සංසර	-11.0087
මමෙව	-11.0087
▁භොග	-11.0094
▁පජානන	-11.0094
දතීති	-11.0098
▁ඨපෙසි	-11.0103
කොටි	-11.0116
පහීනා	-11.0122
▁ආකාස	-11.0125
▁සමයො	-11.0132
හානි	-11.0137
▁මාණවො	-11.0139
ඛෙහි	-11.0145
▁සියුං	-11.0154
නිප	-11.0157
ඡකං	-11.0161
බානස	-11.0162
▁ඉතරස	-11.0168
නම	-11.0172
යාපාදො	-11.0176
මූලකං	-11.018
ඨානස	-11.0189
ායං	-11.0191
▁තමෙනං	-11.0194
▁සීලවන	-11.0195
කරණෙ	-11.0198
▁සමෙ	-11.0199
▁ඛිය	-11.0199
පරෙ	-11.02
▁ජිග	-11.0219
▁අනාගතා	-11.0221
▁අනව	-11.0227
පමුත්	-11.0227
මණූපනි	-11.0227
චතුක	-11.0228
භවන	-11.024
▁සංයොජන	-11.0241
ජාමි	-11.0251
▁59.	-11.0257
▁හොමි	-11.026
▁වෙරමණී	-11.0262
▁සචෙපි	-11.0282
▁මෙධාවී	-11.0284
▁සහබ්	-11.0286
දකා	-11.0286
▁විවෙක	-11.0291
▁නඅනි	-11.0297
▁දෙසනාය	-11.0306
▁ඔවාද	-11.0306
▁මතො	-11.0311
▁ගාථාහි	-11.0312
ෙනාපි	-11.0317
▁ආරොචෙසි	-11.0318
▁අධිපති	-11.0318
චාග	-11.032
ලත්	-11.0321
▁සමෙන	-11.0321
▁අතීතා	-11.0329
▁පූරෙ	-11.0332
ඵානි	-11.0335
නියා	-11.0339
ථෙරං	-11.0341
ජිං	-11.0344
▁ගරහ	-11.0345
ඡාජාතං	-11.0348
වනෙ	-11.035
▁භූමීසු	-11.0351
▁අදු	-11.0355
▁පරිජානාතීති	-11.0362
▁වය	-11.0368
▁අහොසිං	-11.0368
▁ආවාසෙ	-11.037
චාන	-11.0372
▁පියං	-11.0372
▁සමාස	-11.0372
▁සීමා	-11.0381
▁විචාරො	-11.0382
බාපි	-11.0385
ධාර	-11.0386
ගමං	-11.0388
▁සීලෙන	-11.0391
ාභි	-11.0392
ඉතො	-11.0392
▁පාරාජිකස	-11.0392
▁61.	-11.0394
▁කල	-11.0394
සාන	-11.0401
ුය්	-11.0406
ලී	-11.0409
▁1-7	-11.0413
▁අපනෙත	-11.0414
▁විද	-11.0417
▁නිරොධසමාප	-11.0418
තභාව	-11.0424
▁64.	-11.0431
ඛුනිං	-11.0433
▁පදෙහි	-11.0435
▁ඛීණාසවස	-11.0435
▁උභොපි	-11.0436
▁ගත	-11.0439
පටිඝානුසයෙන	-11.0442
ගිනා	-11.0445
පෙසි	-11.0447
පදාන	-11.0449
යොග	-11.0449
▁ථොකං	-11.0455
▁ඤාණසම	-11.0456
▁විවර	-11.0461
▁ආකාර	-11.0463
ලාසො	-11.0464
ඡාදන	-11.0467
▁62.	-11.0477
▁වාචතො	-11.0477
ජාතො	-11.0484
රූපෙ	-11.0486
පියො	-11.0493
දුක	-11.0495
▁67.	-11.0504
▁65.	-11.0504
තසද	-11.0507
▁පුල	-11.0513
▁විසය	-11.0514
භක්	-11.0515
එවමෙව	-11.0516
▁දසමෙ	-11.0517
මනා	-11.0519
▁අයමත්	-11.0525
▁උද	-11.0531
▁සකිං	-11.0535
ගහණෙ	-11.0535
මුඛං	-11.0545
චයුප	-11.0545
▁පජා	-11.0549
ටනා	-11.0551
▁අගාරස	-11.0554
පාදං	-11.0556
▁ඉතරො	-11.0556
නාදි	-11.0558
▁සෙසො	-11.0569
▁දීපෙ	-11.057
▁නෙවසෙ	-11.0572
▁අධිමත	-11.0577
භාරා	-11.0577
▁ධාර	-11.0578
චීවරං	-11.0579
ඩකො	-11.0581
▁පටිපදං	-11.0585
ඨායාසනා	-11.0588
▁පහානා	-11.059
▁පිතරං	-11.0594
▁අධිමො	-11.0595
▁පාපුණන	-11.0597
රුත්	-11.0599
▁වචී	-11.0601
▁සානුසයො	-11.0601
මුඛො	-11.0602
චායතන	-11.0603
▁නපුංසක	-11.0604
ඛාරෙසු	-11.0608
▁සොත්	-11.0612
▁කාමාවචරා	-11.0613
▁වචනත	-11.0614
ගවිසාණ	-11.0617
තොසො	-11.0618
▁66.	-11.0625
පකාරෙන	-11.0627
▁භබ්	-11.0627
චෙති	-11.0629
ාභාවතො	-11.0635
ණස	-11.0643
ගුලි	-11.0644
සියා	-11.0644
▁බාරාණසියං	-11.0646
භෙසජ	-11.0649
සනවසෙන	-11.0653
අද්	-11.0656
▁නාමරූප	-11.0657
▁යාචි	-11.0658
▁දිය	-11.0665
▁සොණ	-11.0665
▁භග්	-11.067
▁දෙවෙසු	-11.0672
විසය	-11.0675
▁පුරිමං	-11.0677
▁හරි	-11.068
▁ගෙහං	-11.0681
ඛාරප	-11.0684
▁ලීනත	-11.069
▁මයි	-11.069
ඨාකො	-11.0691
තරායො	-11.0693
▁පහීන	-11.0694
පුරිසා	-11.0697
▁දෙසිතං	-11.0698
▁පාකට	-11.07
විහාර	-11.0703
–-	-11.0703
▁මිග	-11.0709
▁ආය	-11.0711
චක	-11.0711
▁ලහු	-11.0712
තාදීනං	-11.0713
▁මාතරං	-11.0715
▁දෙසිතා	-11.0715
බදිසා	-11.072
බහු	-11.0725
▁70.	-11.0729
▁කොධො	-11.073
▁චුතො	-11.0732
▁මාතුක	-11.0743
▁සදිසො	-11.0745
බාජෙ	-11.0746
▁සුර	-11.0749
▁කථිතො	-11.0753
භාරො	-11.0754
▁උපාදා	-11.0755
තද	-11.0757
භාග	-11.076
ඡාජාතා	-11.0762
තයෙ	-11.0767
▁තර	-11.0768
ජනීය	-11.078
▁අතිරෙක	-11.0783
▁ගාමො	-11.0784
▁68.	-11.0786
ලභ	-11.0788
▁වනං	-11.0792
▁ගහණ	-11.0792
▁ආවාසිකා	-11.08
▁තිවිධං	-11.0803
ගහිතො	-11.0804
▁ඔවාදං	-11.0806
▁නඅකුසලො	-11.0816
ෙසුපි	-11.0816
ගවාරො	-11.0822
▁කීළන	-11.0823
විප	-11.0824
නාගතස	-11.0827
සොසුං	-11.083
මිකං	-11.0831
යාණං	-11.0832
▁තෙසම	-11.0843
කඅවිචාරො	-11.0846
ජමානෙ	-11.0849
▁දෙහි	-11.0851
▁යාචිත	-11.0858
දොසො	-11.0862
යිංසු	-11.0863
▁ඨිතෙ	-11.0868
▁පකාරෙන	-11.087
▁නිසීදති	-11.0873
▁අනාගාමී	-11.0875
▁ඡළභිඤ	-11.0878
▁නගර	-11.0879
ඛිය	-11.0879
▁කථිත	-11.088
▁වසති	-11.0885
▁ඉතරා	-11.0888
පාරිස	-11.089
▁සොක	-11.0891
▁මූළ	-11.0894
අනාපත	-11.0895
▁ඔලොකෙත	-11.0895
නෙහි	-11.0897
▁නවමෙ	-11.0898
ධතො	-11.0898
▁නිසීදන	-11.09
▁ඉදානෙව	-11.0914
▁උපාදානං	-11.0918
චාය	-11.0919
පෙන	-11.0927
පව	-11.0939
▁විහරතො	-11.0957
▁කතත්	-11.0957
නිසි	-11.096
▁හිරී	-11.0962
▁සොතං	-11.0964
▁සොතායතනං	-11.0965
බීජ	-11.0966
වයෙ	-11.097
▁පීතියා	-11.0971
▁ඉතරං	-11.0976
නවුති	-11.0977
තමානා	-11.0985
තාදයො	-11.0988
▁භොගෙ	-11.0994
යතාය	-11.1003
ධනි	-11.1008
පාදෙන	-11.1012
භෙදං	-11.1015
පසාදෙන	-11.1016
බභාගෙ	-11.1022
▁නිග	-11.1023
▁එකෙකස	-11.1027
▁සුන	-11.1032
▁සීහො	-11.1042
පසාද	-11.1049
ඤායො	-11.105
▁නාභි	-11.1052
▁වෙදයිතං	-11.1056
▁සමාදපෙති	-11.1056
▁උජු	-11.1061
හාවි	-11.1063
රසො	-11.1063
▁පාරිස	-11.1076
රාති	-11.1077
▁ආලොකො	-11.108
▁රූපාරූප	-11.1082
▁රො	-11.1083
තුකාමා	-11.1085
තරාය	-11.1087
නාගතෙන	-11.1094
බලෙන	-11.1095
බොධිං	-11.1097
මාරම	-11.11
▁ජරාමරණ	-11.1104
▁උපනි	-11.1105
▁71.	-11.1106
හසමයං	-11.1107
රසං	-11.1108
▁තුල්	-11.1109
▁වූපසම	-11.1114
▁මාසෙ	-11.1117
▁උපාසිකා	-11.1117
සපච	-11.1118
▁මාණව	-11.112
▁අමනු	-11.1121
▁දූර	-11.1122
යෙසු	-11.1124
වාගතං	-11.1128
▁පමු	-11.1136
▁69.	-11.1136
▁ඵාසු	-11.114
▁පාරං	-11.1144
සීලා	-11.1147
බසම	-11.1149
හනං	-11.1149
▁සමුග	-11.115
▁ඵුසිත	-11.1151
▁අනිය	-11.1153
▁කුප	-11.1153
චහ	-11.1157
ථෙති	-11.1158
▁අභිව	-11.116
▁විසෙසෙන	-11.116
▁73.	-11.1165
▁මහාරාජා	-11.1167
පදානං	-11.117
මුඛෙ	-11.1175
තාරං	-11.1175
▁විනයං	-11.1176
▁මහතො	-11.1178
▁පුරාණ	-11.1178
නකාලෙ	-11.1185
▁ගුණං	-11.1192
ධානි	-11.1204
බුතෙ	-11.1205
කතමෙ	-11.1206
මන	-11.1215
▁වල්	-11.1217
චෙතෙ	-11.1217
▁මානං	-11.1223
යප්	-11.123
▁කුරු	-11.1234
ඣාසය	-11.1236
ඛෙපෙන	-11.1238
ජර	-11.124
▁කොසම	-11.1249
ඨිසම	-11.125
චීති	-11.1253
▁කොධ	-11.1256
කුසලා	-11.1257
ධාරෙ	-11.1259
නාන	-11.1261
▁පකතියා	-11.1263
▁චෙතසික	-11.1269
ආවුසො	-11.1273
▁චෙති	-11.1279
▁සාමි	-11.1281
නගරං	-11.1282
▁පාසාණ	-11.1283
▁74.	-11.1285
▁තපො	-11.1294
▁දුවිධො	-11.1295
මනොවි	-11.1298
නයෙන	-11.13
තකාලෙ	-11.1301
▁පජහන	-11.1302
▁තෙසංයෙව	-11.1302
▁දුද්	-11.1303
නුප	-11.1308
▁ඨානා	-11.1319
දිසෙ	-11.1328
ගඵල	-11.1334
▁මනසිකාරො	-11.1336
තානුපස	-11.1337
▁කුලං	-11.1339
▁කනි	-11.134
▁එතා	-11.1342
සිකා	-11.1344
▁72.	-11.1345
▁75.	-11.1345
▁වෙනෙය	-11.1359
ඤමානො	-11.1361
ගරු	-11.1362
නෙනාති	-11.1362
ළා	-11.1363
▁අපරෙන	-11.137
▁අමිත	-11.1383
▁අවසි	-11.1385
කුට්	-11.1385
ඨාසෙ	-11.1396
වාරා	-11.1397
▁දීඝො	-11.1404
ඤාතො	-11.1406
ගණෙ	-11.1408
ථායාති	-11.141
▁වාරි	-11.1422
▁පණීත	-11.1426
▁පරියාය	-11.1427
පහාය	-11.1428
▁තිරියං	-11.1431
ඛනිරොධගාමිනී	-11.1438
▁රූපාවචර	-11.1439
▁මනාපා	-11.144
▁පරිභොග	-11.1441
ගුණා	-11.1444
ණතො	-11.1452
▁බහූනි	-11.1453
▁ගෙහ	-11.1456
ගව	-11.1456
වීරිය	-11.1461
▁පටිහ	-11.1461
▁අනපෙ	-11.1465
▁නිසීදිංසු	-11.1467
ඡවි	-11.1471
තථා	-11.1471
බායතනං	-11.1472
▁ආහාරා	-11.1474
▁සංවරො	-11.1474
මතං	-11.148
▁තාසු	-11.1482
භුත	-11.1483
▁වී	-11.1484
▁දුවිධා	-11.1485
▁අවිස	-11.1486
▁ඨපිතා	-11.1487
ඤතරෙන	-11.1491
▁පොත	-11.1492
දානෙන	-11.1495
ඨිගත	-11.1497
▁කුබ්	-11.15
▁ඛාදන	-11.1501
පියා	-11.1502
▁ආමිස	-11.1509
▁පටිභාන	-11.152
▁උපෙති	-11.1526
▁පිත්	-11.1526
▁ඉතර	-11.1527
▁පාපකං	-11.1533
ධුනා	-11.1534
▁4	-11.1538
ිනො	-11.1538
▁යාචති	-11.1552
ණෙහි	-11.1557
චතුත	-11.1563
▁වීරියි	-11.1572
▁සමෙති	-11.1576
ණු	-11.1583
යාකරණ	-11.1588
සකං	-11.1592
ඨානුසයො	-11.1593
ඨකං	-11.1594
▁සූරියො	-11.1601
▁තීරෙ	-11.1603
▁ඔස	-11.1604
හාප	-11.1607
ජිතො	-11.1608
3	-11.161
ොව	-11.1612
▁උපොසථො	-11.1612
මක	-11.1613
සයා	-11.1619
ආපත්	-11.1622
පාති	-11.1625
සරති	-11.1628
▁යාචන	-11.1633
ඨකා	-11.1647
▁කිරියං	-11.1651
▁76.	-11.1652
වාදි	-11.166
ඨිකං	-11.1661
පකං	-11.1662
තකස	-11.1663
ඡිංසු	-11.1666
▁පදෙසෙ	-11.1667
▁සෙනා	-11.1678
▁විමති	-11.1678
▁ගමනෙ	-11.1681
▁ආහංසු	-11.1684
▁පුනබ	-11.1685
ගීති	-11.1686
තිකාය	-11.1686
පිතා	-11.1691
පයි	-11.1694
ඤොජනසම	-11.1695
ාදිං	-11.17
ිත	-11.1701
චමානො	-11.1705
කායද	-11.1706
කුජ	-11.1708
දනෙ	-11.171
▁ගිහී	-11.1712
▁පරිජානන	-11.1717
▁අකුසලස	-11.1717
▁අරියානං	-11.1719
▁සමීපෙ	-11.172
ජරං	-11.1721
කොසල්	-11.1723
තරිං	-11.1726
▁භොගා	-11.1726
ජාල	-11.1729
මධාතු	-11.1734
▁ධුවං	-11.1736
▁බලවා	-11.1737
කාරණා	-11.1739
▁නිජ	-11.1739
මානෙ	-11.1741
▁අභාවා	-11.1742
▁මහාජනස	-11.1744
▁77.	-11.1747
පකාරා	-11.1748
▁උපචාර	-11.1749
තපො	-11.1749
▁ඛම	-11.1751
▁එතෙනෙව	-11.1754
▁හීති	-11.1756
▁විසං	-11.1756
ිප්	-11.1756
තිආදීහි	-11.1762
ගිනො	-11.178
ාධිපති	-11.1783
▁ආහු	-11.1783
▁සොතවි	-11.1783
▁වෙර	-11.1784
ඩී	-11.1786
▁අවිප	-11.179
ධසෙ	-11.1791
▁ආරාම	-11.18
▁මාරිස	-11.1801
▁අමොහො	-11.1804
විසයෙ	-11.1806
▁පටිපාටියා	-11.1807
▁සමානා	-11.1807
▁වයො	-11.1812
භූතෙන	-11.1815
කාරී	-11.1815
ලානං	-11.1822
පදෙ	-11.1824
මාතිහ	-11.1831
පනෙ	-11.1833
▁මතං	-11.1834
ඛාපදානි	-11.1837
ිකට්	-11.184
හිතුං	-11.1843
▁ණ	-11.1853
මය්	-11.1856
පාළි	-11.186
මනුයු	-11.1863
▁නිත්	-11.1865
▁වෙදි	-11.1866
▁ගොචර	-11.1867
▁ආසනං	-11.1867
ිතා	-11.1867
▁නාති	-11.1868
▁අභාවෙන	-11.1873
▁මනසිකරොතො	-11.1884
▁සොහං	-11.1884
කසවිචාරා	-11.1885
▁පාන	-11.1887
▁විහරි	-11.1903
▁ලොකියා	-11.1904
චානුපස	-11.192
දයො	-11.192
▁ධාත	-11.1922
දිතො	-11.1924
▁පවාරෙ	-11.1924
චෙවං	-11.1931
▁සිලා	-11.1938
▁දිවසං	-11.1939
▁විසෙසං	-11.1945
▁මහාවීර	-11.1946
▁ඉදමවොච	-11.195
▁සාධාරණ	-11.1956
▁රුප්	-11.1962
▁මානානුසයෙන	-11.1962
ඨෙහි	-11.1964
යචිත්	-11.1972
▁චීවරෙ	-11.1972
ධනෙන	-11.1974
පදානි	-11.198
▁එවමාදීසු	-11.198
පාමො	-11.1983
ඨෙනාති	-11.1989
▁සුම	-11.1995
සොපි	-11.1997
▁තතියම	-11.2003
ඨීති	-11.2008
▁නිවාස	-11.2009
ධියො	-11.2014
▁80.	-11.2015
නතා	-11.2017
තිඵලෙ	-11.2017
ඨිති	-11.2027
▁ඔඝ	-11.2029
▁සමාග	-11.2032
▁චොදෙ	-11.2032
▁නනහෙතු	-11.2034
▁ආදිං	-11.2037
ධූ	-11.2041
ජානං	-11.2042
▁පාණි	-11.2055
භස්	-11.2059
කරණෙන	-11.206
▁78.	-11.2067
▁84.	-11.2067
▁83.	-11.2067
▁ඣායී	-11.2068
▁ඨානෙහි	-11.2069
▁ඝ	-11.2069
▁පරිහායන	-11.207
▁හවෙ	-11.2071
▁මනොධාතු	-11.2077
▁සකලං	-11.2078
ාව	-11.209
▁තිවිධ	-11.2092
▁ඣානප	-11.2098
▁86.	-11.2099
යසනං	-11.21
▁ඝරෙ	-11.2101
▁ගොතමං	-11.2101
චම	-11.2103
▁පුරිසානං	-11.2105
ෙව	-11.2106
ගීනං	-11.2106
ඨාපෙසි	-11.2114
තභාවෙන	-11.2114
▁කායසංස	-11.2116
මූලක	-11.2117
සිතුං	-11.2118
▁කාමරාග	-11.2118
▁ඝරං	-11.2122
▁කුද්	-11.2123
▁දෙසිතො	-11.2123
ථූසු	-11.2125
පායා	-11.2126
මිකස	-11.2132
▁81.	-11.2132
▁කිම	-11.2133
▁යාගු	-11.2135
බාජකො	-11.2138
කාසි	-11.214
ධාරණ	-11.2143
▁දුවිධෙන	-11.2144
▁දුවිධං	-11.2145
▁රතනං	-11.2152
බජිස	-11.2158
▁නාමානි	-11.2158
▁මෙථුනං	-11.2159
▁රි	-11.2162
▁87.	-11.2165
▁පරාම	-11.2172
▁උපායෙන	-11.2173
▁ආපොධාතු	-11.2174
කමෙය	-11.2176
▁නිපාතම	-11.2186
▁වසෙ	-11.2186
▁හරිත	-11.2188
▁පුරිමනයෙනෙව	-11.2192
භූමියං	-11.2193
▁භාවිතත	-11.2196
පප	-11.2197
ිතත්	-11.2197
▁90.	-11.2198
බහුලෙ	-11.2202
▁උළාර	-11.2203
වරං	-11.2203
අය	-11.2208
සලොකෙ	-11.2212
▁මහාස	-11.2216
කාලං	-11.2217
ටදුක	-11.2222
ධනො	-11.2224
පමාද	-11.2229
පරිත්	-11.2232
▁වොහර	-11.2238
▁කරණීයා	-11.2241
▁ජොති	-11.2243
ඩන	-11.2243
රියෙසු	-11.2249
යමාන	-11.2253
දම්	-11.2255
▁තාවදෙ	-11.2257
▁තෙනාති	-11.2261
▁79.	-11.2264
▁82.	-11.2264
මණපුරෙජාතං	-11.2266
▁ඩය	-11.2267
තමී	-11.2268
▁නාවා	-11.2271
මතික්	-11.2272
භවති	-11.2272
ඨෙසු	-11.2275
චෙකස	-11.2279
▁සකදාගාමි	-11.228
▁පරියොසාන	-11.228
රූපානි	-11.2282
▁ගරුභ	-11.2283
▁විමාන	-11.2284
ඛොති	-11.2285
▁මහාමුනි	-11.2286
මුජ	-11.2289
▁එකප	-11.2298
ියො	-11.23
නිපාත	-11.2303
නිපාතො	-11.2304
වතී	-11.2308
▁මනං	-11.2318
▁ථිර	-11.2322
ජතො	-11.2322
යාකරණං	-11.233
▁සුඛුමා	-11.2333
යානෙ	-11.2334
▁පමාද	-11.2334
▁සාල	-11.2334
▁තාදිනො	-11.2336
▁විපුලං	-11.2345
තමාන	-11.235
▁පටිපදාය	-11.2361
▁නිරොධා	-11.2362
▁සරො	-11.2364
ඡායං	-11.2365
ටෙන	-11.2365
මකථං	-11.2377
▁හීනං	-11.2378
භුතං	-11.2385
ඨකො	-11.2388
▁මනසිකරො	-11.2389
ඤෙසු	-11.239
ඩික	-11.2396
▁සෙව	-11.24
▁පහීයති	-11.24
ාකාරෙන	-11.2403
දහන	-11.2405
කායං	-11.2416
▁ගිලානො	-11.2417
▁භොජනෙ	-11.2421
▁සීසෙ	-11.2423
▁අසුක	-11.2428
▁මනායතන	-11.2429
▁3	-11.2429
▁මහතා	-11.2429
▁සහෙතුකා	-11.243
▁88.	-11.2431
ාදිතො	-11.2434
නිපතිත	-11.2436
මාර	-11.2437
රජ	-11.2437
▁ඉමිනාව	-11.2441
▁භොතො	-11.2444
▁ඛීණ	-11.2446
▁ආල	-11.2446
▁දෙවි	-11.2446
▁අධිකරණ	-11.2455
▁කයිරා	-11.2456
රූපෙන	-11.2458
▁රජො	-11.246
ජිංසු	-11.246
▁නවිපාක	-11.2462
ලිත	-11.2466
▁භූමියා	-11.2466
ඛාහි	-11.2469
ඣොත	-11.247
තයො	-11.2471
රසා	-11.2474
▁එය	-11.2479
ගුණං	-11.2481
▁දුතියජ	-11.2485
ණව	-11.2486
▁කදා	-11.2486
▁අකාර	-11.249
▁ථෙර	-11.2492
▁පංසු	-11.2496
▁වොහාර	-11.2498
▁එකමෙව	-11.2499
වරො	-11.2505
කුබ්	-11.2507
වාදී	-11.2509
චමො	-11.2514
▁කරණං	-11.2516
ඨතීති	-11.2517
රහ	-11.252
ඡිමං	-11.2534
ඡථ	-11.2537
▁සහසා	-11.254
▁සූචි	-11.254
▁පූජා	-11.2541
▁තනු	-11.255
භෙදෙ	-11.2551
▁ඔකාස	-11.2551
පටිපදා	-11.2553
▁ගතෙ	-11.2555
▁සදිස	-11.2556
▁මංස	-11.2559
▁සතිපි	-11.2561
චනීය	-11.2561
▁භූතා	-11.2562
▁89.	-11.2567
කාදයො	-11.2573
කුලං	-11.2574
මලොකෙ	-11.2581
තකානි	-11.2583
ගාදි	-11.2586
▁පරා	-11.2586
▁කාරාපෙත	-11.2595
▁91.	-11.2601
මොහ	-11.2606
බානෙ	-11.2606
සරීර	-11.2608
ඣුපෙ	-11.2608
ිතුං	-11.2613
▁පරිම	-11.2615
යාපාද	-11.2619
▁කරොහි	-11.2619
ලප	-11.2621
▁අමත	-11.2622
▁සමාගතා	-11.2626
▁ආනාපානස	-11.2627
▁පභා	-11.263
▁යාචිතො	-11.2631
රාගො	-11.2634
▁ජනං	-11.2635
අක්	-11.2635
▁18	-11.264
යාමි	-11.2644
සතිපට	-11.2652
භුග	-11.2659
▁පඨ	-11.266
එතං	-11.2663
▁අලභන	-11.2663
▁රාගස	-11.2666
▁මාලා	-11.2667
සංව	-11.2669
▁85.	-11.267
මාවායාමො	-11.267
නිරුත්	-11.2686
▁සරස	-11.2688
▁පකිණ	-11.2692
ලකො	-11.2695
▁ඉරියාපථ	-11.2696
ජෙසි	-11.2697
▁පාළියා	-11.2705
▁ගාමණි	-11.2707
▁තදනන	-11.2708
ණික	-11.2709
▁සාමග්	-11.2713
සොසි	-11.2718
ථප	-11.2725
ඨිස	-11.2733
සායං	-11.2734
▁පාසාද	-11.2738
ඣාපන	-11.2738
ථුපුරෙජාතං	-11.274
▁අරූපිනො	-11.274
පටිලාභ	-11.2744
▁පාකටා	-11.2745
තරාස	-11.2745
දිවසෙ	-11.2746
▁චාතුද	-11.2746
ධිතො	-11.2752
භොජන	-11.2753
▁විභජ	-11.2759
ගාමං	-11.2762
▁සමාදි	-11.2762
තඵල	-11.2767
▁පරාමාස	-11.2768
▁අනාසවා	-11.2776
▁ධීතා	-11.278
කුට	-11.2785
ුං	-11.2789
කුලා	-11.2789
අල	-11.2791
▁ගාවො	-11.2791
▁නිරය	-11.2792
ඤවන	-11.2794
▁හොතූ	-11.2799
▁නචිර	-11.2805
▁රාගං	-11.2809
ඛමූලෙ	-11.2813
▁පථවීධාතු	-11.2813
▁චොරා	-11.2815
▁අනෙකවිහිත	-11.2816
▁ඨානානි	-11.2821
▁දිවස	-11.2824
▁ඝන	-11.283
▁නිමු	-11.2831
▁නිදානං	-11.2839
ඝාදිසෙසා	-11.284
▁දීපෙන	-11.2843
▁94.	-11.2844
▁92.	-11.2844
ටකො	-11.2852
මණෙන	-11.2858
▁උදායි	-11.2863
දිතුං	-11.2865
▁නියුත	-11.2867
නද්	-11.287
සමයෙ	-11.2871
ඡිකා	-11.2872
▁ජනි	-11.2876
▁අරණො	-11.2879
▁93.	-11.2879
▁පාතුභවන	-11.2881
රතන	-11.2881
▁උපාදානසම	-11.2885
▁අධික	-11.289
▁කොසජ	-11.2891
රාග	-11.2893
▁ගාරය	-11.2895
ධකාර	-11.2897
හෙත්	-11.2899
මුනො	-11.29
▁ඉව	-11.29
කතමා	-11.2902
▁ආචරියෙන	-11.2905
▁පූති	-11.2906
ජනවසෙන	-11.2907
ජිව	-11.2909
ඨප	-11.2913
▁චුතා	-11.2917
සිනා	-11.2917
තෙයෙව	-11.292
▁අදා	-11.2924
චිමෙ	-11.2928
▁පදෙන	-11.293
භාවදස	-11.2935
▁සීලෙසු	-11.2936
පවි	-11.2939
යානිකං	-11.2942
තරත්	-11.2947
චවොකාරෙ	-11.295
මාදාය	-11.295
▁තරුණ	-11.295
▁සිරසා	-11.2952
ඝාදිසෙසො	-11.2953
▁හෙව	-11.2954
▁මානුසං	-11.296
▁නිබ	-11.2962
▁යොගො	-11.2962
පටිඝා	-11.2962
▁ධීරා	-11.2965
හාතීති	-11.2965
▁5	-11.2965
ඤාණපච	-11.2967
▁මහාසාව	-11.2967
▁පුරිසපු	-11.2967
▁පානීයං	-11.2971
▁සුව	-11.2973
මහාරාජ	-11.2975
▁පරියාප	-11.2975
මහල	-11.2975
▁නපුරෙජාත	-11.299
▁විචින	-11.299
දිබ්	-11.2997
සභාවං	-11.3006
▁සරිත	-11.3006
▁මොහං	-11.3008
ඝාදිසෙස	-11.3009
ිංසූති	-11.301
සමානා	-11.3016
▁යද	-11.3017
මකාසි	-11.3021
▁97.	-11.3021
භගවා	-11.3024
▁සකවාදි	-11.3029
ථූහි	-11.3029
▁සාවකස	-11.303
▁පීත	-11.3031
ධම	-11.3033
ජෙහි	-11.3041
හිං	-11.3042
▁මරණස	-11.3042
▁අහෙතුකො	-11.3045
ධිවසෙන	-11.3046
▁රූපාවචරං	-11.3052
▁අපචයගාමි	-11.3057
▁ජාතිං	-11.3062
ථුකථා	-11.3065
ඤාව	-11.3065
▁තෙවි	-11.3065
කල	-11.3066
ථෙර	-11.3066
එහි	-11.3068
▁පරමං	-11.3072
චසහගතො	-11.3076
ණානං	-11.3076
▁නරා	-11.3078
දාමි	-11.3078
▁භූතං	-11.3081
▁ආරභති	-11.3085
හම්	-11.3092
සභාවො	-11.3095
▁කොටි	-11.3098
▁කාරිතෙ	-11.3101
▁භවෙසු	-11.3107
▁සුණ	-11.3113
▁කුටි	-11.3114
▁ජහිත	-11.3115
▁පසාදො	-11.3125
▁ඔල	-11.3135
▁නාගා	-11.3139
ථබ්	-11.3141
▁පකාසිතො	-11.3142
දොති	-11.3143
▁අනාදරියං	-11.3155
ලොකො	-11.3155
ලොම	-11.3158
කදා	-11.3159
▁නදියා	-11.3159
▁දෙහං	-11.3161
▁සරූපතො	-11.3162
අනුප	-11.3163
▁කුට	-11.3163
පරියාය	-11.3165
▁ආසවො	-11.317
භාගෙ	-11.3172
▁කාමාවචරෙ	-11.3177
▁දිසාය	-11.3178
▁නග්	-11.318
ජිගු	-11.3182
▁එකෙක	-11.3184
▁සමථෙහි	-11.3185
▁නියත	-11.3187
▁විර	-11.3187
▁කොවිදො	-11.3193
ගියෙ	-11.3197
▁වාදො	-11.3199
▁රසො	-11.3207
▁හිත	-11.3208
▁අභවිස	-11.3208
▁රාසි	-11.3211
▁පාරි	-11.3217
සාහ	-11.3218
ණම්	-11.3221
▁උදකෙන	-11.3223
▁කුලානි	-11.3227
කතම	-11.3229
ූපසම	-11.323
ගාහී	-11.3231
වොහාර	-11.3234
▁අරියං	-11.3236
යෙහි	-11.3237
▁සුගත	-11.3238
▁95.	-11.3238
▁අධිගත	-11.3238
ාදිඅ	-11.3247
ථාරෙ	-11.3247
ඛාසහගතං	-11.3248
▁පරියෙසිත	-11.3255
ගමනෙ	-11.3255
▁කිල	-11.3258
▁පිව	-11.3259
ජාතා	-11.326
▁ථූප	-11.3262
ඛාරෙන	-11.3266
▁සායන	-11.3266
බමෙතං	-11.3272
▁එවමාහංසු	-11.3275
▁එතදවොචුං	-11.3275
▁උදානෙසි	-11.3276
▁කරොථ	-11.3281
▁දෙවී	-11.3286
ලෙඛ	-11.329
▁මහාදානං	-11.3293
අපි	-11.3294
▁උපමා	-11.3295
▁ඛාදනීයං	-11.3295
▁තාපසො	-11.3298
සාමාති	-11.3298
දරාගො	-11.3299
ලව	-11.3302
භෙදා	-11.3303
▁බලානි	-11.3305
▁වීර	-11.3306
▁තිවිධා	-11.3311
ඤුතා	-11.3312
ඛරණී	-11.3314
ඡාදෙ	-11.3316
ටෙත	-11.332
▁තදනු	-11.3325
ානුබ	-11.3326
තෙනා	-11.333
තාරොමෙ	-11.3333
තකි	-11.3333
චයතා	-11.3335
තානී	-11.3336
▁තිබ	-11.3339
කාදීනං	-11.3341
▁ජග	-11.3348
▁සමුදාචර	-11.3361
වාරෙන	-11.3362
▁පකාසෙත	-11.3362
යාකර	-11.3373
▁සීඝං	-11.3374
▁ධාතූනං	-11.3377
▁පරියෙසන	-11.3379
චාරි	-11.3379
▁තිධා	-11.338
▁රූපාර	-11.3381
▁96.	-11.3386
▁ඔළාරිකා	-11.3387
▁චතුවීසති	-11.339
▁මාතුගාමො	-11.3392
පකාසනා	-11.3392
▁අනාසවං	-11.3394
චයෙසු	-11.3402
▁අභිභවිත	-11.3405
▁ආගමි	-11.3408
▁හෙම	-11.3411
වාදා	-11.3412
▁සෙවන	-11.3417
භමාන	-11.3422
▁උපාදාරූපං	-11.3429
තිකථා	-11.3431
▁ගිලාන	-11.3434
පරියායෙන	-11.3437
නිය්	-11.3437
▁රූපාවචරෙ	-11.3437
▁කරොමි	-11.3438
ඛුනිස	-11.3438
▁පජහ	-11.3441
නුපාදානියං	-11.3449
▁අවසෙසං	-11.345
▁භාවිතො	-11.345
කුක්	-11.3459
පාතො	-11.346
▁සුගති	-11.3462
▁මහාජනො	-11.347
▁වායමති	-11.3472
▁ඔපම	-11.3477
ඤත	-11.3482
▁තථාගතෙන	-11.3489
මාකම්	-11.3493
සකා	-11.3494
▁පටිවිද	-11.3495
▁පාණං	-11.3496
හෙතුක	-11.3496
ගණනාය	-11.3497
▁100.	-11.3497
▁සහෙතුක	-11.3499
▁සංයොජනානි	-11.3501
මකා	-11.3502
තදස්	-11.3504
පරිපු	-11.3506
පදෙසෙ	-11.3507
තුමි	-11.3516
නාව	-11.3516
හෙතුකපටි	-11.3516
▁මූලාය	-11.3516
▁ජරාය	-11.3519
නතාය	-11.3522
සිබ්	-11.3526
▁විරති	-11.3529
▁පහීය	-11.3529
▁99.	-11.3535
▁98.	-11.3535
▁පාදං	-11.3541
▁සීහනාදං	-11.3542
▁විමානං	-11.3546
මූලං	-11.3558
▁ඨපිතං	-11.3571
ඣායො	-11.3571
මාලා	-11.3583
▁සකෙ	-11.3584
▁ජවන	-11.3585
▁දෙසිත	-11.3585
පූජ	-11.3588
▁නීවරණා	-11.3588
රිව	-11.359
චරියං	-11.3591
▁යමක	-11.3592
▁විකාලෙ	-11.3593
▁පටිවෙධ	-11.3593
▁උපල	-11.3599
▁සරා	-11.36
▁ධනෙන	-11.3604
▁හංස	-11.3604
▁සදෙවකෙ	-11.3613
▁මොහස	-11.3613
තකාන	-11.3617
විහාරෙ	-11.3619
▁පටිලභති	-11.3628
බහුලො	-11.3637
අධි	-11.3639
▁මුඛෙ	-11.3639
ණාදි	-11.3642
▁පුරිසෙන	-11.3647
▁අරි	-11.3654
ඛමසුඛං	-11.3654
▁එතායාති	-11.3658
කවසෙන	-11.366
▁වීථි	-11.3663
▁ඉමම	-11.3663
තාදීසු	-11.3663
ඛපටිපදං	-11.3667
ගුණො	-11.3672
▁මොචෙ	-11.3673
▁සාපි	-11.3679
▁වීරියාර	-11.3686
▁පරියු	-11.3687
රියෙන	-11.3689
▁පදානං	-11.3689
පුර	-11.369
මණතො	-11.369
▁නාන	-11.3697
ථෙනා	-11.3698
දිතා	-11.3702
▁පථවියං	-11.3706
ලෙහි	-11.3707
නගර	-11.3713
▁තෙජො	-11.3713
තිආදිකා	-11.3723
කවාළ	-11.3726
තපරි	-11.3729
▁කෙසා	-11.373
මහන්	-11.3731
▁ඨපෙති	-11.3733
▁සංයොජනානං	-11.3734
සහගතො	-11.3737
කතාය	-11.374
ඛානි	-11.3742
මහං	-11.3743
▁ඤාණවිප	-11.3746
▁2	-11.3755
ඛරා	-11.3757
▁රූපාදි	-11.3757
▁මල	-11.3758
බාව	-11.3759
▁සකත්	-11.3762
රුද්	-11.3763
▁විනිපාතං	-11.3773
කුණ්	-11.3776
▁සුඛී	-11.3777
▁චිතො	-11.3778
▁සංකිලෙස	-11.3783
වාසිනො	-11.3783
▁රසා	-11.3784
යොගෙ	-11.3785
▁ආචරියා	-11.3787
▁උතුසම	-11.3787
▁වසා	-11.3788
ගලෙන	-11.3789
තනිද්	-11.3792
තල	-11.3793
ජාතකෙ	-11.3796
▁පාණ	-11.3799
▁සීලවිප	-11.3802
යානික	-11.3803
බිධා	-11.3805
දාහං	-11.3808
තාදීහි	-11.3808
පඨම	-11.3815
▁විරාගා	-11.3818
▁මූලෙ	-11.3819
▁සුතෙන	-11.382
▁මනොසම	-11.3828
දප්	-11.3828
▁ඵලානි	-11.3829
▁රාහුල	-11.383
බහුල	-11.383
මාසති	-11.3831
▁කිරිය	-11.3832
භෙති	-11.3836
▁දෙස	-11.384
▁විපාචෙ	-11.3841
▁මුඛෙන	-11.3849
▁කථෙතුං	-11.3855
තනාව	-11.3859
▁භෙද	-11.3863
බායී	-11.3863
ාදීනම	-11.3867
▁විභාවෙ	-11.3868
දාදි	-11.387
▁කිලෙසො	-11.3872
▁යාපෙ	-11.3872
▁ඣානා	-11.3877
▁103.	-11.388
පජානාති	-11.3882
▁කසිණ	-11.3883
ථෙරව	-11.3884
▁රූපාවචරානං	-11.3892
ඛයෙ	-11.3894
තානමෙවාති	-11.3898
මාය	-11.39
ඨතු	-11.3907
▁සෙසානි	-11.3909
▁ඔරම	-11.3909
ථරණ	-11.3911
ඤායතීති	-11.3915
තචීවරමාදාය	-11.3919
▁විබ්	-11.3919
ධිකං	-11.392
▁අපායං	-11.3922
▁ආපදාසු	-11.3923
ඛමානා	-11.3924
භාස	-11.3926
▁තිවිධො	-11.3931
▁චෙතෙති	-11.3935
දරා	-11.3952
සුපි	-11.3954
පභෙද	-11.3954
පුථුජ	-11.3959
පටිපාටියා	-11.396
▁පරියායො	-11.3962
නිධි	-11.3965
පදෙස	-11.3967
ඛුකො	-11.3971
කවිචාරානං	-11.3972
ඨීනි	-11.3973
▁සාඛා	-11.3976
ථමෙවාති	-11.3978
බාල	-11.3981
තරතනසම	-11.3983
බම	-11.3985
▁චෙතියං	-11.3986
භුත්	-11.3986
▁පභුති	-11.3987
▁ඉමානෙත	-11.399
▁කුහිං	-11.3993
▁විසභාග	-11.3994
▁නියතො	-11.3996
පොති	-11.3999
ඛෙපනීයක	-11.4
▁නිරොධං	-11.4
▁බහුධා	-11.4001
▁නිවි	-11.4002
▁ආවාසො	-11.401
ණනායං	-11.4012
තුක	-11.4016
▁ලාභො	-11.4016
▁තාදිසෙ	-11.4019
▁විසෙසන	-11.4019
ඨිතෙන	-11.4022
▁ලොහිතං	-11.4026
පරො	-11.403
ණකො	-11.4032
ඨිනො	-11.4032
▁101.	-11.4037
මසි	-11.4043
පටිසංවෙදී	-11.4044
නාග	-11.4045
▁යෙව	-11.4047
▁පභාසතී	-11.4048
පණිහිත	-11.4049
ජානාති	-11.4052
▁නායං	-11.4053
පධානා	-11.4054
පාදි	-11.4054
මණී	-11.4055
▁සායං	-11.4058
උදක	-11.4062
▁කරණෙ	-11.4062
▁ධොවිත	-11.4064
▁සුරා	-11.4065
තංයෙව	-11.4065
▁සුප	-11.4066
▁ඝානං	-11.4067
▁ඝර	-11.407
▁ඛලු	-11.4073
▁දෙවතානං	-11.4074
ිධෙක	-11.4074
හරණ	-11.4078
▁සාමිවචනං	-11.4081
නකො	-11.4082
▁මුග	-11.4088
▁වූපසමා	-11.4088
දිසි	-11.4091
▁පාදා	-11.4091
▁තාහි	-11.4092
බහෙතුකස	-11.4093
ාදිප	-11.4094
▁නාගරාජා	-11.4095
▁ලාභ	-11.4095
▁අපාය	-11.4095
▁ඤාණදස	-11.41
▁රොග	-11.4101
මාවාචා	-11.4103
ඛානුප	-11.4103
▁විරාග	-11.4106
යොගො	-11.411
▁අගාරං	-11.4113
▁102.	-11.4116
▁ගණස	-11.4119
ඤාණා	-11.4119
බෙසම	-11.4121
▁නොආසව	-11.4122
ඤාණානි	-11.4123
ලස්	-11.4123
හාන	-11.4126
යාදීසු	-11.4127
මණත්	-11.4129
තානම	-11.4131
සමුද්	-11.4132
▁අලොභො	-11.4135
▁පුනපි	-11.414
රුළ	-11.414
▁ආරොග	-11.4141
▁දීඝං	-11.415
නිරොධා	-11.4152
▁උභයම	-11.4152
මාව	-11.4156
▁හිර	-11.4157
ඨිගතං	-11.4165
▁බහුතරා	-11.4167
▁පරිවාර	-11.4172
▁රූපී	-11.4173
▁පසංසන	-11.4178
▁ආභ	-11.4183
හාක	-11.4189
▁ආරභි	-11.419
සමාන	-11.4193
▁පනාහං	-11.4196
▁අජාතස	-11.4196
බෙනිවාසානු	-11.4197
චනීයානුලොමං	-11.4199
▁උපාසක	-11.42
ඨතො	-11.4203
ලොකෙ	-11.4203
▁කලි	-11.4203
▁ජීවන	-11.4204
▁වෙළු	-11.4207
ආදීනි	-11.421
▁සිරි	-11.4213
▁සභාවතො	-11.4217
▁සමාධිසම	-11.4222
▁එකෙකං	-11.4227
දීප	-11.423
▁වචනම	-11.4231
▁වනස	-11.4231
ථුකං	-11.4231
ජාන	-11.4234
උපසම	-11.4234
ාදිභෙදං	-11.4234
▁පහොති	-11.4235
භොජනං	-11.4239
ඛරො	-11.4242
ධවීරියො	-11.4243
තුප	-11.4244
▁ඛාදිත	-11.4246
ාපෙති	-11.4247
තායෙව	-11.4251
▁රාගාදි	-11.4255
ඡිමෙ	-11.4258
පටිසාර	-11.4258
ූපමා	-11.4272
ඤක්	-11.4274
හතීති	-11.4276
ඩිකො	-11.4277
ධිසම	-11.4288
▁කුමාර	-11.4288
ඉදානි	-11.429
▁ගුය	-11.4291
ථම	-11.4292
ඵුට	-11.4292
ථාරෙත	-11.4293
▁ආහර	-11.4294
ආදීහි	-11.4294
▁ගුණෙහි	-11.4302
ඨකථාසු	-11.4303
භින	-11.4307
▁අසාධාරණ	-11.4309
▁පජහතීති	-11.4309
▁පරත්	-11.4311
▁අරූපානං	-11.4312
▁විපුල	-11.4313
▁සී	-11.4315
▁107.	-11.4318
▁පටිජ	-11.4319
වනං	-11.4319
තඅ	-11.4323
භයෙන	-11.4327
කුමාරො	-11.4339
▁ඡාර	-11.4344
▁පාපිකා	-11.4344
▁නාරී	-11.435
▁සොචති	-11.4354
භීරො	-11.4354
යොජන	-11.4356
▁තථාගත	-11.4358
ඤාසම	-11.4365
▁සකදාගාමී	-11.4366
▁ලිඛිතං	-11.4371
බාජකා	-11.4373
▁තයිදං	-11.4374
පධානස	-11.4376
▁වෙද	-11.4379
ඛාන	-11.4379
පරියායො	-11.4385
දායකො	-11.4388
▁තමො	-11.4392
පයොගෙ	-11.4393
▁ආකාසො	-11.4399
▁108.	-11.44
තුකාම	-11.4403
▁පෙසෙසි	-11.4404
▁ඤාණානි	-11.4407
▁දොසා	-11.4408
▁හොහි	-11.4409
දෙවතා	-11.441
▁වෙවචනං	-11.4412
ධාදීනං	-11.4413
▁භගිනී	-11.4416
▁ජර	-11.4419
නිදාන	-11.4419
▁උදකස	-11.4421
▁ආපො	-11.4427
▁භාරද	-11.4429
▁ධුරං	-11.443
▁නයන	-11.4431
බක	-11.4433
මභි	-11.4439
▁කථිනං	-11.444
චයානං	-11.4441
ධපූජායි	-11.4441
ඡර	-11.4443
▁ජය	-11.4443
▁මුණ	-11.4444
▁ගිලානස	-11.4446
▁කරණීයො	-11.4447
▁ජීවං	-11.4453
ඛූසු	-11.4454
ඣතී	-11.446
ඛරං	-11.4462
ඩෙති	-11.4463
▁පුරෙභ	-11.4464
▁සතිං	-11.4465
▁දුතියම	-11.4465
▁එකම	-11.4465
▁මායා	-11.4477
ඤථත	-11.4479
ඩකං	-11.448
▁එකවීස	-11.4483
▁අනුසාස	-11.4483
▁අයොනිසො	-11.4486
කලි	-11.4486
පාහං	-11.449
▁පහීනත	-11.4494
එ	-11.4495
▁කාමානං	-11.4496
කමෙව	-11.4501
ඨපෙ	-11.4507
▁සාසවා	-11.4509
තරිය	-11.451
▁පරිපූරෙති	-11.4512
භාරං	-11.4512
නීය	-11.4516
මපථ	-11.4517
▁නීවරණ	-11.4517
විමාන	-11.4517
▁යදිපි	-11.4518
ඡෙන	-11.4521
▁104.	-11.4524
▁105.	-11.4524
▁ආලපති	-11.4526
තානු	-11.4533
ඨමො	-11.4534
සමණ	-11.4534
▁තථාගතෙ	-11.4537
▁උපොසථක	-11.4537
ආර	-11.454
අභික	-11.454
▁පරිහර	-11.4541
බානීති	-11.4541
▁විදූ	-11.4543
▁තදෙක	-11.4545
දුග	-11.4545
▁අවන්	-11.4546
▁යුගන	-11.4549
තෙක	-11.4552
ඨානාදීනි	-11.4555
▁ඔතරිත	-11.456
▁මය	-11.457
ඛාරුප	-11.4571
▁පහීනං	-11.4571
ජාතං	-11.4573
ලභො	-11.4574
▁කාරාපෙ	-11.4576
▁දෙහී	-11.4582
රහිත	-11.4583
ඡතා	-11.4585
▁සූප	-11.4586
ඛුකා	-11.459
සාධූ	-11.459
▁පදුමං	-11.4593
දියො	-11.4595
ඤායාති	-11.4595
ඵුල	-11.4596
කොසි	-11.4604
පජානකාරී	-11.4607
▁106.	-11.4607
▁යොගිනා	-11.4616
බෙනිවාසං	-11.4619
▁ඔකාසො	-11.462
චමී	-11.4622
▁පටිඝ	-11.4623
යොගෙන	-11.4623
▁ජානිස	-11.4627
▁පටිබ	-11.4627
බකාලං	-11.4632
▁පහරිත	-11.4634
ිතො	-11.4635
▁කාක	-11.4636
▁පවිස	-11.4636
▁සුමන	-11.4637
▁සොකපරිදෙව	-11.464
පාදන	-11.4645
යමානෙ	-11.4648
▁කායචි	-11.4654
ධවසෙන	-11.4659
ධාදීහි	-11.4661
▁ඉධාති	-11.4662
ණනං	-11.4663
▁ජනපද	-11.4665
චරණ	-11.4667
වචනෙ	-11.4667
චිත	-11.4669
▁උපාය	-11.4675
ජසි	-11.468
ඛුනි	-11.4686
▁තදන්	-11.4686
පාචිත්	-11.469
▁116.	-11.4691
▁110.	-11.4692
▁වෙළුවනෙ	-11.4692
▁සමණං	-11.4695
ථකො	-11.4699
ොපි	-11.4702
▁සහෙතුකං	-11.4705
ජනානං	-11.4707
ගහෙසි	-11.4711
නාමෙන	-11.4712
ගමත්	-11.4715
ඤාහි	-11.472
▁ආදීනව	-11.472
▁අචි	-11.4722
▁යාවදෙව	-11.4724
▁කට	-11.4726
සරණො	-11.4728
කාරකො	-11.4729
ඤාපි	-11.473
▁අභ	-11.4733
ඣිමා	-11.4733
▁මාතලි	-11.4734
හම	-11.4734
▁විසයෙ	-11.4734
▁ආචරියස	-11.4735
ථූ	-11.4736
යමක	-11.4737
තකමෙව	-11.4737
ූපග	-11.4738
▁පරිහානි	-11.4739
මූලෙ	-11.4741
ඤාප	-11.4745
ඣොහාරෙ	-11.4747
දරො	-11.4748
▁ධුව	-11.4749
බර	-11.4751
▁විහරතීති	-11.4754
▁එවරූප	-11.476
▁වෙරං	-11.4762
▁බහූනං	-11.4764
▁හීනො	-11.4766
පාරමි	-11.4768
▁පරිසං	-11.4768
▁ඛණං	-11.4769
ලොප	-11.4771
▁සංසාරෙ	-11.4772
නප්	-11.4779
▁රාජපු	-11.4782
▁ගූථ	-11.4787
ඨාතුං	-11.4788
▁පඨමෙන	-11.4794
▁පවිසති	-11.4794
▁විවරිත	-11.4794
▁අභාව	-11.4797
ඡාසහගතෙ	-11.4797
ඣාසයො	-11.4799
▁ඨිතියා	-11.48
▁රූපධාතු	-11.4801
▁පරියෙසති	-11.4803
▁කථිනු	-11.4803
▁ධාරෙති	-11.4812
▁බීජං	-11.4813
▁සමො	-11.4813
▁සීඝ	-11.4816
තලෙ	-11.4818
විධි	-11.482
▁රසං	-11.482
▁යොගක	-11.4821
ජාදි	-11.4822
▁තාවදෙව	-11.4822
▁ධාතුස	-11.4829
▁ජායතෙ	-11.4831
ඡයකථා	-11.4833
දනො	-11.4834
ථෙතං	-11.4836
▁පොසො	-11.4836
▁කොසිය	-11.484
තිආදීසුපි	-11.4845
▁ඛීණාසව	-11.4849
තබහි	-11.4849
▁භාතා	-11.485
▁විරුද	-11.4851
ධාදයො	-11.4854
▁සමාධිං	-11.4855
පාත	-11.4862
පාන	-11.4868
කරණීය	-11.4869
▁වදමානො	-11.4869
▁ලො	-11.487
▁අකරො	-11.4871
▁පයොජනං	-11.4873
බුත	-11.4875
කූට	-11.4876
ඩප	-11.4877
පදෙසො	-11.4878
▁ආමසති	-11.4879
▁කසි	-11.4882
▁යාථාවතො	-11.4883
කමිතුං	-11.4886
▁උජුං	-11.4894
ඨුං	-11.4894
ගතාර	-11.4897
▁115.	-11.4905
▁111.	-11.4905
▁113.	-11.4905
▁සමාසො	-11.4905
▁මාතාපිතූනං	-11.4907
සජාතො	-11.4907
▁පාක	-11.4908
▁නීවරණසම	-11.4909
ගණං	-11.491
ධවචනං	-11.492
එකං	-11.4921
▁චරණ	-11.4924
▁දහරො	-11.4927
▁තදුභය	-11.4938
▁කාමවි	-11.4939
තාදීනි	-11.4939
▁මාරස	-11.494
සාසො	-11.4942
▁109.	-11.4948
▁118.	-11.4948
සයි	-11.4954
▁ලෙඩ	-11.4959
මණවසෙන	-11.4965
ගුණෙ	-11.4965
ඡිතෙ	-11.4968
ඤතරා	-11.4971
▁සීහස	-11.4972
නිර	-11.4974
බී	-11.4978
නාපි	-11.4981
▁ජනස	-11.4985
ජිතෙ	-11.4985
▁අකා	-11.4986
▁112.	-11.4992
▁භා	-11.4992
▁මුනී	-11.4996
මානත්	-11.4997
ථෙරීගාථා	-11.4998
▁ආසුං	-11.4999
ඡෙදන	-11.5
පමෙව	-11.5001
▁කිලෙසෙහි	-11.5001
▁ධාතූ	-11.5005
▁අපරිස	-11.5007
ඡෙදතො	-11.5007
▁තෙලං	-11.5013
▁ආරකා	-11.5015
හථා	-11.5017
▁උර	-11.5017
භාගො	-11.5017
ානුපස	-11.5019
▁ඝානායතන	-11.502
▁සදෙවක	-11.5022
ජනාය	-11.5026
▁පථවි	-11.5027
▁ජාතිප	-11.5032
▁ථෙරෙ	-11.5033
ඡෙදෙ	-11.5034
ණවණ	-11.5035
▁ඉමාහි	-11.5037
▁ලොකනායකං	-11.5037
ෙසි	-11.5038
ගමෙ	-11.5038
ගණො	-11.5039
▁රථ	-11.5042
▁චතුරාසීති	-11.5048
▁නාසක	-11.5056
පදෙන	-11.5057
නිරොධ	-11.5061
▁ලාමක	-11.5064
▁ඔකාසෙ	-11.5066
යමානං	-11.5069
තනෙන	-11.5069
අහ	-11.5074
▁නාවං	-11.5081
▁පනෙස	-11.5083
තෙනපි	-11.5085
▁සූරිය	-11.5091
▁දධි	-11.5096
ථතාය	-11.5096
දිමා	-11.5098
තාදිසො	-11.5101
▁සෙනාපති	-11.5102
ඩලෙ	-11.511
▁සෙති	-11.511
▁ඔවද	-11.5111
▁බොධිපක	-11.5111
▁යෙනාය	-11.5114
▁සතතං	-11.5114
යාහං	-11.5115
▁පුමෙ	-11.5119
ඤුත	-11.5121
▁උපරූපරි	-11.5123
▁නාපරං	-11.5124
▁පුරං	-11.5126
ඛණතො	-11.5128
ඤාපෙති	-11.5129
ඛදොම	-11.5129
ගහණා	-11.513
ඡාදෙත	-11.5135
පටිවෙධ	-11.5135
▁දෙවරාජා	-11.514
▁නීච	-11.5146
භතී	-11.5147
▁පම	-11.5149
ඤාණධාතුයා	-11.5151
කිරියාය	-11.5152
▁අවිගතප	-11.5158
▁මානානුසයං	-11.5159
▁වෙදනාප	-11.5165
▁ආණා	-11.5166
ඤාවෙදයිතනිරොධ	-11.5167
▁සභාග	-11.5168
අපරෙහිපි	-11.517
ගණා	-11.517
ගාහක	-11.5171
▁ඛීරං	-11.5172
ණාය	-11.5177
මුග	-11.518
▁උපාසකා	-11.5185
මිතො	-11.519
දාර	-11.519
ඨහ	-11.519
විභාග	-11.5197
ජාතිකො	-11.5198
නෙතං	-11.5199
නියො	-11.5203
▁පොසෙ	-11.5204
දීති	-11.5207
▁ආදිසද	-11.521
▁සාදියති	-11.521
▁කාරෙති	-11.5211
පාර	-11.5222
▁කරෙ	-11.5222
▁කුසලාකුසල	-11.5223
බහෙතුකා	-11.5225
ඛෙපෙ	-11.5226
රෙව	-11.5228
▁සරති	-11.5234
▁සහජාතො	-11.5235
ඡිකතා	-11.5235
දිසො	-11.5235
බජි	-11.5236
▁ගරුකං	-11.5236
චාරො	-11.5236
ලානි	-11.5238
▁සමාගමො	-11.5241
නොව	-11.5241
▁අනුභවන	-11.5244
▁ඛීණාසවා	-11.5245
▁නර	-11.5246
▁භවතීති	-11.5246
මොදි	-11.5247
▁සළායතන	-11.5249
▁තතියස	-11.5249
▁නපුංසකෙ	-11.525
▁නානුසෙ	-11.5253
ගාමො	-11.5257
හාවාරො	-11.5258
ඵිය	-11.5258
▁යථාභතං	-11.5258
තනත්	-11.526
යොභාවාය	-11.5262
ණොති	-11.5263
▁ජාල	-11.5266
ඡරා	-11.527
▁සීලානි	-11.5272
▁බාහා	-11.5272
▁අනියතො	-11.5273
යාපන	-11.5277
ඨාසො	-11.5286
චකුක	-11.5289
▁භුජ	-11.5295
ණකං	-11.53
රිදං	-11.5307
යාදයො	-11.5309
ඵාදෙ	-11.5314
▁පටිඝස	-11.5315
ධසාසනෙ	-11.5319
▁ධූම	-11.532
▁සමුප	-11.5322
සාවන	-11.5322
ථාරම	-11.5327
චාරී	-11.5332
▁අදොසො	-11.5333
ණන	-11.5333
▁පෙසෙත	-11.5334
ණිකා	-11.5347
▁ආසවක	-11.5347
▁අනාගතම	-11.5347
▁පොස	-11.5349
ඡිකරි	-11.5349
ඤතං	-11.5351
▁පරිදෙව	-11.5351
රෙහි	-11.5351
තචීවර	-11.5352
ගාථාය	-11.5353
▁අවීති	-11.5355
සිතත්	-11.5356
සභාවා	-11.5356
▁චොදනා	-11.5364
▁හිදං	-11.5366
ඛුනීති	-11.537
ධකො	-11.537
පබ	-11.5373
▁කුස	-11.5375
▁හීනා	-11.5375
ධව	-11.5376
ඵලො	-11.538
▁ඝාතෙ	-11.5387
▁චරි	-11.5391
▁122.	-11.5392
▁119.	-11.5392
චිදෙව	-11.5394
▁විසම	-11.5399
▁සීලෙ	-11.5399
ිනිං	-11.5404
▁නදිං	-11.5404
තුනො	-11.5405
▁සංයොජනං	-11.5409
රහා	-11.541
▁ථූල	-11.541
▁සාරණීයං	-11.541
රහිතා	-11.5411
ථාන	-11.5416
▁කොටිසතස	-11.5419
▁රාධ	-11.5419
ථියානං	-11.5419
කථායං	-11.542
බතාය	-11.542
මතාය	-11.5422
රහිතං	-11.5425
▁ඛර	-11.5425
▁පරියාදාය	-11.5435
නකං	-11.5436
ඤූනං	-11.544
▁විජානන	-11.5442
හාකාරෙහි	-11.5443
බිධො	-11.5446
▁ලොහ	-11.5449
පධානං	-11.5452
මාපටිප	-11.5453
▁නායකො	-11.5454
ථායං	-11.5454
ගාමි	-11.546
ඡිමා	-11.5462
ටකං	-11.5465
▁මහෙසි	-11.5465
▁භුසං	-11.5467
පාප	-11.5471
යිං	-11.5473
▁දිසාසු	-11.5478
ඡිකිරියා	-11.5478
ඝි	-11.5479
▁භාසිස	-11.548
දකෙ	-11.5482
මියා	-11.5485
නුපස	-11.5487
භූතානං	-11.5488
▁බාළ	-11.5489
▁පටිඝානුසයං	-11.5489
▁විරු	-11.5491
▁විහරතී	-11.5498
▁ඛෙමං	-11.5498
මණානි	-11.5499
▁භාර	-11.55
▁තදුභයං	-11.5503
තාරූපානං	-11.5506
කාරකා	-11.5512
▁අපග	-11.5513
නෙපි	-11.5521
පුරෙ	-11.5522
ඛුධාතු	-11.5524
▁පරිවාරෙත	-11.5524
නීයො	-11.5527
▁ආනිසංස	-11.5529
▁121.	-11.5529
නිරොධො	-11.5529
▁කාලමකාසි	-11.553
මොදනීයං	-11.553
▁පසෙනදි	-11.553
▁ථෙරානං	-11.553
▁මුසාවාද	-11.5533
මාභිසමයො	-11.5534
▁සරණො	-11.5534
▁පයොග	-11.5537
පරිබ්	-11.554
හෙතූ	-11.5551
චසහගතෙ	-11.5553
සානු	-11.5553
▁තදුප	-11.5557
▁ජීවති	-11.5565
4	-11.5567
එතෙ	-11.5567
▁රූපාවචරා	-11.5568
▁114.	-11.5575
▁117.	-11.5575
▁පුරිසෙ	-11.5575
▁පෙසෙ	-11.5578
▁හෙස	-11.5579
▁තාදී	-11.5587
දොසා	-11.5588
▁පුථූ	-11.559
ලභා	-11.559
▁රාජගහං	-11.5593
මානෙන	-11.5595
පටිඝස	-11.5595
▁විභව	-11.5601
▁විරූළ	-11.5602
▁කරොහී	-11.5603
▁සීමං	-11.5604
▁ආදා	-11.5605
රානි	-11.5606
රාව	-11.5608
ඤාණසම	-11.5613
දෙසි	-11.5614
▁අපරා	-11.5614
මකො	-11.5615
▁පරිවාරෙ	-11.562
ජෙව	-11.562
දිතබ	-11.5626
▁යොනං	-11.5627
▁වචීදු	-11.563
▁ආහුන	-11.5634
හු	-11.5637
▁කිලි	-11.5638
▁අහොසී	-11.564
▁අතීතානාගතප	-11.5645
▁පොරාණා	-11.5646
විසෙසං	-11.5649
ාධිප	-11.5653
වානාති	-11.5655
තිඤාණද	-11.566
මිනො	-11.5663
දරාග	-11.5665
▁දානෙ	-11.5665
▁ලොකියං	-11.567
▁තාලාව	-11.5671
▁පාටියෙ	-11.5671
ඩුල	-11.5678
▁ඡළ	-11.5678
පහාත	-11.5679
▁කාතු	-11.5681
▁ආහාරසමු	-11.5683
කුසලත	-11.5685
මූලකා	-11.5687
▁පටිපු	-11.569
▁සාරථි	-11.5691
▁භවිතුං	-11.5692
බානප	-11.5692
මාරො	-11.5693
▁අරූපාවචර	-11.5693
▁මොර	-11.5694
ජථ	-11.5695
▁යථාසම	-11.5696
මසෙනාපති	-11.5697
▁අධිගතො	-11.5699
කරණා	-11.5701
▁තෙභූමක	-11.5701
▁ඔර	-11.5704
තසහභු	-11.5707
ථිතා	-11.5709
වාදං	-11.571
ගතෙන	-11.5711
▁120.	-11.5715
▁ඵුසෙ	-11.5716
▁වීත	-11.5716
ානෙව	-11.5718
▁අරහති	-11.5718
▁බොධියා	-11.5724
▁රථං	-11.5728
▁භවරාගානුසයං	-11.5728
▁සභාවො	-11.5728
▁චොදිතො	-11.573
▁විවාදො	-11.573
▁දසසු	-11.5736
විසි	-11.5739
කූල	-11.5743
ඝික	-11.5745
▁ලොකනාථ	-11.5753
▁පථවියා	-11.5753
ජපරි	-11.5757
▁ලා	-11.5757
නීල	-11.576
▁123.	-11.5761
මකථා	-11.5763
භාවාය	-11.5763
▁17	-11.5765
නාගතොති	-11.5767
ඛෙසු	-11.5769
ානුරූපං	-11.577
යිතබ්	-11.5776
දානෙ	-11.5781
තකරො	-11.5786
තමානං	-11.5793
විසයා	-11.5796
බභාග	-11.5797
ෙතීති	-11.5797
ජවන	-11.5803
▁අසු	-11.5807
▁ගිම	-11.5818
▁පතති	-11.5819
ගවො	-11.5821
ඤාණානං	-11.5822
▁ලාභං	-11.5823
තුකා	-11.5826
තුකාමතාය	-11.5832
▁පිස	-11.5839
▁විභාවනියං	-11.5856
සීසෙන	-11.5858
▁ආතප	-11.5859
ජරෙ	-11.5865
▁ජානතො	-11.5868
▁පරියොසානං	-11.5874
ඛතාය	-11.5878
▁ආදිම	-11.5878
▁කාමාවචරානං	-11.5883
පය	-11.5883
භිතත	-11.5883
▁කරොථා	-11.5884
▁පටිසංවෙදෙති	-11.5884
▁අධිගම	-11.5884
සාල	-11.5884
විහාරො	-11.5885
▁හට	-11.5888
▁භාරො	-11.5893
මිතා	-11.5894
▁කතපු	-11.59
පහානෙන	-11.59
▁සාධෙ	-11.5902
මාතිකා	-11.5905
චයභෙ	-11.5906
▁උපයොගවචනං	-11.5907
දියං	-11.5908
▁මහානුභාවො	-11.5909
තිඵලං	-11.5911
ථූප	-11.5914
චාරං	-11.5915
▁රූපෙන	-11.5916
කථාය	-11.5925
විපත්	-11.5929
▁ඤාතො	-11.593
තෙසං	-11.593
▁ධුර	-11.5937
විනය	-11.5938
▁පොරාණ	-11.5942
▁වීරියසම	-11.5943
ඨසි	-11.5947
▁ඤාණස	-11.5949
▁125.	-11.5951
▁අපරාපරං	-11.5959
ෙනපි	-11.5967
▁ජානාසි	-11.5967
ඤිතා	-11.5973
▁මර	-11.5974
▁පාරාජිකා	-11.5976
▁පරාමාසස	-11.5976
▁මනසො	-11.5977
▁අවිසෙසෙන	-11.5978
▁පමාදො	-11.5981
ඨාතීති	-11.5982
ණසම	-11.5983
භාගං	-11.5988
▁සෙසෙසු	-11.5988
රිතබ්	-11.5989
ධකාරෙ	-11.599
▁පිවිත	-11.599
ඛසි	-11.5996
▁චාරිත	-11.5997
▁පවාරණාය	-11.6001
ඡයෙ	-11.6003
කෙති	-11.6004
ඣිමො	-11.6004
ණප	-11.6005
▁අපක	-11.6007
දුං	-11.6009
▁සිරී	-11.6009
▁මහාපුරිස	-11.6012
ධිමා	-11.6014
වචී	-11.6017
▁ආරොචෙත	-11.6023
කරොති	-11.6025
▁චතුධා	-11.6025
▁කායවාචා	-11.6027
▁මහාබොධි	-11.6027
භාජන	-11.6028
සංයොජන	-11.6029
▁ඵුසන	-11.603
▁සකට	-11.6031
▁අරණං	-11.6031
පමාණෙ	-11.6037
▁අනුලොමප	-11.6039
▁මාරෙ	-11.6043
▁124.	-11.6048
ඤූහි	-11.6049
▁පාතො	-11.6052
බුතා	-11.6055
▁අධිවචන	-11.6057
විභාගො	-11.6063
▁වධිත	-11.6064
▁තිකි	-11.6065
වික	-11.6066
▁පෙත	-11.6071
චෙතොවි	-11.6076
▁මොහා	-11.6078
▁භගිනි	-11.6078
කොපි	-11.608
▁සමුදාය	-11.6084
▁නාවාය	-11.609
ෙහී	-11.609
▁ලොකොති	-11.6091
▁පට	-11.6092
▁නාථො	-11.6093
▁පරියාදි	-11.6094
තනියතො	-11.6098
▁සාසව	-11.6099
▁ආචයගාමි	-11.61
භොති	-11.6102
ඛාසහගතා	-11.6103
▁සමථො	-11.6103
කුර	-11.6103
නයෙ	-11.6104
▁සලාක	-11.6104
▁පීතිසුඛං	-11.6105
▁ජනපදෙ	-11.6105
▁වෙගෙන	-11.6109
ජක	-11.6113
▁ඔළාරිකං	-11.6114
▁කරොතී	-11.6114
සමුදයා	-11.6115
ඡාමී	-11.6115
▁අකුප	-11.6116
රජො	-11.6118
බානී	-11.6121
දිතං	-11.6122
▁පාරගූ	-11.6125
▁මහාභූතානං	-11.6127
ඡාභ	-11.6129
ඛල	-11.6132
පටිවිද	-11.6136
▁යෙපි	-11.6138
ඛමසුඛා	-11.6142
▁දෙථා	-11.6142
▁නියතා	-11.6142
ාචයගාමිනාපචයගාමි	-11.6145
▁130.	-11.6146
නිපාතෙ	-11.6146
▁ආයතනං	-11.6147
▁විරජං	-11.6149
▁පාණා	-11.6149
පාභි	-11.6151
▁නිල	-11.6155
–	-11.6156
▁භගවාති	-11.6159
▁සෙනං	-11.6159
▁චෙතොසම	-11.6163
ඡරී	-11.6164
තමානො	-11.617
▁ගුළ	-11.617
මලං	-11.6173
විචිත්	-11.6176
ධකාරං	-11.6177
සුතං	-11.6182
▁ධී	-11.6184
ලාපො	-11.6186
▁ධුරන	-11.6186
චෙතනිකා	-11.6187
තිආදීනං	-11.6192
▁බලි	-11.6193
▁ආරු	-11.6193
▁ඛිඩ	-11.6195
ණාති	-11.6197
▁ඛීණා	-11.6198
ඛාපදෙසු	-11.6207
ඨිවිප	-11.6208
මවිචයස	-11.621
ඨායතන	-11.6214
බාකාරෙන	-11.6215
▁පුරා	-11.6222
තයිත	-11.6223
සාරො	-11.6226
▁විජහිත	-11.6228
▁නාසෙ	-11.6228
▁අවිපරීත	-11.623
▁නෙමි	-11.6231
▁අනධි	-11.6231
ඣිමං	-11.6231
ූපපත්	-11.6236
▁චෙතසිකා	-11.624
▁ජාතෙ	-11.6242
තසහභූ	-11.6243
▁ලොකවිදූ	-11.6244
වාචකො	-11.6245
ඨුප	-11.6249
කාරි	-11.6254
නාදානා	-11.6255
යාණො	-11.6256
▁නීහර	-11.626
▁පධානං	-11.6261
▁අරුණු	-11.6261
▁ආව	-11.6265
▁පරිවිත	-11.6266
▁භූම	-11.6269
▁පාපකානං	-11.6274
▁ගතියං	-11.6274
▁විහාසි	-11.6281
▁සුඛුමං	-11.6281
ඛාතාය	-11.6281
▁පරිපූරෙන	-11.6284
ජරා	-11.6284
විපාකා	-11.6284
▁පරිවුතො	-11.6285
▁විදිතා	-11.6286
▁චීවරප	-11.629
ඞ	-11.6292
මාආජීවො	-11.6293
▁ආසෙවන	-11.6293
▁වීතිසාරෙත	-11.6293
▁කුලගෙහෙ	-11.6293
▁140.	-11.6294
පදුම	-11.6296
▁වදෙ	-11.6297
▁යොනි	-11.6299
තමෙවාති	-11.6299
▁භොජනීයං	-11.6301
▁පතන	-11.6303
▁මහාවීරො	-11.6303
තකථා	-11.631
▁පහර	-11.6317
▁එවරූපෙ	-11.6317
ඛාපි	-11.6323
පරිභොග	-11.6323
ඡෙදෙන	-11.6326
විධාන	-11.6332
සංසග	-11.6337
▁126.	-11.6343
▁129.	-11.6343
▁ඨපිතො	-11.6343
▁සමය	-11.6345
මයි	-11.6346
කොසාපෙත	-11.6346
▁කාරු	-11.6351
වාරික	-11.6354
කරණවසෙන	-11.6355
▁ධනු	-11.636
තරමෙව	-11.6365
පටිපදං	-11.6366
▁මුසාවාදා	-11.6366
හය	-11.6376
භයා	-11.6377
▁සාලි	-11.6378
▁උපාදානක	-11.6381
පරිසු	-11.6385
බහෙතුක	-11.6385
ෙයෙව	-11.6387
▁අහෙතුකා	-11.6389
ඣානස	-11.639
චායන	-11.6393
▁සොයෙව	-11.6394
▁132.	-11.6394
▁කාමො	-11.6396
මදෙසනාය	-11.6398
▁භාවනාපාරිපූරි	-11.64
කසවිචාරං	-11.6407
▁අභය	-11.6407
▁වීමංස	-11.641
තෙතුං	-11.6411
▁පජාය	-11.6414
▁කපිලවත	-11.6416
ඝොසො	-11.6419
මාහු	-11.642
▁මුදිතා	-11.642
කිලෙසෙ	-11.6425
▁ඵලෙ	-11.6427
▁යොපි	-11.6432
රව	-11.6439
බාධ	-11.6439
▁වදෙති	-11.6439
සමීපෙ	-11.644
▁සොභති	-11.644
පජානමුසා	-11.6441
▁පූජෙසි	-11.6441
සාලා	-11.6441
▁131.	-11.6444
ලික	-11.6446
ෙහෙව	-11.6449
▁වෙමතිකා	-11.6456
ගිරි	-11.6457
ලාප	-11.6462
ඡිතුං	-11.6462
පාරමී	-11.6466
▁මාතුගාමස	-11.6468
▁ගතොති	-11.647
චවීසති	-11.6474
ඡෙර	-11.6474
▁එකොපි	-11.6474
ඤප	-11.6474
ඤාසු	-11.6477
▁හො	-11.6478
ානුප	-11.6486
සාසන	-11.6487
▁ලොම	-11.649
භාවොති	-11.6491
▁128.	-11.6493
▁වියා	-11.6494
වීථි	-11.6496
ඝාට	-11.6496
ඨසංකිලෙසිකො	-11.6497
▁මයම	-11.6498
විනිබ	-11.6503
▁පසාරෙ	-11.6505
▁තෙජොධාතු	-11.6507
▁තිල	-11.6508
▁සරූප	-11.6508
තායා	-11.6509
▁වාදං	-11.651
ඝාතො	-11.6512
▁හරන	-11.6516
▁භීතො	-11.6517
ඝාතං	-11.6517
ාපයති	-11.6518
හෙව	-11.6518
▁අරූපං	-11.6518
ඡිකාත	-11.6519
▁ලභෙථ	-11.6519
▁අයො	-11.652
▁ඡවි	-11.652
▁ඤාතී	-11.6523
දවො	-11.6523
▁පවිවෙක	-11.6525
▁අනවසෙස	-11.6525
▁චෙතසිකො	-11.6527
▁පාරමියො	-11.6527
සුභ	-11.6531
ඨානවසෙන	-11.6538
▁දෙථ	-11.6539
▁දුතියෙන	-11.6539
▁ආචයගාමී	-11.655
▁ඡාදෙ	-11.655
▁දෙසෙත්	-11.6552
▁කමෙන	-11.6553
▁විහාරස	-11.6555
▁කුසලාකුසලා	-11.6557
▁කොණ	-11.6557
▁නාතිව	-11.6558
බාපර	-11.656
පසහස	-11.6561
මසන	-11.6563
ඛයාය	-11.6565
ධොව	-11.6568
තපද	-11.6573
▁කායබ	-11.6575
▁24	-11.6576
ඛීනි	-11.6581
කිලි	-11.6586
▁සවි	-11.6588
▁පවෙදෙ	-11.659
▁පයොගො	-11.6592
▁යුවා	-11.6592
දාති	-11.6594
දසො	-11.6595
▁ගහපතයො	-11.6595
ලාස	-11.6596
▁ලොකනායකො	-11.6596
චරිත්	-11.6596
▁135.	-11.6596
විර	-11.6598
▁උපගතො	-11.66
ඛිපි	-11.66
▁විසයො	-11.6603
▁දූත	-11.6607
▁සමනු	-11.6608
▁අවයව	-11.6609
කරණො	-11.6609
▁සොභන	-11.6614
20	-11.6615
ඡරෙ	-11.6617
▁කාමගුණා	-11.662
▁පූජිතො	-11.6623
තරප	-11.6627
▁උපාදානා	-11.6628
ආහාර	-11.6635
යොපි	-11.6636
ගූ	-11.6643
මුනි	-11.6648
▁සුපණ	-11.6649
කාලතො	-11.6649
තනිය	-11.6649
▁ඨපෙතුං	-11.6657
▁පාණාතිපාත	-11.6657
පහීන	-11.6658
චයානුලොම	-11.6659
ාපත්	-11.6659
▁පරිවාරෙන	-11.666
තෙවාසිකො	-11.6661
▁රොදන	-11.6663
ථුකතා	-11.6665
▁සොළසහි	-11.6666
සීලෙ	-11.6669
▁මහාපුරිසො	-11.6669
ධිපාදා	-11.6671
▁එකොව	-11.6677
පානි	-11.668
ලාභී	-11.6683
මූ	-11.6687
පෙතුං	-11.669
▁අරූපාවචරෙ	-11.6691
ඤඵල	-11.6693
සුත	-11.6694
▁28	-11.6696
▁වචනීයො	-11.6699
▁පානීය	-11.6703
කාළ	-11.6703
ඣභාසි	-11.6705
▁තදහු	-11.6706
තචීවරං	-11.6708
සුඛාය	-11.6708
▁අදාසිං	-11.6709
▁බාහිරා	-11.6715
▁උභයං	-11.6716
ථරණං	-11.6718
කාසො	-11.6721
▁ඔති	-11.6722
තායං	-11.6724
▁මහාඅ	-11.6725
▁වායම	-11.6728
▁පජානාතී	-11.673
ගොචර	-11.673
▁එකාර	-11.6733
▁සුචරිතං	-11.6733
රණං	-11.6734
▁පාරිපූරියා	-11.6739
▁ඡාදෙති	-11.674
▁අකුසලෙ	-11.6741
▁මරිස	-11.6742
චපරියොසානෙ	-11.6744
ානුග	-11.6747
ඵා	-11.675
මාසෙ	-11.6754
▁සොතධාතුයා	-11.6755
ගොචරො	-11.676
▁මනොරමං	-11.6761
▁වොදාන	-11.6761
ධිමන	-11.6761
චයතො	-11.6762
සාමණෙර	-11.6763
▁පරාමසති	-11.6764
▁ඤාතීනං	-11.6764
මවාචාය	-11.6765
▁ධීර	-11.6766
භාරද	-11.6769
ඛාප	-11.677
ඤොජනං	-11.6775
සුතවා	-11.6776
▁මනාපං	-11.6778
ලාභ	-11.678
ඤොජනො	-11.6781
දෙසෙන	-11.6785
▁ගවෙසන	-11.679
ධිපාදො	-11.6791
▁පවෙසෙත	-11.6793
ියං	-11.6797
▁127.	-11.6798
▁විරාගො	-11.6798
▁අධිගමාය	-11.6798
දප	-11.6799
▁යථයිදං	-11.6802
නනු	-11.6803
▁ඔළාරික	-11.6804
ධාවාසානං	-11.6807
▁වංස	-11.6807
ධීනං	-11.6808
ගාල	-11.6813
▁රොගො	-11.6814
▁අනභිජ	-11.6815
▁ජිඝ	-11.6816
කාරක	-11.6817
▁නුපල	-11.6817
ඉද්	-11.6818
▁අනුලොමපු	-11.6819
යොග්	-11.6819
කෙත	-11.6821
පණීත	-11.6822
වයෙන	-11.6826
තවචනං	-11.6826
අව	-11.6829
▁උදි	-11.6831
ඝිකං	-11.6831
ඨානමෙව	-11.6833
▁සමාහිතො	-11.6834
▁එකමෙක	-11.6834
විධං	-11.6837
16	-11.6838
▁සකාය	-11.6843
▁පොට	-11.6848
කටො	-11.6851
▁ආජීව	-11.6854
බචරිතාපදාන	-11.6855
▁133.	-11.6855
▁සතානි	-11.6856
රතනං	-11.6859
▁කෙව	-11.686
▁යාදිසො	-11.686
▁සාක	-11.686
▁අකතං	-11.6861
ධකං	-11.6862
යාකරො	-11.6863
▁ඉධාධි	-11.6868
ජව	-11.6869
▁කාරාප	-11.6869
බුදීපෙ	-11.6871
▁පාතුභාවො	-11.6872
හාරු	-11.6874
ඩර	-11.6877
▁සුරාමෙරයම	-11.6878
▁පලි	-11.6882
▁එකංසෙන	-11.6882
▁තිලක	-11.6883
▁නාලං	-11.6883
රහිතො	-11.6885
ඤඵලං	-11.6894
▁ඛයො	-11.6897
රණ	-11.6897
▁පෙසු	-11.6898
මයො	-11.6901
▁ආසා	-11.6902
▁මානස	-11.6902
ධකාලෙ	-11.6903
සෙතු	-11.6904
ඩිකං	-11.6905
බජිං	-11.6906
▁කාමධාතු	-11.6907
▁136.	-11.6908
▁කුසලෙ	-11.6909
ඛට්	-11.691
භාසිතං	-11.691
තරතො	-11.6911
▁ගිලානා	-11.6911
ථාව	-11.6912
ථපාසෙ	-11.6913
▁පූජං	-11.6913
▁පසාදෙ	-11.6914
භාවෙනෙව	-11.692
ඝටිත	-11.6921
▁විසාඛ	-11.6926
දහති	-11.6926
▁මොඝම	-11.6927
▁සොකො	-11.6929
මෙනාති	-11.693
▁ධාරයාමී	-11.6933
මධු	-11.6935
ලාභා	-11.6937
ඛමො	-11.6938
ාහු	-11.694
නාදාන	-11.6945
ිකාය	-11.6948
චෙතිය	-11.6948
▁අනෙකෙ	-11.6948
නඅනුපාදානිය	-11.695
මචාරීනං	-11.6954
▁ථෙරී	-11.6958
දෙසු	-11.6959
වොහාරො	-11.696
රූපස	-11.696
▁වෙසාලියං	-11.6961
ඤකිරියව	-11.6962
▁භවරාගානුසයෙන	-11.6963
යාසී	-11.6966
බධි	-11.6968
ාරාම	-11.6968
▁භායි	-11.6972
▁විසාරදො	-11.6973
▁ගාහාපෙත	-11.6974
මනසිකාර	-11.6978
▁ඔම	-11.6981
▁අභිභවන	-11.6981
▁ධජ	-11.6981
ලානා	-11.6982
▁අනුපාදාය	-11.6989
යොගා	-11.6993
ජෙසු	-11.6996
හාමි	-11.6996
ඵෙහි	-11.7
ඨාප	-11.7001
ානුභාවෙන	-11.7003
▁අභිනිවිස	-11.7005
▁ඵුසති	-11.7007
▁ආලි	-11.7008
▁ගුණො	-11.7008
ගළ	-11.701
▁පුරි	-11.701
▁134.	-11.7014
කරිත	-11.7016
විමානං	-11.7016
මණෙහි	-11.7016
ළෙ	-11.7018
දනි	-11.702
▁දෙවර	-11.702
▁මනාපො	-11.702
▁පදභාජනෙ	-11.7025
ථව	-11.7034
▁අරූපස	-11.7034
▁ආගතෙ	-11.704
ඩානි	-11.704
නායො	-11.704
කසවිචාරස	-11.7041
▁ඨා	-11.7041
▁හනති	-11.7045
තුද්	-11.7047
ගහාය	-11.705
▁පරෙසු	-11.7051
නුපාදානියා	-11.7053
නුත්	-11.7053
▁සෙල	-11.7054
▁ඵුල	-11.7061
වාදෙ	-11.7064
පරිසා	-11.7064
විසෙසෙ	-11.7066
භාවනාය	-11.7066
හමානො	-11.7067
▁141.	-11.7068
▁අරියසාවකස	-11.707
එස	-11.7072
▁මහෙසිනා	-11.7075
▁සුණොහි	-11.7075
පදුමුත	-11.7077
පසතස	-11.7077
▁තිවිධෙන	-11.7082
▁පටිමු	-11.7082
පමාණෙන	-11.7082
▁සූකර	-11.7085
▁කායික	-11.7085
▁රාජිනො	-11.7088
තමෙතං	-11.709
ජූ	-11.7091
▁ආගමන	-11.7092
6	-11.7093
▁සුඛිතො	-11.7094
▁පීතිසම	-11.7096
▁වචො	-11.7096
▁තීරං	-11.7097
▁දසබලස	-11.71
▁ඉසයො	-11.71
පමාදො	-11.7101
ධාරණෙ	-11.7107
▁අභිභූ	-11.7109
▁අභාවො	-11.7109
යවසෙන	-11.7109
දිසති	-11.7113
වසා	-11.7113
සාමග්	-11.7114
රියෙහි	-11.7116
▁පාපෙත	-11.7118
වාජො	-11.7121
▁ලභාමි	-11.7121
▁චරමානො	-11.7123
▁පතිත	-11.7127
▁චෙතියෙ	-11.7128
▁සූර	-11.713
මුඛාවිනයෙන	-11.7132
මරාජා	-11.7132
ඨපු	-11.7137
▁සහාය	-11.7138
ලිද්	-11.714
▁කාරයි	-11.7142
▁ගිහීනං	-11.7144
චරිය	-11.7144
▁යොජෙ	-11.7145
ලොකජෙ	-11.7148
විරුද	-11.7148
සනාවසෙන	-11.7151
පහානාය	-11.7153
▁භණිත	-11.7154
චරෙ	-11.7154
▁විවාද	-11.7155
▁ගොචරො	-11.7155
▁මාතඞ	-11.7161
▁විවිධ	-11.7161
▁අඛණ	-11.7162
භාසි	-11.7164
යාවච	-11.7165
▁හෙතුනා	-11.7166
ඛමාන	-11.7167
භාගෙන	-11.7167
▁පසංස	-11.7171
▁අරති	-11.7173
ෙතුං	-11.7175
▁138.	-11.7175
මායු	-11.7176
▁අකන	-11.7176
▁භූමිං	-11.7177
▁ඛයං	-11.7178
බොපි	-11.7183
නිත්	-11.7184
▁සමානං	-11.7185
▁චොදෙති	-11.7186
සමණො	-11.7188
පෙක	-11.7189
▁යොග	-11.7193
▁බොධිං	-11.7197
යොගතො	-11.7203
මූලකෙ	-11.7208
▁අතීතම	-11.7208
චුපාදාන	-11.721
▁සොත	-11.7215
පෙසු	-11.7216
▁ඤ	-11.7216
මප	-11.7223
▁අගමංසු	-11.7229
▁150.	-11.7229
▁142.	-11.723
▁137.	-11.723
ආග	-11.7231
▁කුලස	-11.7231
හිතබ්	-11.7233
ලොකං	-11.7234
▁විලු	-11.7236
▁තිකපා	-11.7236
▁පකාර	-11.7239
ඡවී	-11.7244
▁ලභතීති	-11.7244
▁අකුසලමූලං	-11.7244
ගසාවකා	-11.7247
කුමාර	-11.7253
කාන	-11.7255
▁කුලෙසු	-11.7256
▁මහත්	-11.7257
යාපි	-11.7257
▁සුතවා	-11.7257
හසෙ	-11.7261
▁වොහාරො	-11.7263
සසතං	-11.7264
▁මිගා	-11.7266
ානුස	-11.7269
▁අනුර	-11.7271
▁පරිභාස	-11.7271
ඝාති	-11.7274
ථවසෙන	-11.7278
▁පවෙ	-11.7281
ඤාණො	-11.7281
▁විනිධාය	-11.7282
▁ආචාර	-11.7284
▁148.	-11.7284
▁144.	-11.7284
▁කතාධිකාරො	-11.7286
▁පජානනා	-11.7288
කූ	-11.7291
▁ආදිනා	-11.7292
භොගො	-11.7295
ඛණසම	-11.7298
▁ධොවන	-11.7305
නාමකො	-11.7307
▁පහූත	-11.7307
චෙහි	-11.7309
▁අකුසලෙහි	-11.731
බාජනීය	-11.7312
▁යජ	-11.7315
▁සීම	-11.7316
විය	-11.7317
පහාරං	-11.7317
වීතික	-11.7318
දෙවො	-11.7319
ඣාසයං	-11.7321
යාබ	-11.7326
ඣිමනිකාය	-11.7326
මහත්	-11.7329
මනුප	-11.7334
බූ	-11.7343
▁අවච	-11.7343
තාධිකරණං	-11.7344
▁දදාති	-11.7354
▁යොජනං	-11.7354
කඅවිචාරං	-11.7356
මතී	-11.7358
පරායික	-11.7359
▁පාපිමා	-11.736
ඛාදීනං	-11.736
ගානුපස	-11.7361
▁අනුසෙතීති	-11.7361
▁වහ	-11.7361
රණෙ	-11.7362
භොගා	-11.7363
▁ජලං	-11.7366
ගමනෙන	-11.7374
පජාන	-11.7374
විකප	-11.7375
විපද	-11.7375
▁බහුවචන	-11.7375
▁පහට	-11.7377
▁ආයුස	-11.7377
එකනවුති	-11.7377
පුරිසානං	-11.738
ඡියං	-11.7381
▁පනාය	-11.7382
ඤථ	-11.7382
නාදයො	-11.7384
▁චුතස	-11.7385
ඛන	-11.7387
▁රතො	-11.7389
▁කාරකො	-11.7391
▁ඵර	-11.7395
▁දීඝම	-11.7398
ෙනා	-11.74
▁ඡායා	-11.7401
ඣායං	-11.7401
▁ආයතනානි	-11.7401
තාවී	-11.7402
ජාපි	-11.7406
▁මමා	-11.7407
▁පුනදිවසෙ	-11.7411
▁යථෙව	-11.7412
▁සීලව	-11.7412
▁ආරාමො	-11.7418
▁සුභං	-11.7418
▁පනෙසා	-11.7418
සිතෙ	-11.7419
තුකම්	-11.742
ඉමාය	-11.742
ථික	-11.742
ඤතාය	-11.7421
පාක	-11.7425
කාදීසු	-11.7426
ඨකෙ	-11.7428
ටකෙ	-11.7429
වල්	-11.7429
අකුසලං	-11.7434
ජොත	-11.7442
ලොභ	-11.7449
▁පයොජන	-11.7449
▁අඝානකාන	-11.7449
▁සිනෙහ	-11.7451
▁මහාර	-11.7455
ඨිමෙ	-11.7457
ඨිතාය	-11.7457
▁පෙතං	-11.7459
කරණතො	-11.7459
▁භාජන	-11.7463
▁තෙනෙතං	-11.747
ඛිතුං	-11.747
ඛනිරොධො	-11.747
▁අහුං	-11.7471
▁මුනිනො	-11.7471
▁භාසතො	-11.7472
▁දදාමි	-11.7475
ථාල	-11.7478
ඨියං	-11.748
▁නිගමෙ	-11.7483
▁සුභා	-11.7485
කොමි	-11.749
▁බහූහි	-11.7491
▁ඛුර	-11.7492
▁යානං	-11.7503
ධුං	-11.7504
නිදානං	-11.7504
විසෙසෙන	-11.7504
ගුළ	-11.7505
▁එළකලොම	-11.7505
▁විසෙසනං	-11.7506
▁139.	-11.7506
▁අරූපාවචරා	-11.7511
▁වාසං	-11.7512
▁අනුවි	-11.7513
▁පසවති	-11.7513
▁දාරකෙ	-11.7518
▁ජනතං	-11.7521
▁භාජෙත	-11.7527
චනා	-11.7528
ඛාරික	-11.753
දෙති	-11.7531
▁සරණගමන	-11.7533
▁භජ	-11.7535
මිමං	-11.7536
▁අසංස	-11.7537
▁යංනූනාහ	-11.7537
▁දීඝා	-11.754
▁කුහි	-11.7542
▁ආනුභාවෙන	-11.7542
▁දෙවියා	-11.7546
දියා	-11.7553
සෙතබ්	-11.7555
▁දීපං	-11.756
තිඵලාදීනි	-11.7561
තෙතීති	-11.7562
තචෙතසිකා	-11.7566
▁පූජෙත	-11.7567
▁ඔදාත	-11.7567
▁නාව	-11.7567
▁ආවාසා	-11.7567
▁වීතරාගො	-11.7568
▁එකක්	-11.7569
මවාචා	-11.7573
▁ලභතෙ	-11.7576
▁අසාර	-11.7577
චමානා	-11.7578
ඡෙදවසෙන	-11.7582
ඛණවසෙන	-11.7582
සදිසමෙව	-11.7585
කටා	-11.7586
▁වරො	-11.7587
▁ජටා	-11.7588
▁සිය	-11.759
වචනො	-11.7593
▁ආසී	-11.7595
සෙවං	-11.7604
මධුර	-11.7606
බකං	-11.7609
▁යොජන	-11.761
පාසාද	-11.7613
ඩපාතසෙනාසනගිලානප	-11.7617
ාචයගාමිනාපචයගාමී	-11.7617
ගලොකාසා	-11.7619
▁එකූනවීසති	-11.7619
ාදයොපි	-11.762
▁පරිජානිත	-11.762
▁භී	-11.762
▁දෙතීති	-11.762
ථෙවාති	-11.7623
▁කුසලෙන	-11.7623
▁මහායසො	-11.7624
ඡනං	-11.763
උක්	-11.7631
ඤුනා	-11.7632
▁ලොකියො	-11.7633
වීරියං	-11.7635
ජනෙහි	-11.7636
▁ඉදමෙත	-11.7641
භාවෙනාති	-11.7642
කුටි	-11.7643
විසෙසා	-11.7643
▁නිවෙසනං	-11.765
▁අනභාවං	-11.7652
▁සාමී	-11.7655
▁සෙවතො	-11.7655
▁අරූපී	-11.766
පසද	-11.7661
චසතා	-11.7663
චයනිද	-11.7666
විධ	-11.7669
බිදා	-11.7669
බිදාය	-11.767
▁සඛා	-11.767
▁පදු	-11.7672
▁තථාගතබලං	-11.7675
නොපි	-11.7676
▁සදෙවමනු	-11.768
▁කායා	-11.7682
▁වයප	-11.7685
මියො	-11.7687
▁ආචරියු	-11.7688
▁අයමා	-11.769
සමුග	-11.7691
▁ජාතක	-11.7691
▁වායොධාතු	-11.7693
▁කුටුම	-11.7701
තානුද	-11.7701
ඛාපදෙන	-11.7706
චයාපි	-11.7709
ඛෙති	-11.771
බිධ	-11.771
▁මුදි	-11.771
▁මුතං	-11.7713
▁පසීදති	-11.7715
▁පී	-11.7718
ඛාරපරි	-11.7718
භූතාය	-11.7719
තූප	-11.7722
▁කායගතාසති	-11.7724
▁රූපාදීසු	-11.7725
▁සංසාරො	-11.7727
ඛසමුදයො	-11.7728
දාරු	-11.773
▁රසායතනං	-11.7732
▁146.	-11.7732
▁විනයස	-11.7733
▁මනාප	-11.7734
▁කුපිතො	-11.7736
▁අතීතො	-11.7736
▁සාමිකො	-11.774
ලන්	-11.7743
▁භූරිප	-11.7744
▁හෙතුදුක	-11.7745
පදෙසං	-11.7746
මයෙ	-11.7747
▁එතාය	-11.7751
ඛිනො	-11.7752
දාසි	-11.7752
සමයො	-11.7753
▁ගහිතෙ	-11.7753
▁විචාර	-11.7753
කායා	-11.776
සහගතා	-11.7761
▁කොල	-11.7766
▁වොදානං	-11.7769
ඨාපන	-11.777
▁ජාතියො	-11.7771
තවිප	-11.7774
▁චොළ	-11.7778
ඨිප්	-11.7779
ජනානි	-11.7781
▁සෙනාය	-11.7784
▁තීසුපි	-11.7784
බුදීප	-11.7788
ඛණෙයෙව	-11.7789
▁පණිධාය	-11.7789
▁143.	-11.779
යකං	-11.7794
ධනානි	-11.7794
ඝන	-11.7797
▁ඨානෙන	-11.7797
▁අසුරා	-11.7798
චෙවමාදි	-11.7799
▁කීළා	-11.78
▁කාරක	-11.7803
නානා	-11.7808
ඡවිකං	-11.7809
භෙන	-11.781
▁විහාරා	-11.7813
ජිනො	-11.7816
නාමා	-11.782
▁මහාජනං	-11.7821
▁ආකාසෙන	-11.7822
▁උළාරං	-11.7823
▁දාය	-11.783
එතද	-11.7831
▁නියම	-11.7834
සීසං	-11.7835
ාචරියො	-11.7839
▁විරාගාය	-11.7839
ථූනං	-11.7839
නීයං	-11.784
▁ආකාරෙන	-11.7844
චකෙ	-11.7848
විධානං	-11.7849
හාසම	-11.7849
තභාවස	-11.7858
▁දමෙ	-11.7858
▁ගහණෙ	-11.7861
තිපරිය	-11.7861
▁ආදීනවා	-11.7862
ඤාදි	-11.7862
▁භාවෙතීති	-11.7863
ඡහං	-11.7864
නිදානා	-11.7866
▁වෙදෙති	-11.7871
▁තීහ	-11.7886
පජානන	-11.7889
හාරා	-11.7889
පකාරො	-11.7893
ගතාය	-11.7896
▁පඨමාය	-11.7899
සාරිපු	-11.7899
▁පරිසාසු	-11.7903
වාරකො	-11.7904
තූනං	-11.7905
▁අනෙකපරියායෙන	-11.7906
▁149.	-11.7906
▁147.	-11.7906
නාදානං	-11.7907
චාදීනි	-11.7908
ාධිග	-11.7909
▁ජාගර	-11.7909
ජාතිකා	-11.791
නඅනුපාදානියො	-11.7912
▁විපාකානං	-11.7912
බානාය	-11.7913
ජරො	-11.7914
ඛිප්	-11.7915
ඝරං	-11.7916
▁ආනිසංසො	-11.7916
▁චෙතොපරියඤාණ	-11.7917
▁සුබ්	-11.7921
▁පටිලාභ	-11.7924
▁ඉමමෙව	-11.7928
ගහීත	-11.7931
▁වායාමො	-11.7933
▁හොථ	-11.7934
ගාති	-11.7934
▁පූර	-11.7935
තීරණ	-11.7935
▁සකුණ	-11.7936
සිංසු	-11.7938
අහම	-11.7939
▁වෙදන	-11.7939
▁එකදෙසං	-11.7939
දුතිය	-11.7944
▁භොජ	-11.7947
▁චොරො	-11.7948
ඩිතෙ	-11.7948
තානුපරි	-11.7951
19	-11.7951
ගජාතං	-11.7952
▁ඛුජ	-11.7953
හෙතුදුකං	-11.7953
▁සොධෙ	-11.7958
▁පාසාදෙ	-11.796
▁දායකො	-11.7962
▁උභතොභාගවිම	-11.7966
තරායා	-11.7968
▁ජිනං	-11.7969
ජතග	-11.797
තෙනාපි	-11.797
▁කරණවචනං	-11.797
▁මුසාවාදො	-11.7974
▁අවිනිපාත	-11.7974
ඨිප	-11.7976
නිපාතා	-11.7977
ණෙසු	-11.7977
චාවුසො	-11.7978
▁නාභින	-11.7979
බාපෙ	-11.7983
භුතො	-11.7987
▁තාදිස	-11.7993
ළාර	-11.7995
▁එකදෙස	-11.7996
▁පාදෙන	-11.7999
▁වදතීති	-11.8003
▁තතියජ	-11.8004
▁විධි	-11.8004
කාසං	-11.8007
▁පිතරා	-11.8014
විවට	-11.8015
ගන	-11.8017
ාලඞ	-11.8017
යව	-11.8021
▁ඤාපෙත	-11.8021
රාජානො	-11.8021
▁156.	-11.8023
▁කාමස	-11.8024
▁ආභුජිත	-11.8027
ඨාපෙසුං	-11.8027
ානුරූප	-11.8029
▁පාතොව	-11.803
▁දීපි	-11.8033
▁මාරෙන	-11.8038
▁පදහති	-11.804
මණියා	-11.8041
තයස	-11.8043
ථනාය	-11.8047
ජපමාද	-11.8048
▁රාජකුමාර	-11.8049
▁කොසල්	-11.805
ඨානුසය	-11.8055
විධිං	-11.8057
ගාහිකා	-11.8059
අර	-11.806
ඛායති	-11.8061
▁ගිලානප	-11.8064
▁ගාථාසු	-11.8066
▁තතොපි	-11.8067
▁රාජූනං	-11.8067
▁ථොමෙ	-11.8068
▁ආරොපෙ	-11.8069
කරෙ	-11.807
කඅවිචාර	-11.807
▁කපි	-11.8077
▁චෙතනාය	-11.8079
▁තීහාකාරෙහි	-11.8081
▁මහීපති	-11.8083
▁ඨානමෙතං	-11.8084
▁ආබාධො	-11.8086
▁නාරියො	-11.8086
බාජෙත	-11.8087
▁සාධෙති	-11.8087
චවොකාරානං	-11.8089
හාම	-11.8089
▁වදාමීති	-11.8092
මකංසු	-11.8094
▁වෙදෙහි	-11.8094
▁තථාගතා	-11.8094
▁කුදාස	-11.8096
▁දෙවලොක	-11.81
▁ඤාතකා	-11.81
දසවිධෙන	-11.8103
▁පදෙස	-11.8106
▁ආනිසංසං	-11.8106
▁සළායතනං	-11.8107
▁නවමො	-11.8108
බාධො	-11.8109
ගාරව	-11.811
▁මනොරමා	-11.8112
සවො	-11.8116
යාවතා	-11.8117
▁සෙන	-11.8122
▁දූරතොව	-11.8124
▁පදා	-11.8125
▁උපහ	-11.8125
▁ආකාසං	-11.8125
▁එතදෙව	-11.8126
▁ආභා	-11.8127
ධාරා	-11.8128
නෙති	-11.8129
කටානං	-11.8131
තාහ	-11.8133
▁මුඛතො	-11.8135
▁පාරුපිත	-11.8135
පරිවාරො	-11.8139
පකරණ	-11.8142
හාරසම	-11.8148
▁ආයුප	-11.8149
නාමකා	-11.8149
ඨංසු	-11.8151
ජකො	-11.8152
▁ආභතං	-11.8155
▁අරූපාවචරානං	-11.8158
යාපාර	-11.8159
භිත්	-11.8159
▁චාහං	-11.816
වාසී	-11.816
ථෙනාති	-11.8163
▁සමාසෙ	-11.8164
රූළ	-11.8169
තදාර	-11.817
▁පරිවුත	-11.8177
තාර	-11.8178
▁රසෙ	-11.8181
රොධො	-11.8181
▁පණිධීති	-11.8183
පෙසුං	-11.819
ඩකෙ	-11.8191
චවිධ	-11.8192
▁බිල	-11.8193
චුනො	-11.82
ථිනා	-11.8201
▁ගත්	-11.8201
නීවරණ	-11.8201
▁විදිතො	-11.8203
තභාවතො	-11.8206
ඨපි	-11.8206
▁කුටිං	-11.821
▁සාරාගො	-11.8211
මහග	-11.8211
▁ථලෙ	-11.8213
ඨීනං	-11.8214
▁පාපෙන	-11.8214
▁සීලාදි	-11.8216
▁ආවාසං	-11.8216
▁පාණාතිපාතො	-11.8221
▁අනෙකෙහි	-11.8223
තහිතාය	-11.8225
▁දාසො	-11.8225
තරානි	-11.8227
▁ආබ	-11.8229
අලං	-11.8231
▁සෙනාසනානි	-11.8232
යාපාදස	-11.8232
වසෙනා	-11.8233
▁කොසල	-11.8234
ලාභො	-11.8241
ඨානෙයෙව	-11.8241
▁විරතො	-11.8241
ඉම	-11.8242
▁විවෙකනි	-11.8242
චානො	-11.8246
▁සමූහතා	-11.8249
සරි	-11.8249
▁නිරොධෙ	-11.825
▁සෙනාසනෙ	-11.8251
▁නිරොධාය	-11.8252
ථුක	-11.8252
▁ගජ	-11.8253
පාණි	-11.8254
▁මරති	-11.8256
ආසෙවනප	-11.8257
▁පරෙන	-11.8257
▁161.	-11.8262
▁පීඨ	-11.8262
▁145.	-11.8262
▁155.	-11.8262
▁කෙසෙ	-11.8263
▁උදායී	-11.8264
කාමා	-11.8264
▁පීතිසහගතා	-11.8265
කාදීහි	-11.8265
මවාදී	-11.8268
▁නඅහෙතුක	-11.8269
භාසා	-11.8269
ඛුනීහි	-11.8269
විචාරො	-11.827
මෙක	-11.8271
බජෙ	-11.8271
▁අජානිත	-11.8275
▁දානෙන	-11.8284
▁ධීතරං	-11.8284
සයසම	-11.8284
▁ජානි	-11.8286
ධිනා	-11.8287
▁ට	-11.8288
කොසති	-11.8291
සවනං	-11.8294
▁රූපජීවිත	-11.8294
ඛාරෙහි	-11.8295
▁අරූපාවචරං	-11.8296
▁ඛාදති	-11.8297
▁පිසුණා	-11.8298
මලොකා	-11.8299
රාදි	-11.8305
▁සමූහ	-11.8306
ගණන	-11.8306
සංකිලෙස	-11.831
▁උභොසු	-11.8314
▁වදාමී	-11.8314
▁අනවසෙසතො	-11.8314
විහාරං	-11.8314
ානම	-11.8316
ථිතං	-11.8318
▁පසාදෙත	-11.832
යොජනා	-11.8321
▁160.	-11.8322
▁පාත	-11.8322
▁151.	-11.8323
ලපන	-11.8323
කිලෙසෙහි	-11.8332
▁සදිසා	-11.8334
භිනි	-11.8335
යොනි	-11.8336
▁පියරූපා	-11.8337
▁විධා	-11.8338
▁කාරණෙ	-11.8339
ාමීති	-11.834
පියෙ	-11.8342
▁ඣානානි	-11.8346
▁26	-11.8349
චෙතනාය	-11.8354
▁රතනානි	-11.8356
භූතානි	-11.8356
▁භෙ	-11.8364
තමන	-11.8365
නූ	-11.8365
තපාසාදිකාය	-11.8365
ාදිසම	-11.8368
▁දුක	-11.837
මුතිං	-11.8371
නර	-11.8372
▁පාදෙහි	-11.8373
ණවාදී	-11.8375
ඡාදෙති	-11.8376
▁මානුස	-11.838
▁වීස	-11.8382
චසූදනියා	-11.8383
▁මූලානි	-11.8384
▁153.	-11.8384
▁සංවරං	-11.8385
දහිත	-11.8386
▁විභාවෙතුං	-11.8386
දෙසස්	-11.8386
60	-11.8389
ඨිගතානං	-11.8389
▁අභූත	-11.839
▁අසුර	-11.8392
මවිචයො	-11.8392
දිසෙය	-11.8396
ඨාර	-11.8397
පජහතීති	-11.8397
▁සාදියන	-11.8398
පයොගෙන	-11.8399
▁ගාමා	-11.8399
▁පටිලොම	-11.8399
▁ගණො	-11.84
▁විවිධා	-11.8402
▁චීවරානි	-11.8403
▁ආගමනං	-11.8406
සිතානි	-11.8412
ථුතො	-11.8412
සනාදි	-11.8413
සනවිස	-11.8415
ධානුස	-11.8415
ධායාති	-11.8418
කුස	-11.8419
▁මානෙ	-11.8422
▁අනනුස	-11.8425
▁විජාන	-11.8425
▁අපදානං	-11.8431
▁උපරු	-11.8431
▁කායිකස	-11.8432
▁ආරාමං	-11.8433
ථපාද	-11.8434
▁යෙසු	-11.8435
යානිකා	-11.8436
බොධාය	-11.8436
ඛියා	-11.8439
මරණං	-11.844
▁පාපිම	-11.8441
▁ආලොකස	-11.8443
▁165.	-11.8443
▁154.	-11.8445
▁අභිසි	-11.8445
දිංසු	-11.8462
ටකා	-11.8464
ධාරං	-11.8464
ඛාරසමන	-11.8467
▁විසාඛෙ	-11.8469
▁මෙතං	-11.847
▁උපසංහර	-11.8472
▁පාතු	-11.8472
▁යථාසුඛං	-11.8473
තුකාමෙන	-11.8473
▁ඔතාරෙත	-11.8477
ලොපෙ	-11.8477
සුතෙසු	-11.848
▁ජීවිතෙ	-11.8482
▁දුවිධ	-11.8483
▁තථාරූපං	-11.8491
ඤානිපි	-11.8491
පූරණ	-11.8492
තතිංස	-11.8492
දෙවා	-11.8493
▁යාන	-11.8495
▁තථාගතප	-11.8495
ගඤාණ	-11.8496
චාහ	-11.8496
ගිවෙ	-11.8497
ඨාසා	-11.8499
උපාදාන	-11.85
▁පාව	-11.85
සෙනො	-11.85
▁පිවන	-11.8501
පසාව	-11.8501
නාළි	-11.8504
ලොකිය	-11.8506
▁අථෙකදිවසං	-11.8506
▁159.	-11.8507
ධාතුයා	-11.8508
▁යොගාවචරෙ	-11.851
▁අධිකං	-11.851
▁සරං	-11.8511
ථතකථින	-11.8512
▁සුධා	-11.8512
ඩිතානං	-11.8512
ඛතී	-11.8513
▁නආසව	-11.8514
▁පාපකො	-11.8519
පිකා	-11.8522
රාජි	-11.8526
▁විජානාති	-11.8527
ධිය	-11.853
ඤනා	-11.853
▁සාසවො	-11.853
▁භූරි	-11.8533
▁මාරං	-11.8533
ඤායි	-11.8537
▁වීණා	-11.8537
▁අරොගො	-11.8538
ධාදීසු	-11.8539
ඵිතා	-11.8544
ධුත	-11.8545
▁සාමණෙර	-11.8548
දතී	-11.8549
▁නිය	-11.8552
ාපෙතුං	-11.8554
බලොකෙ	-11.8558
ඨහති	-11.8558
හර	-11.8564
ජාචරණස	-11.8564
පෙව	-11.8565
▁භයා	-11.8565
ඵලානි	-11.8566
යක	-11.8567
▁සුඛසහගත	-11.8568
▁21	-11.8568
ීනං	-11.8569
▁පාසාදං	-11.857
▁සීතං	-11.8572
▁සාවක	-11.8573
ධූප	-11.8573
▁පාස	-11.8579
තරූප	-11.858
ජලී	-11.8581
▁අලග	-11.8582
▁විභජන	-11.8582
▁කීදිසං	-11.8585
දරෙ	-11.8589
▁වෙම	-11.8594
▁මහාසුද	-11.8595
▁බාහුස	-11.8595
නවත්	-11.8598
▁උපචින	-11.8605
තධා	-11.8609
කටමෙව	-11.861
චපීඨ	-11.8612
▁නවහි	-11.8615
▁පෙමං	-11.8616
ජොති	-11.8617
සෙසො	-11.8617
මරණ	-11.862
▁කීළ	-11.8621
දිවස	-11.8621
▁සාගර	-11.8625
▁ඝම	-11.863
▁සංවිග	-11.8631
▁158.	-11.8631
▁අරහතා	-11.8634
▁නොපරාමාස	-11.8634
නභාවං	-11.864
▁අථොපි	-11.8642
ධාවාස	-11.8644
▁වුසිතං	-11.8647
▁දීපිතා	-11.8648
ජිය	-11.8648
ඛමෙව	-11.8648
සිතාති	-11.865
▁පාපා	-11.8651
▁මධුරං	-11.8651
මිතං	-11.8652
තාරිමානි	-11.8653
ඩනං	-11.8655
▁රූපූප	-11.8655
ානුලොම	-11.8658
▁පාපමි	-11.8658
භාසිත	-11.866
▁ගතිං	-11.8662
අරිය	-11.8666
▁පාදො	-11.8666
සසීති	-11.8671
▁සාවකෙ	-11.8672
හෙතුකං	-11.8672
▁ඔතර	-11.8677
යසත්	-11.8677
පරං	-11.8677
චොර	-11.8679
▁30	-11.8679
▁තිව	-11.8681
▁පයු	-11.8684
▁කයව	-11.8684
සාසං	-11.8684
කායෙ	-11.8689
ඉද	-11.8691
ාධිමු	-11.8691
▁174.	-11.8693
▁නාහොසි	-11.8694
▁157.	-11.8694
යාදීහි	-11.8696
▁ඛි	-11.8697
▁සුය්	-11.8698
▁අනෙකානි	-11.8698
▁පකාස	-11.8698
ඤපෙති	-11.8698
පටිවෙධො	-11.8699
ඝානවි	-11.8704
▁පීතිසහගතො	-11.8708
▁කිංකාරණා	-11.8708
ධාරෙත	-11.8708
පරියොසානෙ	-11.8709
▁සදිසං	-11.871
▁ඛාදි	-11.8714
▁මාලාග	-11.8715
මොහො	-11.8716
▁ඉමිනාපි	-11.8716
▁ජානාහි	-11.8716
භීරා	-11.8718
ටූපනි	-11.8718
▁අවීචි	-11.872
යානිකො	-11.8723
▁නදාදි	-11.8724
▁සානුසයොති	-11.8726
දික	-11.8727
ාභිනිවෙස	-11.8727
බලි	-11.8729
ිතෙ	-11.8731
දොසං	-11.8736
▁සාදිය	-11.8736
ඝතො	-11.8737
▁සහෙතුකස	-11.8738
ගොචරා	-11.8739
ඤතීති	-11.8742
කාමෙ	-11.8743
▁නිපාත	-11.8755
▁භවප	-11.8755
▁තුල	-11.8756
වයව	-11.8757
▁පාපෙ	-11.8758
▁පත	-11.8759
▁ආධාර	-11.876
මුඛාවිනයො	-11.8761
තංව	-11.8761
▁වාණිජා	-11.8761
▁ඝටෙත	-11.8761
▁තෙයෙව	-11.8764
▁එකවිධෙන	-11.8765
▁පායාසි	-11.8766
▁ගණෙ	-11.8768
පභෙදං	-11.8769
සායෙව	-11.8769
ඛාසහගතො	-11.8769
පකරණං	-11.8769
තොගධ	-11.8772
යූ	-11.8773
සදිසෙ	-11.8775
▁දසාති	-11.8777
▁තායං	-11.8778
තධාතු	-11.8779
ඡමානො	-11.878
ඡෙදා	-11.8781
බාහු	-11.8782
සිනං	-11.8783
▁යොගිනො	-11.8786
▁ඉදමෙ	-11.879
දීසු	-11.8794
සිතොති	-11.8794
▁මාසො	-11.8794
සනාඤාණං	-11.8797
▁සාතං	-11.8799
▁උදග්	-11.88
▁පසංසා	-11.8801
▁ලෙණ	-11.8805
▁හදයෙ	-11.8806
විනාස	-11.8807
ඨාසං	-11.8807
පූජා	-11.8808
▁162.	-11.881
▁වොරොපෙ	-11.881
ාදිකො	-11.8813
හක	-11.8813
දබ්	-11.8813
▁අහිතාය	-11.8815
භවතීති	-11.8815
ථායා	-11.8815
සභාග	-11.8818
සෙකග	-11.8818
දානු	-11.8819
චල	-11.8821
යූහ	-11.8823
ඩකා	-11.8827
▁තිකදුක	-11.883
මාරබ්	-11.883
තාදිවසෙන	-11.8834
බථාපි	-11.8835
සිකං	-11.8836
▁වායන	-11.8837
▁විරම	-11.8838
▁ඉමාසං	-11.8841
▁173.	-11.8842
▁දාසී	-11.8844
මංසං	-11.8844
▁අනුරූප	-11.8847
විභාවනා	-11.8847
ඡාචාරා	-11.8848
නදී	-11.8849
ථිතාය	-11.8854
ඩිතෙහි	-11.8855
▁අනියත	-11.886
ගෙනෙව	-11.8865
පාස	-11.8867
▁පාදෙසු	-11.8868
තකාය	-11.8868
▁සුඛො	-11.8873
▁167.	-11.8874
ගාරං	-11.8877
▁අනෙකස	-11.8877
▁මහී	-11.8882
දායතනං	-11.8884
රොත්	-11.8886
මසභායං	-11.8886
පටිපු	-11.8892
▁ගීවා	-11.8893
▁මහතියා	-11.8893
▁විචරි	-11.8895
ීයිත	-11.8897
▁විවාදාධිකරණං	-11.8899
ථපෙති	-11.89
▁සකි	-11.89
ධුනො	-11.8902
හරි	-11.8902
ඛෙපා	-11.8903
පරිවාර	-11.8903
▁වාළ	-11.8904
රින්	-11.8906
පරිනි	-11.8908
ධාපි	-11.8908
▁සංසයො	-11.891
▁කුසුම	-11.891
ධිපාදං	-11.8911
▁පහිණ	-11.8912
▁ලතා	-11.8912
▁සෙසෙ	-11.8913
▁උපාසකං	-11.8918
▁වියාකාසි	-11.8919
▁සූරියෙ	-11.892
යුගං	-11.8922
වෙමෙ	-11.8922
▁මිගො	-11.8928
▁පාදක	-11.8929
යාමා	-11.8929
▁විරොචති	-11.8931
▁භර	-11.8931
සහගත	-11.8932
ණෙති	-11.8935
▁කුසලමූල	-11.8936
ඩපාතො	-11.8937
▁සාවෙත	-11.8938
▁මලං	-11.8938
ඡතු	-11.8942
තඵලං	-11.8947
▁ධාරය	-11.8948
▁සිනෙරු	-11.8948
▁169.	-11.8949
▁152.	-11.895
භාජනං	-11.8952
නසීලො	-11.8953
▁යාවතතියං	-11.8954
▁අක	-11.8955
▁සොව	-11.8955
මාදීනි	-11.8956
මලොක	-11.8957
ටනං	-11.8959
සාධාරණ	-11.8962
වචනා	-11.8963
ඨිතස	-11.8964
▁පරියොසානෙ	-11.8967
▁පාණිනො	-11.8968
ාදෙසො	-11.8971
▁මොද	-11.8972
පදෙහි	-11.8972
▁ඛීයති	-11.8973
ධතා	-11.8974
▁ඡෙ	-11.8975
▁එකාව	-11.8977
▁සංවෙග	-11.8978
සුඛුම	-11.898
හාහි	-11.898
▁අවිහිංසා	-11.898
▁181.	-11.8982
▁භවරාගානුසය	-11.8985
ථානෙව	-11.8985
ගනා	-11.899
▁176.	-11.8991
▁සකලජ	-11.8992
▁තිවෙදන	-11.8995
▁අභිසමෙ	-11.8997
ානිපි	-11.8999
▁පවාරෙත	-11.9003
‘‘	-11.9004
▁උපෙතො	-11.9004
▁රජනීයා	-11.9006
▁භාවනං	-11.9007
පකති	-11.901
කඅවිචාරස	-11.9011
මූලා	-11.9012
තතරො	-11.9013
යායං	-11.9013
▁170.	-11.9014
භූතපු	-11.9015
▁සුකත	-11.9017
▁තීර	-11.9019
▁මාතුගාමෙන	-11.902
ඣානප	-11.9021
කලාප	-11.9021
▁මනසිකාර	-11.9023
▁කාමාවචරො	-11.9026
කුත්	-11.9029
▁සුභද	-11.903
විසයං	-11.9032
▁යුව	-11.9037
▁පටිලභිත	-11.9037
ජනී	-11.9041
යමෙවාති	-11.9041
▁දුර	-11.9045
▁මහෙස	-11.9046
▁පවාරණං	-11.9052
▁යාදිසා	-11.9057
▁යාච	-11.9062
▁නයිදං	-11.9063
▁සුඛිතා	-11.9065
▁නදති	-11.9065
ඨානාදයො	-11.9065
▁මරණෙන	-11.9066
විරහිතා	-11.9068
▁පූජ	-11.9074
නරසො	-11.9075
තරියං	-11.9075
▁දාරකා	-11.9079
▁කාමූපසංහිතා	-11.9079
චවොකාරං	-11.9081
ාදිකථා	-11.9084
නිපතන	-11.9084
▁ආයති	-11.9089
ඩෙහි	-11.9091
▁පරාමාසො	-11.9094
දිවං	-11.9094
▁සූ	-11.9097
▁සුඛෙ	-11.9097
▁ඔප	-11.9106
▁විනිබ	-11.9106
විරහිතො	-11.9107
0	-11.9108
පරියොසානා	-11.9108
ොපමා	-11.9109
▁කතම	-11.9109
සාවි	-11.9112
චමාන	-11.9112
▁පඨමතරං	-11.9112
▁ආනිසංසා	-11.9115
▁චීවරෙන	-11.9118
තාල	-11.9123
දය	-11.9123
▁179.	-11.9124
ඨායී	-11.9125
ගෙහ	-11.9125
▁166.	-11.9126
ාදී	-11.9126
▁අනුභවිත	-11.9128
භීරං	-11.9135
ායාති	-11.9135
නෙක	-11.9136
යුග	-11.9137
විසයො	-11.9138
▁සමුත්	-11.9142
▁කී	-11.9142
ූළ	-11.9143
▁පාපුණිංසූති	-11.9145
▁පරලොකෙ	-11.9145
ලිකං	-11.9146
මදො	-11.9147
▁පාතුරහොසි	-11.9148
▁ගණං	-11.9149
▁අගිලානස	-11.9149
බානධාතුයා	-11.9152
ණාසකං	-11.9153
ගමනා	-11.916
හිංසු	-11.9163
ඤාතිකාය	-11.9164
කෙනාති	-11.9165
▁විරොච	-11.9167
සිරි	-11.9167
▁තිලොක	-11.9169
▁නානාකරණං	-11.9169
සභූතා	-11.917
▁ඉහ	-11.9171
▁ඔදනං	-11.9172
ජය	-11.9174
▁ඉධාවුසො	-11.9177
▁ඔන	-11.9178
ණිතං	-11.9181
▁පණීතා	-11.9183
සාවං	-11.9184
▁ලොමා	-11.9186
චිදං	-11.9186
▁ජහන	-11.9187
දීනං	-11.9188
ථවි	-11.919
▁වළ	-11.9192
කමතො	-11.9194
▁ආගමෙ	-11.9197
▁භාය	-11.9198
▁රුචි	-11.9199
ගිස	-11.9204
සාරං	-11.9205
ඩිය	-11.9205
හාරවිභ	-11.9206
▁යසං	-11.9209
▁උපාහනා	-11.9211
▁175.	-11.9211
▁අනුබ්	-11.9214
සූචි	-11.9215
▁පකාසෙසි	-11.9215
ධභාව	-11.9221
පසාදො	-11.9222
▁ජෙතවනං	-11.9223
එසො	-11.9225
තොසි	-11.9227
▁පසය	-11.9227
කුරො	-11.923
▁ඨිතෙන	-11.9231
▁දෙවස	-11.9232
▁යථානුස	-11.9234
ජප	-11.9234
ධායතනං	-11.9235
▁කාලා	-11.9236
▁සමාදියිත	-11.9237
▁නියොජෙ	-11.9242
ඨාරසහි	-11.9242
▁අනියතා	-11.9242
▁පිළන	-11.9243
▁තුලා	-11.9245
▁ඔවදිත	-11.9246
8-9	-11.9247
චයවසෙන	-11.9251
▁තීරණ	-11.9251
ලතා	-11.9252
ජාමී	-11.9253
▁පීතිං	-11.9254
යාපාදවි	-11.9257
ඛීණො	-11.9257
▁පසාරෙත	-11.9258
පරිසාය	-11.9258
▁අභිසමයො	-11.9258
ඡෙදද	-11.9259
▁ජනෙන	-11.926
ඣගා	-11.9262
යතී	-11.9262
▁ආරොහ	-11.9262
▁නයා	-11.9262
▁සරීරස	-11.9263
ඛනං	-11.9263
▁පටිබු	-11.9264
ගාමී	-11.9264
නපාන	-11.9265
▁අහූ	-11.9265
නියම	-11.9267
▁සුඛසහගතා	-11.9269
▁පටිජානන	-11.9275
.3.	-11.9277
▁කිරා	-11.9277
▁184.	-11.9278
බානිපි	-11.9279
▁දෙවතාය	-11.9281
▁පාදමූලෙ	-11.9281
▁භොජනානි	-11.9283
ළක	-11.9283
▁කරොතො	-11.9287
තපු	-11.9287
ඡුං	-11.9291
ීයන	-11.9293
▁කුසීත	-11.9294
▁පදෙසං	-11.9299
තරායං	-11.9301
මවි	-11.9303
▁සාය	-11.9304
ියමානා	-11.9305
අරහ	-11.9305
පනෙන	-11.9309
වයෙපි	-11.9309
▁මාස	-11.931
▁යමහං	-11.931
ඡිකතං	-11.931
▁ගොචරං	-11.9313
▁විසංයු	-11.9316
ථෙරා	-11.9317
▁සරභ	-11.9319
කභාවං	-11.932
ඤුනො	-11.9322
▁163.	-11.9323
මාසං	-11.9323
▁178.	-11.9323
ධාසම	-11.9324
▁172.	-11.9325
▁පාචීන	-11.9326
▁පසාදං	-11.933
සුතෙ	-11.9331
▁නකුසල	-11.9331
▁සමීප	-11.9331
▁164.	-11.9332
▁ආන	-11.9333
සාහො	-11.9334
සනානි	-11.9335
▁එසනා	-11.9335
▁පාසාදො	-11.9335
▁නාමිකපදමාලා	-11.9335
ඡාන	-11.9337
▁ආයූහන	-11.9338
▁මනස්	-11.934
ඛාපු	-11.9341
▁යායං	-11.9347
▁වචනෙ	-11.9347
▁මහාපථවී	-11.9347
▁පියරූපං	-11.9348
▁ඛීයන	-11.9348
ඤතෙ	-11.9354
▁පාසංසො	-11.9354
ාකාර	-11.9355
සයන	-11.9356
ඵාර	-11.9358
▁සිව	-11.9359
පටිසාරො	-11.9361
ාභිමුඛො	-11.9361
සාසා	-11.9366
ලීන	-11.9366
මිකෙ	-11.9366
ධිවි	-11.9373
චසහගතං	-11.9377
ටතියෙව	-11.9377
තරිකා	-11.9378
පථවී	-11.9382
රිතො	-11.9382
▁ආගතොති	-11.9383
ලීනො	-11.9383
▁අරහතීති	-11.9394
▁ආරොච	-11.9396
එකො	-11.9398
බකා	-11.9398
භග්	-11.9399
වාදිනො	-11.9399
▁168.	-11.94
හමෙව	-11.9412
▁190.	-11.9412
▁කාමභොගී	-11.9412
▁පරාජයො	-11.9416
▁ඛයෙ	-11.9416
▁දානානි	-11.9417
භයො	-11.9417
බජිතානං	-11.9421
▁රාජගහ	-11.9422
▁කතකි	-11.9423
තලං	-11.9423
ඨහිංසු	-11.9425
වෙර	-11.9425
ාවහ	-11.9427
මුදු	-11.943
▁ඉණ	-11.9431
▁ඡෙකො	-11.9433
▁ගද්	-11.9435
ඨානකුසලො	-11.9437
ජයෙ	-11.9438
▁පටිවිරතා	-11.9439
භාගිය	-11.9439
▁දෙවතෙ	-11.9441
▁යදෙව	-11.9443
ලකෙ	-11.9444
▁අපරිමාණා	-11.9446
වයස	-11.9447
ඩලා	-11.9447
වරෙ	-11.9447
▁මෙඝ	-11.9448
▁උපමාය	-11.9453
2-3	-11.9455
ඩිකා	-11.9456
තරී	-11.9456
▁වරෙ	-11.9457
ඛලි	-11.9457
ධියෙව	-11.9458
▁1-6	-11.9459
▁ඛල	-11.9459
▁වාර	-11.946
▁භවනං	-11.9464
▁තාදි	-11.9469
තිංසු	-11.947
.2.	-11.9471
▁භාගො	-11.9472
▁මාලු	-11.9473
ලතො	-11.9475
▁පදසො	-11.948
නසහජාතෙ	-11.948
▁අපචයගාමී	-11.948
▁නානාර	-11.948
▁ජීවිකං	-11.9485
▁කරණීය	-11.9485
මසමු	-11.9486
▁අනුමොදිත	-11.9488
▁ආඝාතො	-11.9488
ළං	-11.949
▁සුල	-11.949
▁අභූතං	-11.949
හබ්	-11.9493
පාදෙසු	-11.9494
දසි	-11.9496
ඣිතුං	-11.9496
ගහිතානි	-11.9497
මල්	-11.9498
සුපායාසා	-11.9499
සාරා	-11.95
▁ගරුකා	-11.9501
▁නාරද	-11.9504
▁සමාදිය	-11.9504
ගෙනාති	-11.9506
ඨීසු	-11.9506
භානං	-11.9507
ගලික	-11.9508
▁අනභි	-11.9509
▁කලහං	-11.9509
ඣෙන	-11.951
▁පජහිත	-11.9513
▁නිරා	-11.9515
▁171.	-11.9515
▁අසෙවිත	-11.9516
▁අභිර	-11.9517
▁වධ	-11.9521
වයමාහ	-11.9522
යාථා	-11.9523
▁නීවරණෙ	-11.9526
▁ලහුං	-11.9528
▁ඔවදි	-11.953
චාගො	-11.9532
▁සමොධානෙත	-11.9535
▁කොධං	-11.9535
නාදීහි	-11.9536
අසුක	-11.9536
▁කුමාරං	-11.9538
▁දෙවදූත	-11.954
පාසාණ	-11.9544
චුප	-11.9545
▁උපකාර	-11.9545
▁නිරනුසයා	-11.9549
▁පරිපූරෙ	-11.955
▁යාති	-11.9552
ඤික	-11.9554
සංසු	-11.9554
නකා	-11.9555
නකථා	-11.9558
ාරහං	-11.956
▁වතායං	-11.9561
▁කායපටි	-11.9561
▁උපයොග	-11.9562
කාලික	-11.9564
ඡාසහගතං	-11.9568
▁අපනෙ	-11.9568
▁183.	-11.9568
ඡරාස	-11.957
▁සුවිස	-11.957
නායං	-11.9572
▁සුමනා	-11.9575
▁ඉතීති	-11.9578
▁දහරා	-11.9582
ලාපං	-11.9582
පුරිසං	-11.9583
▁ලාභා	-11.9584
▁ගතං	-11.9586
ඡානයොනි	-11.9586
▁පමොද	-11.9593
පියස	-11.9595
▁177.	-11.9596
ඡානගත	-11.9598
▁අනුපාදා	-11.9599
▁උපනෙ	-11.96
▁භයතො	-11.9602
තවචන	-11.9602
වාරෙහි	-11.9603
▁පටිසෙධෙ	-11.9606
▁නානාවිධ	-11.9607
විපාකො	-11.9607
▁අනුසය	-11.9608
ඡිකරොති	-11.961
▁ථූපං	-11.9611
▁කටුක	-11.9612
ධායෙ	-11.9613
ායතන	-11.9613
▁මහතී	-11.9615
සසහගතං	-11.9617
▁හිංස	-11.9618
▁දෙසනාපරියොසානෙ	-11.9619
මසෙ	-11.962
ගිර	-11.9621
▁මනොස	-11.9623
▁යොගාවචරො	-11.9624
පඨමං	-11.9624
යොජනස	-11.9626
සභූතො	-11.9627
▁ඛණො	-11.9628
▁ගණනා	-11.9628
▁එකරත	-11.9629
පභෙදා	-11.963
▁වෙලා	-11.9636
▁හොතූති	-11.9637
▁සමථා	-11.9639
ගුං	-11.9639
ඤොජනිය	-11.9641
▁කරණීයෙන	-11.9643
▁තාදිසා	-11.9643
▁ආලොක	-11.9643
චාභි	-11.9644
▁පාපානි	-11.9644
වෙසාර	-11.9646
පකාසන	-11.9648
▁පරිවාරිතො	-11.965
▁සුජාතො	-11.965
පථෙ	-11.9651
වූපසම	-11.9652
▁විසාඛා	-11.9653
පරමං	-11.9656
▁අගාරවො	-11.9656
.4.	-11.9657
▁කුසලෙහි	-11.9661
▁දහර	-11.9662
▁පාටිහාරියං	-11.9663
බෙනිවාස	-11.9665
▁සුදින	-11.9665
ථනං	-11.9666
හයො	-11.9669
මකථික	-11.9671
▁පිටකත	-11.9675
▁යථාපි	-11.9677
▁විචාරෙත	-11.9677
ලකං	-11.9677
▁බලෙන	-11.9678
▁විභාවෙති	-11.9679
කතෙ	-11.9682
සාසෙ	-11.9686
▁උපාදානප	-11.9687
▁ගවං	-11.9687
▁පටිබලෙන	-11.9688
නසික	-11.9688
පකත	-11.969
ටිකා	-11.9694
▁අලභිත	-11.9698
▁රාම	-11.97
▁ආයතනෙහි	-11.9701
තිආදයො	-11.9702
▁නාල	-11.9703
▁චරියා	-11.9704
ඨානමෙතං	-11.9705
▁හතො	-11.9708
▁සකුණො	-11.9711
▁වාසි	-11.9711
▁කුමාරා	-11.9711
▁පරප	-11.9712
භවොති	-11.9712
▁ආයතනා	-11.9712
මසිත	-11.9712
▁හු	-11.9713
දීපක	-11.9713
පජහන	-11.9714
ථූති	-11.9714
නමානසො	-11.9714
▁දූතං	-11.9715
චයභාවො	-11.9715
ණයි	-11.9716
▁පණීතතර	-11.9718
▁වෙදනානු	-11.9719
▁වීරො	-11.9722
▁පුරිමස	-11.9722
ාභාවෙන	-11.9722
මාදීසු	-11.9723
ඤාපෙතුං	-11.9725
▁යථාරුචි	-11.9725
▁කලාප	-11.9725
▁එකපු	-11.9727
▁විචරති	-11.9728
▁සය	-11.9729
▁නගරස	-11.9732
▁සරි	-11.9732
කසවිචාර	-11.9732
මුය්	-11.9733
ුපාදානක	-11.9734
තනයත	-11.9738
වොහාරෙන	-11.9741
තුකාමතා	-11.9741
▁කණ	-11.9742
රෙසු	-11.9744
▁භාගං	-11.9747
▁පාලි	-11.9753
පාදනං	-11.9754
තාරෙ	-11.976
බකො	-11.976
ඡානං	-11.9764
▁තදධි	-11.9767
තයී	-11.977
▁පරිවෙණං	-11.9771
▁තාරකා	-11.9772
නුභාව	-11.9773
▁භජති	-11.9775
▁පාරමී	-11.9777
පකම්	-11.9778
▁සාගරො	-11.9779
▁ථල	-11.9782
▁තිරො	-11.9782
සනාප	-11.9787
රූපානං	-11.9787
▁කටි	-11.9788
▁180.	-11.9789
චරො	-11.9789
දමානො	-11.979
ාසි	-11.9792
▁භූතානි	-11.9793
දාදයො	-11.9795
▁අවෙක	-11.98
ඛිංසු	-11.9802
▁පඨමමෙව	-11.9808
ටී	-11.9808
ඵාදන	-11.9809
▁සාධාරණා	-11.981
▁නරං	-11.981
ඤක	-11.981
සෙසං	-11.9815
▁නිසීදාපෙත	-11.9815
▁පටිසෙධ	-11.9815
චාරෙ	-11.9815
▁මාගධ	-11.9817
▁චෙතියස	-11.9818
▁මහෙසී	-11.982
▁උපාදානවි	-11.982
▁චරං	-11.9822
▁බලී	-11.9824
▁191.	-11.9828
සදිසානි	-11.9829
බලොක	-11.983
ගහණෙනෙව	-11.9832
▁කොසලො	-11.9835
▁ධාරෙතු	-11.9837
ඤොපි	-11.9839
▁අභිත්	-11.9839
▁භාරං	-11.9839
තරෙසු	-11.9841
ණාස	-11.9841
සිතෙන	-11.9843
▁193.	-11.9848
ණයන	-11.9849
ගිලාන	-11.9851
▁ඔභාසො	-11.9852
දනත්	-11.9853
▁185.	-11.9854
▁අනභිසම	-11.9855
ඨපාද	-11.9855
▁අධිගතං	-11.9855
සංවර	-11.9856
▁මුය්	-11.9856
▁අනුම	-11.9857
අකුසල	-11.9859
▁කරුණාය	-11.9859
ඤාතාවී	-11.986
චරිතස	-11.9862
▁බහල	-11.9866
රභූ	-11.9866
▁ඉතරථා	-11.9869
▁තුවට	-11.9869
සූප	-11.987
▁සාධූති	-11.9874
5	-11.9876
සමූහ	-11.9878
▁පණ	-11.9879
▁රා	-11.988
ගහණතො	-11.9882
▁භණෙ	-11.9883
සාසනං	-11.9885
▁එකාදසමං	-11.9886
▁පතිරූපං	-11.9889
▁ලොකධාතු	-11.9889
ඛනා	-11.989
භුස්	-11.9892
සීහො	-11.9894
බියං	-11.9897
යාද්	-11.9898
▁සභා	-11.9899
පටිවිජ	-11.9899
දාම	-11.9899
තෙසුපි	-11.9905
චාල	-11.9906
ලොහිත	-11.9907
චිපි	-11.9907
ඨිකස	-11.9908
▁සිථිල	-11.9909
ඡකො	-11.9911
▁වෙහාසං	-11.9911
▁අභිභූතො	-11.9912
රක	-11.9913
▁නාළිකෙර	-11.9914
▁විනාසං	-11.9918
▁ගමි	-11.9918
27	-11.9918
ඨමක	-11.9922
▁පාලෙ	-11.9923
භාවතොති	-11.9927
▁සුඛිනො	-11.9929
▁අපා	-11.9931
▁උපනිධාය	-11.9937
▁පටු	-11.9938
▁කිංසු	-11.994
ධට	-11.9943
කසිණ	-11.9945
සෙවාති	-11.9945
▁භූතගාම	-11.9946
▁182.	-11.9947
ධකා	-11.9949
▁චරිතබ්	-11.9949
▁ලූඛ	-11.9949
දීඝ	-11.995
පරිස	-11.9951
බදුක	-11.9952
▁විසෙසෙත	-11.9954
ධාද	-11.9955
▁නිරනුසයොති	-11.996
සාදයො	-11.9965
නභාවෙන	-11.9965
▁පරලොක	-11.9967
▁යාවකාලික	-11.9967
මුඛතා	-11.9968
▁චෙතනාපණිධීහි	-11.997
▁තදහුපොසථෙ	-11.997
▁අනවකාසො	-11.997
▁186.	-11.9971
▁ආයා	-11.9971
▁නරාසභො	-11.9972
▁විභූතං	-11.9976
▁පරියෙස	-11.9976
▁යව	-11.9976
නාදීනං	-11.9977
▁පභෙද	-11.9977
▁ධූ	-11.9978
▁අකුසලමූල	-11.9979
▁ජානිතුං	-11.998
▁පුරිමබ	-11.9983
▁පටිභාග	-11.9983
කාමෙති	-11.9984
▁වූපසමෙ	-11.9984
▁ආපා	-11.9987
ඩකෙන	-11.9989
ාපෙසි	-11.9989
▁මානෙන	-11.9991
▁අනුපවි	-11.9991
▁පාතෙ	-11.9991
මවිහාර	-11.9993
▁එදිසො	-11.9997
සෙතීති	-11.9998
▁ඔවාදො	-12
කාව	-12
මපථා	-12.0004
▁අවිගත	-12.0008
ඝාදිසෙසං	-12.0009
ීහි	-12.001
▁දොසෙන	-12.0011
▁ආරා	-12.0015
විපාකං	-12.0019
▁ගාහෙත	-12.0024
▁පාරිච	-12.0028
ජුං	-12.0032
ඛණික	-12.0032
▁සොධෙත	-12.0034
▁අනෙන	-12.0034
ඝටනා	-12.0035
▁කාමාවචරකුසල	-12.0036
▁ගාළ	-12.0037
▁කායවචී	-12.0039
▁ගහෙ	-12.004
ගසාවිකා	-12.0042
ාප	-12.0042
▁නාගං	-12.0043
61	-12.0045
▁සුඛින	-12.0046
▁පටිසෙවන	-12.0047
මසාරථි	-12.0048
▁තෙනාවුසො	-12.0049
කතමෙහි	-12.0049
▁භාගිනෙය	-12.005
යකො	-12.0051
▁උපායො	-12.0051
▁නාට	-12.0051
▁පාරිවාසික	-12.0051
▁පීඨං	-12.0057
▁හලිද්	-12.006
▁ඵලෙන	-12.0063
හෙපි	-12.0064
චතූහි	-12.0064
භූමිං	-12.0064
▁කකුස	-12.0065
මවිපාකෙන	-12.0067
▁නිහීන	-12.0069
හතා	-12.0073
දීපනත	-12.0074
ඛිපිතුං	-12.0075
මණතා	-12.0077
පණිහිතං	-12.0078
▁ජාතස	-12.0078
ඛාසහගත	-12.0085
ධිනො	-12.0086
▁වෙලායං	-12.0086
▁196.	-12.0087
▁සාරො	-12.0087
නාදීනි	-12.0092
▁අනෙකප	-12.0093
ඛාම	-12.0094
ගභාවනා	-12.0097
ඛමා	-12.0101
පවෙධ	-12.0101
චරි	-12.0102
▁සහායො	-12.0105
▁ඵරුසා	-12.0105
ලෙස	-12.011
පූර	-12.011
▁ගාරව	-12.0114
▁පුරිමො	-12.0114
කමීති	-12.0114
නිකා	-12.0114
ාරහො	-12.0114
▁189.	-12.0115
▁සෙඛ	-12.0115
ඣාලු	-12.0117
තුල්	-12.0117
සානීති	-12.0119
▁විමල	-12.0119
▁දෙවෙහි	-12.012
▁ලිඛිත	-12.012
▁අධිසීලස	-12.0122
පසම	-12.0122
▁සීමාය	-12.0122
තාපන	-12.0124
▁පදීප	-12.0127
චහාකාරෙහි	-12.013
▁පරිමාණ	-12.0132
මුතියා	-12.0133
▁සුසි	-12.0136
ගාහකො	-12.0137
▁කාසි	-12.0138
▁ගොතමී	-12.0139
-4	-12.0141
▁මාසා	-12.0141
ණතාය	-12.0142
ධරෙ	-12.0143
ඛක	-12.0144
ඡරියා	-12.0144
අහෙතුකො	-12.0144
▁ගාව	-12.0145
▁විනාපි	-12.0145
නාමාය	-12.0151
▁පකාසෙ	-12.0153
කමතීති	-12.0153
සරීරො	-12.0154
▁භාගෙ	-12.0159
▁විපරීත	-12.0163
▁අලොභ	-12.0165
තිදුතිය	-12.0165
▁ඉධාග	-12.0166
▁කරොසි	-12.0168
චිමානි	-12.0169
▁දුවි	-12.0169
පීතිකො	-12.0171
▁අනෙකා	-12.0171
කින්	-12.0172
ූපමො	-12.0174
ජම	-12.0175
ධරං	-12.0181
යාණා	-12.0182
▁භාග	-12.0182
▁විදිතං	-12.0183
පයොගා	-12.0184
▁නාධිග	-12.0185
▁පංසුකූල	-12.0187
▁කානිචි	-12.0189
▁කිමි	-12.019
▁තිචීවර	-12.019
▁කුමාරකස	-12.0192
▁වීමංසා	-12.0193
▁සාතරූපං	-12.0193
▁අමුත්	-12.0194
▁ගිලානුප	-12.0195
ඩාල	-12.0197
ඤාපන	-12.0197
▁කොධනො	-12.0198
රාමො	-12.0198
▁නිපකො	-12.02
ඨාක	-12.0207
ආචරිය	-12.0207
▁පොරාණක	-12.021
ඛාතානං	-12.021
▁සුමෙධ	-12.0211
භීති	-12.0213
▁ඵෙ	-12.0217
ඡාසහගත	-12.0222
▁ධාරණ	-12.0223
▁192.	-12.0224
▁තාදිසස	-12.0226
▁මාතුල	-12.0231
▁විසෙසෙ	-12.0234
ඤාබලං	-12.0234
▁සුකතං	-12.0235
කුසුම	-12.0237
වෙධා	-12.0237
හසද	-12.0237
▁කාමභවෙ	-12.0242
ජමානත	-12.0244
▁සමාධිනා	-12.0245
▁කොප	-12.0245
▁එකවචන	-12.0245
නපුංසක	-12.0247
ෙනෙවාති	-12.0247
▁ජාතොති	-12.0248
පටිලාභො	-12.025
මපටිස	-12.0252
▁දෙසෙය	-12.0255
භුඤ	-12.026
▁215.	-12.0261
ටිතො	-12.0262
▁අනාවාසො	-12.0264
▁අභාසථ	-12.0265
ධානෙ	-12.0266
චෙක	-12.0267
ාවහං	-12.0269
▁සමාධියති	-12.027
▁කායද	-12.0271
▁අරියාය	-12.0272
පවෙදිතෙ	-12.0273
තරෙහි	-12.0273
▁ජනෙත්	-12.0275
ජනි	-12.0279
චොදනං	-12.028
කුටිකං	-12.028
▁සුචරිත	-12.0281
ධීසු	-12.0286
▁සිඛී	-12.0288
▁නාමරූපස	-12.0289
ථොපි	-12.0289
▁භොති	-12.029
චෙතියං	-12.0291
පදෙසෙන	-12.0292
▁පාණිනා	-12.0294
▁එකාහප	-12.0294
▁මහාථෙරො	-12.03
▁කාමගුණෙ	-12.0302
ඨසංකිලෙසික	-12.0302
සයිත	-12.0303
▁195.	-12.0303
ථෙත්	-12.0304
▁පසිද	-12.0305
▁විභූ	-12.0307
ඤාණනිද	-12.0308
▁නළ	-12.0308
▁පෙස	-12.0308
▁පණිධි	-12.0309
ඤාණෙහි	-12.0314
තරධායති	-12.0316
ජනන්	-12.0318
ඛූන	-12.032
▁ඨිතොති	-12.0322
ඨිය	-12.0326
▁ලොණ	-12.0327
ඤායතනස	-12.0328
තමොග	-12.0329
▁ජානතා	-12.0332
▁ආයාචන	-12.0333
චිකා	-12.0334
▁උපසංහරති	-12.0334
▁187.	-12.0336
නයවිනි	-12.0336
▁චවති	-12.0337
▁සමාහිත	-12.0337
▁පාකටමෙව	-12.0338
▁ජු	-12.034
භියං	-12.0341
යොජනං	-12.0342
▁ආදීසු	-12.0346
▁දොණ	-12.0347
▁ජනපදෙසු	-12.0347
භාගියානි	-12.0349
තනයො	-12.0351
▁ආසවෙහි	-12.0354
▁ඔවදන	-12.0356
ඩය	-12.0356
පරජ	-12.0357
▁චීවරස	-12.0357
▁ගහපතිං	-12.0358
ජිතු	-12.0359
▁ඵලා	-12.036
▁නිසීදිතුං	-12.036
▁පවරො	-12.0361
ඉධාහං	-12.0362
▁පවාරණ	-12.0364
▁220.	-12.0365
ධිපාද	-12.037
විවෙක	-12.0373
ඡරියො	-12.0376
▁207.	-12.0378
ඝාතෙ	-12.0379
▁ඵරති	-12.0381
ගමි	-12.0381
▁ජහතීති	-12.0381
ඡරං	-12.0382
පකරණෙ	-12.0383
▁තදෙ	-12.0386
හථ	-12.0389
▁පාහුන	-12.0397
දනෙන	-12.0399
▁අනාම	-12.0401
▁යාගුං	-12.0403
▁ජීවක	-12.0404
ලියා	-12.0405
▁තචො	-12.0406
යාල	-12.0407
▁රුළ	-12.041
▁188.	-12.041
ඛාසු	-12.0412
මොන	-12.0414
▁බාහු	-12.0414
▁ආඛ	-12.0415
ානිසංස	-12.0418
ාචරිය	-12.0421
▁පථවීකසිණං	-12.0422
▁211.	-12.0425
පදානෙ	-12.0427
ඨපෙති	-12.0429
ධවංස	-12.0429
චකාමගුණ	-12.0431
▁197.	-12.0432
▁205.	-12.0434
▁සුඛසම	-12.0436
▁බහුතරං	-12.0437
▁පරිහරති	-12.0439
ඤීනා	-12.044
▁මිලි	-12.0441
▁අපදානෙ	-12.0442
▁ජීර	-12.0445
▁උළාරා	-12.0445
▁අරියපු	-12.0445
නයන	-12.0447
▁එකාදසහි	-12.0449
දිමසූරියා	-12.0454
සයානි	-12.0461
ඛාදීසු	-12.0462
දිත	-12.0463
▁වෙදනානං	-12.0468
මවිපාක	-12.0469
මෙසූති	-12.0473
ගියො	-12.0474
පාපුණි	-12.0475
සමුදය	-12.0479
ඩපාතපටි	-12.048
විමානව	-12.0484
▁ඝරාවාස	-12.0485
සාසවසෙන	-12.0486
▁අනරිය	-12.0486
ධිතුං	-12.0487
දොවච	-12.0487
▁දාතු	-12.0488
ධජා	-12.0489
මචරියා	-12.049
ථියෙ	-12.0493
වචනමෙතං	-12.0493
පුරං	-12.0494
ගවි	-12.0495
▁නානුසෙතීති	-12.0496
මොදමානා	-12.0499
▁නීවරණවි	-12.0503
▁ජානාතී	-12.0505
ඵිතං	-12.0505
▁ඡෙදන	-12.0506
▁නාමරූපප	-12.0507
පකාරෙ	-12.0507
මුපග	-12.0507
▁ජුති	-12.0509
පවාරණා	-12.051
ඨෙති	-12.0511
සමූහො	-12.0511
▁කුසලාදි	-12.0512
ඨිවසෙන	-12.0513
ඵලෙ	-12.0513
▁සාළ	-12.0514
ඨිපදෙ	-12.0514
▁සුඛසහගතො	-12.0516
ාහී	-12.0518
ඣානානි	-12.0519
▁රූපෙසු	-12.052
▁අහොරත	-12.0521
තරූපං	-12.0524
▁194.	-12.0525
▁ආකාසධාතු	-12.0526
▁පාරමිං	-12.0529
ඛනිරොධගාමිනි	-12.0531
▁කුමුද	-12.0533
▁මෙසො	-12.0536
ගාලො	-12.0539
▁පෙම	-12.0541
▁ආඝාත	-12.0544
ඛග	-12.0546
සුප්	-12.0548
සිය	-12.0551
26	-12.0553
තපා	-12.0555
▁ජීවි	-12.0556
ඨපන	-12.0558
▁පයිරුපාස	-12.056
▁සෙසපදෙසුපි	-12.0561
▁213.	-12.0561
▁ඣාය	-12.0562
▁අවසානෙ	-12.0564
ජහං	-12.0565
භගවතො	-12.0565
දාල	-12.0566
මකථිකො	-12.0571
හෙතුං	-12.0573
▁උපගතා	-12.0573
භොගං	-12.0576
▁සංයොජනා	-12.0579
▁තිහෙතුක	-12.058
▁සගාරවො	-12.0581
දිනා	-12.0582
▁උභොහි	-12.0582
චූළ	-12.0583
ඛාතෙහි	-12.0583
▁වෙරි	-12.0589
තරු	-12.0591
ගුණසම	-12.0593
▁විගතා	-12.0599
▁රාගෙන	-12.0602
▁උදු	-12.0606
විකාර	-12.0608
හාපි	-12.0608
▁සහායං	-12.0609
තෙල	-12.061
▁තිඛිණ	-12.0611
▁පජානාතීති	-12.0611
▁මහානුභාව	-12.0616
▁පාණස	-12.0616
▁කතමෙසං	-12.0617
▁කලං	-12.0618
මවිප	-12.062
▁අහෙසු	-12.062
▁පෙතා	-12.0629
▁අනුපද	-12.063
විභූ	-12.063
▁අධිගතා	-12.0632
යාදීනං	-12.0632
ගලප	-12.0633
ඛළ	-12.0634
▁198.	-12.0637
තගූ	-12.0638
▁ආසෙවති	-12.0638
▁ගොප	-12.064
ජාසවො	-12.0641
▁උසභ	-12.0643
▁අභිනිවෙසො	-12.0643
▁උපධාරෙ	-12.0644
බරෙ	-12.0646
▁ජනතා	-12.0647
ගුණෙහි	-12.0648
▁හිරි	-12.0649
▁ඝොස	-12.0653
තියෙවාති	-12.0653
තථෙව	-12.0655
යපු	-12.0656
▁බාවීසති	-12.0658
පවෙසනෙ	-12.0658
ඵොට	-12.0659
▁පරලොකං	-12.0659
▁හොතියෙව	-12.0664
▁වචීවි	-12.0665
භාගියානං	-12.0666
වසෙනාපි	-12.0667
ඡාවිස	-12.0668
▁වෙදෙ	-12.0669
▁අගා	-12.067
▁එවා	-12.0671
බාජක	-12.0673
ඛමූල	-12.0676
අවි	-12.0676
වචනි	-12.0677
මොසාය	-12.0678
▁භාජනං	-12.0679
▁උදපාදීති	-12.068
▁රූපිය	-12.0682
චවිධං	-12.0683
▁විලප	-12.0683
▁දසබල	-12.0688
▁සකුණා	-12.069
▁පමාණාති	-12.0691
▁කාසික	-12.0693
▁පරිපූර	-12.0694
▁සූරො	-12.0694
උග	-12.0695
▁එකචිත	-12.0699
▁උපනිබ	-12.07
තෙසූති	-12.0702
ණිතො	-12.0704
▁පටිලභ	-12.0705
▁ආරොචෙති	-12.0707
චවසෙන	-12.0709
පරමා	-12.0709
විරහිතං	-12.0711
▁පරිපූරකාරී	-12.0714
සාලං	-12.0716
රුං	-12.0717
▁පාණාතිපාතී	-12.0718
▁පතිතං	-12.072
▁විවෙකජං	-12.072
▁ආණාපෙ	-12.072
▁මෙඝො	-12.0722
▁කාමගුණෙසු	-12.0722
සමුදයො	-12.0722
▁ගිරං	-12.0723
ඤඵලානි	-12.0723
වෙපුල	-12.0724
නග්	-12.0725
▁ආරාධ	-12.0725
▁සවිචාරං	-12.0726
▁අභිනිප	-12.0727
▁පහීනොති	-12.0728
▁212.	-12.073
▁අනාප	-12.0733
▁ආයතනානං	-12.0735
▁202.	-12.0736
මත	-12.0738
ඡදන	-12.0739
▁සුපරි	-12.0741
පංසු	-12.0742
දීහි	-12.0745
ගාන	-12.0747
ජාතියා	-12.0749
ාදීසූති	-12.0749
▁ගව	-12.0749
▁ගරහිත	-12.075
පදාපෙ	-12.0751
කාරකෙ	-12.0751
▁සභාවෙන	-12.0752
▁අභිසෙක	-12.0755
කුතො	-12.0757
පමානො	-12.0759
▁ධාරෙතීති	-12.0759
▁පාරාජිකො	-12.0762
ාළ	-12.0763
දොව	-12.0764
ජෙතුං	-12.0766
රානං	-12.0767
5-6.	-12.0769
ගමනතො	-12.077
▁විගතප	-12.0771
▁අණුම	-12.0773
දෙසනාය	-12.0774
ථකා	-12.0776
▁සාමිකෙ	-12.0777
එකත්	-12.0777
භියා	-12.0778
▁බහුකා	-12.0778
▁පරිචිතා	-12.0779
▁නවුති	-12.078
සහිතං	-12.0783
▁පවිසි	-12.0784
▁ගාවී	-12.0785
▁උරග	-12.0787
මචාරි	-12.0787
▁පාතබ්	-12.0787
▁ඔතරති	-12.0787
▁චාරු	-12.0788
තිරච	-12.0789
යාසීති	-12.079
ජමානෙසු	-12.0791
▁200.	-12.0791
▁බහවො	-12.0792
ලෙඛා	-12.0792
▁අපරිපු	-12.0796
ඨානුසයෙන	-12.0797
-‘	-12.0797
▁නිරවසෙස	-12.0797
තසො	-12.0798
තනී	-12.0799
▁අභාවිත	-12.0799
▁සමූහො	-12.0799
කභාවෙන	-12.0799
වෙදන	-12.0801
චිතො	-12.0801
▁ඔවදති	-12.0801
▁භාවය	-12.0802
▁අනාග	-12.0803
▁අරියෙන	-12.0808
▁ආවාස	-12.081
▁සණිකං	-12.0812
පමුඛස	-12.0818
ිදං	-12.0819
▁යාපෙති	-12.0819
පභෙදො	-12.082
▁නිවාරෙ	-12.082
වාජ	-12.0821
▁දොසස	-12.0821
▁ආණාපෙති	-12.0824
▁පුරොහිත	-12.0824
ෙසොහ	-12.0827
▁අනමත	-12.0827
▁ආලපන	-12.0831
ාභිධාන	-12.0831
තාවසෙන	-12.0832
▁206.	-12.0833
▁චාගො	-12.0834
▁සුකරං	-12.0835
▁අනුභො	-12.0836
▁බාලස	-12.0837
▁රථො	-12.0838
කූටං	-12.0839
▁ආදර	-12.084
ගොචරං	-12.084
සාදං	-12.0842
▁ආමිසං	-12.0843
▁හරති	-12.0844
ගතොති	-12.0845
▁කථිනෙ	-12.0849
▁ඣානෙන	-12.0849
▁වීතරාග	-12.0849
දිසෙසු	-12.0851
▁ථුති	-12.0851
ඩකම	-12.0855
ඛොභ	-12.0856
ඤායං	-12.0856
ආයස	-12.0858
▁සාමණෙරස	-12.0859
▁අකාලෙ	-12.0862
▁අතිප	-12.0865
ධාරණං	-12.0866
▁යෙනාති	-12.0866
ාමී	-12.0866
නය්	-12.0868
පහීනොති	-12.0868
මරාජ	-12.0869
▁නියමො	-12.087
▁භූතො	-12.087
▁222.	-12.087
▁ආයො	-12.0874
▁ආණාපෙසි	-12.0875
ඛිණෙන	-12.0878
ගාරෙ	-12.0878
කොසන	-12.0878
▁රුචියා	-12.0882
▁සෙතු	-12.0883
ටවිව	-12.0884
භාවමෙව	-12.0886
ඉමානි	-12.0888
▁කතොති	-12.0889
බෙධං	-12.089
▁ඛිපි	-12.0891
▁ධතර	-12.0891
▁කවි	-12.0893
▁කිලම	-12.0893
▁විභාග	-12.0895
යිකො	-12.0896
▁දෙවලොකං	-12.0897
▁සුරාපාන	-12.0898
▁199.	-12.0898
▁237.	-12.0901
▁සුභාසිත	-12.0901
නිධාන	-12.0902
▁සමාහිතෙ	-12.0902
▁තුලයිත	-12.0904
විභාවන	-12.0906
▁203.	-12.0906
▁බහූසු	-12.0908
▁209.	-12.0909
හූ	-12.0909
▁201.	-12.091
▁ජහාති	-12.091
▁වීමංසති	-12.0911
▁ජනෙතීති	-12.0912
▁ආයත	-12.0914
සීලෙන	-12.0916
තියාපි	-12.0918
▁ඨානසො	-12.0924
▁ආදියති	-12.093
ඡමානා	-12.093
▁පරියොන	-12.093
▁නෙති	-12.0934
▁පදෙසු	-12.0934
▁සීහළ	-12.0935
ඣායා	-12.0938
▁නිරු	-12.0939
▁කාකො	-12.0941
මවිපාකො	-12.0943
පටිභාන	-12.0944
භිසි	-12.0946
▁ධාවන	-12.0946
හාරි	-12.0948
▁210.	-12.0949
▁නිවාසෙ	-12.0949
▁218.	-12.0949
යාබාධාය	-12.0952
▁තාලප	-12.0953
▁කාසාව	-12.0953
▁අරහතං	-12.0954
සයවසෙන	-12.0955
▁මාණවා	-12.0959
ඉතිපි	-12.0962
මිකානං	-12.0962
▁නවම	-12.0964
බිල	-12.0964
▁ජනානං	-12.0964
ඤසාධාරණ	-12.0965
▁ඣායති	-12.0967
▁ආචාරවිප	-12.0969
▁පටිබලො	-12.0969
කවචනං	-12.097
▁බාහිරො	-12.0971
▁208.	-12.0972
▁මාතුයා	-12.0972
▁පුරිමෙ	-12.0973
▁කරිංසු	-12.0973
ධමෙව	-12.0974
▁228.	-12.0974
කොව	-12.0975
ටෙති	-12.0975
▁219.	-12.0975
23	-12.0977
▁216.	-12.0978
ඛමූලං	-12.0981
▁ගහිතානි	-12.0983
▁සතීති	-12.0983
▁සංකිලෙසිකා	-12.0983
▁නවං	-12.0985
චවාරො	-12.0986
සාපෙත	-12.0986
▁සමාදපෙ	-12.0987
දාදීහි	-12.0988
▁දෙසෙතුං	-12.0988
▁කාර	-12.0989
▁තාවතිංසා	-12.0991
සසහගතා	-12.0992
සසහගත	-12.0992
▁ඛායති	-12.0993
සපාපියසිකා	-12.0995
ඨානසම	-12.0997
ෙකො	-12.0999
තරධායි	-12.1
ඛිතසි	-12.1
පිදං	-12.1001
ටිත	-12.1003
ඤාණදස	-12.1005
උතු	-12.1007
ඝාටිං	-12.1009
තරපදෙ	-12.1011
ඡෙදක	-12.1011
▁එකවීසති	-12.1012
චරිතානි	-12.1013
ථියප	-12.1014
යසන	-12.1014
චාදයො	-12.1025
▁වාදෙ	-12.1026
තෙහීති	-12.1026
▁සොතසම	-12.1027
ාහ	-12.1028
▁204.	-12.1028
▁දායාදො	-12.103
▁දෙවතාහි	-12.103
▁වූපසමො	-12.1031
ඉරියාපථ	-12.1032
▁තහං	-12.1033
බනං	-12.1033
▁සුකතෙන	-12.1036
ජනමෙව	-12.1036
▁නියමෙත	-12.1037
ලාසා	-12.1038
▁අනාගාමිඵලං	-12.1039
පරියොසාන	-12.1041
▁අපරිච	-12.1041
▁රුහති	-12.1041
සාඛා	-12.1041
ඝරෙ	-12.1045
භාගා	-12.1046
▁වචසා	-12.1046
ඡාවසෙන	-12.1047
▁සුපිනං	-12.1049
▁සංකිලෙසො	-12.1049
බහූ	-12.1049
බාධෙ	-12.1051
▁හානි	-12.1052
දදො	-12.1052
රාසිං	-12.1052
ගඤාණං	-12.1055
තනිකාය	-12.1058
ිංසූ	-12.1058
▁233.	-12.1059
▁කාමරාගො	-12.106
▁234.	-12.1062
බීජං	-12.1064
▁භාවිතං	-12.1068
▁පරමා	-12.1068
▁විඝාත	-12.107
▁සුඛසහගතං	-12.1071
▁පුරිමානි	-12.1072
තපදං	-12.1074
පෙතබ්	-12.1075
පලාපො	-12.1077
ාදිභාවෙන	-12.1082
ඨවීසති	-12.1084
මකෙ	-12.1085
ඨායාති	-12.1089
සෙනා	-12.109
▁මාපෙත	-12.109
ඛමනං	-12.1091
ානුසාරෙන	-12.1094
ණවෙ	-12.1095
▁භයෙන	-12.1096
▁සොණද	-12.1097
නෙහ	-12.1098
උපොසථ	-12.11
▁විනාස	-12.1101
දරී	-12.1101
▁තදපි	-12.1101
පදීප	-12.1101
▁අවධාරණ	-12.1104
ණියං	-12.1107
▁243.	-12.1108
▁241.	-12.1108
▁221.	-12.1109
උපමා	-12.1111
▁පහාතුං	-12.1112
තකාලං	-12.1113
චදස	-12.1117
කාරෙහි	-12.1118
▁පයොගා	-12.1121
▁විසෙසාධිගම	-12.1121
ඨපෙසි	-12.1121
කනිපාතො	-12.1125
▁ආධිපත	-12.1127
ඡකෙ	-12.113
ඣාවසති	-12.113
▁එකදෙසෙන	-12.113
▁ගමෙ	-12.1131
▁තෙමාසං	-12.1131
යිතුං	-12.1132
චිතා	-12.1132
හසමයෙ	-12.1135
▁ජහ	-12.1135
ඛතෙ	-12.1136
▁යොග්	-12.1137
මහ	-12.1138
ඣනතො	-12.1142
▁ඤාතකෙ	-12.1142
▁232.	-12.1142
කරුණා	-12.1146
ඛමානං	-12.1147
ඣාප	-12.1147
ථිභාවො	-12.1148
▁එකකො	-12.115
▁සමොධානං	-12.1153
▁අභිධෙය	-12.1154
▁තෙවීසති	-12.1154
ානිසංසා	-12.1154
▁දාරකො	-12.1154
▁පසීදිත	-12.1154
▁නාප	-12.1162
▁දෙසන	-12.1162
සව්	-12.1163
▁ගුරු	-12.1163
ලභං	-12.1165
▁චරණං	-12.1165
නාදීසු	-12.1169
විජානන	-12.117
ගහීතං	-12.117
▁අපරිහීන	-12.1172
ලීනං	-12.1173
පාදකො	-12.1175
දෙසතො	-12.1176
▁ඣානානං	-12.1177
චාහං	-12.1178
▁ණි	-12.1179
දිසාය	-12.1181
▁බහුල	-12.1181
ඣාවස	-12.1182
පහාර	-12.1184
නංයෙව	-12.1185
දූර	-12.1187
▁226.	-12.1188
▁වෙදගූ	-12.1189
▁236.	-12.1189
ංව	-12.119
ලාසෙන	-12.1191
තනු	-12.1192
▁අතිරෙකා	-12.1192
පකතං	-12.1193
▁කිලමති	-12.1197
ඨීහි	-12.1197
තාධිකරණ	-12.1199
ථුවසෙන	-12.12
▁මමත්	-12.12
මවත්	-12.1201
තදාරම	-12.1202
▁අහිරිකං	-12.1203
තමිච	-12.1204
රාන	-12.1208
ඤනිස	-12.1208
කාමෙන	-12.1209
ාභිස	-12.1219
▁214.	-12.1222
▁කාරිත	-12.1222
කමනෙ	-12.1222
▁කුතොචි	-12.1222
▁අවු	-12.1223
▁නිවෙසනෙ	-12.1225
▁බහුලීකතො	-12.1225
මකරණ	-12.1226
▁තයොපි	-12.1228
ඣානා	-12.1235
▁භාසිතම	-12.1236
මාසො	-12.1239
▁කරි	-12.1239
▁ඤාතුං	-12.124
▁වායමන	-12.124
▁ඛෙමා	-12.1242
▁සොතධාතු	-12.1243
▁මහාලි	-12.1244
▁රථස	-12.1245
▁මාතිකං	-12.1248
භූතෙසු	-12.125
ියමානෙ	-12.1251
පනවසෙන	-12.1252
▁අධිකා	-12.1255
භයෙ	-12.1256
ථයොජනා	-12.1258
ගෙහෙ	-12.1258
ඨතී	-12.1259
සීමාය	-12.126
▁අධිවාසෙ	-12.1262
ටු	-12.1263
▁භායති	-12.1265
දායිකා	-12.1266
▁තිරිය	-12.1266
▁ගාහ	-12.1269
▁227.	-12.127
▁දෙවසාරථි	-12.127
▁අදංසු	-12.1271
ඨානානු	-12.1272
▁ජහති	-12.1272
ඤිකො	-12.1273
▁වීරියබලං	-12.1275
▁127	-12.1276
▁ධර	-12.1278
ඨිතිකා	-12.1279
▁රාගාදයො	-12.1279
චනීකං	-12.128
තනයමෙවාති	-12.1281
▁ඵරුසං	-12.1282
▁කුසීතො	-12.1282
▁බොධ	-12.1283
▁ඤාතං	-12.1286
සරීරං	-12.1289
ඡානගතා	-12.129
නාගතෙ	-12.129
▁අනොමද	-12.1293
▁අවූපස	-12.1293
▁පාඨ	-12.1293
තකෙහි	-12.1294
සිනී	-12.1297
ාභිමුඛං	-12.1299
ගලෙසු	-12.13
චාමි	-12.1301
රියාය	-12.1301
▁අධිකරණෙ	-12.1302
▁223.	-12.1302
▁කාමගුණ	-12.1302
▁සෙවි	-12.1303
▁230.	-12.1305
▁231.	-12.1305
ඡාමා	-12.1305
▁සදෙවකං	-12.1306
▁දසා	-12.1306
රොග	-12.1308
තනිකා	-12.1308
තොගධා	-12.1311
ාකාරො	-12.1314
▁දුරු	-12.1315
▁පකාසෙති	-12.1315
▁බාරාණසි	-12.1316
ඛරොති	-12.1317
මාසි	-12.1318
පාදෙතුං	-12.1318
▁පාපකෙ	-12.1318
▁238.	-12.1318
▁නදි	-12.1322
▁සලාකග	-12.1325
වලි	-12.1325
පරිහාර	-12.1329
තකථාවණ	-12.133
▁අකුසලවිපාක	-12.1332
තානෙව	-12.1333
▁ජාය	-12.1334
පාතුභාව	-12.1335
▁අනුසාසි	-12.1336
දෙවී	-12.1339
▁පාතුභවති	-12.1341
ඤමානා	-12.1345
▁ඵලි	-12.1347
තමනතා	-12.1349
ඡාමීති	-12.135
▁කම	-12.1351
ජෙග	-12.1353
කාසී	-12.1355
▁කථනං	-12.1355
▁විභාවිනා	-12.1356
▁නාළ	-12.1356
▁දීපය	-12.1357
ටීකා	-12.1359
▁ජාතිආදි	-12.136
භගවතා	-12.1363
▁පාටලිපු	-12.1365
තපත්	-12.1368
▁නාමුප	-12.1368
▁මොන	-12.1368
හප	-12.137
ථාරකෙන	-12.137
සාදීනං	-12.1372
▁හෙතුඵල	-12.1373
▁අනාසව	-12.1374
▁යථාසකං	-12.1377
▁235.	-12.1379
සමාදාන	-12.1382
පුට	-12.1383
▁අනුමොදනං	-12.1383
▁දීපිතො	-12.1383
පරක්	-12.1385
සටො	-12.1386
▁රෙණු	-12.1389
මිකායාති	-12.1389
▁මුනිං	-12.1391
රුහ	-12.1394
▁යථාභූත	-12.1397
▁අනුමොදන	-12.1398
පීඨ	-12.1398
දසම	-12.1399
ලකා	-12.1399
▁ගොතමා	-12.14
ඡාජාත	-12.1403
▁සුනි	-12.1403
ොදකං	-12.1404
▁අසමො	-12.1405
▁චරිතං	-12.1405
▁ධොත	-12.1405
ාදීහීති	-12.1408
ඤාවසෙන	-12.1408
▁අජින	-12.1408
ඣායෙන	-12.1409
▁දෙමා	-12.1413
කාලෙපි	-12.1413
තකවි	-12.1415
යාපාදං	-12.1416
▁අපරං	-12.1416
සතිසමාධි	-12.1418
▁ආද	-12.1418
▁නකාමාවචර	-12.1419
ියමානො	-12.1425
▁පරාභව	-12.1426
රහො	-12.1426
▁සාදිත	-12.1427
භාවන	-12.1428
▁පගුණ	-12.143
▁දහති	-12.1433
▁ආජාන	-12.1434
භාය	-12.1435
▁කාමාසවො	-12.144
▁රාජාපි	-12.144
▁31	-12.1442
▁සෙවති	-12.1444
▁සොතෙන	-12.1446
චමානෙ	-12.1449
මපිටකෙ	-12.1451
▁ජනපදො	-12.1452
▁විහාය	-12.1454
▁අවධි	-12.1456
▁අමනාප	-12.1457
තිකානං	-12.1458
▁එවමයං	-12.146
තිකානි	-12.1462
චෙවමාදී	-12.1463
යකා	-12.1466
ඡාසහගතා	-12.1467
▁නයොති	-12.1469
▁ඛීණාසවානං	-12.1469
ගියෙන	-12.147
වසී	-12.147
▁චතුවොකාරා	-12.1473
නියත	-12.1473
ාභිභූ	-12.1474
සූර	-12.1475
දිව	-12.1476
සෙනාසන	-12.1478
▁දොසෙ	-12.1478
▁224.	-12.1479
▁පටිකූලස	-12.1479
වරා	-12.1482
▁සංවාස	-12.1485
▁ජනක	-12.1486
▁ගවෙස	-12.1488
අයම	-12.1493
▁සකලසරීර	-12.1493
▁අපලොකෙත	-12.1497
වෙදි	-12.1497
ගහිතෙන	-12.1498
තසමාධි	-12.1498
▁වධාය	-12.1499
මහාපුරිස	-12.1499
ඨොව	-12.1499
ධාතුයො	-12.1499
ඩිතෙන	-12.1501
නාමකෙ	-12.1501
තතර	-12.1502
දයා	-12.1502
ණමා	-12.1503
ඛාපදප	-12.1504
භාවනං	-12.1505
ඛවෙදන	-12.1505
සීමං	-12.1505
▁විවාදාධිකරණ	-12.1506
ථෙසා	-12.151
තාපො	-12.1511
ඛමානත	-12.1511
▁පූජන	-12.1513
▁රමි	-12.1513
සතද	-12.1514
▁ජායරෙ	-12.1518
▁රමති	-12.1518
▁242.	-12.1518
▁ලොල	-12.1521
▁පූජය	-12.1522
▁පිහය	-12.1523
▁රාගාදීනං	-12.1524
▁දාතුකාමො	-12.1524
▁කෙනචිදෙව	-12.1524
▁ආයූ	-12.1527
කය	-12.1531
කසි	-12.1531
ෙසූ	-12.1533
.5.	-12.1535
භවි	-12.1538
▁සූරියස	-12.154
▁ධෙනු	-12.154
▁එවමාදීනි	-12.1541
▁දීපෙත	-12.1542
▁පරවාදි	-12.1543
▁217.	-12.1544
වෙදනං	-12.1544
▁කුසලමූලං	-12.1545
දීපකං	-12.1545
එකා	-12.1545
▁ආකාරා	-12.1548
අප	-12.155
▁සංවුතො	-12.1551
▁පලා	-12.1552
▁පරපරි	-12.1553
▁අතිම	-12.1553
ථපාසං	-12.1554
ඝභෙද	-12.1555
ඛාචාර	-12.1555
▁229.	-12.1557
▁245.	-12.1558
වීථියං	-12.1561
කසම	-12.1565
▁225.	-12.1565
▁සුණිත	-12.1568
ඝාදිසෙසෙන	-12.1569
ථාරකථා	-12.1574
▁ආගතානි	-12.1575
වාසීනං	-12.1578
▁අතිසය	-12.1578
වාදසව	-12.158
ඤමෙව	-12.158
තනවසෙන	-12.1581
▁පඨමපාරාජික	-12.1581
විගත	-12.1582
පුරිසෙ	-12.1583
▁පකරණෙ	-12.1585
බායති	-12.1589
▁ජානාපෙ	-12.159
▁සමුදයං	-12.159
වාරි	-12.1591
▁ලොහිතක	-12.1591
▁උපවද	-12.1591
▁අනාගතංසඤාණස	-12.1593
ඣාසයෙන	-12.1594
▁අචිරප	-12.1595
▁භාජනෙ	-12.1596
▁සාරං	-12.1598
සකස	-12.16
▁පුමා	-12.1603
▁සරෙන	-12.1604
▁පූ	-12.1607
චායතනස	-12.1608
පෙහි	-12.161
ඨිගතානි	-12.1612
▁අපායෙසු	-12.1612
තිඵලස	-12.1613
▁ගාමනිගම	-12.1613
▁සෙසානං	-12.1614
▁ආනුභාව	-12.1618
▁හීනායා	-12.1618
ගහෙතුකො	-12.162
▁මහාභි	-12.162
▁කලල	-12.1627
▁පටිසාරණීය	-12.1628
▁වතාහං	-12.1629
▁අනුභවි	-12.1631
බාසවෙ	-12.1631
ානිසංසො	-12.1632
ජනකො	-12.1633
ඨව	-12.1633
චරිතෙන	-12.1635
ාදික	-12.1635
▁පරිහීන	-12.1639
සාසානං	-12.1645
ලුද්	-12.1646
විරහිත	-12.1647
▁නිදානෙ	-12.165
▁අසාතං	-12.165
▁යොගෙ	-12.1651
සාදෙන	-12.1656
▁පලාය	-12.1656
ගාහං	-12.1657
තයොමෙ	-12.1658
▁මහිං	-12.1658
▁උපචයො	-12.1661
නමො	-12.1666
වාවීසති	-12.1667
සයෙන	-12.1667
▁සල	-12.1668
ඤපද	-12.1668
▁මාතරා	-12.1669
▁නොනීවරණ	-12.1669
තාභි	-12.167
චිතුං	-12.1672
3-4.	-12.1673
ාදීනීති	-12.1673
සොව	-12.1676
▁කලහ	-12.1676
▁කාමභව	-12.1677
▁පකාරෙහි	-12.1678
▁ඔළාරිකො	-12.1679
ාදිභෙදෙ	-12.1684
ියමාන	-12.1685
ඣනං	-12.1686
සිලා	-12.1686
කවාළෙ	-12.1688
▁නෙරයිකො	-12.1691
▁යථායොගං	-12.1692
▁තථාරූපෙ	-12.1694
▁මානුසෙ	-12.1694
▁බාහං	-12.1696
▁අපරාම	-12.1697
▁විහිංස	-12.1699
▁පුරිමෙන	-12.1702
චාධිකරණං	-12.1702
ඣානික	-12.1703
සකෙ	-12.1704
▁අභූතෙන	-12.1711
ආදෙසො	-12.1711
▁පරනි	-12.1713
▁අනවසෙසං	-12.1719
▁අපසාදෙ	-12.1722
▁239.	-12.1723
වණිජ	-12.1724
▁අනීක	-12.1725
ඛාසි	-12.1727
තිආදිවචනං	-12.1729
▁දෙහ	-12.173
නිරොධං	-12.1732
පාළියා	-12.1733
විපරිණාම	-12.1735
ඛරිත	-12.1737
6-7	-12.1738
කරතනං	-12.1739
▁පහාර	-12.174
▁තයි	-12.1742
▁විධම	-12.1743
හාසි	-12.1746
▁කෙතු	-12.1748
තනියත	-12.175
නිපතිතා	-12.175
ඨාසෙසු	-12.1754
▁පරිදෙවන	-12.1755
ූපාය	-12.1756
පාදාදි	-12.1757
▁වෙළුරිය	-12.1759
ථිනො	-12.1764
▁27	-12.1766
ජලං	-12.1768
කානීති	-12.1769
ඨපරි	-12.1769
▁මිගදායෙ	-12.1772
▁යාවතායුකං	-12.1772
▁නිරයපාලා	-12.1772
▁265.	-12.1772
මාතු	-12.1772
▁240.	-12.1772
▁අනාදියි	-12.1772
කමත්	-12.1772
වීහායතනෙහි	-12.1773
43	-12.1774
වීති	-12.1774
තවො	-12.1774
බධාතු	-12.1776
ාසු	-12.1778
අතීත	-12.1778
ඣොසාය	-12.1779
▁වෙඨෙත	-12.178
ඣමානා	-12.1782
හෙතූති	-12.1782
▁රාගදොසමොහ	-12.1783
වෙළ	-12.1784
ධිප	-12.1784
පීඨං	-12.1786
▁සුපු	-12.179
▁එථ	-12.179
මපද	-12.1792
ඝනකං	-12.1793
▁ලහුකං	-12.1795
චිර	-12.1795
කරණීයං	-12.1795
සාරෙ	-12.1796
භකථා	-12.1799
▁ඛමා	-12.1799
සමුදයං	-12.18
▁පකරණ	-12.1801
▁ඛණික	-12.1801
▁ඔවාදෙ	-12.1803
▁ඔදන	-12.1803
ජාපෙත	-12.1805
චාජාය	-12.1806
▁දුතියදිවසෙ	-12.1811
▁විලොකෙ	-12.1813
කාකකුල	-12.1813
ඣමානං	-12.1816
▁සෙඛො	-12.1816
භාගියා	-12.1817
▁ඣායි	-12.1819
▁මාල	-12.182
▁තෙලප	-12.1822
▁ආසවෙ	-12.1825
▁246.	-12.1825
කාරසිලොක	-12.1832
මදින	-12.1833
▁ජලිත	-12.1833
පසතෙ	-12.1836
▁වසු	-12.1837
පාණක	-12.1841
දෙසවාර	-12.1841
ාදිකා	-12.1841
▁ඝරා	-12.1842
පාදනෙන	-12.1844
▁පවාර	-12.1844
දාලි	-12.1844
භනතො	-12.1845
▁පහිණති	-12.1846
▁කුණප	-12.1846
▁පරික	-12.1848
රියසම	-12.1851
පහාරෙන	-12.1852
මාණව	-12.1856
තාරොපි	-12.1857
▁අකාසිං	-12.1857
▁සංසරිත	-12.1857
තමරහතා	-12.1858
▁ඵරණ	-12.1859
▁ගොචරා	-12.1859
ඣාසයා	-12.1859
▁මත	-12.1859
හනෙ	-12.1862
සංවුට	-12.1863
කායග	-12.1865
▁විනොදෙති	-12.1865
ඛවසෙන	-12.1866
▁කුමාරෙ	-12.1866
▁මාගධො	-12.1866
රියසංවර	-12.1867
පලා	-12.1867
▁සෙලො	-12.1868
ඛරණිං	-12.1869
ුග	-12.1873
තාලීසං	-12.1874
▁පභින	-12.1875
ගකථා	-12.1875
▁භාතරො	-12.1877
▁ඡදන	-12.1878
මචරියෙන	-12.1879
▁සුගතං	-12.188
▁විහෙඨෙ	-12.1882
▁සයනං	-12.1883
පාදිත	-12.1884
දිවා	-12.1884
▁සමාගම	-12.1885
වීසති	-12.1886
ජොතො	-12.1887
පරියෙසනං	-12.1892
82	-12.1893
කාලිකා	-12.1896
▁ගෙහස	-12.1896
දිවසතො	-12.1897
ඛාපෙ	-12.1898
ණාරහස	-12.1899
බිත	-12.19
▁පනානි	-12.1901
▁පෙතො	-12.1902
ගොපි	-12.1902
▁සමාහිතං	-12.1903
▁ලීන	-12.1908
නපු	-12.1908
සංසාර	-12.1908
විනයො	-12.1911
▁අභාවං	-12.1911
පහානපරි	-12.1912
▁ඤාණෙ	-12.1912
ඡී	-12.1914
▁සීලෙහි	-12.1914
ධිකෙ	-12.1915
▁මෙධා	-12.1918
ඨාසීති	-12.192
▁දදතො	-12.192
63	-12.1921
ඩරීක	-12.1922
ඡවික	-12.1922
▁244.	-12.1923
දාසී	-12.1929
කමනා	-12.1929
▁පාපිමතො	-12.193
ණිත	-12.193
▁පරෙස	-12.1931
▁පරිණත	-12.1932
පාණ	-12.1933
▁සමීපං	-12.1934
▁කහාපණ	-12.1936
▁අපගත	-12.1937
▁ථාම	-12.1938
ණමයං	-12.1938
▁චොදන	-12.194
▁වූපක	-12.1941
▁මාතාපිතූහි	-12.1945
වසි	-12.1945
ජාතෙ	-12.1946
නපච	-12.1947
▁ආහුතීනං	-12.1947
▁සංවුත	-12.1951
▁නාමෙතං	-12.1956
ඵාදි	-12.1957
▁මහාවනෙ	-12.1958
▁නිව	-12.1958
පෙතීති	-12.1959
හෙතුකා	-12.1961
ධුමාතක	-12.1965
තාසු	-12.1966
ෙකදෙස	-12.1966
▁සංයමො	-12.1966
පසාදනං	-12.1969
කිතං	-12.1971
තමානස	-12.1972
පීතිකං	-12.1972
▁තාවතා	-12.1974
▁කදලි	-12.1974
▁තංසමු	-12.1974
සිරී	-12.1978
▁යොගා	-12.1978
▁අධිකාරො	-12.1978
ඤාසං	-12.1979
මාධි	-12.1979
භූතෙහි	-12.198
රෙන	-12.1981
▁මුසාවාදං	-12.1982
▁දුතියප	-12.1983
▁දූරතො	-12.1984
▁පරිහාර	-12.1985
▁සාලා	-12.1986
කොධනො	-12.1986
51	-12.1988
▁යාථාව	-12.1988
ණියා	-12.1988
ඩරං	-12.1989
▁රතිං	-12.1991
මලා	-12.1991
යමත්	-12.1992
ණිං	-12.1993
රූපී	-12.1994
▁නයෙ	-12.1994
▁වීතිනාමෙ	-12.1995
▁පරිතො	-12.1996
ාභිසම	-12.1998
▁භාවෙය	-12.2
දාධිපත	-12.2002
▁භාවයතො	-12.2002
▁හෙතූනං	-12.2003
ඛුම	-12.2004
චරිතා	-12.2004
▁කිරියතො	-12.2006
▁පටිකරි	-12.2007
▁නීලං	-12.2011
69	-12.2011
▁ලොමං	-12.2012
තමිදං	-12.2014
යොහම	-12.2015
▁ඔඝා	-12.2016
▁ආදාන	-12.2018
▁සභාගා	-12.2019
▁බහුලීකරොති	-12.202
භවෙන	-12.2021
▁ජාතු	-12.2022
▁සකෙන	-12.2022
▁පාකාර	-12.2023
▁භවාභවෙ	-12.2024
තිංසාය	-12.2027
සමොධාන	-12.2027
▁ඛමාපෙ	-12.2029
▁ඩංස	-12.2029
බවනෙ	-12.2029
▁රොච	-12.2031
▁262.	-12.2033
▁සංකිලෙසභාගිය	-12.2033
▁263.	-12.2033
▁පාඨසෙසො	-12.2034
ඣොකාසෙ	-12.2036
තරායෙ	-12.2036
ඛාරාති	-12.2039
▁අවහාරො	-12.204
ඨම්	-12.204
▁පජානාමි	-12.204
ඤාතෙ	-12.204
ථිකං	-12.2042
තිචතු	-12.2042
52	-12.2043
▁තදු	-12.2046
▁නිගම	-12.2047
▁ආවරණං	-12.205
▁එතදබ්	-12.2051
යාවකීව	-12.2056
▁දානාදීනි	-12.2057
ගතානං	-12.2057
චධා	-12.2057
ලාභං	-12.2057
▁ලොකෙන	-12.2059
පවාස	-12.206
▁අලො	-12.2062
පාදෙසි	-12.2067
▁උපාග	-12.2067
නෙහො	-12.2068
ධාතුං	-12.2069
ඛාරවි	-12.207
▁සුපරිසු	-12.207
62	-12.207
▁මිගරාජා	-12.2072
▁අගාර	-12.2076
හෙතුතො	-12.2077
දුල	-12.208
▁ආතුර	-12.208
▁තෙව	-12.2082
▁ගමෙති	-12.2086
▁වෙදෙහ	-12.2087
රිතං	-12.2088
පරිළාහ	-12.2088
▁තිණං	-12.209
▁247.	-12.2091
▁අකුසලෙන	-12.2092
▁සුපින	-12.2094
බසංයොජන	-12.2094
▁264.	-12.2097
භුජ	-12.2097
▁නීචෙ	-12.2099
සොහං	-12.2101
▁256.	-12.2102
ඛියං	-12.2103
තරානං	-12.2104
▁උපාගමි	-12.2107
▁දීපිතං	-12.2107
▁වණිජ	-12.2108
පවෙසන	-12.211
▁වණ	-12.2112
චරං	-12.2115
▁ඝටෙ	-12.2117
චයපරි	-12.2118
▁පලායිත	-12.2119
▁සුජාතා	-12.2119
▁සමාධිභාවනා	-12.212
▁ලොභං	-12.2121
▁දීපා	-12.2121
▁සුගතෙ	-12.2122
▁නවසු	-12.2125
ඡිමො	-12.2126
34	-12.2127
සනාති	-12.2127
▁භයානි	-12.2127
ධීහි	-12.2128
▁අනුමොද	-12.2129
▁පරිජානි	-12.2129
නමූලා	-12.2132
▁පාපුණිංසු	-12.2132
▁නීවරණො	-12.2134
ටය	-12.2134
▁නහාය	-12.2137
▁ගොතමෙන	-12.2139
ඵරුස	-12.214
ඛාදීනි	-12.2144
▁පංසුකූලං	-12.2145
▁ජානපදා	-12.2146
▁සමණානං	-12.2146
ීයමානො	-12.2147
පාකාර	-12.2151
▁අතීතානාගත	-12.2153
▁ඉතරානි	-12.2155
▁පලිබොධො	-12.2155
▁පංසුකූලික	-12.2159
පූති	-12.2159
මානසං	-12.2162
▁කාරයෙ	-12.2164
28	-12.2167
▁වයං	-12.2168
ඤිතං	-12.2171
රිතා	-12.2172
කකථා	-12.2172
▁උපාසකස	-12.2172
▁නීය	-12.2172
▁ලෙඛා	-12.2173
සොළස	-12.2174
තිපදෙ	-12.2176
▁පජහි	-12.2177
▁කාරිය	-12.2179
තීණි	-12.2181
භවිස	-12.2184
ලීනා	-12.2184
ණවා	-12.2186
පලං	-12.2186
▁269.	-12.2186
යසිකා	-12.2187
▁258.	-12.2187
ාදිභෙද	-12.2188
▁බහ	-12.2188
තනිපාත	-12.2192
තාදිනා	-12.2195
මපදං	-12.2195
නිකාය	-12.2197
රුචි	-12.22
ඩූක	-12.2207
ගහිතාති	-12.2207
▁අනුරූපං	-12.2208
▁තුව	-12.221
ථාදි	-12.221
▁තාවතිංසමග	-12.221
▁නිකාමලාභී	-12.221
▁261.	-12.2211
▁ඛරා	-12.2212
▁ගරුක	-12.2212
▁29	-12.2212
▁පරහිතාය	-12.2213
භිදාහි	-12.2213
▁ඨපන	-12.2217
▁හාස	-12.2217
ඛවි	-12.2218
▁අසෙසං	-12.2219
මණකුලෙ	-12.222
පදො	-12.2221
ඛකං	-12.2221
▁ඤායති	-12.2222
▁රූපකාය	-12.2223
▁වල	-12.2224
▁ගීවං	-12.2225
▁ගොප්	-12.2226
▁සෙද	-12.2227
▁අභිමුඛං	-12.2233
ඝභෙදො	-12.2234
කරී	-12.2235
▁ගාහෙ	-12.2236
▁රාජි	-12.2241
තනික	-12.2242
ෙසුං	-12.2242
වසෙස	-12.2243
මචාරීසු	-12.2243
▁සුමෙධො	-12.2246
▁ගුහා	-12.2247
නාකාරං	-12.2253
කාලා	-12.2254
භූමියො	-12.2254
කාරාගමො	-12.2255
සරෙන	-12.2255
▁ගරූ	-12.2256
වීර	-12.2256
▁හෙතෙ	-12.2257
නාමකං	-12.2259
භාරෙ	-12.2259
▁භාතු	-12.226
▁අනුභූය	-12.226
▁චොරෙ	-12.2261
▁සාඨ	-12.2261
ගාරවො	-12.2262
▁පිසාච	-12.2263
ගලි	-12.2268
යාකරි	-12.2268
▁වංසො	-12.227
ඛරෙ	-12.2271
▁253.	-12.2271
7-8.	-12.2271
වචනතො	-12.2273
▁අභු	-12.2277
▁ගීතං	-12.2278
▁කථන	-12.2279
හාපු	-12.2281
▁හිංසා	-12.2281
ුපාදාන	-12.2281
ථකෙසු	-12.2283
▁අපත්	-12.2284
▁විමානෙ	-12.2285
▁248.	-12.2286
පරිභොගො	-12.2288
▁ගීත	-12.2289
▁සාපත	-12.2289
▁හෙමන	-12.2292
▁තතොයෙව	-12.2292
▁භොතා	-12.2292
ථිකානං	-12.2293
▁පලායි	-12.2294
චාහරති	-12.2298
41	-12.2301
නවීසතිව	-12.2301
මෙනෙව	-12.2302
▁ගතියො	-12.2303
▁මොහෙන	-12.2305
▁සුසාන	-12.2307
ගහණවසෙන	-12.2308
▁පජාපති	-12.2309
ගුපෙ	-12.2309
▁අසොක	-12.2311
භාවසාම	-12.2312
ණසාලං	-12.2314
ඤාණමෙව	-12.2316
සාවක	-12.2317
▁අනුවාදාධිකරණං	-12.2318
නියාමෙන	-12.232
▁පරිවාසො	-12.2321
පරියොසානං	-12.2322
▁බහුජන	-12.2323
▁විහිංසාවි	-12.2323
එවම	-12.2324
▁පාසාදික	-12.2325
▁ආලොකං	-12.2328
▁ථිනං	-12.233
▁වාණිජ	-12.2332
සමාසො	-12.2332
▁විරත්	-12.2332
දිකං	-12.2332
▁පාළිං	-12.2334
මායා	-12.2334
තකාලතො	-12.2336
ගහිතෙ	-12.2339
මානෙසු	-12.2342
ඛුප	-12.2342
ාභාවා	-12.2343
ජුයා	-12.2347
මණාති	-12.2348
රහිතෙ	-12.2348
ඨායතනං	-12.2348
▁සනිදානං	-12.2351
බාහි	-12.2351
ධාතූති	-12.2352
ඔකාසො	-12.2353
තරහිතා	-12.2354
ඨානියං	-12.2355
ජාපෙ	-12.2356
▁විහිංසා	-12.2358
▁සාමිකස	-12.2358
යාතෙ	-12.2363
ජීවි	-12.2368
▁යථි	-12.2369
▁267.	-12.237
▁උපාස	-12.2371
තමනු	-12.2371
කාමාවචර	-12.2372
දාපෙති	-12.2373
▁බහුලීකතත	-12.2375
▁සංයම	-12.2375
ඛාරොති	-12.2376
භොගෙ	-12.2379
▁රංසි	-12.2379
ජනකං	-12.2381
බොධ	-12.2382
49	-12.2384
▁කොටිස	-12.2384
බයං	-12.2385
ඛණෙහි	-12.2385
▁අලීන	-12.239
▁පතිරූප	-12.2391
▁නිරයො	-12.2391
මනසිකාරබහුලීකාරො	-12.2391
සවිග	-12.2395
▁අචෙතනො	-12.2396
▁දසමො	-12.2397
කාරානං	-12.2397
▁පරිණාම	-12.2398
විහාරී	-12.2399
රූහ	-12.2399
▁පකතං	-12.24
ගරා	-12.2403
▁ඉතරෙසු	-12.2405
ඛමානාය	-12.2405
කාදීනි	-12.2405
▁උපචාරං	-12.2406
සතිඤාණ	-12.2407
මභාජනීය	-12.2409
පූජං	-12.241
▁තෙජසා	-12.241
වයො	-12.2412
පණිහිතො	-12.2413
වසං	-12.2413
▁අනුපාදිසෙස	-12.2414
▁නගරා	-12.2414
▁අනාණ	-12.2417
ඛීණ	-12.2417
▁වෙමත	-12.2418
තාඝර	-12.2419
▁ජිනෙ	-12.242
මාගතො	-12.242
▁හසන	-12.242
නරසා	-12.2425
උභො	-12.2425
▁විනොද	-12.2427
කව	-12.2428
▁ගහිතාති	-12.2429
▁රජත	-12.2429
ඛාදයො	-12.2431
ආයු	-12.2433
▁සමාදාන	-12.2433
▁ජො	-12.2435
▁පාතෙත	-12.2435
අපරි	-12.2437
කූප	-12.2437
භිං	-12.2438
මපාල	-12.2439
▁දූසෙ	-12.2439
▁ඉතරීතරෙන	-12.2442
12	-12.2443
ඛරණ	-12.2444
▁කාරාපෙති	-12.2444
▁තාතා	-12.2444
මිතවස	-12.2445
▁පලිබොධ	-12.2447
ාකාරං	-12.245
▁255.	-12.2452
▁හායති	-12.2452
89	-12.2453
ාවසානෙ	-12.2453
▁251.	-12.2455
▁පුරාණං	-12.2456
දමො	-12.2459
▁ආහරාපෙ	-12.2459
පදෙසු	-12.2459
කහං	-12.2461
▁කාමුපාදාන	-12.2465
චාරප	-12.2468
වීරියො	-12.2468
▁කරීයති	-12.2469
පට	-12.247
ලාභිනො	-12.2471
ඨනා	-12.2472
▁සහායා	-12.2473
▁එකූනතිංස	-12.2476
නිරොධගාමිනී	-12.2477
ඤෙසම	-12.2481
▁තාවතිංස	-12.2482
▁266.	-12.2484
ාදීති	-12.2485
▁චූළප	-12.2485
▁පනෙතෙ	-12.2486
දවං	-12.2487
▁සෙසපද	-12.2488
▁ඵාසුවිහාරො	-12.2488
▁උපාදියති	-12.2489
▁සමාධිබලං	-12.249
▁විවිධං	-12.2491
▁පටිලාභො	-12.2492
ඨමානො	-12.2492
ඩුක	-12.2493
හරණං	-12.2493
▁හෙතූති	-12.2498
දසකං	-12.2498
පායෙ	-12.2499
▁සමසමා	-12.2504
පරියායතො	-12.2504
▁ඉසිප	-12.2505
තානො	-12.2506
▁ධිති	-12.2507
▁උජුකං	-12.2508
▁අවසෙසො	-12.251
▁උදානෙ	-12.2511
▁පටිකූල	-12.2512
▁අනුපාදිසෙසාය	-12.2512
35	-12.2513
▁පටිවි	-12.2513
▁පකාසිතං	-12.2515
▁සමණෙ	-12.2517
ඛූනි	-12.2518
ඩුකම	-12.2518
▁මාරිසා	-12.2518
▁ආරාධෙ	-12.2519
ඨානාදි	-12.2521
ෙවිමං	-12.2522
අවිගතෙ	-12.2524
කාරිනො	-12.2525
ලූ	-12.2526
▁යථාභූතඤාණ	-12.2528
▁අවිපරිණාම	-12.2533
ධිත	-12.2538
ථාරකො	-12.254
▁හිතසුඛ	-12.254
▁පානං	-12.254
▁252.	-12.2541
▁නඅරණ	-12.2541
▁ජවනං	-12.2546
චිරං	-12.2547
යෙසං	-12.2547
ආක	-12.2548
ඛීනං	-12.255
▁තෙමෙ	-12.255
▁අධිකාර	-12.2554
▁පරිමාණං	-12.2554
▁සොණො	-12.2554
චකාරී	-12.2554
භාවෙපි	-12.2555
▁257.	-12.2555
▁උදකු	-12.2556
▁අනභිරති	-12.2556
▁විනොදෙ	-12.2559
ඤර	-12.256
ජතු	-12.2561
තාදීන	-12.2561
යිකා	-12.2562
පකිණ	-12.2562
භීරෙ	-12.2563
▁තාවෙත	-12.2564
ඩුප	-12.2565
සෙස්	-12.2565
ඡාජීව	-12.2565
▁පාඨෙ	-12.2567
▁ආවුධ	-12.2569
බීහි	-12.2569
කඅවිචාරා	-12.257
37	-12.2571
▁පටිජාන	-12.2571
බානාර	-12.2571
▁විවදන	-12.2572
ගාළ	-12.2575
8	-12.2575
▁චොදකෙන	-12.2575
▁සිවීනං	-12.2576
▁273.	-12.2576
▁249.	-12.2576
සුර	-12.2577
68	-12.2577
▁විභාවයෙ	-12.2578
▁පාණුපෙතං	-12.2579
▁හිංසායං	-12.2582
ධායතන	-12.2582
මෙධො	-12.2583
මකං	-12.2585
කෙනචි	-12.2587
▁රෙවත	-12.2587
▁යුග	-12.2591
▁බාහිය	-12.2591
කොතීති	-12.2591
ඩපං	-12.2591
ඵෙ	-12.2592
▁එතාසං	-12.2594
▁වජිර	-12.2594
▁අනාමසිත	-12.2594
▁කාමුපාදානං	-12.2595
▁වායො	-12.2596
▁ඝාස	-12.2596
ථසංහිතං	-12.2597
තාහෙ	-12.2597
▁පාථික	-12.26
▁පනිදං	-12.2601
භුං	-12.2601
චෙතසො	-12.2602
යාදිනා	-12.2604
▁විචාරස	-12.2604
▁නියාම	-12.2604
විනී	-12.2605
▁පාරිපූරිං	-12.2607
සමාධී	-12.2608
▁එකවාරං	-12.261
▁පීතං	-12.2612
කනිපාතෙ	-12.2613
57	-12.2615
ගාහික	-12.2616
භිනී	-12.2616
▁මොචෙත	-12.2616
▁නමති	-12.2616
පයොජන	-12.2619
▁අභිසමය	-12.2619
බුතිං	-12.262
▁සුහ	-12.262
ඤසු	-12.2621
සමය	-12.2622
▁ජායා	-12.2623
▁සිරො	-12.2625
රොපි	-12.2625
▁පකාසන	-12.2625
▁රථෙසභ	-12.2627
තීණිමානි	-12.2627
යාකතෙ	-12.2628
▁ඉතරෙන	-12.2628
▁පදීපො	-12.2632
▁වීරියෙන	-12.2633
▁ආසනා	-12.2633
▁තාහං	-12.2634
රියබ	-12.2636
▁රූපාවචරො	-12.2637
යාකරොති	-12.2638
▁අමර	-12.2639
ධපරි	-12.2643
▁රතා	-12.2647
භාවිතො	-12.2647
කොවිදො	-12.2648
▁භණිතං	-12.2648
▁ආචර	-12.2648
▁වහති	-12.2649
මිනිත	-12.2654
44	-12.2655
තුක්	-12.2655
▁සොතායතන	-12.2656
කොටියා	-12.2657
▁ආජ	-12.2659
ිතුකාමො	-12.2661
ඤථාති	-12.2661
▁අරුණ	-12.2662
▁සීලවතො	-12.2664
▁චාග	-12.2665
▁නඅරූපාවචර	-12.2666
▁සීලෙනාති	-12.2667
▁සංයොග	-12.2668
ථිභාවං	-12.2668
▁280.	-12.267
▁සංවිධාය	-12.2671
▁තථාගතොති	-12.2672
යසංවාසකො	-12.2672
▁කතාති	-12.2673
▁පහීනෙ	-12.2674
▁භවත්	-12.2675
සමනන	-12.2676
ඛළු	-12.2677
▁නිවුතො	-12.2678
ඛදෙවතා	-12.2679
▁අමනසිකාරා	-12.268
▁රථෙ	-12.268
▁ආපාථං	-12.268
▁සාමිකං	-12.268
ගුලං	-12.268
▁චාහ	-12.2682
ආනන	-12.2682
විනයෙ	-12.2686
සාවිනො	-12.2688
▁භාවි	-12.2691
චිද	-12.2694
▁විරාගනි	-12.2694
▁වසිතුං	-12.2698
ටියා	-12.27
▁අතිසයෙන	-12.2702
▁බහුනො	-12.2702
▁චෙතෙ	-12.2703
ගාමිනො	-12.2703
පකාරතො	-12.2704
▁කාමධාතුං	-12.2705
▁නිවුත	-12.2708
ාරිකා	-12.2709
▁නිධි	-12.271
▁පාණිනං	-12.2712
▁අභාවෙ	-12.2713
▁පරියෙසනා	-12.2714
ණච	-12.2714
▁රුහ	-12.2717
▁ථෙරියා	-12.2718
▁බාලං	-12.2719
යසික	-12.272
ාවහා	-12.272
හමානා	-12.272
ණනානයො	-12.2722
▁ධාතුං	-12.2722
ණිකං	-12.2723
▁සුභාසිතං	-12.2724
ඛණාය	-12.2725
චරණං	-12.2728
▁හතා	-12.2728
▁පාදකං	-12.2728
අනෙක	-12.2732
▁සාසප	-12.2733
කරතන	-12.2736
▁259.	-12.2736
ථිකෙහි	-12.2737
▁නාථ	-12.2738
▁ආරොපිත	-12.2739
▁තාණං	-12.2741
යාණී	-12.2741
▁අහිත	-12.2742
රභුස	-12.2743
පූජාය	-12.2745
යාණකම්	-12.2746
ඤායතී	-12.2746
පූ	-12.2749
සරණප	-12.2751
▁සාධූ	-12.2756
ගාමිනී	-12.2757
ධතාය	-12.2757
▁අසුකො	-12.2759
නයං	-12.2761
දාදීනං	-12.2762
භම	-12.2762
▁සහිතා	-12.2763
ලහු	-12.2763
▁අකසිරලාභී	-12.2764
මණගහපතිකා	-12.2764
යොසො	-12.2764
ධනු	-12.2765
භමානා	-12.2767
මචරියවාසො	-12.2768
වමසි	-12.2769
▁සොතුං	-12.2769
▁පටිබාහිත	-12.277
පරායණො	-12.277
නවිජ	-12.2771
ඣිමෙ	-12.2771
▁යථානුරූපං	-12.2772
ඨාපිකා	-12.2774
රාජූනං	-12.2777
පයොගං	-12.2778
ඵුස	-12.2779
නාදිවසෙන	-12.2781
▁යාවජීවිකං	-12.2781
චයාකාර	-12.2781
ිකෙ	-12.2781
තරායිකා	-12.2781
හාව	-12.2782
▁කාමගුණෙහි	-12.2784
▁ජාතරූපං	-12.2784
▁චතුපාරි	-12.2784
හාපෙත	-12.2789
සීම	-12.2791
▁භූතානං	-12.2794
▁වධක	-12.2795
▁භූමියො	-12.2795
▁බීජානි	-12.2797
ධංසන	-12.2798
▁චල	-12.2799
▁භවතො	-12.2801
▁අභිනීහාර	-12.2801
▁පෙසි	-12.2802
ඝති	-12.2802
දළ	-12.2803
ධාවාසෙ	-12.2805
▁දුතියතතිය	-12.2805
▁බහුලීක	-12.2809
ඨිමං	-12.2809
සිරො	-12.281
▁පගුණං	-12.281
තදුකං	-12.2811
▁ඛමො	-12.2813
හාරෙන	-12.2816
තමස්	-12.2816
▁සායිත	-12.2819
▁271.	-12.2821
දූරෙ	-12.2822
▁විවරති	-12.2823
▁සාපෙ	-12.2823
▁276.	-12.2823
▁ලාභෙ	-12.2823
▁ගහිතොති	-12.2824
ඤාමි	-12.2825
පධානො	-12.2826
මොහං	-12.2826
භරියා	-12.2827
▁ජනපදං	-12.283
චයභාවෙන	-12.2832
▁උදකා	-12.2832
සුඛා	-12.2837
කනිපාත	-12.2837
▁ධනි	-12.2838
▁අපචි	-12.2838
▁ධු	-12.2839
▁ඔඝං	-12.284
▁සීහනාද	-12.2842
▁දුව	-12.2842
▁භරියාය	-12.2843
▁උදර	-12.2845
ඩපාතික	-12.2848
දමාන	-12.2852
▁ඔපපාතිකා	-12.2857
▁කතාය	-12.2862
▁දෙසෙතු	-12.2862
56	-12.2862
▁කාරණමාහ	-12.2862
මානී	-12.2863
පරිහානි	-12.2863
තවිනි	-12.2864
වසෙ	-12.2865
තෙවාසිකා	-12.2865
භාසිතා	-12.2866
▁පුනදෙව	-12.2866
පටිසාරී	-12.2867
ගහෙතුං	-12.2867
දීපො	-12.2868
▁අලමරිය	-12.2868
පුරිම	-12.2868
තනියතං	-12.2868
පාලො	-12.2869
▁කාරාපෙසි	-12.2871
▁සුලභ	-12.2874
දිසී	-12.2875
ජසං	-12.2875
▁ඝණ	-12.2876
ඨමා	-12.2876
ථවික	-12.2876
▁විපාකතො	-12.2878
▁ඔරසො	-12.2878
▁අභිරති	-12.2879
▁කුපිතා	-12.2879
▁ආජානා	-12.288
චාරා	-12.288
▁පීළන	-12.2882
බාජකස	-12.2883
▁තිණානි	-12.2883
ජාදයො	-12.2884
රවී	-12.2886
▁පීතිසහගතං	-12.2891
▁සංසි	-12.2892
පටිලාභාය	-12.2893
උදකං	-12.2894
▁විජායි	-12.2898
83	-12.2903
මසෙනාපතිනා	-12.2904
▁දාපෙසි	-12.2904
පමුඛා	-12.2906
භිතා	-12.2909
හක්	-12.291
පියභණ	-12.291
▁කුමාරස	-12.291
කාමං	-12.2914
▁නිවාර	-12.2915
ලිකාය	-12.2916
▁සඝානකාන	-12.2917
▁උසු	-12.2918
▁විහෙසා	-12.2924
▁තිප	-12.2924
▁ගොමය	-12.2924
පාඨො	-12.2925
▁ආයතනස	-12.2926
ඡදනං	-12.2929
පකාසනං	-12.2933
යසනෙන	-12.2934
▁පිල	-12.2937
ගාහි	-12.2938
▁සමණෙන	-12.2939
ඛාසති	-12.2942
▁වලාහක	-12.2942
▁දානාදි	-12.2944
▁ඔභාසෙන	-12.2945
▁වෙරමණියා	-12.2948
ඛල්	-12.2948
▁වාතෙන	-12.295
සසතානි	-12.2952
භාණවාර	-12.2952
▁නවක	-12.2953
▁රොපි	-12.2954
බාසං	-12.2955
▁303.	-12.2955
නිවාස	-12.2955
▁ධනුග	-12.2958
▁කාරණානි	-12.2958
දාපෙ	-12.2959
ඡලාභී	-12.296
▁පයොජ	-12.2961
▁කථය	-12.2962
මගරු	-12.2962
▁කනක	-12.2964
▁විසාණ	-12.2965
බානතො	-12.2966
ටික	-12.2966
නාකාරෙන	-12.2968
▁සාතිසයං	-12.297
වෙලාය	-12.2974
▁විනොදෙත	-12.2975
▁මුදුතා	-12.2975
▁පඨමප	-12.2978
▁බාරාණසිං	-12.2978
ඛවෙදනා	-12.2978
▁අවිචාරං	-12.2981
තිආදිවචනතො	-12.2982
ඤිත	-12.2985
▁පුරිසදම	-12.2987
නභාවො	-12.2991
ඤායතනෙ	-12.2993
▁සුඛුමො	-12.2993
තථාගතො	-12.2996
ලොහ	-12.2996
▁විභා	-12.3005
55	-12.3005
▁පටිසෙවති	-12.301
ආසන	-12.3012
▁සංවරාය	-12.3013
▁කුසලමූලෙන	-12.3014
▁පවාරෙති	-12.3016
▁ඔසාරෙ	-12.3016
▁එකකොව	-12.3016
තරහිතො	-12.3017
ජනප	-12.3018
ඤාණාදීනං	-12.3018
▁270.	-12.3021
▁ආදීනවඤ	-12.3026
▁නානාරතන	-12.3026
සොක	-12.3026
▁කුරුතෙ	-12.3028
තිකාලෙ	-12.3029
▁සකලස්	-12.303
▁විරොධො	-12.303
ජනෙසු	-12.3031
පාරාජික	-12.3034
යොගං	-12.3034
▁මහාය	-12.3035
▁තදනුරූප	-12.3037
▁ඔකාසතො	-12.3039
▁උදාන	-12.3039
නාභි	-12.304
ඛිණාය	-12.3042
ඡසී	-12.3042
▁නිවාත	-12.3046
▁භරියං	-12.3048
මෙධ	-12.3049
හිමව	-12.3049
▁ආචරියං	-12.305
▁344.	-12.3052
▁274.	-12.3052
ජයො	-12.3054
ණවීසති	-12.3056
භාජනෙ	-12.3058
▁විනයධරො	-12.3058
▁අමනාපො	-12.3059
▁අනුපඛ	-12.306
▁කාළක	-12.3062
ඛසී	-12.3064
▁සමයා	-12.3065
ඛෙපි	-12.3067
▁පරපු	-12.3067
▁අගිලානො	-12.3067
▁පරිවසන	-12.3069
හතෙ	-12.307
▁චීවරානං	-12.3071
▁විවදති	-12.3071
▁නිරාස	-12.3074
▁ආමක	-12.308
▁කාලකිරියා	-12.3081
▁නොකිලෙස	-12.3081
▁නිධාන	-12.3084
▁මහානිසංසා	-12.3084
කාරණෙන	-12.3084
▁මාතාපිතු	-12.3085
එවමෙතං	-12.3085
මබ	-12.3086
දෙසවසෙන	-12.3086
▁වොදානස	-12.3086
ජින	-12.3088
▁මහාපු	-12.3089
▁සමානෙ	-12.309
නීයෙ	-12.3091
චායං	-12.3091
▁මණිං	-12.3092
ඤාතපරි	-12.3092
▁ආසවං	-12.3096
කවි	-12.3096
▁සංවාසො	-12.3101
▁වෙදයිත	-12.3102
▁එකූනප	-12.3104
▁අනභාවංකතා	-12.3104
පථං	-12.3105
▁පුරිමාය	-12.3105
▁පිදහ	-12.3106
▁පජහථ	-12.3107
▁සුගතස	-12.3108
දකෙන	-12.3109
තචො	-12.3109
වෙකල්	-12.311
ිනියො	-12.3112
ඵඵල	-12.3112
පරිමාණ	-12.3114
▁බාලානං	-12.3116
ඩලී	-12.3116
ජකං	-12.3121
පමානා	-12.3122
පභුති	-12.3124
▁254.	-12.3125
බෙධභාගිය	-12.3127
▁රවි	-12.3127
මානාය	-12.3127
ඛිනා	-12.3129
ජීති	-12.313
▁අනුවාදාධිකරණ	-12.3131
▁විකාර	-12.3133
▁සෙඛා	-12.3134
▁සයනෙ	-12.3135
කිර	-12.3136
චාම	-12.3136
බරුක	-12.3137
සාහි	-12.3139
▁ඝායිත	-12.3139
තිආදිං	-12.3139
රාම	-12.3139
ජානාමි	-12.3142
ොකාසො	-12.3144
ගහොති	-12.3144
භනං	-12.3144
▁අචෙතසික	-12.3144
පාටිහාරිය	-12.3145
▁පණාමෙත	-12.3145
▁පලිබු	-12.3146
▁උපාහන	-12.3146
▁ඵුසනා	-12.3147
▁අභිහට	-12.3147
ගිතා	-12.3147
මානසො	-12.3148
▁ඝානස	-12.3148
පලාපා	-12.315
මවාචාපරියොසානෙ	-12.315
▁268.	-12.315
▁305.	-12.3151
▁භූමිතො	-12.3151
බොධිපරායණො	-12.3151
▁සෙහි	-12.3152
▁නිරොධනි	-12.3152
▁නිරාමිස	-12.3153
හපු	-12.3153
බචනං	-12.3153
▁පාණිභි	-12.3156
සායාති	-12.3156
බලව	-12.3157
▁පරිවෙණ	-12.3158
බහිද	-12.316
▁භවනෙත	-12.316
ආකාර	-12.3161
▁සුඛෙති	-12.3161
භොකාසෙ	-12.3162
▁විසාල	-12.3163
ිනා	-12.3164
▁ඉසීනං	-12.3164
▁පාපුණිතුං	-12.3166
මවචනං	-12.3167
▁එවංනාමකෙ	-12.3168
ෙනාසි	-12.3168
මාගතං	-12.3168
▁චෙත	-12.3169
▁සුනිම	-12.3169
▁නාරදො	-12.317
▁ආසයො	-12.317
▁ජරාමරණස	-12.3172
▁කිලෙසව	-12.3173
▁පාපෙති	-12.3173
▁මෙඝිය	-12.3174
භිමුඛ	-12.3175
ජල්	-12.3176
දනීය	-12.3177
▁අගමා	-12.3183
▁අවසවත	-12.3184
▁දයා	-12.3185
පනාය	-12.3186
▁යොගී	-12.3186
40	-12.3188
සනාඤාණ	-12.319
47	-12.319
ාදිභෙදා	-12.3192
සූරිය	-12.3194
ධකාරො	-12.3199
කාරිකා	-12.3201
ඩපෙ	-12.3204
▁තිරොකු	-12.3205
බකෙ	-12.3212
▁272.	-12.3214
▁ගණනාය	-12.3215
තනිකො	-12.3219
සමෙව	-12.3219
▁විසයං	-12.322
▁එහිභ	-12.3221
▁250.	-12.3223
65	-12.3223
වාචී	-12.3228
වාචා	-12.323
▁කූටං	-12.323
ාභාවො	-12.3231
▁වචීද	-12.3231
ගාහෙන	-12.3232
▁ගාථායං	-12.3233
▁සමාහිතා	-12.3234
අරහත	-12.3235
කමිං	-12.3236
▁අනියතං	-12.3239
▁ආදෙසා	-12.324
▁මහාවි	-12.324
▁බහුලීකරො	-12.3242
▁පමුත්	-12.3243
17	-12.3243
▁පණාම	-12.3245
▁භයද	-12.3245
▁භෙදං	-12.3247
▁බොධිම	-12.3249
චාතුද	-12.3249
▁345.	-12.3249
▁342.	-12.3249
ාරුළ	-12.325
▁මාරණ	-12.325
ටනෙ	-12.3253
▁ආසභං	-12.3254
▁පමාදං	-12.3256
▁අකාල	-12.3257
▁ඨිතානං	-12.3258
රාජානං	-12.3258
මිකානි	-12.3259
යූළ	-12.3261
▁වෙමතිකස	-12.3263
අදි	-12.3263
ඡාචාරො	-12.3263
▁තථාරූපා	-12.3264
මසනං	-12.3264
ධනාමො	-12.3264
▁නිවෙසන	-12.3266
▁නිසීදනං	-12.3266
පාදානං	-12.3267
තුකො	-12.3267
ඝභෙදකො	-12.3269
පදු	-12.3271
▁චොරෙහි	-12.3271
▁නිවාසො	-12.3272
▁තෙනාහු	-12.3273
▁අචලං	-12.3273
▁මංසච	-12.3274
▁ජායතීති	-12.3274
▁කීදිසො	-12.3275
ථිපුරිස	-12.3275
තිහෙතු	-12.3276
4-5	-12.3277
පදානෙන	-12.3281
ඝානි	-12.3283
ඡායා	-12.3285
▁සුසම	-12.3286
▁තංයෙව	-12.3287
▁ආභි	-12.3287
▁පවරං	-12.3288
තාරීස	-12.329
කාසා	-12.3291
▁අසදිස	-12.3291
▁පවාරිතා	-12.3293
▁භෙදෙ	-12.3294
නකම්	-12.3294
▁පාය	-12.3294
නකාලො	-12.3295
▁අමොහ	-12.3297
▁වෙවචන	-12.3298
ගාහකා	-12.3301
▁විසමෙ	-12.3302
කෙතො	-12.3304
▁යොජනානි	-12.3308
▁උපාදානො	-12.3308
ඛෙපන	-12.3309
ලවි	-12.3311
▁සීලවිස	-12.3311
▁එසොහ	-12.3311
▁ඤාණග	-12.3312
▁එවරූපාය	-12.3313
රීති	-12.3315
▁නියමිත	-12.3316
▁තොද	-12.3317
▁අතුල	-12.3318
▁විරූප	-12.3318
චිතබ්	-12.332
ඉදම	-12.3321
ඨකථං	-12.3321
ඨිතත	-12.3323
▁ගණනාතො	-12.3324
ධාරෙතුං	-12.3325
▁කරොම	-12.3327
වාරානි	-12.3328
▁සකස	-12.3328
▁භූතෙ	-12.3329
පීතිකා	-12.3334
▁සකලෙ	-12.3335
පාරිපූරියා	-12.3336
▁කෙවලා	-12.3336
ධභාවං	-12.3341
▁අකරි	-12.3347
▁පටිකු	-12.3347
84	-12.3347
ඣාසයවසෙන	-12.3349
ණවි	-12.3349
පටිසංවිදිත	-12.3349
▁279.	-12.3349
▁දාසි	-12.335
තාකාර	-12.335
▁ජනිකා	-12.3351
ානිසංසෙ	-12.3351
▁කොසලෙසු	-12.3351
▁පිතිතො	-12.3352
▁කුසලවිපාක	-12.3358
▁පුරොහිතො	-12.3359
▁භොගං	-12.3363
රාසී	-12.3364
හෙතුනා	-12.3365
▁ඔදනො	-12.3366
ඡකා	-12.3366
▁සංසය	-12.3367
▁රමණීයං	-12.3367
සොණි	-12.3367
▁හාරා	-12.3369
ණිය	-12.337
▁උපධි	-12.3371
ඤගතො	-12.3373
▁එකෙනෙව	-12.3373
ථුසාසනං	-12.3375
▁පරමො	-12.3375
▁කිලෙසප	-12.3377
▁ආගතානං	-12.3378
▁පාණෙ	-12.3379
මුදි	-12.3379
තවිපරියායෙන	-12.338
ථිකෙන	-12.3385
▁නිවාසන	-12.3392
▁ගෙල	-12.3392
භොජනෙ	-12.3394
ඡිකරො	-12.3398
▁විනිපාත	-12.3399
ාරබ්	-12.34
▁කුසලතො	-12.3402
තෙවාසික	-12.3402
සීසො	-12.3404
▁කිලෙසසම	-12.3404
▁පරිචාරෙ	-12.3408
මාදීනං	-12.3408
ඣානෙන	-12.341
▁අනෙකධා	-12.341
▁මොචන	-12.3412
▁සාමීචි	-12.3412
තභාජනීය	-12.3413
▁284.	-12.3413
තතාති	-12.3417
ගලාධි	-12.3417
▁අචෙලක	-12.342
▁ලභතී	-12.3421
මුපාගමි	-12.3423
▁අසුචිං	-12.3426
▁කාමසුඛ	-12.3428
▁ආකිර	-12.343
▁අධුනා	-12.3431
▁ආධිප	-12.3432
ාදිසු	-12.3438
චවොකාරා	-12.3438
▁ජානාථ	-12.3439
භනා	-12.344
▁හාර	-12.3442
තෙකි	-12.3443
▁රාහු	-12.3449
▁329.	-12.345
▁281.	-12.3451
▁භවාසවො	-12.3452
භවාභිනි	-12.3452
ජීනං	-12.3453
▁ථන	-12.3454
▁පකාසෙතුං	-12.3454
▁උපචාරො	-12.3454
▁තදහෙව	-12.3455
ඡාසමාධි	-12.3456
නාදායී	-12.3456
ඤාපනං	-12.3458
▁භීතා	-12.3459
81	-12.3459
▁රාහුලො	-12.3459
ූති	-12.3459
▁උපොසථෙ	-12.346
▁ආනුභාවො	-12.3461
හායතනං	-12.3462
▁තාරෙසි	-12.3462
ථිමාය	-12.3463
තමානසො	-12.3463
ජනාදි	-12.3463
ණපොක	-12.3465
▁ථොක	-12.3467
දායං	-12.3467
බෙධො	-12.3468
▁අණු	-12.347
කිලෙසං	-12.3471
පමාදෙන	-12.3472
▁භෙරි	-12.3473
ගරූපානි	-12.3475
▁ආදියන	-12.3475
තිඵල	-12.3475
චමෙව	-12.3479
ජනසම	-12.3481
▁ඵරුසාය	-12.3482
▁හොම	-12.3484
▁රහස්	-12.3486
දෙහ	-12.3486
▁සහෙව	-12.3486
▁තිලි	-12.3487
▁පරාජිතො	-12.3488
ගුලී	-12.3489
තභාවා	-12.3493
චසහගතා	-12.3494
බපද	-12.3495
අසම	-12.3496
චමානං	-12.3496
▁බාධ	-12.3498
▁භෙරිං	-12.3499
▁මාරෙත	-12.3499
▁සලාකා	-12.35
ධාබලං	-12.3503
මුඛීභාව	-12.3504
විනා	-12.3507
▁පරිහාරො	-12.3507
▁සුසමාර	-12.3509
ඵග	-12.351
▁300.	-12.351
▁ඝොසො	-12.351
▁පරිවාසං	-12.3511
පාළියං	-12.3511
▁විනීතව	-12.3511
කෙපි	-12.3512
සදිසෙන	-12.3512
දික්	-12.3512
▁ආසය	-12.3512
රණවසෙන	-12.3512
තුය්	-12.3513
▁අතිරි	-12.3513
▁278.	-12.3516
▁චතුසමු	-12.3516
▁සංහ	-12.3516
සාමිකං	-12.3517
භිධෙය	-12.3518
▁වචනස	-12.3521
▁අපරිය	-12.3522
ථයමානො	-12.3522
පුරිසෙන	-12.3523
පිටක	-12.3525
ගමෙව	-12.3526
▁දිවසො	-12.3527
ඡරො	-12.3528
▁අතීව	-12.3529
▁අජපාල	-12.353
ඣානතො	-12.353
ූනං	-12.3531
▁චිරර	-12.3535
යාමො	-12.3535
▁සුතො	-12.3535
▁කහං	-12.3535
▁විනිවි	-12.3536
රික	-12.3539
▁ජාලි	-12.3539
▁ඵලප	-12.3539
මදෙසන	-12.354
▁විචයො	-12.354
▁අපරිප	-12.3541
▁අභිහර	-12.3542
කුසලෙන	-12.3544
තකරණ	-12.3545
නිවාරණ	-12.3549
තාහකරණීයෙන	-12.3552
▁306.	-12.3553
▁260.	-12.3553
චාදිවසෙන	-12.3557
▁කුලා	-12.3557
▁නාළි	-12.3557
කාරසිලොකො	-12.356
ඤාණාදි	-12.356
ඨානික	-12.356
ඝිකෙ	-12.356
▁උභතොස	-12.3562
ඡාදනං	-12.3564
▁පණීතතරො	-12.3565
ඨිපදෙසු	-12.3566
▁දසධා	-12.3569
▁අකාසීති	-12.357
▁වෙදයති	-12.3571
තලොකො	-12.3572
ඡාපටිප	-12.3574
▁තාවකාලික	-12.3574
9	-12.3576
▁අවිර	-12.3577
බපඨමං	-12.3577
▁දහ	-12.3578
පහොන	-12.3578
▁ජයො	-12.3579
▁පාපියො	-12.358
තපටිලාභො	-12.3581
මසු	-12.3582
උභතො	-12.3584
සරීරෙ	-12.3586
▁යොගං	-12.3587
▁රුද්	-12.359
බනා	-12.3594
▁ලූ	-12.3596
▁අසමාන	-12.3597
සෙවනා	-12.3597
බානෙන	-12.36
▁කිරියාය	-12.3601
ගවං	-12.3602
▁අපරිග	-12.3606
▁298.	-12.3607
නිවාසො	-12.3609
සෙත	-12.361
▁විහෙඨ	-12.3611
ගතියා	-12.3612
මුහු	-12.3613
පුරෙක	-12.3614
ඉමා	-12.3614
▁අනුසාසනී	-12.3616
▁උපනෙති	-12.3616
▁කරොමා	-12.3617
තිනී	-12.3618
▁ආවත්	-12.3619
▁ගොස	-12.362
ජාදීසු	-12.362
▁සරණගමනං	-12.3621
යාගු	-12.3621
තනය	-12.3621
▁අවිජහිත	-12.3622
අඩ	-12.3623
කිරියං	-12.3623
▁සාටකං	-12.3624
සහගතානං	-12.3625
▁භෙදාය	-12.3625
ජාභිස	-12.3629
යූප	-12.3629
ාලය	-12.363
ථුසාසන	-12.363
තරික	-12.363
තෙලං	-12.3634
බාර	-12.3636
චවිධො	-12.3636
පරිදීපන	-12.3637
▁පරියොගාහ	-12.3637
භාවාදි	-12.364
කතමං	-12.3644
පරිවුතො	-12.3646
▁චෙතාපෙ	-12.3646
ධටා	-12.3647
මිත	-12.3648
▁යථාභු	-12.3651
සංසයං	-12.3653
▁අතිරෙකප	-12.3654
▁උපනෙත	-12.3655
▁සීහා	-12.3655
▁343.	-12.3655
▁330.	-12.3655
▁283.	-12.3656
ඤූහී	-12.3656
ඣායති	-12.3656
▁චරාමි	-12.3658
රියපරොපරිය	-12.366
විරාග	-12.3662
සභාවෙන	-12.3662
කනි	-12.3663
▁පාරායන	-12.3663
▁සරණෙසු	-12.3664
ලසම	-12.3665
▁ආයුනා	-12.3665
ධජො	-12.3665
ඡිමෙන	-12.3665
ඤාතකරණං	-12.3665
ආදී	-12.3667
▁පභාස	-12.3667
▁ජටිල	-12.3668
කවිපාකං	-12.3672
මූලිකා	-12.3675
▁අසාධාරණා	-12.3677
▁පයොගෙන	-12.3681
▁සරූපං	-12.3682
▁ටා	-12.3685
▁අනභින	-12.3688
තුකානං	-12.3689
ගාදීසු	-12.3692
පටිල	-12.3698
ඡතාය	-12.37
පසාදං	-12.3702
▁හෙතුවිප	-12.3704
බාජෙසි	-12.3705
භාවවසෙන	-12.3709
ආරො	-12.3709
පවාද	-12.371
ඨිවි	-12.371
▁යථාබලං	-12.371
හාහී	-12.3712
▁බු	-12.3712
▁යූ	-12.3714
▁පලාල	-12.3716
ඨිමි	-12.3719
▁299.	-12.3721
බකිලෙස	-12.3722
ණානුබ	-12.3722
▁307.	-12.3725
▁ඤාණප	-12.3726
ඨානාදීසු	-12.3727
ඨානාති	-12.3728
▁ආයුං	-12.3728
90	-12.373
ඩද	-12.373
▁විල	-12.3731
▁කිලෙසවි	-12.3733
▁සෙවනා	-12.3734
ජාගතො	-12.3734
සභාගපරි	-12.3735
පනීය	-12.3737
මිකසම	-12.3739
ථවසං	-12.374
හුප	-12.3741
ඡිකතො	-12.3741
▁ඔකාර	-12.3742
චොළ	-12.3742
▁දසබලං	-12.3745
▁සංසාරං	-12.3746
▁ඵාල	-12.3746
▁දෙසං	-12.3747
▁ජානනං	-12.3747
යාහි	-12.3748
▁පාරාජිකෙන	-12.3749
▁ඵලදානස	-12.375
තරායෙන	-12.3752
යායො	-12.3752
▁ආළවක	-12.3754
▁විභාගො	-12.3754
චිංසු	-12.3757
▁ඉධාන	-12.3758
▁347.	-12.3759
▁366.	-12.3759
▁328.	-12.3759
▁334.	-12.3759
මදාසහං	-12.3759
▁294.	-12.376
▁අසාහසෙන	-12.376
▁පමොක	-12.3761
කරි	-12.3762
බතපරාමාසො	-12.3763
▁සතිවිනයො	-12.3766
▁අනුභොමි	-12.3766
ණකා	-12.3768
ජීවා	-12.3769
ලපති	-12.377
▁අථාපරං	-12.3774
රියසංවරො	-12.3775
ඤමානෙ	-12.3776
ලෙසු	-12.378
සාරත්	-12.3782
▁ඛන	-12.3784
▁ඔභාසෙත	-12.3785
▁ආසනෙන	-12.3786
▁ආවරණ	-12.3787
කාමො	-12.379
48	-12.3791
රවො	-12.3792
▁මානා	-12.3792
▁කාලි	-12.3792
▁කඩ්	-12.3793
▁ගායන	-12.3794
▁ඵලක	-12.3797
▁පභෙදතො	-12.3797
▁ඉණං	-12.3801
▁අරො	-12.3802
▁කරීය	-12.3802
▁මාතිතො	-12.3803
▁පෙතානං	-12.3804
ඣානවසෙන	-12.3806
නානීති	-12.3806
▁යාවජීවික	-12.3807
ගුණෙන	-12.3807
▁විරතියො	-12.3807
▁නීවරණං	-12.3808
▁හාරෙ	-12.3809
▁රූපධාතුං	-12.3809
▁පාටිහාරිය	-12.381
චවීස	-12.3811
▁තදුභයම	-12.3812
තයතො	-12.3813
▁භායන	-12.3813
තගුණ	-12.3814
සිතාය	-12.3815
▁ඡෙක	-12.3817
▁අභිවදන	-12.3818
බානෙව	-12.3818
▁පසාදාය	-12.3819
බෙහෙව	-12.3819
▁මුදුතර	-12.3819
ධොවන	-12.3823
කිරි	-12.3824
▁301.	-12.3825
ථවිනි	-12.3826
▁පහරි	-12.3826
▁ඔකප	-12.3827
▁ලහුතා	-12.3827
▁සලාකං	-12.3831
▁භිසි	-12.3832
▁හීනාධි	-12.3832
යොනියං	-12.3833
චාසද	-12.3835
▁අමූ	-12.3836
මචාරිනො	-12.3838
ථෙපි	-12.384
ඡෙදප	-12.3843
වචීති	-12.3843
▁චෙතාපෙති	-12.3843
ඩලො	-12.3845
යාකරණෙන	-12.3846
▁ඛෙපෙත	-12.3846
▁සංකි	-12.3848
කූලං	-12.3849
පකතා	-12.385
▁වීසතියා	-12.3851
▁අකරණං	-12.3851
ඵාරා	-12.3852
▁සුසානං	-12.3854
▁අවිපාක	-12.3855
▁පාරුපන	-12.3855
▁අභිරුහිත	-12.3856
▁ධාතුනා	-12.3856
ොදය	-12.3858
නකෙ	-12.3859
ජනීයං	-12.3861
ඛුනීන	-12.3862
ඝප	-12.3863
ඡථා	-12.3864
▁අසෙසවිරාගනිරොධා	-12.3865
▁310.	-12.3865
හානෙ	-12.3866
ඛණෙසු	-12.3868
තෙවාසී	-12.3868
බචන	-12.3869
වඞ	-12.3872
▁වලි	-12.3876
▁අධිකරණානං	-12.3876
▁ආසං	-12.3876
▁භූපති	-12.3876
විගමෙන	-12.3877
▁දාඨා	-12.3877
▁ආපායිකො	-12.3879
චතාය	-12.3879
▁දාසා	-12.3879
▁කථිතෙ	-12.3881
▁නිකාය	-12.3885
▁සූරා	-12.3886
ාදීනව	-12.3887
සුප	-12.3888
▁කාමාවචරස	-12.3889
▁සංවාසං	-12.389
විදූ	-12.389
තරතන	-12.3891
▁මාලං	-12.3893
මවිනයං	-12.3893
දාහරණ	-12.3895
▁වසීභාව	-12.3896
ළො	-12.3896
කීතා	-12.3897
උපාසක	-12.3897
▁ලෙණං	-12.3897
▁සුවෙ	-12.3897
හීන	-12.3899
▁ගුණෙන	-12.3903
▁වරා	-12.3904
ධජ	-12.3906
▁නිවාරෙති	-12.3907
මහිද	-12.3908
▁වචනා	-12.391
බලී	-12.391
▁පීතිසහගතස	-12.3911
▁චරතීති	-12.3911
▁භාගී	-12.3912
යසි	-12.3916
කමොති	-12.3918
▁යෙනෙව	-12.3918
▁උපසමාය	-12.3918
▁සිරියා	-12.3918
▁වෙරී	-12.3922
29	-12.3929
ධරණ	-12.3932
අධිපති	-12.3932
46	-12.3932
වමෙව	-12.3933
පටිඝෙ	-12.3936
▁දෙමි	-12.3936
▁කුර	-12.3937
▁හාරස	-12.3937
▁කුලම	-12.3942
▁මමෙව	-12.3942
ධවචන	-12.3944
▁ජව	-12.3947
▁කදාචිපි	-12.3948
දසෙ	-12.3949
▁මිගං	-12.3952
සියො	-12.3952
ඵරණ	-12.3954
▁වීහි	-12.3954
ජානනං	-12.3955
විනොදන	-12.3955
තමෙනං	-12.3956
▁විපුලෙන	-12.3957
මභවො	-12.3957
▁පුරිමප	-12.3958
ාදිභාවො	-12.3959
▁භූමිප	-12.396
▁නිහ	-12.396
▁අහිරික	-12.396
ඛධම	-12.3961
මණාය	-12.3963
ඨිනි	-12.3965
ගතානි	-12.3965
▁අභවි	-12.3965
▁පීඨෙ	-12.3967
අපර	-12.3969
18.	-12.3969
▁වීතිනාමෙත	-12.3969
පධානෙ	-12.397
ථාහ	-12.397
ණෙනාති	-12.397
▁341.	-12.3971
▁362.	-12.3971
▁326.	-12.3971
ඩකස	-12.3971
▁297.	-12.3971
▁304.	-12.3971
▁282.	-12.3972
ධිනී	-12.3973
▁කුරුමානො	-12.3973
▁නිගමො	-12.3973
▁අනුපරි	-12.3974
▁අරූපධාතු	-12.3974
▁ආතාපිනො	-12.3974
නාදිනා	-12.3975
▁තිමිර	-12.3978
ථකාමා	-12.3978
ූපමං	-12.3979
58	-12.3979
නෙනෙව	-12.398
තනියං	-12.3983
▁සපරි	-12.3986
▁බුධො	-12.3986
ගෙහං	-12.3987
▁මුසාවාදී	-12.3987
▁ජිනසාසනං	-12.3987
රූසි	-12.3989
▁අභිභවති	-12.3991
තරූපො	-12.3991
තවර	-12.3992
නුබ	-12.3993
▁උදප	-12.3994
▁ගණනපරි	-12.3995
ථීසු	-12.3995
▁සාඛං	-12.3996
▁කායිකා	-12.3997
චාරිත	-12.3997
▁බුභ	-12.3997
▁කථිතානි	-12.3997
පටිලාභං	-12.3998
▁එවමිදං	-12.3999
▁ආරභිත	-12.3999
ඩාදි	-12.4
▁සමධිග	-12.4002
මතෙ	-12.4002
▁කුසලානි	-12.4003
ආසවො	-12.4003
86	-12.4003
▁පූව	-12.4005
පහාරෙනෙව	-12.4006
ධාරි	-12.4006
▁එකාදසමෙ	-12.4006
ඨපදානං	-12.4006
සුරා	-12.4007
▁වෙහාස	-12.4014
ධවෙ	-12.4016
▁ධාරෙමි	-12.4017
පාණී	-12.4017
ජීවිත	-12.4019
▁පීළිතො	-12.402
▁ජීරති	-12.4021
▁ඔජා	-12.4021
▁පාපුණාතීති	-12.4022
▁පටිනිව	-12.4023
▁ඤාතිසඞ	-12.4025
▁හීනෙ	-12.4027
▁නාසා	-12.4028
බලෙ	-12.4032
ටිං	-12.4032
▁සීලාදිගුණ	-12.4034
තවාරො	-12.4034
▁වදතො	-12.4035
බානනි	-12.4036
ඨඅසංකිලෙසික	-12.4038
පසිද	-12.4039
සිරිං	-12.4039
ලාබු	-12.404
චරති	-12.4041
▁තතියෙන	-12.4041
ජනකා	-12.4042
▁අචිර	-12.4042
▁ථෙරෙහි	-12.4045
ඡප	-12.4046
සවසෙන	-12.4047
ාරිකං	-12.4047
පටල	-12.4051
කාසෙ	-12.4052
▁යථාල	-12.4054
▁වාරා	-12.4055
නිහිත	-12.4056
▁ජිනසාසනෙ	-12.4057
▁උපාදාරූප	-12.4059
▁ඛෙපෙ	-12.406
▁ආමසන	-12.406
ටිතා	-12.4062
ඣොහරණ	-12.4063
▁විභවං	-12.4064
▁කතෙන	-12.4065
දිකො	-12.4065
මුපෙති	-12.4065
ඛිල	-12.4069
▁බහුබ්	-12.4069
තරධාය	-12.4071
රභ	-12.4072
ඛාතෙසු	-12.4073
පරියාදාන	-12.4073
▁වීමංසන	-12.4075
ජසෙ	-12.4075
▁යථාප	-12.4076
සනානං	-12.4077
▁ඔහාය	-12.4078
▁කාසායානි	-12.4079
▁353.	-12.4079
▁335.	-12.4079
▁318.	-12.4079
▁ආළ	-12.408
▁විරොධ	-12.408
▁දෙවසිකං	-12.4081
00.	-12.4081
නඅනුපාදි	-12.4082
▁උපනාහො	-12.4083
දුතියම	-12.4083
▁සමොසරණ	-12.4084
▁අසුභස	-12.4084
මධරා	-12.4085
▁තීරය	-12.4086
▁විපුලා	-12.4087
▁ලොහි	-12.4089
ිකානං	-12.409
▁මයූර	-12.409
▁උදකප	-12.409
▁මුනිනා	-12.4091
▁සමොධානපරිවාස	-12.4091
සංවරො	-12.4091
88	-12.4092
▁අපවි	-12.4093
▁අචරිමං	-12.4093
▁ටො	-12.4096
▁ජහි	-12.4097
සදිසතා	-12.4097
▁බහුම	-12.41
▁අභිනිවෙස	-12.41
ගහෙසුං	-12.41
තිකාති	-12.4104
▁කුරුන	-12.4104
නාකාරො	-12.4105
දොසෙ	-12.4105
බනාම	-12.4105
▁අකාරො	-12.4105
▁සරීරතො	-12.4108
▁පකාරෙ	-12.4108
▁පයොගං	-12.4108
දොපි	-12.4112
ලාභෙන	-12.4114
▁අනභිර	-12.4114
▁ආභොගප	-12.4117
මහාසමුද	-12.4117
▁ගාය	-12.4118
සරීරා	-12.4119
▁වදාම	-12.412
▁දීපො	-12.412
▁ජෙතවන	-12.412
▁රමණීය	-12.412
තනියාමං	-12.412
▁මහාසෙ	-12.4121
ඤාසිං	-12.4122
▁පාථ	-12.4125
කිල	-12.4125
▁තෙජස	-12.4126
ලෙප	-12.4126
බජිතෙ	-12.4127
භවත්	-12.4128
▁පජානතො	-12.4129
ඛිනී	-12.4129
▁භාති	-12.413
▁ආණාපෙත	-12.413
ඉමෙහි	-12.4131
▁සුරභි	-12.4131
චූ	-12.4131
▁සුනඛ	-12.4136
ඨසත	-12.4138
▁කුසලාකුසලං	-12.4139
▁සාධක	-12.4139
▁කාළප	-12.4142
▁290.	-12.4143
▁මූලා	-12.4146
▁වීමංසිත	-12.4149
ාදිභෙදො	-12.415
ගමාය	-12.4152
▁භෙරව	-12.4155
▁277.	-12.4155
භීරත	-12.4157
ඝිකා	-12.4158
▁ජාතාති	-12.4159
ාදිභාවං	-12.4159
ායතනානි	-12.416
තුනා	-12.416
▁මහාකප	-12.4161
▁අරියක	-12.4161
▁පරිභ	-12.4161
▁රාජක	-12.4163
ොයෙව	-12.4164
සහෙතුකො	-12.4166
▁මහාගො	-12.4166
සුචි	-12.4167
ඤසම	-12.417
▁ඉධාගතො	-12.4172
තසෙ	-12.4173
හාතී	-12.4176
▁භවොති	-12.4179
සොතාප	-12.4181
▁පොරිසාද	-12.4182
විරති	-12.4182
▁චොදනාය	-12.4184
ඤාණවි	-12.4184
▁සභාවං	-12.4186
ධුර	-12.4187
▁දිසතො	-12.4187
ගපරිණාමිං	-12.4187
▁350.	-12.4187
▁288.	-12.4188
▁302.	-12.4188
▁ඔලොකෙසි	-12.4191
▁පකරණං	-12.4194
තාධි	-12.4194
ටීකායං	-12.4195
▁අභයං	-12.4196
▁අනල	-12.4196
▁අපාකට	-12.4198
හතී	-12.4198
ඛාපදානං	-12.4199
ඤුතාය	-12.4201
විසෙසන	-12.4202
▁නාතික	-12.4203
තිකාදීන	-12.4203
වෙසං	-12.4204
▁උපායාසො	-12.4205
▁තාරෙ	-12.4206
▁තදභාවතො	-12.4206
බාහුල්	-12.4208
▁තථාරූප	-12.421
ෙකවචන	-12.4211
ඨතාය	-12.4211
ාතිආදීසු	-12.4211
▁ආදීනවද	-12.4212
▁බොධිස	-12.4212
මනිම	-12.4212
වාරතො	-12.4212
නාහරිත	-12.4214
▁පටිසරණං	-12.4217
▁අභිනිම	-12.4218
▁අවිරු	-12.422
▁අභිරුහ	-12.4221
ඵිත	-12.4221
▁නිපතිත	-12.4222
බාජකානං	-12.4225
පයොජනං	-12.4228
▁අභිනිවිසිත	-12.4229
පටිපාටි	-12.423
විපරීත	-12.423
වාදසමං	-12.4231
ඡෙරං	-12.4232
ගඵලං	-12.4233
▁යසෙන	-12.4233
ඨිතියා	-12.4233
පාදාන	-12.4235
ජීවී	-12.4236
ාදිවි	-12.4236
පාදනිරොධ	-12.4238
▁අධිවාසන	-12.4239
තකාදීන	-12.4239
මුපාග	-12.4239
▁කථයි	-12.4239
මාදීහි	-12.424
▁භීරු	-12.424
අනුත්	-12.4241
ඨිතභි	-12.4246
රාදයො	-12.4246
▁වනප	-12.4247
▁ගොපෙ	-12.4247
භවනං	-12.4248
▁295.	-12.4253
සොභන	-12.4258
▁කයිරාථ	-12.4258
මවිනය	-12.4259
▁ගිල	-12.4259
ණමයා	-12.4263
▁ඡෙදනෙ	-12.4264
▁ජිනාති	-12.4265
▁දුහෙතුක	-12.4265
▁විවටං	-12.4266
ථනියා	-12.427
චවිධා	-12.4271
මඵල	-12.4273
ගුපට	-12.4273
පභව	-12.4274
වීස	-12.4274
චාදීහි	-12.4278
ජික	-12.4278
තනිකං	-12.428
▁හාසො	-12.4281
▁ඔසි	-12.4282
ඣොහර	-12.4283
▁අනාදරිය	-12.4284
▁අයොනිසොමනසිකාර	-12.4286
▁දූස	-12.4287
දිනො	-12.4288
0-1	-12.4288
සෙනාසනං	-12.4289
▁භාවන	-12.429
▁පබු	-12.4294
▁සානු	-12.4295
තපටි	-12.4296
තාලීසාය	-12.4296
▁348.	-12.4297
▁351.	-12.4297
▁340.	-12.4297
▁332.	-12.4297
▁293.	-12.4297
▁289.	-12.4298
ඨමෙව	-12.4298
▁අනාවාසා	-12.4298
කොටන	-12.43
▁ඛාදිතුං	-12.4302
▁ගම	-12.4302
▁නානු	-12.4302
මෙවෙතං	-12.4302
දල	-12.4304
▁කාසිර	-12.4304
▁අවිනය	-12.4306
පියමංස	-12.4306
බිනි	-12.4307
▁තතොනිදානං	-12.4307
තියෙන	-12.4307
▁අතිදිසති	-12.4308
රෙති	-12.4308
මූලානි	-12.4308
සුකා	-12.4309
අසුභ	-12.4311
හෙතුකො	-12.4313
භිදෙ	-12.4314
▁අරූපධාතුං	-12.4318
වාරෙපි	-12.4319
තසුඛං	-12.432
▁අනූන	-12.4322
▁පමුදිත	-12.4324
▁1-2.	-12.4324
ඛරසාති	-12.4325
▁අසුකස	-12.4326
තාවතාපි	-12.4326
▁භයෙ	-12.4327
ඨසංකිලෙසිකං	-12.4328
▁එකක	-12.4329
▁රුචිං	-12.433
ටමූල	-12.433
චනීයෙ	-12.4331
▁සාමණෙරං	-12.4332
තහෙතු	-12.4332
චාධි	-12.4332
▁අචෙතසිකො	-12.4332
▁ලසුණ	-12.4334
▁පථවීධාතුයා	-12.4335
පටිභාගා	-12.4335
ඛීති	-12.4336
▁අමනාපං	-12.4337
හාමාන	-12.4337
▁අනුයොගො	-12.4338
▁සෙනාසනග	-12.4339
▁පහිණි	-12.4342
▁ධාරා	-12.4342
හෙතුතාය	-12.4344
මකාරී	-12.435
විසොධන	-12.435
තරමි	-12.4352
▁ඉතරීතර	-12.4352
▁මුඛව	-12.4354
චාදීසු	-12.4354
කාරණානි	-12.4356
කවාට	-12.4356
85	-12.4356
ඛායිත	-12.4357
▁අමනාපා	-12.4357
▁ජවනප	-12.4357
තිපද	-12.4357
යාණි	-12.4358
චනුභො	-12.4358
▁පජං	-12.4358
භාසො	-12.4359
ධිසීලං	-12.436
ඨානතාය	-12.436
▁තිචීවරෙන	-12.436
ඨිනා	-12.4363
නුග	-12.4367
▁සමාදා	-12.4369
▁311.	-12.4371
ූපක්	-12.4371
කොටී	-12.4372
හාරකො	-12.4373
සෙවිතං	-12.4373
ධිපත්	-12.4373
පරියායොති	-12.4374
තාසහගතෙන	-12.4376
චාධිකරණ	-12.4378
▁අචල	-12.4379
▁යථාපටි	-12.438
▁අරූපාවචරො	-12.4382
නසීලා	-12.4383
ගොචරෙ	-12.4384
▁අකුසලප	-12.4385
▁අචරි	-12.4387
▁ජානාම	-12.4388
▁පථවිස	-12.4389
▁හාය	-12.4389
▁309.	-12.439
පකාරෙහි	-12.4391
▁ගරහා	-12.4392
සමානෙ	-12.4393
ාදිපරි	-12.4393
ඛුසොත	-12.4394
ඨතා	-12.4394
පසීදති	-12.4395
▁මහාව	-12.4396
ගීව	-12.4398
▁හාසප	-12.4401
වාතනාය	-12.4402
නායතනා	-12.4402
▁මහාම	-12.4405
ණිතා	-12.4406
ජොතං	-12.4408
පරාමාස	-12.4408
දකනිවාපෙ	-12.4408
▁346.	-12.4408
▁374.	-12.4408
▁356.	-12.4408
▁බහුජනහිතාය	-12.4408
▁සුදු	-12.4408
▁323.	-12.4408
▁336.	-12.4409
▁339.	-12.4409
▁275.	-12.4409
▁285.	-12.4409
▁පාදාසි	-12.4412
ධංසොතො	-12.4414
▁අධිවාසෙසි	-12.4414
▁රුහිර	-12.4414
▁ජාතරූප	-12.4415
▁නරාසභං	-12.4416
ඛිතෙ	-12.4417
බුළ	-12.4418
▁අදෙසිත	-12.4419
▁ජීවො	-12.442
ඨමානසො	-12.4421
ඨාසිං	-12.4421
▁දසවිධ	-12.4421
▁කුමාරිකා	-12.4422
▁මතෙ	-12.4423
▁විවරි	-12.4424
තනයානුසාරෙන	-12.4425
▁කලහො	-12.4426
▁භූතස	-12.4427
තමිව	-12.4429
▁තාවතිංසානං	-12.4429
මවාදිනො	-12.4429
▁විචාරෙ	-12.4431
▁නියාමං	-12.4434
▁ගුණානං	-12.4434
හයෙ	-12.4438
▁දිත්	-12.4438
▁ඛදිර	-12.444
▁පණීතො	-12.444
විභාගං	-12.4441
▁නාගරා	-12.4441
සොළ	-12.4443
තාපී	-12.4443
අසීති	-12.4443
තුන	-12.4443
▁උපාරම	-12.4444
▁සංවෙගං	-12.4445
සාරී	-12.4448
▁රොපෙ	-12.4449
හකො	-12.445
සසෙ	-12.4451
සීසා	-12.4451
ධංසෙති	-12.4451
▁ඤාතයො	-12.4451
14	-12.4451
සමාචාරො	-12.4452
▁එළක	-12.4453
▁ඤාතා	-12.4454
▁මරණකාලෙ	-12.4457
▁අතිදි	-12.4459
▁දෙසො	-12.4459
▁ගොතමි	-12.4459
දෙසනං	-12.4461
▁අසංවරො	-12.4461
ඤාණධාතුසම	-12.4463
▁අනුයොග	-12.4463
▁ළ	-12.4463
කවාළං	-12.4464
පාරි	-12.4464
▁ලෙඛ	-12.4465
▁වීමංසි	-12.4466
▁නිපුණ	-12.4466
ථිකෙ	-12.4466
දනතො	-12.4466
▁සෙලා	-12.4469
ජමානස	-12.4471
▁පරිසම	-12.4472
පාදවය	-12.4473
ධයො	-12.4476
ධිකරො	-12.4477
බාසු	-12.4477
▁අටවි	-12.4477
පාරුතා	-12.4482
▁උපනය	-12.4483
▁සාසවං	-12.4484
බහුස	-12.4484
බමානො	-12.4485
එථ	-12.4485
▁287.	-12.4486
▁පීණෙති	-12.4486
▁නරූපාවචර	-12.4489
ථුකාමා	-12.4489
▁අපලොකනක	-12.4489
විරා	-12.449
නිවෙස	-12.4493
වායමත	-12.4496
සරතො	-12.4496
පරායෙ	-12.4503
▁පාසාදා	-12.4505
▁අනුමොදි	-12.4506
▁දීඝෙන	-12.4507
▁සමනුභාස	-12.4509
කවිචාරා	-12.4509
▁ඝොර	-12.4509
▁කාතුන	-12.4511
මමත්	-12.4512
කුළ	-12.4516
▁මහාපුරිසස	-12.4516
▁පිහිත	-12.4517
වාදයො	-12.4519
87	-12.4519
▁ආහරා	-12.452
▁349.	-12.4521
▁324.	-12.4521
▁327.	-12.4521
▁337.	-12.4521
▁338.	-12.4521
▁308.	-12.4521
▁286.	-12.4521
ඨිතිකං	-12.4521
ඤාමනසිකාරා	-12.4524
මමකරිං	-12.4524
▁ජාණු	-12.4524
▁ගාමතො	-12.4524
▁භෙදන	-12.4527
නවුතෙ	-12.4527
▁නහාන	-12.4528
▁දෙතී	-12.4528
▁සාධන	-12.4528
▁ඣාපෙ	-12.4531
▁සාධුකාරං	-12.4532
▁සකදාගාමිඵලං	-12.4532
ූපචාර	-12.4533
නමෙතං	-12.4536
▁මූලතො	-12.4536
▁උරගො	-12.4537
▁කිමකාසි	-12.4539
ධාරිතා	-12.4539
▁දාතා	-12.4541
හනා	-12.4542
ධරස	-12.4543
▁යසසා	-12.4544
ඛනිරොධං	-12.4544
ඨානීයා	-12.4546
බායතන	-12.4546
මවාචාහි	-12.4548
ජිතානි	-12.455
▁ආඝාතං	-12.4552
▁අනාගතො	-12.4553
▁අභිවාදෙ	-12.4556
▁ආලය	-12.4558
▁සකසක	-12.4558
ඛාමී	-12.4558
▁නිරයා	-12.4559
මතීති	-12.4559
භනවසෙන	-12.4562
චාදීනං	-12.4563
නාමිකා	-12.4566
▁නානුබ	-12.4569
සංයොජනං	-12.4572
▁සීතල	-12.4572
▁සකලො	-12.4573
▁ඔරං	-12.4574
ඛාවිතරණ	-12.4574
හනතො	-12.4575
නීයා	-12.4576
▁සාමණෙරා	-12.4577
චරිතෙ	-12.4578
▁ලොකසම	-12.4578
▁සොකං	-12.4581
ඛමං	-12.4581
▁ලාභෙන	-12.4583
▁අසුභා	-12.4585
▁සුතා	-12.4587
▁ආණි	-12.4587
චගා	-12.4587
තවීසති	-12.4588
තුමාහ	-12.459
▁තදාපි	-12.4591
▁පරිහරිත	-12.4591
ලාදි	-12.4591
සාධනං	-12.4593
බභාගො	-12.4596
මලො	-12.4596
▁මරණාති	-12.4596
පාඨ	-12.4597
▁අතිරෙකං	-12.4597
ඩපාතෙ	-12.4598
▁හෙතුදුකං	-12.4599
▁291.	-12.4599
කමී	-12.4599
▁සමනුභාසන	-12.46
▁316.	-12.4601
සසතෙ	-12.4602
▁පුනා	-12.4604
▁මාසෙහි	-12.4604
▁296.	-12.4604
▁සමාධී	-12.4605
බසි	-12.4606
දසී	-12.4607
තමානාය	-12.4611
ඡනෙ	-12.4611
▁සුනඛො	-12.4611
රොගො	-12.4612
▁සුපති	-12.4613
▁භූතප	-12.4614
දලිද	-12.4617
ඣායකො	-12.4617
▁සහජාතානං	-12.462
▁සුණොම	-12.462
ණතා	-12.4621
තෙසීති	-12.4621
▁පීතා	-12.4621
තරසම	-12.4622
ඨපනා	-12.4623
පණිධි	-12.4624
▁ආනාපාන	-12.4624
භාවිත	-12.4627
70	-12.4633
ධොපි	-12.4634
▁පටිබාහ	-12.4634
▁354.	-12.4634
▁320.	-12.4634
▁කබළීකාරාහාර	-12.4634
▁314.	-12.4635
▁නාමමූලෙන	-12.4635
චෙතනිකං	-12.4636
▁පරියෙසි	-12.4637
චරා	-12.4637
දරාගප	-12.4637
අපිචා	-12.4637
ඛාව	-12.4637
▁උකාර	-12.4638
ථමත්	-12.4638
▁ජවසම	-12.4641
▁විකිර	-12.4642
▁දිවසානි	-12.4643
▁භාසමාන	-12.4645
ානුසාරි	-12.4645
▁සංවිදහිත	-12.4645
පභ	-12.4647
▁මණිරතනං	-12.4647
දීපා	-12.4648
▁කථංකථා	-12.4648
▁පසාරිතං	-12.4648
98	-12.4648
▁මාතුගාමං	-12.4649
පාරමියො	-12.465
▁කතර	-12.4652
▁ධාරෙතුං	-12.4654
▁විභාගං	-12.4656
▁මනසිකාත	-12.4656
▁පූරෙති	-12.4657
රාදීහි	-12.466
▁ආදිය	-12.4661
▁ගහපතී	-12.4661
රූපාදි	-12.4662
දාගතිං	-12.4662
▁ථාවර	-12.4663
▁අපරාපර	-12.4663
තයිංසු	-12.4663
තමිති	-12.4664
▁අහෙතුකෙ	-12.4664
ඨිමා	-12.4665
▁අවධාරණෙ	-12.4666
▁කතානි	-12.4666
ලිං	-12.4668
▁තිචීවරං	-12.467
▁රූපියං	-12.4671
ඛකා	-12.4674
59	-12.4676
▁එතෙව	-12.4679
▁ආයතනෙ	-12.468
▁පථවීකසිණ	-12.4682
▁ආචරියානං	-12.4682
▁දොණි	-12.4682
▁මනසිකාරා	-12.4684
▁නගරද	-12.4684
හාපෙ	-12.4684
▁පටිඝං	-12.4686
සාදා	-12.4686
▁බී	-12.4687
▁ආරොහපරිණාහස	-12.4687
ඨහෙය	-12.4687
▁ඝානෙන	-12.4688
▁අනුලොමතො	-12.4689
රීයති	-12.4689
▁එකදා	-12.469
▁ලෙප	-12.4691
ගාදයො	-12.4693
▁උපනාමෙ	-12.4694
ඝාතා	-12.4695
▁සුචිං	-12.4696
අනාසවො	-12.4698
▁සොභනං	-12.4699
▁ආකාරො	-12.47
වරෙන	-12.4706
බානමෙව	-12.4707
පියකුටි	-12.4709
දෙසෙසු	-12.4711
කුසො	-12.4716
▁පටිවෙධො	-12.4718
පිනො	-12.4718
ගිනි	-12.4719
ජානනා	-12.472
නරසෙ	-12.472
කාරිතාය	-12.4722
▁කොලිය	-12.4723
▁ථකෙත	-12.4723
ථුබ්	-12.4724
ඣාපෙ	-12.4725
▁භොගෙහි	-12.4725
▁කිලෙසස	-12.4726
පරියෙසන	-12.4726
උණ	-12.4726
▁පටිසංවෙදී	-12.4727
▁විනෙ	-12.4727
දකානි	-12.4728
මභණ	-12.473
▁අමුස	-12.473
▁පටිසංවෙදෙ	-12.4731
▁යොගාවචර	-12.4732
▁සාමො	-12.474
නචීවර	-12.4744
▁විධ	-12.4744
බජිතෙන	-12.4747
▁තිමි	-12.4749
තරපදලොපෙන	-12.4749
▁352.	-12.4749
ථදීපනියං	-12.4749
▁364.	-12.4749
▁360.	-12.4749
▁361.	-12.4749
▁වෙපචිත්	-12.4749
▁333.	-12.4749
▁තිපු	-12.4749
▁317.	-12.475
▁312.	-12.475
නියං	-12.475
▁අයමාහාරො	-12.475
සාවිදූරෙ	-12.475
සීහ	-12.4752
▁ලාභාය	-12.4753
▁සුභූති	-12.4753
▁විනයපිටකෙ	-12.4753
ඤෙසුපි	-12.4754
▁යොධාජීවො	-12.4756
▁අගරු	-12.4757
▁පඨමදුතිය	-12.4758
▁අභිනීහාරො	-12.4759
ධගුණා	-12.4761
ලොසි	-12.4762
මකරා	-12.4764
ගරං	-12.4764
කවාර	-12.4767
▁මානුසා	-12.4767
ථජොතිකාය	-12.477
▁විකොපෙ	-12.477
▁ථපති	-12.4772
▁ජොතන	-12.4775
▁ඉධලොක	-12.4775
▁පදාල	-12.4776
ගඤාණෙන	-12.4776
▁පාතුභාවා	-12.4777
තාවාසො	-12.4781
තරෙපි	-12.4781
73	-12.4782
▁මහානුභාවෙ	-12.4785
▁සිවං	-12.4785
▁යාවතිකා	-12.4786
මූලකො	-12.4786
ඨානුසයං	-12.4787
▁අභෙ	-12.4787
බාකාරතො	-12.4788
▁මහාසම	-12.4789
▁විපුලො	-12.4789
▁යාමෙ	-12.4794
ජෙතීති	-12.4795
▁සුගතා	-12.4796
ඨාපක	-12.4799
▁ඛයාය	-12.4801
▁ආවසථ	-12.4802
▁කාමාසව	-12.4803
▁ඝා	-12.4805
තරධාන	-12.4805
දෙක	-12.4806
බීසති	-12.4814
ාවුසො	-12.4814
ඨාපිත	-12.4814
කාරප	-12.4815
බිසාර	-12.4817
භාණී	-12.4817
චානීති	-12.4817
ණනාවිසෙසො	-12.4818
හදයො	-12.4819
අහු	-12.4821
භූතාති	-12.4822
ඨමජ	-12.4824
ථසං	-12.4826
▁විනාසෙති	-12.4827
▁ආගමො	-12.4827
▁ධාවති	-12.4828
ඩියා	-12.4828
ඨිකෙ	-12.4828
▁පාලෙති	-12.4829
▁කථාව	-12.4831
තපරිච	-12.4832
▁මහාජන	-12.4833
▁නඅකුසල	-12.4834
කටානි	-12.4834
කථනං	-12.4835
චාප	-12.4837
▁ආහාති	-12.484
▁රජතං	-12.4849
▁ගුණසම	-12.4849
▁පටිසෙව	-12.4849
ඣානිකා	-12.485
▁අකල්	-12.485
ණකකථා	-12.4853
▁වදෙථ	-12.4853
සාසනෙ	-12.4854
▁වායු	-12.4855
▁අනාමාස	-12.4856
▁පාණාතිපාතාදි	-12.4857
▁මනුජා	-12.4857
▁පාසාණෙ	-12.4857
▁අභිරම	-12.4859
▁ඤාතිබ	-12.486
ථිකස	-12.486
▁භාවා	-12.4864
▁355.	-12.4865
▁ජලිතානුභාවා	-12.4865
▁පාහෙසි	-12.4865
▁තාවතිංසභවනෙ	-12.4866
▁367.	-12.4866
▁313.	-12.4866
▁දෙවධීතා	-12.4867
▁නිසෙධෙ	-12.4867
▁අභිරොපයිං	-12.4867
ඛභූතා	-12.4868
▁කුදාචනං	-12.4871
▁ඵුසි	-12.4873
ථමාහ	-12.4873
තරධානාය	-12.4874
ඨඅසංකිලෙසිකො	-12.4875
▁ඵාසුවිහාරාය	-12.4875
චයවාරො	-12.4876
▁චීවරාදි	-12.4876
▁නමෙ	-12.4876
▁අනාචාරං	-12.4877
තානුසාරෙන	-12.4878
▁සොචන	-12.4878
ාධික	-12.4879
▁මහාකරුණා	-12.4882
කභාව	-12.4883
අනාගතෙ	-12.4884
▁ඛෙළං	-12.4884
▁ආචාරගොචර	-12.4886
ඵියො	-12.4889
ගුලප	-12.489
▁පක	-12.4891
ඣානො	-12.4895
තසතානි	-12.4895
▁සාවකෙහි	-12.4895
හාරං	-12.4897
දසහි	-12.4897
නිභා	-12.4898
මලක්	-12.4898
ඩූ	-12.4903
ඡීති	-12.4903
▁පලුජ	-12.4904
ජාලං	-12.4905
ාභිනිවෙසො	-12.4905
ජයි	-12.4905
▁ඉධාගතා	-12.4906
රජං	-12.4906
පාදනතො	-12.4906
තාපෙන	-12.4906
නිධිං	-12.4907
▁මනොරමෙ	-12.4908
▁සකා	-12.491
මලොකං	-12.4913
▁වචනීයං	-12.4914
වයා	-12.4915
ඤසී	-12.4917
▁බලවං	-12.4917
ඵුසිත	-12.4919
දීපි	-12.4922
▁විභූත	-12.4922
ඤාධි	-12.4923
▁මොහාගති	-12.4924
තදාහං	-12.4926
වචනානි	-12.4926
▁දීයතෙ	-12.4928
▁නිවෙසෙ	-12.4928
▁අපරිමාණ	-12.493
22.	-12.493
▁පවනෙ	-12.4932
බානධාතු	-12.4933
▁පූජිතා	-12.4934
▁කමල	-12.4935
ගමනවසෙන	-12.4936
අතීතං	-12.4936
▁ඔමු	-12.4936
▁අනුපලි	-12.494
ඛරණියා	-12.4942
1-2.	-12.4942
▁ලොපං	-12.4947
▁සවනං	-12.4947
පසාදන	-12.4947
▁නියමෙ	-12.4948
හව	-12.4948
▁ලුජ	-12.4953
▁ආහරාපෙත	-12.4954
ධුමා	-12.4954
ඉමෙසං	-12.4954
▁කරොමී	-12.4955
පලි	-12.4956
▁සොභය	-12.4956
ධාවති	-12.4956
▁චලති	-12.4957
සාමිකො	-12.4959
රාය	-12.4959
▁පිතාමහ	-12.496
කිලෙසානං	-12.496
ධීතා	-12.4963
▁චෙතා	-12.4965
▁අලාභො	-12.4965
නියමො	-12.4966
▁මාරෙති	-12.4966
ජථා	-12.4967
75	-12.4967
නාහ	-12.4972
කෙතං	-12.4974
▁වායාම	-12.4976
▁ජායතී	-12.4978
▁කථෙතුක	-12.4982
තාභාවතො	-12.4982
ඛසංවරසංවුතො	-12.4983
▁359.	-12.4983
▁357.	-12.4983
▁365.	-12.4983
▁325.	-12.4983
▁321.	-12.4983
▁331.	-12.4983
▁අහොසහං	-12.4984
වෙගෙන	-12.4987
ඛීර	-12.4987
▁නිසෙධ	-12.4989
▁හිමවා	-12.499
▁පාරිවාසිකෙන	-12.499
තානුස	-12.4991
▁එකොදිභාවං	-12.4992
බුතොති	-12.4993
▁පඨමගාථාය	-12.4993
▁රෙවතො	-12.4994
එවමෙවං	-12.4994
දමත්	-12.4999
▁පරාමසිත	-12.5
▁ඨානතො	-12.5001
▁දාරකං	-12.5002
▁විසෙසි	-12.5003
▁දූතො	-12.5003
▁භූමිභාගෙ	-12.5004
විකති	-12.5004
ඨානභාවනා	-12.5005
ණනිභා	-12.5008
පදනිද	-12.5008
වානහං	-12.5011
▁යාපන	-12.5014
සූකර	-12.5015
ගජාත	-12.5017
▁දිගුණං	-12.5017
▁පකාසිත	-12.5018
▁එකදෙසො	-12.5021
▁භාසසි	-12.5025
ජමානානං	-12.5029
▁අනියතස	-12.5029
▁පරිළාහ	-12.5029
▁දොසොති	-12.5029
වීහ	-12.503
▁එකමෙකං	-12.5031
▁නහෙතූ	-12.5031
ගාරො	-12.5034
ගාථමාහ	-12.5036
▁නාගසෙනා	-12.5038
▁පරිදෙවිත	-12.5038
හවිනයො	-12.5038
චනෙන	-12.5041
කහාපණ	-12.5043
කාරකං	-12.5043
▁ධීරං	-12.5044
▁උදයං	-12.5044
ණපු	-12.5045
නිවි	-12.5048
ඨමී	-12.5048
▁කරං	-12.5049
▁ජීවිතම	-12.505
▁පභෙදො	-12.5053
මෙකො	-12.5053
▁සකලම්	-12.5054
▁පසීදි	-12.5054
ධපරිසා	-12.5055
▁නයං	-12.5056
සහිතා	-12.5057
▁පටිබාහති	-12.5057
▁ලප	-12.5058
▁දූරං	-12.5061
ාරයි	-12.5061
තමහා	-12.5062
▁අනොම	-12.5063
▁සමොධාන	-12.5065
▁විසමං	-12.5066
▁පභව	-12.5066
▁වෙහ	-12.5068
▁කපිල	-12.5068
සමීප	-12.5068
බිසෙවන	-12.5071
කමෙනෙව	-12.5072
මූපගඤාණ	-12.5074
▁සුඛුමාල	-12.5076
▁පජාන	-12.5077
ඛිපනං	-12.5077
ගරුකො	-12.5082
▁අරණ	-12.5085
▁පකාසයි	-12.5085
සමුදාය	-12.5087
▁බොධාය	-12.5088
ධිවිහාරික	-12.5089
භාසං	-12.5089
▁පයිරුපාසිත	-12.509
▁සුජ	-12.509
▁කමතො	-12.5091
බලානි	-12.5092
▁බහූපකාර	-12.5093
ඛාමීති	-12.5093
මොහසම	-12.5094
සංවුත	-12.5094
▁සුභාසිතා	-12.5095
▁පූරති	-12.5096
ථරති	-12.51
▁විජිත	-12.51
දොසෙන	-12.51
▁ආසීවිස	-12.5101
පජානා	-12.5101
රූපකං	-12.5102
ලාභස	-12.5102
තමානුසකෙන	-12.5102
▁322.	-12.5102
▁ධජං	-12.5103
චුධ	-12.5103
▁නාමප	-12.5104
▁පිටකානි	-12.5104
▁ධීතරො	-12.5105
පරිදීපනං	-12.5105
▁වූපසමෙතුං	-12.5106
▁අනුපාදාපරි	-12.5107
▁ඔධිසො	-12.5107
නමන	-12.5108
▁ඉරියති	-12.5109
▁එවරූපෙන	-12.511
▁සරීරප	-12.5111
භූමක	-12.5111
තුපරමො	-12.5112
ගරො	-12.5112
▁කාරුණිකො	-12.5113
▁ආවිකරො	-12.5113
▁තූරිය	-12.5114
▁විනයපිටකං	-12.5114
▁පටිභාති	-12.5115
කාමෙසු	-12.5116
ාරාමං	-12.5116
▁වසිංසු	-12.5119
▁ඵීතං	-12.5119
හදය	-12.5121
▁මුචලි	-12.5122
▁සාරණීය	-12.5123
නුක්	-12.5126
▁කටුකා	-12.5126
▁විකාලභොජන	-12.5127
▁තතියචතු	-12.5127
ධාවිත	-12.5127
▁ගිලිත	-12.5128
තනාදි	-12.5129
▁භවාභව	-12.5129
▁උපචිතත	-12.513
වනස	-12.513
ාගබ්	-12.5131
▁පාදානි	-12.5131
සාධාරණා	-12.5135
මජාල	-12.5135
▁ඵාණිතං	-12.5136
▁ආරාමික	-12.5138
මවාචං	-12.5139
සාසි	-12.5141
පමු	-12.5141
▁පණාමෙ	-12.5142
▁කොචිදෙව	-12.5145
පභෙදෙ	-12.5145
තෙපුරං	-12.5149
▁යකාර	-12.5149
ආසව	-12.5149
බවිහාර	-12.5149
▁පාපො	-12.515
▁අසුරි	-12.515
රංසි	-12.515
ඤාතුං	-12.5155
පරිළාහො	-12.5157
තකාලො	-12.5158
ධිකථා	-12.5165
ලානෙන	-12.5165
කාරවසෙන	-12.5168
සරිං	-12.517
▁තියොජන	-12.5173
▁නියක	-12.5174
▁තරුණො	-12.5175
බාහිර	-12.5178
▁පාකතික	-12.5179
මසුඛවිහාර	-12.518
▁ඔද	-12.5183
දහෙය	-12.5183
චලො	-12.5183
▁නෙර	-12.5184
▁උපචාරප	-12.5185
▁සමාදියති	-12.5187
▁විනාසො	-12.5192
▁ඨපනා	-12.5192
▁උපකාරකො	-12.5196
තදුක	-12.5197
▁ගීව	-12.5197
▁පටිවිජානන	-12.5199
▁එතෙහීති	-12.52
▁පධානාය	-12.5202
▁භොජෙත	-12.5204
නිතුං	-12.5204
▁තළාක	-12.5205
ජකා	-12.5205
චකුටි	-12.5205
▁මහාවිහාර	-12.5207
ඛාතානි	-12.5209
භාසාය	-12.521
චජිත	-12.5211
▁සුණිස	-12.5211
▁ගාරවො	-12.5212
▁ගොධා	-12.5212
-‘‘	-12.5215
▁කුටිල	-12.5215
ථගතං	-12.5217
තෙජෙන	-12.5217
ථීහි	-12.5217
ආහාරප	-12.5218
කොටියො	-12.5219
▁ඔව	-12.522
කුටිං	-12.522
▁මහාරාජාති	-12.5221
රූපමෙව	-12.5222
▁ආපාථමාග	-12.5223
▁363.	-12.5223
▁319.	-12.5223
▁භාවනපුංසක	-12.5223
▁තදි	-12.5223
යාකතමූලෙ	-12.5226
කසවිචාරෙ	-12.523
▁සානුසයා	-12.5232
චොදනා	-12.5233
තරඝරං	-12.5234
ාලයං	-12.5234
මදායාදා	-12.5234
නඅනුපාදානියා	-12.5235
ඛාරගතං	-12.5235
21.	-12.5235
ාරාමෙ	-12.5236
පරිණාම	-12.5238
▁සතිබලං	-12.5239
▁නීවරණානි	-12.524
බසෙ	-12.524
▁විහරිතුං	-12.5241
පයොගතො	-12.5241
▁අභව	-12.5242
ාදිභෙදෙන	-12.5243
වාදීහි	-12.5243
▁බොධන	-12.5244
වාචාය	-12.5244
පාරගූ	-12.5245
▁සාධාරණප	-12.5246
▁ජහෙ	-12.5249
නවාරො	-12.5253
සාවකො	-12.5253
ඵාණිත	-12.5253
▁පරිභොගො	-12.5254
සහායො	-12.5254
▁කෙචීති	-12.5256
තසංයොගෙ	-12.5257
▁රාගප	-12.5258
▁හොමී	-12.526
▁සරූපෙන	-12.5262
යෙනාති	-12.5263
ඨමකස	-12.5265
▁ඔසධී	-12.5265
ටිකං	-12.5266
ානිසංසං	-12.5269
ඨාපෙතුං	-12.527
▁විවාදාප	-12.5272
යෙපි	-12.5272
සුණන	-12.5272
වීසුපි	-12.5273
චනෙ	-12.5275
▁නොඅවිගත	-12.5276
චසත	-12.5276
▁මගධෙසු	-12.5277
▁කායිකචෙතසික	-12.5277
▁චොදෙත	-12.5278
තපාණි	-12.5278
ජාතික	-12.5279
▁ගණෙත	-12.528
භුතා	-12.5281
▁අකොවිදො	-12.5282
ඨාදි	-12.5284
ඛෙපප	-12.5287
▁බලවතී	-12.5289
විභාගෙන	-12.529
දිවසෙන	-12.5292
ටානං	-12.5293
▁ඨපිතෙ	-12.5293
▁භොගානං	-12.5296
කුද්	-12.5296
ලම	-12.5296
▁වෙදල	-12.5296
ධකුටි	-12.5296
▁විනයොති	-12.5298
▁නීචං	-12.53
▁උදාහරති	-12.5301
74	-12.5302
▁සංකිලෙසික	-12.5302
මුපාදාය	-12.5304
▁තදස්	-12.5305
▁අජිතො	-12.5305
▁විජිතෙ	-12.5306
▁තෙවීස	-12.5306
▁විචිනන	-12.5307
▁මරණෙ	-12.5309
▁ගිලානාය	-12.531
▁ඨාතුං	-12.5312
▁ඛණිත	-12.5314
▁රසානං	-12.5315
මොහතො	-12.5316
▁හීනෙන	-12.5319
ජාතානි	-12.5319
▁අනාගාමිනො	-12.5322
▁මහාභූත	-12.5322
රණෙන	-12.5322
ජීවො	-12.5323
▁වොරොප	-12.5324
තිවාරො	-12.5324
▁හංසා	-12.5326
▁සලිල	-12.5328
▁ඉදමත්	-12.533
මානසා	-12.5331
පරියායං	-12.5332
තියානං	-12.5334
▁දීඝනිකායට	-12.5335
▁අධිකො	-12.5336
▁විනීතා	-12.5337
පාතෙ	-12.5342
▁චිරකාල	-12.5342
ධාප	-12.5343
තාළ	-12.5343
▁376.	-12.5345
▁තථූපමාහං	-12.5345
▁358.	-12.5345
▁සුනාපර	-12.5345
▁393.	-12.5345
චහුපාලි	-12.5345
▁292.	-12.5345
බෙමතිකො	-12.5346
▁කාරකං	-12.5346
▁බිළාර	-12.535
▁පරියායවචනං	-12.5351
භවාය	-12.5353
▁අනුවාදො	-12.5354
ඨානප	-12.5354
ාලී	-12.5356
▁වසලො	-12.5356
භිය	-12.5357
▁ඨානනිස	-12.5357
▁යහිං	-12.5359
▁පරිහානාය	-12.536
▁පටිසෙවි	-12.5365
▁අභිරූපො	-12.5366
මභූතො	-12.5366
ජාසම	-12.5367
▁නිපාතනා	-12.5367
ජාතිකං	-12.5368
▁මහාභූතානි	-12.5368
▁නගරම	-12.5371
තානංයෙව	-12.5371
ඤාපනා	-12.5372
▁සංවෙ	-12.5373
ඡානගතො	-12.5373
කාරාදි	-12.5373
බපදෙසු	-12.5374
▁අධිගමො	-12.5375
චලි	-12.5375
▁සාවිකා	-12.5377
▁හොහී	-12.5377
▁සූරියු	-12.5379
▁නභං	-12.5387
ඤුං	-12.5388
සාවකා	-12.5389
▁අදොස	-12.5389
▁ආසාය	-12.5389
යරෙ	-12.539
ගහී	-12.539
▁සීදන	-12.5391
භක	-12.5391
ඝොසං	-12.5391
සවනෙ	-12.5391
▁එතාසු	-12.5391
72	-12.5396
ඝරිත	-12.5396
වාරවසෙන	-12.5398
ලොභො	-12.5398
දායකං	-12.5399
ඛවිප	-12.54
කොසෙ	-12.5401
පකාරකං	-12.5401
▁චිරප	-12.5402
▁හාපෙති	-12.5402
මෙථුන	-12.5403
උපචාර	-12.5406
ධුනන	-12.5409
ගහිතස	-12.5409
ධතීති	-12.541
▁විපාකොති	-12.5411
වෙලා	-12.5411
▁සුපිනන	-12.5412
කුසලානං	-12.5413
සභාවස	-12.5413
තිකුසලො	-12.5413
ධිරත්	-12.5415
▁ගමනෙන	-12.5415
ාළිං	-12.5415
වීරියා	-12.5415
▁315.	-12.5416
▁පුථුප	-12.5418
සමීපං	-12.5418
කිත	-12.5419
යොජෙසි	-12.5421
▁විධිනා	-12.5421
▁තපං	-12.5423
▁වෙධ	-12.5425
▁විසෙසප	-12.5425
▁විහෙස	-12.5428
▁සෙතා	-12.5428
කායෙන	-12.5428
ඛුනු	-12.5431
▁වීතරාගා	-12.5432
තිංසාකාර	-12.5433
රියාදි	-12.5438
▁තථං	-12.5439
▁එකමූල	-12.5439
▁ධුනා	-12.5439
භාණක	-12.5441
▁රොහි	-12.5443
▁පිවති	-12.5444
ඤීති	-12.5445
▁උපකාරක	-12.5445
▁කිලෙසං	-12.5445
67	-12.5447
ජාහි	-12.545
ධාතූ	-12.5453
▁සොභනා	-12.5455
ගීතා	-12.5455
පෙතාති	-12.5457
එකතිංසෙ	-12.5461
▁මූලෙන	-12.5461
භිතො	-12.5462
ථපාසා	-12.5462
▁ජරාමරණනිරොධ	-12.5464
▁නිරොධෙන	-12.5466
▁පසාදයිං	-12.5469
පාදෙතීති	-12.5469
▁ගාථාපරියොසානෙ	-12.547
▁සමනුභාසනාය	-12.547
▁මහාපරි	-12.5472
▁කුසලප	-12.5473
ඤවතො	-12.5474
▁අලාභ	-12.5475
▁පරිදෙවති	-12.5475
ඤාසහගතං	-12.5475
▁සාටක	-12.5477
▁එකීභාවාය	-12.5477
රවිං	-12.5479
▁ආරාධකො	-12.548
▁වීරියසමාධි	-12.5481
යභාවෙන	-12.5482
▁උරෙ	-12.5482
▁ගොචරෙ	-12.5483
▁8	-12.5484
සාවකං	-12.5486
▁භාජෙ	-12.5487
කිතො	-12.5488
▁චිරකාලං	-12.5489
ගාමිනිං	-12.5489
ඤුප	-12.5491
තනොමති	-12.5493
ඩානං	-12.5493
ානෙවාති	-12.5495
▁අරියවංස	-12.5497
සලොක	-12.5499
ධමාසං	-12.5501
▁හොතෙව	-12.5501
යතිරෙකතො	-12.5501
ධනාමං	-12.5502
තවාද	-12.5503
91	-12.5504
ගාහා	-12.5504
සකාලෙ	-12.5504
ුඩ	-12.5506
▁ජිනා	-12.5508
▁තෙනා	-12.551
▁දොසාගති	-12.551
දාව	-12.5512
▁අපලොකන	-12.5512
ගාධිපතී	-12.5512
ඛතොති	-12.5515
▁පිදහිත	-12.5516
▁ඡාත	-12.5517
කිණි	-12.5517
▁විජිතස	-12.5517
▁සමෙතීති	-12.5518
මෙකං	-12.5518
▁සිරිමා	-12.5518
ටියං	-12.5519
දෙවානං	-12.552
▁වාචාහි	-12.5522
▁පටිබාහන	-12.5526
▁සොයං	-12.5527
▁සායෙව	-12.5528
නුරූපං	-12.553
මෙහීති	-12.553
▁කහාපණෙ	-12.5532
දායි	-12.5533
▁මරණම	-12.5536
මිගො	-12.5537
▁තාළ	-12.5538
▁ගෙහසිත	-12.5538
▁රාගා	-12.5541
▁අහාසි	-12.5541
▁කසිණා	-12.5546
▁නෙසො	-12.5547
කොවිදා	-12.5547
▁බාහුල්	-12.5551
පහීනත	-12.5552
වෙදනීය	-12.5553
▁විචිනිත	-12.5553
රූපාවචර	-12.5555
▁අනුය	-12.5556
මදාසි	-12.5557
ාවබොධ	-12.5557
ාභිරතො	-12.5558
භාගියං	-12.5559
▁නෙරු	-12.5561
▁අනුකූල	-12.5562
▁පරියොසාපෙති	-12.5563
කුසා	-12.5567
ලිකෙ	-12.5568
සොභග්	-12.557
▁උදාහරණ	-12.557
කාලෙයෙව	-12.557
.6.	-12.5571
▁භාවොති	-12.5573
බොධිය	-12.5573
චාරු	-12.5574
චෙතෙසං	-12.5575
චතුර	-12.5576
තනියාම	-12.5576
සාවො	-12.5576
92	-12.5578
සාලි	-12.5578
වාණිජ	-12.5579
හරී	-12.558
පාදෙහි	-12.5585
හාමී	-12.5586
▁දිනෙ	-12.5587
ාදීනිපි	-12.5587
තධුරො	-12.5588
▁නිගමං	-12.5588
තානිපි	-12.5591
▁වාළමිගා	-12.5591
▁අඵාසු	-12.5592
සාරම	-12.5593
▁කුසිනාර	-12.5593
▁399.	-12.5593
▁අවීතරාගො	-12.5593
▁බහුවිධ	-12.5593
▁අචෙලො	-12.5593
ඨාදීසු	-12.5594
ජසී	-12.5596
ධවිප	-12.5597
යාණෙ	-12.5598
▁අදාසහං	-12.5598
▁පයිරුපාසන	-12.5598
▁ඛාදනීය	-12.5598
▁අවෙරෙන	-12.5599
පීතික	-12.56
ගොව	-12.5601
පමාණානි	-12.5602
තාවුසො	-12.5602
▁ගවෙසි	-12.5603
ථචරියා	-12.5603
ධසු	-12.5604
▁ගොණ	-12.5605
පරිවාරා	-12.5605
▁කෙසම	-12.5606
▁පටිසංවෙදි	-12.5606
▁යථාපරි	-12.5606
චාරිනො	-12.5606
පහානවසෙන	-12.5607
▁යදෙතං	-12.5608
බොධිසත	-12.5608
ඨුපාදානං	-12.5608
95	-12.5609
නයි	-12.561
තාහකාලිකං	-12.5611
හකං	-12.5612
පටිපදාය	-12.5612
ඣොසානං	-12.5613
▁සමිතං	-12.5613
▁තළාකං	-12.5613
යාපාදෙන	-12.5616
▁අපාහං	-12.5617
▁එවමාදීහි	-12.5617
▁තීහිපි	-12.5619
▁මරීචි	-12.5619
භමානො	-12.5622
▁පදසා	-12.5622
සමාපන	-12.5624
තචෙතසිකානං	-12.5624
▁අනුමාන	-12.5624
▁පභි	-12.5625
▁සීතා	-12.5626
▁කාසාවං	-12.5627
▁මෙථුනා	-12.5628
77	-12.5629
▁ඔපන	-12.563
පභවා	-12.5632
▁එවමාදයො	-12.5632
හපර	-12.5633
ගහපති	-12.5634
▁තථාරූපො	-12.5636
▁අවො	-12.5636
▁උපාසකෙ	-12.5636
කාලිකං	-12.5637
▁1-4	-12.5639
▁පරිවාස	-12.5643
ධගුණ	-12.5643
පවිසන	-12.5644
පටිකූලෙ	-12.5644
▁රොද	-12.5645
▁සුණිසා	-12.5645
▁පනාහ	-12.5646
.7.	-12.5647
පයිං	-12.5649
▁ගතිම	-12.5649
ූපප	-12.5649
භරෙ	-12.565
▁භොජනීය	-12.5653
▁වජෙ	-12.5654
▁අභිනිවි	-12.5656
හාකාය	-12.5656
▁භාසතීති	-12.5656
ඛෙමං	-12.5659
▁ආවස	-12.566
විවරණ	-12.5662
නකස	-12.5662
▁අපනීත	-12.5662
දායී	-12.5663
▁සෙතච	-12.5664
▁සුජාත	-12.5665
ගලෙහි	-12.5669
▁සුඛවිහාර	-12.5671
▁වීසතිව	-12.5671
13	-12.5672
ඛවිපාක	-12.5673
සෙතී	-12.5673
▁සයිත	-12.5673
අනුස	-12.5673
කීළ	-12.5674
79	-12.5675
යානෙන	-12.5676
▁විවාදං	-12.5677
▁නාමරූපපරි	-12.5678
▁පරදාර	-12.5679
▁අදදිං	-12.568
විලාස	-12.5681
▁සොරච	-12.5681
ුරභිසම	-12.5682
▁ලොප	-12.5683
▁ජීවිකා	-12.5684
▁අනුවිච	-12.5685
ගුණානං	-12.5687
▁ගතාති	-12.5688
▁මාතුර	-12.5689
▁චාවුසො	-12.569
ථිඅවිගත	-12.5694
නපානං	-12.5698
මාරෙ	-12.57
▁කෙසසදිසො	-12.5702
ඡාව	-12.5705
රූහන	-12.5705
ලාව	-12.5706
▁7	-12.5711
10	-12.5711
පතිරූප	-12.5712
මාහරි	-12.5715
කුප	-12.5715
තපදානි	-12.5716
▁භණිස	-12.5716
වයතො	-12.5717
දතාය	-12.5718
තමපාපුණිං	-12.572
▁368.	-12.572
වාදසායතනානි	-12.5721
▁මහාවංසෙ	-12.5721
හීභාවෙන	-12.5722
ඤාතකරණෙන	-12.5723
ඨකථාචරියා	-12.5723
උසභ	-12.5724
▁යාචාමි	-12.5725
සභූ	-12.5725
තනියතා	-12.5726
▁සීලසමාධිප	-12.5726
▁නෙගමා	-12.5727
▁මානුසකං	-12.5728
▁දිවාවිහාරං	-12.5728
▁ආජානාමි	-12.5728
▁නානාදි	-12.5728
▁විනායකො	-12.5728
තරධාපෙ	-12.5729
▁රජන	-12.5731
චෙතෙසු	-12.5731
▁සමානාධිකරණ	-12.5732
නාගා	-12.5732
ඨාසවො	-12.5732
▁ඨානාචාවන	-12.5733
ගීසො	-12.5733
▁මධුරා	-12.5734
▁පවෙදිත	-12.5735
ජනකස	-12.5736
ගුලියො	-12.5736
යොව	-12.5737
ලොකා	-12.5739
බහෙතුකෙ	-12.5739
▁විචිනි	-12.574
▁අනුජානි	-12.574
▁සෙවාල	-12.5741
දීපනියා	-12.5743
සටා	-12.5743
හරෙ	-12.5743
▁විසදිස	-12.5743
හනෙන	-12.5746
ධාරී	-12.5746
යාසො	-12.5747
තියානි	-12.5748
ධාරිත	-12.5748
▁අපෙත	-12.5748
ගඵලානි	-12.5749
▁උළාරො	-12.5749
▁මනොමය	-12.575
ුපොසථ	-12.575
කාමතාය	-12.5755
පාකා	-12.5755
චුතං	-12.5756
▁අංසෙ	-12.5756
මණමෙව	-12.5756
ගණික	-12.5758
▁වායොධාතුයා	-12.5759
චයභාව	-12.5759
97	-12.5759
▁පරාය	-12.5759
▁භාවනීයො	-12.5761
▁පරියායං	-12.5762
සුඛෙන	-12.5765
තිංසෙ	-12.5765
▁විහරාමී	-12.5767
▁ගිහිස	-12.577
රමණීය	-12.5771
▁පාටලි	-12.5774
▁පයිරුපාසති	-12.5774
තෙවාසි	-12.5775
▁ඉමාසු	-12.5775
තීන	-12.5775
අනාදරියං	-12.5776
යංනූනාහ	-12.5776
▁භූමී	-12.5778
අධිප	-12.5779
▁කුසලාභිස	-12.5782
▁එසාති	-12.5782
බාදි	-12.5783
මාණවපු	-12.5783
ගරතො	-12.5783
▁චෙතොපරියඤාණෙන	-12.5785
▁නිරස්	-12.5788
ණියො	-12.5789
රාස	-12.579
▁ජීවකො	-12.579
▁පණීතභොජන	-12.579
▁මහිංස	-12.579
▁සිඛා	-12.5791
සදා	-12.5791
තසමා	-12.5791
ජාතියො	-12.5793
ළු	-12.5793
තරසහි	-12.5793
▁චාවෙ	-12.5795
▁පාපුණාතී	-12.5797
ලීයන	-12.5803
▁ඣානසම	-12.5803
ඡයා	-12.5804
▁ඉතරෙහි	-12.5804
චනීකඔකාස	-12.5805
ජාදීනං	-12.5807
ථලු	-12.5809
▁තීණීති	-12.5811
ඣානසමාධි	-12.5812
තකෙසු	-12.5814
කසාවො	-12.5815
ිකත්	-12.5816
නමෙවාති	-12.5818
හාවසෙන	-12.5821
▁ඛෙළ	-12.5822
▁ඔරු	-12.5822
▁තුර	-12.5824
▁රොහණ	-12.5826
අසුකස	-12.5828
දධාතු	-12.5834
▁අවිනි	-12.5835
සංවාස	-12.5836
දෙසකො	-12.5838
සිලොකධාතු	-12.5839
▁පීළෙ	-12.5839
▁විකාරො	-12.5841
නාමෙ	-12.5844
▁371.	-12.5848
▁375.	-12.5848
▁382.	-12.5848
▁369.	-12.5848
▁395.	-12.5848
▁නසහෙතුක	-12.5848
බූපධි	-12.5848
▁පරියාදියති	-12.5849
▁අපායෙ	-12.585
සෙවි	-12.5851
ධිවිධඤාණ	-12.5851
සයානං	-12.5852
පාණාතිපාතා	-12.5853
▁ආවාසිකො	-12.5853
▁උළු	-12.5854
පවාසා	-12.5855
▁ලොමහංසො	-12.5855
▁වනම	-12.5856
ඡිකරොතීති	-12.5856
ලොල	-12.586
තෙසුං	-12.5861
▁පුථුල	-12.5864
▁චාතු	-12.5864
94	-12.5865
ථවො	-12.5865
▁ආගුං	-12.5865
▁පරිභොගෙ	-12.5867
99	-12.5867
▁එකූන	-12.5868
▁භගවාපි	-12.587
පටිවෙධා	-12.5871
ඛතගාමි	-12.5872
ඛොපි	-12.5872
▁අරුණො	-12.5872
▁ජාර	-12.5874
▁පරිදෙවො	-12.5875
▁ඡායාය	-12.5875
▁පූරණ	-12.5877
තරිතරො	-12.5878
ලෙණ	-12.588
▁මමාති	-12.5881
▁නමාමි	-12.5881
▁අරියෙහි	-12.5882
තානා	-12.5883
ඨිතොති	-12.5883
▁ඨිතානි	-12.5883
නහෙතු	-12.5884
මවිනයො	-12.5885
කථින	-12.5886
▁පලාස	-12.5887
▁අතිමහ	-12.5889
▁ආසාළ	-12.589
▁සිලෙස	-12.589
▁අපරිසෙස	-12.5891
▁විභාවි	-12.5891
බිධෙන	-12.5897
පරිවට	-12.5898
චරිතො	-12.5898
▁මූසික	-12.5902
චොරො	-12.5904
▁අසොකො	-12.5904
▁ධනධ	-12.5905
▁කායගතා	-12.5906
ජලිකා	-12.5907
▁ඝත	-12.5909
▁අසාධාරණං	-12.591
▁නාගිත	-12.591
පරිභොගෙන	-12.5911
චතුස	-12.5913
▁පතිතො	-12.5913
ගුහා	-12.5914
▁මොඝ	-12.5915
ානුකම	-12.5915
▁අවහරි	-12.5915
අසුකො	-12.5918
▁කොකාලික	-12.5919
▁ඉරියාපථං	-12.5919
සෙවී	-12.5923
▁ථිරං	-12.5924
නිසීද	-12.5924
පුරිසෙහි	-12.5924
ඡතූ	-12.5927
ියමානං	-12.5927
▁නිගමනං	-12.5928
මචරියො	-12.5929
කුරු	-12.593
ගාරා	-12.5934
▁ඨපනං	-12.5935
තීරෙ	-12.5936
▁අසෙඛ	-12.5936
නාගො	-12.5938
ජායති	-12.5938
පිපාසා	-12.5939
ෙවෙත්	-12.594
මජාතං	-12.594
▁විජය	-12.5945
තරපද	-12.5945
ඡමංස	-12.5948
සභාවතාය	-12.5948
▁ටීකා	-12.595
▁දායාදා	-12.5953
▁ඉතිහ	-12.5953
විසම	-12.5953
කීළා	-12.5956
ඣතො	-12.5956
හීනං	-12.5957
ජෙථ	-12.5957
ධෙනාති	-12.5957
38	-12.5957
භවනෙ	-12.5958
▁දෙවාති	-12.5958
▁මරම	-12.5958
පකෙ	-12.5958
▁දිජො	-12.5958
▁ආවෙණික	-12.5959
සාගර	-12.596
ඛුභි	-12.596
කරණප	-12.5967
▁ජීවමාන	-12.5971
▁ඵාලෙ	-12.5972
▁රාසී	-12.5973
ඩෙසු	-12.5974
ථානු	-12.5975
ණුපාදානියං	-12.5978
▁394.	-12.5978
ඛාසහගතෙන	-12.5978
ථාවුසො	-12.5979
ලානෙ	-12.5979
▁ඉසිපතනෙ	-12.598
ඛාරනිරොධො	-12.598
පහොති	-12.598
▁අරූපා	-12.5981
චාසීසන	-12.5983
▁අගමි	-12.5984
චාරිකං	-12.5988
ිතානි	-12.5989
ඛණප	-12.5993
සරානං	-12.5993
භූමියා	-12.5994
ජකෙ	-12.5994
ඨගාමී	-12.5996
ඨායිනො	-12.5997
▁මාරබ	-12.5998
චකො	-12.5999
ණොපි	-12.6
කපාල	-12.6
ගහන	-12.6001
ාරොහ	-12.6002
බෙධභාගියං	-12.6003
▁මහාථෙරා	-12.6004
▁උපචාරෙ	-12.6006
▁විමලො	-12.6008
වෙඨන	-12.6009
චාවචා	-12.6009
මකතො	-12.6009
▁මහාවනං	-12.601
මචාරිං	-12.6011
▁රතනානං	-12.6011
කොසක	-12.6013
බකෙහි	-12.6016
ධවො	-12.6017
▁හදයව	-12.6018
හිතාය	-12.6019
චායික	-12.6019
ඤායමාන	-12.6019
▁ජාලං	-12.602
▁තෙනාපි	-12.602
▁ඵරුස	-12.602
▁පරියාපුණන	-12.602
ුළ	-12.602
ඔවාද	-12.602
රොධෙ	-12.6021
වාරාදීසු	-12.6022
▁අජාතං	-12.6023
▁කථිතාති	-12.6026
▁අපෙති	-12.6027
දසමං	-12.6027
▁සමාධිප	-12.6027
▁ඤාණවත	-12.6027
බාභි	-12.6029
යානුප	-12.6029
ඤාණී	-12.6031
භාවිතා	-12.6032
චයභාවතො	-12.6033
▁පිලි	-12.6035
ණාන	-12.6036
▁ජිනසාසන	-12.6036
▁සංවරණෙ	-12.6038
▁මහානාමො	-12.6039
▁භමර	-12.604
▁ණිකො	-12.6041
▁සමථානං	-12.6041
▁මොඝපුරිසා	-12.6044
නාමෙති	-12.6044
පරමත	-12.6047
▁පෙතලොක	-12.6048
▁භෙදතො	-12.605
▁බාලෙ	-12.6052
මකත	-12.6053
ඨානභූතං	-12.6055
▁සියු	-12.6056
▁වසො	-12.6061
.8.	-12.6062
පායානි	-12.6065
ඣගතො	-12.6066
සිල	-12.6067
▁විහරථ	-12.6067
▁දුකං	-12.6068
▁නභෙ	-12.6069
▁අභිජානන	-12.6073
▁අසුභෙ	-12.6074
▁එකරස	-12.6078
▁කිලමන	-12.608
භාසී	-12.6081
▁චෙතොපරි	-12.6082
මිංසු	-12.6082
සීතල	-12.6083
▁අමූලකෙන	-12.6084
▁වදෙහි	-12.6085
ඡායාය	-12.6087
▁කාමරාගස	-12.6088
හනත්	-12.6088
භිදාය	-12.6089
▁මණිම	-12.609
පටිපීළන	-12.609
ලියො	-12.6091
සමාසෙ	-12.6091
තාපසො	-12.6092
සෙසා	-12.6092
▁මුසල	-12.6094
නාමරූප	-12.6095
තනිකායෙ	-12.6096
වාදීනං	-12.6096
▁නෙස	-12.6097
ථරාපෙත	-12.6099
ඛයෙන	-12.61
▁සාතිසය	-12.61
තෙපුරෙ	-12.6101
කුසලමූලෙන	-12.6102
ජමානෙපි	-12.6103
▁අසාත	-12.6105
ගුලිමාල	-12.6106
පාදිතං	-12.6108
▁378.	-12.6109
▁කලියුගෙ	-12.6109
▁373.	-12.6109
▁මහාමුනෙ	-12.6109
▁සුසු	-12.6109
▁විමතිවිනොදනියං	-12.6111
▁අනුභාවො	-12.6112
▁ආබාධිකො	-12.6112
ථාරිතා	-12.6112
▁මුදූ	-12.6112
ඛරතාය	-12.6112
විහාරෙන	-12.6112
පචාලකං	-12.6113
ධානුසාරී	-12.6113
ගසංව	-12.6113
පාරං	-12.6114
ඤීවාදා	-12.6115
රූපෙසු	-12.6115
▁කාහාමි	-12.6115
▁පළාසො	-12.6116
▁අරු	-12.6116
තපරිසාය	-12.6116
▁දීපෙතුං	-12.612
ථෙකච	-12.612
▁සුසමාහිතො	-12.612
යකෙ	-12.6121
▁මාදිසො	-12.6121
ධරි	-12.6122
මසති	-12.6125
▁සංයොජනියා	-12.6127
▁සාමණෙරානං	-12.6128
ූපස	-12.6128
96	-12.6128
ඤිතො	-12.6129
යූහො	-12.6129
හීනා	-12.6129
▁රථා	-12.613
දවසෙන	-12.6131
▁උපචිත	-12.6131
තෙජො	-12.6132
▁බහුකෙ	-12.6132
ඨිවිස	-12.6133
ඛමසුඛ	-12.6134
ථෙරොපි	-12.6135
▁කතමෙන	-12.6135
යොජෙත	-12.6136
▁අභිමුඛ	-12.6137
දෙසක	-12.6141
▁වෙත්	-12.6141
▁ගාමූපචාර	-12.6142
▁රුචිර	-12.6142
දිනී	-12.6146
▁ධාරණෙ	-12.6148
මානීති	-12.6148
දීපනං	-12.6149
චෙපි	-12.6149
ානුරූපෙන	-12.6149
හමාන	-12.6151
කවාළස	-12.6152
බාළ	-12.6152
කීළිත	-12.6152
සූරො	-12.6153
පවසෙන	-12.6154
නිල	-12.6156
▁හරාය	-12.6156
ාභිභූතො	-12.6157
▁අනාදරෙ	-12.6158
▁පාපභ	-12.6158
▁සීහබ	-12.6158
ඣමානො	-12.616
▁තථාගතානං	-12.6163
▁පාසාදස	-12.6166
තිවාර	-12.6167
පවාසො	-12.6168
▁ඛණෙන	-12.6168
චතාවුසො	-12.6168
විභාගතො	-12.6172
කුකත	-12.6172
ඛණඤාණ	-12.6172
දයි	-12.6173
බවනං	-12.6174
පාදුකා	-12.6174
ාදිභාව	-12.6176
▁කාසිරාජ	-12.6176
▁සාධකං	-12.6176
▁නිරුප	-12.6177
ණවසෙන	-12.6177
▁තථෙවාති	-12.6177
ධකායො	-12.618
▁ඔතරණා	-12.6181
තාපරන	-12.6181
▁භවරාග	-12.6182
කසිණපරි	-12.6183
ඉදමෙව	-12.6187
අහමෙතං	-12.6187
කූටාගාර	-12.6187
▁රතනා	-12.6188
▁සුසණ	-12.6188
ජානී	-12.6188
▁පයොජෙ	-12.6189
ගතිකා	-12.6192
▁පවාරිතො	-12.6195
▁සරණදුක	-12.6195
▁සීතෙන	-12.6196
මපරිච	-12.6197
▁අනධිගතස	-12.6198
ූල	-12.6198
▁දීයති	-12.62
▁පීතිසුඛ	-12.6201
සිකසාටික	-12.6201
මධුරං	-12.6202
සාවනං	-12.6202
ාපෙක	-12.6202
▁සමාධිජං	-12.6203
චවාදී	-12.6203
රාජං	-12.6203
▁අධිවාසෙති	-12.6204
▁හිංසති	-12.6204
7	-12.6207
ථුසාසනෙ	-12.6208
තමෙන	-12.6209
යාණසම	-12.621
▁චතූසුපි	-12.621
පිලොතික	-12.621
හරා	-12.621
තකෙනෙව	-12.6211
▁නයෙහි	-12.6211
කසා	-12.6212
▁අගාරික	-12.6214
මංසලොහිත	-12.6215
ඩව	-12.6216
▁යොනිසොමනසිකාර	-12.6217
ධීයති	-12.6218
▁මිලා	-12.6218
මනුසාස	-12.6218
සලිල	-12.6219
▁සමණෙසු	-12.622
ඡනා	-12.6222
▁පුරිසාජ	-12.6223
▁පාණො	-12.6223
▁සහජාතාදි	-12.6225
▁උතුං	-12.6225
ධරණං	-12.6226
බභාවෙන	-12.6226
ධවිලෙපන	-12.6227
යාසත්	-12.6228
ලොකෙන	-12.6229
▁සූල	-12.623
▁තෙනාහං	-12.6231
දිර	-12.6234
▁පීතක	-12.6236
ඛනිරොධ	-12.6237
▁විසෙසා	-12.6237
▁ටෙ	-12.6238
▁වචනක්	-12.6239
අවිත	-12.624
මුදීරිතං	-12.624
▁412.	-12.6243
▁දිසොදිසං	-12.6243
▁408.	-12.6243
▁හුරං	-12.6243
▁සොභා	-12.6243
පථබ්	-12.6244
▁රජං	-12.6246
▁අනෙජො	-12.6247
▁පරිභොජනීයං	-12.6247
නමූලො	-12.6247
▁ජාතානි	-12.6247
ගාධිගම	-12.6248
කෙනෙව	-12.6249
ඛණාදි	-12.6249
▁භාතරං	-12.625
චතුප	-12.625
▁ආලොප	-12.625
▁ගණන	-12.625
▁රථිකා	-12.6251
▁සිඛාප	-12.6251
▁පිතරි	-12.6251
▁මාසං	-12.6251
වාරම	-12.6251
▁දායකා	-12.6252
▁තාවතිංසෙසු	-12.6253
ධිවිහාරිකො	-12.6253
ඡිකිරිය	-12.6253
▁මහාචෙතිය	-12.6254
▁අපරියොගාහ	-12.6256
චසිඛ	-12.6257
ඩජා	-12.6257
ාධිපත	-12.626
▁කිලෙසපරි	-12.6262
▁නාමෙස	-12.6263
▁කුසලාකුසලෙ	-12.6265
කාලස	-12.6265
▁කානනෙ	-12.6266
රීයතීති	-12.6266
පටිබාහන	-12.6267
▁අණුං	-12.6269
ණමානත	-12.6269
▁සියං	-12.6269
අනාගත	-12.6269
ථවිකප	-12.6269
පෙතොති	-12.6269
▁පූග	-12.6273
භරණ	-12.6274
වාදසහි	-12.6275
නරා	-12.6277
කාරතො	-12.6278
රාමී	-12.6278
කටාප	-12.628
පාපො	-12.6281
▁ජාතිසම	-12.6281
ානුයොග	-12.6281
▁පෙසො	-12.6281
▁විනයා	-12.6282
▁පරිපූරෙස	-12.6284
පරිභාවිතා	-12.6284
▁සුභො	-12.6285
නපරි	-12.6285
ඉධෙව	-12.6286
▁ධූමො	-12.6286
▁සුසානෙ	-12.6286
පුරෙජාත	-12.6288
▁පවරා	-12.6288
50	-12.6289
▁පුරාණචීවර	-12.629
තරාති	-12.6291
ඩනෙ	-12.6292
▁චෙතාප	-12.6292
93	-12.6295
▁චතුධාතු	-12.6296
කජාතකං	-12.6296
▁භමුක	-12.6296
ඨපාල	-12.6297
▁ආගතනයෙන	-12.6297
වචො	-12.6299
නොසි	-12.6299
බිසං	-12.63
රකො	-12.6301
ඨානරූප	-12.6302
▁දීඝෙ	-12.6303
▁භාසිතො	-12.6304
පටිකූලස	-12.6305
▁උජුගත	-12.6307
ගතියං	-12.6307
▁ගණී	-12.6308
සනුප	-12.6309
සාරණා	-12.6309
▁ලොකානු	-12.631
පරිම	-12.631
[...]
