<unk>	0
<s>	0
</s>	0
3	-2.19456
2	-2.70006
4	-2.97661
.	-3.2673
,	-3.39975
தி	-3.92258
ங்	-4.20563
க	-4.53032
ப	-4.65121
த	-4.65455
▁த	-4.72859
▁ப	-4.73211
▁‘‘	-4.73633
▁ச	-4.80883
தா	-4.91957
▁ந	-4.92331
’’	-4.99461
▁க	-4.99931
ா	-5.13339
;	-5.22891
தோ	-5.28558
ந்தி	-5.42634
▁வா	-5.42869
பா	-5.46869
▁பி	-5.48015
னங்	-5.49859
ஸ்ஸ	-5.5153
பே	-5.54063
ன	-5.5466
பி	-5.61642
க்க	-5.62509
ய	-5.66487
▁–	-5.71448
▁தே	-5.72082
▁	-5.76021
ோ	-5.77986
▁து	-5.82351
தே	-5.87174
வே	-5.88558
த்	-5.89006
▁ஹோதி	-6.00629
வ	-6.03398
ே	-6.05089
▁பன	-6.06872
ி	-6.06973
▁கோ	-6.08174
க்கு	-6.12546
கா	-6.13754
?	-6.14605
▁தி	-6.16108
ப்	-6.16687
▁பா	-6.17989
▁ஸப்	-6.18021
॰	-6.20384
▁தங்	-6.22088
▁தத்த	-6.26174
னி	-6.30414
னா	-6.30812
▁ஸோ	-6.33349
ஹி	-6.33565
தங்	-6.34796
கோ	-6.35076
ஸு	-6.35236
தப்	-6.37964
▁ஏவங்	-6.40663
ந்த	-6.4165
▁பு	-6.46035
▁த்	-6.49005
▁தா	-6.49647
▁நாம	-6.50053
தீ	-6.51025
▁கா	-6.53687
து	-6.57174
போ	-6.5992
’	-6.60461
-	-6.60484
கே	-6.61726
▁யதா	-6.61859
வா	-6.6209
▁ப்	-6.63613
▁தஸ்ஸ	-6.64951
யா	-6.65694
▁இத	-6.67117
▁அதி	-6.67144
▁அபி	-6.67888
ந்தே	-6.68372
யோ	-6.71444
▁ததா	-6.71448
▁ஹி	-6.73905
த்வா	-6.7489
ச்ச	-6.75387
ந்தோ	-6.75731
யங்	-6.79193
த்த	-6.79543
ட்டா	-6.81989
ம்மோ	-6.82908
ம்மா	-6.83356
ஞ்ச	-6.84646
ம்மங்	-6.86146
▁வுத்தங்	-6.88508
ந்தா	-6.9021
ட்டி	-6.91877
ட்ட	-6.92154
ஸ	-6.92502
க்	-6.9274
▁ஸத்	-6.9457
▁அத்தோ	-6.95933
▁அத	-7.01469
ஸி	-7.01573
ஸோ	-7.02983
ரோ	-7.03138
ந்த்	-7.03158
கி	-7.03548
▁‘	-7.0449
▁மே	-7.04795
பூ	-7.09327
▁தேஸங்	-7.09648
▁உப்பஜ்ஜதி	-7.10779
▁படிச்ச	-7.11648
▁பச்சயோ	-7.12146
▁.	-7.15724
▁அயங்	-7.15841
னோ	-7.16503
▁நோ	-7.18264
▁நிப்	-7.20459
னே	-7.20615
த்தா	-7.2119
▁மக்	-7.21242
▁தேன	-7.21692
▁யோ	-7.22032
ரியங்	-7.22033
கங்	-7.22705
ம	-7.25471
▁ஸங்க	-7.25652
திஆதி	-7.26673
▁போ	-7.26697
▁யங்	-7.26737
▁ஏகங்	-7.27338
▁விய	-7.27892
வதோ	-7.28302
வோ	-7.31155
▁அத்த	-7.34651
க்கூ	-7.3477
▁பட	-7.35018
▁எத்த	-7.35305
வஸேன	-7.35692
ஸங்	-7.35881
ரங்	-7.3592
மி	-7.37602
▁ஆக	-7.37614
▁கத்வா	-7.37683
லங்	-7.37725
▁வேத	-7.38137
▁புப்	-7.40055
வண்ணனா	-7.40204
ர	-7.41433
▁,	-7.42117
ிட்டி	-7.42165
▁தஸ்மா	-7.42181
▁ஆஹ	-7.42396
▁அட்ட	-7.4434
▁தீணி	-7.44535
▁அப்	-7.44648
மங்	-7.44813
லோ	-7.45107
▁அ	-7.46844
ஸத்	-7.46927
▁வத	-7.47382
கதா	-7.47754
பு	-7.48223
ஸா	-7.4839
▁பஞ்ச	-7.48572
▁ஜா	-7.49302
▁ததோ	-7.50309
▁ஸுக	-7.50823
▁தீ	-7.51203
வங்	-7.52129
▁வேதி	-7.52634
ரா	-7.52746
▁கு	-7.52933
▁அத்தி	-7.53319
▁ஸா	-7.54126
▁ட	-7.54178
மா	-7.55337
▁ஸங்கா	-7.55516
ரே	-7.55971
ம்பி	-7.56925
▁பத	-7.57198
▁புக்	-7.59484
▁அத்தனோ	-7.60131
ட	-7.60176
▁யே	-7.60276
▁கி	-7.60592
ாதி	-7.61322
ீ	-7.61482
ல	-7.61819
ணே	-7.6266
▁கத	-7.63316
▁வுச்சதி	-7.63602
▁வத்து	-7.63756
▁ஸம்ப	-7.65512
தீதி	-7.65944
▁அக்	-7.65958
▁இ	-7.6601
▁யஸ்ஸ	-7.66756
த்தங்	-7.67095
▁உத்	-7.6748
ஜ்ஜ	-7.67696
ம்ம	-7.67838
▁தோ	-7.67892
▁சித்தங்	-7.68046
▁நத்தி	-7.6854
▁நவ	-7.7277
▁ஸத்த	-7.72796
▁ஸத்தா	-7.73152
ேன	-7.73747
▁பப்	-7.73846
கு	-7.74399
பத	-7.7444
யேவ	-7.74599
ு	-7.7485
த்தே	-7.75502
▁ஹொந்தி	-7.76393
ம்மஸ்ஸ	-7.76438
▁தஸ்மிங்	-7.77024
க்கி	-7.77808
▁உப	-7.77978
▁உத	-7.78214
ஹ	-7.78969
▁பூ	-7.79712
▁ஸ	-7.79896
ச	-7.80004
▁வத்தப்	-7.80197
▁இதி	-7.80716
▁டி	-7.81195
▁டா	-7.82855
வதா	-7.83484
ட்டே	-7.8427
▁ஏவ	-7.85495
மோ	-7.86478
ண்டி	-7.87649
ிந்த்	-7.8795
த்தோ	-7.88573
மேவ	-7.89208
▁ஹேதுபச்சயா	-7.89378
ண	-7.89776
ஸங்கா	-7.90091
மக்	-7.91036
ஸே	-7.92009
▁சேவ	-7.92466
▁ஸதி	-7.93461
▁அஜ்ஜ	-7.93469
ஜ்ஜா	-7.93844
ண்ட	-7.94358
ய்ய	-7.94808
தஸ்ஸ	-7.95356
▁கிங்	-7.95441
ஹங்	-7.95869
ம்ஹி	-7.96616
▁நிருஜ்ஜ	-7.96674
ெ	-7.97865
▁ஆபத்தி	-7.99281
▁ரூபங்	-7.99318
▁இதா	-8.00085
ஹெத்வா	-8.00569
▁மஹா	-8.01087
ணங்	-8.0148
▁யத்த	-8.02035
வேன	-8.02479
மே	-8.02649
ந	-8.02822
தாய	-8.02909
▁யா	-8.03666
வத்து	-8.03903
▁ஆமந்தா	-8.04149
பெத்வா	-8.04508
ஹே	-8.04703
▁ஹுத்வா	-8.06139
ஆதீ	-8.06759
னீ	-8.07085
ஸிக்கா	-8.07221
ந்த்வா	-8.0796
ம்மே	-8.0797
▁ஆதி	-8.08265
▁இமினா	-8.09364
துங்	-8.09513
ஸ்வா	-8.11356
லா	-8.11894
▁இமே	-8.12539
மாஹ	-8.12562
▁ஸந்தா	-8.1459
▁அபா	-8.15217
தேன	-8.1528
▁இமங்	-8.15708
▁ஹேது	-8.15808
▁ஸமன்னா	-8.15931
▁ராஜா	-8.16729
ங்க	-8.16992
ஸதி	-8.17095
▁சே	-8.17986
னந்தி	-8.18402
க்கா	-8.18646
▁அஹங்	-8.19417
▁விப	-8.19817
ஸஹக	-8.20067
▁மா	-8.20311
ஸ்மிங்	-8.2059
▁அஹோஸி	-8.20672
▁த்வங்	-8.2082
யே	-8.21193
னாதி	-8.21317
வக்	-8.21406
▁மங்	-8.21413
▁ஹோதீதி	-8.21437
ணா	-8.21701
▁யேன	-8.22385
▁ஸமாதி	-8.23454
▁உபா	-8.23595
▁நு	-8.2364
▁ஆவுஸோ	-8.23987
▁ஸியா	-8.24169
வி	-8.25772
ன்னங்	-8.26377
ஸங்க	-8.2703
▁கீ	-8.2706
▁தயோ	-8.27508
ஹாதப்	-8.27665
▁நஹேது	-8.28222
▁யதி	-8.29273
▁புன	-8.29303
▁ஏகோ	-8.3008
னஞ்ச	-8.30328
னேன	-8.30639
▁ஸசே	-8.30827
▁பச்சா	-8.31173
ட்டோ	-8.32098
▁பே	-8.33504
▁மம	-8.35125
▁பஞ்ஞா	-8.3513
▁அப	-8.35531
▁அக	-8.36632
▁படிக்	-8.36753
▁புச்ச	-8.36977
▁பச்சயா	-8.37146
லக்க	-8.37158
யதி	-8.38183
▁அத்	-8.38938
▁நித்	-8.39038
▁தாவ	-8.39521
கீ	-8.41052
▁ஆரப்	-8.41211
▁விஹரதி	-8.41489
▁தூ	-8.41801
அ	-8.41942
▁கே	-8.43156
▁மஹாராஜ	-8.43601
▁ஸுத்	-8.44209
▁இத்	-8.44451
▁சதுத்த	-8.44524
▁ஏதத	-8.44549
▁ஸுத்வா	-8.45047
▁சா	-8.45256
▁ஸஹ	-8.45451
▁உபெக்க	-8.45774
▁சத்தாரோ	-8.46525
▁யஸ்மா	-8.46758
னாய	-8.47456
யாதி	-8.4773
▁பச்சி	-8.47776
ஸ்ஸேதி	-8.48082
▁பொ	-8.48508
▁லோகே	-8.48673
▁கதங்	-8.49893
▁தேனாஹ	-8.50277
ரஸ்ஸ	-8.50335
தெ	-8.50617
▁திட்ட	-8.51479
▁1.	-8.52242
▁ஹத்த	-8.52564
▁இத்தி	-8.5269
▁யோஜனா	-8.52781
▁சத்தாரி	-8.52994
டி	-8.53381
த்தி	-8.53427
ஹோ	-8.53552
▁சி	-8.53992
துயா	-8.54042
▁ஸமயே	-8.54421
▁வத்வா	-8.54545
வந்தங்	-8.55165
ுச்சி	-8.5587
▁ஆனந்த	-8.56211
வாத	-8.56236
▁ஏதங்	-8.5627
▁வுட்ட	-8.56599
▁ஸிக்கா	-8.56834
லே	-8.57209
▁வுத்தா	-8.57954
▁தத	-8.58075
▁வட்டதி	-8.58397
▁கரோதி	-8.58426
வாதி	-8.58514
▁படிஸந்தி	-8.58989
▁விசிகிச்ச	-8.59004
▁லத்	-8.59394
ஜ	-8.59728
▁அத்தா	-8.59832
▁கதே	-8.60226
ரி	-8.60332
ட்	-8.60479
ஸுத்தங்	-8.60807
ச்சா	-8.61227
மீ	-8.61243
▁ஸஞ்ஞா	-8.61437
ஸ்ஸனேன	-8.6214
ஸ்ஸதி	-8.62183
ஸுத்தவண்ணனா	-8.62433
ரியா	-8.62543
ாதீ	-8.62706
▁கத்த	-8.63835
ஹு	-8.63983
▁ஏக	-8.64088
▁நயோ	-8.6424
னித்	-8.64342
▁ஸு	-8.64484
▁நிக்க	-8.64497
▁ஸம்மா	-8.64685
▁மயா	-8.64711
ந்து	-8.64775
▁கிஞ்சி	-8.64779
▁ஸமுட்ட	-8.64946
ஸீ	-8.6497
ேஹி	-8.65079
▁இமஸ்மிங்	-8.65335
ஸம்ப	-8.65539
சி	-8.65813
▁ஆயஸ்மா	-8.6582
வீ	-8.66183
ச்சி	-8.66289
▁சித்தஸமுட்ட	-8.6648
▁நிரோத	-8.67164
▁சாதி	-8.67543
▁ஹெட்ட	-8.67646
▁யாவ	-8.67812
▁2.	-8.68016
▁மய்ஹங்	-8.68212
▁கம்மங்	-8.68616
▁ராக	-8.68685
ன்ன	-8.68769
விதா	-8.68911
ம்மானங்	-8.69177
▁ரூப	-8.69253
ஸப்	-8.69503
னஸ்ஸ	-8.69555
புப்	-8.69641
▁பரங்	-8.70035
த்தீ	-8.70312
▁கிர	-8.70539
ம்ப	-8.70746
தூ	-8.70875
▁அன	-8.7151
யந்தி	-8.72285
▁அஞ்ஞங்	-8.72532
▁உப்பஜ்ஜிஸ்ஸதி	-8.7282
▁ஸந்த	-8.73138
▁கதமே	-8.73204
▁லப	-8.73586
▁நாக	-8.73616
ணோ	-8.74229
ரேன	-8.74556
▁ஸங்கே	-8.74597
▁மிச்சா	-8.74938
ந்தீ	-8.75011
னுஸயோ	-8.75119
பதே	-8.75558
▁உக்	-8.75638
▁வுத்தோ	-8.76159
▁இதோ	-8.76314
லஸ்ஸ	-8.7657
▁வித்தா	-8.76948
ஸபா	-8.77605
▁அஸ்ஸ	-8.77693
▁உப்பஜ்ஜந்தி	-8.77719
▁குஸலா	-8.77736
ஸிதங்	-8.77862
வனாய	-8.78014
▁வி	-8.7828
▁ஸாது	-8.78485
ூ	-8.78494
ஸ்ஸேதுங்	-8.78497
▁நிஸீதி	-8.78686
▁கதா	-8.79157
இத	-8.79444
▁இத்த	-8.79545
ன்னா	-8.79857
▁அனாக	-8.80182
▁சித்தஸ்ஸ	-8.80334
▁தஸ்ஸா	-8.80382
ந்தீதி	-8.80383
▁ருக்க	-8.80529
▁லக்க	-8.80757
▁ஹேதுயா	-8.80989
▁பரினிப்	-8.81494
ரியஞ்ச	-8.81569
தந்தி	-8.81882
ப்பாயோ	-8.81976
னதோ	-8.82143
பீ	-8.82404
▁லப்	-8.82561
▁;	-8.82615
மானோ	-8.82681
▁ஜானாதி	-8.82968
▁பத்த	-8.83065
▁உப்பஜ்ஜித்த	-8.83434
வந்தி	-8.83659
▁வசனங்	-8.83809
ஸனா	-8.84109
ரிய	-8.84182
▁ஸத்து	-8.84717
ானி	-8.84832
தத்தா	-8.8501
▁ஞாணங்	-8.85016
▁காமராக	-8.85027
ஸ்ஸெந்தோ	-8.8512
▁வஸேன	-8.85581
▁கதி	-8.86222
▁பட்டா	-8.86324
▁அனுபா	-8.86437
கேன	-8.8666
▁உதா	-8.86832
வதி	-8.86868
▁ஸங்கோ	-8.8695
ம்மேஸு	-8.86988
யதனங்	-8.873
▁கேசி	-8.87455
▁தண்ஹா	-8.88212
ஸ்ஸா	-8.88382
ரு	-8.8845
▁புரிஸ	-8.88627
ம்மேஹி	-8.8897
ஹீ	-8.89207
▁வட்	-8.89276
▁ஸாவத்தி	-8.89278
ஸேன	-8.89342
புக்	-8.89389
▁ரஞ்ஞோ	-8.89478
வத	-8.8957
டா	-8.89581
க்கடங்	-8.89974
▁விபா	-8.9018
▁ஸபா	-8.90195
விஸ்ஸதி	-8.90235
னேவ	-8.90483
▁ததே	-8.90531
▁ஹேவங்	-8.90826
▁இமா	-8.909
▁நேவ	-8.90951
ராஹ்மண	-8.91445
▁ஸச்சி	-8.91633
▁புது	-8.9265
▁உபட்ட	-8.93086
▁அதா	-8.93285
▁பீ	-8.93463
▁தேஸு	-8.93834
ேஸு	-8.93916
▁தெ	-8.93993
▁கஸ்மா	-8.94051
ஹிதா	-8.94242
ஸனங்	-8.94868
▁உப்பாத	-8.94921
வசனங்	-8.95134
▁அட்டா	-8.95472
▁இச்ச	-8.95779
ண்ஹாதி	-8.96553
▁விக	-8.96628
▁பிண்ட	-8.97359
▁ஸிக்க	-8.97364
மஸ்ஸ	-8.97384
னியா	-8.97668
▁ஸுத	-8.9771
▁ஸமுத	-8.97826
▁ஸெய்ய	-8.98448
கஸ்ஸ	-8.98524
▁3.	-8.98555
ங்ஸு	-8.98757
▁அனு	-8.99005
▁புரிஸோ	-8.99066
தானங்	-8.99161
வோச	-8.99213
▁ஸந்தி	-8.99302
ஞ்ஞா	-8.99528
னானி	-8.99666
னியோ	-8.99831
▁வுத்த	-9.00025
யதா	-9.00349
▁சக்கா	-9.00814
▁ஸமயேன	-9.01062
வனா	-9.01154
ராஹ்மணோ	-9.01154
ந்திஆ	-9.01156
வேத	-9.01192
▁ஏஸ	-9.01355
ரதோ	-9.01632
▁4.	-9.01663
▁முக	-9.01721
▁‘‘‘	-9.01938
▁படிகா	-9.0213
▁அவிக	-9.02143
▁மஹாபூ	-9.02194
▁ஸேஸங்	-9.02256
▁சித்த	-9.02279
▁குஸலங்	-9.02501
▁நிக்	-9.02546
வித	-9.02573
▁வோ	-9.02714
▁அனுப	-9.02891
ந்தஸ்ஸ	-9.02987
பேதி	-9.03483
ஸந்தி	-9.03678
தோதி	-9.03788
▁உபஸங்கமித்வா	-9.04325
▁ரக்க	-9.04333
▁அகா	-9.04365
▁அந்தோ	-9.04757
வஸ்ஸ	-9.05011
▁கம்ம	-9.05073
ுச்சா	-9.05234
▁அஸங்க	-9.05236
டோ	-9.05388
காலே	-9.05441
▁தானி	-9.05455
▁ஏவமேவ	-9.05492
ஜா	-9.0566
க்கே	-9.05854
ங்கா	-9.05981
▁கோசி	-9.06247
▁ஹோதீ	-9.06598
னக	-9.06706
ஸமங்	-9.06813
ஸ்ஸனங்	-9.06828
னீதி	-9.06923
▁வுத்தே	-9.07383
ண்டா	-9.07479
▁7.	-9.07587
▁வ	-9.07741
▁ஏஸேவ	-9.0789
▁ஸந்திகே	-9.08232
▁நிஸ்ஸாய	-9.08356
▁ஆரம்மணே	-9.08358
ம்மதே	-9.084
▁பஸ்ஸதி	-9.08458
▁தேஹி	-9.08507
யி	-9.08696
▁ஆதா	-9.0893
▁அகுஸலா	-9.0933
அயங்	-9.09727
▁5.	-9.09877
▁ஜீவித	-9.10012
தானி	-9.10041
▁யதோ	-9.10045
தியங்	-9.10085
▁அனாபத்தி	-9.10197
▁அத்தே	-9.10388
காரோ	-9.10406
▁உபோஸத	-9.10643
▁ஏகமந்தங்	-9.10863
▁உபக	-9.10882
▁அத்தனா	-9.11118
▁பதிட்டா	-9.11138
▁ஸக்கா	-9.11325
▁பரிபு	-9.11379
▁தாதி	-9.11434
ஏவங்	-9.11481
▁வதா	-9.11554
கரணங்	-9.11775
ஹித்	-9.11858
ஆதி	-9.11978
▁இமஸ்ஸ	-9.12791
▁6.	-9.12923
மானங்	-9.12933
▁உபரி	-9.13373
▁படி	-9.13839
ஹேது	-9.13998
ஸ்ஸந்தி	-9.14383
மனங்	-9.15195
▁பச்சவெக்க	-9.15348
▁அத்தானங்	-9.15401
▁நானா	-9.15702
▁நாபி	-9.15799
▁அந்த	-9.16
▁ஸயங்	-9.16068
னாதீ	-9.16354
ானங்	-9.16482
கானங்	-9.16727
ஸ்ஸோ	-9.16747
ஹா	-9.16752
▁வினா	-9.16769
▁ஜாதி	-9.16996
ரீ	-9.17348
▁அதோ	-9.1747
▁ஸெட்ட	-9.18328
▁பஞ்ஞத்தங்	-9.18694
ம்பீ	-9.18873
▁சீவரங்	-9.18907
ஸுக	-9.19724
▁ஸுகா	-9.19855
ஞ்சேவ	-9.20128
மதி	-9.20172
▁மயங்	-9.20226
யீ	-9.20241
▁விஞ்ஞாணங்	-9.20273
▁எத்தா	-9.20392
▁தத்ர	-9.2048
ஸ்ஸாதி	-9.20605
▁இமேஹி	-9.21084
▁8.	-9.21163
ஸீதி	-9.21344
▁ஏதே	-9.21348
ன்னோ	-9.21396
அத்தி	-9.21418
▁ஏகா	-9.21427
▁ஸக்	-9.22436
▁இமானி	-9.22491
▁9.	-9.22574
▁நிக	-9.22582
காய	-9.2262
ஸுபி	-9.22826
▁அங்க	-9.22925
கம்மங்	-9.23542
▁10.	-9.23891
லேன	-9.23893
னவஸேன	-9.24021
▁கொ	-9.24201
▁பஞ்ஞாய	-9.24984
▁பாத	-9.25069
வயங்	-9.25092
ஸ்ஸெத்வா	-9.25176
▁விதி	-9.25184
▁ஏகாத	-9.25603
▁ஞத்வா	-9.25877
வஸே	-9.26002
▁ஸாஸனங்	-9.26123
வின்னங்	-9.26598
▁சேதனா	-9.26601
▁பஜானாதி	-9.26787
▁அது	-9.26862
▁நயேன	-9.26945
▁வத்த	-9.26962
▁பீதி	-9.27011
▁பக்	-9.27092
னானங்	-9.27129
விதோ	-9.27175
மத்த	-9.27304
னு	-9.27328
▁ஸம்மாஸம்ப	-9.27414
விப	-9.27453
ம்ஹா	-9.27466
ஞ்ஹி	-9.27509
▁ஹத்தி	-9.27512
வாரே	-9.27709
ஸமுட்ட	-9.27785
▁ஆதீ	-9.2784
ஸெய்ய	-9.28286
▁விஞ்ஞாண	-9.28462
ந்தங்	-9.28503
ஹிதங்	-9.28597
ம்மேன	-9.28817
▁உபபஜ்ஜந்தானங்	-9.29029
▁காயஸ்ஸ	-9.29127
▁ஏதமத்த	-9.29149
னிரோத	-9.29184
▁காலே	-9.29256
▁படிபதா	-9.29272
▁திஸ்ஸோ	-9.29274
▁விஸுத்	-9.29307
ஸம்பு	-9.29392
▁ஏவமா	-9.29493
ராஹ்மணா	-9.2973
பதியா	-9.30242
▁நி	-9.30316
ஸச்சங்	-9.30321
▁அச்ச	-9.30644
▁பதா	-9.3067
▁கதமோ	-9.30767
▁ஆரம்மணபச்சயேன	-9.30777
▁தத்தே	-9.3086
▁மனோ	-9.31185
▁பஹாய	-9.31256
▁யஸ்மிங்	-9.31443
▁ஆபஜ்ஜதி	-9.32033
▁சதூஹி	-9.32338
ச்சே	-9.3235
▁உட்ட	-9.32358
னுஸயஞ்ச	-9.32391
லி	-9.32403
▁மது	-9.32449
னேஸு	-9.32634
ரஸ	-9.32683
மானா	-9.32753
யேன	-9.32812
ஜித்வா	-9.33006
▁கதெ	-9.33016
▁கதமங்	-9.33036
▁ராஜ	-9.33185
கிங்	-9.33602
யாகதோ	-9.33655
▁மஜ்ஜி	-9.33743
▁ஸீல	-9.33794
▁உபஸம்பஜ்ஜ	-9.33863
▁கேனசி	-9.34031
▁பதே	-9.34035
யாகதா	-9.3406
▁உபோ	-9.34286
பித்வா	-9.34411
ரானங்	-9.34417
மண்ட	-9.34524
▁பாசித்தியங்	-9.3477
ஜனங்	-9.34963
க்கடஸ்ஸ	-9.35066
▁உபாதி	-9.35447
▁ஹத	-9.35537
ம்மத	-9.35631
ரித்வா	-9.35788
ரூபங்	-9.35955
▁குஸலோ	-9.35957
▁ஸதா	-9.36174
பீதி	-9.36298
▁வினிச்ச	-9.36399
மன	-9.36522
மேன	-9.36547
▁காதுங்	-9.36703
▁ஸீலங்	-9.36786
▁ஆ	-9.37268
▁காம	-9.37374
▁அஜ்ஜா	-9.37431
யோகே	-9.37543
▁தாய	-9.37838
▁உபனிஸ்ஸயபச்சயேன	-9.3801
பேஸி	-9.3801
னந்த	-9.38394
அதி	-9.38522
னம்பி	-9.38598
▁நிக்கி	-9.38607
▁புப்ப	-9.38652
▁தும்ஹே	-9.38671
▁ஆபத்தியோ	-9.38707
▁காரணங்	-9.39215
ஸ்ஸேவ	-9.39276
த்தேன	-9.39366
ப்ப	-9.39793
ஹூ	-9.39884
▁சதஸ்ஸோ	-9.39962
ள	-9.41008
னிப்	-9.41193
பப்	-9.41309
ண்டு	-9.41381
ஸத்தோ	-9.41521
▁தீஹி	-9.41651
ஸம்பொ	-9.41743
அஹங்	-9.41745
▁ரூபானங்	-9.41926
▁பரிப்	-9.41934
▁பரிக்	-9.41942
▁நிஸின்னோ	-9.42134
▁ஸம்பு	-9.42251
▁பனெத்த	-9.42289
ரகா	-9.4234
முக	-9.4248
பச்சயேன	-9.4259
▁அனித	-9.42798
வேதி	-9.42932
ஹீதி	-9.43148
▁ஸம்முக	-9.43165
ஹித்வா	-9.43361
▁நிஸீத	-9.43426
▁உ	-9.43546
▁படிபா	-9.43638
ஹணங்	-9.43714
▁மஹக்	-9.43831
யஸ்ஸ	-9.44023
▁வே	-9.44056
▁அம்ஹாகங்	-9.4409
ஜங்	-9.44181
னுபா	-9.44277
▁தேனேவ	-9.44291
▁மனுஸ்ஸா	-9.44292
▁ஏதேன	-9.44344
ஸிதா	-9.44357
பச்சயா	-9.44388
▁அனாகா	-9.44401
▁பாதிமொக்க	-9.44485
▁நனு	-9.4459
▁ஞாண	-9.44643
▁ஸாரிபுத்த	-9.4467
ரக்க	-9.44704
வத்தா	-9.44708
தம	-9.4501
▁லோகோ	-9.45066
▁ஸுப	-9.45067
னுஸயேன	-9.45068
ஹபதி	-9.45271
▁தவ	-9.45529
▁அவிஜ்ஜா	-9.45702
▁வக்	-9.45761
லானி	-9.45854
ய்ஹ	-9.4599
ரண	-9.46143
பரிச்சே	-9.46236
▁ஸமோ	-9.4626
▁சதுன்னங்	-9.46267
▁ததியங்	-9.46391
▁விஸ்ஸஜ்ஜனா	-9.46399
▁ஸங்கி	-9.47049
▁கரொந்தி	-9.47097
கார	-9.47102
ரணங்	-9.47157
ஸத்த	-9.47239
ஸஞ்ஞா	-9.47248
▁பஞ்சஹி	-9.47446
▁தீஸு	-9.47579
▁அம்ப	-9.47947
மத்தங்	-9.47955
ஸாதி	-9.48015
ஸஸ்ஸ	-9.48055
ருங்	-9.48131
ஸ்ஸனஸப்படிக	-9.48133
▁வாசாய	-9.48392
▁மிக	-9.48477
▁சோத	-9.48595
▁நாமங்	-9.48664
ச்செ	-9.48741
▁ஸத்தானங்	-9.48742
மஹா	-9.49023
▁பது	-9.491
வத்த	-9.49152
▁அக்க	-9.49266
ரூப	-9.4933
ஸ்ஸு	-9.49681
’’’	-9.49798
னாக்க	-9.49809
ஹுலா	-9.50125
▁காயேன	-9.50192
வீஹி	-9.50336
டெ	-9.50469
▁சதூஸு	-9.50583
▁ஸம	-9.50614
▁ஸக	-9.50634
▁கதமா	-9.50952
▁நிஸ்ஸக்	-9.51041
▁வுத்தத்தா	-9.51045
சித்த	-9.51475
▁சபரங்	-9.51554
அபி	-9.51712
▁பத்தோ	-9.51792
ங்கே	-9.51843
புன	-9.51848
▁இச்சாதி	-9.51981
▁ஸம்மாதி	-9.52001
▁யக்க	-9.52117
விபா	-9.52141
▁யோஜேத	-9.52186
▁அரஹத்தங்	-9.52229
ட்டு	-9.52424
▁ஏகேன	-9.53022
ஸப	-9.5311
தேஸு	-9.53522
▁பாதே	-9.53643
▁வுத்தனயேனேவ	-9.53744
▁வுத்	-9.53927
தேஹி	-9.53979
▁அஞ்ஞத்ர	-9.54029
▁அவ	-9.5449
▁ஸித்	-9.54659
▁கேவலங்	-9.54946
▁அனாத	-9.55412
▁அகுஸலங்	-9.55525
▁ஆரத்	-9.55762
னத்தா	-9.56114
▁உப்பன்னங்	-9.56209
தமோ	-9.56281
மு	-9.56314
▁ஸம்பா	-9.56432
ராஜா	-9.56552
▁அஞ்ஞோ	-9.56627
டே	-9.56855
▁கப்பே	-9.5686
▁இச்சா	-9.5691
▁மஜ்ஜே	-9.57048
ஞ்ஞ	-9.57438
ங்கி	-9.57511
▁அஸ்ஸா	-9.57565
▁பர	-9.57652
▁லபி	-9.57943
யித்வா	-9.57945
வீஸு	-9.57988
▁பஞ்ஞ	-9.57999
ருக்க	-9.58014
னிதா	-9.58129
▁வுத்தந்தி	-9.58134
▁கேன	-9.5816
கானி	-9.58224
▁அரஹதோ	-9.58233
ரத	-9.58356
▁பரிஸுத்	-9.58768
முகே	-9.58847
▁ஏகதோ	-9.59263
▁தஸ்ஸேவ	-9.59311
▁காலங்	-9.59839
ரியே	-9.59844
வாதீ	-9.59895
ாபி	-9.59953
▁உப்பஜ்ஜதீதி	-9.60024
யாகதங்	-9.60073
▁ஸுத்தங்	-9.60128
▁ஸுகு	-9.6026
▁விஸுங்	-9.60346
▁ஸுதங்	-9.60371
▁விஸ	-9.60431
ஸ்ஸனத்த	-9.60538
▁இமேஸங்	-9.60583
▁மரணா	-9.60733
ன்னுபா	-9.60863
ணேன	-9.61371
▁திண்ணங்	-9.61431
வெய்ய	-9.61521
▁மச்ச	-9.61553
வஸங்	-9.61587
ட்டீ	-9.61649
▁கம்மே	-9.61676
பாத	-9.6193
உப	-9.62154
லானங்	-9.62313
ரந்தி	-9.6238
▁ஹேதுபச்சயேன	-9.62392
ஜன	-9.62622
ஸூதி	-9.62628
தியோ	-9.62646
▁நஹேதுபச்சயா	-9.62708
▁பாளியங்	-9.63031
▁பரஸ்ஸ	-9.63206
▁ஸதோ	-9.63379
▁லாப	-9.63479
னத்த	-9.63558
யாபாத	-9.63597
ஸித்	-9.63878
▁பணமாம்யஹங்	-9.6388
▁மோஹோ	-9.63909
▁ஸுட்டு	-9.63929
▁தஞ்ச	-9.63982
▁விஜ்ஜதி	-9.64069
ஸாய	-9.64241
▁விபாகோ	-9.64254
▁அங்கா	-9.64356
▁சீவர	-9.64799
யதீதி	-9.65073
▁இதே	-9.65092
▁செத்த	-9.65183
வுத்த	-9.65264
▁அவஸேஸா	-9.65373
▁ஆப	-9.65516
▁அனத்த	-9.65518
த்துங்	-9.6576
ஸ்ஸாமி	-9.65985
கம்ம	-9.6603
▁ஓவாத	-9.66154
▁அயம்பி	-9.66188
ெத்த	-9.66596
வனங்	-9.66656
▁ஸரணங்	-9.66764
▁சதுப்	-9.66802
ஸந்த	-9.66864
பஞ்ஞா	-9.66865
▁புரே	-9.66898
ஸம	-9.66982
▁நிதா	-9.6699
மீதி	-9.67015
மாய	-9.67094
▁ஆசிக்க	-9.6721
ஸவண்ணனா	-9.67218
ரேஹி	-9.67318
னேஹி	-9.67514
▁கரொந்தோ	-9.67549
அட்ட	-9.67565
▁காய	-9.67569
ராகோ	-9.6796
▁அந்தரா	-9.67979
▁லோக	-9.68049
▁ஆபத்திங்	-9.68145
▁ஆஸி	-9.68302
▁ம	-9.68362
▁லோகங்	-9.68565
ரதி	-9.68846
மாதி	-9.691
வாரோ	-9.69135
▁ததிய	-9.69262
▁விபஸ்ஸனா	-9.69277
▁அஹேஸுங்	-9.69496
▁பஞ்ஞத்தி	-9.69504
அவிக	-9.69516
▁மஜ்ஜ	-9.69521
▁கஸ்ஸசி	-9.69659
ரியானி	-9.69794
▁ராஜக	-9.69879
▁வுச்சந்தி	-9.69935
▁உக்கி	-9.69947
▁தேனுபஸங்கமி	-9.69988
▁உபல	-9.69994
▁நிச்ச	-9.70062
தியா	-9.70184
▁ஓபா	-9.70393
▁பவத்தி	-9.70562
▁அட்டி	-9.70698
ஜாதே	-9.70769
யதோ	-9.70912
▁பத்வா	-9.70926
▁வதெ	-9.7108
▁ஸங்க்	-9.71361
தஞ்ச	-9.71549
▁பரிச்சே	-9.71776
தூஹி	-9.71871
▁அஞ்ஞே	-9.71955
▁அட்	-9.71988
ஹித	-9.72018
வானங்	-9.72202
▁காயோ	-9.72205
▁பதிட்ட	-9.7225
▁விஜ்ஜா	-9.7246
▁அஞ்ஞ	-9.72578
ஸத்தா	-9.72664
▁வந்தி	-9.72911
▁அப்ப	-9.73019
▁அனந்தரபச்சயேன	-9.73111
▁தாஸங்	-9.73128
▁வதே	-9.7322
▁ரட்ட	-9.73366
▁ஸச்சங்	-9.73376
▁ஜ	-9.73609
▁திவித	-9.73693
▁பஸாத	-9.73744
▁ஸமத	-9.73758
▁நஅ	-9.73977
னீயங்	-9.74002
▁அத்தபா	-9.74156
பேதப்	-9.74254
▁அரஹத்த	-9.74311
▁ஏதஸ்ஸ	-9.74604
ங்கோ	-9.74624
▁லோபோ	-9.74802
▁மாதா	-9.74815
ஆரம்மணே	-9.75018
விஸுத்	-9.75054
மனஸ்ஸ	-9.75219
தத்த	-9.75318
பெக்க	-9.75324
துயோ	-9.75339
▁மனஸி	-9.75411
கேஹி	-9.7542
▁ஸாஸனே	-9.75616
லீ	-9.75643
மிங்	-9.7567
▁அரிய	-9.75697
▁யேஸங்	-9.75742
▁உப்	-9.75846
▁புத்தோ	-9.7586
காரங்	-9.75973
ஹந்தி	-9.75977
ெக்க	-9.76023
னியங்	-9.76024
▁நேஸங்	-9.76084
▁ஸமணோ	-9.76084
ந்தானங்	-9.76099
ஸ்ஸன	-9.76127
ஆ	-9.76145
ராதி	-9.76185
ஜே	-9.76208
▁ஸதே	-9.76288
னுஸயங்	-9.76591
▁புனப்புனங்	-9.76599
ரஹ்மசரியங்	-9.76654
▁நிட்ட	-9.76667
ந்தப்	-9.76691
வினிச்ச	-9.76713
ஞ்ஞங்	-9.76886
மஸுக	-9.76943
ராக	-9.77026
ஸேதி	-9.77119
▁சித்தேன	-9.7723
▁கிலேஸ	-9.77243
▁லிங்க	-9.77283
மக	-9.77728
ஞ்ஜ	-9.77789
மித	-9.77905
▁பரி	-9.77979
▁ஸந்தோ	-9.78088
ஹுங்	-9.783
▁அகுஸலோ	-9.78407
▁தத்தா	-9.78411
▁பச்சய	-9.78455
▁அஞ்ஞமஞ்ஞங்	-9.78488
ரத்	-9.78514
▁விஸேஸோ	-9.78552
சித்தோ	-9.78665
▁மத்த	-9.78682
விதே	-9.78691
▁பரேஸங்	-9.78943
▁அஸ	-9.78968
▁திரச்சா	-9.78969
ஸூ	-9.7897
ஸத	-9.78979
ஸஞ்ஞீ	-9.79042
யமானோ	-9.79189
வட்	-9.79311
▁மத்	-9.79397
▁புரிமா	-9.79401
▁ய	-9.79497
▁ஸம்போ	-9.79545
▁ஸமுத்	-9.79663
▁விமொக்க	-9.79664
ஹதி	-9.79677
▁மனி	-9.79772
▁மண்ட	-9.79805
ஜ்ஜி	-9.80337
▁ஜாதோ	-9.80361
அத	-9.80491
ஜனே	-9.80505
படிஸம்	-9.80542
▁ரஜ்ஜங்	-9.80551
ஹணேன	-9.80579
▁கிஸ்மிங்	-9.8061
▁காரணேன	-9.80616
மதோ	-9.80769
ந்தேன	-9.81009
▁மந்த	-9.81015
▁ஸகா	-9.81033
▁அகாஸி	-9.81108
ஞ்ஜி	-9.81118
ன்னே	-9.81159
▁கெ	-9.81272
▁ஸமாக	-9.81377
இதி	-9.81447
▁விராக	-9.81494
ஸ்ஸதீதி	-9.81508
▁வீரியங்	-9.81586
▁அஹு	-9.81693
▁ஆரோசேஸுங்	-9.81794
ய்யங்	-9.81804
▁ஸெக்க	-9.81845
▁ஸோளஸ	-9.81949
ஜி	-9.81982
ந்தரே	-9.8215
▁ஆயஸ்மந்தங்	-9.82152
▁ஸுந்த	-9.8226
யஞ்ச	-9.8227
வாய	-9.82271
கரண	-9.82397
ஹண	-9.82407
ண்டோ	-9.82491
▁ஆயஸ்மதோ	-9.82492
▁அங்கு	-9.82588
▁வீரிய	-9.82595
ஸசே	-9.82619
▁ஸமானோ	-9.82629
▁விவாத	-9.82633
மஜ்ஜா	-9.8264
▁பரமத்த	-9.82642
▁முது	-9.82791
மேதங்	-9.82833
ய்யோ	-9.82938
▁ஜீவிதங்	-9.82944
ரஅப	-9.82959
▁பரிஜானாதி	-9.82974
▁பஞ்சன்னங்	-9.83068
▁ஸதிப	-9.83143
▁முனி	-9.83156
▁ஓ	-9.83317
▁பாசித்தியஸ்ஸ	-9.83366
▁ஏஸா	-9.8338
▁ஹொந்தீதி	-9.83386
அத்த	-9.8339
▁சந்த	-9.83462
▁சேதஸா	-9.83703
▁ஏகஸ்மிங்	-9.83727
ெய்ய	-9.83842
ுபாதா	-9.83876
விபாக	-9.83921
ரதா	-9.8397
மப	-9.83971
▁ஸாதி	-9.84102
▁உப்பாதே	-9.84196
னமேவ	-9.84236
▁ஸுபா	-9.84409
▁ஏஸோ	-9.84501
வண்ண	-9.846
▁அரஹா	-9.8483
ரக	-9.85032
த்வான	-9.8504
▁ஸங்ஸட்ட	-9.85041
▁ஆரம்மணங்	-9.85077
▁வித	-9.85106
▁ஆபா	-9.85152
லு	-9.85228
▁ஸோபி	-9.8532
விதூ	-9.85378
▁நிச்சங்	-9.85391
பிதா	-9.85403
மான	-9.85512
▁ஸக்கோ	-9.85516
ம்மதா	-9.85557
▁ஜனபத	-9.85616
▁அபிச	-9.85725
▁ஸேஸ	-9.85984
▁நித	-9.86122
ஸெட்ட	-9.86196
▁ஆபோ	-9.86296
லிங்க	-9.86351
த்தஸ்ஸ	-9.86399
▁அஞ்ஞதா	-9.86428
ஸமனந்தரே	-9.86585
வேஸு	-9.86721
ஜாதகங்	-9.86853
▁ஆஹரித்வா	-9.87061
▁பரே	-9.87075
ணி	-9.87107
▁ஸக்கோதி	-9.87279
▁ஸோதாபத்திப	-9.87308
மிச்சா	-9.87573
ஸமுத்	-9.87608
▁தயா	-9.87655
ஸங்கே	-9.87839
▁மூல	-9.87953
▁வக்க	-9.87967
▁ரூபதா	-9.88036
▁ஸமத்தா	-9.88187
▁காயே	-9.88205
மத	-9.8822
பதிபச்சயேன	-9.88278
ஸனாய	-9.88396
மேவாதி	-9.88414
வராகா	-9.88426
▁பஞ்ஹங்	-9.88555
▁ஜேதவனே	-9.88581
▁அஸதி	-9.88631
▁மாதுகா	-9.88672
ஸம்பி	-9.88744
▁சது	-9.88801
யத்த	-9.88884
▁நோவிக	-9.88953
▁ஸமாத	-9.89039
ஸமாதி	-9.89054
மியங்	-9.89091
1.	-9.89119
வோதி	-9.89264
▁விஹரந்தோ	-9.89305
சித்தங்	-9.89498
▁ஸந்திகங்	-9.8954
மஜ்ஜ	-9.89666
வித்வா	-9.89912
▁ஆஸவா	-9.89952
▁நுப்பஜ்ஜதி	-9.90031
▁அஞ்ஞதரோ	-9.90194
▁ரூபாயதனங்	-9.90287
இ	-9.90296
▁நபச்சா	-9.90339
மனஸ்ஸங்	-9.90351
▁காமதா	-9.90394
▁வந்த	-9.90405
ொ	-9.90415
▁யத	-9.90453
ஸதோ	-9.90506
▁ஸமங்	-9.90527
ஸ்ஸாமீ	-9.90641
▁ஏகச்சோ	-9.90646
▁ரத	-9.90715
துகாமோ	-9.90737
▁வசனதோ	-9.90773
ண்டே	-9.90846
ஸிங்	-9.90857
▁பஞ்சமங்	-9.91
▁11.	-9.91008
▁கால	-9.91083
▁ஸமணப்	-9.91096
கூ	-9.91103
▁ஸத	-9.91153
▁காயஸங்கா	-9.9118
பஞ்ச	-9.91196
▁காயங்	-9.91308
ஸ்ஸனஅப்படிக	-9.91418
▁விப்பயுத்தபச்சய	-9.91433
▁ஸி	-9.91436
▁மேது	-9.91456
▁வவத்த	-9.91525
▁சவந்தானங்	-9.91568
னாக	-9.9157
வஸேனேவ	-9.91842
▁கரெய்ய	-9.91987
விக	-9.92007
▁பாஸாத	-9.92028
▁எத்தாவதா	-9.92131
வங்க	-9.92148
▁வட்டதீதி	-9.92246
ஹேதுகோ	-9.9243
ச்சாதி	-9.92608
▁லோப	-9.92632
க்கோ	-9.9266
▁பாளி	-9.92754
விங்	-9.92755
▁புஞ்ஞங்	-9.92762
மத்	-9.92832
▁ஏவமாஹ	-9.92866
▁வாசா	-9.92907
ஸமயோ	-9.93151
▁ஹோது	-9.93213
ஸ்மா	-9.93314
ரஹ்ம	-9.93482
▁வுத்தனயேன	-9.93537
படிக்	-9.93674
▁சித்தே	-9.93735
▁ஹேதூ	-9.9381
▁புரதோ	-9.93855
மொக்	-9.93927
▁ஸம்படிச்ச	-9.94294
▁பச்சக்க	-9.94361
▁கம்மபச்சயேன	-9.94386
▁ஸமயங்	-9.94406
னாபி	-9.9443
▁ஸம்பயுத்தகானங்	-9.94475
யத	-9.94504
▁பக்க	-9.94779
வத்தூ	-9.94803
▁பவத்த	-9.94875
ஹிதோ	-9.94878
▁ஸோப	-9.94883
▁க்	-9.94918
▁அஞ்ஞா	-9.94922
▁மனஸா	-9.94988
வனே	-9.95058
▁நாமாதி	-9.95098
ரியந்தி	-9.95134
▁இட்ட	-9.95191
▁ஸாத	-9.9524
ஜாதி	-9.95274
▁அஸ்ஸாதி	-9.95426
மித்வா	-9.95457
▁பரிதே	-9.95522
ஜோ	-9.9557
▁வுத்தஞ்ஹேதங்	-9.9559
வார	-9.9573
▁ஏவரூபங்	-9.95772
னபா	-9.95829
▁வண்ண	-9.9586
▁கொட்டா	-9.95884
ங்கு	-9.96004
ஜாதகவண்ணனா	-9.96051
▁யஞ்ச	-9.96108
ஸம்பா	-9.96111
ரணே	-9.96139
▁ஆபத்தியா	-9.9616
▁ஸுத்தே	-9.96238
▁தேரஸ	-9.9626
ரேஸு	-9.96339
▁பவத்தே	-9.96356
யானங்	-9.96361
▁தும்ஹாகங்	-9.96488
▁வண்ணோ	-9.965
▁துண்ஹீ	-9.96523
ரத்தங்	-9.96565
யத்தே	-9.966
▁ஸச்ச	-9.96602
ஸித்வா	-9.96791
விதப்	-9.96811
னத்தி	-9.96834
▁பனஸ்ஸ	-9.969
▁அதீதங்	-9.97034
▁ஸமக்	-9.97039
▁கிஸ்ஸ	-9.97077
ஞாண	-9.97123
▁ஸாதா	-9.97141
மனே	-9.97147
▁பத்தங்	-9.97214
▁பஜஹதி	-9.97313
▁நந்த	-9.9732
மாஸி	-9.97424
லாதி	-9.9743
▁புரிம	-9.9745
▁சாபி	-9.97513
ஜானாமி	-9.97549
வாதெ	-9.97627
▁அஸஞ்ஞஸத்தானங்	-9.97679
▁நாதி	-9.98012
▁ஸமாதா	-9.98233
▁உபஸம்பத	-9.98261
▁தமேவ	-9.98264
▁நவிப்பயுத்தே	-9.9843
▁ஸரீர	-9.9853
▁ஸோமனஸ்ஸ	-9.98598
விஸ்ஸதீ	-9.98654
▁ஸகதா	-9.98726
லாப	-9.9886
▁முஸாவாத	-9.98937
▁தது	-9.99034
ராஜ	-9.99044
▁கரோதீதி	-9.99158
ஞாணங்	-9.99391
வந்தோ	-9.99411
▁ஸம்ம	-9.99659
ரியோ	-9.99674
▁ஜெட்ட	-9.99687
த்தியா	-9.99739
ஸித	-9.99796
▁கப்ப	-9.9989
▁மஹந்தங்	-9.99934
ரபா	-10.0011
வாரங்	-10.0021
ஸுத்த	-10.0023
0.	-10.005
ஞ்ஞாய	-10.0055
ணேஹி	-10.0063
▁அஞ்ஞஸ்ஸ	-10.007
யேவாதி	-10.0075
ஸஞ்ச	-10.0076
▁தித்தி	-10.008
▁வுட்	-10.008
▁ஸமுதா	-10.0113
ஸஹி	-10.0118
▁படிக	-10.0119
னிமித்தங்	-10.0131
▁ஓத	-10.0135
னேஸி	-10.0136
▁அஞ்ஞதரங்	-10.0156
▁வினய	-10.0169
கச்சோ	-10.018
▁ஏவம்பி	-10.0184
ஸுத்தாதி	-10.0185
▁அரியஸாவகோ	-10.0185
பெந்தி	-10.0203
▁12.	-10.0217
வதீ	-10.0226
▁அச்சி	-10.0243
▁அந்தர	-10.0254
▁உப்பத்தி	-10.0259
▁ஜாதா	-10.0263
▁ஸாஸன	-10.0263
யானி	-10.0303
▁ராகா	-10.0303
▁வித்	-10.0306
த்தியோ	-10.0308
▁பாட	-10.0315
▁ஆஹாரே	-10.0324
ல்ல	-10.033
▁காமேஸு	-10.0333
▁அனுபு	-10.0352
▁வர	-10.0365
ஸமுத	-10.0371
▁ஸஹஜாதபச்சயே	-10.0379
▁மணி	-10.0384
▁பவிஸித்வா	-10.0393
▁படிப	-10.0402
▁ஸேனாஸனங்	-10.0414
ரணா	-10.0417
▁ஸாக	-10.0421
▁கம்மஸ்ஸ	-10.0438
னக்க	-10.0438
▁ஹேதுங்	-10.0441
▁உப்பன்ன	-10.0458
▁பவிட்ட	-10.0466
▁யானி	-10.047
ஸ்ஸாபி	-10.0483
ஜாதங்	-10.0497
▁ஸாரிபுத்தோ	-10.0507
▁ஜனா	-10.0518
பரிக்	-10.0522
▁விஹாரங்	-10.0554
ரஹ்மா	-10.0574
▁கம்மட்ட	-10.0576
▁கிலேஸா	-10.0594
▁வசீ	-10.0598
ஸமோ	-10.0609
▁ஏதரஹி	-10.0623
▁குதோ	-10.0625
▁குஸல	-10.0625
▁ஜானந்தி	-10.0625
▁பரிச்சி	-10.0626
ஸம்பதா	-10.0632
▁மெத்தா	-10.0642
ஸக	-10.0653
▁ஸச்சிகட்ட	-10.0654
▁ஆரம்மண	-10.0662
மனா	-10.0666
6.	-10.0674
▁விபாகங்	-10.0676
8.	-10.0681
▁ஏவஞ்ச	-10.0695
மஜ்ஜே	-10.0696
பேதுங்	-10.07
▁பச்ச	-10.0703
▁பனேதங்	-10.0706
ஜிதோ	-10.0711
▁பகதி	-10.0728
காரா	-10.0734
▁தம்பி	-10.074
கேஸு	-10.0741
பட்டா	-10.0744
▁உப்பஜ்ஜிஸ்ஸதீதி	-10.0744
ம்மாயதனங்	-10.075
மயங்	-10.0751
யாய	-10.0772
▁பரிபோ	-10.0775
ஸம்பன்னோ	-10.0778
▁ஸகல	-10.0783
▁ஸஞ்ஞோஜன	-10.0787
▁புஞ்ஞ	-10.0802
7.	-10.0809
ஸதா	-10.0811
▁ஹ	-10.0816
▁மங்க	-10.0829
▁ஆயு	-10.0831
யதே	-10.0831
ஸகங்	-10.0837
▁உப்பன்னா	-10.0842
▁விஹாரே	-10.0843
▁ஏதேஸங்	-10.0857
▁ஆயதிங்	-10.0876
▁அனேக	-10.0887
▁நஆஸேவனே	-10.0887
▁கிஞ்சாபி	-10.0905
ரஹங்	-10.0909
காரேன	-10.0919
▁படிவிஜ்ஜ	-10.0921
▁காரண	-10.0932
மத்தே	-10.0932
லத்	-10.0943
லந்தி	-10.0947
▁அரியா	-10.0948
▁ஸுகி	-10.0949
▁நபுரேஜாதே	-10.0951
வன	-10.0954
ஏக	-10.0962
▁படிலப	-10.0963
5.	-10.0963
▁ஸம்பஜானோ	-10.0967
▁பாபங்	-10.0976
▁நேவத	-10.0976
▁துய்ஹங்	-10.0979
ஹோஸி	-10.0981
ஸனித	-10.0991
பெய்ய	-10.0992
▁ரூபஸ்ஸ	-10.1013
▁நகம்மே	-10.1027
▁உபாலி	-10.1035
சா	-10.1047
பெந்தோ	-10.1048
▁அரூபதா	-10.1057
அஜ்ஜ	-10.1062
▁விதக்கோ	-10.1064
▁ஆகாஸே	-10.1069
▁அயமேவ	-10.1084
▁ஸனித	-10.1097
உபாத	-10.1099
▁அதீதா	-10.1122
▁அஸுப	-10.1126
▁1	-10.1127
லதா	-10.1131
மூலே	-10.1135
ஸானங்	-10.1136
ாரிஸுத்	-10.1136
▁மொக்	-10.114
▁ஏகஸ்ஸ	-10.116
நிஸ்ஸய	-10.1169
▁ஸுவண்ண	-10.1174
னாம	-10.1178
▁லோகஸ்ஸ	-10.1183
9.	-10.1202
▁பரிபா	-10.1207
கொட்டா	-10.1209
ஸாது	-10.1213
▁பவத்ததி	-10.1213
▁அஸ்ஸாத	-10.1226
மந்தி	-10.1228
பிண்ட	-10.1234
▁அலங்	-10.1237
▁ர	-10.1242
தரங்	-10.1249
ானீதி	-10.1265
▁சேதஸோ	-10.1273
▁நவிபாகே	-10.1279
லாபீ	-10.1279
ஸ்மிந்தி	-10.128
ஸிதோ	-10.1282
▁புரிஸஸ்ஸ	-10.1283
▁நமக்	-10.1299
▁காலேன	-10.1306
▁ரே	-10.1318
ஸமன்னா	-10.1323
ஞ்ஜதி	-10.1331
தியே	-10.1341
▁ஹேதுஸ்ஸ	-10.1354
▁படிவிரதோ	-10.1359
▁ஸதங்	-10.1362
கிரியா	-10.137
பரி	-10.1377
▁ஸத்தரஸ	-10.1391
▁படிபன்னோ	-10.1407
▁பகதூபனிஸ்ஸயோ	-10.1413
▁ஸத்தமங்	-10.1414
▁13.	-10.1414
▁அஞ்ஞேன	-10.1447
மினீ	-10.1447
▁காமே	-10.1449
▁அங்கே	-10.145
▁ஜம்பு	-10.1451
▁காமகு	-10.1455
▁ஜினோ	-10.1466
மத்தா	-10.1478
▁ஞாணேன	-10.1481
▁பயோக	-10.1491
மகா	-10.1496
ஸமே	-10.1501
▁வத்தூ	-10.1523
▁விக்	-10.1526
▁மனுஸ்ஸ	-10.1539
▁அஸெக்க	-10.1539
ஜாதா	-10.1543
பட	-10.1543
ஸஹஜாத	-10.1548
▁பமாத	-10.1551
▁விக்க	-10.1552
தோபி	-10.1559
▁ஓதா	-10.1561
▁ஸத்தே	-10.1565
ஸக்	-10.1574
▁சிந்தெத்வா	-10.1589
▁பரியா	-10.1591
▁ஸச்சானி	-10.1592
▁அனுஸயா	-10.1606
யம்பி	-10.1615
கிச்சங்	-10.1636
ள்ஹ	-10.1645
ம்ஹ	-10.165
▁ரோக	-10.165
▁ராஜானங்	-10.1658
பச்சய	-10.1668
▁ஸுகே	-10.1673
னானஞ்ச	-10.1678
▁ஆஸவானங்	-10.1702
கிலேஸா	-10.1727
யஞ்ஜன	-10.1741
மிஸ்ஸ	-10.1749
▁பரம	-10.1755
ணீ	-10.1761
▁ஸர	-10.1767
▁வசீஸங்கா	-10.1773
ரூபா	-10.1784
▁அனத்தா	-10.1785
ணிகா	-10.1787
ீதி	-10.1792
பச்சயோ	-10.1815
▁ஹீ	-10.183
ஞ்சாதி	-10.1835
▁உத்தரி	-10.1839
மதா	-10.1839
▁பவத்தா	-10.1841
ரகோ	-10.1859
ணாதி	-10.1864
னகா	-10.1864
▁பஹீனா	-10.1865
மது	-10.1876
▁ததியோ	-10.1883
ப்பபே	-10.19
மணி	-10.1921
▁ஸமா	-10.1929
உ	-10.1932
மாலா	-10.1936
ய்யாதி	-10.1959
▁புத்த	-10.1964
▁அனிச்சதோ	-10.1969
▁அவிக்க	-10.1974
னலக்க	-10.1975
▁ஓக	-10.198
▁பரிக்க	-10.1984
▁ஜாதியா	-10.1984
ராஹ்மணஸ்ஸ	-10.1985
லாதீ	-10.1985
▁உப்பன்னோ	-10.1989
ஸண்டா	-10.2002
▁உபனிஸ்ஸாய	-10.201
▁ஜாதகங்	-10.202
▁காமா	-10.2035
▁தஸ்ஸுத்	-10.2044
▁ஸமான	-10.2052
▁இந்த	-10.2055
▁வேதே	-10.2057
▁ஸங்ஸ	-10.2059
▁சக்கவத்தீ	-10.2068
▁மனாயதனங்	-10.2071
▁ஸம்பயுத்தா	-10.2074
▁பாபுணாதி	-10.2081
▁14.	-10.2088
▁குல	-10.2088
▁ஆமந்தேஸி	-10.2096
ஸோதி	-10.2097
▁கும்ப	-10.2099
ப்பத்தோ	-10.2108
▁பஞ்ஞாயதி	-10.2115
னாஸு	-10.2118
▁வீஸதி	-10.212
தரோ	-10.2126
த்தானி	-10.2128
▁ஸக்க	-10.2135
▁சரதி	-10.2137
▁மான	-10.2141
▁நஜா	-10.2142
▁தமத்த	-10.2142
▁மாக	-10.2142
த்து	-10.2147
ஹேதுகங்	-10.2148
தூதி	-10.2149
▁ஸமந்ததோ	-10.2149
▁கரித்வா	-10.2157
பரிபோ	-10.2159
▁ஸேஸா	-10.2173
▁வாசங்	-10.2182
▁உது	-10.2186
▁வட்டதீ	-10.2189
பத்த	-10.219
ஸமா	-10.2204
▁யாதி	-10.2205
காரஸ்ஸ	-10.2222
▁அகத்வா	-10.2223
காரே	-10.2224
▁ஸப	-10.2232
ஸேஸி	-10.2235
கொ	-10.2238
▁தண்ஹாய	-10.2245
னபூ	-10.2261
ய்யேன	-10.2263
▁அனுமோத	-10.2269
ரோதி	-10.2269
▁பஹீனோ	-10.2276
▁மக	-10.2313
த்தாதி	-10.2323
▁ரத்தி	-10.2324
ஸஜ்ஜ	-10.2328
ஸுத்	-10.2329
விஸ்ஸ	-10.2333
▁நிமித்தங்	-10.234
▁ஸன்னி	-10.2341
▁அவி	-10.2346
▁பஞ்சஸு	-10.2351
▁யோக	-10.2352
ஸ்ஸீ	-10.2354
▁லுத்	-10.2357
▁ஜானி	-10.2364
▁வத்தா	-10.2369
▁ஸோமனஸ்ஸி	-10.2372
▁மரணங்	-10.2374
▁பத்தே	-10.2376
▁அரியம	-10.2378
ஜ்ஜங்	-10.2379
னுப	-10.2386
லேஹி	-10.2397
ஞ்ஞூ	-10.2401
ரேதி	-10.2406
▁உபி	-10.2413
ணஸ்ஸ	-10.2417
படிஸந்தி	-10.242
▁ஜாதங்	-10.2423
▁வண்ணங்	-10.2428
வியா	-10.2431
அனுஜானாமி	-10.2432
ஸ்ஸிதா	-10.2433
▁பரிக்கா	-10.2439
பரினிப்	-10.2443
ஸீல	-10.2458
கிச்ச	-10.2459
▁நிருத்	-10.2461
க்கமங்	-10.2472
▁சேதங்	-10.2477
ள்ஹங்	-10.2479
▁ஸங்	-10.2493
ஸித்தா	-10.2497
▁ஆரப	-10.2499
▁மோஹ	-10.2499
▁படிஸம்	-10.2508
▁மஹப்ப	-10.2517
ஸ்வான	-10.2535
வந்த	-10.2555
ண்ஹி	-10.2564
▁ஆரம்மணாதி	-10.2567
மபி	-10.2574
பாதா	-10.2583
▁அபூ	-10.2587
▁ரூபே	-10.2593
▁மன	-10.2594
▁விபாகே	-10.2597
▁ஸங்கிலிட்ட	-10.2601
பதிபச்சயா	-10.261
மாக	-10.2613
▁அயமெத்த	-10.2615
ரமத்தே	-10.2638
யக்	-10.2642
▁வன	-10.2645
▁பாதுப	-10.2647
ரிக	-10.2648
▁ஏகதே	-10.2648
▁தஹிங்	-10.2653
▁அரஞ்ஞே	-10.2654
▁ஸுத்த	-10.2658
யாதீ	-10.2658
யந்தோ	-10.2663
▁ஸரீரங்	-10.2665
ஹேதுங்	-10.2679
நோ	-10.268
▁அஹமேவ	-10.2684
ம்மஞ்ச	-10.2689
▁அதிவிய	-10.2697
மந்த	-10.2699
▁கிலேஸே	-10.2704
▁சித்தஸங்கா	-10.2706
பக்கி	-10.272
▁அனந்தரே	-10.2724
▁ஸயமேவ	-10.2725
▁இதரேஸங்	-10.2725
▁க்வசி	-10.273
இமே	-10.274
▁அனுப்பாத	-10.2744
ஸகோ	-10.2752
லப	-10.276
▁மஹாஸத்தோ	-10.2762
▁ரூபானி	-10.2764
▁ஸஹஜாதங்	-10.2768
▁16.	-10.2769
பஞ்ஞத்தி	-10.2771
▁முத்	-10.2779
லக	-10.2782
த்தந்தி	-10.2784
▁ஏ	-10.2793
▁இமாய	-10.2798
▁மானானுஸயோ	-10.2799
ஸம்பத்தி	-10.281
▁நவமங்	-10.2811
ஸாத	-10.2817
▁பரதோ	-10.2818
▁வுத்தானி	-10.282
▁நதீ	-10.2821
ந்துங்	-10.2822
ஸாதா	-10.2825
▁ஆஹாரோ	-10.2846
ஜ்ஜனோ	-10.2851
▁நஸம்பயுத்தே	-10.2852
பிதங்	-10.2856
▁அஸங்கிலிட்ட	-10.2861
▁கூ	-10.2865
ரப	-10.2868
ஞ்ஞோ	-10.2872
ய்யா	-10.2891
▁ஸங்வத்ததி	-10.2892
▁விஹார	-10.2897
▁ஸஹஜாதா	-10.2897
▁15.	-10.2899
னமித்	-10.2909
▁கதிஹி	-10.2913
மிப	-10.2916
▁பாசித்திய	-10.2923
▁காமேஹி	-10.2929
▁ஏகாய	-10.2932
ஹேன	-10.2932
▁இரியாபத	-10.2948
யாஹ	-10.2948
▁பஹானாய	-10.2952
த்திகங்	-10.2964
ணந்தி	-10.2971
▁ஸமண	-10.2971
ண்ண	-10.2975
சித்தஸ்ஸ	-10.2977
மிவ	-10.2977
▁அஸாதா	-10.2985
ம்பா	-10.2988
ஸ்ஸிதோ	-10.2997
▁வஸ்ஸானி	-10.3001
▁மேதா	-10.3011
மனோ	-10.3023
கிரியாய	-10.303
▁மத	-10.3031
▁கஸ்ஸப	-10.3031
▁அத்தனி	-10.3032
ஹிதத்தா	-10.3035
ரெய்ய	-10.3039
யோதி	-10.304
▁ஏதேனாதி	-10.3042
▁ஸல்லக்க	-10.3046
▁படிச்சா	-10.305
▁ஆவி	-10.3051
ஜ்ஜதி	-10.3062
ஜிதா	-10.3068
லவ	-10.3072
ரித	-10.3076
▁தப்	-10.308
வசன	-10.3092
ேனாதி	-10.3102
▁பகாஸெந்தோ	-10.3114
யிங்ஸு	-10.3116
ப்பங்	-10.3118
ந்தியா	-10.3122
யோகோ	-10.3122
▁யாகு	-10.3132
த்தஞ்ச	-10.3133
ுட்டா	-10.3136
▁படிபக்க	-10.3143
▁இமேஸு	-10.3145
▁கதமானி	-10.3146
ரூபோ	-10.3156
▁ஏதஸ்மிங்	-10.3163
▁மாது	-10.3166
▁புஞ்ஞானி	-10.3172
▁ஆஹார	-10.318
▁ஸோத	-10.3181
ணதோ	-10.3181
▁வஸி	-10.3182
ஸம்பயுத்த	-10.3183
படி	-10.3192
ஹிரங்	-10.3204
ஸேஸு	-10.3212
▁கங்கா	-10.3216
▁விதா	-10.3231
ரவி	-10.3233
யமானா	-10.3235
▁பன்னரஸ	-10.3257
▁அப்பமாத	-10.3259
யித	-10.3275
▁புரேஜாதபச்சயேன	-10.3276
▁நேவஸஞ்ஞானாஸஞ்ஞா	-10.3277
ராதீ	-10.3283
▁தஞ்ஹி	-10.3287
▁ஏகே	-10.3293
▁அனுருத்	-10.3309
▁ஸம்பயுத்தோ	-10.331
▁கிச்ச	-10.3326
்	-10.3331
▁நகுஸல	-10.3338
▁மனுஸ்ஸானங்	-10.3338
▁துவங்	-10.3345
மிமக்	-10.3345
▁சுத்	-10.3348
▁லோகஸ்மிங்	-10.3351
▁ஆகங்க	-10.3355
▁சிந்தேஸி	-10.3356
ரவ	-10.3358
ஹத்த	-10.3367
▁நிப்ப	-10.3372
னாயதனங்	-10.3374
▁குஸலஸ்ஸ	-10.3375
▁பண்ட	-10.338
மயா	-10.3383
நி	-10.3385
சரோ	-10.3387
வாபி	-10.339
▁ஆரம்மணபச்சயா	-10.3393
த்வாதி	-10.3393
விஞ்ஞாணங்	-10.34
புப்ப	-10.3401
▁கம்மேன	-10.3402
ரவோ	-10.3403
▁ஏவாதி	-10.3404
▁பாராஜிகங்	-10.3407
▁ஸண்டா	-10.3408
▁வியாதி	-10.3412
▁ஸஹஜாதாதி	-10.3421
▁முஸா	-10.3428
ண்ஹ	-10.3429
ம்மாதி	-10.3431
▁அஞ்ஞாதாவி	-10.3439
▁ரத்திங்	-10.3451
▁உத்தம	-10.3458
▁யோனிஸோ	-10.3459
ரானி	-10.3465
பஞ்ஹோ	-10.3467
ுத்	-10.3471
▁அனிச்ச	-10.3471
விகானங்	-10.348
ந்தெ	-10.3486
▁அவோச	-10.3491
▁ஸேஸமெத்த	-10.3506
ம்பே	-10.3508
ஸ்ஸஜா	-10.3513
தட்டா	-10.3516
▁ஏவஞ்ஹி	-10.3517
▁திக்க	-10.3529
▁முதி	-10.353
யோக	-10.3532
ரணீ	-10.3564
வஸேனாதி	-10.3564
ஸிதப்	-10.3566
▁நுப்பஜ்ஜிஸ்ஸதி	-10.3588
னீனங்	-10.3592
னஸங்கா	-10.3599
▁ஸஹஜாதே	-10.36
▁17.	-10.36
▁உபனிஸ்ஸயே	-10.3603
▁நிஸ்ஸயே	-10.3606
ரம்மணங்	-10.3609
ஸன	-10.361
▁ஸம்மோத	-10.3611
உத	-10.3613
▁மதா	-10.3617
▁அரியோ	-10.3621
ரத்த	-10.3625
▁ஸந்தே	-10.3631
ஸங்கோ	-10.3634
▁மோக	-10.3637
வாஸ	-10.3638
லஞ்ச	-10.3639
▁கேஹிசி	-10.3639
▁குலே	-10.3639
▁விப்பயுத்தா	-10.3642
▁வஸ்ஸ	-10.3646
▁அபரபா	-10.3649
ச்சரிதங்	-10.365
▁ஆஸவ	-10.366
கத்தா	-10.3662
ஜிகு	-10.3662
▁காமச்ச	-10.3663
யிஸ்ஸந்தி	-10.3664
கெ	-10.3669
▁நஉபனிஸ்ஸயே	-10.3672
ஸனே	-10.3679
▁ஹேதுபச்சயோ	-10.3682
▁பரோ	-10.369
▁ஏவமேதங்	-10.3696
ஸஹஸ்ஸானி	-10.3704
ந்தூ	-10.3712
மூல	-10.3717
காதீ	-10.3717
லபா	-10.3721
ேவ	-10.3735
னோதி	-10.3736
னவிபாகத	-10.3741
▁நிரயங்	-10.3748
▁அனகா	-10.3753
▁கருணா	-10.3765
▁ஸக்கி	-10.3772
முகோ	-10.3777
▁உஜ்ஜா	-10.3795
▁காலோ	-10.3796
னவண்ணனா	-10.38
விஸ்ஸந்தி	-10.3802
▁விவித	-10.3812
▁ஆகா	-10.3816
ஸந்தோ	-10.3824
வீதி	-10.3833
▁ஏதேஸு	-10.3836
▁வோதா	-10.3843
▁ஹஞ்சி	-10.3843
▁கிரியா	-10.3855
ஸேஹி	-10.3858
▁19.	-10.3861
▁ததியே	-10.3863
யகோ	-10.3865
▁யுக	-10.3869
ருப	-10.3872
▁வசன	-10.3875
வதீதி	-10.388
பச்சுபட்ட	-10.3882
படிலாப	-10.3883
▁அஸி	-10.3885
▁வினோத	-10.3887
▁ஸம்மாஸமா	-10.3913
▁படிஸங்வேத	-10.3916
▁ஸிங்கா	-10.3917
▁யுஜ்ஜதி	-10.3919
▁உத்தானத்த	-10.3923
ராஹ்மணங்	-10.3928
வானமிந்த	-10.393
▁அந்தமஸோ	-10.3931
▁அய	-10.3931
▁அனந்தரா	-10.3934
▁18.	-10.3936
ரத்தா	-10.3942
▁ஸமந்தா	-10.3976
இமங்	-10.3978
▁ல	-10.3993
சார	-10.3999
▁லோகுத்தர	-10.4002
ணானி	-10.4018
▁பச்சேகபு	-10.4027
▁உச்சி	-10.4038
▁அதீதே	-10.4044
▁படில	-10.4053
▁அவிஜ்ஜானுஸய	-10.4059
▁மனோவிஞ்ஞாண	-10.4059
▁விபாக	-10.4065
▁ரஸ	-10.4069
ம்போ	-10.4093
▁ஸீஹ	-10.4097
ஹத	-10.4107
▁மஹப்	-10.4108
▁ஏகச்சே	-10.4113
▁யாய	-10.4121
▁சூள	-10.4124
▁புத்தங்	-10.4127
▁வச்ச	-10.4151
▁மரண	-10.4155
ரஸ்ஸாப	-10.4156
ளா	-10.4159
▁ஏதி	-10.4173
விபஸ்ஸனா	-10.4182
ஹணே	-10.4183
▁உபஸம்பாத	-10.4185
ஹார	-10.4188
▁சதுத்	-10.419
▁விஹராமி	-10.4196
▁20.	-10.4196
யஸச்சங்	-10.4203
▁அஞ்ஞத்த	-10.4204
▁நாமா	-10.4207
▁விபஸ்ஸனங்	-10.4212
மஞ்ச	-10.4214
▁ஜரா	-10.4215
அனந்தரே	-10.4219
பொ	-10.4222
▁அரூபே	-10.4224
நத்தி	-10.4238
முத்தோ	-10.4257
▁விஸேஸ	-10.4259
▁அனுத்	-10.4261
▁21.	-10.4265
▁ஞத்தி	-10.4271
சே	-10.4275
▁ஜாயதி	-10.4287
மெத்த	-10.429
ரெத்வா	-10.4294
ரூ	-10.4296
▁ஜானாமி	-10.4301
▁காமப	-10.4304
ஸதானி	-10.431
ரூஹி	-10.4314
▁வனே	-10.432
▁ஸமணா	-10.4341
▁அனிச்சா	-10.4342
முத்	-10.4347
ண்ஹந்தி	-10.4354
கரோ	-10.4361
▁நாகோ	-10.4368
▁லக்	-10.4368
▁வஸன	-10.4368
▁உச்சே	-10.437
▁பாணாதிபாதா	-10.4375
▁உபபத்தி	-10.4376
த்ரபு	-10.4379
▁ஸங்ஸந்த	-10.4381
கரணே	-10.4383
▁ஜன	-10.4386
யெய்ய	-10.4392
▁பரிஸா	-10.4392
▁நிரயே	-10.4393
▁அனுத்தரங்	-10.4398
▁அகி	-10.441
▁ஸீக	-10.4415
▁அஹேதுக	-10.4415
ணதி	-10.4422
ஹதோ	-10.443
ப்பதா	-10.4433
▁அரஹங்	-10.4439
▁சிர	-10.4448
ஸிகா	-10.4451
▁ஸேத	-10.4453
▁ஸந்துட்ட	-10.4455
▁அதே	-10.4458
▁தேஜோ	-10.4477
▁ஞாதி	-10.4478
▁நாமேன	-10.4486
▁புரேஜாதங்	-10.4493
விஸேஸ	-10.4496
▁உத்தர	-10.4498
▁அனா	-10.45
▁படிலாப	-10.4502
கப்ப	-10.4504
▁பனாவுஸோ	-10.4519
▁பரிபுண்ண	-10.4524
னிபி	-10.4525
வுஸோ	-10.4527
ஆத	-10.4539
ஸத்தஸ்ஸ	-10.4573
கிலேஸ	-10.4574
ரம்மண	-10.4598
லோபோ	-10.4604
தண்ஹா	-10.461
▁22.	-10.4616
▁படிவேத	-10.4617
▁மாதாபிதரோ	-10.4631
காலங்	-10.4633
▁விஹரந்தி	-10.4638
▁ஸகங்	-10.4646
▁23.	-10.4648
ஹன	-10.4652
ப்பேதோ	-10.4659
▁மதோ	-10.4668
சரியா	-10.4668
▁நேவவிபாக	-10.467
▁வத்ததி	-10.4671
ம்மிக	-10.4673
▁ஏவரூபோ	-10.4676
▁ஆத	-10.4676
▁யு	-10.4681
▁அனி	-10.4683
▁பஸ்ஸத்	-10.469
▁அஸ்ஸத்	-10.4692
ஸெத்வா	-10.4692
▁24.	-10.47
▁உத்தானமேவ	-10.4701
மானி	-10.4704
▁நப்பஜஹதி	-10.4705
▁பூரெத்வா	-10.4709
▁ஸீஸங்	-10.471
▁விகா	-10.471
மாதா	-10.4711
ய்யுங்	-10.4715
▁அவிஜ்ஜானுஸயோ	-10.4723
ஸுணாது	-10.4729
ஸுகா	-10.4734
ப்பேதா	-10.474
மொக்க	-10.4741
▁மந்தா	-10.4745
அப்	-10.4756
▁அஞ்ஞேஸங்	-10.4757
▁நூன	-10.4758
▁26.	-10.4765
▁ஆராமே	-10.477
▁அனிச்சங்	-10.4773
▁ஏதஸ்ஸாதி	-10.4774
▁வஜ்ஜ	-10.4778
▁விபாகத	-10.4781
▁ஸஞ்ஞாய	-10.4791
னயோ	-10.48
▁கிமத்த	-10.4801
வசனேன	-10.4805
பத்தி	-10.4814
▁யம்பி	-10.4817
▁வத்துங்	-10.4824
▁ஸத்தமே	-10.4827
▁25.	-10.4831
சித்தேன	-10.4837
▁வரங்	-10.4837
டு	-10.4841
பேதீதி	-10.4844
▁வசனேன	-10.485
▁அனதி	-10.4852
▁உப்பஜ்ஜி	-10.4856
▁ஸார	-10.4859
னமேதங்	-10.486
▁யேஹி	-10.4862
ஸம்பத்தியா	-10.4867
▁தேனேவாஹ	-10.4875
▁பமாணங்	-10.4877
▁பரிக்கி	-10.4882
னஞ்ஹி	-10.4883
▁ஓவ	-10.4885
▁27.	-10.4889
வு	-10.489
ஹாரோ	-10.4903
ரிதங்	-10.4911
ரியானங்	-10.4913
▁ரதி	-10.4919
▁ஸியாதி	-10.492
▁மூலங்	-10.4929
ஜந்தி	-10.493
ஸ்ஸபச்சயா	-10.4932
▁சு	-10.4932
▁ஏகக்	-10.4934
க்கீ	-10.4934
▁அச	-10.4947
இதா	-10.4952
▁வத்ததே	-10.4954
மங்க	-10.4957
▁ஸஹேதுகோ	-10.4962
▁மனுஸ்ஸேஸு	-10.4965
▁ஸஹஸ்ஸ	-10.4968
▁ஏவமேவங்	-10.4971
குஸலோ	-10.4973
விப்பயுத்த	-10.4982
ளி	-10.4982
▁அதீத	-10.4982
▁வுத்தனயமேவ	-10.4984
▁திங்ஸ	-10.499
▁மானோ	-10.5008
வுத்தி	-10.5009
▁செ	-10.5011
ஸதங்	-10.5015
▁ஸங்கீ	-10.5016
ஸ்ஸிதங்	-10.5023
ஸ்ஸதீ	-10.5025
▁ஆஸனே	-10.5031
ரஞ்ச	-10.5031
தமேவ	-10.504
ுட்டோ	-10.5041
காலோ	-10.5042
▁ஏகதி	-10.5059
▁நகுஸலோ	-10.5061
ஸேஸோ	-10.5061
▁அஞ்ஞமஞ்ஞே	-10.5061
ண்ஹந்தோ	-10.5065
▁ஆஹரி	-10.5068
▁ஸே	-10.5069
ளங்	-10.5076
▁அனுக்	-10.5076
▁ஏவமெத்த	-10.5077
▁மஹாபோ	-10.5079
யபி	-10.5081
▁வாபி	-10.5083
தபுப்	-10.5087
ஹத்தி	-10.5087
காமா	-10.509
யிங்	-10.5092
▁ஸத்தோ	-10.5096
▁28.	-10.5099
▁29.	-10.5103
மனேன	-10.5105
னீய	-10.5113
யோபி	-10.5113
மச்ச	-10.5114
விருத்	-10.5117
ஸ்மி	-10.512
மத்தமேவ	-10.5129
▁அமதங்	-10.5131
ஸானி	-10.5133
▁மாரோ	-10.514
▁அஞ்ஞத	-10.5143
ேனேவ	-10.515
▁நிஸ்ஸய	-10.5158
னிமித்த	-10.5159
▁அனுலோம	-10.516
▁நேதங்	-10.5167
▁வஸீ	-10.5169
சீவர	-10.5169
▁பஸ்ஸாமி	-10.518
ரிங்	-10.5186
▁ஸுசி	-10.5187
ஸ்ஸாம	-10.5189
▁வட்ட	-10.519
ஸஞ்ஞாய	-10.5193
த்வேவ	-10.52
▁ஹித்வா	-10.5202
▁30.	-10.5202
▁மஞ்ஞே	-10.5202
ஸ்ஸித	-10.5207
▁அரூப	-10.521
சயகா	-10.522
வாதே	-10.522
▁இமிஸ்ஸா	-10.5229
ஞ்ஞே	-10.5234
▁15	-10.5236
▁குக்குச்சங்	-10.5238
விதி	-10.5249
ஞ்ஜித்வா	-10.5251
மிக	-10.5252
னந்தரங்	-10.5255
சித்தா	-10.527
விஸேஸோ	-10.5271
▁ரதன	-10.5272
▁31.	-10.5278
▁புனப்	-10.5281
மியா	-10.5283
▁வீதி	-10.5284
▁பிது	-10.5286
ஸஹஸ்ஸ	-10.5288
▁நுப்பஜ்ஜித்த	-10.5293
அஹோ	-10.5293
▁மஞ்ஞதி	-10.531
▁சித்துப்பாத	-10.532
ரிகா	-10.5329
யப்	-10.5334
▁ஆனெத்வா	-10.5344
▁பரியாயேன	-10.5345
▁ஸெய்யோ	-10.5346
▁ரத்தியா	-10.5348
▁ஸம்பயுத்தே	-10.5355
▁ஏதானி	-10.5362
விஞ்ஞாண	-10.5365
ரிதா	-10.5369
வேபி	-10.5371
▁அனாஸவோ	-10.5373
புத்தோ	-10.5374
▁14	-10.5396
▁அனுஸ	-10.5411
▁பரிப	-10.5425
▁ஸுணாத	-10.5427
▁ஜானித்வா	-10.5428
▁யோகா	-10.5443
ேதப்	-10.5443
லேஸு	-10.5446
▁படிஜானாதி	-10.5448
▁ஸுணாதி	-10.5451
▁ஸோதாபத்தி	-10.5463
▁அனுஸேதி	-10.5467
▁ஸமுச்சி	-10.5474
ஸ்ஸனோ	-10.548
▁அனிட்ட	-10.5481
▁யதே	-10.5489
▁குஸலேஸு	-10.5496
▁ரூபா	-10.55
▁ஏவரூபா	-10.5505
▁படிச்சஸமுப்பாத	-10.551
ரியஸ்ஸ	-10.5513
▁ஸச்சா	-10.5516
▁ரஞ்ஞா	-10.5519
▁நமோ	-10.5526
▁ணோ	-10.5534
▁ஆபன்னோ	-10.5538
▁பாணி	-10.5539
▁ஸதிமா	-10.5544
ணனாய	-10.5551
அக்	-10.5554
▁கிச்சங்	-10.5556
▁நரோ	-10.5563
ரஸோ	-10.5563
மினோ	-10.5567
▁மார	-10.5571
விகா	-10.5571
▁ஸஸ்ஸ	-10.5571
அஞ்ஞமஞ்ஞே	-10.5573
▁அனுலோமங்	-10.5576
மேதி	-10.5584
▁நானுஸேதி	-10.5586
லிக	-10.5587
▁அஸ்ஸு	-10.5592
▁பெக்க	-10.5592
▁அபக	-10.5593
ெத்வா	-10.5595
ஞ்ஞேவ	-10.5597
▁அஹோ	-10.5603
யிதங்	-10.5612
லானோ	-10.5612
▁காரெத்வா	-10.5623
▁புரிஸா	-10.5626
னபச்சயா	-10.5628
ரோத	-10.5636
ல்லான	-10.5648
▁35.	-10.5651
உத்	-10.5655
▁பவத்தங்	-10.5665
ஜாதோ	-10.5671
ஸீலங்	-10.5674
ஸமேவ	-10.5682
ஸோத	-10.5689
ஸன்னங்	-10.5706
ஸ்ஸனே	-10.5711
▁படிவி	-10.5728
மத்தேன	-10.5732
▁ஏகந்த	-10.5732
ப்படிச்ச	-10.5734
▁நஇ	-10.5736
ஸ்ஸே	-10.5741
▁ஜின	-10.5748
▁கம்மானி	-10.5756
▁அனுஜானாமி	-10.5756
குல	-10.5757
▁யாசி	-10.5758
யத்தா	-10.577
▁ஸங்வ	-10.5771
ஸதீ	-10.5779
▁ஸாவகா	-10.5782
▁?	-10.5799
▁ஜனோ	-10.5802
னிஸ்ஸக்	-10.5802
காரணங்	-10.5813
மஹங்	-10.5816
வபுத்தோ	-10.5825
▁உபஜ்ஜ	-10.583
▁அம்ஹேஹி	-10.5831
▁வுச்சதீதி	-10.5832
▁பச்சயே	-10.5848
▁ஸம்மப்ப	-10.585
▁வினயே	-10.5852
▁அபெக்க	-10.5856
வண்ணா	-10.5857
▁விஸாக	-10.5863
▁நிபாதோ	-10.5869
▁32.	-10.5876
ரஹ	-10.5879
வீதா	-10.5882
▁அஹோஸீதி	-10.5882
ந்தரங்	-10.589
▁ஸீத	-10.5891
▁அனுக	-10.5907
வாரேஸு	-10.591
▁வஸ்ஸங்	-10.5915
லித்	-10.5919
▁ஏவமஸ்ஸ	-10.5925
அத்தா	-10.5931
▁யுத்தங்	-10.5937
▁குஸலானங்	-10.5949
▁விமுத்தி	-10.5953
ரஞ்ஞோ	-10.5959
▁விஞ்ஞாணஞ்சாயதன	-10.5962
▁ஆசரியோ	-10.5969
ஸெந்தோ	-10.5971
▁36.	-10.599
ஹுலோ	-10.5991
▁ஸிப்	-10.5992
ஸ்ஸாவீ	-10.6004
யாகதஸ்ஸ	-10.6008
▁அந்தரக	-10.6013
▁விவிச்சேவ	-10.6026
▁கரொந்தஸ்ஸ	-10.6029
ஸஹ	-10.6029
▁பட்ட	-10.6038
ஆஹாரே	-10.6044
துந்தி	-10.6045
▁ஸத்தாஹங்	-10.6046
ராஸி	-10.6047
ஹாய	-10.6049
▁கங்க	-10.6049
▁ஏதேஹி	-10.6056
▁அஞ்ஞேஹி	-10.6056
வஸ	-10.6057
வயே	-10.6059
▁அகுஸல	-10.6063
வலோகே	-10.6068
▁37.	-10.607
அத்	-10.6071
▁ஸம்பயுத்தங்	-10.6073
▁ஹேதங்	-10.6076
▁வுத்தமேவ	-10.6076
▁ஆஸேவனே	-10.6078
▁34.	-10.6087
▁சித்தானி	-10.6089
▁39.	-10.6093
ரம்மணா	-10.6108
▁விபாகா	-10.6112
▁ஸந்தங்	-10.6117
▁நிப	-10.6118
சர	-10.612
▁அயஞ்ச	-10.612
பரிக்கா	-10.6121
▁படிபத	-10.6126
▁காயகம்மங்	-10.6131
▁யங்கிஞ்சி	-10.6136
ஜ்ஜனா	-10.6137
▁விஸேஸதோ	-10.6137
▁ஸொத்தி	-10.6137
▁மிச்ச	-10.6138
▁காரணா	-10.6144
ஸம்பயுத்தா	-10.6152
ந்தர	-10.6165
கத்தே	-10.6175
▁ஸதியா	-10.6178
ஸயோ	-10.6179
கதமோ	-10.6186
மபா	-10.6187
▁38.	-10.619
▁ஆதாபீ	-10.6195
யதனஞ்ச	-10.6202
▁படிச்சவாரா	-10.6204
த்திங்ஸ	-10.6208
▁ஸம்மதே	-10.6211
▁உக்கட்ட	-10.6214
யுத்த	-10.6216
மவக்	-10.6217
▁ஸஜ்ஜா	-10.6218
▁சிரங்	-10.6221
▁இதிபி	-10.6226
காரீ	-10.6231
ன்னாமஸ்ஸ	-10.6233
லங்கார	-10.624
ஜகா	-10.6242
னகதா	-10.6243
▁33.	-10.6245
ஸேஸ	-10.6255
▁கம்மப	-10.6258
▁முட்ட	-10.6264
▁உபாஸகோ	-10.6282
▁ஹா	-10.6284
▁ஜிவ்ஹா	-10.6286
▁ரோ	-10.6286
ஹோதி	-10.6288
ஹெத்வான	-10.6293
லோகே	-10.6297
பேஸுங்	-10.63
▁ஸஹத	-10.6306
▁40.	-10.6316
ம்மாபி	-10.6323
▁சரித்வா	-10.6329
▁புத்தா	-10.6335
▁ஸுர	-10.6337
▁உபயோக	-10.6343
▁அப்பிச்ச	-10.6344
ஸார	-10.6344
ன்னஸ்ஸ	-10.6349
▁சித்தஸங்ஸட்ட	-10.6352
பச்சவெக்க	-10.6353
▁பரித்தங்	-10.6355
▁உப்பாதா	-10.6365
▁ரஹோ	-10.6367
னிஸ்ஸிதங்	-10.6367
▁விந்த	-10.6368
பத்தோ	-10.6371
▁அவத்வா	-10.6373
▁யுத்த	-10.6374
ணானங்	-10.6378
முகா	-10.6383
▁ரோத	-10.6384
▁காமாவசர	-10.6389
▁பஹானங்	-10.6391
▁பீட	-10.6391
▁ஸுக்க	-10.6394
▁ஸுதா	-10.6397
▁மஹாதே	-10.64
▁உபமா	-10.6414
ஸமாபத்தி	-10.6414
▁பக்காமி	-10.6423
▁ஏத	-10.6423
ஹேதுகா	-10.6426
▁அரஹத்தப	-10.6428
காயோ	-10.6436
▁அனுஸெந்தி	-10.6441
மனொத்	-10.6441
▁வினெய்ய	-10.6446
▁இஸி	-10.6449
ஸியா	-10.6451
▁அவிஜ்ஜாய	-10.6452
▁ஜராமரணங்	-10.6455
பரிஸுத்	-10.6456
ஜனீயங்	-10.646
▁ஸம்பயுத்தகா	-10.6466
▁நிமித்த	-10.6468
னவங்	-10.6469
▁ஸீலவா	-10.6477
▁பவாரணா	-10.6477
ரஹ்மத	-10.6479
மீஸு	-10.648
ணாஸவோ	-10.6485
ன்னஅனுபாத	-10.6485
மத்தம்பி	-10.6495
ம்மந்தி	-10.6497
▁நீ	-10.6503
லிகா	-10.6503
▁அஞ்ஞேபி	-10.6511
யுக	-10.6514
வித்	-10.6515
▁41.	-10.6518
▁உபபஜ்ஜதி	-10.6524
▁யுத்	-10.6526
ஸச்ச	-10.6526
▁ஜனேதி	-10.6527
▁ஓவத	-10.6529
▁காயிகங்	-10.6534
ஸேஸஸ்ஸ	-10.6536
னெத்த	-10.6539
ஜாதபச்சயேன	-10.654
▁வீதராக	-10.655
படிபத	-10.6555
▁கஞ்சி	-10.6557
▁மித்த	-10.656
▁பாபுணி	-10.6567
▁ஸரீரே	-10.6567
▁அப்பனா	-10.6568
பாதே	-10.6569
▁ஜீவ	-10.6573
▁பஸ்ஸதோ	-10.658
▁ஸங்கிலேஸ	-10.6581
▁ஏகத்த	-10.6585
ஹேவ	-10.6585
மம	-10.6586
▁கந்த	-10.6587
▁ஓகாஸங்	-10.6592
▁அகுஸலானங்	-10.6595
மந்தோ	-10.6596
ஸத்தே	-10.6596
ஸத்தானங்	-10.6597
▁மஞ்ஞஸி	-10.6601
ப்பேதங்	-10.6606
ரிதோ	-10.6607
வண்ணங்	-10.6629
▁ஆபத்திஸமு	-10.6629
ெய்யுங்	-10.6641
▁வதி	-10.6644
▁பச்சுபட்ட	-10.6646
▁அஞ்ஞமஞ்ஞ	-10.665
▁ஸக்காய	-10.6663
▁அதிக்கமித்வா	-10.6668
ஹுலங்	-10.6675
லவா	-10.6676
▁காரணேஹி	-10.6682
▁44.	-10.6686
குலே	-10.6686
னியஸ்ஸ	-10.669
▁ஸாமங்	-10.6693
ப்பாயேன	-10.6698
ஜகோ	-10.6699
▁பவத்ததீதி	-10.6704
▁ஸயம்ப	-10.6704
▁வேமதிகோ	-10.6713
▁ஸத்தன்னங்	-10.6716
▁45.	-10.6717
▁46.	-10.6717
▁ஸுமேத	-10.6717
அனு	-10.6718
▁பாகடங்	-10.6719
ரஸங்	-10.6719
▁ஹிதாய	-10.672
புரிஸோ	-10.6723
விஸ்ஸதீதி	-10.6726
டங்	-10.6729
ேஹீதி	-10.6731
▁வஸங்	-10.6741
ன்னத்தா	-10.6743
▁படிபஜ்ஜி	-10.6755
விஹார	-10.6756
▁பரித்த	-10.6759
▁ஆனுப	-10.676
▁50.	-10.6765
ஸ்ஸனாய	-10.6767
▁அந்தரே	-10.6768
▁வுத்தாதி	-10.6771
க்கட	-10.6773
▁காசி	-10.6773
தூனங்	-10.6778
வய	-10.678
வண்ணோ	-10.6786
▁காரேஸி	-10.6788
▁க்ரியா	-10.6815
▁பச்சயானுலோமங்	-10.6815
ராஹ்மணானங்	-10.6821
▁பனாதி	-10.6823
▁சரந்தி	-10.6823
▁ஓகா	-10.6829
வாஹங்	-10.6831
▁47.	-10.6834
▁சதுரோ	-10.6838
▁42.	-10.6844
வேஹி	-10.6854
மாதீ	-10.6862
புஞ்ஞ	-10.6864
த்தபா	-10.6866
▁49.	-10.6873
இமினா	-10.6874
ரஸ்மா	-10.6876
▁கித்தி	-10.6884
▁ரத்த	-10.6892
▁43.	-10.6893
▁யந்தி	-10.6895
▁அனாபுச்ச	-10.6901
▁பாபகா	-10.6902
னுத்	-10.6903
ஸந்தா	-10.6905
தமஸ்ஸ	-10.6917
ஜ்ஜோ	-10.6918
▁ஆகாரேஹி	-10.6922
யாமி	-10.6925
ஹர	-10.6931
▁நிரனுஸயோ	-10.6933
ஏவ	-10.6933
▁இஜ்ஜ	-10.6936
ரவா	-10.6938
நா	-10.694
சந்த	-10.6942
▁தத்ராயங்	-10.6945
▁காமங்	-10.6945
▁ராஜானோ	-10.6946
டிஸங்கா	-10.6948
▁லோகிய	-10.6952
▁மு	-10.6956
▁பஞ்சவித	-10.6966
▁மனோதா	-10.6983
▁ஸீலப்	-10.6985
▁வுச்சதே	-10.699
▁பச்சயசதுக்கங்	-10.699
▁ஸோதங்	-10.6992
▁காமாவசரா	-10.6994
▁பணீதங்	-10.6995
▁தமஹங்	-10.6997
▁அபு	-10.7006
ஞ்சி	-10.7006
ஸமுதா	-10.7006
▁ஜீவிதா	-10.701
▁ஆகாஸ	-10.7013
▁விமதி	-10.7025
▁வஸ	-10.703
ஜித	-10.703
ஸ்ஸனா	-10.7035
▁ஸமத்தோ	-10.7035
காம	-10.7043
யமானங்	-10.705
▁காயக	-10.7054
குஸலா	-10.706
ஞ்ஜிதுங்	-10.7066
▁ஸரணக	-10.7067
▁பரிஸாய	-10.7068
▁படிஞ்ஞா	-10.7074
▁மச்சு	-10.7077
யத்தோ	-10.708
▁ஸகி	-10.7081
ஸ்ஸேதங்	-10.7089
▁மி	-10.7098
▁தங்தங்	-10.7099
மானே	-10.7101
▁அகங்ஸு	-10.7101
▁யுத்தோ	-10.7103
சரா	-10.7103
கஞ்ச	-10.7115
▁யோஜெத்வா	-10.7115
▁அலப	-10.7123
யேவா	-10.7126
▁பணீத	-10.7131
▁உபனி	-10.714
ரகே	-10.7149
▁விஹாரோ	-10.7151
▁அதிரேக	-10.7155
ரூபானி	-10.7155
▁பஞ்சமே	-10.7156
▁ஆசய	-10.7162
விஸ	-10.7167
▁ஸீமா	-10.7168
▁ஸுவிஞ்ஞெய்யமேவ	-10.7187
▁அபரே	-10.7187
▁48.	-10.7189
மிச்ச	-10.719
ருக	-10.7191
ஸம்பத்திங்	-10.7193
ஹுலீகதா	-10.7196
▁பாகடோ	-10.7198
▁ஸீஹனாத	-10.7198
▁ஏஹி	-10.72
▁ததியா	-10.72
▁ஸந்தகங்	-10.7202
▁ஸக்கச்சங்	-10.7203
சேதனா	-10.7207
ப்பவத்தி	-10.7208
பரியுட்ட	-10.7208
யஜ்ஜா	-10.7209
▁விஜ்ஜ	-10.7209
▁லிகி	-10.7218
ப்பதே	-10.7219
▁மஹானாம	-10.7223
கத்வா	-10.7224
விஞ்ஞாணதா	-10.7226
ஸங்க்	-10.7232
ஜ்ஜன	-10.7246
படிபா	-10.7248
▁பாவிஸி	-10.7248
னம	-10.7249
பச்சி	-10.7249
▁நனஹேது	-10.7252
▁வுச்சதீ	-10.7255
ஸஞ்ஞினோ	-10.7259
▁புரத்	-10.7264
▁ஆமிஸ	-10.7281
▁அயஞ்ஹி	-10.7293
ராய	-10.7294
யு	-10.7295
▁நாஹங்	-10.7297
▁அபதா	-10.7297
ஸய	-10.7299
▁ஸரே	-10.7301
ஸ்ஸேதுமாஹ	-10.7301
▁ஸங்வத்தந்தி	-10.7302
▁சாது	-10.7302
▁ஸத்தஹி	-10.7303
▁ஸமுக்	-10.7305
▁சுதி	-10.7308
▁மிகா	-10.731
▁காயதோ	-10.7315
▁ஸுக்கவிஸ்ஸட்ட	-10.7325
▁பத்தி	-10.7333
▁ஸமாபத்தி	-10.7335
▁55.	-10.7338
யொக்	-10.7342
டிலத்	-10.7344
▁பஞ்சமோ	-10.7348
▁புரிஸங்	-10.7348
▁பவுச்சதி	-10.735
▁பஹானா	-10.7351
ளீகாரோ	-10.7352
னுரூபங்	-10.7355
▁பமாண	-10.7356
▁யாவதா	-10.7362
ணேஸு	-10.7362
ச்சோ	-10.7364
▁விஸய	-10.7365
புரிஸ	-10.7365
▁விதூ	-10.7368
▁நஆரம்மணபச்சயா	-10.7371
▁கிலேஸானங்	-10.7374
▁51.	-10.7375
▁அஸுசி	-10.7376
▁நிஸின்னங்	-10.7376
ஹஸ்ஸ	-10.738
▁லோகா	-10.739
ண்ஹித்வா	-10.74
▁பாடிகங்க	-10.7403
விஞ்ஞாணஸ்ஸ	-10.7414
ஆக	-10.7417
▁கடத்தாரூபங்	-10.7418
நாஹங்	-10.7422
ரூபே	-10.7425
சரிய	-10.7429
மத்தோ	-10.7432
வித்தா	-10.7435
ஸகா	-10.744
▁ஏகேனாயதனேன	-10.7448
▁திண்ணன்னங்	-10.745
ல்லங்	-10.7457
▁மங்ஸங்	-10.7458
▁யாதா	-10.746
▁நிஸின்னா	-10.7463
ஸ்ஸாமீதி	-10.7466
▁54.	-10.7466
ணிக	-10.7483
▁எத்தகங்	-10.7497
▁மஹேஸினோ	-10.75
▁பஸ்ஸந்தோ	-10.7504
▁சரே	-10.7505
▁ஆபாத	-10.7511
▁கதத்தா	-10.7513
யாகாஸி	-10.7514
மய	-10.7517
வஞ்ச	-10.7521
▁ஏதேஸந்தி	-10.7528
ஸமயே	-10.7532
▁ஸமயோ	-10.7534
▁அஞ்ஞதித்த	-10.7537
▁ஸவிதக்கஸவிசாரோ	-10.7551
யிதப்	-10.7562
அப	-10.7568
▁52.	-10.7569
▁அபசய	-10.7569
▁வினயோ	-10.7569
ஹனங்	-10.7573
▁ஸோதாபன்னோ	-10.7578
▁குப்	-10.7582
படிபதா	-10.7583
னிக்க	-10.7587
▁சதுரங்க	-10.7588
ஸாஸனே	-10.759
▁அஜ்ஜு	-10.7597
▁கத்தரி	-10.7607
காமோ	-10.7615
பெ	-10.7626
த்தித்வா	-10.7631
ம்பீதி	-10.7631
▁அஹம்பி	-10.7636
▁ஸமதே	-10.7648
▁ஸுதந்தி	-10.7653
▁விபஸ்ஸனாய	-10.7654
▁ஆஹாரங்	-10.7655
யந்தீதி	-10.7663
லோப	-10.7671
த்திகா	-10.7677
▁படிபத்தி	-10.768
▁கோத	-10.7682
ம்பு	-10.7684
ய்யத	-10.7684
▁கேஸா	-10.7687
ம்மவினயே	-10.7688
▁அபரோ	-10.7693
▁மாதிகா	-10.7695
▁ஜல	-10.7702
▁பாராஜிக	-10.7707
▁ஸங்ஸார	-10.7708
▁53.	-10.7709
ஸதே	-10.771
▁நிவத்த	-10.7716
வெந்தோ	-10.7718
கம்பி	-10.772
▁புரேஜாதே	-10.7732
▁ஏதா	-10.7736
கால	-10.7747
▁ஆஹாரபச்சயேன	-10.775
▁பரிஹாயதி	-10.7755
▁அஹேதுகங்	-10.7764
▁இமமத்	-10.7767
▁நிவாஸெத்வா	-10.7774
யேஹி	-10.7779
▁56.	-10.7782
▁த்வேவ	-10.7783
வாதா	-10.7783
▁விஸிட்ட	-10.7787
ரஹா	-10.7788
▁நாகா	-10.7792
மஞ்ஞ	-10.7793
ம்மிகா	-10.7794
▁உபேதி	-10.7795
யகத்தே	-10.7795
ளோ	-10.78
▁காயாயதனங்	-10.7808
ளபி	-10.7808
னாஸெக்க	-10.7809
▁ஹாரோ	-10.7811
▁திண	-10.7814
▁ஸங்வேக	-10.7816
▁அஸம்ப	-10.7817
▁ஹீன	-10.782
▁கரணீயங்	-10.782
▁ஸஹஜாத	-10.7822
▁மங்ஸ	-10.7822
லதோ	-10.7824
▁அகப்பிய	-10.7828
வீஸதி	-10.7828
▁சித்தஞ்ச	-10.783
னமக்	-10.783
இச்சாதி	-10.7834
▁ஆபத்தீனங்	-10.7835
ொக்க	-10.7841
வஸா	-10.785
ஸயங்	-10.7859
▁முத்த	-10.7863
யதீ	-10.7864
ல்லானோ	-10.787
▁அவிதக்கவிசார	-10.7871
▁தம்ஹா	-10.7874
புத்த	-10.7877
தியம்பி	-10.7878
யாவ	-10.7882
▁ஜானாதீதி	-10.7883
▁ஸஞ்ஞங்	-10.7884
ஞ்ஞு	-10.7889
▁கப்பிய	-10.7892
வெத்வா	-10.7897
▁அனபா	-10.7899
மினாப	-10.7907
▁வங்க	-10.791
யாவாரோ	-10.791
வத்தே	-10.7911
ரூமி	-10.7911
▁ஸாமஞ்ஞப	-10.7914
▁ஸாவகானங்	-10.7914
▁நஅப்	-10.7925
ணு	-10.7928
▁ஸுமனோ	-10.7935
▁காரேத	-10.7936
▁மானஸங்	-10.7936
▁சாயங்	-10.7948
▁ஸேஸேஸுபி	-10.7948
மெய்ய	-10.7949
▁தஸ்ஸாதி	-10.7951
▁57.	-10.7954
ந்தேஹி	-10.796
▁ஸாமணேரோ	-10.7972
ஜானி	-10.7973
ரஸா	-10.7975
உபெக்க	-10.7978
▁சாரிகங்	-10.7979
யதன	-10.798
யந்தா	-10.7987
▁உக்கே	-10.7996
▁பரேஹி	-10.7996
▁கச்சி	-10.7997
▁சேபி	-10.7997
மூலங்	-10.8004
டீ	-10.8014
ஸாக	-10.8014
▁ஸபி	-10.8015
ஜனா	-10.8015
ஸஞ்ஞங்	-10.8018
தோவ	-10.8021
▁அரஹந்தோ	-10.8025
▁ஹித	-10.8028
▁பஸன்னோ	-10.803
ஸுத்தே	-10.8037
▁ஸாகா	-10.8042
▁ஏகத	-10.8045
ண்ஹா	-10.8046
சாரோ	-10.8047
▁உபபரிக்க	-10.8049
▁அரஞ்ஞ	-10.805
▁கத்தா	-10.8051
▁பகாஸிதா	-10.8055
▁புராண	-10.806
ஸஹாயதனேஹி	-10.806
▁பனாயங்	-10.8063
▁யாவஜீவங்	-10.807
தாதீ	-10.8071
▁அமத	-10.8073
விதங்	-10.8075
▁நிச்சா	-10.8076
▁படிப்பஸ்ஸ	-10.8076
னவோ	-10.8076
▁தம்ப	-10.8081
ருசி	-10.8095
▁அப்படி	-10.81
▁கத்து	-10.8102
மானஸோ	-10.8103
▁ஆசரிய	-10.8105
பக்கே	-10.811
ஞ்ஞாதஞ்ஞஸ்ஸாமீதி	-10.811
ம்மதோ	-10.8112
லம்ப	-10.8112
ஞ்ஜன	-10.8118
▁மதங்	-10.812
▁ஸாமி	-10.812
▁அவஸேஸ	-10.8124
▁பச்சேகங்	-10.8126
▁விப்பயுத்தே	-10.8136
விஜ்ஜா	-10.8139
ேகக்	-10.814
ஜீவ	-10.814
அச்ச	-10.8143
▁பஹான	-10.8144
▁ஸேவித	-10.8146
▁குமாரோ	-10.8148
ஞாணேன	-10.8149
▁பாபத	-10.815
▁ஆயதன	-10.8155
▁ஸஸங்கா	-10.8157
▁மானானுஸயஞ்ச	-10.8164
பனத்த	-10.8165
▁அகுஸலஸ்ஸ	-10.8165
ரணோ	-10.817
மானஸ்ஸ	-10.817
பஞ்ஞாய	-10.8176
கம்ப	-10.8178
னவா	-10.818
ஸிதஸ்ஸ	-10.8181
முத்தமங்	-10.8181
▁காமாவசரங்	-10.8181
▁நாமரூபங்	-10.8181
ஸஸு	-10.8182
ப்பாய	-10.8185
குஸல	-10.8186
▁பச்சுப்பன்ன	-10.819
▁ஸீலாதி	-10.8197
▁நீல	-10.8199
▁60.	-10.8204
ஸ்ஸனதோ	-10.8205
▁பரிஸ	-10.8206
ஜதி	-10.8215
▁அனந்த	-10.8216
னகங்	-10.822
▁அஜ	-10.8221
▁மோத	-10.8221
▁கம்ப	-10.8222
▁வண்ணேன	-10.8225
▁58.	-10.8226
▁ஸரண	-10.8231
▁அனந்தர	-10.8232
▁ஸிலா	-10.8239
▁ஜோதி	-10.8241
▁63.	-10.8246
▁யஸோ	-10.8247
▁வசனத்த	-10.8261
ஸ்ஸேஸி	-10.8267
▁ஆபஜ்ஜி	-10.8267
▁உபத்த	-10.8271
▁ஸிரி	-10.8274
▁முத்தோ	-10.8277
▁ஸியுங்	-10.8283
ணெய்ய	-10.8285
▁அந்தோக	-10.8286
▁சேதஸிகங்	-10.8287
▁ஆரக்க	-10.8293
▁படிப்பஸ்ஸம்ப	-10.8294
▁மாணவோ	-10.8305
▁ஸப்படிக	-10.831
▁குண்ட	-10.832
▁ஸேனாஸன	-10.8321
▁ஸகவா	-10.8327
▁வசீகம்மங்	-10.8329
▁நீஹரித்வா	-10.833
▁பச்சுப்பன்னா	-10.8333
▁எத்தே	-10.8333
▁பாராஜிகஸ்ஸ	-10.8334
1	-10.8345
விதக்கவிசாரமத்தோ	-10.8346
▁வத்தங்	-10.8346
▁நேவஸெக்க	-10.8351
▁ஸம்முதி	-10.8353
▁விஸங்	-10.8356
▁ஹோமி	-10.8359
▁அந்தே	-10.8361
▁விவட்ட	-10.8362
ஸதீதி	-10.8365
▁விசாரோ	-10.8375
▁நஅனி	-10.8377
▁நேவாசய	-10.8383
▁முத்தா	-10.8383
க்கடஸ்ஸா	-10.839
ஸக்க	-10.8391
▁உப்பாதோ	-10.8392
ப்பயோக	-10.8401
▁நேக	-10.8407
▁பியா	-10.8416
மவோச	-10.842
ஸம்பயுத்தோ	-10.8421
▁தமேனங்	-10.8423
▁விஞ்ஞத்தி	-10.8427
▁59.	-10.8432
லகா	-10.8435
▁விப்	-10.844
▁திகங்	-10.8446
கரணேன	-10.8461
▁ஓலோகெந்தோ	-10.8461
▁உபபஜ்ஜித்வா	-10.8462
▁ஸுதி	-10.8464
▁அனுகம்ப	-10.8464
ஹத்தா	-10.8469
▁ஸீலேன	-10.8472
▁ரூபாவசர	-10.8481
▁பரியத்தி	-10.8481
யாபா	-10.8482
▁வாயோ	-10.8484
▁தேபி	-10.8487
ராணஸியங்	-10.8492
▁ஆபுச்ச	-10.8497
▁ரதோ	-10.8499
▁அஞ்ஜலிங்	-10.85
▁பரிஜானாதீதி	-10.8502
▁வினயத	-10.8503
னகானங்	-10.8504
ஸ்ஸஸி	-10.8506
லாபோ	-10.8513
க்கந்தங்	-10.8515
▁1-7	-10.8518
▁வாசதோ	-10.8519
▁பவத்தோ	-10.8529
ஸேஸா	-10.8529
சது	-10.853
கோடி	-10.8533
▁விஹரதோ	-10.8537
ஸமாதா	-10.8539
▁வேரமணீ	-10.8543
▁உஜு	-10.8552
▁அஹ	-10.8552
▁முஞ்ச	-10.8553
▁லோகுத்தரங்	-10.8555
ய்ஹதி	-10.8562
▁மாணவ	-10.8564
▁உப்பன்னே	-10.8564
▁மாதுகுச்ச	-10.8575
ஏவமேவ	-10.8577
னிக்	-10.8578
▁அஸங்க்	-10.8581
▁பச்சுப்பன்னங்	-10.8585
▁64.	-10.8586
▁சித்ததோ	-10.8586
வமனுஸ்ஸானங்	-10.8591
மனு	-10.8593
▁ஆரோசேஸி	-10.8596
வித்த	-10.8603
னுக	-10.8607
ஸ்ஸந்தீதி	-10.8612
▁ஸாமஞ்ஞ	-10.8612
ஹூனி	-10.8617
▁தஸ்மிங்யேவ	-10.8618
ஜெத்வா	-10.8619
▁61.	-10.862
▁ஸவிதக்கஸவிசார	-10.8624
▁பஜா	-10.8627
ஸுகு	-10.8627
▁உச்ச	-10.8632
▁ரதே	-10.8633
-1	-10.8634
▁ஆவாஸே	-10.8637
▁ஆஸிங்	-10.8649
▁அபரா	-10.865
வியங்	-10.865
▁அஞ்ஞதரஸ்மிங்	-10.8655
▁ஸசேபி	-10.8655
▁சுதோ	-10.8658
▁பரஞ்ச	-10.8664
▁ஜங்க	-10.8666
▁ஸஹப்	-10.8669
▁62.	-10.8669
ஹத்தே	-10.8672
▁ரூபாதி	-10.8685
ஜாத	-10.869
இதோ	-10.8693
▁வஸதி	-10.8698
▁மாதரங்	-10.8702
▁ஜே	-10.8703
▁67.	-10.8708
▁அவிதக்கஅவிசார	-10.8709
ரம்மணோ	-10.8711
▁கத்வான	-10.8712
ன்னாமோ	-10.8718
கிரிய	-10.872
படிப	-10.8721
ய்யந்தி	-10.8721
▁ஜர	-10.8725
▁லீனத்த	-10.8726
▁பகாஸ	-10.8727
▁தாத	-10.873
▁65.	-10.8736
▁ஸகிங்	-10.8736
▁அமு	-10.8738
▁அனநு	-10.8741
ன்னம்பி	-10.875
▁ஸேஸோ	-10.875
▁உஸ்ஸ	-10.8752
▁ஆஹாரா	-10.8755
னயேன	-10.8756
▁உப்பன்னஸ்ஸ	-10.8757
ுப்பாத	-10.8761
தம்பி	-10.8763
▁அண்ட	-10.8764
னவ	-10.8765
மோதி	-10.8767
ணாஸவஸ்ஸ	-10.8777
▁66.	-10.878
▁ஸானுஸயோ	-10.878
▁ஸங்யோஜன	-10.8782
▁பஞ்ஞவா	-10.8783
▁ஸாதே	-10.8787
யந்தீ	-10.8788
▁ஆயஸ்மதா	-10.8792
ரதாய	-10.8793
மேஸு	-10.8794
படிச்ச	-10.8794
▁உபதா	-10.88
▁பஞ்ஹா	-10.88
ந்தேஸு	-10.8804
▁அனத்ததோ	-10.8806
▁கடத்தா	-10.8811
▁ஸஞ்ச	-10.8815
வட்ட	-10.8817
▁பஸ்ஸித்வா	-10.8825
முபா	-10.883
▁பத்தகல்லங்	-10.8834
▁பிதரங்	-10.8839
ப்பத்தா	-10.8846
சரங்	-10.8846
▁நவமே	-10.8847
ல்லப	-10.885
▁ஆரோபெத்வா	-10.885
▁ஸஹேதுக	-10.8854
▁மயி	-10.8857
வீரியோ	-10.8863
▁நாவா	-10.8863
▁பத்தா	-10.8866
லாபே	-10.8867
▁ஆவாஸிகா	-10.8872
ஆம	-10.8872
▁வஸந்தி	-10.8877
▁அனந்தரூபனிஸ்ஸயோ	-10.8877
–-	-10.8877
▁ரஜ	-10.8878
▁புத்தே	-10.888
▁பஞ்சஹ	-10.888
ரபூ	-10.8884
▁வேளு	-10.8889
▁நஅகுஸலோ	-10.8896
▁வத்தி	-10.8897
ணக	-10.89
ஸச்சஞ்ச	-10.8902
▁68.	-10.8906
▁ஆபதா	-10.8907
▁உபஸங்கமி	-10.8909
ுப்பத்தி	-10.8921
மகோ	-10.8926
▁லபா	-10.8927
▁ஓலோகெத்வா	-10.8934
▁70.	-10.8935
▁அப்பஹீனோ	-10.8935
▁பவத்திங்	-10.8937
▁விது	-10.8939
▁அப்படிச்ச	-10.8939
ெந்தோ	-10.8941
▁அச்சா	-10.8942
யாஸனா	-10.8944
▁உக்கண்ட	-10.8954
யகதா	-10.8956
▁மாஸே	-10.8957
ஹிதே	-10.8958
வத்தி	-10.8958
காஸே	-10.8962
▁இதரே	-10.8963
▁மானத்தங்	-10.897
▁புண்ண	-10.8975
▁அயமத்	-10.8989
யஞ்ஜனங்	-10.8995
▁ஏவமித	-10.8996
▁ஸூ	-10.8996
▁லோகியா	-10.9007
யோஜனா	-10.9013
ணந்தஸ்ஸ	-10.9014
பஞ்ஞோ	-10.9018
▁பச்சனீக	-10.9022
▁ஸமுச்சே	-10.9031
அஞ்ஞமஞ்ஞ	-10.9034
தரா	-10.9036
▁ரூபாதீ	-10.9037
உச்சு	-10.9043
▁மஹித்	-10.9047
▁மஹாவீர	-10.9049
▁முக்	-10.905
▁அம்ஹே	-10.9051
லாய	-10.9063
▁ஸாதூ	-10.9066
ரட்டே	-10.9067
▁ஸண்ட	-10.9067
▁நிஜ்ஜ	-10.9072
நிப்	-10.9076
▁பபு	-10.9081
▁5	-10.9084
ணாதீ	-10.9089
ந்த்வான	-10.909
▁உபத்	-10.9094
▁மஹதோ	-10.9094
▁லோஹித	-10.9101
சாரீ	-10.9102
▁பகாரேன	-10.9104
▁நிரய	-10.9106
▁ஸமனுபா	-10.9119
▁ஸோதாயதனங்	-10.9122
▁பக்கமதி	-10.9123
லானஸ்ஸ	-10.9123
த்திய	-10.9123
▁மமங்	-10.9133
▁விஸுஜ்ஜ	-10.9139
▁ஸம்பத்தி	-10.9142
ரியபச்சயேன	-10.9143
ம்மகதி	-10.9152
▁உபட்	-10.9154
▁முச்சதி	-10.9154
▁ஸிஜ்ஜ	-10.9159
▁பீதியா	-10.9162
▁பாது	-10.9169
குஸலங்	-10.9177
ஸாமி	-10.918
யுங்	-10.9182
▁ஜானங்	-10.9184
▁கல்யாண	-10.9186
▁பியங்	-10.9191
▁ஜனே	-10.9194
▁அச்சந்த	-10.9197
ஸஜ்ஜங்	-10.9197
மனதோ	-10.9207
ல்லா	-10.9208
▁வனங்	-10.9214
▁நாமரூப	-10.9216
▁ஸம்பத்தே	-10.9217
படிபக்க	-10.9217
ரம	-10.9217
ஹேதுகஸ்ஸ	-10.9218
ஹட்ட	-10.9218
▁கரோத	-10.9219
▁வுத்தோதி	-10.922
ன்னாய	-10.9223
▁சேதியங்	-10.9224
▁ஸுத்வான	-10.9233
ணிதா	-10.9233
ஹுஸ்ஸுதோ	-10.9234
ஹாரே	-10.9238
தமங்	-10.9238
▁ஸல்ல	-10.9242
▁ரஸா	-10.9247
ஞ்ஞெய்யங்	-10.9252
ணனா	-10.9254
▁71.	-10.9254
▁ஸச	-10.9257
▁அனபெக்க	-10.9259
வர	-10.9265
▁ஆரம்ப	-10.9267
கமேவ	-10.9273
▁ஸாவகோ	-10.928
▁69.	-10.9284
முப	-10.9285
ஸஹங்	-10.929
▁அப்பமத்தோ	-10.9292
▁பரிவார	-10.9305
▁புரிமங்	-10.931
▁ஸேனா	-10.9312
▁ஸமேதி	-10.9316
▁ய்வாயங்	-10.9318
வத்தங்	-10.9318
▁உபசார	-10.9321
▁மானங்	-10.9325
ணிதீ	-10.9326
▁ஜஞ்ஞா	-10.9326
▁73.	-10.9327
▁உபஸக்	-10.933
▁ஸ்வேவ	-10.9332
ரஹ்மசரிய	-10.9334
▁பாசித்தி	-10.9336
▁ஸோமனஸ்ஸங்	-10.9339
ம்மிகோ	-10.9353
மந்தா	-10.9354
ஓ	-10.9357
ஹரண	-10.9361
▁ஆலோகோ	-10.9364
ரபச்சயா	-10.9366
மகாஸி	-10.9371
▁அலாப	-10.9377
ல்லச்சயங்	-10.9382
▁பரிஞ்ஞா	-10.9387
ரிதப்	-10.939
▁ஸமாஸ	-10.9395
லான	-10.9396
▁தேஸங்யேவ	-10.9402
ஆவுஸோ	-10.9402
கதமே	-10.9414
▁அபரி	-10.9415
வாதோ	-10.9419
▁ஸீஹோ	-10.9425
▁ஜாயந்தி	-10.9429
▁ஹிரீ	-10.9433
▁ஸரா	-10.9435
விதத்தா	-10.9441
▁74.	-10.9443
▁விஸேஸேன	-10.9444
ரஹ்மசாரீ	-10.9445
ங்யேவ	-10.9448
▁பாதா	-10.9452
▁புரிமனயேனேவ	-10.9465
▁அவிதக்கஅவிசாரோ	-10.9467
▁வாஸெட்ட	-10.9472
▁யாசதி	-10.9472
ஸாவகா	-10.9474
▁முச்சி	-10.9478
விக்க	-10.9482
விதுங்	-10.9482
▁மஹாதா	-10.9483
▁இதரா	-10.9483
▁ஹேவ	-10.9488
▁இதரோ	-10.9491
ஞ்சாபி	-10.9493
▁புல்லிங்க	-10.9494
▁பாபகம்மங்	-10.9495
▁கதாதி	-10.9497
▁72.	-10.9502
காரண	-10.9505
▁சீவரே	-10.9508
▁அச்சயேன	-10.9511
▁ஸவிதக்கஸவிசாரா	-10.9513
ஜீ	-10.9514
▁உபாஸிகா	-10.9516
▁மனஸிகாரோ	-10.9519
▁இதரங்	-10.952
▁ஸஞ்ஜாத	-10.9521
யஸ்மிங்	-10.9525
ரம்ப	-10.953
▁பஞ்ஹோ	-10.9543
ஸெந்தி	-10.9549
▁75.	-10.9554
▁மனாபா	-10.9557
▁அஸங்கா	-10.9558
ருத	-10.9579
விஸயே	-10.9583
ரணேன	-10.9583
▁அனுஞ்ஞாதங்	-10.9584
யஸ்மா	-10.9593
லக்	-10.9597
ஹுதா	-10.9599
னகாலே	-10.9605
▁வினயங்	-10.9612
▁அபரேன	-10.962
ங	-10.9621
▁உப்பஜ்ஜெய்ய	-10.9623
▁விஹரெய்ய	-10.9623
யுத்தங்	-10.9625
▁மஹந்த	-10.9627
▁கண்ண	-10.9632
யோஜன	-10.9633
வினோத	-10.9633
யமானே	-10.9634
▁ஸஹஸ்ஸங்	-10.9635
முத்தா	-10.9636
▁அஸத்	-10.9639
▁ஸமதா	-10.9639
▁அக்கி	-10.9646
▁ஸகே	-10.9654
▁மஹாராஜா	-10.9655
▁அபர	-10.9655
ஸெஸ்ஸாமி	-10.9656
ம்மி	-10.9656
▁சோரா	-10.9659
▁தண்ஹங்	-10.9659
னங்யேவ	-10.9662
▁வத்தமானே	-10.9663
▁லாபா	-10.9668
▁சுந்த	-10.9671
▁அபனெத்வா	-10.9678
சீவரங்	-10.9679
ஸீமா	-10.9681
▁ரஜ்ஜ	-10.9683
பச்சயே	-10.9692
▁புரக்க	-10.9693
யாகத	-10.9695
▁ஹீதி	-10.9697
▁வஸா	-10.9702
▁ஜாத	-10.9703
▁ஸங்வரோ	-10.9704
வினயோ	-10.9707
ரதன	-10.9712
ராம	-10.9714
▁பஞ்ஞாப	-10.9715
▁லூக	-10.9715
▁ஹத்தீ	-10.9716
ஸம்போ	-10.9718
வுத்	-10.9719
▁ஆணா	-10.9726
▁பாபகங்	-10.9732
▁லா	-10.9734
அனாபத்தி	-10.9738
ீயதி	-10.9739
▁குரு	-10.974
ஸாஸு	-10.9741
மஜ்ஜி	-10.9745
▁ஆராம	-10.9746
ணாய	-10.9767
▁76.	-10.9769
சாரா	-10.9775
த்திகோ	-10.978
▁அனுக்கமேன	-10.9781
லித	-10.9783
▁விதக்க	-10.9783
▁ஸமாபத்திங்	-10.9786
▁ஸமத்த	-10.9787
ஸிதே	-10.9788
▁அவதா	-10.9789
▁ஸூரியோ	-10.9791
னட்டா	-10.9797
▁ஸமணஸ்ஸ	-10.9797
▁ஸமித்	-10.9801
வத்தப்	-10.9803
▁கிரியங்	-10.9804
மாபி	-10.9805
▁ஸோஹங்	-10.9807
த்திக	-10.9808
▁இதரஸ்ஸ	-10.9811
யுத்தோ	-10.9812
▁ஸமானா	-10.9821
▁உத்தமங்	-10.9823
னுக்	-10.9824
வது	-10.9824
▁பீதிஸுக	-10.9826
▁விபுல	-10.983
ஹிதானி	-10.9833
வச்ச	-10.9834
▁தும்ஹேஹி	-10.9836
ஸயா	-10.985
▁நீவரணா	-10.9854
ஜ்ஜனஸ்ஸ	-10.9854
▁பத்தியா	-10.9855
▁மோஹஸ்ஸ	-10.9855
▁ஸாரதி	-10.9859
▁குலங்	-10.9859
▁மாரிஸ	-10.9865
மூலகங்	-10.9865
▁ஸஹேதுகா	-10.9871
▁ஏதேனேவ	-10.9873
▁அத்தமனோ	-10.9876
னஞ்சேவ	-10.9877
▁காள	-10.9882
வாரவண்ணனா	-10.9884
▁ரஸ்ஸோ	-10.9891
தாயாதி	-10.99
▁ததியம்பி	-10.99
வசனே	-10.9902
▁விஞ்ஞாணஸ்ஸ	-10.9904
ஸவித	-10.9907
யாபி	-10.9909
▁ஸமீபே	-10.991
ரிவ	-10.9912
முக்	-10.9914
▁பஞ்ஞத்தந்தி	-10.9916
▁ஆஹங்ஸு	-10.9916
▁படிபாடியா	-10.992
▁மோஹா	-10.9922
▁77.	-10.9926
▁அனுச்ச	-10.9929
மிஸ்ஸதி	-10.993
▁அரோக	-10.9931
▁சேதி	-10.9932
வத்திங்ஸ	-10.9934
▁பச்சயபச்சனீயங்	-10.9936
தஸ்ஸா	-10.994
லிகங்	-10.9942
ஸாதீ	-10.995
ரகங்	-10.9959
▁மனஸிகரோதோ	-10.9962
▁நோஆஸவ	-10.9964
▁வுத்தம்பி	-10.9965
▁அரியஸச்சங்	-10.9967
▁லோகனாத	-10.9969
பீட	-10.9976
▁உபாக	-10.9977
ஸ்ஸாமா	-10.9981
▁அனவஜ்ஜ	-10.9983
ரிகங்	-10.9983
ஸீலோ	-10.9984
▁ஹத்தா	-10.9984
ம்மகத	-10.9985
வஜ்ஜ	-10.9987
வதாய	-10.9988
வீரிய	-10.9989
▁குதா	-10.9994
▁ஸஞ்ஞ	-10.9996
மல	-11.0002
▁அஸீதி	-11.0005
▁ஆகாஸானஞ்சாயதன	-11.0011
பூஜாயி	-11.0015
▁அபரியாபன்னே	-11.0033
ஜ்ஜித்வா	-11.0036
▁அனுஸாஸ	-11.0038
▁மானானுஸயேன	-11.0053
▁வாக்யங்	-11.0054
▁குத்	-11.0056
▁வஸே	-11.0058
▁அரியானங்	-11.0063
▁அமோஹோ	-11.0066
▁ஜாக	-11.007
ஹிபி	-11.007
மதீ	-11.0075
▁அய்யே	-11.0076
காரணா	-11.0079
▁லோகுத்தரா	-11.008
▁ஆஹு	-11.0085
▁ஏகிஸ்ஸா	-11.0087
கரணஸ்ஸ	-11.0094
யிகா	-11.0094
வாரா	-11.0096
ம்மீ	-11.0097
▁ராஸி	-11.0098
▁மச்சே	-11.0099
ஸுவண்ண	-11.0108
▁யஸ்ஸா	-11.0116
▁அஸு	-11.0121
▁ஸங்வர	-11.0121
வாஸங்	-11.0122
வதே	-11.0129
ணாஸவ	-11.0133
▁வஸித்வா	-11.0134
▁விஞ்ஞூ	-11.0147
பது	-11.0147
▁80.	-11.015
▁ஜானந்தோ	-11.0153
தஸ்மா	-11.0154
லாபா	-11.0158
ஸாஸன	-11.016
▁ஸஹஸா	-11.0164
▁ஏகப	-11.0175
▁பாகடா	-11.019
▁கோடி	-11.0196
ஹரி	-11.0201
▁அகத	-11.0202
பரிஸா	-11.0205
▁83.	-11.0206
▁பக்கே	-11.0212
▁காயஸங்ஸ	-11.022
▁வத்தே	-11.0231
▁ஹட்ட	-11.0233
ம்ஹீதி	-11.0236
லம்பி	-11.0237
▁நிரத்த	-11.0243
▁78.	-11.0247
▁86.	-11.0247
▁81.	-11.0248
▁பரிகம்ம	-11.0248
ஸம்முதி	-11.0252
▁84.	-11.0256
▁பஜஹ	-11.0256
▁ஹவே	-11.0259
ஸாபா	-11.0263
விஹாரே	-11.0263
▁மனங்	-11.0267
▁கரிஸ்ஸாமி	-11.0268
▁கரணீயா	-11.0272
▁விஸேஸங்	-11.0279
யதங்	-11.0285
ரூபேன	-11.0291
யோகா	-11.0293
▁உபாயேன	-11.0295
க்கெ	-11.0295
▁நாமானி	-11.0297
▁கிஞ்ச	-11.0303
▁அஞ்ஞாணங்	-11.0308
விஸாணகப்போ	-11.0312
▁90.	-11.0313
விமுத்தோ	-11.0314
வாஸினோ	-11.0318
ஹுலே	-11.0318
▁87.	-11.0318
▁நிஸ்ஸரணங்	-11.032
▁நாத	-11.0322
ரியேஸு	-11.0322
▁கனிட்ட	-11.0328
▁பவத்தந்தி	-11.0331
▁மஹாமுனி	-11.0338
▁ஏவந்தி	-11.034
▁பாரங்	-11.0344
த்தியங்	-11.0344
▁ஸக்கொந்தி	-11.0345
▁யஸ	-11.0346
▁வீத	-11.0351
ராஹ்மணே	-11.0352
▁ஏகமேவ	-11.0354
▁பஹீயதி	-11.0356
கம்மட்ட	-11.0356
▁அனிச்சாதி	-11.0358
▁புரிஸானங்	-11.0364
▁ஸம்மாஸதி	-11.0365
மியோ	-11.0366
▁அஸ்மிங்	-11.0368
யீதி	-11.0371
மத்தனோ	-11.0376
▁பொத்த	-11.0385
▁மஹதா	-11.0387
▁ஸரோ	-11.0388
பாளி	-11.0392
இத்	-11.0397
▁ஸேவி	-11.0398
▁கிந்தி	-11.0399
ன்னாமங்	-11.0399
▁மஹாபத	-11.04
▁ஆபு	-11.0403
▁கரிஸ்ஸதி	-11.0403
▁ஸீஹள	-11.0408
உபோஸத	-11.0409
ரியேன	-11.041
▁79.	-11.0412
▁ஸகலங்	-11.0413
▁அனோ	-11.0414
▁ஓகாஸ	-11.0415
▁ஆஸனங்	-11.0419
மினியா	-11.0421
▁கம்மானங்	-11.0421
யுத்தா	-11.0423
பரியாய	-11.0425
▁82.	-11.0428
▁அனுத்தரோ	-11.0431
ானுப	-11.0439
ரோபி	-11.044
▁நிஸின்னஸ்ஸ	-11.0442
ம்மஸுக	-11.0449
ம்மானுபஸ்ஸீ	-11.0452
▁பஸ்ஸதீதி	-11.0453
▁அனுயோக	-11.0456
டெத்வா	-11.0456
யஸனங்	-11.0459
▁ஆரம்மணபுரேஜாதங்	-11.046
▁பஸீத	-11.0462
▁பியோ	-11.0468
▁ஜவன	-11.0473
புரிஸா	-11.0487
தேனாதி	-11.0494
யேஸு	-11.0505
▁வஸந்தோ	-11.0507
▁ஸம்பிண்ட	-11.0521
மூலக	-11.0521
▁அவச	-11.0521
ரஹிதா	-11.0522
▁மஹாப	-11.0523
▁அத்தமனா	-11.0534
▁பாஸாதி	-11.0535
▁மஹ	-11.0541
▁பலிபோ	-11.0543
க்கடந்தி	-11.0547
யிஸ்ஸாமி	-11.0554
ரதே	-11.0558
தபச்சயா	-11.0559
▁ஹரி	-11.0565
▁கயிரா	-11.0576
▁பஸ்ஸந்தி	-11.0578
▁88.	-11.0579
▁கேவலஸ்ஸ	-11.0581
▁சேதிய	-11.0583
▁ரதனங்	-11.0584
▁பாளியா	-11.0589
▁திரியங்	-11.0591
லோதி	-11.0592
▁ஸம்மத	-11.0598
ேஸூதி	-11.0601
லகங்	-11.0601
▁அஞ்ஞஸ்மிங்	-11.0604
அவிதக்கவிசாரமத்த	-11.0605
▁கூட	-11.0608
▁வோஹார	-11.0613
6	-11.0614
▁வக்கா	-11.0615
▁கரோஹி	-11.0619
▁மஹாஜனஸ்ஸ	-11.062
ஹுல	-11.0629
▁விபுலங்	-11.0638
▁பஞ்ஞாவிமுத்தி	-11.0638
▁ஸாரம்ப	-11.0639
னிவேஸ	-11.064
ரம்பி	-11.0648
▁காயப	-11.0648
ஸீஸ	-11.0649
▁ஸீஸே	-11.0655
▁பரிபுச்ச	-11.0658
▁அஹோஸிங்	-11.0662
▁ஸாமக்	-11.0663
லஸமாபத்தியா	-11.0665
ஸம்பன்னா	-11.0665
▁அனுபக	-11.0666
▁ஸீஸ	-11.0667
▁விமான	-11.0679
மானாய	-11.0685
மிகா	-11.0687
▁ஆர	-11.0689
னெய்ய	-11.0699
▁ஸாலி	-11.0699
▁கஸ்ஸபோ	-11.07
▁கண்ஹ	-11.07
▁நாஸ	-11.0702
▁ஞா	-11.0705
▁பஹீன	-11.0709
▁89.	-11.0715
எத்த	-11.0715
▁ஸமதிக்கம்ம	-11.0715
▁அரூபினோ	-11.0717
▁ஆரம்மணூபனிஸ்ஸயோ	-11.0717
▁கபில	-11.072
▁அஸக்கொந்தோ	-11.0722
▁சேதோ	-11.0724
▁பரியாய	-11.0725
▁பகு	-11.0728
ணப	-11.0734
▁ஓர	-11.0737
ஹெய்ய	-11.0742
மமக்	-11.0744
ரஹ்மலோகே	-11.0746
▁புத்ததா	-11.0748
▁91.	-11.0749
▁ஆராத	-11.075
பரிதீ	-11.075
▁அஞ்ஞதர	-11.0753
வரங்	-11.0755
▁கூடாகா	-11.0757
ப்பமாண	-11.0762
ணவஸேன	-11.0762
பாதங்	-11.0762
ஸங்கீ	-11.0765
▁யுத்தா	-11.0767
▁ஆதே	-11.0775
▁யாசிதோ	-11.0779
▁பகதியா	-11.0786
பரிச்சாக	-11.0787
▁தண்ஹாதி	-11.0789
▁பரிஞ்ஞாய	-11.0789
▁அகு	-11.0794
▁பச்சயேஹி	-11.0796
▁மந்தே	-11.08
▁பரிஸங்	-11.0803
▁ஹீனங்	-11.0805
▁ஸதிபி	-11.0807
ரெந்தோ	-11.0809
▁85.	-11.0818
▁நிப்பா	-11.082
▁ஜனங்	-11.0821
▁பூஜ	-11.0823
புரேஜாதங்	-11.0823
▁விஸ்ஸட்ட	-11.0825
தானீதி	-11.083
▁நாஸ்ஸ	-11.0835
▁ஸமூஹ	-11.0836
ப்பாதே	-11.084
▁ஸமதோ	-11.0844
▁ஸுப்ப	-11.0848
▁பஸ்ஸங்	-11.0851
▁மொக்க	-11.0854
ச்சு	-11.0856
▁ஹொந்து	-11.0857
ம்மகம்மே	-11.0862
▁ஞாதப்	-11.0864
ஞ்ஞெய்யோ	-11.0865
▁ஆம	-11.0866
ம்மபா	-11.0878
▁வயோ	-11.0883
▁காமோ	-11.0884
ஸனாவஸானே	-11.089
துகாமா	-11.089
காரதோ	-11.0895
ஸம்பயுத்தங்	-11.0899
▁சுதா	-11.0901
ஹரோ	-11.0904
▁இமினாவ	-11.0909
வினா	-11.0911
னஸ்ஸித	-11.0915
▁அனாஸவா	-11.0918
சித்தானி	-11.0921
▁பஞ்சவோகாரே	-11.0924
▁பஞ்ஞபெந்தி	-11.0924
▁உபனிஸ்ஸய	-11.0925
தீஹி	-11.0925
▁அக்கோஸ	-11.0925
▁ரத்திந்தி	-11.0925
வசனதோ	-11.0929
ஏதங்	-11.093
மிதோ	-11.0931
ஜக	-11.0935
ண்ணா	-11.0935
வரோ	-11.0938
▁தேனாதி	-11.094
ரஹ்மே	-11.0945
▁சதுவீஸதி	-11.0948
னிகா	-11.0955
▁ஸமனுபஸ்ஸதி	-11.096
▁94.	-11.0964
▁ஸுரா	-11.0964
▁92.	-11.097
▁ஹோதூ	-11.0973
ண்டீ	-11.0975
▁பஞ்ஹே	-11.0975
ராமே	-11.0987
ஜனானி	-11.0994
▁ஸுகீ	-11.0996
பரிபா	-11.0999
த்தயங்	-11.101
▁நிவாஸ	-11.1011
த்யாதி	-11.1012
▁அரணோ	-11.1016
வாசா	-11.103
▁பாண	-11.1033
▁ரஸோ	-11.1035
கதமா	-11.1035
▁குஸலத்திக	-11.1038
▁93.	-11.1042
▁படிபஜ்ஜ	-11.1045
ஜெய்ய	-11.1046
ஸாஸனங்	-11.1046
ஸஜ்ஜபரிக்	-11.1046
ஜ்ஜே	-11.105
▁கரணங்	-11.1051
▁இஸ்ஸரோ	-11.1055
காரக	-11.1059
▁கரோதா	-11.106
ம்மிகங்	-11.1064
தீஸு	-11.1065
பரிப்	-11.1075
வதானங்	-11.1078
சித்தே	-11.1078
▁ஸம்மோஹ	-11.1079
அட்டா	-11.108
மானேன	-11.108
▁ஸீலேஸு	-11.1085
வோசுங்	-11.1094
னெத்வா	-11.1094
ல்லச்சயஸ்ஸ	-11.1098
லிங்	-11.1099
▁ஸரூபதோ	-11.1104
▁ஸம்பதா	-11.1105
ுப்	-11.1109
மெத்வா	-11.1113
கண்ட	-11.1119
▁ஸவிப	-11.1122
ணத்தா	-11.1122
▁ஸம்பயுத்த	-11.1127
ப்பமுக	-11.1131
▁ஆபத்தாதி	-11.1136
▁பண்ண	-11.1136
ஹந்தோ	-11.1141
▁நிஸ்ஸரண	-11.1143
ரவங்	-11.1143
▁வீ	-11.1146
▁மானுஸங்	-11.1156
▁தாஸு	-11.1161
▁பதீ	-11.1165
மேத	-11.1166
▁ஆசரியேன	-11.1167
▁பஸ்ஸி	-11.1168
▁97.	-11.1169
▁விக்கே	-11.117
▁விவத	-11.118
னீயே	-11.1181
▁ஓளாரிகா	-11.1186
▁மெத்தாய	-11.1194
▁ஸாபி	-11.1201
ஹக	-11.1202
▁ஸமாபன்னஸ்ஸ	-11.1203
▁ஆகிஞ்சஞ்ஞாயதன	-11.1206
▁ஸம்மாவாயாமோ	-11.1212
▁தனு	-11.1214
▁நாரீ	-11.1214
▁சதுதா	-11.1214
▁வித்த	-11.1225
▁லோகியலோகுத்தர	-11.1225
▁அஹேதுகோ	-11.1227
▁பரித்தோ	-11.1233
ன்னந்தி	-11.1242
▁அந்தலிக்க	-11.1246
புண்ண	-11.1247
▁ஸம்பன்ன	-11.1248
வாஸே	-11.125
▁ஸவன	-11.126
▁காரிதே	-11.1264
வாரேன	-11.1267
▁துட்ட	-11.1267
▁ஆசரியா	-11.1273
▁காமாவசரே	-11.1278
▁தீரே	-11.1278
▁ஸிரஸா	-11.1279
▁கரொந்தா	-11.128
▁பகாஸிதோ	-11.1281
▁ஹே	-11.1286
வகே	-11.129
▁அனவஸேஸ	-11.1297
ப்பத்தி	-11.1298
ச்சரித	-11.1298
பாடிதே	-11.1298
அப்ப	-11.1298
விராக	-11.1303
▁பரமங்	-11.1303
▁ஸேதி	-11.1307
முத்த	-11.1307
▁பச்சயபா	-11.1308
▁கரண	-11.1309
ண்ஹாதீதி	-11.1309
னீயா	-11.1316
▁பணி	-11.1317
னீயோ	-11.132
▁ஆஸவோ	-11.132
▁காராபெத்வா	-11.1321
கச்சே	-11.1322
▁குலானி	-11.1324
▁ஆஸ	-11.1328
▁சதுஸச்ச	-11.1329
▁கட்ட	-11.1331
ப்பபா	-11.1332
முத்தர	-11.1337
ராஜி	-11.1339
▁ண	-11.135
னிஸ்ஸிதா	-11.1364
▁அனாபத்தீதி	-11.1368
ுபட்டா	-11.1369
▁லஹு	-11.1371
▁ஸத்தஸு	-11.138
▁ராஹுல	-11.1382
ரணபூ	-11.1386
▁லோகதா	-11.1388
ணாஸவா	-11.14
▁ரூபாவசரங்	-11.1401
▁விக்கி	-11.1402
ஏஹி	-11.1404
▁விப்ப	-11.1406
▁அரியங்	-11.1408
▁உப்பஜ்ஜமானா	-11.1408
ஜால	-11.1419
ம்மசக்கங்	-11.1419
மய்ஹங்	-11.142
▁அவேச்சப்பஸாத	-11.1423
▁95.	-11.1423
வச	-11.1423
▁சோர	-11.1425
▁ஏவமாஹங்ஸு	-11.1429
▁தஸ்ஸாபி	-11.1431
▁ஸுதேன	-11.1433
▁ரதா	-11.1439
யகா	-11.1439
ண்ணங்	-11.1443
▁படிச்சஸமுப்பன்ன	-11.1447
▁தாபஸோ	-11.1449
சத்தாரோ	-11.1462
லத	-11.1471
சரே	-11.1472
▁சித்தஸஹ	-11.1477
▁புத்தஸ்ஸ	-11.1479
▁ஸத்தமோ	-11.1483
▁18	-11.1483
வினய	-11.1484
▁அரஞ்ஞங்	-11.1487
▁லோஹிதங்	-11.1488
▁ஹர	-11.1492
மகே	-11.1493
ஹிதாதி	-11.1493
▁மோஹங்	-11.1496
ஸன்னி	-11.15
▁ஸங்விதா	-11.1512
▁ஸூசி	-11.1516
▁ஸம்மதி	-11.153
▁96.	-11.1534
▁ஸோகபரி	-11.1534
▁மஞ்ஞமானோ	-11.1535
▁ஸாவக	-11.1548
ந்தோபி	-11.1549
சீ	-11.1556
▁இவ	-11.1558
ஜானங்	-11.156
▁வாரி	-11.1563
ஞ்சா	-11.1564
ஸம்ம	-11.1567
▁மனுஸ்ஸே	-11.1569
▁ரூபாவசரே	-11.1571
ருகா	-11.1577
▁அனாஸவங்	-11.1578
▁ஞாணத	-11.1584
▁மஹாஜனோ	-11.1587
விப்பயுத்தோ	-11.1587
▁விகாலே	-11.1589
▁நியத	-11.159
▁ஜானெய்ய	-11.1592
▁கரோமி	-11.1593
ஹாதி	-11.1595
▁ஸஞ்சிச்ச	-11.16
குடி	-11.1604
▁ஹொந்தீ	-11.1604
பவத்தி	-11.1606
தத்ர	-11.1607
ங்ஸூதி	-11.1608
▁திப்	-11.1615
▁பானீயங்	-11.1616
▁விமானங்	-11.1619
▁மனுஸ்ஸலோகே	-11.162
▁ஜந்து	-11.1632
ஸமய	-11.1633
லிச்ச	-11.1634
அன	-11.1641
ஸ்ஸனவஸேன	-11.1643
ஸவஸேன	-11.1644
▁ஏகவித	-11.1644
▁100.	-11.1646
ஞாணஸ்ஸ	-11.1646
த்வங்	-11.165
ப்பப	-11.165
வேனேவ	-11.1655
▁வாயமதி	-11.1656
கரோதி	-11.166
ரெந்தி	-11.166
▁ஜிக	-11.1662
▁ஸஸ்ஸத	-11.1664
ஸர	-11.1665
ஞ்ஜெய்ய	-11.1667
வஹங்	-11.1673
னேனாதி	-11.1673
ஸோபி	-11.1677
▁புரிஸேன	-11.1678
▁படிஸந்தா	-11.1683
▁99.	-11.1683
▁98.	-11.1683
புரே	-11.1688
▁நானத்த	-11.1689
▁அலோபோ	-11.1691
▁வுத்தஞ்ஹி	-11.1691
ந்தகட்ட	-11.1691
ண்ஹங்	-11.1692
▁லாபோ	-11.1699
▁மாரஸ்ஸ	-11.1699
ஸிதானி	-11.1699
படிச்சா	-11.1704
▁ஆவஜ்ஜன	-11.1705
▁யோகோ	-11.1707
அனாக	-11.1707
▁வட்டது	-11.171
ணிதங்	-11.171
▁ஜராய	-11.1712
▁ஆஸவவிப்பயுத்த	-11.1713
▁பாஸாண	-11.1715
▁அனுத	-11.1719
▁ஸுப்பதிட்ட	-11.1722
▁விஹேட	-11.1724
ரனிக்க	-11.1727
▁விஜ்ஜமான	-11.1732
கூட	-11.1733
▁நராஸப	-11.1735
பரிச்சி	-11.1736
▁ஸிவ	-11.1737
பனதோ	-11.1739
னுபஸ்ஸனா	-11.1743
▁உத்தரிமனுஸ்ஸ	-11.1745
விபத்தி	-11.1746
▁அவஸேஸங்	-11.1747
▁ஏகம்பி	-11.1747
▁வந்தா	-11.1749
▁ஓஸ	-11.175
னிவேஸோ	-11.1754
▁மூலே	-11.1763
▁பரக்கம	-11.1764
ஸாகா	-11.1767
▁கரிஸ்ஸாமீ	-11.1768
ஸமாக	-11.1773
▁ஸங்யோஜனானி	-11.1773
விந்த	-11.1774
▁உட்டி	-11.1774
பஞ்சஹி	-11.178
துபூ	-11.1782
க்கரங்	-11.1783
▁பரியுட்ட	-11.1783
▁யேவ	-11.1792
▁நசிரஸ்ஸேவ	-11.1797
▁ஏதாயாதி	-11.1805
▁நிர	-11.1805
பமா	-11.1807
▁ஸுது	-11.1809
மாஸ	-11.181
யமேவ	-11.1811
ஜெட்ட	-11.1811
னுயோக	-11.1812
▁ஸமாபன்னோ	-11.1813
▁நிபாதமத்தங்	-11.1813
▁லோகுத்தரத	-11.1816
வுட்	-11.1817
னிவாஸ	-11.1817
ஹாபெத்வா	-11.183
▁மெத்தங்	-11.1832
ஹேஸி	-11.1834
▁ஏகேக	-11.1847
▁ஹந்த	-11.1849
ஜ்ஜந்தி	-11.1851
ொட்ட	-11.1853
▁நெத்வா	-11.1856
ம்மானு	-11.1858
▁உப்பஜ்ஜந்தீதி	-11.1861
▁அரியத	-11.1866
ன்னானங்	-11.187
ரிகோ	-11.1873
▁அவண்ணங்	-11.1874
அரிய	-11.1878
▁ஸங்யோக	-11.188
▁அல்ல	-11.1881
▁யுவா	-11.1883
▁உஸப	-11.1884
▁மஹந்தோ	-11.1887
▁புரேஜாதஸ்ஸ	-11.1896
மேஹி	-11.1899
▁மனோஸம்ப	-11.1899
னேபி	-11.1902
▁சர	-11.1903
▁வாரே	-11.1905
மப்	-11.1905
▁பகாஸெத்வா	-11.1912
▁ஸேவ	-11.1912
வஸி	-11.1915
▁ரூபாயதனஞ்ச	-11.1916
▁நாயங்	-11.1918
▁உபலக்க	-11.1927
▁அனுப்பத்தோ	-11.1927
▁உத்தமோ	-11.1931
▁குடி	-11.1932
▁ஸோசதி	-11.1937
ப்பமாணங்	-11.1938
மக்கா	-11.1938
▁திணவத்த	-11.1939
மங்ஸங்	-11.1939
ணன	-11.1942
ருகங்	-11.1953
▁ஏகந்தேன	-11.1955
▁ஆசரியஸ்ஸ	-11.1958
▁ஸமணங்	-11.1959
▁பஹீனத்தா	-11.196
▁ஓப	-11.1962
வுத்தங்	-11.1962
காமகு	-11.1965
ஜனீய	-11.1972
▁பரிதீ	-11.1975
▁ஏவமேதஸ்ஸ	-11.1978
மத்தி	-11.1978
ப்பஹானங்	-11.1983
▁அபுப்	-11.1984
▁கிலேஸோ	-11.1985
▁உளார	-11.1988
▁வத்தந்தி	-11.1993
▁ஸமெந்தி	-11.1994
சதுத்த	-11.1994
ப்பாத	-11.1995
அஸ	-11.2
▁விமுத்தோ	-11.2001
▁ஸாயங்	-11.2001
▁நஸரண	-11.2005
ரணதோ	-11.2006
▁நக்	-11.2007
யவக்	-11.2007
▁உப்பஜ்ஜித்வா	-11.2015
▁பராப	-11.2015
வராஜா	-11.202
வேனாதி	-11.2021
▁தருண	-11.2024
▁அனுப்பன்னா	-11.2028
▁பஸன்னா	-11.203
▁அட்டீ	-11.2031
▁ஸமிஜ்ஜ	-11.2031
ரீகா	-11.2032
ராபி	-11.2041
காயங்	-11.2046
கரணா	-11.205
படிவேத	-11.2053
ஹரணங்	-11.2054
கப்பே	-11.2059
▁ஸேஸானி	-11.2059
விமொக்க	-11.206
ஹுதரா	-11.206
▁இஸ்ஸா	-11.2062
▁நியதோ	-11.2066
வசனஸ்ஸ	-11.2069
▁ரூபாவசரானங்	-11.207
▁அலபி	-11.2071
மூ	-11.2074
▁103.	-11.2077
ஹீனங்	-11.2078
▁பவட்	-11.208
▁பாபிகா	-11.2081
▁கஞ்ஞா	-11.2083
▁பரியோதா	-11.2088
யிஸ்ஸ	-11.2094
▁வீர	-11.2098
மூலகா	-11.2102
▁ஸாமிவசனங்	-11.2102
▁ஸரித்வா	-11.2106
▁வீரியாரம்ப	-11.2106
▁அவிப	-11.2107
▁ஆஸேவனபச்சயே	-11.2108
▁விஞ்ஞாபெத்வா	-11.2109
▁ரஸ்ஸ	-11.2113
▁நிந்த	-11.2116
▁கம்முனா	-11.2117
ன்னானி	-11.2117
▁உத்தானமேவாதி	-11.2119
▁மஞ்ச	-11.213
த்தாதீ	-11.2131
லஸமாபத்தி	-11.2138
▁ஸமாபஜ்ஜி	-11.2141
▁புரேப	-11.2141
ஹரா	-11.2144
▁பச்சஸ்ஸோஸுங்	-11.2145
▁முண்ட	-11.215
நு	-11.2154
▁மச்சோ	-11.2155
▁அயமஸ்ஸ	-11.2159
ஹூனங்	-11.2165
▁ஆவாஸோ	-11.2166
▁விபத்தி	-11.2172
விபாகா	-11.2178
▁ஸேக	-11.2181
▁101.	-11.2185
பாஸாத	-11.2189
விஸய	-11.2189
ஸம்பூ	-11.2191
▁மஹாபி	-11.2194
ஸவிதே	-11.2196
▁வினிபாதங்	-11.2204
▁லேக	-11.2206
▁சேதேதி	-11.2209
னிகாய	-11.2214
▁மல	-11.2215
▁ஸங்யோஜனானங்	-11.2216
சனங்	-11.2217
லிபு	-11.222
▁ஸுக்கா	-11.2221
▁யாவத	-11.2223
▁17	-11.2224
ஜாதிகோ	-11.2226
அஸ்ஸ	-11.2227
▁ஹேம	-11.2228
▁102.	-11.2231
ஹணா	-11.2232
▁ஏகஜ்ஜ	-11.2233
▁நிக்கே	-11.2234
மங்ஸ	-11.2236
▁அஸந்த	-11.2236
▁அப்பமாணங்	-11.2238
னாபச்சயா	-11.2241
பஞ்சகங்	-11.2243
▁ஆரொ	-11.2244
சதுக்க	-11.2251
▁அந்திம	-11.2251
ண்ஹெய்ய	-11.2252
லாபி	-11.2256
▁ரூபீ	-11.2256
▁பாணங்	-11.2257
▁நிஸ்ஸயோ	-11.2259
பயோக	-11.226
வதூ	-11.2261
ஞா	-11.2263
▁சேதோவிமுத்திங்	-11.2265
▁ஜாதிங்	-11.2266
▁ஆகிஞ்சஞ்ஞாயதனங்	-11.2271
▁ஏதந்தி	-11.2271
▁அத்ததோ	-11.2274
▁பூஜா	-11.2274
ஸாமஞ்ஞ	-11.2275
▁பெ	-11.2277
பனே	-11.2278
ஹிதந்தி	-11.228
▁இமஞ்ச	-11.2283
▁குஹிங்	-11.2284
▁வாக்ய	-11.2286
▁விஸோ	-11.2287
▁தண்ஹ	-11.2295
த்தப	-11.2296
தலே	-11.2296
லம	-11.2301
▁தித்த	-11.2302
▁யஜ	-11.2303
▁நபுரேஜாதபச்சயா	-11.2304
▁மஞ்சபீட	-11.2309
▁பரியாயோ	-11.231
▁ரூபாவசரா	-11.2311
▁முஞ்சித்வா	-11.2312
வந்தீதி	-11.2313
▁வுத்தி	-11.232
▁ஏகேகங்	-11.2323
▁காயவிஞ்ஞாணஸ்ஸ	-11.2324
▁பவத்தனதோ	-11.2325
▁ஹங்ஸ	-11.2325
படிமண்ட	-11.2327
ரதீதி	-11.2328
யந்தங்	-11.233
▁தேஸந்தி	-11.2333
▁பஜஹதீதி	-11.2339
விஸ்ஸஸி	-11.2341
மிஸ்ஸாமி	-11.2344
▁லபே	-11.2344
▁வண்ணப	-11.2344
ஸ்மிஞ்ஹி	-11.2345
▁ஸத்தேஸு	-11.2349
▁ஹிஸ்ஸ	-11.2355
▁விஸேஸன	-11.2358
விஸ்ஸாமி	-11.2359
▁ஸம்மாஸங்கப்போ	-11.236
குஸலத்திகங்	-11.2364
பரியோஸானே	-11.2367
▁சரந்தோ	-11.2371
▁பத்தசீவரமாத	-11.2373
வதண்ஹா	-11.2374
லகே	-11.238
▁லபெ	-11.2381
▁ஸங்விப	-11.2385
▁ஸாஸவா	-11.2387
▁ஸயன	-11.239
ண்ஹதா	-11.2394
▁பங்ஸு	-11.2396
ம்மசாரீ	-11.2397
னத்தோ	-11.2399
ரவஸேன	-11.2404
▁அனுப்ப	-11.2404
ரதனங்	-11.2406
▁விபஸ்ஸிஸ்ஸ	-11.2409
ஹத்தோ	-11.2414
யுத்	-11.2417
▁கரணே	-11.2418
▁ஞாணஸ்ஸ	-11.2419
ஞ்செத்த	-11.2421
▁ஸமணத	-11.2426
ரணாதி	-11.2427
▁அப்படிக	-11.2431
▁ரூபாரூப	-11.2433
▁ஸம்மாவாசா	-11.2439
▁அதிக்கம்ம	-11.244
மினிங்	-11.2446
▁பஞ்சங்க	-11.2449
▁அரூபானங்	-11.2449
▁அஞ்ஞதரஸ்ஸ	-11.2451
ஸேஸங்	-11.2458
ரட்ட	-11.2461
▁பனாஹங்	-11.2462
விய	-11.247
▁பஸாதே	-11.247
▁வூபஸமா	-11.2477
மஹாராஜ	-11.2483
▁ஸளாயதன	-11.2484
நேவ	-11.2486
▁சதுக்கங்	-11.2488
ஸ்	-11.2491
▁சிதோ	-11.2493
ஸ்வாக	-11.2494
யஞ்ஜனா	-11.2497
யிதுங்	-11.2497
▁ஸத்தம	-11.2498
▁பத்தெ	-11.2498
▁ஜராமரண	-11.2503
▁107.	-11.2507
▁காயானுபஸ்ஸீ	-11.2509
▁மோ	-11.251
ம்மஸ	-11.2511
பால	-11.2513
▁அனுபோ	-11.2514
க்ரியா	-11.2514
ளே	-11.2514
▁பேஸேஸி	-11.2515
காலதோ	-11.2515
லஸச்சி	-11.2527
ம்மாயதனஞ்ச	-11.2532
க்கமோ	-11.2532
▁ஸம்பயுத்தத	-11.2535
தகாலே	-11.2535
குலா	-11.2539
▁வேவசனங்	-11.2539
இத்தி	-11.2544
▁ஸுனக	-11.2545
▁108.	-11.2548
▁ஸஹஸ்ஸானி	-11.2552
▁ஸமந்தபாஸ	-11.2554
▁மதி	-11.2554
▁அபாயங்	-11.2561
பாரமீ	-11.2563
ம்மஸங்கா	-11.2565
▁ரூபஞ்ச	-11.257
▁மித்	-11.257
னந	-11.2574
▁பஹோதி	-11.2576
லானா	-11.2576
▁புனபி	-11.2576
▁யோனி	-11.2581
▁தயித	-11.2583
▁ஹோஹி	-11.2589
▁ஹெத்த	-11.2591
▁பரிபூரேதி	-11.2597
▁கதந்தி	-11.2598
▁கஞ்சன	-11.2605
▁ஆகாஸோ	-11.2607
ானுபா	-11.2607
▁வொஸ்ஸ	-11.2612
▁மய்ஹ	-11.2612
▁ஸெய்யங்	-11.2623
▁ஞாணானி	-11.2624
ரியாதி	-11.2625
ஸ்ஸீலோ	-11.2628
▁அஹஞ்ச	-11.2629
▁சேதஸிக	-11.2629
ம்மத்த	-11.2629
▁ஆய	-11.263
▁105.	-11.2631
▁பஞ்ஹ	-11.2634
▁உபபஜ்ஜ	-11.2636
னுரூப	-11.2638
▁தேஸம்பி	-11.2639
ஸமாபத்தியா	-11.2641
▁கரணீயோ	-11.2643
வாசகோ	-11.2643
னஸபா	-11.2646
இமஸ்மிங்	-11.2647
ப்பஹான	-11.2662
▁அஞ்ஞாண	-11.2663
▁உப்பஜ்ஜிஸ்ஸந்தி	-11.2675
▁ஆகார	-11.2681
▁ஸங்விஜ்ஜமானா	-11.2682
▁ஸந்தானே	-11.2683
பலிபோ	-11.2684
▁அமச்ச	-11.2684
ன்னக	-11.2685
மித்த	-11.2686
ரேதுங்	-11.2686
▁புஞ்ஞக்க	-11.2689
▁விஸயே	-11.2689
▁விஸம	-11.2691
ஞ்ஞெய்யா	-11.2691
னதாய	-11.2692
னிவாஸங்	-11.2692
▁சித்தா	-11.2693
▁அத்தனாவ	-11.2694
புரெக்க	-11.2697
காரகோ	-11.2697
ஹிரா	-11.2701
▁நிமித்தே	-11.2705
▁ஸகுண	-11.2705
▁ஓகாஸோ	-11.271
5	-11.2712
▁படிஜ	-11.2712
▁படிஸஞ்சிக்க	-11.2714
▁106.	-11.2714
▁ஆலபதி	-11.2714
▁பச	-11.2719
ப்பகாஸனா	-11.2721
▁பஸன்னசித்தோ	-11.2727
▁பஸாதெ	-11.273
லெத்வா	-11.2731
முத்தரோ	-11.2733
▁கண்ட	-11.2734
ஸாதூ	-11.2734
ரணானி	-11.2737
▁கேஸ	-11.2741
▁சதுக்க	-11.2743
த்திங்	-11.2743
ம்ஹே	-11.2746
வுட்ட	-11.2751
▁கப்பேதி	-11.2755
ஜனோ	-11.2755
னானீதி	-11.2755
ஸயி	-11.2756
▁ஸீதி	-11.2757
ஸங்யுத்தங்	-11.2757
▁அஞ்ஞாஸி	-11.2758
▁104.	-11.2761
னாமோ	-11.2761
▁விரோச	-11.2761
▁ஸாஸனஸ்ஸ	-11.2767
▁ஸம்பூ	-11.2767
ய்யோபா	-11.2769
ஜம்பு	-11.277
▁ஸங்ஸாரே	-11.2774
▁மஹத்	-11.2774
▁பாராஜிகா	-11.2775
ஸம்முக	-11.2775
9	-11.2778
▁பஞ்சம	-11.2781
▁கிச்சாதி	-11.2782
▁ஆகாஸானஞ்சாயதனங்	-11.2784
▁விமுச்சதி	-11.2786
▁ஆன	-11.2786
▁மச்சா	-11.2786
மோஹ	-11.2793
▁வீதிக்கம	-11.2795
▁நப்பஜானாதி	-11.2797
னீஹி	-11.2798
▁சக்கங்	-11.2801
▁நாஸக்க	-11.2801
தேவ	-11.2809
▁விஞ்ஞாயதி	-11.2813
ஸீஸேன	-11.2815
▁அவிஸேஸேன	-11.2815
▁ஆணத்தி	-11.2817
▁உபஸம்பன்னோ	-11.2822
▁ஜீவங்	-11.2825
▁பரித்தா	-11.2827
பரியாயோ	-11.2828
னுஸ்ஸதி	-11.2831
யித்வான	-11.2832
ஜாதகே	-11.2832
▁படினிஸ்ஸ	-11.2834
▁110.	-11.284
▁விஜ்ஜி	-11.284
ஸங்யோஜன	-11.284
▁மாதலி	-11.284
படிபத்தி	-11.2843
▁குமார	-11.2848
▁அஞ்ஞதரா	-11.2852
▁ஜி	-11.2861
யாகதஞ்ச	-11.2862
▁பரிஹானி	-11.2863
▁ஹோத	-11.2867
மட்ட	-11.2869
▁காமானங்	-11.2872
▁ஏகாஹ	-11.2878
▁அரஹதி	-11.2878
▁சத்தாலீஸ	-11.2881
ந்தரா	-11.2881
ம்மஸங்க	-11.2882
▁வஜ்ஜெத்வா	-11.2885
▁அனேகவிஹித	-11.2885
▁உதுஸமுட்ட	-11.2888
▁பராமாஸ	-11.2889
▁கப்பதி	-11.289
இமஸ்ஸ	-11.2893
நித்	-11.2895
னேயேவ	-11.2895
னத்	-11.2896
▁நீவரண	-11.2899
▁பஹரித்வா	-11.2901
த்தீனங்	-11.2902
▁விபரிணாமத	-11.2902
▁வேகே	-11.2906
லானபச்சய	-11.291
▁ஆஸன்ன	-11.2916
▁அத்து	-11.2919
▁பவிஸதி	-11.2921
அத்தே	-11.2923
▁விஹரதீதி	-11.2923
▁ஸம்பஜானகாரீ	-11.2925
▁116.	-11.2925
▁ஆமஸதி	-11.2928
▁பமோத	-11.293
▁ஸமு	-11.2933
கப்போ	-11.2937
▁ஸுப்	-11.2941
குண்ட	-11.2942
▁விபரிணாம	-11.2948
ரமேவ	-11.2948
▁ஸஹேதுகங்	-11.295
▁ஆரகா	-11.2958
ருபெக்க	-11.296
▁உச்சா	-11.2962
▁நகம்மபச்சயா	-11.2967
▁வேளுவனே	-11.2971
ப்பஸாத	-11.2972
▁கத்வாதி	-11.2975
சோ	-11.2976
▁ஜஹித்வா	-11.2976
▁நுபல	-11.2977
▁நிஸஜ்ஜ	-11.2977
ரக்	-11.2977
▁ஸமாஸோ	-11.2979
▁முனிந்த	-11.2984
▁விரதி	-11.2985
▁அஸேக	-11.2988
▁ஓலம்ப	-11.2989
▁ஜாயதே	-11.2993
ண்ணோ	-11.2996
▁லோஹ	-11.3002
▁உப்பாதி	-11.3003
▁பச்சத்த	-11.3008
▁குஜ்ஜ	-11.3009
▁கம்மனி	-11.3009
▁பரிவாரெத்வா	-11.3011
ெய்யாதி	-11.3012
மனவஸேன	-11.3012
▁மாதாபிதூனங்	-11.3016
▁ஸத்தக்க	-11.3019
▁ஓதரித்வா	-11.3019
▁ராத	-11.3022
விஹாரங்	-11.3022
▁அனந்தரங்	-11.3024
▁உப்பஜ்ஜனக	-11.3024
▁அபே	-11.3024
▁யம	-11.3025
▁பயோஜனங்	-11.3029
▁ததூ	-11.303
▁யத்ர	-11.3034
▁விதக்கவிசாரானங்	-11.3034
▁ஸோமனஸ்ஸஸஹ	-11.3036
ஞ்ஜந்தஸ்ஸ	-11.3044
▁பஹார	-11.3045
ண்ஹந்தஸ்ஸ	-11.3045
▁வேரங்	-11.3047
▁கல்யாணத	-11.3052
▁115.	-11.3054
▁111.	-11.3054
▁அஸுக	-11.3054
▁லெட்	-11.3059
▁பரிகம்மங்	-11.306
▁அப்பங்	-11.3061
▁விசக்க	-11.3063
▁பஞ்ஞத்தா	-11.3063
▁உத்தரிங்	-11.3065
▁காயஸம்ப	-11.3068
▁113.	-11.3068
யினோ	-11.3073
கிச்சா	-11.3077
▁பஞ்சமீ	-11.3079
▁ஆஹாரஸமு	-11.3079
▁ஸன்னிஸின்னா	-11.308
ரஹிதோ	-11.3081
▁பரியேஸதி	-11.3091
▁118.	-11.3097
ஞ்ஜந்தி	-11.3098
▁நாதோ	-11.3099
ஏதே	-11.31
தக்	-11.3102
ஜாதிகா	-11.3106
த்தெத்வா	-11.3111
ம்மக்க	-11.3112
ஸம்பன்னங்	-11.3112
சத்தாரோமே	-11.3112
வட்டி	-11.3115
சுண்ண	-11.3118
7	-11.3119
▁கிலேஸேஹி	-11.3134
தஸ்மிங்	-11.3135
▁முனீ	-11.3138
லெய்ய	-11.314
▁109.	-11.314
▁பச்சாக	-11.3143
▁பேச்ச	-11.3144
▁பச்சேக	-11.3145
▁விஜ்ஜதீ	-11.3148
▁தேனுபஸங்கமிங்ஸு	-11.3148
▁கப்பியங்	-11.3148
▁அரஹந்தானங்	-11.3149
▁ஓகாஸே	-11.315
▁மஹாக	-11.3154
மதே	-11.3155
புது	-11.3162
மஸே	-11.3166
▁ஆஸுங்	-11.3169
த்தத்தா	-11.318
▁ரஸங்	-11.318
த்தகோ	-11.319
விஹாரோ	-11.3192
▁லோகனாயகங்	-11.3196
▁அஹி	-11.3196
வ்ஹோ	-11.3196
ஸரீர	-11.3198
▁பீத	-11.3199
ஸதேஹி	-11.32
ிஸ்ஸயபச்சயேன	-11.32
யந்தஸ்ஸ	-11.3201
▁ஸரதி	-11.3204
▁நபுங்ஸகே	-11.3208
பச்சா	-11.3209
த்வாவ	-11.3211
மங்ஸு	-11.3213
▁பஹீனங்	-11.3213
▁பத்தப்	-11.3216
▁நயித	-11.3218
ஸேனா	-11.3219
▁கேவல	-11.3227
ரஹிதங்	-11.323
மனுஸ்ஸபூ	-11.3234
▁யமக	-11.3234
▁ஸுஞ்ஞ	-11.3234
▁ஸக்கஸ்ஸ	-11.3235
▁112.	-11.3237
▁பனேஸ	-11.3237
▁ரூபத	-11.3237
▁நுப்பஜ்ஜதீதி	-11.3239
ஸத்தங்	-11.3241
▁மனுஸ்ஸோ	-11.3244
▁ஸுஞ்ஞாகா	-11.3248
▁பராமட்ட	-11.3249
ஸிதுங்	-11.3251
▁ஹரித	-11.3252
▁ஆபி	-11.3253
▁ஸஹாய	-11.3258
ஞ	-11.3265
▁ஸரூப	-11.3265
மாஸே	-11.3269
யட்	-11.327
▁உபரூபரி	-11.3272
▁மானானுஸயங்	-11.3272
▁அனாதி	-11.3272
▁ஸம்மப்பஞ்ஞாய	-11.3273
▁ஸமனுபஸ்ஸாமி	-11.3274
யிதனிரோத	-11.3274
இச்சா	-11.3275
▁ஸுபோ	-11.328
ஸாதோ	-11.3284
பஞ்சிமே	-11.3284
பெந்தஸ்ஸ	-11.3284
பஸாத	-11.3285
▁உபதி	-11.329
▁உஜுங்	-11.329
▁ஏகக்க	-11.3292
▁அனியதோ	-11.3292
▁இமாஹி	-11.3296
▁தத்ராபி	-11.3296
காஸி	-11.3299
ஹுவசன	-11.3302
▁ஸேனாபதி	-11.3302
▁ஸமே	-11.3305
▁மஹாகஸ்ஸப	-11.3306
▁விஞ்ஞாத	-11.3307
▁மாலா	-11.3308
▁வுத்தேபி	-11.3313
▁படிஸேத	-11.3316
கம்மிகஸ்ஸாதி	-11.3317
▁நாபரங்	-11.332
▁அமச்சா	-11.3321
▁ஸததங்	-11.3324
ாஹங்	-11.3324
▁படிஸே	-11.3325
▁காரேதி	-11.3326
▁பரிஹாயந்தி	-11.3328
▁ஸஹஜாதோ	-11.333
▁நாவங்	-11.3333
அபரேஹிபி	-11.3342
விஹாரீ	-11.3351
ப்பச்சயோ	-11.3352
ஏகங்	-11.3352
அம்ஹாகங்	-11.3355
தஸ்ஸாதி	-11.3357
▁அலத்	-11.3364
அத்தனோ	-11.3365
ஹதா	-11.3375
▁மித்தோ	-11.3377
▁பாகட	-11.3377
▁விகப்ப	-11.3384
▁அவிஜ்ஜாபச்சயா	-11.3388
ஸ்ஸந்தீ	-11.3391
பனேன	-11.3399
ரீதி	-11.34
▁விஹாரஸ்ஸ	-11.3401
▁ஆலோக	-11.341
ஞாணத	-11.3411
▁நியதா	-11.3415
▁ஸமஞ்ஞா	-11.3416
ல்லச்சய	-11.3417
▁குலகே	-11.3417
▁பஞ்சத்	-11.3419
▁ஸமாபஜ்ஜித்வா	-11.3419
ம்மவிசய	-11.342
▁விபஸ்ஸதி	-11.3421
▁உர	-11.3423
▁ஓதி	-11.3425
▁ஸதஸஹஸ்ஸ	-11.3426
▁உபாஸகா	-11.3426
▁ஆபத்திக்க	-11.3431
▁விமுத்திஞாண	-11.3434
▁ஆபஜ்ஜதீதி	-11.3439
யஞ்ஹி	-11.3439
குலங்	-11.3443
▁உஸ்ஸா	-11.3447
▁மந்தோ	-11.345
▁பரிஜானந்தி	-11.345
ோதெ	-11.345
▁லாமக	-11.3452
▁புஞ்ஞா	-11.3467
▁மித்தா	-11.3474
▁ஸத்தமீ	-11.3476
ூபக	-11.3481
▁ஸீலானி	-11.3482
ரணவஸேன	-11.3486
▁ஹந்தா	-11.3489
ண்ஹதோ	-11.3491
▁சதுராஸீதி	-11.3491
▁புமே	-11.3492
▁ஸுஞ்ஞங்	-11.3494
ஸம்மா	-11.3494
▁யுஜ்ஜ	-11.3497
▁அஜானந்தோ	-11.3503
▁அஞ்ஞதரேன	-11.3508
▁அனிப்	-11.3509
ஹிர	-11.351
விக்கே	-11.3511
▁மூலப	-11.3516
ப்பாபி	-11.3517
▁ஸேஸபத	-11.3518
பச்சே	-11.3521
விமுத்தி	-11.3523
▁ஸாமீ	-11.3525
கம்மஸ்ஸ	-11.3527
ரம்மணஸ்ஸ	-11.3539
▁119.	-11.354
ஸிகோ	-11.3541
▁-	-11.3542
னத்தே	-11.3542
▁ஸந்திட்ட	-11.3542
▁ஸங்வித	-11.3545
ராஜஸ்ஸ	-11.3546
▁122.	-11.3546
▁கஸிண	-11.3547
னநி	-11.3548
புச்ச	-11.3549
▁மய	-11.3549
▁ஆவட்டனா	-11.3557
▁ஸாரத்த	-11.3558
▁ஸூர	-11.3558
ஸஞ்ஞ	-11.3559
வண்ணனாய	-11.3563
யிஸ்ஸதி	-11.3568
▁பாபிச்ச	-11.3569
▁போராணா	-11.3569
▁பச்சனுப	-11.357
▁அனுப்பன்னஸ்ஸ	-11.3573
கஸ்மா	-11.3573
ஸீலே	-11.3575
▁மந்தி	-11.3575
▁ஜனஸ்ஸ	-11.358
▁போஸோ	-11.3582
▁மாதி	-11.3582
ஹுஸ்ஸுதா	-11.3584
▁மாயா	-11.3586
▁காலமகாஸி	-11.3586
ஸமுக்	-11.359
லுத்	-11.3593
▁வுச்சமானோ	-11.3596
ஜானந	-11.3598
▁கடத்தாரூபானங்	-11.3599
▁விஞ்ஞாணபச்சயா	-11.3599
ொம்ஹி	-11.3602
▁ஸுக்	-11.3602
லோகோ	-11.3602
ஸ்ஸாத	-11.3603
பரியாதா	-11.3607
▁விஹரதீ	-11.3607
ப்பத்தியா	-11.3609
ராமோ	-11.3611
▁யாச	-11.3613
▁ஸமாபஜ்ஜதி	-11.3617
▁ஏகச்ச	-11.3621
▁ஜீவதி	-11.3622
▁குஸலாதி	-11.3624
த்தானங்	-11.3627
ப்பவேதி	-11.3631
விஸிட்ட	-11.3636
▁அப்பஹீனா	-11.3638
வந்தீ	-11.364
▁நாயகோ	-11.3641
▁ஞாணந்தி	-11.3644
▁அபீ	-11.3645
ஸமயா	-11.3649
▁கோஸிய	-11.3651
▁ரா	-11.3651
புப்பா	-11.366
▁அந்தங்	-11.366
▁அவயவ	-11.3663
▁கிரியாப்	-11.3666
▁உபாஸக	-11.3671
▁ஸரணோ	-11.3672
▁மிஸ்ஸக	-11.3673
ரேஸி	-11.3674
▁விஹாரா	-11.3677
▁ண்வு	-11.3677
▁நாமிகபத	-11.3677
ண்ஹஸமயங்	-11.3677
▁121.	-11.3677
▁ஸுஞ்ஞோ	-11.3678
▁பேஸெத்வா	-11.3684
▁அஸுத்	-11.3684
▁அரதி	-11.3685
▁ஸீமங்	-11.3689
ரிதே	-11.3691
▁அவஸ்ஸங்	-11.3691
பஹான	-11.3695
ராத	-11.37
▁ஸூகர	-11.3703
▁பஞ்ஞத்தோ	-11.3705
▁யேனாயஸ்ம	-11.3705
▁ஸம்பயோக	-11.371
ன்னேன	-11.3713
▁உம்மத்தகஸ்ஸ	-11.3717
▁அஜ்ஜே	-11.3717
தீரே	-11.3721
▁அயோ	-11.3722
விகங்	-11.3722
▁விஸ்ஸஜ்ஜெத்வா	-11.3723
▁117.	-11.3723
▁விபாசெந்தி	-11.3726
▁ஜானதோ	-11.3727
வேதுங்	-11.3728
ஹேதுக	-11.373
ஸ்ஸனந்தி	-11.373
▁114.	-11.3731
வினோ	-11.3731
▁ஸங்யோஜனங்	-11.3734
▁ஓளாரிக	-11.3736
ஸமத்த	-11.374
பரியாபன்னங்	-11.3741
▁அகோ	-11.3742
▁அவிதத	-11.3745
மூலா	-11.3745
▁பச்சயங்	-11.3746
▁தேஸஞ்ச	-11.3751
ப்பமாணோ	-11.3753
ெந்தஸ்ஸ	-11.3756
▁வினஸ்ஸதி	-11.3757
▁உத்தராஸங்க	-11.3762
கண்ண	-11.3769
ாதுபா	-11.3773
▁பாடி	-11.3774
மனுயுத்தோ	-11.3774
▁பஞ்ஹாவாரோ	-11.3775
▁தஞ்சே	-11.3775
▁ஸந்தேபி	-11.3781
ாகாரேன	-11.3787
மிங்ஸு	-11.3788
யாச	-11.3801
▁ஹீனா	-11.3801
▁யஞ்ஹி	-11.3808
▁கரோஹீ	-11.3809
ருகோ	-11.3811
▁ரம	-11.3812
▁120.	-11.3816
8	-11.3816
▁லோபா	-11.3816
வமனுஸ்ஸேஸு	-11.3817
படிபாடியா	-11.3822
▁வெஸ்ஸ	-11.3823
▁ஸ்வாயங்	-11.3823
▁விபஸ்ஸீ	-11.3831
அந்த	-11.3832
▁இச்சேவ	-11.3832
▁பரிமண்ட	-11.3835
வஸங்கா	-11.3838
▁கீளா	-11.3842
க்கமேன	-11.3843
▁விதக்கஸ்ஸ	-11.3848
▁ஹிமவந்த	-11.3849
ச்சரிதா	-11.385
னாமங்	-11.3852
▁அவஸிட்ட	-11.3858
தமத்த	-11.3859
▁அனுவாதா	-11.3862
ம்மகதா	-11.3865
வினிப	-11.3866
ரவாதி	-11.3868
▁123.	-11.3873
▁ஜக	-11.3875
▁புரிஸே	-11.3884
▁ஏகவீஸ	-11.3885
▁ஸல்லேக	-11.3886
▁ஸாரணீயங்	-11.3887
ெந்தீதி	-11.3892
▁அஞ்ஞம்பி	-11.3894
வனியங்	-11.3895
▁ஸம்பத்திங்	-11.3896
னிபாத	-11.3897
▁ஸமாபத்தியோ	-11.3898
ளக	-11.3901
▁அகுஸலே	-11.3904
▁விஸயோ	-11.3906
▁அரஹத்தே	-11.3907
ரஹ்முனோ	-11.391
வினயேன	-11.3911
▁நிவிட்ட	-11.3912
▁அப்பஹாய	-11.3915
ஸங்யோஜனங்	-11.3916
மசித்தஸ்ஸ	-11.3917
ாயது	-11.3917
▁ஆரம்மணபச்சயோ	-11.3929
▁ஸப்புரிஸோ	-11.3929
ம்பெ	-11.393
ப்பத்த	-11.3935
வோஹார	-11.394
அத்தோ	-11.3941
▁ஸுவி	-11.3942
▁சேதஸிகா	-11.3946
▁புரங்	-11.3954
னீஹார	-11.3956
▁அஹோஸீ	-11.3957
▁பவிஸி	-11.3957
தியேன	-11.3964
▁ஞாதீ	-11.3964
னுபஸ்ஸீ	-11.3966
ஜிதஸ்ஸ	-11.3975
▁ஸமய	-11.3976
▁வஸ்ஸி	-11.3981
▁ஜய	-11.3982
ஜனஸ்ஸ	-11.3988
ஸத்து	-11.3995
விஜ்ஜ	-11.3995
வஸ்ஸங்	-11.4
▁ஸம்மந்தி	-11.4005
▁அயோனிஸோ	-11.4006
ரணத்தா	-11.4007
னகோ	-11.4008
▁ஸுத்தஸ்ஸ	-11.4009
▁கேவலஞ்ச	-11.4009
▁ஸேல	-11.4009
▁சித்தந்தி	-11.4014
ஸ்ஸனஸ்ஸ	-11.4014
னஹேது	-11.402
▁ஸுத்தேன	-11.402
▁வனஸண்ட	-11.4021
▁குக்குட	-11.4025
ஜக்	-11.4026
ம்மஸேனாபதி	-11.4026
▁ஸேனங்	-11.4026
ஞ்ஞுதங்	-11.4031
ஹேதூ	-11.4032
▁விச்சி	-11.4034
▁நஸஹேதுக	-11.4036
▁கரொந்தீதி	-11.4036
▁துச்ச	-11.4038
▁முச்ச	-11.4047
▁வீமங்ஸ	-11.4047
▁நிஸின்னே	-11.4052
அலங்	-11.4052
இச்சேத	-11.4055
சித்தேஸு	-11.406
வங்கு	-11.4061
▁ஜிண்ண	-11.4063
▁ஜந்தா	-11.4066
▁போராண	-11.4068
▁நஅகுஸல	-11.4069
பரிக்கி	-11.4069
▁லங்கா	-11.4071
▁நாவாய	-11.4072
முத்தி	-11.4072
ரஜ	-11.4073
▁அனுப்	-11.408
வந்தா	-11.4081
▁ரூபேன	-11.4081
ப்பாயங்	-11.4082
▁அபராபரங்	-11.409
▁விஞ்ஞா	-11.4091
▁சித்தோ	-11.4091
▁நிஸ்ஸ	-11.4093
ணதா	-11.4093
▁காமாவசரானங்	-11.4095
▁பரிவத்தெத்வா	-11.41
▁அவிபரீத	-11.4102
ஸங்கி	-11.4103
▁ஆஸா	-11.4103
▁ஜானாஸி	-11.4108
▁பவாரணாய	-11.4108
ண்ஹிதுங்	-11.411
▁ஸிப்ப	-11.4111
▁ஸோமனஸ்ஸேன	-11.4113
▁பகிண்ணக	-11.4116
விமான	-11.4116
ஆதே	-11.4118
ஸேவ	-11.4118
பாதிமொக்க	-11.412
▁ஓளாரிகங்	-11.4123
ஸங்கிலேஸிகோ	-11.4125
த்தச	-11.413
ராகே	-11.4132
மகங்	-11.4133
ஸச்சா	-11.4134
▁காயவிஞ்ஞாணங்	-11.4136
தத்தே	-11.4139
▁மனஸோ	-11.4139
▁ஆரோஹ	-11.4139
ஜிங்	-11.4141
▁வத்தமானா	-11.4143
▁அன்வ	-11.4144
▁மத்திகா	-11.4146
▁கொட்ட	-11.4155
ரூபானங்	-11.4156
▁பாதோ	-11.4156
▁தாலாவத்த	-11.4157
▁அனுவத்த	-11.4158
▁ஞாதோ	-11.4158
மிகோ	-11.4159
▁பஸங்ஸ	-11.4161
▁யொப்	-11.4164
▁லோகியங்	-11.4165
▁அனிச்சானுபஸ்ஸனா	-11.4176
▁ஸமாஸே	-11.4177
▁கரோதீ	-11.4177
ஸீலா	-11.4185
மந்தங்	-11.4191
ஸாஹங்	-11.4191
▁மாஸ	-11.4192
ஸங்வர	-11.4193
▁பக்கோஸாபெத்வா	-11.4196
▁ஸேஸேஸு	-11.4197
▁124.	-11.4201
▁ஏகச்சங்	-11.4211
▁குஸலாகுஸலா	-11.4212
▁படிபு	-11.4213
வனாதி	-11.4213
▁பரியோஸானங்	-11.4214
▁லு	-11.4217
பயி	-11.422
▁அரியஸ்ஸ	-11.4223
இச்சேதே	-11.4224
▁ஸும	-11.423
▁விரஜங்	-11.4233
▁ஸுஞ்ஞதோ	-11.4237
யேதங்	-11.4245
▁லோகஜெட்ட	-11.4245
▁பச்சுக்	-11.4251
▁ஸம்மன்னித	-11.4252
▁லோகோதி	-11.4258
ப்பமாணா	-11.4259
▁இச்சேவங்	-11.4259
▁வஜ	-11.426
▁பாரகூ	-11.4262
▁வத்தமான	-11.4265
ேதீதி	-11.4267
விதக்கோ	-11.4268
வீஸ	-11.4269
யஞ்ஜனே	-11.427
மிபா	-11.4274
▁யஸ்ஸாதி	-11.4277
▁உப்பல	-11.4282
▁பஸ்ஸெய்ய	-11.4282
ீயதீதி	-11.4284
வனாபாரிபூரி	-11.4284
ரியேஹி	-11.4285
▁அரிட்ட	-11.4287
▁ஏகோதி	-11.4287
▁பஞ்ஞத்தே	-11.4289
–	-11.429
▁அவெக்க	-11.4298
▁ஸாத்த	-11.4299
▁வேமதிகா	-11.4301
▁ஸத்தஸ்ஸ	-11.4303
மமேவ	-11.4306
ஹிங்ஸு	-11.431
மிஸ்ஸந்தி	-11.431
▁ஸொண்ட	-11.4311
▁அனுஞ்ஞாதா	-11.4313
ணபா	-11.4313
ள்ஹோ	-11.4316
▁ரூபந்தி	-11.4318
▁பச்சத்தி	-11.4318
ப்பேதத்தா	-11.4318
னஸம்ப	-11.4319
வாஸி	-11.4321
சரியோ	-11.4322
ரோச	-11.4322
ணோதி	-11.4327
▁விபாகஸ்ஸ	-11.4339
▁நிஸின்ன	-11.4339
▁அனுஸ்ஸரதி	-11.434
▁விஹாஸி	-11.4341
▁அரணங்	-11.4342
வஸ்ஸா	-11.4342
▁ஹனதி	-11.4343
▁நிருத்தி	-11.4347
▁அதிக்கம	-11.4348
▁பரிபுண்ணங்	-11.4352
ஸோவ	-11.4352
▁நிரந்தரங்	-11.4353
▁அரூபாவசர	-11.4354
வலோக	-11.4365
தத்தங்	-11.4367
▁மாஸா	-11.4375
▁ஆபஜ்ஜித்வா	-11.4376
வாஜோ	-11.4377
தூஸு	-11.4381
▁ஆபன்னா	-11.4382
னாயதனஞ்ச	-11.4384
கத்து	-11.439
வாஹ	-11.439
▁நாரத	-11.439
▁ஜோத	-11.439
ரஹ்முனா	-11.4392
▁அரியஸச்சானி	-11.4397
னஸமத்த	-11.4398
▁பரிவத்த	-11.4401
யமான	-11.4402
யமக	-11.4402
விக்	-11.4403
▁ஏவரூபே	-11.4411
▁அவுத்த	-11.4419
மனுஸ்ஸா	-11.4422
ஏகனவுதி	-11.4422
▁125.	-11.4425
னமா	-11.4427
▁தாஹி	-11.4428
லத்தா	-11.4429
ப்படி	-11.4434
விப்ப	-11.4434
வெய்யாதி	-11.4435
மிமங்	-11.4437
▁குஸ	-11.4438
மாஹு	-11.444
▁140.	-11.4443
▁ஸதானி	-11.4444
▁சேதோவிமுத்தி	-11.4445
ம்மம	-11.4448
ஸனாதி	-11.4453
▁130.	-11.4455
▁ஸுதவா	-11.4461
வாயங்	-11.4461
▁பரிவுதோ	-11.4464
▁அயந்தி	-11.4469
ஸந்தோஸோ	-11.447
▁உத்தரா	-11.4471
விதக்க	-11.4473
▁பவத்தேதி	-11.4475
▁ஸத்தமா	-11.4477
▁ஸங்கு	-11.4478
▁பச்சனீய	-11.4479
விபாகோ	-11.448
வித்தங்	-11.4483
ரஹோ	-11.4484
▁கிச்சே	-11.4486
▁அலோப	-11.4487
▁126.	-11.4491
▁129.	-11.4491
▁அருணு	-11.4494
▁மஹாவீரோ	-11.4494
ங்ஸூ	-11.4498
▁மேதங்	-11.4502
▁விவரித்வா	-11.4503
▁வஸு	-11.4506
▁அலோ	-11.4506
வனீயோ	-11.4509
▁அஹேதுகா	-11.451
▁ஸிதி	-11.4514
தொப்	-11.4514
வசரோ	-11.4518
▁பாசீன	-11.4526
▁ஸுத்தந்தோதி	-11.4527
▁அவந்தி	-11.4529
னூ	-11.4531
னாமேன	-11.4531
▁பாபகானங்	-11.4533
ஹானி	-11.4537
கஸுத்தவண்ணனா	-11.4539
▁கிஸ்மிஞ்சி	-11.4541
▁ஸங்ஸரந்தோ	-11.4541
ஸங்ஸந்த	-11.4548
▁காலங்கதோ	-11.4548
னீவரணங்	-11.4548
▁132.	-11.4551
▁பாரமியோ	-11.4558
▁ஏகச்சஸ்ஸ	-11.456
வினாஸ	-11.4561
சரந்தி	-11.4565
▁விஸார	-11.4565
விஸேஸங்	-11.4566
பராயணோ	-11.4567
ஸேது	-11.4568
▁ஆரோசேத	-11.4568
▁ஸம்பத்த	-11.457
▁அயுத்த	-11.4571
▁ஆலம்ப	-11.4572
▁ஸீலஸம்ப	-11.4576
▁லோகத	-11.4579
▁அப்பவத்தி	-11.458
வஸதோ	-11.4581
வஸோ	-11.4584
▁ஆஸவவிப்பயுத்தோ	-11.4587
▁ஸம்பஜானமுஸா	-11.4588
ஏ	-11.4589
▁மஞ்ஞத	-11.4592
ங்ஸன	-11.4597
வேதீதி	-11.4597
▁கம்மபத	-11.4597
ஸாவகோ	-11.4602
▁ரஜோ	-11.4603
▁பமு	-11.4604
ஸம்மாதி	-11.4604
துகாமதாய	-11.4612
▁ஹன	-11.4614
கல்யாண	-11.4614
வாஸானங்	-11.4614
▁அரூபங்	-11.4614
ஜேஸி	-11.4615
▁அய்யா	-11.4615
டனா	-11.4618
இத்த	-11.4623
லோம	-11.4625
வுத்தா	-11.4626
▁ஸாவ	-11.4628
கும்ப	-11.463
னேவாதி	-11.4631
▁ஸோதாபன்னா	-11.4633
▁ஏளகலோம	-11.4639
▁பஸ்ஸம்ப	-11.4644
▁பஜாய	-11.4645
ரேதீதி	-11.4645
▁ருத	-11.4645
▁பூஜேஸி	-11.4646
யாகரண	-11.4648
▁ஞாதகா	-11.465
▁அனுஞ்ஞாத	-11.465
▁பவத்தியா	-11.465
▁சித்தவிப்பயுத்த	-11.4651
▁பல்லங்கங்	-11.4657
▁அஸமத்த	-11.4662
▁பரிச்சஜ	-11.4666
மாத	-11.4667
▁உஜுக	-11.467
▁ஜானந	-11.4671
ஸேதுங்	-11.4672
▁ஞாத	-11.4672
பச்சத்தி	-11.4675
▁யேபி	-11.4676
ரனிரோத	-11.4679
▁ஜக்	-11.4679
ஹூஹி	-11.4682
விஸயா	-11.4684
▁மஞ்ஞ	-11.4684
▁சேதஸிகோ	-11.4689
மானத்தா	-11.4691
கம்மானி	-11.4692
▁128.	-11.4693
▁நியம	-11.4693
விபாகங்	-11.4694
▁பாமோஜ்ஜங்	-11.4696
▁குஜ்ஜி	-11.47
▁அருண	-11.4701
வசரேன	-11.4705
▁கமேன	-11.4705
மத்தஸ்ஸ	-11.4706
▁ஸலாக	-11.4712
▁புரா	-11.4713
யஸுத்தங்	-11.4714
தமீ	-11.4714
▁ஸூப	-11.4714
▁பாரிபூரியா	-11.4715
▁நஹேதுஞ்ச	-11.4717
▁காரக	-11.4717
யித்த	-11.4719
மானஸா	-11.4719
▁தேலங்	-11.4721
▁மனாயதனஞ்ச	-11.4724
▁பஞ்ஞங்	-11.4726
▁உப்பஜ்ஜமானங்	-11.4727
முனி	-11.4728
▁தம்ஹி	-11.4728
கதமஞ்ச	-11.4729
ட்டெ	-11.473
▁ஆஸன	-11.4731
ணேயேவ	-11.4734
▁வீதிஸாரெத்வா	-11.4743
வோஹாரோ	-11.4744
▁லோகனாயகோ	-11.4747
▁ஆபத்தீதி	-11.4747
▁நாலங்	-11.4749
▁விவிச்ச	-11.475
ஏஸ	-11.4752
மதீதி	-11.4754
▁ஆயதனங்	-11.4757
▁விதக்கா	-11.4757
▁ஸோயேவ	-11.4758
▁த்வ	-11.4758
▁131.	-11.4758
▁சவித்வா	-11.4763
தும்பி	-11.4766
▁அபாய	-11.4769
கேனாதி	-11.477
மால	-11.4771
▁அனாதா	-11.4771
▁அகுஸலஞ்ச	-11.4774
▁பூஜிதோ	-11.4779
மனத்தா	-11.4779
ஸ்மிம்பி	-11.4781
▁உண்ஹ	-11.4789
பஞ்சக	-11.4789
▁ரஜத	-11.479
▁துண்ஹஸ்ஸ	-11.4795
▁குலபுத்தோ	-11.4796
▁ஹீனோ	-11.4797
▁படிபுச்ச	-11.4798
கர	-11.48
▁தப்ப	-11.4801
தியஸ்ஸ	-11.4802
அனத்த	-11.4804
▁இஸ்ஸர	-11.4808
ஹரதி	-11.4808
▁த்வம்பி	-11.4809
▁அஞ்ஞமஞ்ஞஸ்ஸ	-11.481
▁வங்ஸ	-11.4811
▁ஸத்தாஹ	-11.4814
▁சங்கம	-11.4819
திஸ்ஸோ	-11.482
▁ஸச்சேன	-11.4823
சிக்க	-11.4829
புத்தா	-11.4832
▁ஓக்கம	-11.4834
▁ஸுஞ்ஞதா	-11.4835
ப்பத்தங்	-11.4838
▁லோகுத்தரோ	-11.4839
பாதீ	-11.484
▁ஆரம்மணதோ	-11.484
▁அரூபாவசரே	-11.4841
கம்மேன	-11.4842
▁படியா	-11.4844
முச்ச	-11.4845
▁குஸலே	-11.4846
▁ஸகாய	-11.4846
மஹ	-11.4847
▁காயபடிப	-11.4848
வவஸேன	-11.4848
▁ஸம்மாஆஜீவோ	-11.4852
▁135.	-11.4853
▁நாஸே	-11.4854
▁ஏகோபி	-11.4855
மனுஸ்ஸ	-11.4857
னிவாஸானுஸ்ஸதிஞாண	-11.4858
ம்மக	-11.4859
அஞ்ஞமஞ்ஞபச்சயேன	-11.486
▁படிபன்னா	-11.4862
▁திதிக்க	-11.4863
பதெய்யங்	-11.4865
சரியங்	-11.4867
குமார	-11.4872
▁ஆஜீவ	-11.4873
ஸம்பயுத்தஸ்ஸ	-11.4873
▁மஹீ	-11.4874
▁மனோரமங்	-11.4879
சேதிய	-11.4882
▁நிபன்னோ	-11.4887
யமானஸ்ஸ	-11.4889
▁பஸ்ஸதீ	-11.489
▁பரத்த	-11.4894
வசனந்தி	-11.49
அனேக	-11.4903
▁ஸமானங்	-11.4904
▁பவிஸ	-11.4907
▁நகாமாவசர	-11.4908
▁அஸ்ஸமங்	-11.4909
▁சுதஸ்ஸ	-11.4911
ஏதத	-11.4912
▁சக்கவத்தி	-11.4915
ஸமான	-11.4918
குமாரோ	-11.4919
▁ஆவாஸா	-11.492
பண்ண	-11.4921
ஸமணோ	-11.4922
ம்மவஸேன	-11.4925
▁ஸூரிய	-11.4925
▁லாபே	-11.4928
▁பானீய	-11.4936
ணனங்	-11.4939
▁அரூபாவசரா	-11.4939
▁ஸோளஸஹி	-11.4941
▁மாலாக	-11.4941
ஹணதோ	-11.4942
▁சிந்தா	-11.4942
கம்மே	-11.495
ஸெய்யா	-11.4951
▁விரத்	-11.4952
▁வண்ணா	-11.4954
▁மெண்ட	-11.4954
▁லதா	-11.4955
▁பரியோஸான	-11.4955
▁திண்ணோ	-11.4956
▁நானாவித	-11.496
▁நிய்யானிகங்	-11.4963
▁கொண்ட	-11.4964
தமத்	-11.4964
▁ஸீலஸ்ஸ	-11.4965
▁பஜானாதீ	-11.4968
▁லச்ச	-11.4969
விஸயோ	-11.4973
▁ஏகங்ஸேன	-11.4974
மயி	-11.4976
பாடோ	-11.498
ம்மனிப்	-11.4981
▁ஸாமத்தி	-11.4983
மோச	-11.4984
வதங்	-11.4988
த்தக்	-11.4991
ல்லபோ	-11.4993
▁காமஸுக	-11.4994
▁நாவ	-11.4995
▁ஆரம்மணேஸு	-11.4995
னானுயோக	-11.4995
▁ஓரம்	-11.4995
▁நிபாத	-11.4996
▁நரா	-11.4997
▁ஆவட்ட	-11.4997
▁பஸன்ன	-11.4997
▁தத்ரி	-11.4997
▁ஸம்பஸாத	-11.4998
வூபஸம	-11.4999
▁மஹான	-11.5
▁ஜிவ்ஹாய	-11.5
▁கேஸஞ்சி	-11.5003
விமானங்	-11.5006
▁நானு	-11.5006
▁ஆயஸ்மந்தோ	-11.501
▁ஸிஞ்ச	-11.5013
▁பவேத	-11.5014
ரயாமீ	-11.5019
னஸுத்தவண்ணனா	-11.502
▁133.	-11.5021
▁ஏதம்பி	-11.5022
▁ஸக்கச்ச	-11.5023
▁வசனம	-11.5029
ரஜ்ஜ	-11.5035
▁127.	-11.5037
▁விஸ்ஸ	-11.5037
ஹகோ	-11.5038
▁பச்சேகஸம்ப	-11.5043
ஸ்ஸந்தங்	-11.5045
▁வண்ணே	-11.5046
▁அந்தா	-11.5048
▁வசனீயோ	-11.5055
▁136.	-11.5056
▁நானத்தங்	-11.5057
ஹபதயோ	-11.5057
வஹா	-11.5057
னஸதி	-11.5057
த்தமேவ	-11.5058
ஸஹஸ்ஸங்	-11.506
ஹாரா	-11.5064
ஜனீயவண்ணனா	-11.5065
ம்ஹீ	-11.5066
▁ஸகு	-11.5069
மனீய	-11.5072
▁பாணா	-11.5072
ரோபயிங்	-11.5072
▁வேனெய்ய	-11.5072
▁உபபன்னோ	-11.5075
னிஸ்ஸய	-11.5076
▁பராமஸதி	-11.5077
▁கப்பா	-11.5078
0	-11.5082
▁நெத்தி	-11.5082
▁நின்ன	-11.5083
ஸாலா	-11.5086
ப்பமேவ	-11.5089
ெஸ்ஸாம	-11.5091
▁மஹாபுரிஸோ	-11.5093
▁மெத்த	-11.5095
▁பஞ்ஞாஸ	-11.5097
ம்மவா	-11.5098
▁ஞாதீனங்	-11.5102
▁புரிமபு	-11.5103
▁ஸோண	-11.5105
▁ஹெஸ்ஸதி	-11.5106
▁வட்டங்	-11.5107
சரிதாப	-11.5114
ஹிதேன	-11.5115
▁விருஜ்ஜ	-11.5116
▁ஞெய்யங்	-11.5119
ஸச்சி	-11.5119
வெய்யா	-11.5122
லோஹித	-11.5122
▁ஸம்பன்னோ	-11.5132
ரஹ்மானங்	-11.5133
ந்தஸ்ஸாதி	-11.5146
பஞ்சஸூத	-11.5146
வுத்தோ	-11.5149
▁ஜாதியோ	-11.5156
▁அனுரூப	-11.5156
சாரங்	-11.5156
▁ஸுசரிதங்	-11.5171
▁பரிச்சாக	-11.5172
▁இஸ்ஸரிய	-11.5176
விகோ	-11.5177
▁ஆசார	-11.5178
▁மஹேஸினா	-11.5178
▁பாபுணந்தி	-11.5178
கம்மூபக	-11.5178
▁ஸயம்பி	-11.5179
▁மனாபங்	-11.5184
▁அப்பஹீன	-11.5185
▁ஸமாஹிதோ	-11.519
மயே	-11.5194
▁சாக	-11.5199
விஸேஸா	-11.5201
▁வசோ	-11.5203
▁ஸுத்தந்தபா	-11.5209
உக்	-11.521
ஹந்தஸ்ஸ	-11.5211
பரியாபன்ன	-11.5212
▁விஸோத	-11.5214
ஆஹார	-11.5215
▁அபஸ்ஸந்தோ	-11.5216
▁141.	-11.5216
மனஸ்ஸஸஹ	-11.5217
▁அனிச்சதா	-11.5219
▁ஏகேகஸ்மிங்	-11.5221
▁அனேகே	-11.5222
▁134.	-11.5223
ரகதா	-11.5223
▁ஸுணோஹி	-11.5224
▁ரத்தோ	-11.5224
▁ஸினேஹ	-11.5225
▁பூஜங்	-11.5227
▁ருச்சதி	-11.5227
▁ராஜினோ	-11.5228
▁ஏதாதி	-11.5234
▁மஹாபுரிஸ	-11.5239
னாகா	-11.5239
▁வல்லி	-11.524
▁மனாபோ	-11.5248
ஏத	-11.5248
விகார	-11.5248
▁ஏகோவ	-11.5252
ஸேனோ	-11.5253
கச்சி	-11.5254
▁மரியாத	-11.5254
▁நானப்பகார	-11.5255
ஞ்சித	-11.5257
ம்மம்பி	-11.5264
▁வஸ்ஸே	-11.5265
▁அவண்ண	-11.5265
தேஸங்	-11.5266
பாதஸேனாஸன	-11.5269
▁பரித	-11.5271
மனாதி	-11.5271
▁வினஸ்ஸ	-11.5273
ரபி	-11.5277
ரஜ்ஜு	-11.5278
▁இஸயோ	-11.5281
ஸோமனஸ்ஸ	-11.5285
பதிபச்சயோ	-11.5285
▁வம்ப	-11.5287
▁விபாகபச்சயே	-11.5289
▁நேதி	-11.529
▁மனுஞ்ஞ	-11.5292
கரணவஸேன	-11.5292
▁ஸாரிபுத்தஸ்ஸ	-11.5292
ஸமோஹ	-11.5298
ஸேஸேன	-11.5299
▁ஜடா	-11.5308
▁அரூபத	-11.5314
▁குக்குச்ச	-11.5315
▁மாதங்க	-11.5319
▁பச்சுத்	-11.5321
▁138.	-11.5323
▁அஸஞ்சிச்ச	-11.5324
▁பிவித்வா	-11.5324
▁வேஸாலியங்	-11.5327
▁பரம்முக	-11.5327
▁ஸீலஸம்பன்னோ	-11.5328
▁லி	-11.5329
துஸ்ஸ	-11.533
ஹிதோதி	-11.533
▁அகிச்ச	-11.5334
▁வட்டந்தி	-11.5338
▁ரஹோக	-11.534
மத்திகா	-11.5342
பரியாபன்னா	-11.5345
▁பாடிப	-11.5346
▁அல	-11.5349
ஹாரங்	-11.535
யூஹ	-11.535
ித்தி	-11.5352
ப்பச்சயா	-11.5357
ணித	-11.5359
▁அஹம	-11.5362
▁ஏகக	-11.5362
▁கப்போ	-11.5363
▁விஹ	-11.5367
பிதத்தா	-11.5368
ஸேனதி	-11.5373
பச்சயங்	-11.5373
அஞ்ஞங்	-11.5376
▁நானுஸெந்தி	-11.5377
▁நோசித்தஸம	-11.5377
ஸஜ்ஜா	-11.5378
ஜிஸ்ஸாமி	-11.538
கிலேஸோ	-11.538
▁யஸஸ்ஸினோ	-11.5382
▁குப்பதி	-11.5385
மாருய்ஹ	-11.5389
▁பஸ்ஸே	-11.5392
ல்லபா	-11.5392
லிதா	-11.5395
▁ஸிப்பங்	-11.5396
▁ஸகட	-11.5396
ரஹ்மசாரீனங்	-11.5398
▁வினிதா	-11.54
பனவஸேன	-11.5405
▁விவேக	-11.5406
▁அப்பமாணோ	-11.5411
ஞ்ஞதா	-11.5418
▁பஜானநா	-11.5418
டீகா	-11.5424
▁வத்வான	-11.5425
னந்தர	-11.5426
யாம	-11.5435
▁கம்மந்தி	-11.5435
வின்னம்பி	-11.5437
▁அம	-11.5442
ஸிஸ்ஸாமீ	-11.5443
▁படிபத்தியா	-11.5444
மனிகாய	-11.5448
ிமுக்	-11.5449
வாஸோ	-11.5451
▁பஞ்சஸதா	-11.5451
▁உப்பன்னானங்	-11.5452
▁142.	-11.5452
▁ஜாதே	-11.5454
▁குலேஸு	-11.5454
▁படிபஜ்ஜதி	-11.5457
ஸயே	-11.5459
▁திவேத	-11.5459
▁உய்யானங்	-11.546
▁வின	-11.546
▁காயிகஸ்ஸ	-11.5462
▁வோஹாரோ	-11.5464
▁ஆஹச்ச	-11.5467
▁அஸுரா	-11.5467
▁அனுபஸ்ஸனா	-11.5467
ஸெய்யங்	-11.5468
ஸவ	-11.547
ண்ஹத	-11.547
ம்மபடிஸ	-11.5471
▁அய்ய	-11.5471
▁ஸுதோ	-11.5473
வூபக	-11.5473
தஸ்ஸேவ	-11.5474
னுஸந்தி	-11.5476
னந்தீ	-11.5477
▁யாசித்வா	-11.5478
அவிஜ்ஜா	-11.5482
▁வினாஸ	-11.5483
கஸுத்தங்	-11.5483
வசனா	-11.5486
கவக்	-11.5488
ரட்டா	-11.5489
▁144.	-11.5489
▁அவக	-11.549
▁ஸம்மாகம்மந்தோ	-11.5498
▁சந்தோ	-11.5502
▁150.	-11.5502
▁விஞ்ஞூனங்	-11.5503
▁பஞ்சவீஸதி	-11.5507
▁ஸன்ன	-11.5508
▁அஸ்ஸங்	-11.5508
▁அகுஸலேஹி	-11.5512
▁அனுஸேதீதி	-11.5512
▁அகுஸலமூலங்	-11.5513
▁மனோவிஞ்ஞாணங்	-11.5517
▁அஞ்ஞேஸு	-11.5523
▁அஹந்தி	-11.5523
ரகு	-11.5531
▁ஏதாய	-11.5534
னஸுத்தங்	-11.5535
வந்தே	-11.5535
▁ஸதீதி	-11.5536
▁முனினோ	-11.5542
▁நபுங்ஸகலிங்க	-11.5542
▁ஸன்னிபதித்வா	-11.5546
▁ஸிஸ்ஸ	-11.555
னுலோம	-11.5551
கனித்	-11.5551
ானம்பி	-11.5552
▁148.	-11.5556
காமங்	-11.5561
அனிச்ச	-11.5562
ஸஞ்ஹி	-11.5563
▁ஸப்பாய	-11.5563
▁ராஜபுத்த	-11.5565
▁உதி	-11.5566
தாரம்மணங்	-11.5566
▁யோஜனங்	-11.5566
▁காரகோ	-11.5568
▁பச்சத்தங்	-11.5569
▁ஸுதே	-11.5572
இமாய	-11.5573
▁137.	-11.5574
▁அமா	-11.5575
▁சரமானோ	-11.5576
ருள்ஹ	-11.5579
▁நிவத்தி	-11.558
▁குஸலேன	-11.5582
னந்தா	-11.5587
▁வாஸனா	-11.5591
ெஸ்ஸாமீ	-11.5592
மாஸங்	-11.5593
▁சேதியே	-11.5599
▁உரக	-11.5601
ஸப்பி	-11.5602
▁அஸ்மா	-11.5609
ரம்மணே	-11.5611
▁யோபி	-11.5613
▁ஆயதனானி	-11.5618
▁அதூ	-11.5618
▁க்ரியத்தா	-11.5619
ம்மபத	-11.5619
வத்தோ	-11.5624
▁ஸிரீ	-11.5626
ஸ்ஸிஸ்ஸ	-11.5628
காரகா	-11.5628
தமக்	-11.563
▁நரூபாவசர	-11.5631
▁கரொந்தீ	-11.5632
ஸாவ	-11.5637
▁ஸுகோ	-11.564
ரது	-11.5641
துகாமேன	-11.5641
▁பனேஸா	-11.5646
▁வுத்தேஸு	-11.5646
ஜவன	-11.5646
புரங்	-11.5646
ஹுகா	-11.5647
மானானங்	-11.5652
▁139.	-11.5653
ஞ்ஞுதஞ்ஞாண	-11.5654
▁ஜனதங்	-11.5657
படிக	-11.5658
▁அப்பஸத்	-11.5663
அவ	-11.5665
▁ஏகதா	-11.5667
▁தேனேதங்	-11.5668
▁பொட்ட	-11.567
▁பாணாதிபாதோ	-11.5671
ரஸு	-11.5673
ஸமானோ	-11.5676
▁காமாவசரகுஸல	-11.5684
▁உப்பஜ்ஜ	-11.5686
ரந்தங்	-11.5689
பரிவாரோ	-11.569
னவத	-11.5693
▁அரூபீ	-11.5695
கரணஞ்ச	-11.5695
▁ஸிகா	-11.5697
சாரி	-11.5697
மயோ	-11.5699
லியா	-11.5699
▁மமா	-11.5703
ஆப	-11.5703
▁அனுஸ்ஸதி	-11.5704
அக	-11.571
ய்யே	-11.5712
▁பஸவதி	-11.5713
யோஜனங்	-11.5713
▁உபபஜ்ஜந்தஸ்ஸ	-11.5715
▁பாபிமா	-11.5718
▁அகதங்	-11.572
▁காயசித்த	-11.5723
▁கேவட்ட	-11.5724
▁யஸங்	-11.5724
ஹதீதி	-11.5725
மதரங்	-11.5725
▁யஸ்ஸாயஸ்ம	-11.5727
▁லோகியோ	-11.5727
ன்னாதி	-11.5727
ஸஸி	-11.5728
ரஸஹி	-11.5728
▁மயம்பி	-11.5728
▁ஸவிதக்கங்	-11.5729
▁பரேஸு	-11.573
▁ஸவிதக்கஸவிசாரங்	-11.573
▁உபபஜ்ஜந்தீ	-11.5731
▁ஸாமணேர	-11.5733
▁விஸ்ஸாஸ	-11.5733
பரிஞ்ஞா	-11.5734
த்திஸ்ஸ	-11.5734
▁நஅரண	-11.5735
▁பஸ்ஸாவ	-11.5735
▁உத்தானத்தா	-11.5738
ஹணத்த	-11.5738
ன்னாமா	-11.5738
▁யோஜன	-11.5738
▁ஆகாஸேன	-11.5739
▁ஸேனாஸனே	-11.5739
ஹிரோ	-11.5741
வஸீ	-11.5744
ஸமீபே	-11.5744
▁அதீதோ	-11.5746
மூலகே	-11.5747
▁வேபுல்லாய	-11.5754
இதே	-11.5755
ஹிகா	-11.5755
▁ஸுனி	-11.5758
▁சுண்ண	-11.5758
ஜ்ஜதீதி	-11.5759
ஹகங்	-11.576
பிகா	-11.5763
▁ஸாமிகோ	-11.5766
▁ஆமந்தெத்வா	-11.5766
▁பஹீயந்தி	-11.5766
லோகாஸா	-11.5767
தோயேவ	-11.5767
▁ஹு	-11.5768
வசனோ	-11.5768
▁ஸங்யோஜனா	-11.5772
னிப்ப	-11.5772
▁ஆகாரேன	-11.5774
▁ஸீலே	-11.5774
▁மஹாயஸோ	-11.5776
▁பச்சயேஸு	-11.5778
ஸேதீதி	-11.5778
▁மஹாஸத்தஸ்ஸ	-11.578
ஜ்ஜு	-11.578
▁ஞ	-11.5781
பச்சங்க	-11.5781
ஹிதப்	-11.5784
ஸங்கப்போ	-11.579
▁வஸ்ஸஸதங்	-11.5791
▁இமமேவ	-11.5793
ரூபஸ்ஸ	-11.5794
▁பஜானந்தி	-11.5795
▁பபஞ்ச	-11.5796
▁அனேகதா	-11.5808
யஸுத்தவண்ணனா	-11.5809
▁சதுத்தா	-11.5814
▁பரிமாண	-11.5817
▁ஹேதுனா	-11.5818
▁ஸுஜ்ஜ	-11.5818
த்தேஸு	-11.582
▁ஆருய்ஹ	-11.5823
▁ஸோமனஸ்ஸஜாதோ	-11.5824
பேஸீதி	-11.5825
▁விஸேஸனங்	-11.5827
▁ஆராமோ	-11.5828
▁லஜ்ஜீ	-11.5831
▁அரஹந்த	-11.5832
▁அம்போ	-11.5834
ப்பகார	-11.5835
▁வூபஸம	-11.5836
▁கிரிய	-11.5837
▁யங்னூனாஹ	-11.584
பண்ணி	-11.5841
▁பஞ்ஞாசக்க	-11.585
▁ஸஞ்ஞீ	-11.5851
▁தத்ராதி	-11.5853
சம்ம	-11.5854
▁ஆசரியு	-11.5856
பஜ்ஜா	-11.5856
▁ஸேனாய	-11.5856
▁ஜலங்	-11.5857
விப்பயுத்தங்	-11.5857
தஸ்மாதிஹ	-11.5865
▁வீரியப	-11.5865
▁ஸேவதோ	-11.5868
தசித்தோ	-11.5869
▁நவமோ	-11.5876
▁அஸஞ்ஞ	-11.5879
▁வத்ததீதி	-11.5879
▁காயத்	-11.5879
மன்வாய	-11.588
▁ரஸாயதனங்	-11.5883
▁இச்சேவமா	-11.5884
ராகா	-11.5885
தஸத்	-11.5886
▁கந்தா	-11.5887
லிதங்	-11.5888
ணபோ	-11.5893
▁விமுத்தங்	-11.5894
பஞ்ஹ	-11.5895
பஞ்ஹே	-11.5896
யேதி	-11.5897
வமேவ	-11.5898
ஹல	-11.5899
ஹந்த	-11.59
ஞ்ஞஸ்ஸ	-11.5901
▁திகபாசித்தியங்	-11.5902
▁தீஸுபி	-11.5902
பாரமி	-11.5904
ரத்தே	-11.5906
விசிகிச்ச	-11.5908
▁வண்ணவா	-11.5909
ரியப	-11.591
ஸந்தானே	-11.591
▁நிஹீன	-11.5911
▁ஆபஜ்ஜிங்	-11.5916
▁ஏகூனவீஸதி	-11.592
▁முதங்	-11.5925
▁விசித்த	-11.5925
ண்ஹே	-11.5925
பதிட்டா	-11.5927
▁விஸ்ஸஜ்ஜனங்	-11.5927
யவஸேன	-11.5928
▁ஸதிங்	-11.5929
▁அனுகம்பாய	-11.5933
ஜானாதி	-11.5933
▁குஸலத	-11.5933
▁ஜிவ்ஹ	-11.5934
னானத்த	-11.5934
▁தீஹாகாரேஹி	-11.5941
ரதோவ	-11.5942
வெய்யுங்	-11.5945
▁கப்பங்	-11.5945
ஸமித்	-11.5946
▁அரஹதா	-11.5947
▁மஹாத	-11.5947
வஜ்ஜா	-11.5953
▁நியுத்தோ	-11.5955
ஆரம்மண	-11.5957
ஸாபி	-11.596
ஸன்னிஸ்ஸித	-11.5961
▁கரொந்தேன	-11.5961
▁குபிதோ	-11.5966
ஸ்ஸேன	-11.5972
னாமா	-11.5972
▁ஆபஜ்ஜ	-11.5973
▁வரோ	-11.5976
▁மஹந்தே	-11.5976
ஜ்ஜாய	-11.5977
ரஸத்	-11.5978
▁ஸுத்தந்த	-11.5979
மனிக	-11.5982
▁ரஜ்ஜு	-11.5985
ஸமூஹ	-11.5987
யத்தேன	-11.5987
▁மஹி	-11.5988
▁அனுஸ்ஸரி	-11.599
▁ஞத்தியா	-11.599
மெத்தா	-11.5991
▁ஸோதே	-11.5993
▁ஸெய்யா	-11.6
▁ஸக்காரங்	-11.6
ராஹ்மணக	-11.6001
▁ஆவஸத	-11.6006
▁லோம	-11.6008
▁நோகிலேஸ	-11.601
ப்படிஸங்வேத	-11.6012
▁ரஸே	-11.6013
ம்மராஜா	-11.6014
▁உபேதோ	-11.6016
விப்பயுத்தபச்சயா	-11.6016
▁நச்சா	-11.6017
பவத்த	-11.6017
▁முத்தங்	-11.6017
▁146.	-11.6018
திபட்டா	-11.6019
▁ஆனாபானஸ்ஸதி	-11.6022
▁ஸாதங்	-11.6022
ேஸுபி	-11.6024
▁ஸுமன	-11.6026
▁கரோதோ	-11.6027
▁ஸந்திகா	-11.6031
ஸந்தான	-11.6033
▁ஸோச	-11.6035
▁ஸஹஜாதபச்சயா	-11.6035
▁ஸுஞ்ஞதங்	-11.6036
மெந்தி	-11.6036
பெந்தீதி	-11.6037
▁லஜ்ஜி	-11.6038
பனீயகம்மங்	-11.604
சு	-11.6042
▁ரூபப	-11.6043
ம்மஸார	-11.6052
ம்மஸ்ஸித	-11.6052
ஹிதாய	-11.6053
ப்பஞ்ஞோ	-11.6054
▁அந்தரந்தரா	-11.6054
ஸ்வ	-11.6054
▁149.	-11.6054
▁147.	-11.6055
▁நுப்பஜ்ஜிஸ்ஸதீ	-11.6055
▁காரயி	-11.6056
ஸிப்	-11.6058
லதாய	-11.6059
யாகரணங்	-11.606
பாஸே	-11.6061
▁அஸங்கி	-11.6061
ஸேவன	-11.6062
னாவ	-11.6064
▁நிவேஸனங்	-11.6065
▁ஸிகி	-11.6067
▁மஹாஜனங்	-11.6068
▁ஸமந்தச	-11.6068
▁விஞ்ஞாணே	-11.6069
▁143.	-11.607
கம்மந்தி	-11.6073
▁ஜனிந்த	-11.6074
வஹ	-11.6076
னக்	-11.6077
ஸக்கோ	-11.6078
த்தகங்	-11.6078
▁ஸங்ஸாரோ	-11.6079
▁ஸால	-11.6079
த்தாய	-11.6079
▁கரித்வான	-11.6079
▁பஞ்ஞபேதி	-11.6082
▁பரிஸ்ஸயா	-11.6083
ஜீவோ	-11.6085
கித்தி	-11.6085
▁வாயாமோ	-11.6087
காஸ	-11.6087
மாதிகா	-11.6089
▁தேனஸ்ஸ	-11.609
▁மஹந்தா	-11.6094
மார	-11.6096
நாம	-11.6098
▁ரம்மே	-11.6099
▁உளாரங்	-11.6101
▁ஸஞ்சேதனிகா	-11.6105
மிஸ்ஸாமீ	-11.6105
▁அவினிபாத	-11.6114
▁உபசயோ	-11.612
▁பூஜெத்வா	-11.6121
▁கண்டக	-11.6123
▁ராஜூனங்	-11.6127
▁அஞ்ஞாய	-11.6128
ல்லனந்த	-11.6132
சித்தானங்	-11.6133
▁விபாகானங்	-11.6136
▁லோமா	-11.614
▁அகனிட்ட	-11.614
யது	-11.6144
▁ஹந்தி	-11.6146
▁சோரோ	-11.6148
ஸமாஸ	-11.6149
▁துய்ஹ	-11.6154
▁அர	-11.6156
▁கருணாய	-11.6156
ஹகா	-11.6158
த்தத்	-11.6159
▁காயா	-11.6162
▁வஹ	-11.6163
ஸச்சபரியோஸானே	-11.6164
▁ஸாஸவ	-11.6165
▁சேதனாய	-11.6166
▁சண்ட	-11.6168
▁உபாஹனா	-11.6169
▁கரணவசனங்	-11.617
▁உப்பஜ்ஜெய்யுங்	-11.6171
▁156.	-11.6172
▁ஆகாஸங்	-11.6174
▁ஏதஸ்மா	-11.6175
ஸாவக	-11.6177
ரஹி	-11.6178
பத்தியா	-11.6179
ஸஞ்ஞிதா	-11.6179
▁கிலிட்ட	-11.6179
பயதி	-11.6182
னிச்ச	-11.6183
▁பேதங்	-11.6185
▁ஸமாதீ	-11.6185
மாது	-11.6187
ராஹ்மணீ	-11.6187
ரமா	-11.619
ல்யங்	-11.619
ூபமா	-11.6195
பவாரணா	-11.6197
மலங்	-11.6197
▁பக்கா	-11.6197
▁சரெய்ய	-11.62
▁அப்பமாணா	-11.6203
னுத	-11.6203
▁மஹானாக	-11.6203
▁விசரந்தி	-11.6206
தும்ஹே	-11.6207
ெஸ்வ	-11.6211
▁விஜ்ஜதீதி	-11.6211
ஸஜ்ஜானி	-11.6217
கரணீய	-11.6219
ருபா	-11.6219
▁ஸமதி	-11.6219
மத்தானங்	-11.622
மனுப	-11.6222
ரணத்த	-11.6223
புத்தங்	-11.6228
▁நப்பஜஹந்தி	-11.623
▁மனோரமா	-11.623
▁ரூபஜீவித	-11.6232
▁ஸஞ்ஞாவிமொக்க	-11.6232
▁மஹீபதி	-11.6233
▁நாரியோ	-11.6239
ரினோ	-11.624
ருப்ப	-11.6244
வபச்சயா	-11.6245
தவிப்பயுத்த	-11.6246
▁விஞ்ஞுதங்	-11.6246
▁ஆபஜ்ஜெய்ய	-11.6246
▁ஏகீப	-11.6247
விவேக	-11.6248
▁உய்யான	-11.6252
▁காரணே	-11.6252
▁தெத்திங்ஸ	-11.6253
▁வாயம	-11.6254
▁பஞ்சவோகாரானங்	-11.6254
▁அனுபஞ்ஞத்தி	-11.6255
▁உபஸந்தோ	-11.6257
▁ஞாணப	-11.6258
▁உக்க	-11.6258
▁அவிஜ்ஜமான	-11.6262
▁ஸப்புரிஸத	-11.6264
தாஸதி	-11.6266
▁கேஸே	-11.6268
ருத்	-11.6271
▁பரப	-11.6272
▁உக்கங்ஸ	-11.6272
த்ர	-11.6275
▁கிலம	-11.6279
▁சேதோஸம்	-11.6281
▁அரூபாவசரானங்	-11.6281
▁கச்சான	-11.6287
அங்க	-11.6288
▁அனேகபரியாயேன	-11.629
▁சஞ்ஞே	-11.6293
▁ஆவுத	-11.6293
ராஹ்மணியா	-11.6293
▁அலங்கார	-11.6295
▁அனுஸாஸி	-11.6298
▁ஸியந்தி	-11.63
ரிங்ஸு	-11.6303
▁விஜித	-11.6305
▁உத்தரபத	-11.6306
▁மரதி	-11.6309
னஸீலோ	-11.6313
சக்க	-11.6314
▁அனவஸேஸதோ	-11.6315
▁இம	-11.6323
▁ஸம்பயுத்தஸ்ஸ	-11.6325
▁ஸஸ	-11.6328
ஞ்ஜந்தோ	-11.6328
சாரே	-11.6335
ஸிப்ப	-11.6335
▁ஆனிஸங்ஸங்	-11.6338
▁பத்தசீவரங்	-11.6346
▁நச்சகீ	-11.6349
ஸமேவாதி	-11.6349
ஸிதம்பேதங்	-11.635
▁வுத்தஸ்ஸ	-11.635
▁ஸப்பாணக	-11.635
▁உபபஜ்ஜந்தி	-11.6353
▁அனுபஸம்பன்னஸ்ஸ	-11.6357
▁ஜினங்	-11.6358
▁நிதி	-11.6358
▁பாதோவ	-11.6361
முது	-11.6362
பரிஸாய	-11.6364
பரியோஸான	-11.6366
னஞ்சாதி	-11.6367
சோத	-11.6369
▁ஆனிஸங்ஸோ	-11.6372
ரத்தோ	-11.6373
வசனமேதங்	-11.6374
▁மர	-11.6376
பணீத	-11.6376
▁விஜ	-11.6378
▁நான	-11.6379
▁விஞ்ஞாய	-11.638
வந்தானங்	-11.6381
ம்பூ	-11.6386
ஸங்வண்ணனா	-11.6389
▁ரு	-11.639
ரஹ்மலோகா	-11.639
மஸ்ஸாதி	-11.6394
▁அரியஸாவகஸ்ஸ	-11.6394
யாபஜ்ஜ	-11.6395
ஹலித்	-11.6395
▁ஞாபேத	-11.6395
விப்பா	-11.64
▁கஸ்ஸபஸ்ஸ	-11.64
▁அஹுங்	-11.6405
பன்னோ	-11.6407
ஸுராமேரயமஜ்ஜபமாத	-11.6409
▁நேமி	-11.641
▁பிதரா	-11.6411
▁அனுயுத்தோ	-11.6412
லியோ	-11.6412
▁ஸஜ்ஜ	-11.6414
▁அனேகா	-11.6416
ானுக	-11.6417
▁பாபெத்வா	-11.6418
▁ஸத்ததிங்ஸ	-11.6419
▁ஸேனாஸனானி	-11.6424
லோகங்	-11.6425
▁ஸமூஹதா	-11.6426
வாரிக	-11.6426
▁மச்சுனோ	-11.6432
▁ஜாதிபச்சயா	-11.6435
னரஸா	-11.6438
னகுஸலோ	-11.6439
▁அனேகேஹி	-11.6441
▁நவவித	-11.6443
வாரி	-11.6445
▁பவிவேக	-11.6449
▁ஸளாயதனங்	-11.6449
▁ஸப்புரிஸ	-11.645
▁ஸக்கோமி	-11.6452
▁லங்க	-11.6453
▁அவிதக்கங்	-11.6454
▁சேதியஸ்ஸ	-11.6462
▁யஞ்ஞ	-11.6467
மகஸ்ஸ	-11.6468
▁பதிரூப	-11.6468
ன்னி	-11.6469
ய்யாம	-11.6469
▁பவேஸெத்வா	-11.6471
▁145.	-11.6472
ஸம்பத	-11.6472
▁அவத்த	-11.6472
லிப	-11.6472
வகஸ்ஸ	-11.6473
ருஸங்	-11.6474
▁ஸஸ்ஸதோ	-11.6475
▁யானங்	-11.6476
▁ஏததே	-11.6476
நவ	-11.6477
யதாய	-11.6478
ன்னஞ்ச	-11.648
▁அப்படிக்	-11.6481
த்தம்பி	-11.6482
ஞ்ஜா	-11.6484
▁அனுரக்க	-11.6487
மாரப்	-11.6488
▁உபஸம	-11.6489
▁அவிதக்கஅவிசாரங்	-11.649
▁ஆரா	-11.6494
லவஸேன	-11.6494
▁பிஸுணா	-11.6496
▁ஏகவசன	-11.6501
ரஸே	-11.6501
▁கல்யாணங்	-11.6502
ஸனீய	-11.6502
▁அனுஸய	-11.6507
▁வீஸ	-11.651
ஜிதுங்	-11.6511
▁அம்ம	-11.6513
▁ஆரம்மணா	-11.6516
னுஸாரேன	-11.6517
ரஸாதி	-11.6526
ஸ்ஸீலா	-11.6527
வஹோ	-11.6528
ஹானங்	-11.6532
வஸதி	-11.6544
▁ஸ்வே	-11.6546
▁காமதண்ஹா	-11.6547
▁ஸிஸ்ஸா	-11.6547
யித்தா	-11.6548
ஸோதங்	-11.6549
▁அனேன	-11.6549
▁வு	-11.655
விஞ்ஞாணா	-11.6555
▁பண்ணத்தி	-11.6555
▁161.	-11.6556
▁வந்தே	-11.6557
▁வட்டதியேவ	-11.6561
▁ஆஸவஸம்பயுத்தோ	-11.6562
▁சீவரானி	-11.6564
▁யுத்தி	-11.6565
▁உபாய	-11.6566
▁ரதனானி	-11.6566
ணித்வா	-11.6569
பங்கர	-11.6569
▁நானாதி	-11.657
னாகாரோ	-11.6571
ரணிங்	-11.6572
▁அனொத்தப்பங்	-11.6572
ஸீஸங்	-11.6574
▁மூலானி	-11.6577
விஹாரி	-11.658
காமாவசர	-11.6585
▁நப்பஜஹதீதி	-11.6592
▁இஹ	-11.6594
▁155.	-11.6594
▁காரெந்தே	-11.6595
முதா	-11.6596
▁சேதனாப	-11.6597
பயே	-11.6598
ராமங்	-11.6598
பாட	-11.6599
▁வஞ்ச	-11.6602
▁ஸண்டி	-11.6605
▁கித்தாவதா	-11.6605
ஏகோ	-11.6606
யகங்	-11.6608
▁165.	-11.661
▁இஸ்ஸ	-11.6611
▁விரதோ	-11.6612
▁வயத	-11.6617
▁சக்கவாள	-11.6618
ம்மியா	-11.6618
▁பரிஸாஸு	-11.6621
▁பரா	-11.6622
▁விபரீத	-11.6622
▁151.	-11.6625
▁ஸமயா	-11.6627
ச்சீ	-11.6627
▁160.	-11.663
கத்தப்	-11.6631
▁வாஸங்	-11.6634
▁மஹாவக்	-11.6636
▁ஆவாஸங்	-11.6636
▁அத்ர	-11.664
ன்னாயோ	-11.6642
பரியோஸானா	-11.6644
ொத்வேவ	-11.6646
வீரியா	-11.6648
னுலோமபச்சனீயங்	-11.6648
▁ருசி	-11.6649
▁பாபகோ	-11.665
ராஹ்மணேன	-11.665
▁ஏகத்	-11.665
▁154.	-11.6654
▁159.	-11.6655
▁அனங்க	-11.6655
க்கடமேவ	-11.6659
▁சாஹங்	-11.6663
ல்ய	-11.6664
▁பரியேஸித்வா	-11.6664
▁ந்ஹாரு	-11.6666
▁விஜானாதி	-11.6666
ரய்ஹோ	-11.6666
▁அதீ	-11.6671
▁ஸீ	-11.6673
கரணத்த	-11.6677
▁உப்பஜ்ஜமானோ	-11.6679
பச்சனீயானுலோமங்	-11.6684
▁பச்சுப்பன்னே	-11.6686
▁அனியதா	-11.6687
▁மாரங்	-11.6689
▁ஸண்ஹ	-11.669
▁ஸாஸவோ	-11.6693
▁மக்கட	-11.6694
▁நோசித்த	-11.6695
ருஸா	-11.67
▁சித்தசேதஸிகா	-11.6704
▁குஸலஞ்ச	-11.6705
பச்சக்க	-11.6712
சதுக்கங்	-11.6717
▁அஜாதஸத்து	-11.6719
▁அதெ	-11.6726
▁ராஜகுமார	-11.6729
▁ஸினேரு	-11.6729
ஸிங்கா	-11.6732
▁குடிங்	-11.6737
▁அனஞ்ஞஸா	-11.6738
வகா	-11.6738
விமானவண்ணனா	-11.6741
ணஞ்ச	-11.6748
▁யோனங்	-11.6749
▁ஸங்வண்ணனா	-11.675
▁யேஸு	-11.6751
ரணந்தி	-11.6756
▁அஸப்	-11.6759
ம்மவிசயோ	-11.6761
▁லோகஸ்மி	-11.6761
கபட்டா	-11.6762
அபா	-11.6762
▁அந்தராயா	-11.6764
ஸாமக்	-11.6766
▁விஸங்வாத	-11.6768
▁அப்பதா	-11.677
▁மத்தா	-11.6775
▁பஹிதத்தோ	-11.6779
ரூபூபபத்தியா	-11.6779
▁அரூபாவசரங்	-11.678
▁நாஹோஸி	-11.6781
▁153.	-11.6789
அனிச்சங்	-11.6792
▁வுஸிதங்	-11.6795
ள்ஹத	-11.6798
▁ஸங்விக்	-11.6799
▁விஞ்ஞெய்யங்	-11.68
▁ஸோகோ	-11.68
னிபாதோ	-11.6801
▁விஞ்ஞெய்யோ	-11.6802
வபடிலாப	-11.6803
▁எத்தகேன	-11.6804
▁வுத்தத்த	-11.6805
▁உக்கா	-11.6807
யாவதா	-11.6807
▁பஸய்ஹ	-11.6807
▁நிபஜ்ஜி	-11.6808
▁சரண	-11.681
கிலேஸேஹி	-11.6811
▁அஜா	-11.6812
▁திலக்க	-11.6819
▁ஸுக்கபக்க	-11.682
▁வேபுல்லங்	-11.6822
சேதோவிமுத்தி	-11.6826
▁குமுத	-11.6826
▁உபபஜ்ஜெய்ய	-11.6831
ப்பவத்தியா	-11.6836
▁ஆராமங்	-11.6836
▁அபஸாத	-11.6837
லோகுத்தர	-11.6837
ண்த	-11.6839
▁உப்பதித்வா	-11.6842
▁157.	-11.6843
▁158.	-11.6843
▁அயமாயஸ்மா	-11.6843
▁வாணிஜா	-11.6844
▁ஜானாஹி	-11.6844
▁பஸாரெத்வா	-11.6844
விஸேஸேன	-11.6845
▁விப்பமுத்தோ	-11.6847
▁பத்தஸ்ஸ	-11.6847
சக்கங்	-11.6849
▁கிங்காரணா	-11.6852
▁நிஸ்ஸரணஞ்ச	-11.6853
பஞ்ஞத்தியா	-11.6862
▁ஸங்ஸயோ	-11.6863
▁ஸப்புரிஸா	-11.6865
திரச்சா	-11.6866
▁வினி	-11.6866
லனிப்	-11.6868
▁ஆவ	-11.6869
விஸயங்	-11.6869
ஜனக	-11.687
▁அஹிதாய	-11.687
▁பச்சயானங்	-11.6872
▁174.	-11.6873
முதீ	-11.6874
பரங்	-11.6874
▁ஆவஜ்ஜனாய	-11.6878
ஸ்ஸிதப்	-11.6881
▁அனேகானி	-11.6883
ரேது	-11.6886
ஸ்ஸஜங்	-11.6887
▁பஸ்ஸஸி	-11.6891
விஸேஸே	-11.6892
▁ஸங்வத்தந்தீ	-11.6896
ிஸ்ஸத்தே	-11.6898
ன்னதா	-11.6901
ஸமாஸோ	-11.6901
▁பஞ்சத	-11.6902
▁ஸானுஸயோதி	-11.6906
▁ஆபன்ன	-11.6908
▁காயகம்ம	-11.6909
▁பாயாஸி	-11.6909
சதுன்னவுதி	-11.6909
▁அரூபப	-11.6911
▁ஆவஜ்ஜனா	-11.6912
▁ஸாவகே	-11.6912
▁அத்தஹிதாய	-11.6913
▁ஜீவிதே	-11.6914
▁விமுத்தியா	-11.6919
யஸச்சஞ்ச	-11.692
▁ஏகஸ	-11.6925
ப்பஸங்க	-11.6925
▁ஸாரத்தோ	-11.6927
▁நிய்யாதி	-11.6928
ஸந்தீ	-11.6929
யாதோ	-11.6929
▁ஸாதெ	-11.693
மஹந்த	-11.693
▁அஸந்துட்ட	-11.6931
பரியந்தங்	-11.6933
▁ஸுலப	-11.6937
ஸாமணேர	-11.6938
தாரம்மணோ	-11.6939
ரதீ	-11.6941
ஸிகங்	-11.6942
மித்தோ	-11.6944
▁பரமா	-11.6948
மஹக்	-11.6948
னிஸ்ஸயே	-11.6949
▁நோபராமாஸ	-11.6949
▁அபரியாபன்னா	-11.6951
▁இமாஸங்	-11.6953
னவி	-11.6953
ுக்	-11.6955
▁பரியோஸானே	-11.6957
ந்துகா	-11.6969
▁ஸீதங்	-11.697
▁173.	-11.6974
நனு	-11.6974
▁மதே	-11.6975
▁படிபத்திங்	-11.6976
▁பாடே	-11.6976
பன்னா	-11.6977
ஞ்ஜலி	-11.6982
▁சீவரேன	-11.6982
▁அபரிக்க	-11.6984
ஸயேன	-11.6985
▁ஸுஞ்ஞத	-11.6986
▁லேண	-11.6987
க்கடானங்	-11.6988
ஹணவஸேன	-11.6988
▁அபரம்பி	-11.6991
ஹுபோஸத	-11.6997
▁விவர	-11.6999
▁ஸம்பாத	-11.7
▁பேமங்	-11.7001
▁ஏகசித்த	-11.7001
▁ஹேதுஸம்பயுத்த	-11.7006
ரணி	-11.701
சிபி	-11.701
வாஸீ	-11.7017
வாஸேதி	-11.7017
▁அவதி	-11.7018
▁நாமகொ	-11.7019
▁வச	-11.7022
காமே	-11.7023
▁ஸுணந்தி	-11.7024
▁கோஸல	-11.7024
▁நப்பஜானந்தி	-11.7033
▁யாவததியங்	-11.7035
▁ஓலோகே	-11.7035
▁ஸஞ்ஜானாதி	-11.7036
யிதத்தங்	-11.7036
▁வியாகாஸி	-11.7037
▁ஹந்த்வா	-11.7039
▁உஸ்ஸுக்கங்	-11.704
ரணாதீ	-11.7041
▁167.	-11.7041
ரப்	-11.7042
சத்தாரிமானி	-11.7044
▁ஆயோ	-11.7045
▁பரொக்க	-11.7045
ரஹ்மலோக	-11.7046
ஸாரோ	-11.7047
விரோத	-11.7048
அட்டி	-11.7049
▁அனாரம்ப	-11.705
▁உஜ்ஜ	-11.705
▁நவஹி	-11.7051
▁யவ	-11.7051
ஸஹாய	-11.7055
▁ஸேஸே	-11.7056
விரஹிதோ	-11.7056
முதி	-11.7056
▁ஹதோ	-11.7058
▁காயானுபஸ்ஸனா	-11.7058
▁ஸரீரஸ்ஸ	-11.7061
புத்தஸ்ஸ	-11.7061
ய்ஹந்தி	-11.7065
ஸ்ஸஸீ	-11.7066
ங்ஸேதி	-11.7066
ஜான	-11.7067
ஸதாய	-11.707
▁ததோபி	-11.7074
▁பரலோகே	-11.7074
த்தப்பங்	-11.7075
▁பங்ஸுகூல	-11.7076
▁மாஸோ	-11.7078
வங்ஸ	-11.7083
▁குட்ட	-11.7083
ுப்பன்ன	-11.7084
ரஞ்ஞா	-11.7087
▁ராஜாபி	-11.7088
சித்துப்பாத	-11.7089
▁யுஞ்ஜ	-11.709
▁ரூபிய	-11.709
▁அதிக்கந்த	-11.7091
னீவரண	-11.7093
▁181.	-11.7093
▁ஸங்வரங்	-11.7097
▁குஸலாகுஸல	-11.7098
▁மஹதியா	-11.7105
▁162.	-11.7105
▁பச்சுட்ட	-11.7106
▁மலங்	-11.7106
▁விசார	-11.7109
னிட்ட	-11.711
▁ஸுத்தேஸு	-11.7114
▁வுத்தமத்த	-11.7119
ூபசார	-11.7119
▁ஆனிஸங்ஸா	-11.7122
▁அலக்	-11.7123
▁விவ	-11.7127
▁தேல	-11.7127
▁அனஞ்ஞ	-11.7128
▁ரம்மங்	-11.7131
உது	-11.7132
ஹமஸ்மி	-11.7133
தொ	-11.7134
▁ஸமாபத்தியா	-11.7135
▁பாணினோ	-11.714
னிஸங்க	-11.7144
னகிச்சங்	-11.7149
▁ஆயதனா	-11.715
▁பஞ்சதா	-11.7152
ஸூசி	-11.7152
▁பஸ்ஸதா	-11.7154
▁ஹிதங்	-11.7155
▁வேஹாஸங்	-11.7155
▁கதிசி	-11.7157
▁விஸி	-11.7158
▁பக்கமி	-11.7158
பரியாயேன	-11.7159
ஸஹஜாதே	-11.716
▁மனாப	-11.7162
▁உபசினந்த	-11.7163
▁ஓருய்ஹ	-11.7163
ஸம்மதோ	-11.7164
▁அஜானித்வா	-11.7165
யாமீ	-11.7168
▁176.	-11.7171
கூடங்	-11.7171
▁கம்மவாசாய	-11.7171
▁நஅரூபாவசர	-11.7171
ஸவோ	-11.7173
▁ஸஞ்ஜா	-11.7173
கரணந்தி	-11.7174
ஹேதுகஞ்ச	-11.7176
ரிதுங்	-11.7178
▁பவாரணங்	-11.718
▁புஞ்ஞேன	-11.718
▁152.	-11.7182
ஸெக்க	-11.7182
ஸ்மீதி	-11.7182
பக்கோ	-11.7183
▁ஹிதஸுக	-11.7186
ஸங்ஹிதங்	-11.7187
முச்சதி	-11.7188
▁காமாவசரோ	-11.7188
னாகாரேன	-11.7188
ஸனோ	-11.7189
‘‘	-11.7189
▁ஸந்தீரண	-11.7191
▁அபரிமாணா	-11.7193
▁அப்பமத்தா	-11.7193
▁விப்படிஸார	-11.7193
▁ஸூரியே	-11.7194
▁21	-11.7194
ஸாஹ	-11.7194
ராணஸி	-11.7194
▁ஸங்கப்ப	-11.7196
ஸீமாய	-11.7197
மெந்தோ	-11.7197
ஞ்ஞுதஞ்ஞாணங்	-11.7204
▁வீணா	-11.7204
ூபகா	-11.7206
ஜு	-11.7206
மரண	-11.7209
▁டோ	-11.7209
▁அங்கீ	-11.7212
▁நஅஹேதுக	-11.7212
ருஹ	-11.7212
▁காரணந்தி	-11.7214
ப்பபு	-11.7215
▁வேட	-11.722
▁மரணேன	-11.722
பரியோஸானங்	-11.722
▁விதக்கே	-11.7222
ருணோ	-11.7222
ய்யாத	-11.7223
▁ஸேதா	-11.7225
▁நோசித்தஸங்ஸட்ட	-11.7228
▁விவட்டூபனிஸ்ஸய	-11.7228
▁விசாரே	-11.7228
ஸண்டி	-11.7228
▁170.	-11.7228
விஸ்ஸந்தீ	-11.723
படிஸங்வேத	-11.723
▁அனுப்பத்தா	-11.7231
ஸூப	-11.7231
ருதா	-11.7232
▁169.	-11.7236
சத்தாலீஸ	-11.7237
கரணானி	-11.7237
▁ஸச்சானங்	-11.7239
▁ஆரோ	-11.7239
▁அனுஸ்ஸர	-11.7239
இச்சேவமா	-11.7241
▁ந்ஹா	-11.7243
பரிபுண்ண	-11.7244
▁லோ	-11.7244
ஸன்ன	-11.7246
▁காஸி	-11.7247
▁வசனே	-11.7251
▁பஞ்சவோகாரங்	-11.7253
▁பணீதா	-11.7253
▁கரணீயேன	-11.7254
வயேபி	-11.7258
▁படிகூல	-11.7259
▁ஹிரி	-11.726
▁ஹேதுப	-11.726
விசித்த	-11.7261
ம்மிங்	-11.7262
▁மங்கு	-11.7263
▁உபமாய	-11.7263
பிதப்	-11.7268
▁பஸங்ஸா	-11.7269
ரஹ்மசரியஸ்ஸ	-11.7272
▁விரோசதி	-11.7274
▁உபகா	-11.7275
கலாப	-11.7275
ஸியோ	-11.7279
▁பராமாஸோ	-11.7281
வந்து	-11.7283
ரம்ஹி	-11.7284
▁ஸுத்தானி	-11.7287
வயேன	-11.7289
ாபத்தி	-11.7289
ஜிதங்	-11.7291
▁166.	-11.7291
▁பராமாஸஸம்பயுத்த	-11.7292
▁பாதுரஹோஸி	-11.7293
▁பாபுணிங்ஸூதி	-11.7294
▁ஸரப	-11.7294
▁மஞ்ஞந்தி	-11.7294
லோபே	-11.7295
▁ஏஸனா	-11.7297
▁ஸமத்தங்	-11.7298
▁அந்தக்	-11.7298
▁பவத்திதங்	-11.7301
ஹுப்	-11.7303
யேத	-11.7304
ப்பஹானேன	-11.7305
▁ஏதிஸ்ஸா	-11.7307
விங்ஸு	-11.7307
▁ஞத்திசதுத்த	-11.7308
▁ஏகச்சா	-11.7308
▁எத்தகா	-11.7308
▁ஸராக	-11.731
லகோ	-11.7312
▁வெஸ்ஸந்தரோ	-11.7313
▁ஸம்பஜ்ஜதி	-11.7318
ந்தூதி	-11.732
ஜேன	-11.732
▁நஸ்ஸதி	-11.7321
வேஸீ	-11.7322
▁ஸத்ததா	-11.7323
ஹிதமேவ	-11.7326
ஜிதானங்	-11.7326
▁ஸுஞ்ஞா	-11.7327
மானோதி	-11.7327
▁ஸமோத	-11.7328
னஞ்ஞேவ	-11.7329
ரணாய	-11.7329
▁இதீதி	-11.733
வயதோ	-11.7333
8-9	-11.7333
சாரிகங்	-11.734
விஸபா	-11.7341
▁ஹீனாதி	-11.7342
▁ஸ்யா	-11.7343
ரகேன	-11.7347
ஜல	-11.735
▁தீரங்	-11.7351
▁மஹதீ	-11.7351
▁சோள	-11.7352
▁மிதி	-11.7354
▁நிஸஜ்ஜாய	-11.7355
▁மாரப	-11.7356
ஜனி	-11.7357
▁அணு	-11.7359
▁அனநுஸ்ஸுதேஸு	-11.736
▁அன்வா	-11.736
▁பகாஸேஸி	-11.7361
விஸ்ஸாமீ	-11.7362
த்தேபி	-11.7362
▁வுத்தனயத்தா	-11.7363
▁179.	-11.7369
▁பவத்தியங்	-11.7372
▁மரணப	-11.7376
▁ஸாமஞ்ஞதோ	-11.7376
▁ஹாஸ	-11.7383
▁அஸ்ஸமே	-11.7384
▁குலபுத்தா	-11.7385
▁அரியஸச்ச	-11.7387
▁உபாஸகங்	-11.7391
ரேபி	-11.7393
▁பதித்வா	-11.7393
▁நிய்யானிக	-11.7398
▁அஸேவித	-11.7405
▁நீவரணே	-11.7408
வாஜ	-11.7409
▁ஸமணே	-11.7411
ஸங்கிலேஸிக	-11.7411
மாணவ	-11.7414
▁புனப்புன	-11.7417
▁ஸமீப	-11.7417
▁உண்ஹங்	-11.7419
▁அனுவி	-11.742
ஸவா	-11.742
▁மரணஸ்ஸ	-11.7425
▁ஆரோசெத்வா	-11.7426
▁உம்மத்தகா	-11.7426
▁விஸேஸெத்வா	-11.7427
னுமோத	-11.7427
▁நானாகரணங்	-11.7429
▁இமினாபி	-11.7431
▁ஜானபத	-11.7432
வமனுஸ்ஸா	-11.7433
▁யமஹங்	-11.7434
▁நவம	-11.7436
பரிப	-11.7437
காரி	-11.7442
▁அஹூ	-11.7442
▁ஸுபுப்	-11.7443
▁இண	-11.7451
▁குஸீத	-11.7454
வயமாஹ	-11.7455
▁குஸலசித்த	-11.7455
▁த்வஞ்ச	-11.7456
புஞ்ஞாபி	-11.7457
▁ஸூத	-11.746
▁184.	-11.7462
▁போராணக	-11.7466
▁வுத்தஸதி	-11.7466
▁ஞெய்ய	-11.7468
▁172.	-11.747
▁அச்சே	-11.7473
▁ஸாத்தி	-11.7473
▁அமனுஸ்ஸ	-11.7475
▁படிக்கம	-11.7475
▁மனஸிகார	-11.7476
▁பவத்தத்தா	-11.7478
▁ஜாதக	-11.7486
▁ஏகத்தா	-11.7486
▁163.	-11.7488
▁178.	-11.7489
▁மஹாஸுத	-11.7493
▁அனுத்தர	-11.7494
ரகஸ்ஸ	-11.7495
▁துல்ய	-11.7495
▁அரஹதீதி	-11.7498
▁175.	-11.7499
▁164.	-11.7499
ஸங்கிலேஸ	-11.7499
ஸிதத்தா	-11.75
▁ஸரங்	-11.75
பெஸ்ஸாமீ	-11.7501
▁விஞ்ஞாபேதி	-11.7504
▁ஸல	-11.7506
அஞ்ஞ	-11.7509
▁யாவகாலிக	-11.751
பஞ்ஞாஸ	-11.7511
▁நிரந்தர	-11.7511
ல்லோ	-11.7512
▁வஜிர	-11.7522
ஜீவித	-11.7523
▁ஆயா	-11.7525
▁பதிதங்	-11.7532
ஞாணே	-11.7533
▁லோபே	-11.7538
சிதங்	-11.7538
▁அயஞ்ஹ	-11.7539
▁பணாம	-11.7539
▁வத்	-11.7539
▁நிஸ்ஸந்த	-11.754
▁வரே	-11.754
▁அப்பேவ	-11.7541
▁கரே	-11.7545
நேதங்	-11.7548
▁அஸக்கொந்தா	-11.7548
ஸேஸே	-11.7552
▁ஹான	-11.7554
ஸாவிகா	-11.7555
▁விப்பஸன்னேன	-11.7556
▁இஸ்ஸரியங்	-11.7556
ம்மதாய	-11.7558
▁190.	-11.7561
▁படிஸ்ஸுத்வா	-11.7561
▁படிவிரதா	-11.7563
ஸனாபரியோஸானே	-11.7563
ஸால	-11.7564
▁168.	-11.7567
▁விசரதி	-11.7571
▁ஸீஹஸ்ஸ	-11.7572
▁பியரூபங்	-11.7575
▁பராஜயோ	-11.7576
னஸுக	-11.7578
த்தது	-11.758
▁விரஜ்ஜதி	-11.758
▁ஸிக	-11.7582
▁ரஜ்ஜே	-11.7584
▁ஸொப்	-11.7585
லிகாய	-11.7586
ஹணேனேவ	-11.7587
▁அப்பேகச்ச	-11.7589
▁பரமத்தோ	-11.7591
▁ஸம்பி	-11.7592
▁யத்தகங்	-11.7595
▁ஸச்சவா	-11.7601
பரிகம்ம	-11.7602
▁பல்லங்க	-11.7603
ரீயதி	-11.7604
வீரியங்	-11.7606
ஜ்ஜெய்ய	-11.7608
ம்மஸ்ஸவன	-11.7609
ஸேனாஸன	-11.7614
▁சதுப	-11.7615
விப்பயுத்தா	-11.7618
▁பாதெ	-11.7619
னெய்யோ	-11.7624
▁பஸங்ஸந்தி	-11.7624
▁ஸுமனா	-11.7625
ல்லி	-11.7626
▁ஸுசரித	-11.7629
▁விஞ்ஞாணந்தி	-11.7631
▁பச்சனீயங்	-11.7633
ம்மச	-11.7634
▁அலப்	-11.7634
▁ஸங்வத்ததீ	-11.7634
மனஸிகார	-11.7641
▁மஹாவுத்தி	-11.7641
▁பாஸங்ஸோ	-11.7642
லானுபட்ட	-11.7642
பாராஜிக	-11.7644
▁விகப்பே	-11.7648
▁கஹாபண	-11.765
யாகு	-11.7651
▁தப்பச்சயா	-11.7653
ரந்தோ	-11.7653
ம்மத்தே	-11.7654
▁பியத	-11.7656
மனஸ்ஸுபாயாஸா	-11.7657
வேமே	-11.7662
மேவா	-11.7662
▁அரஹ	-11.7665
▁ஹரந்தி	-11.7665
▁உப்பஜ்ஜதீ	-11.7665
▁புரிமே	-11.7668
▁மனோகம்மங்	-11.767
▁கடி	-11.7675
▁மஹந்தேன	-11.7675
▁ஆதுர	-11.7677
▁பரிபுண்ணோ	-11.7677
ரஹ்மானோ	-11.7677
▁அந்தரங்	-11.7679
▁பரியேஸ	-11.768
ஸமஞ்ஞா	-11.7683
▁ஸலக்க	-11.7683
▁தஸ்மாதிஹ	-11.7688
▁ஸரஸ	-11.7692
▁171.	-11.7693
▁பஸ்ஸத	-11.7697
▁நஆஸேவனபச்சயா	-11.7697
▁நிரனுஸயா	-11.7697
நக	-11.7698
வெத்த	-11.7698
ஸங்ஸட்ட	-11.7699
ஸம்பன்ன	-11.7701
▁பிளந்த	-11.7703
மர	-11.7703
▁ஜீவிகங்	-11.7704
ம்மத்தா	-11.7708
வனதோ	-11.7708
▁183.	-11.7708
▁பரிவாரிதோ	-11.7717
ேதங்	-11.7719
வெஸ்ஸன	-11.772
யூப	-11.7721
மகத	-11.7722
▁பஜஹந்தோ	-11.7723
▁ஜேதவனங்	-11.7724
ஹுபா	-11.7726
▁பரதா	-11.7726
▁அப்பகா	-11.7727
▁1-6	-11.7727
▁கண்ஹா	-11.7727
▁விஜான	-11.7728
ஸ்ஸரே	-11.7729
▁குமாரா	-11.7731
ஹரித்வா	-11.7732
பச்சேகபு	-11.7735
லிகே	-11.7737
▁ஹோதூதி	-11.7738
▁கலஹங்	-11.7741
ரஸம	-11.7742
ரஹ்மவிஹார	-11.7746
▁அபச்சங்	-11.775
மசித்தங்	-11.7751
ஞ்ஞம்பி	-11.7752
ஜ்ஜிதா	-11.7752
ஜேதுங்	-11.7754
இச்சேவ	-11.7757
மேவேதங்	-11.7758
ஸரணோ	-11.7761
▁177.	-11.7762
விது	-11.7764
ரணதா	-11.7766
▁தாரகா	-11.7766
▁அஸம்பி	-11.7766
▁மனஸிகரொந்தோ	-11.7767
▁அஞ்ஞாதிகாய	-11.7769
▁பசித்வா	-11.777
▁அபரிக்	-11.7771
▁அவித்	-11.7771
ஞ்சாவுஸோ	-11.7773
▁ஸீலா	-11.7775
▁பாருபித்வா	-11.7775
▁அதீதமத்	-11.7775
அரஹ	-11.7777
▁சிந்தய	-11.7778
பரிவுதோ	-11.7779
▁உஞ்ச	-11.778
▁ஸ்வாக்	-11.7782
▁கலந்த	-11.7784
▁விமுத்தா	-11.7785
வலக்க	-11.7786
மேகோ	-11.7786
▁அப்பமாண	-11.7788
னுஸிட்ட	-11.7798
விஜானந	-11.7799
ஹனா	-11.78
வலோகங்	-11.78
▁ஆஸேவன	-11.7803
▁மரணாதி	-11.7805
▁ஸுஜாதோ	-11.7808
▁ஸகுணோ	-11.7826
▁யம்ஹி	-11.7826
▁காமாதி	-11.7828
வாஸா	-11.7829
▁ஜனி	-11.7829
▁அஸார	-11.7829
ஸ்ஸனாதி	-11.7832
▁பஞ்ஞத்த	-11.7834
னிமித்தே	-11.7835
▁ஸக்குணெய்ய	-11.7836
▁நிமந்தெத்வா	-11.7837
▁அரூபஸஞ்ஞீ	-11.7838
▁ரூபாரம்மணங்	-11.7839
ஏஸோ	-11.784
▁விதக்கங்	-11.7841
வண்ணேன	-11.7844
▁பியரூபா	-11.7845
▁ஸுப்படிவி	-11.7849
▁ஸொண்ண	-11.7849
▁ஏகந்தி	-11.785
யேஸங்	-11.7856
▁மஞ்ஞி	-11.7857
ஸபூ	-11.7861
▁வுச்சமானா	-11.7862
▁பாபானி	-11.7862
▁ரூபஸஞ்ஞா	-11.7865
▁பதித	-11.7865
▁யோனிஸோமனஸிகார	-11.7868
▁குஸலேஹி	-11.787
▁எத்தகமேவ	-11.7873
▁அனுபஸம்பன்னே	-11.7874
லமேவ	-11.7876
▁வதாயங்	-11.7877
கரணோ	-11.7882
▁உபபன்னா	-11.7883
விதக்கவிசாரமத்தா	-11.789
▁ஸந்ததி	-11.7899
▁180.	-11.7902
▁அந்தராயோ	-11.7904
த்தப்ப	-11.7906
▁அத்தாதி	-11.7907
▁ஸப்படிப	-11.7907
▁ஸத்தரதனஸம்பன்னோ	-11.7908
▁பரிபூரெந்தி	-11.7908
வாரகொட்ட	-11.7909
னுப்	-11.791
▁அரஹத்தா	-11.791
▁வீரோ	-11.791
▁8	-11.7911
▁விஜானந	-11.7912
▁28	-11.7912
னிஸீத	-11.7913
▁ரஸ்ஸத்தங்	-11.7915
▁ஸத்தவித	-11.7919
யாபார	-11.7923
▁நிமந்திதோ	-11.7923
புரேஜாத	-11.7923
▁விவரி	-11.7924
▁காது	-11.7925
பரித்த	-11.7926
▁ஜலிதா	-11.7928
▁சித்தக	-11.793
யிதா	-11.793
▁ஸமேன	-11.7931
வினயே	-11.7933
▁உம்மத்திகாய	-11.7933
▁ஏவமத்த	-11.7934
▁இதரதா	-11.7935
ஜேஹி	-11.7936
புரக்க	-11.7937
▁பரிவேணங்	-11.7937
பதிங்	-11.7942
ஸுத்தவண்ணனாய	-11.795
▁கரிஸ்ஸந்தி	-11.7951
ப்பவத்த	-11.7954
ெய்யாஸி	-11.7954
▁விஜ்ஜாசரணஸம்ப	-11.7955
▁அனவ	-11.7958
தலக்க	-11.7959
▁ஸுண	-11.7965
▁ஏவரூபஸ்ஸ	-11.7968
▁விதே	-11.7968
விமுத்த	-11.7971
னபச்சயேன	-11.7972
▁ஆவஜ்ஜ	-11.7973
▁தேயேவ	-11.7973
▁அஜானந்தஸ்ஸ	-11.7975
▁படிஸ	-11.7976
வஜ்ஜிதா	-11.7977
▁மஹேஸீ	-11.7977
▁சரியா	-11.7981
அந்தோ	-11.7984
▁சேத	-11.7984
▁புஞ்ஞகிரியவத்த	-11.7984
▁நபுங்ஸக	-11.7986
▁பச்செஸ்ஸ	-11.7987
தெய்ய	-11.7989
கரணானங்	-11.799
▁ஆயதனேஹி	-11.7992
▁இஸ்ஸரா	-11.7993
▁உளாரா	-11.7997
▁ஸாமணேரஸ்ஸ	-11.7997
▁வாளமிக	-11.7998
▁ஸிம்ஹி	-11.8
லிதோ	-11.8005
▁மஹாஸ	-11.8005
▁ஸிந்த	-11.8005
▁பவாரேத	-11.8007
▁ஜஹந்தி	-11.8009
கிண்ணங்	-11.801
▁193.	-11.8011
ஹனே	-11.8013
▁பரம்பர	-11.8015
த்ததாய	-11.8017
▁அன்ன	-11.8019
ராஜானங்	-11.8019
முங்	-11.802
வதாஹி	-11.8021
▁சதுஸச்சத	-11.8022
▁குமாரங்	-11.8024
▁ஹஸ	-11.8024
▁மஹாகஸ்ஸபோ	-11.8026
▁182.	-11.8026
ஸங்கப்ப	-11.8032
மனகாலே	-11.8033
மஸூரியா	-11.8033
ணத	-11.8035
▁அவஸ்ஸ	-11.8039
▁பரிபக்க	-11.804
▁நுத்த	-11.8044
▁உஸ்ஸாஹ	-11.8044
பரமத்த	-11.8046
மானஸங்	-11.8047
▁நவிபாகபச்சயா	-11.8047
னிஸ்ஸித	-11.8047
▁அஸ்ஸாஸபஸ்ஸாஸா	-11.8048
▁பச்சயபூ	-11.8049
ுபோஸத	-11.8049
▁பக்கோ	-11.8051
யமத்தோ	-11.8054
▁விஸ்ஸுதோ	-11.8055
ஸீஹோ	-11.8058
யந்தே	-11.8059
▁பரினிட்ட	-11.806
▁விஸ்ஸஜ்ஜேதி	-11.8061
▁லஹுங்	-11.8063
வனாப	-11.8069
▁வஸ்ஸஸஹஸ்ஸானி	-11.8069
▁அஞ்ஜன	-11.8075
விப்பயுத்தஸ்ஸ	-11.8082
▁படிக்கூல	-11.8082
▁கோஸலோ	-11.8082
▁நீவரணவிப்பயுத்த	-11.8083
ஸஹஸ்ஸானங்	-11.8083
▁விஸ்ஸஜ்ஜன	-11.8087
ரிச்ச	-11.8089
பஹீனோ	-11.809
▁விபல்லாஸ	-11.8092
மகங்ஸு	-11.8094
▁அஸ்ஸாஸபஸ்ஸாஸே	-11.81
▁திகிச்ச	-11.8102
▁கர	-11.8102
ரத்தி	-11.8104
▁185.	-11.8108
ராஜானோ	-11.8108
▁ஸங்விஜ்ஜதி	-11.8112
யுகா	-11.8112
▁ரத்தியோ	-11.8112
▁191.	-11.8113
▁ஸீமாய	-11.8115
▁நிமித்தக்	-11.8115
▁நிஸே	-11.8121
ந்தஸ்ஸேவ	-11.8121
யதனபச்சயா	-11.8121
▁லோண	-11.8122
ரியாய	-11.8122
கிச்சானி	-11.8122
▁சரிதப்	-11.8125
▁ஸேகி	-11.8126
▁கரோஸி	-11.8126
▁மனு	-11.8128
▁ஸங்ஸய	-11.8132
ப்பேத	-11.8133
ரூஹ	-11.8134
▁அனுபொ	-11.8134
▁விரோத	-11.8135
ஜப்ப	-11.8135
▁அரஹதங்	-11.8138
▁ரித்த	-11.8139
விஸத	-11.814
▁அரண	-11.8144
ரச்ச	-11.8146
னவஞ்ச	-11.8147
▁அப்பதிட்ட	-11.8148
▁ஜால	-11.815
▁நிரனுஸயோதி	-11.8153
ரயி	-11.8154
▁சதுரஸ்ஸ	-11.8157
ஸ்ஸீல	-11.816
ஸீஹ	-11.8162
ாயதனா	-11.8163
உபாஸக	-11.8165
▁கிச்சா	-11.8166
▁அரக்க	-11.817
ஸதஸஹஸ்ஸி	-11.817
▁பாடிஹாரியங்	-11.817
▁யேனாதி	-11.817
▁ஸசித்தக	-11.817
▁விஸா	-11.8172
▁நப்ப	-11.8172
▁நவுதி	-11.8174
▁ஆஸீஸ	-11.8183
காரகங்	-11.8185
▁தஸ்மிஞ்ச	-11.8185
ஸகே	-11.8186
▁ஆக்	-11.8187
வோஹாரேன	-11.819
ஸ்ஸந்தகரோ	-11.8191
▁189.	-11.8191
▁காயிக	-11.8191
ச்சுப்பன்னாரம்மண	-11.8192
விஹாரா	-11.8192
▁சூளப	-11.8192
▁அனத்தமனோ	-11.8193
▁அனவகாஸோ	-11.8194
▁பரலோக	-11.8194
வீகஸிணங்	-11.8195
▁காயஸக்க	-11.8197
▁ஸுவிப	-11.8199
மரணங்	-11.8199
▁ஸ்னேஹ	-11.8203
▁பாரமீ	-11.8206
▁தேனாவுஸோ	-11.8206
▁பரிஹரதி	-11.8207
▁அசிர	-11.8209
▁ஜம்	-11.8211
▁சித்தஸம்பயுத்த	-11.8212
▁மஹாபஞ்ஞோ	-11.8213
ப்படிக்	-11.8222
ணியா	-11.8224
ணாஸவானங்	-11.8225
ணவா	-11.8227
வாச	-11.8227
▁ஸாரம்மணோ	-11.8229
▁இதர	-11.8229
▁பாமோஜ்ஜ	-11.8231
சூள	-11.8233
▁அனாபத்தீ	-11.8233
ஞ்சேதங்	-11.8233
பஞ்ஹா	-11.8234
ஹிகாய	-11.8237
அது	-11.8237
ஞ்ஞானங்	-11.8238
▁அனோதி	-11.8241
▁கீள	-11.8243
▁அகப்பியங்	-11.8247
ன்னபா	-11.8249
▁நிருத்திபடி	-11.8253
▁196.	-11.8254
▁படிலோம	-11.8256
▁நிபகோ	-11.826
யட்டே	-11.8261
▁வினாஸங்	-11.8262
▁யாயங்	-11.8263
▁அஞ்ஞாதாவீ	-11.8263
படிஸேத	-11.8264
சதூஹி	-11.8265
ஜனேன	-11.8265
ஸஸஹஸ்ஸீ	-11.8266
துஞ்ச	-11.8273
யம்ஹி	-11.8274
லிகோ	-11.8274
▁நஹேதுபச்சயோ	-11.8276
ஸிதாதி	-11.8277
▁மனோரத	-11.8277
▁உம்ம	-11.8278
காஸங்	-11.8278
▁ஜானிதுங்	-11.8279
▁நிகந்தி	-11.828
▁ஸுணந்தோ	-11.8281
ணத்த	-11.8281
டிகா	-11.8282
ஸமண	-11.8282
தகு	-11.8282
மப்ப	-11.8283
▁ஸிகீ	-11.8284
▁ஜானதா	-11.8285
ஹேஸுங்	-11.829
▁ஸுபி	-11.8292
▁நானுப	-11.8292
ள்ஹா	-11.8293
ஸந்தே	-11.8294
▁பரிச்ச	-11.8294
ஜிதே	-11.8295
▁விரா	-11.8296
▁அமர	-11.8297
கிலேஸே	-11.8298
ஸனதோ	-11.8299
ஸெந்தஸ்ஸ	-11.83
ரியஸங்வர	-11.8301
வயவ	-11.8302
▁ஹதா	-11.8304
▁பரிக	-11.8307
ப்பாயா	-11.8307
காலேபி	-11.8308
▁அப்பத்வா	-11.831
▁புரிமோ	-11.8311
▁186.	-11.8312
▁ஜனதா	-11.8313
▁நாமரூபஸ்ஸ	-11.8314
▁அலஜ்ஜீ	-11.8315
▁பதிரூபங்	-11.8317
▁நாஞ்ஞ	-11.8318
▁ஸாமஞ்ஞங்	-11.832
ய்யாஸி	-11.8326
▁ஆகாரா	-11.833
விரஹிதங்	-11.8331
மதங்	-11.8332
▁ஸஸ்ஸமண	-11.8336
▁காயவிஞ்ஞத்தி	-11.8336
▁கானிசி	-11.8337
▁ஆஸப	-11.8338
▁பாணினா	-11.834
▁உபபத்திப	-11.834
அம்போ	-11.8342
▁மஹேஸக்க	-11.8343
▁கரிஸ்ஸாம	-11.8343
▁ஏகேகஸ்ஸ	-11.8345
ரித்த	-11.8348
ந்துகாமோ	-11.835
▁வேலாயங்	-11.835
▁ஸங்யம	-11.8353
▁விஜ்ஜு	-11.8354
னியம	-11.8355
▁ஸந்தீ	-11.8356
யந்து	-11.8357
▁பஜாபதி	-11.8357
▁அஸமோ	-11.8359
▁தாவதிங்ஸா	-11.836
▁ஸாஸப	-11.8361
மஸ	-11.8364
▁விஸத்திகா	-11.8365
▁அரியாய	-11.8366
லட்ட	-11.8369
▁ஆரோசேதி	-11.837
த்தேஹி	-11.8373
▁புஞ்ஞகம்மேன	-11.8374
▁கம்மாதி	-11.8375
ஸதஸஹஸ்ஸ	-11.8377
▁பஸ்ஸிதுங்	-11.8378
▁விமுத்த	-11.8378
▁அகாலே	-11.8379
▁வஜ்ஜி	-11.8379
▁யுவ	-11.8379
ஸமானா	-11.8381
▁வய	-11.8382
ரக்கா	-11.8384
▁மோர	-11.8385
வண்ணனாயங்	-11.8386
தும்ஹாகங்	-11.8388
▁192.	-11.839
▁அமதோ	-11.8392
விஜ	-11.8399
ரஹ்மப	-11.84
ஜனபத	-11.8401
▁விஸேஸே	-11.8408
▁பஸத்த	-11.8408
▁பனேதே	-11.8408
னிமித்தா	-11.8408
▁கலி	-11.8409
▁பாகடமேவ	-11.8409
▁அனாவாஸோ	-11.841
▁ரோச	-11.841
வியோ	-11.8412
▁ஸாதரூபங்	-11.8416
▁உதே	-11.8416
பதெய்ய	-11.8417
அஜ்ஜா	-11.8418
▁ஸஹாயோ	-11.842
▁ஆராதே	-11.8421
ஸாமத்தி	-11.8422
டகங்	-11.8426
▁வியா	-11.8427
▁அவீசி	-11.8427
▁அன்னபான	-11.8428
▁அனுபத	-11.8429
▁பயிருபாஸி	-11.8432
▁ஸீலஞ்ச	-11.8435
▁ஸந்தீதி	-11.8438
▁வினாபி	-11.8438
▁மூலாய	-11.844
ஹபதிகா	-11.8446
பாடிஹாரிய	-11.845
▁ஸக்கங்	-11.8451
ஜோதி	-11.8453
▁தஞ்ஞேவ	-11.8454
சோர	-11.8454
ளு	-11.8455
ப்பகாரேன	-11.8456
▁ஸமனந்தர	-11.8456
▁பரிதோ	-11.8457
▁நிம்ம	-11.8458
பச்சயஸ்ஸ	-11.846
▁ஸக்காதி	-11.8467
▁தாவதிங்ஸப	-11.8468
ஞ்ஹேதங்	-11.8468
ஸாரங்	-11.8468
▁195.	-11.8469
▁உம்மாத	-11.8471
▁பரிஞ்ஞ	-11.8472
ம்பேதங்	-11.8472
படிஸங்யுத்தா	-11.8477
▁அரி	-11.8477
▁உபனிஸ்ஸயோ	-11.8477
வேஸி	-11.8478
ஆசரிய	-11.8478
▁மரணத	-11.8478
▁நோசித்தஸஹப	-11.8481
▁கதபுஞ்ஞ	-11.8482
பரமா	-11.8482
▁ஸுவண்ணங்	-11.8484
மஸத்	-11.8485
▁நிரூப	-11.8486
அட்	-11.8486
தியகா	-11.8487
ரஹித	-11.8489
▁ரூபகாய	-11.8492
▁ஸாரிபுத்தங்	-11.8495
பிதுங்	-11.8495
படிபத்தியா	-11.8496
▁திகி	-11.8496
மந்தே	-11.8497
▁நீஹரி	-11.8498
▁தண்ஹாபச்சயா	-11.8499
▁யாபேதி	-11.85
கொட்ட	-11.8501
▁ககுஸந்த	-11.8503
காயக	-11.8504
▁விஜ்ஜமானே	-11.8507
வுத	-11.8508
▁ஆஸவேஹி	-11.8508
யந்தேன	-11.851
▁அனேகவித	-11.8513
10	-11.8513
▁ஸோவண்ண	-11.8515
கிண்ண	-11.8517
▁பஸ்ஸாமீ	-11.8522
▁205.	-11.8523
லினோ	-11.8523
▁215.	-11.8524
▁கரிஸ்ஸாமா	-11.8526
▁உபக்கமதி	-11.8529
ணெய்யோ	-11.8531
வரே	-11.8532
வஸார	-11.8533
▁உபமங்	-11.8534
அனாத	-11.8535
▁187.	-11.8535
மரியாத	-11.8535
▁விவட	-11.8535
தஸ்ஸாபி	-11.8537
வஸாத	-11.8537
▁பாபுணித்வா	-11.8538
▁பவாரண	-11.854
▁உஸ்ஸன்ன	-11.854
▁தங்ஸமுட்ட	-11.854
னியஞ்ச	-11.8541
ஸல்ல	-11.8541
மனீயங்	-11.8544
▁ரஜனீயா	-11.8545
▁நிரயா	-11.8546
▁207.	-11.8547
ணம	-11.8547
▁பஜானாதீதி	-11.8548
சக்கா	-11.8548
▁அஸந்தங்	-11.8553
▁ஜாதோதி	-11.8556
▁புஞ்ஞகம்ம	-11.8556
▁நேஸோஹமஸ்மி	-11.8558
▁ஆனாபான	-11.8558
▁188.	-11.8559
▁ஆஹிண்ட	-11.8561
வஸ்ஸானி	-11.8562
ஸ்ம	-11.8562
ம்மரக்க	-11.8565
உபாதி	-11.8567
▁உபக்கம	-11.8568
▁உபஸங்ஹரதி	-11.8569
ணெய்யா	-11.8569
▁வுத்தோயேவ	-11.857
மஹோ	-11.857
படிப்பஸ்ஸ	-11.8571
▁பரிபுண்ணா	-11.8575
▁அஞ்ஞதோ	-11.8575
னமத்த	-11.8576
▁அவஸானே	-11.8578
▁விஸ்ஸஜ்ஜ	-11.8578
வேஸந்தோ	-11.8579
▁கப்பேஸி	-11.8579
▁பச்சேகபோ	-11.8582
▁ஸோதவிஞ்ஞாண	-11.8584
▁விதக்கஞ்ச	-11.8584
மஸுத்தவண்ணனா	-11.8585
▁211.	-11.8586
▁அஜானந	-11.8586
▁ஸலாகப	-11.8592
ஹுதரங்	-11.8594
▁197.	-11.8595
▁பாபகம்ம	-11.8597
▁220.	-11.8598
▁அனிக்க	-11.8598
▁மஹேஸி	-11.86
▁ஜஹதீதி	-11.8602
▁விஞ்ஞாதங்	-11.8603
ஸகதா	-11.8606
மாயா	-11.8609
வித்தே	-11.861
▁அஸ்ஸோஸி	-11.861
உப்பாத	-11.861
மாரோ	-11.8616
▁விமுச்சி	-11.8621
ஸமாபன்னான	-11.8622
▁படிஸல்லானா	-11.8625
▁மல்ல	-11.8632
▁வுச்சந்தே	-11.8633
▁சாகா	-11.8633
▁விவேகஜங்	-11.8634
த்தரி	-11.8636
▁ஸம்பஸ்ஸமானோ	-11.8637
▁ஸசித்தகங்	-11.8641
▁அஸ்ஸுதவா	-11.8642
கூல	-11.8642
விரஹிதா	-11.8644
▁ரூபேஸு	-11.8644
▁விஞ்ஞெய்யா	-11.8645
▁ராஜி	-11.8646
வட்டே	-11.865
▁பாரமிங்	-11.8653
▁ஜாதஸ்ஸ	-11.8654
▁மஞ்ஞெய்ய	-11.8656
▁முஹுத்தங்	-11.8659
▁ஹோதியேவ	-11.866
தகதி	-11.8662
னாமகா	-11.8664
▁அனியத	-11.8666
▁ஸ்யாத்	-11.8666
▁உபனிக்க	-11.8666
▁வூபஸம்மதி	-11.867
கல்யாணங்	-11.867
▁நிஸா	-11.8671
▁வுத்தேன	-11.8671
துகாமதா	-11.8672
▁பாபஸ்ஸ	-11.8674
▁பஹீனோதி	-11.8675
▁26	-11.8676
மிதா	-11.8677
ஹவோ	-11.8677
கதாய	-11.8678
பரம	-11.8679
▁அஹோஸிந்தி	-11.868
▁யஞ்ஞங்	-11.8681
ஹிதுங்	-11.8682
▁மனுஸ்ஸேஹி	-11.8686
ஸங்யுத்தே	-11.8689
ஸூகர	-11.8691
▁194.	-11.8691
▁ஸஹாயங்	-11.8692
தேனேவ	-11.8693
ஞாணானி	-11.8694
யேனேவ	-11.8695
▁ஆபஜ்ஜந்தி	-11.8696
▁ஸுபு	-11.8697
ஸம்மதா	-11.8699
வக்கா	-11.87
90	-11.87
▁நீச	-11.8701
▁ஆஸவஸம்பயுத்த	-11.8704
▁ஸாமிகே	-11.8705
காயஸ்ஸ	-11.8706
ஆகார	-11.8707
▁புஞ்ஞப	-11.8707
▁நாளிகேர	-11.871
▁தும்ஹ	-11.871
▁பரிணத	-11.8713
▁வுத்தப்பகார	-11.8713
மித்தா	-11.8713
▁நிஸேத	-11.8715
▁அனுப்பன்னானங்	-11.8715
▁பவரோ	-11.8716
▁ஆனேஞ்ஜ	-11.8717
ஸ்ஸெந்தி	-11.8718
▁உபாயோ	-11.872
▁கடுக	-11.8721
பூஜயிங்	-11.8722
விஞ்ஞெய்யா	-11.8723
ஹேதூதி	-11.8724
த்தீஸு	-11.8725
▁மஞ்சே	-11.8728
ஸரா	-11.8729
▁அய்யோ	-11.8732
னந்து	-11.8733
▁வேரி	-11.8734
▁உபனிப	-11.8736
▁அப்பியோ	-11.8737
▁அரியேன	-11.8738
▁212.	-11.8739
▁தஸ்ஸேவங்	-11.8739
ஸகு	-11.8739
▁தப்படிபக்க	-11.8741
▁நிருப	-11.8742
பாணி	-11.8743
சேதியங்	-11.8747
ம்மானந்தி	-11.8751
ணகா	-11.8752
▁ஏகாவ	-11.8754
ஹேஸு	-11.8754
▁கம்மார	-11.8755
யாகதே	-11.8755
▁ரி	-11.8757
▁213.	-11.8759
மத்தந்தி	-11.8759
ந்தராயோ	-11.876
▁அஸ்ஸாஸ	-11.8764
▁மோஹஞ்ச	-11.8764
▁நிவேத	-11.8766
▁கல்யாணமித்ததா	-11.8767
▁ராம	-11.8772
லவபா	-11.8772
▁பரிவாரே	-11.8773
▁பரிசிதா	-11.8782
காமேஸு	-11.8783
▁ஹேஸ	-11.8783
ஹபதிபுத்த	-11.8784
ஜனானங்	-11.8784
▁ஜவ	-11.8785
▁198.	-11.8786
▁பாணாதிபாதீ	-11.8789
துஸங்க	-11.8791
▁விஞ்ஞாயதீதி	-11.8793
ஸீலாதி	-11.8794
▁வுத்தப்பகாரா	-11.8796
ஸஹிதங்	-11.8799
▁திலோக	-11.8799
▁ஸாவஜ்ஜ	-11.88
▁ஸமூஹோ	-11.8801
▁துலா	-11.8801
ம்ஹஸே	-11.8802
ரஸ்ஸா	-11.8804
▁தசோ	-11.8805
▁ஸேதச்ச	-11.8807
கப்பிய	-11.8811
▁மஹாகோ	-11.8815
▁உபகார	-11.8816
▁புரேஜாதபச்சயா	-11.882
▁மஹல்லக	-11.8822
▁ஸதஸஹஸ்ஸங்	-11.8824
முத்தரஸ்ஸ	-11.8825
▁ஜானாத	-11.8827
ஸஹஸ்ஸேஹி	-11.8828
▁அனுபஸ்ஸதி	-11.8831
மிஸ்ஸஸி	-11.8833
இச்ச	-11.8833
▁ஸமதிக்கமா	-11.8836
ஸாயங்	-11.8837
னீல	-11.8838
வாவீஸதி	-11.8846
வாரேஹி	-11.8846
த்திகே	-11.8846
ருஸ	-11.8847
▁அஜ்ஜேவ	-11.8848
▁ஸீலஸமா	-11.885
மேதந்தி	-11.885
▁ஸ்ஸா	-11.8852
▁அமக்	-11.8856
யபதே	-11.8859
னுபஸ்ஸனாய	-11.8859
▁படிபஸ்ஸ	-11.886
▁நானுஸேதீதி	-11.8862
மனந்தி	-11.8864
ரதங்	-11.8864
ஸஞ்ஞிஸ்ஸ	-11.8866
▁மாபெத்வா	-11.8867
▁ஓதரதி	-11.8867
ஸீஸா	-11.8867
ணந்தோ	-11.8867
▁பஞ்சஹாகாரேஹி	-11.8868
ம்மசக்க	-11.8868
▁நிஸ்ஸித	-11.8868
▁ஹரதி	-11.8869
▁ஆணாபேதி	-11.8872
ம்மப	-11.8877
விவேகோ	-11.8879
▁ஜனேதீதி	-11.888
தங்ஸஞாணஸ்ஸ	-11.8882
▁பரேன	-11.8886
▁ஸூரோ	-11.8889
ஞ்சேதி	-11.8889
▁ருந்த	-11.889
▁விர	-11.8891
▁கப்பதீ	-11.8897
▁202.	-11.89
லப்	-11.8901
▁அக்கோத	-11.8905
பெய்யாதி	-11.8907
பரிவத்த	-11.8908
▁உப்பஜ்ஜன	-11.8909
ஸிலா	-11.8909
▁நியமோ	-11.891
▁கரொந்தே	-11.891
சேதஸோ	-11.8911
ஸங்யுத்த	-11.8911
வாசங்	-11.8914
சரிதா	-11.8914
மஞ்ஞாய	-11.8916
▁ஆயதனானங்	-11.8917
▁ஆஸேவதி	-11.8917
▁பாபிம	-11.892
புஞ்ஜ	-11.8922
▁206.	-11.8922
▁பவத்தித	-11.8926
▁பஞ்சபி	-11.8929
▁அன்னங்	-11.8931
ஜாதபச்சயா	-11.8933
▁ஸாம	-11.8933
▁அம்ஹ	-11.8935
ப்யத்ர	-11.8935
வஸேனாபி	-11.8935
▁தீஹங்	-11.8936
யுத்தே	-11.8939
▁அஸேஸவிராக	-11.894
▁பரிபூரகாரீ	-11.894
▁ததுத்தரி	-11.894
▁200.	-11.8941
▁ஸாரோ	-11.8941
ய்யசித்தேன	-11.8942
▁ஸணிகங்	-11.8944
நிச்ச	-11.8944
▁பஸ்ஸஸிஸ்ஸாமீ	-11.8945
மந்தரே	-11.8945
குஸும	-11.8945
▁பரலோகங்	-11.8946
ஹூஸு	-11.8946
-‘	-11.8947
▁காமூபஸங்ஹிதா	-11.8948
▁புத்தேஹி	-11.8948
விகப்ப	-11.8949
▁வீமங்ஸதி	-11.8949
▁கதமேஸங்	-11.8951
▁பவேதெ	-11.8953
▁ஸமதிக்கம	-11.8954
▁அனூன	-11.8955
விப்பயுத்தசித்த	-11.8956
▁அனிமித்த	-11.8957
▁பாராஜிகோ	-11.8957
▁சேதோபரியஞாணஸ்ஸ	-11.8959
மத்தேனேவ	-11.896
▁வூபஸமே	-11.896
▁அதிரேகா	-11.8962
ஸிஞ்ச	-11.8965
பதிஸ்ஸ	-11.897
ஸம்பன்னஸ்ஸ	-11.897
மாபஜ்ஜ	-11.8971
▁கயவிக்கய	-11.8974
▁நெத்தா	-11.8974
▁ஸவிசாரங்	-11.8977
▁விகால	-11.8979
ாயஸ்மா	-11.898
▁ஏகத்தங்	-11.898
ஹாமி	-11.8982
▁மேஸோ	-11.8985
ஆபத்தி	-11.8986
▁அனஞ்ஞதா	-11.8986
▁ரதனத்தய	-11.8987
ஸங்ஸார	-11.8991
ன்னப	-11.8997
ஸேனாஸனங்	-11.9
உபமா	-11.9001
படிஸங்யுத்த	-11.9001
மந்தஸ்ஸ	-11.9004
▁மஹாஸத்	-11.9006
▁வேமஜ்ஜ	-11.9006
ஜிஸ்ஸ	-11.9008
▁சித்தானங்	-11.9008
▁ஸன்னிட்ட	-11.9009
▁வுத்தப்பகாரேன	-11.9009
ஸங்யுத்தவண்ணனா	-11.901
பஞ்சிமானி	-11.9011
▁ஏகந்தஸுக	-11.9015
▁அபண்ணக	-11.9018
ஸினித்	-11.9019
னேனேவ	-11.9021
▁மஹாபச்சரியங்	-11.9022
▁ஜிவ்ஹாஸம்ப	-11.9024
▁ஸன்னிபதந்தி	-11.9027
▁ஸுராபான	-11.9029
▁படிஸங்க	-11.9031
▁போரிஸாத	-11.9035
▁உபனந்த	-11.9036
▁ஸோதாபன்னஸ்ஸ	-11.9037
வயஸ்ஸ	-11.9037
▁பரியாபன்னா	-11.9038
ஞ்ஞாஸி	-11.9042
▁அனமத	-11.9046
வஸ்ஸோ	-11.9046
▁ஸோதேன	-11.9046
▁ருசியா	-11.9048
▁தும்ஹா	-11.9051
ஹுனோ	-11.9052
▁நிஸஜ்ஜங்	-11.9058
ஆபத்திங்	-11.9058
▁பல்லங்கேன	-11.9059
▁விஞ்ஞு	-11.906
ஸந்தங்	-11.906
▁237.	-11.9061
5-6.	-11.9065
க்வசி	-11.9066
▁அஸம	-11.9066
▁வூபஸமோ	-11.907
த்வாபி	-11.907
▁ஸிஸ்ஸோ	-11.9071
▁ணி	-11.9071
▁222.	-11.9072
னாமகோ	-11.9075
▁ஸுத்தபத	-11.9075
வலி	-11.9075
▁209.	-11.9075
▁201.	-11.9079
▁ஸேகா	-11.9082
சரி	-11.9082
▁பத்தசீவர	-11.9084
ஸவே	-11.9087
வமனுஸ்ஸாய	-11.9087
▁ஹங்ஸா	-11.9088
இரியாபத	-11.9089
▁பவத்தமானா	-11.9089
▁சுரா	-11.9091
னியே	-11.9092
ானந்தரங்	-11.9094
▁வண்ணதோ	-11.9094
▁228.	-11.9098
குக்குச்ச	-11.9098
▁அனுலோமபு	-11.9098
ஸரீரோ	-11.91
சரிதோ	-11.9102
▁அனநுஞ்ஞாத	-11.9104
▁நிஸ்ஸயங்	-11.9104
▁வஸிதப்	-11.9109
▁ஸரத	-11.911
னபடிஸ	-11.9111
▁பகாஸேதி	-11.9111
ண்ஹிஸ்ஸாமீ	-11.9112
▁ஹிங்ஸா	-11.9113
▁நாகே	-11.9115
▁குமாரே	-11.9115
மனாய	-11.9115
▁ஸோதஸம்ப	-11.9117
ரஜங்	-11.912
ராவ	-11.9124
▁அஸோக	-11.9127
▁கிரா	-11.9128
ரிது	-11.9131
ெந்தேன	-11.9132
பமாண	-11.9133
வாஸினீ	-11.9134
▁208.	-11.9136
பலாஸ	-11.9137
ததாய	-11.9137
ஜஸ்ஸ	-11.9137
ஸங்வரோ	-11.9138
படிஸங்யுத்தோ	-11.9142
▁219.	-11.9142
▁வேக	-11.9142
▁பரியோன	-11.9143
▁கலல	-11.9143
▁நிவேஸனே	-11.9144
▁216.	-11.9144
▁199.	-11.9145
ரஹிதே	-11.9147
▁ஆயுப்பமாணங்	-11.9149
▁ஸுனக்க	-11.9149
னம்ஹி	-11.9149
▁வஜ்ஜே	-11.915
▁பண்ணத்திவஜ்ஜங்	-11.9151
▁203.	-11.9151
▁விஸேஸி	-11.9154
▁படிஸங்வ	-11.9155
னட்டோ	-11.9155
மானாதி	-11.9157
▁அந்தராயே	-11.9159
▁வாதேன	-11.9162
▁கம்பதி	-11.9163
▁234.	-11.9165
▁ஸகுணா	-11.9166
ஏகா	-11.9167
ஜாதஸ்ஸ	-11.9167
▁மாதுயா	-11.9173
▁210.	-11.9177
▁முத	-11.9178
▁ஸீஹா	-11.9178
▁விமுத்திங்	-11.9178
▁ஜஹாதி	-11.9183
▁தேஸஞ்ஞேவ	-11.9184
▁மஹிச்ச	-11.9186
▁வசஸா	-11.9187
வகங்	-11.9188
▁அவிஜ்ஜாஸவோ	-11.9189
அம்ப	-11.9191
▁ஞாதகே	-11.9193
▁நியோஜ	-11.9194
▁ஸங்வட்ட	-11.9197
மாதே	-11.9197
▁அஹஞ்ஹி	-11.9197
▁ஜச்சந்த	-11.9198
▁அஸ்ஸஜி	-11.9199
▁ஸுத்தனிபாத	-11.9199
ஸாவகே	-11.9201
▁விஸேஸாதி	-11.9201
▁அனாரம்மணங்	-11.9201
▁பீதிங்	-11.9202
▁அனிச்சஸஞ்ஞா	-11.9203
▁ஸுல	-11.9203
ஹாகாரேஹி	-11.9203
▁அஸக்குணெய்ய	-11.9204
ளிகா	-11.9204
▁ஸங்கிலேஸோ	-11.9206
குட்ட	-11.9207
ராபெத்வா	-11.9207
ஹட	-11.9207
▁ஸங்ஸீத	-11.9207
▁ஸுமுக	-11.9207
▁அலத்த	-11.9208
▁மாணவா	-11.921
▁ஸுபினங்	-11.9213
▁அப்பச்சய	-11.9215
ஸ்ஸாதீ	-11.9219
▁சீவரஸ்ஸ	-11.922
▁விஞ்ஞூஹி	-11.9221
கரணதோ	-11.9222
ஸீலேன	-11.9222
▁கீளந்தி	-11.9223
த்தாயாதி	-11.9226
▁ஜடில	-11.9226
ஸரீரங்	-11.9226
வங்கி	-11.9227
▁சீவராதி	-11.9227
▁லீன	-11.9228
நிமித்த	-11.9229
▁வீமங்ஸா	-11.923
▁218.	-11.923
▁அந்தராப	-11.9231
ருண	-11.9233
▁நோனீவரண	-11.9238
▁கம்மவாசா	-11.9239
▁ஸாரா	-11.9239
▁233.	-11.9248
▁அஞ்ஞமஞ்ஞபச்சயா	-11.9251
▁அப்பஹீனோதி	-11.9253
▁பாசித்தியந்தி	-11.9254
▁பரிஸோ	-11.9254
▁ஜனானங்	-11.9255
▁மஹாது	-11.9256
▁பஸன்னமானஸோ	-11.9256
▁பஹாதுங்	-11.9256
▁நிகாமலாப	-11.9257
▁241.	-11.9257
▁221.	-11.9257
▁பாரங்க	-11.9261
▁விசாரஸ்ஸ	-11.9262
ஸிங்ஸு	-11.9262
▁வயப்பத்தோ	-11.9264
ஸாலங்	-11.9265
▁அஸ்மீதி	-11.9265
▁விவித்த	-11.9266
னயங்	-11.9267
▁232.	-11.9268
ரியபச்சயா	-11.9268
ப்பஹானாய	-11.9269
▁கரிங்ஸு	-11.9269
▁சதுவோகாரா	-11.9272
ம்மமஞ்ஞாய	-11.9272
▁ருஹதி	-11.9273
▁125	-11.9277
▁மானுஸே	-11.9277
ரணியா	-11.9278
▁நிவத்தித்வா	-11.9278
▁கிலமதி	-11.9278
▁அச்சந்தங்	-11.9279
▁214.	-11.928
▁ஸகலஸரீர	-11.9286
வனிப்	-11.9286
வதியா	-11.9288
னயோனி	-11.9291
ப்படிப	-11.9292
▁பவிஸந்தி	-11.9295
பரிவார	-11.9295
பரிளாஹ	-11.9296
ம்மவேத	-11.9296
▁ஞாதங்	-11.9296
பெந்தீ	-11.9297
ஸ்ஸரா	-11.9299
▁வுத்தேஹி	-11.93
▁சித்தஸம்பயுத்தோ	-11.9301
▁ஸமாஹிதே	-11.9303
▁லுப்	-11.9304
▁அனேனா	-11.9306
▁பாரி	-11.9307
லேதி	-11.9307
▁தேமாஸங்	-11.9307
▁விஜம்ப	-11.931
உபனிஸ்ஸய	-11.9311
ஸம்பாத	-11.9311
▁204.	-11.9312
▁படிஞ்ஞாய	-11.9314
பயந்தி	-11.9315
▁ஸாபெக்க	-11.9316
▁விஹாய	-11.9317
பூஜா	-11.9317
வங்கதா	-11.9319
ஹேதுகே	-11.9321
▁பஞ்ஹஸ்ஸ	-11.9324
மேது	-11.9324
▁நிஸ்ஸட்ட	-11.9325
▁243.	-11.9326
▁ஜஹதி	-11.9327
பரே	-11.9328
▁பயிருபாஸ	-11.933
னயே	-11.9332
▁பகாரேஹி	-11.9332
▁ஸேகோ	-11.9334
▁பரிகப்ப	-11.9334
ஜனந்தி	-11.9336
▁பவத்திதோ	-11.9336
▁பப்போதி	-11.9336
▁சேதோஸமத	-11.9337
▁இமம்ஹா	-11.9338
▁ஜானாதீ	-11.9338
▁236.	-11.9338
▁ஆணாபேஸி	-11.9339
▁223.	-11.9348
▁பச்சுப்பன்னோ	-11.935
துஸம்ப	-11.9351
தரட்ட	-11.9352
▁முஞ்சி	-11.9353
▁ரத்தா	-11.9354
த்துஞ்ச	-11.9356
ஸேவனா	-11.9357
▁ஸம்மதா	-11.9357
▁திஸ்ஸன்னங்	-11.9357
▁ஆஸஜ்ஜ	-11.9358
ம்மனி	-11.936
▁ஞாணே	-11.9361
▁பராமஸ	-11.9363
ஜனீயே	-11.9366
விமுத்தா	-11.9368
குலதூ	-11.9371
ச்சேவ	-11.9371
▁அதிக்கந்தா	-11.9372
▁புண்ணோ	-11.9373
த்தர	-11.9374
இதிபி	-11.9375
▁குதோசி	-11.9376
▁ஹேதுபச்சய	-11.9377
மந்தர	-11.9377
▁127	-11.9378
▁பாரிவாஸிக	-11.9379
▁ரமதி	-11.938
னிஸ்ஸரண	-11.938
▁அலஜ்ஜி	-11.9381
▁மூள்ஹோ	-11.9384
▁நிஸ்ஸஜ்ஜித	-11.9387
▁பனித	-11.9387
▁அவிப்படிஸார	-11.9389
▁ஸுபூ	-11.9392
கோடியோ	-11.9397
▁ஜராமரணஸ்ஸ	-11.9397
▁பலாயி	-11.94
▁அமச்சோ	-11.9402
ஸரிக்க	-11.9402
▁இச்சே	-11.9404
இமானி	-11.9405
▁மாதுல	-11.9408
▁ஸாமா	-11.941
பரியந்த	-11.941
ஸங்வண்ணனாய	-11.9415
▁மோசெத்வா	-11.9418
▁உப்பலவண்ணா	-11.9418
▁227.	-11.9419
ஸஸ்ஸதோ	-11.942
ம்மதண்ஹா	-11.942
▁பயோஜன	-11.9422
▁ஸங்கிலேஸிகா	-11.9422
▁ஸங்கப்போ	-11.9425
▁பரிஜானித்த	-11.9425
ம்மனோ	-11.9426
▁ஸக்கத்வா	-11.9426
▁திசித்தங்	-11.9429
▁ஆஸவே	-11.9432
▁ஸுகதேன	-11.9433
▁அஹிரிகங்	-11.9433
ஜின	-11.9434
னகாலோ	-11.9439
▁குமாரஸ்ஸ	-11.9439
▁புரிமானி	-11.9441
▁மாதிகங்	-11.9442
▁அமித்த	-11.9443
▁அஜின	-11.9445
▁அஸப்புரிஸோ	-11.9448
ரியாதீ	-11.9451
வரா	-11.9451
▁பரிவுத்த	-11.9452
யாகரெய்ய	-11.9453
▁அஞ்ஞானி	-11.9454
▁குஸீதோ	-11.9457
காமதா	-11.9457
▁அந்தேவாஸிகோ	-11.9458
▁224.	-11.9461
துமிச்ச	-11.9461
▁230.	-11.9464
▁கரோம	-11.9465
னநா	-11.9466
▁226.	-11.9467
▁ஓபம்ம	-11.9469
▁231.	-11.9469
▁கஸிணா	-11.947
▁டே	-11.9474
▁ஸீதா	-11.9474
▁238.	-11.9474
த்தத்தே	-11.9475
▁மிஸ்ஸ	-11.9479
▁ஸுபின	-11.9482
▁உபஸம்பன்னஸ்ஸ	-11.9484
▁பஹூத	-11.9485
▁அனரிய	-11.9486
▁ஆனிஸங்ஸ	-11.9486
▁விரம	-11.9488
▁மித்தே	-11.9488
மனகதா	-11.949
▁அனோமத	-11.9492
ஸங்வரஸங்வுதோ	-11.95
▁மஹோஸத	-11.9501
▁ஓதாரெத்வா	-11.9502
பகங்	-11.9503
லாத	-11.9505
▁அஸ்ஸோ	-11.9506
அல	-11.9507
வெந்தி	-11.9513
பரிஸ	-11.9515
▁பரிவிதக்கோ	-11.9518
▁ஸ்மா	-11.9519
▁கரிஸ்ஸாமீதி	-11.9521
▁விதக்கவிசாரா	-11.9521
▁ஹிரொத்தப்ப	-11.9522
ண்	-11.9522
▁மூள்ஹ	-11.9522
▁அனாரம்மணோ	-11.9522
▁சாகோ	-11.9525
▁ஹானி	-11.9526
▁விசின	-11.9526
▁அகுப்ப	-11.9526
▁அமனாப	-11.9528
ஸவஸ்ஸ	-11.9529
▁ஆருப்ப	-11.9529
▁அபரியோ	-11.9535
▁லோல	-11.9537
▁பரித்தாரம்மணங்	-11.9538
▁அவிதக்கோ	-11.9539
▁நிரவஸேஸ	-11.9544
ஸஞ்ஞோ	-11.9544
▁விஞ்ஞாபன	-11.9545
ஹீதங்	-11.9546
▁ஹஸ்ஸ	-11.9546
ரஹ்மசரியேன	-11.9547
ம்மேஸூதி	-11.9549
▁வசனா	-11.9549
பச்சங்	-11.9552
▁விசரி	-11.9559
▁ஆகு	-11.9562
▁புத்தேன	-11.9563
ஸேஸாய	-11.9564
ஸச்சந்தி	-11.9564
ஹுவசனங்	-11.9565
அஸுக	-11.9566
▁விசி	-11.9569
▁ஓக்கமதி	-11.957
புர	-11.9574
பரமங்	-11.9576
த்திகபா	-11.9578
ஸபி	-11.9578
▁அனஜ்ஜ	-11.9579
விலேபன	-11.9579
▁வுத்தானங்	-11.958
னஸோ	-11.9581
ஸாயதனானி	-11.9582
கம்மிகாயாதி	-11.9583
▁நியமெத்வா	-11.9583
▁அவீதராக	-11.9585
மசித்தஸமங்க	-11.9586
ஸேக	-11.9588
▁ஹேதே	-11.959
யட்டி	-11.9592
ஸுகே	-11.9593
▁ஸங்வத்தந்தீதி	-11.9594
▁ஸம்பத்தோ	-11.9595
▁ஆமிஸங்	-11.9596
▁ஸேவதி	-11.9597
▁வக்கலி	-11.9601
▁அந்தேவாஸிகா	-11.9601
▁அப்பத்த	-11.9601
ஹுலீகதோ	-11.9602
▁நாப	-11.9602
▁ரேணு	-11.9606
ூதி	-11.9609
புட	-11.9612
சித்ததாய	-11.9613
ஸோளஸ	-11.9615
▁உபக்க	-11.9617
ஸுந்த	-11.9623
▁கிங்ஸு	-11.9624
▁235.	-11.9625
ரவீ	-11.9626
▁யிட்ட	-11.9628
வகோ	-11.9628
▁அதிஸய	-11.9629
▁ஸன்னிபாத	-11.963
▁கட	-11.9631
னோவாத	-11.9633
கொண்ட	-11.9636
▁புண்ணா	-11.964
ூபனிஸ்ஸய	-11.964
▁ஸுகரங்	-11.9643
▁விஜய	-11.9643
அகா	-11.9649
▁30	-11.9655
▁பரிசார	-11.9655
▁நிரோ	-11.9659
▁ஆயூஹன	-11.966
▁பாபகே	-11.9661
ஸேமி	-11.9662
▁குணப	-11.9663
▁படிச்சவாரோ	-11.9663
▁நிரயபாலா	-11.9666
▁ஜாயரே	-11.9668
▁ஸம்மாபடிபத்தி	-11.9669
▁கிரியதோ	-11.9672
ய்யு	-11.9674
▁ஹிமவந்தங்	-11.9674
▁ஞாதுங்	-11.9674
வனந்தி	-11.9674
ஜேத	-11.9674
▁ஹேதும்ஹி	-11.9678
▁காமாஸவோ	-11.9679
ரூபாதி	-11.9681
▁குடும்பி	-11.9682
ுபச்சே	-11.9685
▁அயம	-11.9687
▁பஞ்ஞாதி	-11.9689
ம்மிகே	-11.9689
▁வுத்தனயமேவாதி	-11.9693
▁ஸங்வுதோ	-11.9693
▁லோகக்	-11.9693
▁அஸச்சி	-11.9694
▁விசயோ	-11.9695
ஸக்கா	-11.9698
▁துலயித்வா	-11.97
▁வயங்	-11.97
திக்கமே	-11.9702
விஸ்ஸஸீ	-11.9704
ணிகங்	-11.9704
ஸூரிய	-11.9705
▁காரணபா	-11.9707
பனாய	-11.9708
▁242.	-11.971
▁217.	-11.971
கிண்ணா	-11.9711
குடிங்	-11.9712
முபக	-11.9715
▁ஆரம்மணஸ்ஸ	-11.9718
னுகு	-11.9719
▁அவிஸ	-11.9719
ணவாரோ	-11.972
சிண்ண	-11.9721
னிவிட்ட	-11.9722
▁ஓளாரிகோ	-11.9722
கிலேஸானங்	-11.9722
▁229.	-11.9723
அஹம்பி	-11.9723
▁ஸயந்தி	-11.9725
▁உய்யோ	-11.9725
ஹாரேன	-11.9725
▁திபு	-11.9725
▁உப்பஜ்ஜனதோ	-11.9726
▁விப்பஸன்ன	-11.9728
ரேமி	-11.9728
▁அஸப்பாய	-11.9728
ம்மஸ்ஸவனங்	-11.973
▁சரிதங்	-11.973
▁225.	-11.973
▁ஞெய்யா	-11.9732
ஆரம்மணபச்சயா	-11.9732
▁படிபன்னஸ்ஸ	-11.9735
வங்ஸோ	-11.9735
▁ஞாணஸம்பயுத்த	-11.9736
சித்தஸமுட்ட	-11.9739
▁கோஸம்ப	-11.9739
சாது	-11.974
▁வேர	-11.9742
▁அனுவாத	-11.9743
▁ஸரீரந்தி	-11.9745
▁பரிஹீன	-11.9745
▁ஸாயன்ஹஸமயங்	-11.975
▁உம்முஜ்ஜ	-11.975
யஸி	-11.975
▁ஹீனாயாவத்த	-11.975
ஹுலீகதத்தா	-11.975
▁அனுஞ்ஞாதோ	-11.9751
மிஞ்ச	-11.9752
▁மாதரா	-11.9755
▁உத்தரோ	-11.9757
▁ஸாவகஸங்க	-11.9758
ஸ்வேவ	-11.9758
ஹபதிங்	-11.9759
▁விஞ்ஞாணா	-11.9763
▁உபனிஸ்ஸயபச்சயோ	-11.9763
ன்னமூலா	-11.9765
▁ஸதீ	-11.9766
▁புரிமேன	-11.9766
▁மஹாபஞ்ஞா	-11.9771
பெந்தியா	-11.9772
▁ததியஸ்ஸ	-11.9772
▁ஸரி	-11.9775
▁ஜித	-11.9779
▁குஸலமூலங்	-11.9783
▁மெத்தாபா	-11.9784
ப்பச்சயதா	-11.9784
▁கதோதி	-11.9785
யதனந்தி	-11.9788
▁ஸயனே	-11.979
ஸபோ	-11.9792
▁உபஸங்கம	-11.9792
ரூபீ	-11.9793
▁அரஹத்தாதி	-11.9793
▁காயவசீ	-11.9794
லேகா	-11.9795
▁பச்சாஸீஸ	-11.9796
▁கம்மதோ	-11.9801
▁நேஸாத	-11.9806
கருணா	-11.9808
▁245.	-11.9808
▁கிமி	-11.9809
▁ஸச்சே	-11.9811
னித்வா	-11.9813
ஜ்ஜனானங்	-11.9814
▁ஸம்பயுத்தபச்சயே	-11.9815
▁பவத்தமானங்	-11.9815
▁சரி	-11.9817
மினா	-11.9819
யெய்யா	-11.9822
ஸரண	-11.9822
▁நிரா	-11.9822
▁விஜ்ஜந்தி	-11.9824
வாஸீனங்	-11.9824
▁ஸரேன	-11.9825
▁யுஜ்ஜி	-11.9826
▁அசேலக	-11.9827
▁முத்தி	-11.9827
னீஹாரோ	-11.9828
▁ஸம்பயுத்தகானஞ்ச	-11.983
வபோ	-11.9832
பெத்வான	-11.9833
▁விரூள்ஹிங்	-11.9835
▁பனானிச்சங்	-11.9835
▁ஸேஸானங்	-11.9835
லோபேன	-11.9836
ப்பத்திங்	-11.9837
ஸஸஹஸ்ஸிலோக	-11.9838
▁பரிவாஸ	-11.9839
ஹுலீகாரோ	-11.984
▁பரஹிதாய	-11.984
ரணபஞ்ஞத்தி	-11.9842
ஸமணப்	-11.9845
த்திம்ஹி	-11.9846
ம்மபிடகே	-11.9846
ணிகோ	-11.9847
▁அமோஹ	-11.9848
▁தபஸ்ஸீ	-11.9848
▁விஞ்ஞாணனிரோத	-11.9849
▁அனுயுஞ்ஜ	-11.985
▁நேரயிகோ	-11.9851
பூஜங்	-11.9852
▁அஸுர	-11.9852
▁ஸீம	-11.9852
ஜனந	-11.9854
ண்ஹன	-11.9854
ஸ்மிங்யேவ	-11.9854
▁ஸம்மாஸங்கப்ப	-11.9855
▁ராஹு	-11.9858
யஸன	-11.9861
தயோமே	-11.9861
▁ஹார	-11.9862
ஸமாபத்திங்	-11.9862
▁பஹிணதி	-11.9863
யதிரேக	-11.9863
ந்	-11.9866
▁தேவிஜ்ஜா	-11.9867
அஹ	-11.9868
ம்மிகானங்	-11.9868
▁ஆனே	-11.9868
னதீ	-11.9869
ன்னேஸு	-11.9873
யிகோ	-11.9875
▁பச்சயுப்பன்ன	-11.9876
▁பகதங்	-11.9877
உபஸம்ப	-11.9877
▁ஸங்வாஸ	-11.988
▁குலா	-11.9882
ேனாபி	-11.9883
வாக்ய	-11.9884
▁239.	-11.9885
அக்க	-11.9886
ாரம்மணங்	-11.9887
ப்பச்சயே	-11.9887
சரகா	-11.9888
▁அலங்கத	-11.9889
▁மட்ட	-11.9889
▁ஸுகதங்	-11.9891
▁ராஜதா	-11.9894
ஜாதியா	-11.9894
▁மஹாலி	-11.9895
மனஸ்ஸானங்	-11.9895
▁ஏகச்சானங்	-11.9895
▁ஸகேன	-11.9896
ஸம்முதியா	-11.99
▁அஸாதங்	-11.9901
னுபு	-11.9903
லித்வா	-11.9908
▁ஹிங்ஸ	-11.991
▁கண்ஹஸுக்க	-11.9912
ஹுஸ்ஸுதே	-11.9914
▁புண்ணகோ	-11.9915
யுஜ்ஜ	-11.9918
▁அஸப்புரிஸ	-11.9919
▁நெத்த	-11.992
▁யாவதாயுகங்	-11.992
வீஹாயதனேஹி	-11.9921
▁வூபகட்ட	-11.9924
▁மூலக	-11.9926
▁விரூப	-11.9926
▁படிஞ்ஞ	-11.9928
வஸபா	-11.9928
▁தஜ்ஜாமனோ	-11.9929
விஸோத	-11.9931
▁ஸுஜாதா	-11.9932
▁வஜ்ஜங்	-11.9935
மஹத்த	-11.9936
▁ஸங்விஜ்ஜந்தி	-11.9938
▁மஹாகச்சானோ	-11.994
▁ரூபாரூபப	-11.994
▁அஞ்ஞஞ்ச	-11.994
▁ஸேது	-11.9942
▁அபாயேஸு	-11.9944
பனாதி	-11.9945
வாஸவோ	-11.9948
லூக	-11.9949
▁ஸவிதக்கோ	-11.9951
வ்ஹே	-11.9951
ஸஞ்ஞானங்	-11.9952
▁ஜனக	-11.9952
▁விஹிங்ஸ	-11.9954
▁ஹோம	-11.9955
பாளியா	-11.9956
▁அகுஸலசித்தங்	-11.9956
லோகிய	-11.9959
▁விஹங்க	-11.9961
லபூ	-11.9963
▁ஸமுச்சய	-11.9965
லோகஸ்ஸ	-11.9966
னஸம்பயுத்தா	-11.9968
ொஸ்மி	-11.9969
னநக	-11.9972
▁வலாஹக	-11.9975
▁வத்தாரோ	-11.9975
6-7	-11.9978
▁31	-11.9981
▁நாளி	-11.9981
ப்பமாணே	-11.9983
▁நீலாதி	-11.9983
▁புரிமப	-11.9983
▁246.	-11.9983
யேபு	-11.9984
சிர	-11.9991
விஸயத்தா	-11.9992
▁பஞ்சவோகாரப	-11.9993
▁அபரங்	-11.9993
▁அஜானந்தா	-11.9994
▁அனியம	-11.9996
▁265.	-11.9997
▁ஞாயதி	-11.9997
▁அபரிஸேஸ	-11.9998
ஸுதங்	-12.0003
ுப்பத்தியா	-12.0005
▁விகுப்	-12.0005
▁கிஞ்சீ	-12.0005
கரணத்தா	-12.0006
▁ஸாரம்மணங்	-12.0006
வனெத்தி	-12.0007
▁உத்தான	-12.0007
▁240.	-12.0007
▁மானத்த	-12.0007
ஹுலீகரோதி	-12.0009
▁ஸங்வி	-12.001
வசனீய	-12.0012
சிண்ணங்	-12.0012
▁மாதாபிதூஹி	-12.0012
▁உபெந்தி	-12.0013
ஸதஸஹஸ்ஸானி	-12.0013
ராஹ்மணகுலே	-12.0015
லோஹ	-12.0017
▁காயவிஞ்ஞாண	-12.0017
▁புரிமஸ	-12.0019
▁ஸேஹி	-12.0019
▁விகார	-12.0019
▁ரவி	-12.0021
▁வலி	-12.0022
மயாமே	-12.0022
த்திகஸ்ஸ	-12.0022
விசாரோ	-12.0024
▁பஹீனே	-12.0025
▁ஏளக	-12.0025
▁அகுஸலேன	-12.0031
▁ஸம்மஜ்ஜித	-12.0032
▁சேதே	-12.0035
ந்தராய	-12.0036
ரோதோ	-12.0036
▁கம்மவிபாகேன	-12.0037
▁யஸஸா	-12.0039
மாபஜ்ஜதே	-12.004
▁நாமேதங்	-12.004
▁ஏவமயங்	-12.0042
▁ஸாரங்	-12.0049
ஸமத	-12.0051
▁ஏகாப	-12.0053
ய்ஹங்	-12.0054
ஞ்ஜதோ	-12.0059
▁விரஜ்ஜ	-12.0059
மஸா	-12.006
▁ஸாலா	-12.0063
▁பரிவாஸோ	-12.0065
▁மித	-12.0065
ந்தஸ்ஸாபி	-12.0066
ஸம்முதிங்	-12.0067
லத்த	-12.0068
ணிங்	-12.007
▁உக்குடிகங்	-12.0071
குச்சி	-12.0071
தியபா	-12.0075
▁வேபுல்ல	-12.0078
காரந்ததா	-12.0078
த்தனியத	-12.0082
3-4.	-12.0084
▁ஜாதத்தா	-12.0084
▁வதாஹங்	-12.0084
விபல்லாஸோ	-12.0087
▁ஸஹிதா	-12.009
▁ஸபதா	-12.0091
ஸரே	-12.0092
▁ஆஹுதீனங்	-12.0093
▁கித்தயிஸ்ஸாமி	-12.0093
▁வசீவிஞ்ஞத்தி	-12.0094
லானப்பச்சய	-12.0094
ஸுவிஹாராய	-12.0095
▁மஹாஜன	-12.0096
▁ஸன்னிபதிதா	-12.0097
▁நயன	-12.0098
▁மத்தங்	-12.01
▁அப்பமஞ்ஞா	-12.01
ஸக்கார	-12.0101
சுதி	-12.0101
▁நாமரூபபச்சயா	-12.0104
மட்டா	-12.0104
▁பஞ்சகங்	-12.0108
சாரினோ	-12.0109
▁காராபேதி	-12.0109
குதோ	-12.011
கூடே	-12.0111
▁அனிஸ்ஸிதோ	-12.0113
▁பரிஹார	-12.0114
நானா	-12.0114
▁ஜீவந்தி	-12.0115
ரஹித்வா	-12.0118
ஹுவித	-12.0118
பஞ்ஹங்	-12.0119
▁அனிமித்தா	-12.0122
கரணீயங்	-12.0123
▁ரஜன	-12.0123
▁லஹுதா	-12.0123
▁மஹாமேக	-12.0124
வினீ	-12.0127
▁244.	-12.0128
▁அப்படிகோ	-12.0129
▁ஸங்யமோ	-12.013
▁கிஞ்சேத	-12.0131
ரஸம்ப	-12.0131
ரேனாதி	-12.0133
▁கும்ம	-12.0135
▁அவிதக்க	-12.014
▁ஸம்மஸ	-12.014
▁263.	-12.0143
ஸீமங்	-12.0145
▁அனுப்பத்தி	-12.0147
▁ஸீலேஹி	-12.0147
வஸஸ்ஸ	-12.0147
▁மக்கடோ	-12.0148
▁அச்சுக்	-12.0148
▁வோஹரி	-12.0151
▁பஞ்சஸத	-12.0153
▁அகாரந்த	-12.0155
வந்தரதா	-12.0157
▁சரணங்	-12.0163
னமத்தமேவ	-12.0164
பபத்தி	-12.0164
▁கம்மபச்சயா	-12.0164
ஞ்ஞத்தே	-12.0166
▁ஹாரா	-12.0168
▁தயோபி	-12.0171
▁ஸ்வா	-12.0172
▁ரங்ஸி	-12.0174
ம்முத்	-12.0175
▁மஹோத	-12.0176
ஜகஸ்ஸ	-12.0176
மூலானி	-12.0177
ொம்ஹீ	-12.0177
▁ஜராத	-12.0178
▁வுத்தமரஹதா	-12.0181
▁விமானே	-12.0181
ஸ்ஸனத்திக	-12.0183
▁திண்ண	-12.0184
▁ஸம்மன்னதி	-12.0185
பச்சுப்பன்ன	-12.0185
▁பாபுணிங்ஸு	-12.0187
▁பரிஹர	-12.0193
▁அப்படிப	-12.0194
பரிக்க	-12.0195
ரணபா	-12.0198
▁அவஹாரோ	-12.02
▁உபக்கிலேஸோ	-12.0202
▁கரி	-12.0202
▁264.	-12.0204
ஜதோ	-12.0204
பரிஹார	-12.0207
ம்மேனாதி	-12.0209
வனத்த	-12.0209
▁ஸக்கோதீதி	-12.021
▁262.	-12.0211
▁சித்தம்பி	-12.0211
▁அரோ	-12.0212
▁அப்பக	-12.0212
▁வசனஸ்ஸ	-12.0214
▁விஸதி	-12.0215
▁பஞ்சமா	-12.0217
▁உத்தானோ	-12.0217
▁ஹேதூதி	-12.0218
ம்மமேவ	-12.0219
ஹீன	-12.0221
கதேன	-12.0223
▁தமோ	-12.0223
▁ஜலா	-12.0226
▁கண்ஹோ	-12.0229
▁ரம்ம	-12.0231
▁அஸேஸ	-12.0233
யஸனேன	-12.0233
▁பத்தேன	-12.0234
▁நிவாஸே	-12.0237
▁நிகா	-12.0238
ஹணஸ்ஸ	-12.0241
ஸயவஸேன	-12.0242
▁பாபிமதோ	-12.0243
▁மரணஸ்ஸதி	-12.0243
▁உத்தமா	-12.0243
▁நீவரணோ	-12.0245
▁மஹாபதே	-12.0245
ஸோயேவ	-12.0246
▁கேவலா	-12.0247
▁247.	-12.0249
▁பரியேஸனா	-12.0254
▁பஞ்சாஹ	-12.0255
பண்ட	-12.0255
▁நிஜ	-12.0255
▁அனஜ்ஜா	-12.0256
▁பஸ்ஸேஸு	-12.0257
▁அனிச்சோ	-12.0258
▁நயோதி	-12.0258
▁256.	-12.026
▁அஸமா	-12.0261
ஜய	-12.0263
▁பஞ்சவிஞ்ஞாண	-12.0266
▁ஸஸ்ஸதங்	-12.0267
ஜித்வான	-12.0269
▁அபலோகெத்வா	-12.0269
▁அகஸிரலாப	-12.0269
▁கலாப	-12.027
வேதீ	-12.0271
▁மங்ஸசக்க	-12.0272
▁நிப்பரியாயேன	-12.0273
னூப	-12.0273
▁புமா	-12.0274
▁அவிபரிணாம	-12.0274
▁ஓரோ	-12.0275
விஞ்ஞெய்ய	-12.0276
ஜேதி	-12.0277
▁ஸயனங்	-12.0279
▁ஆயத	-12.0282
▁தால	-12.0284
▁ஸம்புண்ண	-12.0291
▁விஹரந்தீ	-12.0291
னந்தரே	-12.0291
ஸுஞ்ஞங்	-12.0293
ரினீ	-12.0293
▁அப்பமெய்யோ	-12.0294
ஸரணக	-12.0294
க்கடஸ்ஸாதி	-12.0295
அஸங்கிலேஸிக	-12.0295
▁அனொத்தப்ப	-12.0297
ரபத	-12.0297
▁அனச்ச	-12.0297
▁மஹாவனே	-12.0302
▁ஆஹர	-12.0303
▁கல்யாணமித்தோ	-12.0303
தமா	-12.0303
ெஸ்வேவ	-12.0304
▁மஹாஸத்தங்	-12.0306
▁பாபபி	-12.0306
மேதீதி	-12.0306
னாளி	-12.0306
▁ஸீலந்தி	-12.0306
சரியாய	-12.0307
▁ஸமணானங்	-12.0307
▁ஜீவக	-12.0307
▁ரதிங்	-12.0308
▁வுச்சமானே	-12.0309
▁நீசே	-12.031
ானுஸாரேன	-12.031
ஹடங்	-12.0312
▁உபகாரக	-12.0312
▁ஸமீபங்	-12.0313
▁விஹரிஸ்ஸ	-12.0313
பனீ	-12.0313
ணக்	-12.0313
▁ஸ்வாக	-12.0314
லத்தே	-12.0315
▁அகுஸலவிபாக	-12.0317
▁சாஹ	-12.0322
▁உண்ண	-12.0322
▁ஸமாஹிதங்	-12.0323
ஸங்கிலேஸிகங்	-12.0325
ரியஞ்சேவ	-12.0326
▁பீள	-12.0327
▁லோமங்	-12.0328
ஸ்ஸேதீதி	-12.0331
பாஸாண	-12.0332
ரஸ்ஸாதி	-12.0335
▁பரிமஜ்ஜ	-12.0335
தமேன	-12.0337
▁அமுத்ர	-12.0341
▁இதரானி	-12.0342
▁ருச்ச	-12.0343
▁258.	-12.0345
▁269.	-12.0345
▁ரதனா	-12.0348
ரதியா	-12.0349
▁இதரீதரேன	-12.035
▁ஸாரம்மண	-12.035
▁லோகுத்தரஸ்ஸ	-12.0352
பரிகம்மங்	-12.0353
▁வுத்தப்பகாரங்	-12.0355
▁ஸாஸங்க	-12.0355
ஜ்ஜெ	-12.0355
பனத்தா	-12.036
▁ஸேலோ	-12.0361
▁248.	-12.0361
நமோ	-12.0361
▁பச்சாஹரதி	-12.0363
பஞ்ஞங்	-12.0364
▁உபேச்ச	-12.0365
▁ஸமபா	-12.0372
▁பவேதி	-12.0372
▁7	-12.0373
▁ஹாயதி	-12.0374
▁ஸுஸிக்க	-12.0378
லவதீ	-12.0382
▁அனுப்பன்னோ	-12.0383
▁மானுஸ	-12.0383
▁ஆவரணங்	-12.0384
ஸங்யோஜனா	-12.0384
யஸங்கா	-12.0385
▁காரயே	-12.039
▁ஸஹாயா	-12.0391
▁வெய்யாகரணங்	-12.0391
ம்மகம்ம	-12.0393
▁வண	-12.0393
பதீதி	-12.0393
▁253.	-12.0394
▁மஹல்லகோ	-12.0395
ஜங்க	-12.0395
னுவத்தக	-12.0396
.5.	-12.0396
▁பனஸ்ஸா	-12.0397
வாரபா	-12.0397
▁பரியோக	-12.0397
பாடிஹாரியங்	-12.0399
▁உப்பஜ்ஜமான	-12.0401
▁உத்தரங்	-12.0402
▁அஞ்ஞானிபி	-12.0405
▁ஆவாஸ	-12.0405
ரூபஞ்ச	-12.0406
▁அபராத	-12.0408
▁அச்சு	-12.0408
▁மேகோ	-12.0409
▁கிஞ்சனங்	-12.0409
▁புரேஜாத	-12.041
▁ஆலோகங்	-12.041
▁தாவதிங்ஸம	-12.0411
▁நிச்சோ	-12.0412
வாஹோ	-12.0413
வாசீ	-12.0417
துகாமஸ்ஸ	-12.0417
அப்பஹீனோ	-12.0418
▁நிய்யானிகா	-12.042
ுத்தர	-12.0422
வமானோ	-12.0424
▁ஸமஸமா	-12.0424
ன்னோதி	-12.0426
7-8.	-12.0429
ப்பஸன்னோ	-12.0431
▁ஸீலக	-12.0432
▁நிவத்தேதி	-12.0435
▁261.	-12.0436
பாலோ	-12.0437
ம்மு	-12.0439
மாயங்	-12.044
ஹீத	-12.0443
▁கேஸக்	-12.0444
▁கோடிஸதஸஹஸ்ஸ	-12.0445
▁உபத	-12.0445
பாஸங்	-12.0446
▁அப்பனங்	-12.0448
▁ஹேதூனங்	-12.0449
▁ஆவேணிக	-12.045
▁ஸுவிஞ்ஞெய்ய	-12.045
▁யத்தா	-12.0451
ஸொண்ட	-12.0452
▁விவரதி	-12.0454
▁அப்படிகம்மே	-12.0456
ஹித்வான	-12.0457
வபுத்த	-12.0459
மத்து	-12.0461
த்தியே	-12.0463
▁மஹாபுரிஸஸ்ஸ	-12.0463
▁ருஹ	-12.0464
ஹாஸி	-12.0464
▁ஏகவீஸதி	-12.0465
▁பரியந்தங்	-12.0465
▁கிஞ்சீதி	-12.0465
▁அனவஸேஸங்	-12.0466
▁வச்சா	-12.0467
ஹந்தீதி	-12.0468
▁பரியந்த	-12.0472
▁சக்கரதனங்	-12.0472
ஜரா	-12.0474
▁அவிபாக	-12.0475
▁அஸஞ்ஞஸத்தா	-12.0476
▁ஸிங்க	-12.0477
▁ஆணத்தோ	-12.0478
▁உபஸம்பன்னங்	-12.0478
▁வாயு	-12.0479
▁ஹரா	-12.048
▁விஸமே	-12.0485
▁ஸத்தரதன	-12.0485
ஜாதீ	-12.0486
▁சேதோவிமுத்தியா	-12.0487
▁நாமஸ்மா	-12.0487
▁நிரயோ	-12.0488
▁லஹுகங்	-12.0488
அரஹத்த	-12.0489
தெத்வா	-12.0489
▁ஸீலேனாதி	-12.049
81	-12.0491
▁உபாஸகஸ்ஸ	-12.0491
▁அனோம	-12.0492
▁ஸன்னிபாதோ	-12.0496
மணீ	-12.0496
▁மிதே	-12.0497
▁பாதெத்வா	-12.0499
▁சத்தாரோபி	-12.0499
▁ருத்	-12.05
சரண	-12.05
ஹந்தா	-12.05
▁உஸ்ஸித	-12.0505
மாலங்	-12.0508
▁கோஸஜ்ஜ	-12.0511
ுத்தம	-12.0513
ஹிதஸ்ஸ	-12.0515
கம்மாதி	-12.0516
▁பஜஹத	-12.0517
89	-12.0519
▁உபனீத	-12.0519
▁255.	-12.0519
▁மாரிஸா	-12.0519
▁அனுஸாஸனீ	-12.0519
▁வாள	-12.0521
ஹாயங்	-12.0521
ஹிஸீமக	-12.0522
ஹுஸ்ஸுத	-12.0522
யகஸ்ஸ	-12.0523
▁கூடங்	-12.0525
▁அஸேஸங்	-12.0525
ஸங்யேவ	-12.0527
▁ஸுங்க	-12.0528
▁267.	-12.053
▁வஜ்ஜா	-12.0531
ப்பவேஸ	-12.0534
த்தயே	-12.0539
▁தேஜஸா	-12.0541
▁அபரிக்கமனங்	-12.0541
மானந்தி	-12.0541
▁பாடலிபுத்த	-12.0542
▁அமனஸிகாரா	-12.0542
தாரம்மணா	-12.0545
▁அனுபவிட்ட	-12.0546
▁அஸ்ஸே	-12.0547
யாபன்னசித்தோ	-12.0548
▁உபசாரங்	-12.055
▁கேவலகப்ப	-12.055
பண்ணாஸ	-12.0553
ஸுட்டு	-12.0553
யேனாதி	-12.0554
க்கந்தேன	-12.0557
▁ஏகூனதிங்ஸ	-12.0561
வசீ	-12.0561
வுதா	-12.0563
▁விவேகனிஸ்ஸிதங்	-12.057
சக்கவாள	-12.057
தபாத	-12.0571
ஸஞ்ஞி	-12.0573
அங்கு	-12.0575
▁ஸுஜன	-12.0578
கித்தன	-12.0584
ரூபந்தி	-12.0585
▁பகரணே	-12.0586
▁தாவெத்த	-12.0587
▁கல்லங்	-12.0588
▁ஸமத்தே	-12.0589
யஸ்ஸு	-12.0591
அஞ்ஞா	-12.0593
ரஹ்மசாரீஸு	-12.0593
▁கீளன	-12.0595
▁ஸிதங்	-12.0597
அஸங்கிலேஸிகோ	-12.0597
படிஸங்யுத்தங்	-12.0598
▁பாமொக்க	-12.0598
ஸுவிஹாரோ	-12.0599
▁பவாரேதி	-12.0599
னானத்தங்	-12.06
மூள்ஹ	-12.06
தபச்சயேன	-12.0602
ஸம்மாஸம்ப	-12.061
▁அவிஹிங்ஸா	-12.0613
▁வித்தங்	-12.0613
▁பாரிபூரிங்	-12.0613
▁விபல்லாஸோ	-12.0613
கஸிண	-12.0613
ஸ்வாவ	-12.0614
▁சித்தேஸு	-12.0614
▁அஞ்ஞபத	-12.0615
▁251.	-12.0616
லஹு	-12.0624
ாதுபூ	-12.0624
ஸினா	-12.0628
▁அப்பரஜக்க	-12.0632
▁பவாரெந்தி	-12.0632
தேஜோ	-12.0632
யாவகீவஞ்ச	-12.0632
▁குலபுத்தஸ்ஸ	-12.0632
▁குஸும	-12.0634
ஸாம	-12.0634
▁உபஸங்ஹர	-12.0634
ஸம்பயுத்தசித்த	-12.0635
▁அலங்கரித்வா	-12.0635
▁கலஹ	-12.0638
▁ஏககோவ	-12.0639
▁நர	-12.064
ஸினேஹ	-12.0641
▁ஜீவி	-12.0641
பல்லங்கே	-12.0643
▁முனிங்	-12.0643
த்தெ	-12.0645
ஞ்ஜே	-12.0647
கேனசி	-12.0649
▁அனந்தங்	-12.065
▁அவஸேஸோ	-12.0651
▁அனுரூபங்	-12.0651
▁ஸோணத	-12.0652
▁அசேதனோ	-12.0653
▁அனுராத	-12.0653
▁உப்பன்னாய	-12.0653
▁252.	-12.0654
▁இச்சேதங்	-12.0657
மிஸ்ஸாமீதி	-12.0658
பாசித்திய	-12.066
ஸித்த	-12.0661
வலோகா	-12.0662
▁ஸாமிகஸ்ஸ	-12.0662
18	-12.0664
ஜனாதி	-12.0664
▁திஹேதுக	-12.0666
யாகரோதி	-12.0666
▁ஸோணோ	-12.0666
▁வினட்ட	-12.0671
▁தஜ்ஜனீயகம்மங்	-12.0672
▁பகாஸிதங்	-12.0674
வ்ஹ	-12.0675
▁விவேகா	-12.0676
▁கரோமா	-12.0678
▁ஸாரம்மணா	-12.0679
▁பச்சே	-12.068
▁நிஸ்ஸிதோ	-12.0681
▁கண்டே	-12.0681
ஹதங்	-12.0682
▁அஸுகோ	-12.0682
▁தேஸஞ்ஹி	-12.0688
▁விவடங்	-12.0688
▁அமித	-12.0688
▁நால	-12.0689
ணவிஸேஸ	-12.0689
▁நிஸ்ஸயா	-12.0691
▁வஸ்ஸூப	-12.0692
ஸஹஸ்ஸா	-12.0693
பாரகூ	-12.0693
கேபி	-12.0696
லாபு	-12.0697
ானந்த	-12.0699
ஞ்ஞெய்ய	-12.0701
▁அகோவித	-12.0704
▁ஸமணேன	-12.0704
▁ஸூல	-12.0704
▁பரிணாம	-12.0706
▁அவிஜ்ஜங்	-12.0706
▁வேதா	-12.0707
ஹேதுபா	-12.0707
▁உம்மத்திகா	-12.0708
ய்யஸிகா	-12.0708
பராயனோ	-12.0709
▁257.	-12.0712
வராக	-12.0715
▁பணித	-12.0715
▁லிக	-12.0715
ரெய்யா	-12.0716
▁சாரு	-12.0717
▁266.	-12.0718
▁விசர	-12.0719
ன்னமேவ	-12.0722
ரம்மணவஸேன	-12.0722
ப்பதி	-12.0723
ஸது	-12.0724
▁அஸாத	-12.0724
▁ஸேதோ	-12.0724
▁ஓக்காககுல	-12.0724
▁நஅனந்தரபச்சயா	-12.0724
காமேஹி	-12.0724
▁பஸங்ஸி	-12.0724
▁ஸிவீனங்	-12.0724
▁249.	-12.0725
▁சம்பெய்ய	-12.0725
▁குமாரி	-12.0725
▁விஜஹித்வா	-12.0726
▁கரீயதி	-12.0727
அஞ்ஞே	-12.0727
▁யஸஸ்ஸி	-12.0728
▁ஸம்மஸித்வா	-12.0728
▁சவதி	-12.0732
▁தாலவண்ட	-12.0733
லூ	-12.0733
யிஸ்ஸங்	-12.0733
தவக்	-12.0735
▁காலா	-12.0738
▁ஹிங்ஸாயங்	-12.0738
▁ஏகவாரங்	-12.0738
ஸமுச்சே	-12.0739
ாபீதி	-12.0739
▁பச்சு	-12.0739
ஸீஸோ	-12.074
பேஹீ	-12.0741
▁உஸ்ஸாஹங்	-12.0742
▁அமச்சே	-12.0744
▁விசித்ர	-12.0744
▁அனந்தரபச்சயோ	-12.0744
▁வட்டி	-12.0747
வஸேனபி	-12.0748
▁ஏவா	-12.0748
ஸந்து	-12.075
▁ஸமாபன்னான	-12.075
ரயே	-12.0755
▁ஸம்மஸதி	-12.0756
▁பரிஹரி	-12.0756
னுரூபேன	-12.0756
க்கடா	-12.0758
னியாமேன	-12.0759
▁ஸாமிகங்	-12.0759
▁திணானி	-12.0759
ய்யசித்தோ	-12.0759
▁திஸ்ஸோபி	-12.076
மனத்த	-12.0761
▁273.	-12.0761
▁ஞாதா	-12.0762
ஸம்பயோக	-12.0764
ஸந்துட்ட	-12.0764
▁ஸிரோ	-12.0765
னவக்	-12.0769
பரிச்ச	-12.077
▁காதுந்தி	-12.0771
▁அசித்தகங்	-12.0771
ரணலக்க	-12.0772
▁அவிதக்கஅவிசாரா	-12.0774
ஞ்ஞேன	-12.0774
▁அபச்ச	-12.0774
▁வஹதி	-12.0774
▁கதஸ்ஸ	-12.0775
ாரம்மணே	-12.0776
னுபஸ்ஸினோ	-12.0777
▁அபுஞ்ஞங்	-12.0778
ஸேனேவ	-12.0778
▁அமோக	-12.0781
▁அஸம்மோஹ	-12.0782
மத்தீ	-12.0782
கிச்சஸ்ஸ	-12.0785
பராத	-12.0785
தீணி	-12.0791
யுத்தேன	-12.0795
மிஸ்ஸக	-12.0797
▁ஸாமணேரா	-12.0797
▁வாயந்தி	-12.0797
மானேஸு	-12.0798
▁வது	-12.0799
▁அபரிபுண்ண	-12.0799
▁விபாகதோ	-12.0801
விஸ்ஸாம	-12.0805
ராஹ்மணேஸு	-12.0805
▁வம்மிக	-12.0806
▁விஹேஸ	-12.0808
னாமே	-12.0808
மயாம	-12.0808
வெஸ்ஸ	-12.0817
ஸுத்தந்த	-12.0817
▁உப்பன்னேஸு	-12.0818
▁ஜராமரணனிரோத	-12.082
▁மிலிந்த	-12.082
ஹுஞ்ச	-12.082
▁ஜினே	-12.0823
▁குஸலதோ	-12.0823
ஸதிப	-12.0823
ரஹ்மசரியவாஸோ	-12.0823
4-5	-12.0825
ஸதானங்	-12.0828
▁விபச்சதி	-12.0829
▁விஸஜ்ஜ	-12.0829
▁ரூபாவசரோ	-12.083
▁இமஸ்மிஞ்ச	-12.083
ஸ்ஸாவினோ	-12.083
த்தாயா	-12.0832
▁அனித்	-12.0832
▁லோகவஜ்ஜங்	-12.0833
ய்யுந்தி	-12.0834
▁மூலா	-12.0834
▁ஆஜானா	-12.0837
கானீதி	-12.0839
▁வஸிதுங்	-12.0839
▁பஜஹித்வா	-12.084
வலோகோ	-12.0843
ராணஸிங்	-12.0845
னாமகே	-12.0851
▁பங்ஸுகூலங்	-12.0852
▁காரித	-12.0855
▁ஸோதாபன்ன	-12.0856
▁அனிமித்தங்	-12.0857
▁உப்பத்தியா	-12.0857
புனப்	-12.0857
விபல்லாஸ	-12.086
▁நீலங்	-12.086
▁மோஹேன	-12.086
▁கல்யாணமித்த	-12.0861
ணதாய	-12.0862
ரத்திங்	-12.0863
ஆனந்த	-12.0863
வனானுயோக	-12.0864
ஸச்சே	-12.0865
த்தனியதோ	-12.0865
னுஜானந	-12.0868
ண்ஹாஹீ	-12.087
▁ஸமானே	-12.087
▁அந்தேவாஸிக	-12.087
ஸாவகானங்	-12.0873
▁வப்ப	-12.0874
ம்மஸமா	-12.0874
ஸுத்தேன	-12.0876
▁ஸந்திங்	-12.0876
▁வுத்தனயானுஸாரேன	-12.088
▁பஜ்ஜோத	-12.0883
▁அனியதஸ்ஸ	-12.0883
ஸமாஸே	-12.0887
▁பரிமாணங்	-12.0892
▁ஏதாஸங்	-12.0893
▁அப்பணிஹித	-12.0893
▁259.	-12.0894
▁அஞ்ஞோபி	-12.0898
▁ஜாதவேத	-12.0899
▁அயா	-12.0899
▁ஸுவ	-12.0901
▁ஆணத்த	-12.0901
▁அதேகிச்ச	-12.0902
▁கரிஸ்ஸ	-12.0903
ுட்டி	-12.0905
ப்படிபா	-12.0906
லஸுத்தங்	-12.0907
கேனேவ	-12.0908
▁ஞாணா	-12.0908
ஸ்ஸானி	-12.0909
▁மஹிங்	-12.0909
▁ஏவங்பூ	-12.091
▁280.	-12.0911
னதோதி	-12.0912
▁காராபேஸி	-12.0913
▁கிலேஸவிப்பயுத்த	-12.0913
▁ஸுன	-12.0914
▁கதகம்மங்	-12.0915
▁சதுன்னம்பி	-12.0915
▁உய்யானே	-12.0919
▁வீரியேன	-12.0919
னநிரோத	-12.0919
▁காஸாவ	-12.092
▁நிவுதோ	-12.0924
▁பரிச்சஜித்வா	-12.0925
ஸந்தீதி	-12.0927
▁கம்மவிபாக	-12.0929
▁உத்தமத்த	-12.0929
▁படிஸந்த	-12.093
வண்ணனங்	-12.0932
ஸிதந்தி	-12.0933
▁மானா	-12.0935
வங்கா	-12.0935
ஸேசன	-12.0936
காஸோ	-12.0936
▁பாணுபேதங்	-12.0937
ரவதா	-12.0937
ஞ்ஜலிங்	-12.0939
மச்சோ	-12.0942
வமனுஸ்ஸ	-12.0942
தீணிமானி	-12.0942
▁வுத்தஞ்ச	-12.0942
▁அதிஸயேன	-12.0942
ஸச்சேன	-12.0942
▁மாரேன	-12.0943
▁சேதா	-12.0943
ஜீவீ	-12.0944
ஸாரிபுத்த	-12.0947
▁வீதிவத்தோ	-12.0948
▁அத்தபடிலாப	-12.0948
▁ஸதஸஹஸ்ஸானி	-12.0953
▁வேவசன	-12.0956
காயே	-12.0956
வங்கீ	-12.0956
▁ஜாதரூபங்	-12.0959
ம்யா	-12.0959
▁பஜஹி	-12.0959
▁ஜப்பேதி	-12.0962
உபோ	-12.0967
பஸ்ஸே	-12.0968
▁ஹேதுஸம்பயுத்தோ	-12.0968
நிக்க	-12.0968
புரிம	-12.097
▁ஸம்மாவிமுத்தி	-12.0971
▁அனுபஸம்பன்ன	-12.0972
▁ஓதிண்ண	-12.0973
▁பஸ்ஸாவங்	-12.0973
▁லோகேன	-12.0974
ீயந்தி	-12.0976
ஸெய்யாதி	-12.0978
மபூ	-12.0978
▁ஸஹேவ	-12.0979
▁271.	-12.098
▁இதரேஸு	-12.0981
ரம்பா	-12.0982
▁276.	-12.0982
கிரியங்	-12.0984
பரியந்தே	-12.0984
▁பாருப	-12.0986
ரம்மணதா	-12.0988
ந்த்வேவ	-12.0988
ஜ்ஜமானங்	-12.0989
▁விஹிங்ஸா	-12.0989
காரகே	-12.0992
▁ஸுணோம	-12.0993
▁விஹேஸா	-12.0994
▁அரியப	-12.0995
பச்சனீக	-12.0997
யதனஸ்ஸ	-12.0998
கப்பா	-12.0999
▁படினிஸ்ஸஜ்ஜ	-12.1
▁நிக்குஜ்ஜித	-12.1001
யஞ்ஜனஸ்ஸ	-12.1002
பேதுந்தி	-12.1006
▁ஓஸீத	-12.1006
▁ஜாணு	-12.1007
▁நோஸஞ்ஞாவிமொக்க	-12.1007
▁அலமரிய	-12.1007
விபஸ்ஸனங்	-12.1008
ம்மிகஸம்பராயிக	-12.1008
ஆதா	-12.101
▁அமனுஸ்ஸா	-12.101
▁படிஸேவதி	-12.1011
▁வங்ஸோ	-12.1012
▁அகரொந்தோ	-12.1012
▁ததோயேவ	-12.1013
நே	-12.1016
ஸ்மிஞ்ச	-12.1016
▁அல்லீய	-12.1016
▁அபரிஹீன	-12.1016
னாஹங்	-12.1019
முத்திகா	-12.1019
பாலகோ	-12.1019
▁ஆலிங்க	-12.1019
வகம்மேஸு	-12.1019
▁விசரந்தோ	-12.102
ணினோ	-12.1023
▁வேரமணியா	-12.1023
▁அட	-12.1025
▁கரெய்யாதி	-12.1028
ஓகாஸோ	-12.1028
▁காரணமாஹ	-12.1029
▁ஸங்கோச	-12.103
ஸ்ஸிதானி	-12.1032
▁பக்கம	-12.1033
ஸல்லேக	-12.1033
விஞ்ஞத்தி	-12.1035
▁ஸஞ்ஜானந	-12.1035
த்வந்தஸ்ஸ	-12.1036
▁ஓரஸோ	-12.1036
▁பாணினங்	-12.1036
▁உஜுகங்	-12.1039
▁கம்மவிபாகோ	-12.104
மனீயோ	-12.1041
லீப	-12.1042
வுத்தேன	-12.1042
ஆயு	-12.1042
▁யாசன	-12.1043
▁ஆஹரா	-12.1044
▁அனிமித்தோ	-12.1046
மயந்தி	-12.1046
ப்பாயஸ்ஸ	-12.1047
வசனிச்ச	-12.1051
ஹேதுதோ	-12.1054
ரிதந்தி	-12.1056
▁மஞ்ஞனா	-12.1056
▁கம்மக்க	-12.1057
ச்சரிதேன	-12.106
▁நவிபாகத	-12.1061
வசர	-12.1061
ஸரோ	-12.1062
சேதனாய	-12.1065
▁பாராயன	-12.1067
ஸேனாதி	-12.107
ஞ்ஜனங்	-12.107
விஹாரேன	-12.1072
▁மிஜ்ஜ	-12.1072
▁அக்கோஸதி	-12.1073
▁புராணங்	-12.1073
ுத்தமங்	-12.1073
முபேதி	-12.1074
வேலாய	-12.1075
ரப்ப	-12.1075
ம்மபூ	-12.1076
ெய்யோ	-12.1078
ருஹித்வா	-12.108
விஞ்ஞெய்யங்	-12.1081
சீதி	-12.1082
▁புஞ்ஞபா	-12.1086
▁ஸதஞ்ச	-12.1087
லஸதி	-12.1088
ஸமாயோக	-12.1093
▁பண்ணங்	-12.1095
▁பாகதிக	-12.1098
ஜெந்தி	-12.1101
ராஹ்மணேஹி	-12.1103
பரியத்தி	-12.1104
ஜகானங்	-12.1106
▁நிஸ்ஸிதா	-12.1106
▁குஸலமூலேன	-12.1107
மம்ஹி	-12.1109
▁தாயங்	-12.111
▁1-1	-12.111
▁சித்தப்பஸாத	-12.1111
பஞ்ஞ	-12.1111
▁இதரேன	-12.1111
ய்யஸங்வாஸகோ	-12.1114
▁யாவஜீவிகங்	-12.1114
▁சரித்வான	-12.1115
ஸிக்க	-12.1116
யாகரொந்தோ	-12.1118
▁அஸஞ்ஞீ	-12.1118
▁வஸ்ஸதி	-12.1118
ஞ்ஜிங்ஸு	-12.1118
▁கிங்ஸமு	-12.112
யொப்	-12.112
▁ஸபரிக்கமனங்	-12.112
▁ரூபாரூபத	-12.112
தோஸீ	-12.1121
▁254.	-12.1121
▁உபவத	-12.1124
பச்சத்த	-12.1127
▁பந்தானி	-12.1129
▁பச்சனீகங்	-12.1129
▁குபிதா	-12.113
ஹாதீ	-12.1135
▁அவிதி	-12.1135
▁ராஜப	-12.1135
▁ஜானாம	-12.1136
மந்தானங்	-12.1137
ாவஸானே	-12.1137
▁நஹா	-12.114
▁மித்தங்	-12.114
▁அபரிமாண	-12.1143
ராமா	-12.1143
வரக	-12.1143
னிஸங்ஸ	-12.1143
ஸ்ஸனமத்தங்	-12.1144
▁ஸாரணீய	-12.1146
▁அஸமான	-12.1147
ேனாஸி	-12.1147
▁அவினி	-12.1148
▁விஜானி	-12.1149
▁மஹிந்த	-12.1151
▁303.	-12.1153
▁பேதா	-12.1153
▁பானஞ்ச	-12.1154
▁சீவரானங்	-12.1157
▁பாணாதிபாத	-12.1158
வசனானி	-12.116
▁பஞ்ஞபெத்வா	-12.116
▁ரூபதண்ஹா	-12.1162
▁காரணானி	-12.1162
ந்தானி	-12.1164
▁மித்தது	-12.1164
▁மத்தஞ்ஞுதா	-12.1165
▁வஸ்ஸான	-12.1166
▁பச்சதி	-12.1167
லாகா	-12.1171
▁ரேவத	-12.1171
மம்பி	-12.1172
▁கரணத்தே	-12.1175
▁தஸ்மிம்பி	-12.1175
▁ஆசரியங்	-12.1175
ஹணந்தி	-12.1176
ஸ்வே	-12.1177
▁ஓகாஸதோ	-12.1178
▁ஸஞ்சி	-12.1178
ந்தேவ	-12.1179
சதுக்கே	-12.118
னவுதி	-12.1181
லேஸி	-12.1182
ணம்பி	-12.1184
பஸ்ஸத்	-12.1184
▁யான	-12.1185
ணனாதோ	-12.1186
▁270.	-12.1193
▁காகோ	-12.1194
▁பஞ்ஞபேத	-12.1194
ளார	-12.1196
பிலோதிக	-12.1197
▁காலகிரியா	-12.1197
▁ஜனந	-12.1199
▁ஓபபாதிகா	-12.12
▁விஸ்ஸஜ்ஜேஸி	-12.12
▁ஜாயதீதி	-12.1202
பாரிபூரியா	-12.1202
▁அஸ்ஸஸிஸ்ஸாமீ	-12.1203
ஏவமேதங்	-12.1206
▁உபஸமாய	-12.1207
▁பச்சயாகார	-12.1207
ம்மட்ட	-12.1209
▁அவத்து	-12.121
▁ஜவனங்	-12.1211
▁ஸகத்த	-12.1212
▁ஜனாதி	-12.1214
▁அபரத்	-12.1217
▁விஞ்ஞாணதா	-12.1218
ம்மவாசாபரியோஸானே	-12.1224
▁நியமித	-12.1226
மனோவிஞ்ஞாண	-12.1227
▁ஜாதாதி	-12.1228
▁ஹரித்வா	-12.1228
▁சங்கமி	-12.1228
ஸம்பன்னே	-12.1229
▁ருப்பன	-12.1229
▁பஹரி	-12.123
வஸேஸு	-12.1231
▁கம்மபச்சயோ	-12.1233
▁பரம்பி	-12.1235
னிச்சா	-12.1235
▁ஸமந்த	-12.1235
▁படு	-12.1236
விரஹித	-12.1237
வனேன	-12.1237
▁மனுஸ்ஸித்	-12.1237
▁உபபஜ்ஜதீ	-12.1241
▁முகா	-12.1242
ப்பச்சய	-12.1244
▁ஏகஸ்மிங்யேவ	-12.1245
▁அனுப்பன்னே	-12.1246
பெத்த	-12.1248
அகுஸல	-12.125
▁அகாஸிங்	-12.1251
▁ஸகலே	-12.1251
▁பவாரிதா	-12.1251
▁ஸங்வராய	-12.1252
▁ஸங்வாஸோ	-12.1252
▁ஸங்ஸி	-12.1252
▁வுத்தானீதி	-12.1254
ரஸ்ஸேவ	-12.1256
▁பரிவாரேன	-12.1257
▁அனிய்யானிக	-12.1259
▁ஓஜா	-12.1259
ஸந்தாப	-12.126
கண்டக	-12.126
ஸங்ஸுத்	-12.1262
▁ஆனாபானஸ்ஸதிஸமாத	-12.1265
▁344.	-12.1265
ஓக	-12.1265
▁பஞ்ஞாயதீதி	-12.1265
▁அஸங்ஸட்ட	-12.1267
இமா	-12.1267
வமானா	-12.1268
11	-12.1268
அவிஜ்ஜாபச்சயா	-12.1268
▁பக்கோஸ	-12.1274
▁ஆஸயோ	-12.1275
▁பஜானாமி	-12.1275
ஸொப்	-12.1278
▁ஸங்வுத	-12.1279
▁பரிபூர	-12.128
ஞ்ஞத	-12.1283
▁நமஸ்ஸ	-12.1284
ஸம்பயுத்தகானஞ்ச	-12.1285
ணனே	-12.1289
▁ஸோதுங்	-12.1291
▁குஸலாபி	-12.1292
மிச்சேவ	-12.1294
▁அனாமஸித்வா	-12.1298
புஞ்ச	-12.1299
▁305.	-12.1299
▁268.	-12.1299
▁நவஸு	-12.1303
▁மஞ்ஜு	-12.1303
▁காயிகா	-12.1303
▁மாதாபிது	-12.1304
▁அகுஸலமூல	-12.1305
ண்ஹாதீ	-12.1305
▁பத்தோதி	-12.1306
யிஸ்ஸாம	-12.1308
▁பாடியேக்கோ	-12.1309
▁ஆருப்பா	-12.1309
▁ஸித	-12.131
க்கடாபத்தி	-12.131
ஸவன	-12.131
▁யஸேன	-12.131
துபட்டா	-12.1312
▁பவத்தந்தீதி	-12.1312
▁ஸூரியஸ்ஸ	-12.1313
▁பாபுணிதுங்	-12.1313
னகத	-12.1314
▁வீஹி	-12.1314
கரோதீதி	-12.1315
▁ஏவங்னாமகே	-12.1316
▁274.	-12.1317
▁பியபா	-12.1318
ரேஹீ	-12.1319
▁தேவீஸதி	-12.132
▁272.	-12.1322
பஞ்சம	-12.1327
ஸஹிதா	-12.1328
▁இஸீனங்	-12.1328
▁சங்கமே	-12.1329
▁நிவாஸோ	-12.133
▁ஸுபே	-12.1332
ணதீ	-12.1332
▁மாரே	-12.1334
ம்ய	-12.1335
▁அமனாபோ	-12.1335
▁புண்ணக	-12.1337
ய்ஹமானோ	-12.1344
▁புரிமாய	-12.1345
வத்தீ	-12.1345
▁வினிப	-12.1345
▁ஞாய	-12.1346
ரெய்யாதி	-12.1347
▁வனி	-12.1349
காரினோ	-12.1349
▁மூக	-12.135
குணப	-12.135
ஸீலஸிக்க	-12.1351
னிஸங்ஸா	-12.1351
▁மஹானிஸங்ஸா	-12.1352
▁திணங்	-12.1352
ஸாமஞ்ஞேன	-12.1352
▁பச்சயத	-12.1355
▁சேஸ	-12.1355
வயித்வா	-12.1356
பச்சயேஹி	-12.1356
▁கிரியாய	-12.1358
அஸு	-12.136
அனிச்சா	-12.1363
▁அயோக	-12.1364
ஞத்தி	-12.1366
ரொ	-12.1369
ஹுஜன	-12.1373
▁ஜஹா	-12.1373
▁ஸுஸு	-12.1374
ஹுஸச்ச	-12.1379
▁பஞ்ஞாயந்தி	-12.138
▁குட	-12.1381
▁அப்படிவி	-12.1381
▁ஜப்ப	-12.1382
▁அசல	-12.1383
▁பரபரிக்	-12.1383
▁அதிக்காமேதி	-12.1384
▁250.	-12.1385
▁ஸந்தகே	-12.1386
▁279.	-12.1387
ஜிதேன	-12.1387
▁உபஸம்பன்னா	-12.1388
னாகாரங்	-12.1389
மபாராஜிக	-12.1389
▁மானஸ்ஸ	-12.1389
▁பலாஸ	-12.139
▁குருதே	-12.139
ல்லச்சயா	-12.1392
▁பரமோ	-12.1395
நிக்	-12.1395
▁ஸேவனா	-12.1396
▁அப்பிய	-12.1397
▁பரிவாரெந்தி	-12.1397
▁வீதினாமெத்வா	-12.1398
▁345.	-12.1399
▁கொட்டெத்வா	-12.1399
▁ஜினஸ்ஸ	-12.1399
▁கத்துகாமோ	-12.14
▁அக்கோ	-12.1402
ஜகங்	-12.1402
▁பாளிங்	-12.1402
லுங்க	-12.1403
▁உபருஜ்ஜ	-12.1404
▁அரஞ்ஞக	-12.1405
ஹாரவிப	-12.1407
▁நிபஜ்ஜ	-12.1407
▁ஆஹுனெய்யோ	-12.141
▁கிஞ்சிபி	-12.1411
▁தத்தகங்	-12.1411
▁ஜலித	-12.1412
▁ஸுக்கங்	-12.1413
ப்பதீதி	-12.1414
▁9	-12.1415
காலிகா	-12.1415
▁ஹஞ்ஞ	-12.1415
ணெத்வா	-12.1415
▁ஆசர	-12.1415
ரவேன	-12.1416
வனக	-12.1416
ங்கரோ	-12.1416
▁கரிஸ்ஸதீ	-12.1417
▁சிந்தெந்தோ	-12.1418
கரணாதி	-12.1418
▁பச்சந்த	-12.142
▁ஸாதிஸயங்	-12.142
னெய்யங்	-12.142
ேகதே	-12.1422
னவஸேனாதி	-12.1422
ஸ்ஸாமாதி	-12.1424
வஜ்ஜித	-12.1425
▁வச்சகுடி	-12.1425
னிம்மி	-12.1426
▁விபாகபச்சயா	-12.1429
▁அபாயக	-12.143
▁ஏகேனேவ	-12.1431
▁உபனேதி	-12.1432
▁வஜந்தி	-12.1433
▁புத்தானங்	-12.144
ண்ணே	-12.1441
ணானுப	-12.1442
▁ஞெய்யோ	-12.1443
▁ஏகமூல	-12.1444
வெஸ்ஸந்தி	-12.1445
யிதே	-12.1445
▁நீவரணஸம்பயுத்த	-12.1447
▁தாஹங்	-12.1448
▁நியாம	-12.1449
வல்லி	-12.1451
▁பஞ்சஸிக	-12.1453
ஞ்ஞாயோ	-12.1453
கிஞ்ச	-12.1454
அரூப	-12.1455
ரூதி	-12.1455
▁அனிச்சே	-12.1457
▁ஸுஸ	-12.1459
வெய்யங்	-12.146
ரியபா	-12.1461
▁ஜனிகா	-12.1462
கதமங்	-12.1464
▁மஹாகருணா	-12.1465
ருஸாய	-12.1466
▁விஜஹித	-12.1467
குஸலேன	-12.1468
▁ஏகஸ்ஸேவ	-12.1469
தொஸ்மி	-12.1469
க்கந்தாய	-12.1473
▁அனுத்தரா	-12.1477
▁உபக்கிலேஸா	-12.1477
துகதா	-12.1479
▁பாரக	-12.1479
▁ஸம்மஸன	-12.148
▁அஸமாஹித	-12.1482
▁தாவகாலிக	-12.1482
▁முய்ஹ	-12.1482
▁நள	-12.1482
▁அவிப்பவாஸ	-12.1484
▁342.	-12.1484
▁மஹாபஜாபதி	-12.1485
ஹிதக	-12.1486
▁அஸந்தே	-12.1487
ரயோ	-12.1487
▁ஸமணுத்	-12.1489
▁படிபாத	-12.1489
ரஹிதப்	-12.149
ஸந்தஸ்ஸ	-12.149
▁ரூபராக	-12.1491
▁அம்ஹங்	-12.1491
உஸப	-12.1491
யிகங்	-12.1492
ல்லச்சயஸ்ஸா	-12.1497
▁அம்ஹி	-12.1497
▁வஸ்ஸூபனாயிக	-12.1497
▁குஹிஞ்சி	-12.1497
▁தங்ஸமங்க	-12.1498
▁வுத்தவிபரியாயேன	-12.1499
▁அச்சந்தஸங்யோக	-12.1499
▁யஸஸ்ஸீ	-12.1499
பகரண	-12.1501
▁மத்தஞ்ஞூ	-12.1501
ஸ்ஸூ	-12.1503
▁கப்பட்ட	-12.1503
▁உஸ்ஸாபெத்வா	-12.1505
91	-12.1506
▁ஸமாஹிதா	-12.1507
▁மஞ்ஞதீதி	-12.151
வாஸேஸி	-12.1512
▁காமஸஞ்ஞா	-12.1514
னெய்யா	-12.1514
▁அவிசாரங்	-12.1515
ஸமதிக்கம	-12.1515
னஸ்ஸேவ	-12.1516
▁ஆரஞ்ஞிகோ	-12.1516
ஸாரா	-12.1519
▁விஹர	-12.1519
▁யந்தங்	-12.1519
ஜந்தோ	-12.152
▁ஸுவண்ணவண்ணோ	-12.1521
▁கல்யாணோ	-12.1522
▁சோரேஹி	-12.1523
▁யுத்தந்தி	-12.1523
▁மரி	-12.1525
▁அஸ்ஸமோ	-12.1525
▁284.	-12.1526
▁நயே	-12.1526
▁புரோஹிதோ	-12.1526
▁படிக்கோஸ	-12.1526
▁ஸேவந்தி	-12.1527
சிரங்	-12.1529
▁ரமணீயங்	-12.1529
▁ஸோமனஸ்ஸதோ	-12.1529
யெய்யங்	-12.153
வனிரோத	-12.1531
மேகங்	-12.1532
ப்பலாபோ	-12.1533
ஸ்ஸீலஸ்ஸ	-12.1534
கஸ்ஸேவ	-12.1534
கிச்சே	-12.1534
▁ரத்யா	-12.1536
▁பகாரே	-12.1536
▁ஸமனந்தரபச்சய	-12.1537
வாராதி	-12.1539
▁டீகா	-12.1541
▁அபுஞ்ஞ	-12.1543
▁அவிஜ்ஜாதி	-12.1544
▁நாமஞ்ச	-12.1544
▁ஸீலவதோ	-12.1545
நாக	-12.1545
▁வரா	-12.1546
▁விஜ்ஜமானா	-12.1549
கண்டோ	-12.1549
▁தேபிடக	-12.155
▁பவஸ்ஸ	-12.1554
ம்மஸேனாபதினா	-12.1555
அஸ்ஸா	-12.1557
▁உட்	-12.1557
ஹவஸேன	-12.1558
பேதுகாமோ	-12.1558
▁அனேகத்த	-12.1558
▁வினிபாத	-12.1558
லஸுத்தவண்ணனா	-12.1559
▁சிந்தயி	-12.1559
▁அதிக்கந்தே	-12.1562
▁முச்சதீதி	-12.1564
▁கதமஞ்ச	-12.1568
▁புனதி	-12.1568
அஞ்ஞத்ர	-12.1569
ஸ்ஸீல்ய	-12.1571
ஸங்ஹிதா	-12.1572
▁பஞ்சவோகாரா	-12.1572
னவஸேனேவ	-12.1574
▁ஜாதரூப	-12.1576
மலா	-12.1577
விவித்த	-12.1577
யோஜனே	-12.1578
ராஹி	-12.1579
யானோ	-12.1582
▁அசலங்	-12.1583
▁ஆஸனா	-12.1583
▁நமதி	-12.1583
▁ஏவரூபாய	-12.1584
ஸிதேன	-12.1584
▁ஹோதா	-12.1584
ம்மபால	-12.1585
னபத	-12.1586
▁அதீவ	-12.1588
ஸ்ஸேஹி	-12.1589
▁பண்ணஸாலங்	-12.1591
ம்மாயதன	-12.1592
▁பகாஸேதுங்	-12.1599
▁260.	-12.1599
▁281.	-12.1599
அதோ	-12.1601
▁பக்கமிங்ஸு	-12.1603
▁நேவஸஞ்ஞீனாஸஞ்ஞீ	-12.1604
▁ஆஸங்	-12.1605
▁ஏதிஸ்ஸாதி	-12.1606
▁கித்தெத்வா	-12.1611
▁வூபஸந்தங்	-12.1614
▁வஸந்தா	-12.1615
▁விஸயங்	-12.1616
▁அசித்தக	-12.1618
மிஸ்ஸா	-12.162
▁நிமித்தானி	-12.1622
▁சித்தேஹி	-12.1625
▁ஜயோ	-12.1626
▁ஞத்திங்	-12.1626
னிமித்தஸ்ஸ	-12.1627
▁ஸஉபாதி	-12.1627
▁உஸு	-12.1631
லிம்ப	-12.1634
சரியேன	-12.1634
▁அச்சயங்	-12.1634
▁தாரேஸி	-12.1635
யபூ	-12.1639
பத்தியோ	-12.164
ருய்ஹ	-12.1643
லஸா	-12.1644
படிகா	-12.1644
ஸுயேவ	-12.165
ரூபாய	-12.1651
▁அகாரோ	-12.1651
விஞ்ஞாதப்	-12.1652
▁ஸாடகங்	-12.1652
▁விஸாண	-12.1654
ஞ்ஞுபு	-12.1655
▁அமூ	-12.1657
னநிஸஜ்ஜா	-12.1657
ச்சரிதானி	-12.1657
▁அப்பஸாத	-12.1658
▁ஸங்வட்	-12.1658
லங்காரோ	-12.1659
லயங்	-12.166
ஜானநங்	-12.1662
கோஸல்லங்	-12.1662
ஹத்தீ	-12.1663
ஹெட்ட	-12.1665
வஸிகங்	-12.1666
பங்கரோ	-12.1666
▁அஸம்பு	-12.1667
யானே	-12.1668
▁தேனாஹு	-12.1669
▁ஸாமஞ்ஞேன	-12.1669
பெய்யா	-12.167
ானிஸங்ஸோ	-12.1671
னுஸாரீ	-12.1671
மித்வான	-12.1673
▁கோலிய	-12.1674
▁சதுப்பத	-12.1674
▁ராஹுலோ	-12.1675
▁300.	-12.1675
▁278.	-12.1675
ரெந்தஸ்ஸ	-12.1675
விஸா	-12.1677
▁அஞ்ஜலி	-12.1677
னிமித்தந்தி	-12.1677
தானம்பி	-12.1679
▁அஞ்ஞபா	-12.1683
▁ஸேனாஸனக்	-12.1685
▁அமித்தா	-12.1686
▁தாவதிங்ஸ	-12.1687
லஞ்ஞ	-12.169
ம்மிகானி	-12.169
ஜிண்ண	-12.169
சக்கூ	-12.1692
மவா	-12.1692
▁பரிவாஸங்	-12.1693
▁ஆரம்மணவஸேன	-12.1693
▁உபனேத	-12.1696
▁ஸஞ்ஜ	-12.1696
▁அனியதங்	-12.1696
குஸலதா	-12.1697
▁கரெய்யா	-12.1697
▁கணிகார	-12.1697
ஸேதுகாமோ	-12.1697
ஜாதியோ	-12.1698
யமேதங்	-12.1699
▁ந்ஹான	-12.1699
ஸ்ஸனத்தா	-12.1699
▁மால	-12.1701
▁கம்மஞ்ச	-12.1701
▁329.	-12.1702
▁பரிவத்ததி	-12.1703
▁கோஸலேஸு	-12.1703
▁பராஜிதோ	-12.1703
▁சேதாபேதி	-12.1703
▁அனஞ்ஞா	-12.1704
▁மஞ்ஞமானா	-12.1704
காயாதி	-12.1706
▁ஹிமவ	-12.1707
▁தாணங்	-12.1709
▁ஸங்கிலேஸிக	-12.171
▁பண்ணாஸ	-12.1711
▁பரியோஸானகல்யாண	-12.1712
லபி	-12.1712
▁மோச	-12.1713
பரியேஸனங்	-12.1716
▁மாரெத்வா	-12.1718
த்தாரம்மணோ	-12.1719
▁பணீததரோ	-12.1719
முஹுத்த	-12.1722
▁பாபியோ	-12.1723
▁அஜபால	-12.1725
▁கரணீய	-12.1726
▁ஜீர	-12.1726
கம்மந்தோ	-12.1729
▁உஸ்மா	-12.173
▁நாம்ஹி	-12.173
▁பேம	-12.173
▁எத்தகானி	-12.1732
▁பஸன்னசித்தா	-12.1733
▁ஜிவ்ஹாயதனங்	-12.1733
அனாகா	-12.1734
▁ஸச்சேஸு	-12.1734
▁ஜானநங்	-12.1734
86	-12.1734
69	-12.1735
▁29	-12.1736
வஸானி	-12.1736
னிவிஸ்ஸ	-12.1738
▁ஆருப்பே	-12.174
வந்தஸ்ஸ	-12.1741
▁கப்பி	-12.1743
வினயா	-12.1743
கூடா	-12.1743
வுத்தே	-12.1743
பாலி	-12.1746
▁மானே	-12.1746
80	-12.1749
வண்ணே	-12.1751
ப்பலாபா	-12.1752
ரமந்தி	-12.1753
▁பஸ்ஸந்தானங்	-12.1753
காலிகங்	-12.1754
▁பரிம	-12.1754
▁தன்னி	-12.1755
▁ஏகந்ததோ	-12.1756
▁ஸம்பராயிக	-12.1757
வாசோ	-12.1759
▁அதிக்கந்தோ	-12.176
ராஜங்	-12.1761
▁பீதங்	-12.1761
▁ஆபஜ்ஜதீ	-12.1762
▁பரிஹாரோ	-12.1764
லவங்	-12.1766
▁298.	-12.1767
▁விரதியோ	-12.1767
ண்ஹாஹி	-12.1768
▁மமேவ	-12.1771
னுப்ப	-12.1772
▁மஹோக	-12.1773
▁காயவாசா	-12.1773
ஸ்ஸஸீதி	-12.1775
▁ஸஸங்க	-12.1778
னபஞ்ஹோ	-12.178
▁மனுஸ்ஸத்தங்	-12.1781
னஸம்பயுத்தோ	-12.1781
▁புக்குஸ	-12.1782
ஸமூஹோ	-12.1782
▁படிபன்ன	-12.1784
▁306.	-12.1784
பச்சயபா	-12.1786
மஹித்	-12.1788
▁படிஸல்லான	-12.179
▁ரத்தியங்	-12.1791
னுப்பத்தி	-12.1792
▁படிஹஞ்ஞதி	-12.1793
▁அனுஸிட்ட	-12.1795
ஸரீரே	-12.1795
விச்சே	-12.1797
ந்தபோன	-12.1799
▁ஸோதவிஞ்ஞாணங்	-12.1801
▁விபுலா	-12.1801
ஸாரீ	-12.1802
ஸெந்தீ	-12.1802
யதேதி	-12.1803
▁பச்சயேன	-12.1804
வாராவஜ்ஜன	-12.1804
னக்கீதா	-12.1806
▁ஸம்மதோ	-12.1806
▁330.	-12.1807
விபரீத	-12.1809
▁சராமி	-12.181
▁ஸங்ஸரித்வா	-12.1812
▁முதூ	-12.1813
▁ரஸ்ஸங்	-12.1813
ண்ஹிங்ஸு	-12.1814
▁ஆபஜ்ஜெய்யாதி	-12.1815
▁நிவாரேதி	-12.1816
ஸமுஜ்ஜல	-12.1817
▁அவிஞ்ஞாத	-12.1817
ஸேபி	-12.1818
▁பரிவத்தே	-12.182
▁பலாயித்வா	-12.1822
தொம்ஹி	-12.1822
▁மமாய	-12.1825
ஓபா	-12.1829
மனஹேது	-12.1831
▁யாமே	-12.1831
பெந்தேன	-12.1834
▁வண்ணயிஸ்ஸாம	-12.1839
▁அசரி	-12.1839
▁பாராஜிகேன	-12.184
▁ஸீஹப்	-12.1844
▁லம்ப	-12.1847
ஜீவி	-12.1848
ரியஸங்வரோ	-12.1848
தபச்சுப்பன்னங்	-12.185
▁அகரணங்	-12.185
▁ரஜ்ஜதி	-12.1851
▁ரத்தங்	-12.1854
▁உஸ்ஸாஹோ	-12.1855
▁ஸங்வண்ணேத	-12.1855
மவஸேன	-12.1857
வாரானி	-12.1858
▁வஸ்ஸஸத	-12.1859
▁பச்சேதி	-12.1859
ரணஞ்ச	-12.1859
▁பவரங்	-12.1859
▁நமஸ்ஸந்தி	-12.186
தானஞ்ச	-12.186
▁விஸ்ஸஜ்ஜித	-12.1861
▁பவாள	-12.1861
▁விப்பயோக	-12.1862
▁நெய்யங்	-12.1862
திண்ணங்	-12.1862
▁சோரே	-12.1863
ஜனநத்த	-12.1865
▁அனுவத	-12.1866
▁யஞ்ஞத	-12.1866
▁ஹத்தோ	-12.1867
▁நியக	-12.1868
▁283.	-12.1868
ஸஸங்கா	-12.187
மச்சே	-12.1871
▁ஸுஸமார	-12.1873
▁நெய்ய	-12.1874
ஜ்ஜனங்	-12.1875
பீயதி	-12.1876
ஹீதா	-12.188
▁ஸாமோ	-12.1882
மாவ	-12.1884
▁307.	-12.1884
ஸாஹி	-12.1888
▁கிச்சானி	-12.1888
கோடியா	-12.1889
ுப்பாதா	-12.1894
ஸிங்க	-12.1898
மேஸி	-12.1901
▁ஸலாகா	-12.1902
▁ஸமுப	-12.1902
▁ஸப்புரிஸானங்	-12.1903
▁ஸத்தாஹே	-12.1905
▁வுத்தாய	-12.1907
ஞ்ஞானி	-12.1908
மபெக்க	-12.1908
▁காயவாசாசித்ததோ	-12.1908
▁ஸமாபஜ்ஜாமி	-12.1908
ஸ்ஸாவி	-12.1908
▁ஆதாபினோ	-12.1908
▁347.	-12.1909
ஸ்ஸினோ	-12.1909
▁328.	-12.191
▁கஞ்ஞாய	-12.1911
கரணீயா	-12.1911
▁நிபச்சந்தே	-12.1912
▁ஸமுக்கட்ட	-12.1913
▁ஏககோ	-12.1915
பாளியங்	-12.1917
ளேன	-12.1918
▁கரிஸ்ஸஸி	-12.1918
▁ஸமானாதி	-12.1918
னானிரோத	-12.1919
மிஞ்ஜங்	-12.1919
▁ஸீலவிபத்தியா	-12.192
தியததிய	-12.192
▁வீஸதியா	-12.1921
▁அப்படிகா	-12.1921
▁நிவாஸன	-12.1922
தங்யேவ	-12.1922
விமங்	-12.1923
▁ஸரணேஸு	-12.1923
▁ஜோ	-12.1926
னிருத்	-12.1932
▁தஸ்ஸபாபியஸிகா	-12.1933
ண்ஹதி	-12.1935
லபு	-12.1935
வட்டா	-12.1936
பெந்தங்	-12.1937
விகப்பே	-12.1937
▁ஆமக	-12.1937
வபூ	-12.1939
▁பீளிதோ	-12.194
▁குக்குர	-12.1941
▁நாரி	-12.1942
வீதிக்கம	-12.1942
ஸங்வேக	-12.1942
51	-12.1944
▁தக்கோ	-12.1945
மஸ்ஸு	-12.1946
▁அலங்கதா	-12.1948
▁ஸதிவினயோ	-12.1948
57	-12.1949
▁விஸேஸபா	-12.1949
▁கப்பியாகப்பிய	-12.1952
▁அகாஸீதி	-12.1954
▁343.	-12.1954
தபராமாஸோ	-12.1954
▁ஆஸனேன	-12.1955
▁ஸச்சந்தி	-12.1955
ரஹ்மசரியந்தி	-12.1957
வாசாய	-12.1959
▁ஹீனே	-12.1961
▁விப்பயுத்த	-12.1961
ஜாலா	-12.1963
▁அதீதாதி	-12.1963
▁மனோப	-12.1963
▁பஹிணி	-12.1964
▁ஜாது	-12.1965
ரீயதீதி	-12.1967
▁ரஜதங்	-12.1967
▁பஞ்ஞாபெத்வா	-12.197
▁பரிவஜ்ஜ	-12.197
வேகல்ல	-12.197
சங்கம	-12.1974
▁அனுவிச்ச	-12.1974
▁ஸமாஹித	-12.1975
ஜ்ஜனே	-12.1976
ஸம்படிச்ச	-12.1976
▁பரித்தாரம்மண	-12.1976
▁மாதிதோ	-12.1984
▁பாஸாணே	-12.1988
மாதுகா	-12.1989
▁தாவதா	-12.1989
▁ஸுவே	-12.199
▁ஓஜ	-12.199
னீஸு	-12.199
▁ஆஸீ	-12.1991
▁நானத்தா	-12.1991
▁299.	-12.1992
ாரப்	-12.1992
▁அனுபத்	-12.1993
▁301.	-12.1996
அனுப	-12.1996
ப்பதீ	-12.1998
▁ஸிரியா	-12.1999
▁ஜீரதி	-12.1999
ஸ்ஸெய்ய	-12.2
▁தஸ்ஸாயேவ	-12.2008
▁பாபேதி	-12.2008
▁ஸக்கார	-12.201
▁பரிஞ்ஞெய்ய	-12.201
ஸ்ஸிதோதி	-12.2011
ரேனேவ	-12.2012
▁வேமத்ததா	-12.2012
ரய்ஹங்	-12.2013
▁பச்சாஜாயந்தி	-12.2013
▁366.	-12.2013
ம்மகம்மஸஞ்ஞீ	-12.2014
▁ஆஸவங்	-12.2014
ரீஹி	-12.2017
▁வேஸியா	-12.2018
▁பஞ்ஹாபுச்ச	-12.2018
மமஹா	-12.2019
▁அஞ்ஞதரஞ்ஞதரேன	-12.2019
▁ஸீதல	-12.2019
னநங்	-12.202
▁நனேவ	-12.202
▁யாசந்தி	-12.2021
▁விப்படிஸாரீ	-12.2021
ஸெய்யாத	-12.2023
▁அரியகந்தேஹ	-12.2025
▁சதுஸமுட்ட	-12.2025
▁ஸூரா	-12.2025
ணஸி	-12.2027
ஸாலோ	-12.2029
▁294.	-12.2033
ரூபேஸு	-12.2035
▁கிலேஸகாமே	-12.2035
▁ஆபாயிகோ	-12.2035
▁இணங்	-12.2036
▁ஆரம்மணானி	-12.2037
யுத்தி	-12.2038
மாருப்ப	-12.2039
▁ஜிவ்ஹாவிஞ்ஞாணங்	-12.2039
▁அபராமட்ட	-12.204
▁லேப	-12.204
யாபத்தி	-12.2043
ரிகாய	-12.2043
▁யோஜனானி	-12.2044
ஸவாரே	-12.2044
ஸவாரவண்ணனா	-12.2046
▁காஸிக	-12.2047
▁ஆயுனா	-12.205
▁உபஸங்கமதி	-12.205
▁ஸபத்த	-12.2054
▁லூ	-12.2054
▁அஸுசிங்	-12.2055
▁ஸரீரதோ	-12.2056
▁அம்மா	-12.2059
▁அகுஸலமூலே	-12.2059
▁பரியேஸன	-12.206
▁படிஞ்ஞாதகரணங்	-12.206
னுரக்க	-12.206
▁மஹிங்ஸ	-12.2062
சம்மங்	-12.2064
சித்தக்க	-12.2064
▁ரஸ்ஸா	-12.2067
▁ஏகபி	-12.2068
▁ஜாதந்தி	-12.2069
பெந்தா	-12.2069
▁சரந்தா	-12.207
ஸிங்கீ	-12.207
த்தவஸேன	-12.2072
▁வேரீ	-12.2072
ருஹி	-12.2074
▁பாபுணாதீதி	-12.2074
▁உப்பன்னந்தி	-12.2076
▁27	-12.2076
வேயேவ	-12.2079
வாசி	-12.2082
▁கிச்சதோ	-12.2084
▁310.	-12.2085
▁பச்சுப்பன்னஸ்ஸ	-12.2088
▁நங்ம்ஹி	-12.2088
▁கம்மஜ	-12.2089
▁இஸிப	-12.209
ருனா	-12.209
▁கோணா	-12.2091
காரவஸேன	-12.2092
ஹும்பி	-12.2093
▁பூஜேத	-12.2093
▁படினிவத்த	-12.2095
யுதங்	-12.2098
ம்மவசனங்	-12.2099
ஹனதோ	-12.2105
▁நாக்	-12.2106
▁அவுட்ட	-12.2108
▁ஹிரஞ்ஞ	-12.211
▁ஸம்பஜஞ்ஞங்	-12.211
▁யேனேவ	-12.2111
▁ஸவிதக்கா	-12.2112
▁பவத்தேஸி	-12.2112
▁விபுலேன	-12.2113
▁ஸம்மஜ்ஜ	-12.2114
▁நுப்பஜ்ஜந்தி	-12.2119
▁அஸம்மோஸாய	-12.212
▁விஹரந்தங்	-12.2121
▁341.	-12.2121
▁ஞாணவிப்பயுத்த	-12.2121
ஸ்ஸிதே	-12.2121
▁ஸீலவந்தே	-12.2122
னாடா	-12.2124
▁அஸல்லக்க	-12.2125
▁திண்ணம்பி	-12.2126
▁குருமானோ	-12.2126
▁பரிமுச்சதி	-12.2127
▁362.	-12.2127
தரேஹி	-12.2128
▁பிதிதோ	-12.2128
▁அபாகட	-12.213
▁கல்யாணே	-12.2131
காமதாய	-12.2131
▁பிஸாச	-12.2132
▁137	-12.2133
▁பூரேதி	-12.2134
▁கப்பஸதே	-12.2134
▁நமே	-12.2135
னானு	-12.2136
▁பரிவேண	-12.2136
▁ஆஸய	-12.2138
ஹிதபா	-12.2139
▁அந்தரஹிதோ	-12.2141
▁ஜஹ	-12.2143
▁304.	-12.2144
உப்ப	-12.2145
▁திணகட்ட	-12.2145
▁பேதானங்	-12.2145
▁மணிங்	-12.2146
மச்சு	-12.2147
ஸக்காரஸிலோகோ	-12.2148
ப்பத	-12.2148
▁நிலீய	-12.2149
▁ஸமிஞ்ஜித	-12.2149
▁மனா	-12.2149
▁ஆணி	-12.2149
▁பவாரித	-12.215
ஞ்ஞாஸு	-12.2151
▁திணஸந்த	-12.2151
ப்பஞ்ஞா	-12.2152
▁பவிஸெய்ய	-12.2152
▁லோமஹங்ஸ	-12.2153
▁ஓஹாய	-12.2154
▁ஆகிர	-12.2154
▁அஞ்ஞவாத	-12.2156
காமேன	-12.2156
லகதா	-12.2157
▁அரஞ்ஞா	-12.2159
▁ஸமேச்ச	-12.2159
▁282.	-12.216
▁ஸீலவந்தோ	-12.216
னீயேன	-12.2162
▁உபதிட்ட	-12.2164
ன்னசீவர	-12.2166
▁334.	-12.2167
ரஸந்தி	-12.2167
னாவஸேன	-12.2169
▁ஜினஸாஸனே	-12.217
ஸகட	-12.217
யதனா	-12.2171
ணஞ்ஞேவ	-12.2171
ரூஸி	-12.2174
யிமே	-12.2175
▁அப்படிபா	-12.2176
தஞாணத	-12.2182
▁ஜேதவன	-12.2182
▁25	-12.2182
▁நியாமக	-12.2183
▁ஜிவ்ஹங்	-12.2184
முத	-12.2185
▁விதத	-12.2187
ப்பேதந்தி	-12.2189
▁ஸுஸானங்	-12.2191
ஜாதக	-12.2193
▁சரதீதி	-12.2196
▁அயோனிஸோமனஸிகார	-12.2197
▁நிஸஜ்ஜா	-12.2199
▁பஸ்ஸேன	-12.22
▁வண்ணிதங்	-12.2201
▁மூள்ஹஸ்ஸ	-12.2201
ஸேத	-12.2201
▁290.	-12.2203
▁ஸுஸான	-12.2203
▁ரஜ்ஜேன	-12.2204
▁சிந்திதா	-12.2206
யஞாண	-12.2209
▁பரியத்தித	-12.2211
பரிவாஸோ	-12.2212
▁அனிப்ப	-12.2214
ஸன்னிப	-12.2214
இமேஹி	-12.2215
பராயணா	-12.2215
▁அனப்பகங்	-12.2216
ஜிங்ஸு	-12.2217
▁குமாரிகா	-12.2222
▁297.	-12.2224
▁அப்போ	-12.2225
▁க்வசீதி	-12.2226
▁காமயோக	-12.2226
▁ஏகூனபஞ்ஞாஸ	-12.2227
▁காஸாயானி	-12.2227
▁ஸ்மினோ	-12.2227
லபீ	-12.2228
▁318.	-12.2228
▁ஏஸோஹமஸ்மி	-12.2228
▁கரண்ட	-12.2228
▁சீவரா	-12.2228
ஸஞ்ஞிதங்	-12.2229
▁பரிஹா	-12.2229
▁326.	-12.2229
நீல	-12.2231
▁அவிஸங்வாத	-12.2235
ஸத்தேஸு	-12.2235
▁ஸுபரி	-12.2236
▁பணீததரஞ்ச	-12.2237
▁353.	-12.2238
▁மனோகம்ம	-12.224
ெந்து	-12.224
யபுப்	-12.224
▁ஜினஸாஸனங்	-12.2242
▁தேவிஜ்ஜ	-12.2242
▁ஸஞ்சேதனிக	-12.2242
▁ஸ்வாஹங்	-12.2244
▁ஓலோகேஸி	-12.2245
▁ஸரூபங்	-12.2247
▁குஸலமூல	-12.2247
▁ஜினாதி	-12.2248
னஸீலா	-12.2249
ரஜோ	-12.225
▁உபனாஹோ	-12.2253
68	-12.2253
விபரிணாம	-12.2259
▁வினயகம்ம	-12.2259
▁காரிய	-12.2259
ஹுலாதி	-12.226
ல்யா	-12.226
▁பரியேஸி	-12.2261
▁ஜாதித	-12.2261
செ	-12.2261
▁பரிஸ்ஸய	-12.2265
▁ஸஞ்ஞினோ	-12.2266
▁லஜ்ஜா	-12.2268
ணேபி	-12.2271
▁கம்மந்தா	-12.2271
த்தனோ	-12.2273
ரஹ்மசாரி	-12.2273
▁பஜானதோ	-12.2277
கிண்ணே	-12.2278
▁விஞ்ஞூஹீ	-12.2279
பூஜாய	-12.228
▁திலிங்க	-12.2281
மனீயா	-12.2281
▁நீவரணங்	-12.2281
▁ஆஹாரபச்சயா	-12.2282
கஸ்மிங்	-12.2283
▁உப்பஜ்ஜிஸ்ஸந்தீ	-12.2284
ண்ஹோ	-12.2285
▁அபச்சக்க	-12.2289
▁உப்ப	-12.2291
ரஹ்மங்	-12.2293
▁பவத்தாய	-12.2293
▁பரிஞ்ஞாத	-12.2295
ஆஜீவ	-12.2295
▁அகுஸலசித்த	-12.2297
▁விஹரந்தே	-12.2297
வஜ்ஜன	-12.2299
▁விஜ்ஜாய	-12.2299
தத்தோ	-12.23
னுஸயா	-12.2301
▁வேரமணி	-12.2302
துச்சே	-12.2302
தகாலோ	-12.2303
▁லஜ்ஜ	-12.2303
சத்தாரி	-12.2304
ளீகாராஹார	-12.2304
▁விஹஞ்ஞ	-12.2309
▁ஸங்வாஸங்	-12.2311
▁தங்ஸம்பயுத்தா	-12.2311
▁விலப	-12.2311
▁மஹாவிஹார	-12.2312
▁277.	-12.2316
▁லஸுண	-12.2317
ஸரீரா	-12.232
▁ஆஸேவித	-12.2321
▁பாபேன	-12.2321
▁காயசி	-12.2325
▁விஸாரத	-12.2328
▁அனோகாஸ	-12.2328
▁முனினா	-12.233
▁தோதெ	-12.2331
தகாலதோ	-12.2334
மஹாதே	-12.2334
சித்தஸமங்க	-12.2335
▁உபக்கிலிட்ட	-12.2336
னிவிஸித்வா	-12.2336
னுத்தரியங்	-12.2336
▁350.	-12.2336
▁அபரியாபன்ன	-12.2336
▁அனாவாஸா	-12.2336
▁வஸ்ஸங்வுட்ட	-12.2337
▁விபஸ்ஸி	-12.2337
19	-12.2338
▁335.	-12.2339
ரேஹீதி	-12.2341
▁படினிஸ்ஸஜ்ஜதி	-12.2342
▁அசரிமங்	-12.2342
▁ஸலாகங்	-12.2342
ஞ்ஞாப	-12.2344
▁ஸஹா	-12.2345
▁ஆயதிஞ்ச	-12.2349
▁கண்டோ	-12.2349
▁ஹாஸோ	-12.235
ம்மவினயங்	-12.2357
▁தங்யேவ	-12.2359
வாரதோ	-12.236
▁பக்கமந்தி	-12.2364
ஸாபெத்வா	-12.2364
ந்தம்பி	-12.2368
▁302.	-12.2369
யெய்யானி	-12.2371
▁பணீதோ	-12.2371
▁லேணங்	-12.2372
▁விஹரத	-12.2373
▁ஹேதுபா	-12.2373
வேஸேன	-12.2374
ரஜ்ஜங்	-12.2374
ஸ்ஸாயதன	-12.2375
வஸ்ஸஸஹஸ்ஸானி	-12.2376
மனஞ்ச	-12.2376
▁மெத்தி	-12.2377
மனஸ்ஸா	-12.2378
ஸினோ	-12.2378
ஸம்மத	-12.2379
▁வேலா	-12.2379
▁அந்தராயங்	-12.238
▁ஜினா	-12.2382
ரத்து	-12.2382
▁பஸ்ஸாமீதி	-12.2383
▁பாடிஹாரிய	-12.2384
▁ஸம்பத்தா	-12.2385
▁1-2.	-12.2385
▁நமஸ்ஸி	-12.2385
▁அவட்டி	-12.2391
▁நிய்யாதெ	-12.2391
லஸமாபத்திங்	-12.2393
▁பரிச்சஜி	-12.2394
பரிவட்ட	-12.2394
சாதி	-12.2395
▁ஸானு	-12.2398
பதினோ	-12.2401
திக்கமோ	-12.2405
▁அவிமுத்த	-12.2406
▁அக்கோஸி	-12.2409
ஸ்யா	-12.2412
▁படினிஸ்ஸட்ட	-12.2413
ரூள்ஹ	-12.2414
▁சேதோகி	-12.2415
▁துல்யாதி	-12.2416
▁ஸேலா	-12.2416
விஸ்ஸா	-12.2417
▁288.	-12.2417
ஜனீயகம்மங்	-12.2417
▁மூலட்ட	-12.2417
உத்தம	-12.2418
▁விலும்ப	-12.2421
தஸுத்தங்	-12.2421
▁295.	-12.2421
▁311.	-12.2423
▁விபஸ்ஸனாவஸேன	-12.2426
மவயே	-12.243
ஸந்திகே	-12.2437
▁ரந்த	-12.2437
▁பரித்தஸ்ஸ	-12.2438
▁ஸங்ஸாரங்	-12.2438
▁கப்பியே	-12.244
ட்டெத்வா	-12.2441
▁ஸாகச்ச	-12.2441
எத்தகங்	-12.2443
புரிந்த	-12.2445
▁ஸத்தாஹகரணீயேன	-12.2446
▁351.	-12.2446
▁மஸாரக	-12.2446
▁289.	-12.2446
▁நிரபெக்க	-12.2447
▁படிஸரணங்	-12.2448
▁த்வமஸி	-12.2448
த்துபாஹன	-12.2449
ஞ்ஞாதா	-12.2449
▁ஸக்கதோ	-12.245
ணத்	-12.245
விகதி	-12.2451
▁சரந்தஸ்ஸ	-12.2452
▁அஞ்ஞேஸம்பி	-12.2452
ப்பலாப	-12.2453
குடியங்	-12.2453
ேஹேவ	-12.2455
▁ததியேன	-12.2455
ம்மகம்மஞ்ச	-12.246
ஸிரி	-12.246
ரஹ்மசக்க	-12.2461
▁பேஸித	-12.2462
▁வண்ணயந்தி	-12.2463
விபுல	-12.2464
ச்சேன	-12.2465
▁உபாயாஸோ	-12.2465
▁ஸக்கேஸு	-12.2466
ரிப்	-12.2466
▁மஞ்சங்	-12.2469
ங்பாஹங்	-12.2469
▁மயூர	-12.2469
மிஸ்ஸங்	-12.2471
▁ஸக்யபுத்தோ	-12.2472
▁ஸகஸக	-12.2475
▁ரூபாயதன	-12.2477
▁விசினந்தோ	-12.2478
மானேஹி	-12.2478
லருக்க	-12.2478
▁பரிபாக	-12.2478
ஞ்ஜோ	-12.2479
▁ஸரூபேன	-12.2479
▁அசேதஸிகோ	-12.2479
ஸ்ஸிதாதி	-12.248
ராஜே	-12.2482
▁ஆசரியவாத	-12.2482
தனயேன	-12.2483
▁பஞ்ஞாயித்த	-12.2484
யஞ்ஜனதோ	-12.2485
▁அஸஞ்ஞஸத்தே	-12.2486
▁குஸலாகுஸலங்	-12.2486
ன்ஹிக	-12.2487
▁வித்தி	-12.2488
▁இஸிக	-12.2488
ஸரூப	-12.2489
த்தாரம்மணங்	-12.2489
ஹபதீ	-12.249
▁ஸேவால	-12.249
▁யாசயோக	-12.2491
▁சதுபச்சய	-12.2494
வாமி	-12.2494
▁விபாகோதி	-12.2495
▁ஸஸ்ஸு	-12.2495
ஞ்ஞுனோ	-12.2496
▁பஞ்ஞாயேத	-12.2496
சன	-12.2497
▁லிம்பதி	-12.2497
▁விமுத்திஸுக	-12.2498
▁ஏகுப்பாத	-12.2498
னிச்சங்	-12.2499
ஸ்ஸஸம்பயுத்தோ	-12.25
ஸ்ஸானங்	-12.25
▁அமனாபா	-12.2503
னபச்சுபட்ட	-12.2503
வினிமுத்த	-12.2504
▁முஸாவாதே	-12.2504
▁குஸலவிபாக	-12.2506
▁அசேதஸிக	-12.2508
வஸம்பி	-12.2508
▁அவட்	-12.2509
ரஹ்மாதி	-12.251
▁வஸந்தஸ்ஸ	-12.2511
▁மாதர	-12.2512
▁அரூபாவசரோ	-12.2515
▁ஸாமணேரங்	-12.2515
வண்ணனானயோ	-12.2516
▁ரூபக	-12.2517
▁அபேத	-12.2519
▁கயிராத	-12.2519
பெய்யங்	-12.2519
ராஜகாலே	-12.2522
ஸஹஜாதா	-12.2522
▁மமந்தி	-12.2522
▁ஆயுஸங்க	-12.2523
யுத்தகங்	-12.2524
▁ஹனி	-12.2524
இச்சாயஸ்மா	-12.2525
▁குஸலானி	-12.2526
ஸ்ஸினா	-12.2526
▁மனஸிகாரா	-12.2526
▁ஸங்யுத்தனிகாய	-12.2527
▁விஞ்ஞாணேன	-12.2529
▁பேஸலா	-12.2529
▁அஹேதுகே	-12.253
▁கம்மதா	-12.2531
▁அனுலோமதோ	-12.2532
▁அனுத்தரே	-12.2533
ணிகாய	-12.2533
▁நிம்மல	-12.2533
சரியேஹி	-12.2534
▁அஞ்ஞாதி	-12.2535
▁மெத்தாஸஹ	-12.2537
▁287.	-12.2538
▁பன்னரஸே	-12.254
▁ரூபஸ்மிங்	-12.2541
▁மனுஸ்ஸத்த	-12.2543
▁ரோதி	-12.2546
ரஹதி	-12.2548
▁அனவஜ்ஜங்	-12.2548
▁எய்ய	-12.255
▁ஆஸீவிஸ	-12.2551
▁விதீ	-12.2551
காராக	-12.2552
வனாமய	-12.2554
▁வேளுரிய	-12.2556
▁அயமாஹாரோ	-12.2557
▁356.	-12.2557
▁வினிவிஜ்ஜ	-12.2557
▁நிமுஜ்ஜ	-12.2558
▁ஸஹம்பதி	-12.2558
▁நிபதித்வா	-12.2558
▁348.	-12.2558
▁346.	-12.2558
▁340.	-12.2558
▁மதீ	-12.2559
அஸீதி	-12.2559
பாடே	-12.256
▁நிபஜ்ஜதி	-12.256
▁339.	-12.256
▁336.	-12.256
அனந்தர	-12.256
▁காயசித்தானங்	-12.2561
னாமகங்	-12.2561
▁வீமங்ஸித்வா	-12.2562
▁374.	-12.2563
▁மாலங்	-12.2566
▁ஸபோ	-12.2568
ரம்மணானி	-12.257
▁பஸாரே	-12.2571
▁அனத்தாதி	-12.2572
ஸத்தோபி	-12.2573
னிஸ்ஸிதோ	-12.2573
லானாய	-12.2574
▁அஹித	-12.2575
▁விசாரித	-12.2578
88	-12.2578
▁உபாரம்ப	-12.2579
▁உபசாரோ	-12.2579
கண்டே	-12.2579
▁அஞ்ஞத்தா	-12.2581
மத்தாய	-12.2582
ரம்மணத்தா	-12.2584
▁வினயா	-12.2584
▁அஸங்வரோ	-12.2585
ஜீவா	-12.2585
▁பமொக்க	-12.2585
16	-12.2588
▁வினயட்ட	-12.2589
லவந்தோ	-12.2589
ஞ்ஜிஸ்ஸாமீதி	-12.2589
▁கண்ஹங்	-12.259
▁பூதிக	-12.2591
▁ஞாதயோ	-12.2592
▁மூலதோ	-12.2593
▁பரிஞ்ஞெய்யா	-12.2596
ந்தரக	-12.2598
உபசார	-12.2599
கிச்சேஸு	-12.2603
▁293.	-12.2603
▁நஸுக	-12.2604
மானீ	-12.2604
▁விவரெய்ய	-12.2607
ரவாஸினோ	-12.2607
▁தனுக	-12.2608
காரத்தா	-12.2609
லோபி	-12.2611
▁பீதா	-12.2611
▁நியாமங்	-12.2612
வனாவஸேன	-12.2613
▁சரந்தங்	-12.2614
அதீத	-12.2616
ருனோ	-12.2616
▁யஞ்ஞோ	-12.2618
யஞ்ஜனானி	-12.2619
▁அப்பமத்தஸ்ஸ	-12.262
பரிகப்ப	-12.2621
▁ஸமுபா	-12.2621
▁தாவதிங்ஸானங்	-12.2622
▁விஸேஸா	-12.2623
▁ரஞ்ஞங்	-12.2624
அத்தனா	-12.2625
▁பஸாரிதங்	-12.2628
▁விமல	-12.263
ஜ்ஜிதங்	-12.2633
ப்பகாரங்	-12.2634
▁அரூபா	-12.2634
▁அனக்	-12.2636
▁பூரே	-12.2638
யேனாபி	-12.2639
பரியாயோதி	-12.2639
▁ஸுத்தந்தங்	-12.2642
வ்ஹய	-12.2644
ஹணாதி	-12.2646
▁ஸிவங்	-12.2649
▁நச்சந்தி	-12.265
▁ஆயதனே	-12.2651
▁நஹேதுவிப்பயுத்த	-12.2651
மதிகோ	-12.2652
▁திசீவரேன	-12.2653
▁மனோபா	-12.2653
மாயு	-12.2655
▁விஸமங்	-12.2655
ஹச்ச	-12.2655
▁332.	-12.2658
▁படிஸேவி	-12.2658
▁275.	-12.2659
ப்பமாணேன	-12.266
▁வினீத	-12.266
▁285.	-12.2662
▁ருதா	-12.2664
தியப	-12.2665
அஸங்க	-12.2665
▁309.	-12.2666
▁முஞ்ஜ	-12.2667
▁பச்சஸ்ஸோஸி	-12.2669
ஹுஜனஹிதாய	-12.2669
▁பஹிதத்தஸ்ஸ	-12.2669
▁ஜீவோ	-12.2669
▁ஸங்கப்பமஞ்ஞாய	-12.2669
▁வெய்யாகரண	-12.2669
பரிணாமிங்	-12.2669
வுத்தஸ்ஸ	-12.2669
▁308.	-12.267
▁316.	-12.267
▁286.	-12.267
▁கப்பியப	-12.267
▁பப்போ	-12.267
▁விஸங்யுத்தோ	-12.267
கனிபாதே	-12.2671
▁விவித்தங்	-12.2671
▁327.	-12.2671
▁பூரண	-12.2671
60	-12.2672
▁337.	-12.2673
▁338.	-12.2673
▁பவெச்ச	-12.2674
காமஸ்ஸ	-12.2674
▁மஞ்ஞாமி	-12.2677
▁அனூப	-12.2677
▁அவஜ்ஜ	-12.2682
▁ஸட	-12.2683
கம்மமகரிங்	-12.2684
ஜனீ	-12.2684
▁களேவர	-12.2688
▁கிமகாஸி	-12.2689
▁பேஸி	-12.269
னிமித்தானி	-12.2691
▁ஸவிதக்க	-12.2693
▁மாதிகாய	-12.2694
▁வச்சமக்	-12.2694
ஸவிதா	-12.2694
ரதிங்	-12.2695
கஹாபண	-12.2698
▁மூ	-12.2699
▁ஸம்பாபுணி	-12.2702
▁அச்சய	-12.2703
ஸமயங்	-12.2704
▁நாமபச்சயா	-12.2704
▁அகத்த	-12.2705
மச்சா	-12.2708
▁கலஹோ	-12.2709
ஓவாத	-12.2711
▁பகதத்தேன	-12.2712
ஞ்ஞத்த	-12.2712
▁எத்தாவதாபி	-12.2714
▁அஸ்ஸாஸபஸ்ஸாஸான	-12.2716
▁பாலேதி	-12.2717
விஜ்ஜாய	-12.2718
▁ருசிங்	-12.2719
மிதப்	-12.272
▁விரஜ்ஜி	-12.2724
குஸலத	-12.2727
▁ரமணீய	-12.2728
▁ஸமனந்தரா	-12.2732
▁ஸுஜாத	-12.2732
மிஸ்ஸதீ	-12.2732
பத்தீதி	-12.2733
ப்பத்தே	-12.2733
ங்ஸோதோ	-12.2734
▁குலவங்ஸ	-12.2735
ேஹப்ப	-12.2736
ரஸுத்தவண்ணனா	-12.2737
த்தஸுத்தவண்ணனா	-12.274
▁அபுச்ச	-12.274
னாயாதி	-12.2746
▁ஸுபண்ண	-12.2751
▁தயி	-12.2753
▁பிட்ட	-12.2755
▁நானாக	-12.2755
ஸஸஹஸ்ஸ	-12.2756
னோபி	-12.2757
▁முஹுத்த	-12.2757
▁ஆரம்மணபச்சய	-12.2758
பனியங்	-12.276
▁உண்ணா	-12.276
▁அமனாபங்	-12.2761
▁ஓக்கந்த	-12.2765
▁ஸயஞ்ச	-12.2765
▁பமுக	-12.2766
ருத்த	-12.2767
ஸமுப்பன்ன	-12.2767
னிருத்தி	-12.2767
▁324.	-12.2768
ஸனந்தி	-12.2768
யஸங்க	-12.277
▁நிமித்தா	-12.277
உத்தர	-12.277
▁323.	-12.2771
▁291.	-12.2772
ஸன்னிஸ்ஸய	-12.2773
சலன	-12.2773
▁உம்மத்	-12.2776
ஞ்ஹீ	-12.2777
▁அரியஸங்க	-12.2778
வாரகதா	-12.2778
வாரேபி	-12.2779
விஸாண	-12.2781
▁கப்பாஸ	-12.2782
▁விஸமா	-12.2782
க்கந்ததரஞ்ச	-12.2783
த்துத்	-12.2783
▁அஸாஹஸேன	-12.2783
▁ஸஞ்ஞாமனஸிகாரா	-12.2783
மாலி	-12.2784
▁நாமமூலேன	-12.2785
▁320.	-12.2785
▁நமஸ்ஸமானோ	-12.2785
▁விவஜ்ஜ	-12.2785
▁மானுஸா	-12.2787
ணகோ	-12.2788
▁அத்ரஜோ	-12.2788
▁354.	-12.2789
தேயேவ	-12.2789
▁ஏகமேகங்	-12.279
▁உபசிதத்தா	-12.2791
அஹேதுகோ	-12.2791
▁ஸங்வண்ண	-12.2792
ரிபஞ்ஞ	-12.2793
▁பேதோ	-12.2793
வோபி	-12.2794
▁கிங்பப	-12.2794
▁ஆஸேவ	-12.2795
கவாட	-12.2796
னமிவ	-12.2797
ந்துகப	-12.2801
த்தகா	-12.2801
ஹரந்தி	-12.2802
க்கர	-12.2802
▁அமதஸ்ஸ	-12.2805
▁இங்க	-12.2806
▁ஆசரியானங்	-12.2807
▁கம்மவாசாஹி	-12.2808
▁314.	-12.2808
▁மாரேதி	-12.281
விதரண	-12.2811
▁குஞ்ஜரோ	-12.2812
▁சாரித்தங்	-12.2812
▁ஸஞ்சேதனா	-12.2812
▁ஸோதாபத்தியங்க	-12.2815
▁மரணகாலே	-12.2817
▁வஜ்ஜீ	-12.2819
அங்கா	-12.282
▁அகுஸலத	-12.2821
▁காளக	-12.2822
▁நச்சங்	-12.2827
ரேவ	-12.2831
படிபன்னா	-12.2832
வேடெ	-12.2832
▁ஆஸவஸ்ஸ	-12.2832
னுத்தர	-12.2834
▁மணிரதனங்	-12.2835
ெந்தங்	-12.2836
வாயாம	-12.2838
▁சலதி	-12.2838
▁குஹக	-12.2839
ஸக்காரஸிலோக	-12.284
▁ஆதெ	-12.2841
▁உபாஹன	-12.2841
▁ஞாதிஸங்க	-12.2842
வெய்யாஸி	-12.2842
▁வண்ணாதி	-12.2844
▁ஆனந்தரிய	-12.2844
ஞ்ஜலீ	-12.2846
ஸகேன	-12.2847
▁யூ	-12.2848
▁நிய்யாதே	-12.2848
ஹுப	-12.2849
னபப்	-12.2852
▁உண்ஹோ	-12.2852
ம்மவவத்த	-12.2852
வானி	-12.2853
விவட்ட	-12.2853
▁தப்பதி	-12.2853
சித்தஞ்ச	-12.2854
▁ஆபத்தியேவ	-12.2855
னவிமொக்க	-12.2856
▁புட்ட	-12.2856
▁ரதீ	-12.2861
அஹு	-12.2862
ண்ணானி	-12.2862
▁அடவி	-12.2866
ப்பகாஸன	-12.2868
விஸேஸன	-12.2868
▁மக்கோ	-12.2874
▁ஸூசிக	-12.2874
▁இச்சேதே	-12.2874
ஸயன	-12.2875
ஞ்சே	-12.2877
▁ஸஞ்சரித்த	-12.2879
த்தெய்ய	-12.2879
வளஞ்ஜ	-12.2879
▁296.	-12.2882
▁ஹிமவா	-12.2882
▁அப்பகங்	-12.2882
யுதா	-12.2885
▁யஞ்சே	-12.2885
வுதோ	-12.2886
▁நிமந்தன	-12.2886
வாரஸ்ஸ	-12.2887
ஹேதுதாய	-12.2889
ஸல்லங்	-12.2889
ஸங்யோக	-12.289
விஞ்ஞாணஸஹ	-12.2891
▁மாஸேஹி	-12.2893
ும்பி	-12.2894
▁ஹஞ்ஞதி	-12.2896
▁வத்தமானோ	-12.2896
காளக	-12.2896
▁பூரதி	-12.2897
▁நஸமனந்தரபச்சயா	-12.2898
கனிவாபே	-12.2898
▁360.	-12.2898
▁361.	-12.2898
▁பணாமெத்வா	-12.2898
வாயாமோ	-12.2898
▁317.	-12.2898
71	-12.2898
▁349.	-12.2899
ஜோதிகாய	-12.29
▁ஜிண்ணே	-12.29
காஹி	-12.29
▁விபுலோ	-12.29
▁லஞ்ஜ	-12.2902
▁352.	-12.2905
▁கண்ணஸுக	-12.2905
ஸம்பத்தியோ	-12.2906
ஞ்ஞந்தி	-12.2907
▁அவிஜ்ஜோக	-12.2907
னஜிவ்ஹாகாய	-12.2907
▁பரேஸஞ்ச	-12.2908
ஸயதி	-12.2908
▁பச்சனீயானுலோமங்	-12.2909
▁த்யாஹங்	-12.2909
▁கதர	-12.2909
▁இமஸ்மா	-12.291
▁பரிமுத்தோ	-12.291
▁ஆஹராபெத்வா	-12.291
▁ஸப்பாயங்	-12.2912
ஸேவி	-12.2912
ஸ்ஸூதி	-12.2913
▁லோகஸ்ஸா	-12.2914
▁ஸக்யபுத்தியா	-12.2915
ருஸவாசா	-12.2915
▁யாவதிகா	-12.2915
▁மனுஸ்ஸவிக்	-12.2916
னமத	-12.2916
▁ஸிவி	-12.2917
▁சித்தஸமா	-12.2918
▁அஹேதுகஸ்ஸ	-12.2918
ப்பகாரா	-12.2919
▁பரிவஜ்ஜேதி	-12.2919
ஞாணந்தி	-12.292
அப்பிச்ச	-12.2921
▁சிரஸ்ஸேவ	-12.2921
ஸகஸ்ஸ	-12.2923
▁கண்டகோ	-12.2924
புரிஸே	-12.2926
▁கஹாபணே	-12.2926
ரூனங்	-12.2926
பரியாயங்	-12.2928
▁இமம்ஹி	-12.2928
ஜ்ஜீ	-12.2928
▁பஞ்ஞத்தீதி	-12.2929
னவிப	-12.2929
யஞ்ஜனமேவ	-12.2929
▁பவுச்சதீ	-12.293
▁312.	-12.2932
▁அனுஜானி	-12.2932
▁பச்சயதோ	-12.2933
பிதந்தி	-12.2933
▁அப்பணிஹிதோ	-12.2935
ணிதி	-12.2935
அவி	-12.2938
▁அதிமஞ்ஞ	-12.2939
ப்படிலாப	-12.2939
▁சாதுமஹாராஜிகா	-12.294
▁ஸுஸிர	-12.2941
▁உபாஸகே	-12.2943
▁க்வி	-12.2943
னுக்கமேன	-12.2943
▁விபல்லாஸா	-12.2943
னீயந்தி	-12.2944
▁ஸுவண்ணமய	-12.2948
பாணாதிபாதா	-12.2948
மானுஸ	-12.295
ரஸதி	-12.2953
▁313.	-12.2955
▁ஸாடக	-12.2956
ஸ்ஸேவாதி	-12.2956
▁ஆவிப	-12.2958
ஸமாதீ	-12.2962
▁அகுதோ	-12.2965
வினிமுத்தோ	-12.2968
ணாமி	-12.2968
▁புண்ணங்	-12.2973
▁உப்பன்னத்தா	-12.2974
▁ஸாகேத	-12.2975
னமாக	-12.2975
ஸேஸனிப்	-12.2976
▁தரந்தி	-12.2979
▁131	-12.298
▁ஸஹஜாதானங்	-12.2981
வம்பி	-12.2984
ராஜகு	-12.2986
▁அப்படிபு	-12.2987
▁கனக	-12.2989
கஸஞ்ஞா	-12.299
▁அனாரம்மண	-12.2991
▁தும்ஹேபி	-12.2991
வ்ஹங்	-12.2996
▁ஜு	-12.2996
திஆத	-12.2997
ொக்	-12.2999
▁ஆசாரகோ	-12.3
பரியந்தோ	-12.3
▁தேனாபி	-12.3001
▁ஸமாபன்ன	-12.3001
புராண	-12.3002
மஸ்மிங்	-12.3002
தாபஸோ	-12.3002
▁வுத்தப்பகாரே	-12.3006
▁130	-12.3007
ரோபன	-12.3007
▁ஹிய்யோ	-12.3008
ண்ணவ	-12.3009
▁அரஞ்ஞவனப	-12.301
▁உச்சாரங்	-12.3012
▁ஸ்வாதனாய	-12.3014
▁ஸதிவினய	-12.3014
▁367.	-12.3014
ப்பகாஸ	-12.3014
விதானி	-12.3014
கிச்சோ	-12.3017
▁உப்பத	-12.3017
ஸோஹங்	-12.3018
▁ஸுனிக்	-12.3018
▁331.	-12.3018
▁விமரியாத	-12.3018
▁வீரியஸமா	-12.3019
▁364.	-12.302
த்தசோ	-12.3021
▁ஸஜோதி	-12.3022
▁ஸுஸுமார	-12.3022
▁பூஜிதா	-12.3022
▁ஸக்காரோ	-12.3023
ரச	-12.3023
▁பனாஹ	-12.3024
டீகாயங்	-12.3024
▁யந்த	-12.3025
▁உபஸங்கமிதுங்	-12.3027
த்தசித்தோ	-12.3028
ஹஸித	-12.3029
▁ஸஜ்ஜு	-12.3031
▁ரஞ்ஜ	-12.3032
▁சதுஸ	-12.3032
ணபூ	-12.3033
னுச்ச	-12.3033
▁வினாஸேதி	-12.3035
▁பதிதோ	-12.3036
▁நிச்சப	-12.3037
▁கம்பதீதி	-12.3037
னுஸய	-12.3038
▁புர	-12.3039
▁காலங்கதா	-12.304
▁ஸசித்தகான	-12.3041
▁அனுஸ்ஸரித்வா	-12.3041
▁நிமந்தே	-12.3044
▁பமத்தா	-12.3046
ஜ்ஜமானோ	-12.3047
ரூபகா	-12.3048
▁வஜ்ஜேஸு	-12.3048
▁படிவிஜானந்த	-12.3049
▁மனோரமே	-12.3049
காரணானி	-12.305
▁மனஸிகாத	-12.305
லிய	-12.3056
புங்க	-12.3056
ஸ்ஸிங்	-12.3057
▁கரோமீ	-12.3058
ஸ்ஸாயங்	-12.3059
ரூபத	-12.306
▁அனதிரித்த	-12.3063
▁ஆணத்தியா	-12.3063
▁பிவந்தி	-12.3064
மூலிகா	-12.3065
▁அனுவாதோ	-12.3066
பத்திங்	-12.3068
▁கொட்டி	-12.3068
▁நஹேதூ	-12.3068
▁ஸமாபஜ்ஜ	-12.3069
த்திங்ஸு	-12.3069
▁விரூள்ஹ	-12.3069
பீளன	-12.3072
▁மானேன	-12.3073
வஜ்ஜிதே	-12.3074
▁ஸாமந்தா	-12.3075
மனாக	-12.3076
▁ஸம்மத்தனியாமங்	-12.3077
▁ஸாஸவங்	-12.3078
▁ரதனத்தயே	-12.3081
▁ஸுபரிஸு	-12.3081
ஸங்வத்தனிகா	-12.3083
▁ஆகாரோ	-12.3083
▁இதிஹ	-12.3083
▁ஓஸக்க	-12.3086
▁ரூபஸஞ்ஞானங்	-12.3086
கரித்த	-12.3087
▁ஸகோ	-12.3088
▁ஆயுங்	-12.3088
ஸானு	-12.3088
▁அனாசாரங்	-12.3089
ரேணு	-12.3095
வஸானே	-12.3095
விபாகஸ்ஸ	-12.3097
விஞ்ஞாணேன	-12.3097
▁காளபக்க	-12.3098
வணிஜ்ஜா	-12.3099
ஸத்தேன	-12.31
▁கடுகா	-12.3101
னானீ	-12.3101
காலேயேவ	-12.3103
▁அப்பத்தஸ்ஸ	-12.3104
வாரவஸேன	-12.3104
வஸித்	-12.3106
▁ஸாவஸேஸ	-12.3109
▁அபத்த	-12.311
அபிசா	-12.3111
தவிபா	-12.3113
படிச்சஸமுப்பாத	-12.3115
▁ஆரோசித	-12.3116
பரிஹானி	-12.3116
ஸல்லக்க	-12.3117
▁அனுலோமபச்சனீயங்	-12.3118
ஸந்தானங்	-12.3121
னஸ்ஸாதி	-12.3121
▁சக்கரதன	-12.3122
ஸ்ஸிதந்தி	-12.3123
▁நிய்யான	-12.3123
▁குஸலந்தி	-12.3124
▁நாஜ்ஜ	-12.3124
அந்தர	-12.3125
▁அவிக்கி	-12.3127
▁அனுஸ்ஸரண	-12.3127
மஸ்ஸா	-12.3128
▁ஏதாஸு	-12.3131
▁355.	-12.3132
▁365.	-12.3132
▁357.	-12.3132
▁ஆபத்திபரியந்த	-12.3132
▁நப்படிப்பஸ்ஸம்ப	-12.3132
ரோகா	-12.3132
▁அஹோஸஹங்	-12.3133
▁நாஞ்ஞத்ர	-12.3133
▁வேரஞ்ஜ	-12.3133
▁ஸுத்தந்திக	-12.3133
▁325.	-12.3134
பயித்வா	-12.3134
▁321.	-12.3134
▁நாஞ்ஞங்	-12.3135
ய்யஸத்த	-12.3135
▁தீரயித்வா	-12.3136
▁அப்பமெய்ய	-12.3137
▁கேஸமஸ்ஸு	-12.3137
▁பாரிவாஸிகேன	-12.3138
▁ஸல்லபந்த	-12.3139
▁அனிச்சந்தி	-12.3141
▁வுஸ்ஸதீ	-12.3141
▁அஸுரிந்த	-12.3142
▁ஸஹேதுகஞ்ச	-12.3144
ஆரஞ்ஞக	-12.3145
▁வினயபிடகே	-12.3146
▁ஸுவண்ணபா	-12.3146
அதீதங்	-12.3147
வனபுங்ஸக	-12.3148
ரஸானங்	-12.3148
த்தெந்தி	-12.3149
பஞ்சகே	-12.3151
▁ஏதேஹீதி	-12.3152
த்துபரமோ	-12.3152
▁தத்ரேவ	-12.3152
▁ஸம்மத்தனியதோ	-12.3153
▁மஹாஸாவஜ்ஜோ	-12.3155
ரிகஸ்ஸ	-12.3155
▁புரேஜாதபச்சயோ	-12.3156
▁வத்தேதி	-12.3157
ருட்டா	-12.3158
▁அதீதாரம்மணோ	-12.3161
▁நிய்யாத	-12.3162
பரிவாரா	-12.3165
▁அஸஞ்ஞஸத்த	-12.3166
அனுபா	-12.3166
▁விஞ்ஞுனா	-12.3167
னிவாஸஞாண	-12.3169
▁வேமதிகஸ்ஸ	-12.317
▁வாயமி	-12.3171
▁பரித்தாரம்மணா	-12.3171
ம்யதே	-12.3171
ிமானி	-12.3172
▁ஸாவகேஹி	-12.3172
▁ஜானந்தா	-12.3173
▁பவேணி	-12.3174
▁அபஸ்ஸங்	-12.3174
▁தும்ஹாக	-12.3178
ஸித்தோ	-12.3179
ஸ்ஸிதத்தா	-12.318
50	-12.3181
▁ரூபியங்	-12.3181
ந்தரேன	-12.3183
▁வஜே	-12.3184
கம்முனா	-12.3186
ஹபதிஸ்ஸ	-12.3186
▁விஸால	-12.3186
▁அபரிபூர	-12.3186
வரேன	-12.3188
வேட	-12.319
பமோ	-12.3191
▁ஆவரண	-12.3191
வஸேஸங்	-12.3193
▁கேசீதி	-12.3193
▁ஹேதா	-12.3194
காரானங்	-12.3198
ஸ்ய	-12.3198
▁அப்பணிஹிதங்	-12.3198
▁பாஹேஸி	-12.32
▁ஆகோட	-12.3202
வாசக	-12.3203
ஸ்ஸமானோ	-12.3204
▁தங்ஸம்பயுத்த	-12.3204
வங்ஸே	-12.3206
வரண	-12.3208
▁கம்மஞ்ஞதா	-12.3208
மபோ	-12.3209
▁நில்ல	-12.321
ஸம்மதங்	-12.321
▁அத்தவாத	-12.321
ஜானெய்ய	-12.321
▁ஸதத	-12.3212
▁உபகாரகோ	-12.3213
வஜ்ஜே	-12.3214
னேஸூதி	-12.3216
த்தயஸங்க	-12.3218
▁விபஸ்ஸனாஞாண	-12.3218
▁மாதுர	-12.3218
ுபத்த	-12.322
ரூபேஹி	-12.3221
▁விஜாயி	-12.3223
விஸ்ஸஜ்ஜன	-12.3224
ஸஹபு	-12.3224
▁லஹுக	-12.3225
ஸ்ஸித்வா	-12.3229
▁அம்ஹேஸு	-12.3231
யுத்தஸ்ஸ	-12.3231
பஜ்ஜோத	-12.3232
▁ஸவிதக்கஸவிசாரே	-12.3233
▁ரேவதோ	-12.3235
▁சாரித்த	-12.3237
▁அஸங்வுத	-12.3238
▁11	-12.324
▁பன்னரஸோ	-12.324
▁ஸீலவிபத்தி	-12.324
மனஸிகாரோ	-12.3241
▁ஓஸத	-12.3242
▁அபரியந்த	-12.3242
▁வெஸ்ஸந்தர	-12.3243
▁கிலேஸப்பஹான	-12.3245
▁நிவுத்த	-12.3246
வாஹன	-12.3246
▁ஸந்து	-12.3246
ஸவஸ்ஸோ	-12.325
▁359.	-12.3251
த்தமோ	-12.3251
▁வசனீயங்	-12.3252
முச்சி	-12.3252
▁நெய்யோ	-12.3253
▁பாணாதிபாதாதி	-12.3254
உப்	-12.3255
மாஸோ	-12.3255
அஞ்ஞமஞ்ஞனிஸ்ஸய	-12.326
▁ஸேனக	-12.326
ந்தமேவ	-12.326
▁சங்கமங்	-12.3261
லானீதி	-12.3262
ரூபபரிக்	-12.3262
▁ஸங்ஸேத	-12.3264
▁கலியுக	-12.3264
▁அட்டே	-12.3264
னஸமாபத்தி	-12.3265
பரிவத்தன	-12.3265
▁நியமே	-12.3266
▁சித்ர	-12.3266
▁தீணீதி	-12.3267
▁ரமி	-12.3268
▁333.	-12.3269
▁அனுகூல	-12.3269
▁நாதிதூ	-12.327
ஸேஸோதி	-12.3272
ணஸம்பன்னோ	-12.3273
▁படிகோ	-12.3274
▁ஏதேவ	-12.3277
▁ஓக்கந்தி	-12.3277
▁அமூள்ஹவினயோ	-12.3278
▁ஓலோகன	-12.3281
இமேஸங்	-12.3282
▁நீஹர	-12.3282
▁சக்கவத்திஸ்ஸ	-12.3282
சேத	-12.3283
ரஜா	-12.3284
▁ஜாதிஜரா	-12.3285
ரீக	-12.3287
யாயங்	-12.3291
▁குடில	-12.3293
▁விரோ	-12.3294
்வத்தோ	-12.3294
▁கட்	-12.3294
விஸம	-12.3296
▁அத்தூ	-12.3297
ம்மினோ	-12.3301
▁உபக்கமேன	-12.3302
▁நிச்சல	-12.3304
▁அந்தரஹிதா	-12.3304
▁ஸல்லங்	-12.3304
ணஸங்க	-12.3304
▁தேவிஜ்ஜோ	-12.3305
▁அமரா	-12.3307
▁விப்படிஸாரோ	-12.3307
▁வீதிக்கந்தங்	-12.3309
கல்லோஸி	-12.331
பரிணாம	-12.3311
▁தன்னிஸ்ஸித	-12.3312
▁ஸ்மிங்	-12.3313
தானீ	-12.3316
▁ஸதிஸம்பஜஞ்ஞ	-12.3317
▁ஸமிதங்	-12.3318
படிஞ்ஞா	-12.3318
அய	-12.3321
▁வண்ட	-12.3321
▁அனீக	-12.3323
யுஞ்ஜ	-12.3324
ஸலில	-12.3325
மேனாதி	-12.3325
ல்லக	-12.3327
பன்னரஸ	-12.3327
ஜினோ	-12.3329
▁ஸேஸகா	-12.333
▁பஞ்சவீஸ	-12.3331
▁நோஸஞ்ஞோஜன	-12.3332
துரூபானி	-12.3334
ரம்பே	-12.3334
▁பஞ்சதிங்ஸ	-12.3334
▁பாசித்தியா	-12.3335
▁அஜிதோ	-12.3335
விஸ்ஸாமா	-12.3336
தசித்தா	-12.3336
▁ஹனு	-12.3336
▁ஸவனங்	-12.3337
▁திமிர	-12.3338
விதாய	-12.3338
ரந்தா	-12.3338
▁மரணே	-12.3339
லங்காரே	-12.3341
▁அஸம்மிஸ்ஸ	-12.3341
சதஸ்ஸோ	-12.3341
ாவபோ	-12.3342
▁விஹத	-12.3343
▁ஆலய	-12.3347
னவிப்பயுத்த	-12.3348
▁அப்பமாணாரம்மணங்	-12.3349
▁காருஞ்ஞ	-12.335
▁வீதிக்கமோ	-12.335
ஸீயதி	-12.335
மாணவபு	-12.3351
▁ஆஹாதி	-12.3352
▁ஞாணக்	-12.3352
லஸ	-12.3354
▁நிராமிஸ	-12.3355
▁ஆகிண்ண	-12.3356
ண்ய	-12.3356
சாப	-12.3358
▁ஸப்பஞ்ஞோ	-12.336
▁வினாஸோ	-12.3361
▁பரவாத	-12.3362
த்திகானி	-12.3362
▁ஆஸவஸம்பயுத்தா	-12.3364
▁ஓரங்	-12.3364
▁நிச்சதோ	-12.3364
▁ஸகலோ	-12.3365
ஆஸவ	-12.3366
▁ஜாயதீ	-12.3366
-‘‘	-12.3368
▁ரம்மா	-12.3369
▁பரம்பரா	-12.337
ணமேவ	-12.3371
வலீ	-12.3371
▁376.	-12.3371
▁விசாரெத்வா	-12.3371
▁பரிச்சத்த	-12.3372
ஸனேன	-12.3372
▁319.	-12.3372
▁நிம்மிதங்	-12.3372
▁பிடகானி	-12.3373
▁கேவலஞ்ஹி	-12.3374
▁உபச்சகா	-12.3374
ஆகங்கெ	-12.3374
▁வூபஸமேதுங்	-12.3376
▁மிஸ்ஸெத்வா	-12.3377
▁ஹீனேன	-12.3377
▁ஸானுஸயா	-12.3377
கரணஸமத	-12.3378
▁விப்பகதங்	-12.3379
பெஸ்ஸாமி	-12.3379
▁ஆனேஞ்ஜா	-12.3379
விவாத	-12.3379
▁பஞ்ஞாவிமுத்தோ	-12.338
▁பரிசர	-12.3381
▁சதுத்திங்ஸ	-12.3381
▁பரப்பவாத	-12.3381
மிஸ்ஸாமா	-12.3383
ச்சரிதஸ்ஸ	-12.3383
▁பசதி	-12.3384
▁வுஸித	-12.3385
ரணியோ	-12.3385
▁தபஸ்ஸி	-12.3386
▁363.	-12.3386
▁காருணிகோ	-12.3387
ம்மான	-12.3388
▁சாவுஸோ	-12.3388
▁ஆவத்த	-12.3388
காரிகா	-12.3389
▁விஸ்ஸஜ்ஜனே	-12.3391
▁பரியேஸந்தோ	-12.3392
னாரம்மண	-12.3392
▁ஜிவ்ஹாவிஞ்ஞாண	-12.3392
▁அதிரேகங்	-12.3393
▁அப்பஸன்னானங்	-12.3393
வத்திங்ஸாகார	-12.3394
ஸெய்யுங்	-12.3396
காரணேன	-12.3396
▁உச்சாவசா	-12.3396
▁இத்தர	-12.3397
லஸத்	-12.3398
அம்ம	-12.3399
▁கண்ணே	-12.34
▁ஸுத்தந்தா	-12.34
ரஞ்ஞ	-12.34
▁ரஹா	-12.3401
▁அவீதிக்கமோ	-12.3403
துபரியாபன்னா	-12.3403
யதனானி	-12.3403
பேமி	-12.3404
▁மமாதி	-12.3405
ண்ஹனங்	-12.3406
▁உபஸம்பன்ன	-12.3408
கஸ்ஸாதி	-12.3411
▁ஆஸாய	-12.3411
▁போஸஸ்ஸ	-12.3411
▁பஜஹந்தி	-12.3412
▁அலீன	-12.3413
▁புரிஸத	-12.3413
▁ஸிந்து	-12.3416
▁வாணிஜ	-12.3417
▁அஸங்ஸ	-12.3417
▁சூப	-12.3417
▁வாயாம	-12.3417
ஞ்ஞாயாதி	-12.3418
அந்தரா	-12.342
முகீ	-12.3421
புண்ட	-12.3422
▁உபரிபா	-12.3422
▁தண்ஹாமான	-12.3423
தஸிக்க	-12.3423
▁ஸஞ்ஞோஜனிய	-12.3425
▁நிவாத	-12.3428
லோஹிதங்	-12.343
▁ஸம்பயுத்தகே	-12.343
ஞ்ஜிது	-12.3431
▁உத்தரபதே	-12.3432
▁ஏவரூபேன	-12.3432
ரவீதி	-12.3432
▁அஞ்ஞமஞ்ஞபச்சய	-12.3432
ஹ்ய	-12.3433
மஞ்சே	-12.3434
▁நிமி	-12.3434
▁அத்தத்த	-12.3434
ரூபாவசர	-12.3435
லங்காரா	-12.3439
ல்லே	-12.3439
▁இரியதி	-12.344
ஸனத்த	-12.3441
▁சிரகால	-12.3444
▁அரியஸச்சானங்	-12.3446
▁பச்சனீகஓகாஸ	-12.3447
ஸுவிஹார	-12.3447
ஸானீதி	-12.3448
▁அரஹந்தங்	-12.3449
விச	-12.3452
ரந்த	-12.3452
▁தாள	-12.3453
ஸனீயங்	-12.3455
▁ஜனேன	-12.3455
▁நீவரணானி	-12.3455
▁ஸரணா	-12.3455
ம்மகு	-12.3457
ஸஞ்ஞகத்த	-12.3459
ஸலக்க	-12.3461
விபல்லாஸேன	-12.3463
▁315.	-12.3464
▁மஹாகொட்ட	-12.3465
யங்யேவ	-12.3466
▁வினயபிடகங்	-12.3468
▁ரஸானங்	-12.3468
தாரம்மணஸ்ஸ	-12.3469
லோமோ	-12.3472
0-1	-12.3473
▁விஜிதே	-12.3473
▁பண	-12.3474
▁ஸரஸ்ஸ	-12.3475
▁பவத்தஸ்ஸ	-12.3475
▁த்வந்தி	-12.3479
பலக்க	-12.3479
▁கப்பானங்	-12.3481
▁மஹாராஜாதி	-12.3483
▁பேத	-12.3483
முத்தம	-12.3484
ஸாலாய	-12.3485
ணஸமன்னா	-12.3488
னயப்பவத்த	-12.3488
▁வேபசித்தி	-12.3493
▁ஸாயன்ஹஸமயே	-12.3493
▁உத்தரகுரு	-12.3493
▁நிஸ்ஸேணி	-12.3493
▁358.	-12.3493
▁பஞ்ஹபுச்ச	-12.3494
ப்பத்திதோ	-12.3496
▁ஆயாசன	-12.3496
▁சீவரதா	-12.3497
▁முசலிந்த	-12.3497
▁வண்ணஸம்பன்னோ	-12.3498
▁ரோஹண	-12.3498
யோனியங்	-12.3499
▁சேதோபரியஞாணேன	-12.3499
▁பிடக	-12.35
▁வஜதி	-12.35
▁தன்னின்ன	-12.3501
▁வினயோதி	-12.3502
▁பரிஹானாய	-12.3502
ண்டூ	-12.3503
பல்லவ	-12.3503
பாயாஸ	-12.3504
▁விஞ்ஞாணஞ்ச	-12.3504
னியமோ	-12.3505
▁393.	-12.3505
ம்மகா	-12.3505
விஹாரிகோ	-12.3506
▁மனுஜா	-12.3506
▁ஸம்பராயே	-12.3507
▁ஹோஹீ	-12.3507
▁யுஜ்ஜதீதி	-12.3507
▁நரஸ்ஸ	-12.3508
ஹிதபத	-12.3509
ய்ஹதீதி	-12.351
▁ஸம்பத்தியோ	-12.3511
▁322.	-12.3511
▁ஆணாபெத்வா	-12.3511
▁ஜீவமான	-12.3512
▁அஸாதி	-12.3512
▁அபஸ்ஸந்தீ	-12.3513
ரஹ்மக	-12.3513
பக்கங்	-12.3514
▁135	-12.3516
▁ஸம்பன்னங்	-12.3517
▁பாரமி	-12.3518
▁அபேதி	-12.3518
▁உம்மத்தக	-12.3518
▁கம்மஸமுட்ட	-12.3519
▁அரஹந்தி	-12.3519
▁குஞ்ஜர	-12.3521
▁ருச்சதீ	-12.3521
▁விஸ்ஸஸே	-12.3523
17	-12.3524
▁ஹாபேதி	-12.3525
▁அனுஸ்ஸாவன	-12.3525
▁ஸிரிமா	-12.3525
▁292.	-12.3525
▁ஜந்துனோ	-12.3526
▁உபசித	-12.3527
லிமால	-12.3528
காரேஹி	-12.3529
▁ரஜ்ஜுயா	-12.3531
▁பரியாயவசனங்	-12.3534
ம்	-12.3535
▁பஞ்ஞாயதீ	-12.3535
▁மூலேன	-12.3538
ரணேஹி	-12.3541
னஸாலா	-12.3541
வரஜ்ஜங்	-12.3541
ங்ஸித்வா	-12.3541
▁ஆயூ	-12.3542
▁ஸகலம்பி	-12.3546
▁ரங்க	-12.3549
▁வஸலோ	-12.3551
ஸஹத்த	-12.3552
ஞ்ஞுதா	-12.3552
▁விஹரிதுங்	-12.3553
பரம்பரா	-12.3553
▁பஞ்சேவ	-12.3554
▁நிபாதனா	-12.3557
ஹிஸ்ஸாமீ	-12.3558
ஜ்ஜந்தீதி	-12.356
▁குலக	-12.356
வினி	-12.3562
▁நிமந்தித	-12.3562
▁யஹிங்	-12.3563
▁அப்பியா	-12.3564
த்திதோ	-12.3566
னானுபஸ்ஸீ	-12.3567
னநித்	-12.3567
யதிரேகதோ	-12.3568
▁பகிண்ணகக	-12.3568
வாரக	-12.3571
▁ராஜத	-12.3572
ொத்த	-12.3572
▁பீண	-12.3573
▁ஸுசிங்	-12.3573
ஸமேச்ச	-12.3575
ஸஞ்சேதனா	-12.3575
▁கமதோ	-12.3576
▁ஸுத்தப்ப	-12.3577
ஜ்ஜமானே	-12.3579
▁சதுவோகாரப	-12.3579
ஞாணனி	-12.3582
ஸப்படிபா	-12.3582
▁ஸமேதீதி	-12.3583
▁பஜங்	-12.3583
யாமப்பப	-12.3584
பரியாபன்னோ	-12.3584
▁ஸமார	-12.3587
▁பஹரண	-12.3589
மஸீமா	-12.3589
பரியந்தா	-12.359
▁கின்னு	-12.359
▁நிப்பரியாய	-12.359
ரோஹா	-12.3591
▁திசீவரங்	-12.3591
லாவ	-12.3592
ஜ்ஜமான	-12.3592
ஜாதானி	-12.3593
▁ஜராமரணே	-12.3594
▁ஏவமாக	-12.3594
னாகோ	-12.3596
கஜாதகங்	-12.3597
கம்மவஸேன	-12.3599
ராஜூனங்	-12.3599
▁ஸாரதோ	-12.36
▁பஞ்சாபி	-12.3604
போதக	-12.3605
ஹணஞ்ச	-12.3606
▁ஸாவிகா	-12.3608
ஜாய	-12.3608
▁அப்பச்சயோ	-12.3609
பரியாபன்னே	-12.3609
▁ருதி	-12.3609
▁குலூபக	-12.361
ானிபி	-12.361
▁பாகடபா	-12.3611
ஸுசி	-12.3612
பரிஹரண	-12.3614
ல்லானேன	-12.3615
▁அங்ஸே	-12.3616
▁ஸுனாபரந்த	-12.3616
▁கிம்புரிஸ	-12.3616
திங்ஸ	-12.3617
▁399.	-12.3617
▁நீலுப்பல	-12.3617
▁வஸவத்தீ	-12.3617
▁ஜவஸம்பன்னோ	-12.3617
▁பவாரெத்வா	-12.3617
னிகாயோ	-12.3618
▁கரெய்யுங்	-12.3618
▁யொம்ஹி	-12.3618
ஸீம	-12.3619
ம்மப்படிபன்னோ	-12.362
▁பீணேதி	-12.362
ஹஸி	-12.3621
▁பாகார	-12.3621
▁அத்ரிச்ச	-12.3621
▁அசேலோ	-12.3621
▁வினீதா	-12.3622
▁துவட்ட	-12.3622
மாதிகத்த	-12.3622
▁அத்தகிலமத	-12.3623
▁அனிஸ்ஸிதேன	-12.3623
▁ஆலோப	-12.3624
▁ஹோதேவ	-12.3625
▁அகாரண	-12.3625
▁ஸாதிஸய	-12.3626
▁அனாகுல	-12.3626
▁அவுத்தா	-12.3627
ரூபகங்	-12.3627
▁ஸுதஸோம	-12.3628
▁கித்தகங்	-12.3629
▁லோகனிரோத	-12.363
▁ஸுவண்ணா	-12.3633
னாயகோ	-12.3633
▁அஹாஸி	-12.3634
▁நானப்பகாரா	-12.3636
ருஸேன	-12.3636
விவரண	-12.3636
▁பாபமித்த	-12.3636
ண்ஹீ	-12.3638
த்தபூ	-12.3638
▁பஹட	-12.3638
ச்சகுக்குச்சங்	-12.3642
▁அப்பீதிக	-12.3642
▁உபஸம்பன்னே	-12.3642
▁பேஸுஞ்ஞங்	-12.3642
ஸங்கிலேஸிகா	-12.3642
▁அனிவத்த	-12.3645
ஜனிங்	-12.3645
▁ஹெஸ்ஸாம	-12.3646
▁உபவாண	-12.3646
வசோ	-12.365
▁மனாயதன	-12.3651
▁வீதிவத்த	-12.3651
பரிஸங்கித	-12.3653
சுக்	-12.3653
▁வினித்	-12.3653
ஹாரி	-12.3653
ஸங்வாஸ	-12.3654
▁ஸேவெய்ய	-12.3655
ச்சகுக்குச்ச	-12.3655
▁ஸத்தலோகோ	-12.3655
ஸ்மாதி	-12.3656
பாணினங்	-12.3656
லுப்	-12.3657
▁ஓதிண்ணோ	-12.3658
ஸாலி	-12.3661
விலோ	-12.3662
▁ஸியங்	-12.3665
▁நிமந்த	-12.3665
▁பஞ்ஞஞ்ச	-12.3672
மாபா	-12.3673
▁ஸஞ்ஞம	-12.3673
▁ஸுஹத	-12.3674
யாதே	-12.3674
▁உன்ன	-12.3674
னிவேஸா	-12.3674
▁மஹாபதா	-12.3675
▁ஸங்கப்பா	-12.3675
னிஸின்ன	-12.3677
▁வஸோ	-12.3679
வோயேவ	-12.3683
பொத்த	-12.3688
ந்தீனங்	-12.3688
ஸங்யம	-12.3688
வாரந்தி	-12.3689
▁ஏககா	-12.3689
▁காலிங்க	-12.369
▁அவிச்ச	-12.3691
▁பரியோத	-12.3693
ஜோதனா	-12.3694
டிங்	-12.3695
▁ஸுஸ்ஸூஸ	-12.3697
▁வாசாஹி	-12.3697
மப்பவேஸன	-12.3698
▁வெத்த	-12.3701
ப்பஹார	-12.3704
ம்பாஹங்	-12.3704
▁ஸுவத்த	-12.3706
விலாஸ	-12.3707
யதனதா	-12.371
▁தளாகங்	-12.371
▁அஹோரத்த	-12.3712
▁க்ரிய	-12.3714
▁ஜாலி	-12.3715
▁அவீதிக்கம	-12.3718
▁பரிளாஹ	-12.3718
▁ஸூரியு	-12.3719
லபோ	-12.372
96	-12.3722
லவி	-12.3725
சதுன்னங்	-12.3726
▁பச்சுப	-12.3727
▁அத்தானஞ்ச	-12.3727
ஸிஞ்சி	-12.3727
தசித்தஸ்ஸ	-12.3728
▁உபபஜ்ஜி	-12.3728
ப்பத்தஸ்ஸ	-12.3728
வரஸ்ஸ	-12.373
▁விஸ்ஸஜ்ஜேத	-12.373
▁பஜ்ஜல	-12.373
▁ரத்திபா	-12.3731
▁வாஸத்	-12.3731
ஸீலஸ்ஸ	-12.3731
▁அஸ்ம	-12.3735
▁புரிஸுத்தம	-12.3735
பஞ்ஞாத	-12.3736
▁நானாரதன	-12.3738
ரணஸ்ஸ	-12.374
▁பரியோஸாபேதி	-12.3741
▁ஸுசிண்ணானி	-12.3742
▁அஸ்ஸோஸுங்	-12.3742
▁நாபஜ்ஜதி	-12.3742
▁காரகங்	-12.3743
▁நிச்சி	-12.3744
யகானங்	-12.3745
▁வஸ்ஸஸதானி	-12.3745
▁அனேகஸத	-12.3746
▁ஸம்பஜ்ஜலித	-12.3749
▁விசினித்வா	-12.3749
▁அஹிரிக	-12.3751
ஸுரா	-12.3752
▁ஸன்னிபதித	-12.3753
னவிப்பயுத்தோ	-12.3753
▁அயமேதேஸ	-12.3753
▁அபுஞ்ஞாபி	-12.3754
1-2.	-12.3756
▁ஸஉத்	-12.3757
ம்மவினய	-12.3757
வீஸுபி	-12.3758
ரணத்தே	-12.3758
ரந்தஸ்ஸ	-12.3758
▁ஜீவகோ	-12.3759
▁ஸப்பீதிக	-12.376
வனஸண்ட	-12.3762
▁விஜ்ஜாவிமுத்தி	-12.3762
▁ஜீவிகா	-12.3762
▁ஸுப்படிபன்னோ	-12.3763
மந்தரங்	-12.3766
▁தேவீஸ	-12.3767
▁நிபஜ்ஜித்வா	-12.377
▁வசனந்தி	-12.3771
▁சிரகாலங்	-12.3772
வாஸேஸு	-12.3773
▁பாராஜிகாபத்தி	-12.3776
தஸுத்தவண்ணனா	-12.3778
▁கம்மவாசங்	-12.3778
லேபனங்	-12.3779
▁அந்தோகா	-12.378
▁கேஸாதி	-12.3781
ரஹ்மலோகங்	-12.3781
[...]
