<unk>	0
<s>	0
</s>	0
.	-2.61495
,	-2.91097
ం	-3.97729
తి	-4.01235
▁‘‘	-4.24827
▁	-4.41915
’’	-4.48608
▁చ	-4.55318
ా	-4.57367
▁న	-4.59253
ో	-4.62625
;	-4.79613
ే	-4.92906
న్తి	-4.9616
▁వా	-4.98388
స్స	-5.02486
▁–	-5.247
ేన	-5.39113
▁హోతి	-5.51613
▁పన	-5.52259
▁తం	-5.66042
పే	-5.66722
?	-5.67783
॰	-5.7446
▁తత్థ	-5.77781
▁సో	-5.89391
▁ఏవం	-5.91154
పి	-5.94745
తో	-5.95282
▁నామ	-5.97031
▁ఖో	-5.99127
-	-6.02289
ఞ్చ	-6.039
▁అ	-6.10271
▁భిక్ఖవే	-6.11296
’	-6.12752
ానం	-6.12975
▁తస్స	-6.14213
▁తే	-6.15362
న	-6.19483
▁హి	-6.25328
ాతి	-6.25712
ాని	-6.27118
ేహి	-6.34234
▁వుత్తం	-6.36086
వ	-6.40171
▁అత్థో	-6.45552
ేసు	-6.48326
ాయ	-6.51903
▁‘	-6.55038
ి	-6.57823
▁ధమ్మా	-6.59764
▁ధమ్మో	-6.61606
▁మే	-6.62147
వసేన	-6.62186
▁తేసం	-6.62444
నం	-6.63867
▁ధమ్మం	-6.65166
▁ఉప్పజ్జతి	-6.66891
▁అయం	-6.67613
▁తేన	-6.68232
▁పచ్చయో	-6.68635
▁వియ	-6.72038
▁యథా	-6.7219
▁పటిచ్చ	-6.74409
▁యం	-6.78475
▁భిక్ఖు	-6.80205
ీ	-6.83605
త్తా	-6.84145
▁కత్వా	-6.84688
▁ద్వే	-6.84718
▁ఏకం	-6.84802
▁యో	-6.85195
▁అథ	-6.85232
▁ఏత్థ	-6.8644
▁నో	-6.87899
తా	-6.89125
▁తస్మా	-6.90481
▁తథా	-6.90543
▁ఆహ	-6.91732
▁భగవా	-6.92268
మ్పి	-6.93122
▁స	-6.93142
▁భన్తే	-6.93166
▁ఇదం	-6.9396
▁తతో	-6.95312
ాది	-6.95861
య	-7.00573
▁తీణి	-7.02188
క	-7.03279
మేవ	-7.06033
▁అత్తనో	-7.07469
యేవ	-7.10437
▁వుచ్చతి	-7.1547
కో	-7.16581
▁పఞ్చ	-7.17987
▁ఇధ	-7.18465
▁యస్స	-7.19788
▁చిత్తం	-7.20762
సు	-7.2173
▁సా	-7.2219
▁నత్థి	-7.23836
▁అత్థి	-7.24279
▁నవ	-7.2538
▁యే	-7.25532
ోతి	-7.26872
యో	-7.27524
▁తస్మిం	-7.28088
▁హోన్తి	-7.28378
తీతి	-7.28427
మ	-7.28947
▁ఏవ	-7.30629
నా	-7.3089
▁ఇతి	-7.31556
▁సత్త	-7.32969
▁భిక్ఖూ	-7.35785
తాయ	-7.36608
▁నిట్ఠితా	-7.36632
ిత్వా	-7.3687
అ	-7.38227
యం	-7.40007
యా	-7.40174
హి	-7.40919
ేతి	-7.42009
▁కిం	-7.42165
కం	-7.43358
▁చేవ	-7.45204
మ్హి	-7.45456
సి	-7.45611
డ్	-7.45793
తిఆది	-7.45886
▁మహా	-7.47391
తం	-7.48633
ేయ్య	-7.48659
▁హేతుపచ్చయా	-7.48724
▁భగవతో	-7.48857
▁ధమ్మస్స	-7.50255
▁రూపం	-7.52998
▁ఆపత్తి	-7.5335
▁హుత్వా	-7.53976
న్తో	-7.54935
▁సబ్బ	-7.56266
▁ఏక	-7.58184
కా	-7.5923
▁ఇమినా	-7.59342
▁యత్థ	-7.60316
▁ఖన్ధా	-7.60635
▁ఆమన్తా	-7.62004
స	-7.63011
▁ఇమే	-7.63914
▁యా	-7.65024
▁ధమ్మ	-7.6578
▁ఇమం	-7.67255
▁వ	-7.68013
▁దిస్వా	-7.68985
▁అహోసి	-7.69412
▁సద్ధిం	-7.6977
▁యేన	-7.7019
▁సు	-7.71277
▁రాజా	-7.71729
▁హోతీతి	-7.71763
▁అహం	-7.71958
▁కథం	-7.72154
▁ప	-7.72342
▁త్వం	-7.73511
▁హేతు	-7.7447
▁తదా	-7.75495
▁సియా	-7.75759
▁పున	-7.7578
▁ఆవుసో	-7.76459
▁తయో	-7.77106
▁మం	-7.77516
▁ను	-7.7806
▁మమ	-7.79489
▁సచే	-7.8031
ని	-7.80502
▁గహేత్వా	-7.80707
▁ఛ	-7.81802
▁ఏకో	-7.83144
▁సతి	-7.83675
సుత్తం	-7.83888
నో	-7.84411
ాదీసు	-7.8448
▁భగవతా	-7.8474
▁ఇదాని	-7.85079
▁౧	-7.85158
తీ	-7.85469
▁పఞ్ఞా	-7.86133
▁సత్థా	-7.87683
▁మా	-7.87919
ాదీనం	-7.90792
సుత్తవణ్ణనా	-7.90802
▁పుగ్గలో	-7.91038
▁సహ	-7.91334
▁అను	-7.91366
ప	-7.92529
▁విహరతి	-7.93521
▁సుత్వా	-7.93525
త్థ	-7.93843
ాపి	-7.9412
తే	-7.94383
▁సబ్బం	-7.9443
▁వి	-7.94596
సో	-7.94686
▁పచ్చయా	-7.94929
▁మహారాజ	-7.95
▁కతం	-7.95084
▁యస్మా	-7.95729
▁ఉప	-7.9701
ికా	-7.97344
▁తావ	-7.97614
▁చత్తారో	-7.97887
ేత్వా	-7.99085
ాదయో	-7.99171
భావం	-8.00362
▁తేనాహ	-8.00746
▁దస్సేతి	-8.0218
సద్దో	-8.03099
▁వత్వా	-8.0311
▁లోకే	-8.03521
▁నహేతు	-8.03525
భావేన	-8.03549
▁సబ్బే	-8.03817
▁ఆరబ్భ	-8.04103
తిఆదినా	-8.04753
▁పఠమం	-8.0551
కథా	-8.05773
▁చత్తారి	-8.05936
▁వట్టతి	-8.06002
▁అట్ఠ	-8.06055
▁యోజనా	-8.06568
▁పుబ్బే	-8.07001
▁ఖన్ధే	-8.07121
ు	-8.07325
▁కిర	-8.07694
▁సమయే	-8.07894
▁ఏతం	-8.07976
▁వేదనా	-8.08129
▁గన్త్వా	-8.08529
▁కరోతి	-8.08787
భావో	-8.09233
ాదీహి	-8.10055
▁వేదితబ్బో	-8.10494
▁వత్తబ్బే	-8.10883
▁వుత్తా	-8.10994
▁కమ్మ	-8.11126
▁చే	-8.1118
▁భిక్ఖునో	-8.11374
▁నేవ	-8.11394
ిత	-8.11395
త	-8.12079
▁నయో	-8.12141
▁దస	-8.12482
నే	-8.12982
▁ఠపేత్వా	-8.13154
▁చిత్త	-8.13314
▁మయా	-8.13825
ీతి	-8.14183
౭	-8.14237
▁కమ్మం	-8.14513
▁ఇమస్మిం	-8.15036
▁కో	-8.15246
కాలే	-8.15315
చ	-8.16223
స్మిం	-8.16254
▁సన్ధాయ	-8.16292
౫	-8.1675
ానీతి	-8.16907
▁కిఞ్చి	-8.17727
▁పరం	-8.17736
▁౨	-8.17836
ితా	-8.18142
▁అస్స	-8.18719
▁ఆయస్మా	-8.19163
▁దుక్ఖం	-8.19448
౬	-8.19558
థ	-8.19566
న్తీతి	-8.19921
కే	-8.19978
▁మయ్హం	-8.20284
౯	-8.20847
▁భో	-8.20866
తు	-8.21171
వి	-8.21263
ాదీని	-8.21303
▁తు	-8.21861
౧	-8.2201
౪	-8.22101
▁రూప	-8.22158
ింసు	-8.22211
▁యావ	-8.22221
▁భగవన్తం	-8.22285
మా	-8.2234
వా	-8.22344
▁ధమ్మే	-8.22664
▁చాతి	-8.22925
▁వత	-8.23524
▁అత్థ	-8.23684
▁సమన్నాగతో	-8.2371
▁అఞ్ఞం	-8.23841
ిం	-8.24031
త్థాయ	-8.25334
ేనాతి	-8.25971
ితుం	-8.26082
▁దస్సేతుం	-8.26296
ధమ్మ	-8.26316
▁సమ్బన్ధో	-8.26373
▁వత్థు	-8.26379
▁గచ్ఛతి	-8.26479
౩	-8.26519
▁తణ్హా	-8.26528
▁దుక్ఖ	-8.26606
ియ	-8.26799
ితో	-8.27049
▁పటి	-8.27571
▁ఇతో	-8.27573
ేపి	-8.27804
▁వుత్తో	-8.27995
▁థేరో	-8.29421
ిక	-8.29591
ియా	-8.29731
▁దిట్ఠి	-8.29794
త్థం	-8.30428
ట్ఠేన	-8.3045
▁వదన్తి	-8.30775
౮	-8.31084
▁ఉప్పజ్జిస్సతి	-8.31164
మానో	-8.31698
▁వేదితబ్బం	-8.31748
▁సమ్మా	-8.31939
▁ఉప్పజ్జన్తి	-8.32459
ితం	-8.32682
▁సమ	-8.3285
▁యది	-8.33431
ామి	-8.33639
వణ్ణనా	-8.33653
వగ్గో	-8.33887
▁బుద్ధ	-8.34027
▁జానాతి	-8.34118
▁దస్సేన్తో	-8.34912
▁పఠమ	-8.35038
౨	-8.3505
▁అన	-8.35065
▁వచనం	-8.35301
ేవ	-8.36363
▁తేసు	-8.3663
▁ఖన్ధానం	-8.36658
▁ఝానం	-8.3687
▁ఫలం	-8.37539
▁ఞాణం	-8.37945
▁భవ	-8.38032
▁తస్సా	-8.38206
భావ	-8.38634
▁రఞ్ఞో	-8.38659
▁కేచి	-8.38667
భావతో	-8.38989
▁చిత్తస్స	-8.39017
▁వసేన	-8.39431
▁ఆ	-8.39666
▁హేతుయా	-8.39867
▁బ్రాహ్మణ	-8.40384
▁రాజ	-8.40436
▁దేవ	-8.40618
యే	-8.40641
▁అన్తో	-8.40929
▁వేదితబ్బా	-8.40929
ేనేవ	-8.41614
▁హేట్ఠా	-8.4204
▁కస్మా	-8.42118
▁౩	-8.42654
▁పట్ఠాయ	-8.43182
న్తా	-8.43221
న్తస్స	-8.43509
త్త	-8.43722
హం	-8.43922
▁సఙ్ఘో	-8.44305
▁ఏస	-8.44309
▁వుత్త	-8.44384
▁జాతి	-8.44924
రూప	-8.44944
▁సుఖం	-8.44978
▁భిక్ఖూనం	-8.45439
▁కుసలా	-8.45768
▁పర	-8.45922
▁ఫల	-8.46394
ేసి	-8.46583
▁అధిప్పాయో	-8.46763
▁భవిస్సతి	-8.46876
▁దుతియ	-8.46922
▁హేవం	-8.47442
▁సబ్బత్థ	-8.48004
హేతు	-8.4801
▁బుద్ధో	-8.48312
▁తాని	-8.48648
▁తత్ర	-8.48665
▁కామ	-8.48852
▁వో	-8.48983
▁సమయేన	-8.49157
▁పచ్ఛా	-8.49218
▁మగ్గ	-8.49818
▁కతమే	-8.49851
▁తేహి	-8.50358
ఞ్చేవ	-8.50981
▁పురిసో	-8.51247
▁సఞ్ఞా	-8.51364
ావ	-8.51388
కమ్మ	-8.51389
▁సత్తా	-8.51391
సం	-8.51497
▁ఉపసఙ్కమిత్వా	-8.52554
▁దుక్కటం	-8.52638
▁౪	-8.5265
▁పుచ్ఛా	-8.52688
కథావణ్ణనా	-8.52967
త్తం	-8.53031
▁కత	-8.53173
▁నిస్సాయ	-8.53369
ల	-8.53422
▁ఏతదవోచ	-8.53707
సా	-8.53879
సిక్ఖాపదవణ్ణనా	-8.54101
▁ఏవమేవ	-8.54207
▁ఇమస్స	-8.54742
▁౭	-8.55019
▁ఞాణ	-8.55134
అయం	-8.55142
▁అనాపత్తి	-8.55165
▁హోతీ	-8.55337
▁వేదనాయ	-8.55394
▁ఓ	-8.55921
హ	-8.56306
▁సన్తికే	-8.5689
▁తవ	-8.56918
▁దత్వా	-8.56993
▁కుసలం	-8.57079
▁అతి	-8.57158
▁సుఖ	-8.57185
▁సేసం	-8.57312
న్తీ	-8.57525
▁వుత్తే	-8.57581
▁ఏసేవ	-8.57668
▁దానం	-8.58184
▁పస్సతి	-8.58999
▁బుద్ధస్స	-8.59058
▁తథాగతో	-8.59392
ప్ప	-8.59393
▁ఇమా	-8.59422
▁‘‘‘	-8.59639
▁త	-8.59721
▁అత్తనా	-8.5974
ట్ఠానే	-8.59781
▁అభి	-8.59901
▁ఏకమన్తం	-8.59981
▁మగ్గో	-8.6018
▁౫	-8.60416
▁పరి	-8.60552
త్థో	-8.60834
▁కోచి	-8.61469
▁సమాధి	-8.62252
జ	-8.6246
తిఆదీసు	-8.62816
▁పత్త	-8.63137
▁౬	-8.6314
▁ఆనన్ద	-8.63172
ఏవం	-8.63294
▁అత్థం	-8.63455
పచ్చయా	-8.63927
స్సాతి	-8.63937
▁సక్కా	-8.64181
▁ఆరమ్మణే	-8.64502
▁వదతి	-8.64629
▁సయం	-8.64741
▁పఞ్ఞాయ	-8.64895
▁క	-8.6493
▁ఉపరి	-8.65096
▁బ్రాహ్మణో	-8.65309
సద్దేన	-8.65372
కిం	-8.65416
భి	-8.65593
▁అత్తానం	-8.6589
▁నిబ్బానం	-8.66429
వత్థు	-8.666
▁తా	-8.66617
మ్హా	-8.66776
▁అకుసలా	-8.67059
▁ధమ్మానం	-8.67089
▁గాథా	-8.67246
▁ధమ్మేహి	-8.67339
▁అప్ప	-8.6736
▁యతో	-8.67743
▁అవ	-8.68089
ోపి	-8.68136
తిఆదిమాహ	-8.68378
▁౮	-8.68431
ఞ్హి	-8.6872
స్సేవ	-8.69138
ినో	-8.69288
ణ	-8.69342
▁సీల	-8.6958
▁ఉప్పజ్జిత్థ	-8.6962
▁మయం	-8.69696
▁ఉ	-8.69798
▁ఆది	-8.70469
▁చీవరం	-8.70901
▁౯	-8.70972
▁పద	-8.71042
▁కాయ	-8.71258
సీ	-8.71263
▁విఞ్ఞాణం	-8.71275
▁దేతి	-8.71382
▁మగ్గం	-8.71431
ట్ఠానం	-8.71502
▁ఞత్వా	-8.71523
ఙ్గ	-8.71678
ర	-8.71768
▁పాప	-8.71786
▁నయేన	-8.72275
▁౧౦	-8.72557
▁భిక్ఖునా	-8.72605
నతో	-8.72881
ది	-8.73039
▁ధమ్మేసు	-8.73267
ేతీతి	-8.733
▁ఇమాని	-8.73466
▁ని	-8.73914
▁దట్ఠబ్బం	-8.73961
చిత్త	-8.7444
▁నానా	-8.74666
▁సాధు	-8.74916
▁ఇమేహి	-8.75133
▁ఏతే	-8.75632
▁వినా	-8.75968
▁పఞ్ఞత్తం	-8.76033
జ్జ	-8.76585
వణ్ణ	-8.76607
సుత్త	-8.77206
ేతుం	-8.77277
▁ఠానం	-8.773
▁పహాయ	-8.77631
▁పజానాతి	-8.77749
▁ఠితో	-8.77876
▁తాయ	-8.78167
ోవ	-8.78235
▁చేతనా	-8.78797
ికో	-8.79262
▁కాలే	-8.79327
▁సఙ్ఘస్స	-8.79449
ట్ఠ	-8.79546
▁వత్తబ్బం	-8.79668
▁పటిసన్ధిక్ఖణే	-8.79678
▁దుతియం	-8.79754
▁ఉదక	-8.79809
▁కిలేస	-8.79845
న్తం	-8.80037
▁బహు	-8.80043
ాయం	-8.80256
మహా	-8.80664
న్తే	-8.80667
▁ధాతు	-8.80699
▁యథాభూతం	-8.81135
▁;	-8.81153
ికం	-8.81203
▁కాయస్స	-8.81236
ధాతు	-8.81816
▁సాసనం	-8.81884
▁యస్మిం	-8.81925
అత్థి	-8.81973
పీతి	-8.8202
▁చతూహి	-8.82187
▁పుబ్బ	-8.82812
▁పచ్చయ	-8.83046
▁గాథమాహ	-8.83127
▁గతో	-8.83164
▁ద్విన్నం	-8.83429
▁తిస్సో	-8.83462
▁భాసితం	-8.83518
▁సావత్థియం	-8.83555
ఆ	-8.83668
▁వత్థుం	-8.83711
▁ఆపజ్జతి	-8.83773
▁దస్సేత్వా	-8.83805
౦	-8.83903
▁బుద్ధం	-8.83958
ట్ఠో	-8.84019
సఞ్ఞా	-8.84074
▁సత్థు	-8.84204
▁పురిమ	-8.84309
▁ఉపసమ్పజ్జ	-8.84402
▁సబ్బేసం	-8.84505
మానా	-8.84538
▁వే	-8.84557
▁సద్ధా	-8.84854
▁చక్ఖు	-8.84945
▁భవే	-8.85096
ఫల	-8.8516
పద	-8.85361
▁కాతుం	-8.85664
▁కతమో	-8.85817
ాదివసేన	-8.85921
ితబ్బం	-8.86419
ేన్తో	-8.86658
▁ఏతమత్థం	-8.86877
▁ఆరమ్మణపచ్చయేన	-8.86914
▁మనో	-8.86965
▁పవత్త	-8.87011
▁యదా	-8.87531
▁తుమ్హే	-8.87673
▁ఉపపజ్జన్తానం	-8.87684
▁కతమం	-8.8789
కస్స	-8.87976
▁సఙ్ఖారా	-8.8798
▁ఏకా	-8.88046
▁గహపతి	-8.88124
▁కారణం	-8.88162
▁తేనేవ	-8.88171
కమ్మం	-8.88251
▁పనేత్థ	-8.88251
▁సీలం	-8.88624
▁మ	-8.89052
త్థే	-8.89074
స్సు	-8.89177
ఞాణ	-8.8919
ూ	-8.89205
న్త	-8.89219
▁అత్త	-8.89601
అహం	-8.89758
ానఞ్చ	-8.89981
ద	-8.90228
ిస్సతి	-8.90624
▁పాచిత్తియం	-8.90647
▁ఏతేన	-8.90786
▁అమ్హాకం	-8.9083
యథా	-8.911
▁తథేవ	-8.91101
▁నిరుజ్ఝతి	-8.91817
▁నిసిన్నో	-8.92132
▁దుక్కటస్స	-8.92244
▁అపి	-8.92336
సత్త	-8.92353
▁అవిగతే	-8.92363
▁దేసనా	-8.92405
▁ఝాన	-8.92762
▁వత్థుస్మిం	-8.92813
మాన	-8.93135
▁చతు	-8.93422
▁కేనచి	-8.93502
ాపేత్వా	-8.9364
ానీ	-8.93678
ియం	-8.93778
మగ్గ	-8.9397
▁కుసలో	-8.94002
▁అవిజ్జా	-8.94023
▁తీహి	-8.94232
▁దేవతా	-8.94237
▁ఆపత్తియో	-8.9433
పున	-8.9434
ాహి	-8.94449
▁కరోన్తి	-8.94452
▁తిట్ఠతి	-8.94711
కేన	-8.95052
మత్తం	-8.95062
ధ	-8.95284
▁మూల	-8.95395
▁ఉపనిస్సయపచ్చయేన	-8.95525
▁వణ్ణ	-8.95675
▁చతస్సో	-8.95827
క్ఖ	-8.96024
▁కతి	-8.96078
▁నను	-8.96167
▁కాల	-8.96186
▁రూపానం	-8.96253
▁సుత్త	-8.96293
▁తఞ్చ	-8.96299
▁మనుస్సా	-8.96381
▁అత్తా	-8.96416
▁బహిద్ధా	-8.96723
▁లోక	-8.96997
▁తీసు	-8.97112
కరణ	-8.97124
తేన	-8.97241
నామ	-8.97419
▁పత్తో	-8.9744
▁చతున్నం	-8.97607
▁తత్థేవ	-8.97649
▁పురిస	-8.97764
▁అరహత్తం	-8.97947
స్సా	-8.97991
▁సత్తానం	-8.98164
ట్ఠాన	-8.98208
▁లోకో	-8.98318
▁పత్వా	-8.98702
▁నిరుజ్ఝిస్సతి	-8.98808
▁కాయేన	-8.98852
▁సచ్చ	-8.98879
▁భిక్ఖునీ	-8.98886
▁ఠానే	-8.99054
▁భావేతి	-8.99059
▁తతియం	-8.99184
▁పఞ్చహి	-8.99203
▁సేస	-8.99349
ాన	-8.99485
▁కత్థ	-8.99725
▁అత్థీతి	-8.99762
▁గో	-8.99871
▁లభతి	-9.00134
▁దట్ఠబ్బో	-9.00169
దాన	-9.00594
▁సబ్బసో	-9.00739
ూప	-9.00741
▁ఉదకం	-9.00951
▁వుత్తనయేనేవ	-9.01021
లక్ఖణం	-9.0112
న్తిఆది	-9.01165
ాను	-9.01207
▁కప్పే	-9.01243
▁నిబ్బాన	-9.01465
▁పటిపదా	-9.01556
▁వాచాయ	-9.01662
ఇదం	-9.017
▁దాన	-9.01708
▁నిసీది	-9.01846
▁చీవర	-9.0191
▁ద	-9.0194
▁చతూసు	-9.01988
▁చతుత్థం	-9.02118
▁ఠత్వా	-9.02277
▁దస్సనేన	-9.02474
▁విస్సజ్జనా	-9.02566
కాయ	-9.02705
▁దేవా	-9.02706
▁యథావుత్త	-9.02729
మత్త	-9.02949
▁కేవలం	-9.03381
న్తు	-9.03454
▁ఏకేన	-9.03459
▁విసుం	-9.0373
కథం	-9.03741
▁పస్స	-9.03867
నీ	-9.03947
▁నిట్ఠితం	-9.04151
▁ఖన్ధ	-9.04244
ానన్తి	-9.04523
▁గుణ	-9.0456
▁పాఠో	-9.04872
▁సారిపుత్త	-9.05085
▁నామం	-9.05148
▁ఏకతో	-9.05166
▁నత్థీతి	-9.05191
▁కేన	-9.05336
సమ	-9.05451
ియో	-9.05725
▁భిక్ఖుం	-9.05815
▁వుత్తన్తి	-9.05829
ధమ్మా	-9.05914
▁అగ్గ	-9.05964
రే	-9.06021
▁సువణ్ణ	-9.06053
▁కథేసి	-9.06227
▁ఉపేక్ఖా	-9.06298
▁చపరం	-9.06343
▁తస్సేవ	-9.06399
యతి	-9.06493
▁అఞ్ఞత్ర	-9.06668
▁భావనాయ	-9.06831
▁కతమా	-9.06831
▁ఆరమ్మణ	-9.06936
▁యథాహ	-9.07056
▁వత్త	-9.07109
▁అఞ్ఞ	-9.07111
ధమ్మో	-9.07152
కారో	-9.07469
▁ఉప్పన్నం	-9.07486
పరి	-9.07542
▁ఇమేసం	-9.07914
యన్తి	-9.08055
సే	-9.08065
▁రాగో	-9.08504
▁వుత్తత్తా	-9.08953
▁అఞ్ఞో	-9.09045
▁ఫస్సో	-9.09103
▁మనసి	-9.09139
▁దోసో	-9.09148
ీనం	-9.09295
ేహీతి	-9.09443
▁ఆగన్త్వా	-9.09455
కార	-9.0965
▁పుప్ఫ	-9.09966
▁అబ్యాకతో	-9.10049
▁కరోన్తో	-9.10201
ీయతి	-9.10207
▁బహూ	-9.10243
▁బహి	-9.10273
▁కాలం	-9.10275
గ్గ	-9.10387
▁పరస్స	-9.10452
▁వినయ	-9.10614
సఙ్ఖాతం	-9.10642
ినీ	-9.1067
▁పుఞ్ఞ	-9.1074
వచనం	-9.10885
యి	-9.11194
▁సుతం	-9.11225
▁చక్ఖాయతనం	-9.11345
▁విపస్సనా	-9.11378
▁చక్ఖున్ద్రియం	-9.11686
పటి	-9.11783
▁గోతమ	-9.11795
▁ద్వీహి	-9.11994
▁సద్ద	-9.12049
▁అబ్యాకతా	-9.12113
సఞ్ఞీ	-9.12122
▁పాళియం	-9.12139
ను	-9.12172
▁అజ్ఝత్తం	-9.12269
గుణ	-9.12319
▁తిణ్ణం	-9.12501
▁చేత్థ	-9.12533
▁అకుసలం	-9.12533
దుక్ఖ	-9.1254
▁ఇచ్చాది	-9.12558
▁అత్థిపచ్చయ	-9.12678
సీల	-9.12728
నన్తి	-9.12799
ాసి	-9.12885
▁వదామి	-9.12885
▁భవన్తి	-9.12979
▁గచ్ఛన్తి	-9.13269
▁అదాసి	-9.13276
రూపం	-9.13394
▁సేయ్యథాపి	-9.13419
▁అత్థే	-9.13421
విపాక	-9.13431
▁బ్రహ్మ	-9.1348
సుఖ	-9.13543
రో	-9.13681
సద్దస్స	-9.13954
▁అరహతో	-9.13972
▁యదిదం	-9.13995
▁అభిఞ్ఞా	-9.14025
సద్ద	-9.14046
▁దిట్ఠ	-9.14083
ళ	-9.14112
పచ్చయ	-9.1423
రాజ	-9.14513
▁దోస	-9.14689
▁కా	-9.14705
▁ఉప్పజ్జతీతి	-9.14788
▁అహేసుం	-9.15054
▁ఖన్ధం	-9.15335
తస్స	-9.15882
▁అయమ్పి	-9.16138
▁కప్ప	-9.16237
ిస్సన్తి	-9.16361
ాహం	-9.16463
▁మరణా	-9.1698
▁దీఘ	-9.17198
▁య	-9.17373
▁పురే	-9.17441
▁కస్సచి	-9.17486
▁ఛన్ద	-9.1757
▁సుట్ఠు	-9.17722
▁సుత్తం	-9.17807
సిక్ఖాపదం	-9.17946
▁కారణ	-9.17975
▁ద్వీసు	-9.1803
▁సక్కో	-9.18211
▁బోధిసత్తో	-9.18241
▁కాయో	-9.18376
▁గోతమో	-9.1839
▁వేదనాక్ఖన్ధో	-9.18603
▁మజ్ఝే	-9.18607
పఞ్ఞా	-9.18628
▁పఞ్ఞత్తి	-9.18665
▁సం	-9.18723
▁తయా	-9.18728
పత్త	-9.18814
▁దిసా	-9.18829
▁ఇన్ద్రియా	-9.19042
▁మోహో	-9.19163
ాభి	-9.19195
▁సఙ్ఘ	-9.19249
▁తాసం	-9.19487
▁కమ్మే	-9.19645
▁లోకం	-9.19726
వసేనేవ	-9.19754
కప్ప	-9.19848
▁పదం	-9.1986
▁సదా	-9.19877
▁కుసల	-9.19963
▁అత్థతో	-9.19973
▁విపాకో	-9.20182
మి	-9.20193
▁మాతా	-9.20206
ామ	-9.20287
▁విజ్జతి	-9.20333
▁పుత్తో	-9.20396
▁ఉప్పన్న	-9.20449
న్తర	-9.20611
▁హేతుపచ్చయేన	-9.20704
భూతో	-9.20713
▁దుక్ఖా	-9.20757
▁వుచ్చన్తి	-9.20792
’’’	-9.20847
▁నహేతుపచ్చయా	-9.21032
జాతకం	-9.21058
మాహ	-9.21077
▁లక్ఖణ	-9.21079
▁ఉపాదాయ	-9.21293
వత్త	-9.21359
▁సమ్బహులా	-9.21409
ేయ్యుం	-9.21574
దేవ	-9.21635
▁సతో	-9.21724
▁నిబ్బత్త	-9.22277
▁తేనుపసఙ్కమి	-9.22335
▁వచన	-9.22422
▁పణ్డితో	-9.22529
▁ఆదాయ	-9.22633
▁పణమామ్యహం	-9.22651
▁ఆపత్తిం	-9.22701
▁అవసేసా	-9.22773
▁పాళి	-9.22844
బల	-9.22968
▁అజ్జ	-9.23
ఇధ	-9.23017
▁పతి	-9.23081
▁గరుం	-9.23123
స్మా	-9.23243
▁సరీర	-9.23259
▁పవత్తి	-9.23339
▁సమాన	-9.23342
▁పుచ్ఛి	-9.23348
▁యేసం	-9.2357
తిపి	-9.23578
▁ఏతస్స	-9.23697
▁అభాసి	-9.24142
▁తథాగతస్స	-9.24229
భూతం	-9.24269
▁కారణేన	-9.24287
▁సరణం	-9.24359
▁ఆసి	-9.24402
▁కరేయ్య	-9.24403
నిస్సయ	-9.24428
▁సమ్మాదిట్ఠి	-9.24437
▁నేసం	-9.24485
▁సర	-9.24576
▁కం	-9.24662
▁ధన	-9.24737
▁జాతో	-9.24786
భూతా	-9.24855
భవ	-9.25047
▁ఆగత	-9.25091
▁పుగ్గలస్స	-9.25097
ాదినా	-9.25204
▁లద్ధ	-9.25244
▁దస్సన	-9.25333
▁జ	-9.25421
▁విజ్జా	-9.2543
▁అఞ్ఞే	-9.25528
▁ఠిత	-9.25618
▁సచ్చం	-9.25647
▁కుల	-9.25732
▁ద్వాదస	-9.25746
▁ధమ్మదేసనం	-9.25839
మే	-9.25873
▁బల	-9.25896
ుం	-9.25945
జ్ఝ	-9.25995
▁మనుస్స	-9.26023
▁సబ్బా	-9.26074
▁గచ్ఛ	-9.26107
ఏక	-9.26115
చ్చ	-9.26308
▁అకాసి	-9.2647
▁ఇ	-9.26474
▁చిత్తేన	-9.26487
ేత్థ	-9.26502
▁భేదా	-9.26595
▁నిచ్చ	-9.26633
▁తద	-9.26704
▁సన్త	-9.26787
సబ్బ	-9.26839
▁సోళస	-9.26861
▁విఞ్ఞాణ	-9.26927
▁భవం	-9.27051
▁సఙ్ఘం	-9.27077
చ్ఛ	-9.27107
ఆది	-9.2712
▁లబ్భతి	-9.27188
▁గణ	-9.27228
▁సమణో	-9.27297
▁సాసనే	-9.27323
▁అఞ్ఞమఞ్ఞం	-9.27635
భావే	-9.27635
కిచ్చ	-9.27692
సచే	-9.27865
నేన	-9.2788
▁పీతి	-9.27926
▁పాద	-9.27932
▁సాసన	-9.28071
ేయ్యాతి	-9.28101
▁పునప్పునం	-9.28103
▁ఏకస్మిం	-9.28139
▁పరేసం	-9.28247
▁అఙ్గ	-9.28628
▁ఠితా	-9.28724
▁పుగ్గలా	-9.28851
▁మాన	-9.28862
▁సక	-9.28879
▁వర	-9.29273
▁పియ	-9.29446
▁అనన్తరపచ్చయేన	-9.29537
▁భవేయ్య	-9.29627
▁సన్తి	-9.29782
నిద్దేసో	-9.29948
▁విసేసో	-9.29953
▁చిత్తసముట్ఠానం	-9.30096
▁హత్థ	-9.30117
▁విపాక	-9.30425
▁దాని	-9.30634
▁పితా	-9.3072
కర	-9.30737
▁నాగ	-9.31046
▁తతియ	-9.31283
▁దిస్సతి	-9.31309
ఞ్ఞ	-9.31524
▁సకల	-9.31533
కాల	-9.31541
▁ఆయస్మతో	-9.31565
రాజా	-9.31637
▁పఞ్చన్నం	-9.31643
▁ఆగతో	-9.3167
పదం	-9.31694
▁ఏత్థాతి	-9.31795
▁సన్తికం	-9.31899
▁అపిచ	-9.32108
ఇతి	-9.32151
▁ద్వి	-9.32165
ేతం	-9.32314
▁ఆయస్మన్తం	-9.32335
▁హోన్తీతి	-9.32367
▁ముఖ	-9.32554
▁ఆరమ్మణం	-9.32563
క్ఖణే	-9.32655
▁అనుప	-9.32657
▁రజ్జం	-9.32714
▁వీరియం	-9.32739
తోతి	-9.32808
▁అడ్	-9.32933
▁ఉదపాది	-9.33228
▁కత్థచి	-9.33417
▁సమానో	-9.33429
▁సక్కోతి	-9.33479
సీతి	-9.33571
▁ఆరోచేసుం	-9.33683
▁విసేస	-9.33755
▁గణ్హాతి	-9.33908
▁అత్థాయ	-9.33908
▁ఇన్ద్రియ	-9.3412
జాతకవణ్ణనా	-9.34142
పఞ్చ	-9.34212
▁భావనా	-9.34229
చిత్తో	-9.34574
రి	-9.34632
▁సన్తో	-9.34667
▁పరే	-9.34757
ఆరమ్మణే	-9.34844
▁హత్థి	-9.34892
▁మార	-9.34954
▁అరహా	-9.35011
▁దిబ్బ	-9.3524
తత్థ	-9.35557
▁మనసా	-9.35703
ితే	-9.3584
▁ఉద్ధం	-9.35846
మో	-9.35947
▁గామ	-9.35972
▁సార	-9.35988
▁బ్రహ్మచరియం	-9.36212
లోక	-9.36346
▁భిక్ఖునియో	-9.36354
ఉప	-9.36377
▁పత్తం	-9.36379
▁అగ్గి	-9.36392
▁థేరస్స	-9.36403
▁పాచిత్తియస్స	-9.36412
▁చేతసా	-9.36461
▁౧౧	-9.36509
▁పుత్త	-9.3654
▁జీవితం	-9.36623
▁ఏవమాహ	-9.3672
ుప	-9.36788
▁దుగ్గతిం	-9.36816
▁అకుసలో	-9.36939
ిస్సామి	-9.37028
▁వస్స	-9.37044
▁కు	-9.37113
▁చిత్తసముట్ఠానాన	-9.37155
బుద్ధ	-9.37498
▁భవతి	-9.37518
▁ఉప్పాదక్ఖణే	-9.37565
కుల	-9.37726
▁నిచ్చం	-9.3787
లక్ఖణ	-9.38004
▁పచ్ఛిమ	-9.38024
▁జీవ	-9.38228
నవసేన	-9.38305
▁యఞ్చ	-9.38343
ఉ	-9.38376
▁గతి	-9.38463
▁కిస్మిం	-9.38522
వస్స	-9.38562
▁సత	-9.38564
నఞ్చ	-9.38622
▁సమణ	-9.38638
▁ఆహరిత్వా	-9.38702
▁పఞ్హం	-9.38942
▁ఆనన్దో	-9.39132
▁ఏసా	-9.39137
▁ఏసో	-9.39213
▁అన్తరా	-9.39232
న్తేన	-9.39515
ధమ్మం	-9.39561
▁జేతవనే	-9.39595
▁వట్ట	-9.39758
▁నభావనాయ	-9.39915
▁ఏకాదస	-9.39934
▁గహేతబ్బం	-9.39997
ేసూతి	-9.40059
▁సబ్బేపి	-9.40113
ేథ	-9.40166
▁వచనతో	-9.40298
▁కథా	-9.40373
▁పరమ	-9.40472
▁భత్త	-9.40602
▁దుక్ఖస్స	-9.4061
▁పరిజానాతి	-9.40691
▁ఖ	-9.4072
▁పకతి	-9.40763
భూత	-9.40768
▁ద్వయం	-9.40847
▁చతుత్థ	-9.40851
▁వట్టతీతి	-9.40888
మూల	-9.40975
తర	-9.41086
▁పురతో	-9.41209
▁అప	-9.4134
సార	-9.41372
▁వుత్తనయేన	-9.41372
▁తన్తి	-9.41402
ానమ్పి	-9.4154
వచన	-9.4155
▁ఏవరూపం	-9.4155
▁మరణ	-9.41591
▁గన్ధ	-9.41613
▁తేరస	-9.41633
చిత్తం	-9.41645
▁తుమ్హాకం	-9.41696
▁సిక్ఖా	-9.41699
▁ఏకచ్చో	-9.41746
యేవాతి	-9.41746
▁పచ్చ	-9.41761
▁పురిమా	-9.41846
▁అస	-9.41885
మేతం	-9.4196
▁బ్రాహ్మణా	-9.4216
▁తదేవ	-9.42213
▁సుద్ధ	-9.42301
దిట్ఠి	-9.42311
ికాయ	-9.42372
▁ఉత్తర	-9.42749
▁దీపేతి	-9.4292
▁అహు	-9.43019
▁భావో	-9.43031
▁కాయే	-9.43044
ముఖ	-9.43061
▁విహరన్తో	-9.43065
▁అఞ్ఞతరో	-9.43094
▁మనిన్ద్రియం	-9.43136
▁ఏత్తావతా	-9.4325
▁హోతు	-9.43273
గతం	-9.43282
▁వన	-9.4334
▁తమ్పి	-9.43399
స్సాపి	-9.43433
సమనన్తరే	-9.43455
సమ్పయుత్త	-9.43523
▁కిస్స	-9.44041
▁దిన్నం	-9.44042
▁సోమనస్సిన్ద్రియ	-9.44068
వాద	-9.4409
▁గతా	-9.44174
ారమ్మణ	-9.44174
ము	-9.44234
గ	-9.44376
▁ఆసవా	-9.44398
రస	-9.44422
▁పటిఘానుసయ	-9.44499
▁రాగ	-9.44506
▁పిణ్డాయ	-9.44524
▁అనేక	-9.44586
గత	-9.44836
▁ఇద్ధి	-9.44851
▁సమ్మ	-9.44866
▁పథవీ	-9.44889
▁ఉభో	-9.44961
▁ఉభయ	-9.44974
మస్స	-9.45471
స్మి	-9.45551
మన	-9.45567
▁ముని	-9.4573
▁అధిపతిపచ్చయేన	-9.45798
ితబ్బ	-9.45834
▁కమ్మస్స	-9.45877
▁దీప	-9.46
▁ఆపత్తియా	-9.46048
▁సోపి	-9.46185
▁సఙ్ఖార	-9.46378
▁రూపాయతనం	-9.46379
▁పఞ్చమం	-9.46674
▁పచ్చుప్పన్న	-9.46724
▁కాయం	-9.46735
సమ్పన్నో	-9.46935
▁వాచా	-9.46948
▁ల	-9.46985
▁ద్వార	-9.47033
న్తిఆదినా	-9.47124
▁గహిత	-9.47148
▁భయ	-9.47304
▁ఉత్తమ	-9.47392
మివ	-9.47404
▁విప్పయుత్తపచ్చయ	-9.47447
▁అఞ్ఞథా	-9.47449
▁నుప్పజ్జతి	-9.47478
▁ధాతూహి	-9.47502
పచ్చయో	-9.47548
▁దుతియో	-9.47576
▁అథస్స	-9.4758
▁మహన్తం	-9.47581
▁పహాతబ్బో	-9.47588
▁అస్సాతి	-9.4769
మం	-9.47709
కిచ్చం	-9.47759
నయ	-9.47767
చీవర	-9.47788
▁నఅధిపతియా	-9.47853
▁పవిసిత్వా	-9.47928
▁అట్ఠకథాయం	-9.48046
▁వస	-9.4819
▁సమయం	-9.48241
▁మోహ	-9.4825
▁పుఞ్ఞం	-9.48259
▁భవిస్సతీ	-9.48402
▁ధమ్మేన	-9.48406
▁రుక్ఖ	-9.48504
పటిసమ్భిదా	-9.48531
▁అకుసల	-9.48562
▁జాతా	-9.48629
▁తమేవ	-9.48683
▁సుఖాయ	-9.48724
▁వన్దిత్వా	-9.48814
మగ్గే	-9.48837
ఞ్చాతి	-9.48838
త్థేరో	-9.48854
▁జీవిత	-9.48889
▁వదేయ్య	-9.48892
▁ఫస్స	-9.48959
▁వుత్తఞ్హేతం	-9.49019
▁పుట్ఠో	-9.49367
▁అతీత	-9.49403
▁బోధి	-9.49528
గచ్ఛ	-9.4954
రు	-9.4959
▁రస	-9.49641
కాలో	-9.49764
మయం	-9.49927
▁పజహతి	-9.49942
▁బహుం	-9.49964
▁హేతూ	-9.50035
పాద	-9.50164
▁ఉప్పత్తి	-9.50183
▁అతీతం	-9.50184
▁చవన్తానం	-9.50191
▁భఙ్గక్ఖణే	-9.50193
ఛ	-9.50231
▁దు	-9.50264
▁నిసీదిత్వా	-9.50265
▁భిక్ఖునియా	-9.50329
కామ	-9.50419
▁పధాన	-9.5046
ట	-9.50476
▁ఏవఞ్చ	-9.50604
▁కరోతీతి	-9.50667
▁మిగ	-9.5068
▁సహస్స	-9.50693
త్వా	-9.50838
▁ఉప్పాద	-9.50915
సమ్పత్తి	-9.50974
▁ఏకస్స	-9.5101
▁అఞ్ఞతరం	-9.51332
▁ధనం	-9.51345
యతో	-9.51353
▁ఇత్థీ	-9.51407
▁సుత్తే	-9.51434
▁ఆగతా	-9.51508
▁౧౨	-9.51578
వారో	-9.5158
▁కతా	-9.51745
భేద	-9.51859
▁కుతో	-9.51895
విసేస	-9.5195
ీహి	-9.52023
▁సమ్పయుత్తకానం	-9.52041
▁విస	-9.52042
▁సుత	-9.52148
▁ఏవమ్పి	-9.52263
నిద్దేసవణ్ణనా	-9.52273
▁వీరియ	-9.52279
్య	-9.52297
దోస	-9.52362
విప్పయుత్త	-9.52414
కరో	-9.52432
▁భయం	-9.5245
భిక్ఖు	-9.52501
▁మహాభూతే	-9.52567
అవిగత	-9.52576
ధమ్మే	-9.5263
▁నామాతి	-9.52647
కుసలం	-9.52724
సహజాత	-9.52787
▁దిన్న	-9.52812
▁భిక్ఖూహి	-9.52846
▁అఞ్ఞేన	-9.53001
గతో	-9.53109
▁ఠితం	-9.53174
▁కమ్మపచ్చయేన	-9.53177
▁సఙ్ఘేన	-9.53275
▁ధాతుయో	-9.53394
▁నిరుజ్ఝిత్థ	-9.53479
▁ఏతేసం	-9.53725
▁ఖన్ధో	-9.53759
బ్బ	-9.53763
▁పసాద	-9.53796
▁వజ్జ	-9.53856
పుప్ఫ	-9.53893
▁చిత్తే	-9.53894
ాకార	-9.53946
భూమి	-9.53949
▁విహారం	-9.54063
▁పాదే	-9.54145
ితత్తా	-9.54174
▁చర	-9.54207
▁నగరం	-9.54371
▁ఏతరహి	-9.54398
పర	-9.54438
గ్గహణేన	-9.54463
▁పనస్స	-9.54475
▁జీవితిన్ద్రియం	-9.54632
ాయాతి	-9.54661
ిస్సామీ	-9.54698
▁నోవిగతే	-9.54808
▁కిఞ్చాపి	-9.54829
ేయ్యం	-9.54859
సహస్స	-9.54873
▁కతో	-9.54906
▁అరియసావకో	-9.54982
కరణం	-9.55042
పుచ్ఛా	-9.5512
▁పాచిత్తియ	-9.55282
▁హ	-9.55292
దస్సనం	-9.55294
త్వేవ	-9.554
▁యాని	-9.55432
▁జన	-9.55442
థా	-9.55458
▁భావ	-9.55479
▁అసఞ్ఞసత్తానం	-9.55531
▁బన్ధ	-9.55548
▁వణ్ణో	-9.55692
అథ	-9.55735
▁అఞ్ఞా	-9.55841
▁ఛన్నం	-9.55854
▁విహార	-9.55972
▁సేనాసనం	-9.56014
▁అభివాదేత్వా	-9.56064
నయో	-9.56074
జాతి	-9.56095
దస్సన	-9.562
▁కాతబ్బం	-9.5642
ీయ	-9.56458
▁భూమి	-9.56693
మానం	-9.567
▁గాథాయో	-9.56705
▁పబ్బజిత్వా	-9.56735
పుబ్బ	-9.56747
మేవాతి	-9.5695
త్తయ	-9.57038
▁పనేతం	-9.5709
▁సహజాతపచ్చయేన	-9.57139
▁నవిప్పయుత్తే	-9.57208
▁పటివిరతో	-9.57316
వగ్గ	-9.57436
▁అవి	-9.57509
▁నిమిత్త	-9.57563
▁సముట్ఠాతి	-9.57662
▁చూళ	-9.57745
ేసుపి	-9.57805
పీ	-9.57808
▁రూపక్ఖన్ధో	-9.57817
▁ఛిన్న	-9.57896
ఞాణం	-9.58076
▁సమత్తా	-9.58119
ద్వార	-9.58187
▁అరియ	-9.58231
▁జానన్తి	-9.58248
▁జనా	-9.58333
▁తిణ	-9.58498
▁లోకియ	-9.58588
▁కస్స	-9.58635
▁ఖుద్దక	-9.58725
▁భూత	-9.58733
▁సారిపుత్తో	-9.58768
▁పవత్తతి	-9.58894
▁విహారే	-9.58976
▁అఞ్ఞస్స	-9.59056
దేస	-9.59113
హార	-9.59284
▁సుదం	-9.59312
యస్స	-9.59316
ధి	-9.59335
▁జాత	-9.59354
▁నీల	-9.59538
▁గ	-9.59584
వే	-9.59717
▁బ్యఞ్జన	-9.599
▁భియ్యో	-9.59915
భయ	-9.60037
భ	-9.60086
వార	-9.60156
▁చాపి	-9.6016
▁విచికిచ్ఛానుసయ	-9.60187
▁ఆయతిం	-9.60202
▁దుక్ఖాయ	-9.603
నిమిత్త	-9.60485
▁వినిచ్ఛయో	-9.60552
▁మగ్గస్స	-9.60588
▁చోర	-9.60612
దానం	-9.60677
తాతి	-9.60757
▁కాలేన	-9.60798
▁అబ్యాకతం	-9.60799
▁అట్ఠారస	-9.60813
▁కామరాగానుసయో	-9.61015
▁నిరోధ	-9.61023
▁దేవానం	-9.6111
▁పవత్తే	-9.61196
కానం	-9.61211
▁ర	-9.6132
▁మణి	-9.61417
హత్థ	-9.6149
▁ఆహారే	-9.61496
▁అభావతో	-9.61501
▁వేదనం	-9.61503
▁సమ్పజానో	-9.61531
విహార	-9.61565
▁కతే	-9.61567
▁తత్థాతి	-9.61575
▁గాథాయ	-9.61686
▁పితు	-9.61689
నీయ	-9.61777
భో	-9.61858
పఞ్ఞత్తి	-9.6197
▁తుయ్హం	-9.61993
▁లోకస్స	-9.62194
▁రూపస్స	-9.62285
▁పురిసస్స	-9.62295
ుప్పత్తి	-9.62407
పచ్ఛాజాతే	-9.62454
▁నాగసేన	-9.62816
▁ఇత్థి	-9.62842
▁అసతి	-9.62848
వర	-9.62889
▁చిన్తేత్వా	-9.62903
గమన	-9.62912
▁వీసతి	-9.62934
▁విపాకం	-9.6294
▁పటిసన్ధి	-9.63158
▁ఆహార	-9.63308
సమాధి	-9.63317
ాహ	-9.63363
▁రాజానం	-9.63413
ాపేతి	-9.63582
కారణ	-9.63601
సూతి	-9.63608
▁హేతుం	-9.63749
మిదం	-9.6377
సాధు	-9.63842
▁దివా	-9.63976
మయ	-9.64233
▁కామే	-9.64235
▁ఉప్పన్నా	-9.64274
సన్తి	-9.64299
▁నేవదస్సనేన	-9.6431
మత్తమేవ	-9.64362
భత్త	-9.64372
▁౧౩	-9.64424
సుఖం	-9.64447
▁కథ	-9.64462
▁వితక్కో	-9.64465
▁అట్ఠాసి	-9.64547
▁ఏ	-9.64586
▁వట్టతీ	-9.64592
▁యక్ఖ	-9.64699
▁వితక్క	-9.64817
▁ఆకాసే	-9.6488
▁కామరాగానుసయ	-9.64973
▁అధి	-9.65016
▁ఠానేసు	-9.65036
ద్ధ	-9.65062
కిరియా	-9.65082
పుఞ్ఞ	-9.65114
▁సీహ	-9.6518
ల్ల	-9.65213
ఆదయో	-9.65297
▁సేయ్యథిదం	-9.65363
న్న	-9.65383
త్థా	-9.65463
హేతుయా	-9.65527
▁లోభ	-9.65602
▁పఠమో	-9.65646
▁ఉప్పజ్జిస్సతీతి	-9.6572
▁ఖన్ధేహి	-9.6573
▁బలవ	-9.65742
▁ధమ్మాయతనం	-9.65791
నత్థాయ	-9.65826
▁దుతియే	-9.65977
▁అరియా	-9.65991
బన్ధ	-9.65992
▁ఉత్తరి	-9.66044
▁పుచ్ఛతి	-9.66052
దా	-9.66116
▁పటిపన్నో	-9.66159
▁అయ	-9.66166
▁ఞాణేన	-9.66213
▁దివసే	-9.66246
▁కర	-9.66428
▁చన్ద	-9.66456
▁పటిఘానుసయో	-9.66512
ిత్థ	-9.66521
▁పవత్తా	-9.66532
▁సభావ	-9.66722
▁అనా	-9.66912
▁యుత్త	-9.66929
▁అధివచనం	-9.6697
▁ఏతదహోసి	-9.67002
ేతబ్బం	-9.67142
▁గరు	-9.67169
చిత్తస్స	-9.67212
▁పుథు	-9.67243
వారే	-9.67252
▁అఙ్గాని	-9.67343
▁దణ్డ	-9.67357
▁గణ్హ	-9.67358
పచ్చ	-9.6739
వట్ట	-9.67421
గో	-9.67475
గ్గహణ	-9.67492
▁పణ్డితా	-9.67524
▁నఆసేవనే	-9.6764
▁అకత్వా	-9.67717
▁మగ్గే	-9.67745
పుత్త	-9.67753
▁సుభ	-9.67783
రతన	-9.67853
వుత్తి	-9.67939
భన్తే	-9.6798
▁నిస్సగ్గియం	-9.67995
▁ఇత్థం	-9.68148
▁రే	-9.68152
▁పాపం	-9.68183
▁ఖణ	-9.68209
▁నిబ్బత్తి	-9.6822
▁ఘట	-9.68232
▁ఆసవానం	-9.68274
▁నపురేజాతే	-9.68285
▁౧౪	-9.68295
తరో	-9.68358
▁సగ్గ	-9.68447
▁జిన	-9.68534
▁గత	-9.68582
▁పదుమ	-9.68641
సదిస	-9.68643
▁విచికిచ్ఛా	-9.68662
న్ద	-9.68822
▁మహ	-9.68943
ేహీ	-9.68948
▁కామావచర	-9.68962
▁పహీనా	-9.69081
▁సచ్చాని	-9.69198
▁కిచ్చ	-9.69217
▁నకమ్మే	-9.69236
కత	-9.69252
▁భిన్న	-9.6932
▁చక్ఖుం	-9.69368
▁కేస	-9.69447
సుత్తాదివణ్ణనా	-9.69449
▁సఙ్ఘే	-9.69464
▁సఙ్గహితా	-9.69556
▁బోజ్ఝఙ్గా	-9.69563
▁అధిపతియా	-9.69623
▁బాల	-9.69758
కుసలో	-9.69761
▁వేద	-9.69821
మన్త	-9.69844
▁దిట్ఠియా	-9.69863
▁జాతియా	-9.69879
▁కరిత్వా	-9.69913
▁పాపుణాతి	-9.69932
▁నిక్ఖమిత్వా	-9.69939
యిత్వా	-9.6995
▁బాలో	-9.69992
సదిసం	-9.70039
▁సతం	-9.70048
▁వత్తుం	-9.70054
▁సేట్ఠ	-9.7015
నిమిత్తం	-9.70173
▁సమ్పయుత్తా	-9.70296
రం	-9.70313
▁సమ్మాసమ్బుద్ధ	-9.70321
▁ఉపనిస్సాయ	-9.70366
జ్ఝాన	-9.70384
కథఞ్చ	-9.70454
▁పఞ్చసు	-9.7047
▁చేతసో	-9.70483
▁పురిసిన్ద్రియం	-9.70498
▁తణ్హాయ	-9.70503
▁కిలేసా	-9.7051
సర	-9.70519
▁పఞ్ఞాయతి	-9.70536
▁పకతూపనిస్సయో	-9.70628
▁పహానాయ	-9.70656
కన్తి	-9.70684
▁లోకుత్తర	-9.7073
ాదితో	-9.70759
▁అనిదస్సనఅప్పటిఘ	-9.70763
నిద్దేసే	-9.70767
▁అయమేవ	-9.70782
హీతి	-9.70882
▁సత్తమం	-9.70904
తదా	-9.70929
తోపి	-9.70994
▁మిచ్ఛా	-9.71124
▁ఆచరియ	-9.71124
▁భాస	-9.71156
▁ఆమన్తేసి	-9.71293
▁తమ	-9.71325
▁రతన	-9.71329
▁అనులోమ	-9.71495
▁అలం	-9.71524
▁నవిపాకే	-9.71568
కిలేస	-9.71573
▁ఛట్ఠం	-9.71609
▁గమన	-9.71656
వసేనాతి	-9.71829
జా	-9.71871
▁యోజేతబ్బం	-9.71879
▁అగమాసి	-9.71966
అత్థ	-9.72041
▁జినో	-9.72111
▁పుగ్గల	-9.72167
▁తాత	-9.72237
▁కదాచి	-9.72279
▁సీస	-9.72438
ఇమే	-9.72537
▁హీ	-9.72552
▁తస్సత్థో	-9.72639
▁అనిచ్చతో	-9.72684
▁చరతి	-9.72688
▁అధిట్ఠాన	-9.72779
▁ఉపాలి	-9.7279
▁తమత్థం	-9.72929
గన్ధ	-9.73176
వగ్గవణ్ణనా	-9.73178
▁సమన్తతో	-9.73318
త్తే	-9.73339
▁అసఙ్గహితా	-9.73471
▁ఖాద	-9.73493
▁తతియో	-9.73498
▁అతివియ	-9.73579
▁చిన్తేసి	-9.7358
▁ఉప్పన్నో	-9.73632
▁సి	-9.73633
▁జాతం	-9.73647
▁బుద్ధానం	-9.73697
▁పరో	-9.73738
▁చక్కవత్తీ	-9.73843
అనుజానామి	-9.73859
▁నాభిజానామి	-9.73983
▁హేతుస్స	-9.74052
ణం	-9.74065
సహస్సాని	-9.74073
ాదికే	-9.74092
తతో	-9.74098
ేనపి	-9.74109
▁ఉపేక్ఖిన్ద్రియం	-9.74202
▁ఇమాయ	-9.74251
▁సీత	-9.74277
▁పుచ్ఛిత్వా	-9.74329
▁గచ్ఛతీతి	-9.74391
▁పహాన	-9.7441
▁సబ్బో	-9.74463
▁పచ	-9.74583
▁తథ	-9.7467
▁నిమిత్తం	-9.7473
▁పరిపుణ్ణ	-9.74803
రా	-9.74862
ఖ	-9.74932
మనో	-9.74962
గామ	-9.75026
▁ఖణే	-9.75049
▁నిట్ఠితో	-9.75089
▁చేతం	-9.75126
ాపన	-9.75158
▁వత్థ	-9.75269
▁అట్ఠమం	-9.7529
▁ఏత్థాపి	-9.7534
పస్స	-9.75402
▁అనుసయా	-9.75404
వత్థ	-9.7543
మల	-9.75436
కుసల	-9.75443
ారమ్మణం	-9.75548
▁పచ్ఛిమానం	-9.7557
▁౧౫	-9.75699
య్య	-9.75711
గ్గహణం	-9.75726
▁ఠాన	-9.75752
సూ	-9.75794
▁సయమేవ	-9.75869
తూ	-9.75949
▁సహజాత	-9.75968
ఞ్ఞేవ	-9.75987
ామీ	-9.76012
▁అయమేత్థ	-9.76035
చ్చాది	-9.76078
▁థ	-9.76139
▁భాసతి	-9.76284
నత్థం	-9.76284
▁యోనిసో	-9.76474
▁అతిరేక	-9.76612
▁గహితా	-9.76737
ితబ్బో	-9.76767
▁మహన్త	-9.76768
ాదికం	-9.76791
▁మన్త	-9.76868
ఓ	-9.76918
క్ఖన్ధ	-9.76975
వాదీ	-9.77122
మత్తేన	-9.77133
▁దేసేతి	-9.77133
మ్హ	-9.77159
▁పబ్బజితో	-9.77175
మత్తే	-9.77178
దం	-9.77194
▁౬౭	-9.77299
▁సఞ్ఞాక్ఖన్ధో	-9.77351
▁గామం	-9.77364
విఞ్ఞాణ	-9.77637
▁కిలేసే	-9.77638
▁ఇధేకచ్చో	-9.77641
వన	-9.7771
▁ఆయు	-9.77741
▁వుత్తాని	-9.77746
▁కథఞ్చ	-9.77756
▁తఞ్హి	-9.77785
▁౫౯	-9.77805
▁సత్థారం	-9.77806
▁అనాగత	-9.77809
▁వాచం	-9.77824
▁సమం	-9.77859
భావనా	-9.78013
లక్ఖణా	-9.78021
▁నన్ద	-9.7805
నట్ఠేన	-9.78105
▁పఞ్ఞిన్ద్రియం	-9.78132
▁నిస్సయ	-9.78158
▁మిచ్ఛాదిట్ఠి	-9.78161
▁మహాసత్తో	-9.78176
▁సరీరం	-9.78202
త్థి	-9.78321
త్య	-9.78321
▁౨౨	-9.78334
బ్య	-9.78346
▁అత్తని	-9.78355
ప్	-9.78369
▁నదీ	-9.78374
▁లభిత్వా	-9.78412
ానేవ	-9.78443
▁మనాయతనం	-9.7854
ేయేవ	-9.78551
దస	-9.78562
▁ఇదమ్పి	-9.78618
సమ్పత్తియా	-9.78802
▁౧౬	-9.78803
వాతి	-9.78817
▁ఞాతి	-9.78823
ప్పత్తో	-9.7886
▁ఘానిన్ద్రియం	-9.78868
▁అవోచ	-9.78886
▁పరతో	-9.7889
▁మరణం	-9.78893
▁భోజనం	-9.78911
▁పహీనో	-9.78927
▁ఉపలబ్భతి	-9.78928
▁లిఙ్గ	-9.79059
నత్థియా	-9.79166
▁పుచ్ఛ	-9.79175
▁భుఞ్జ	-9.7936
▁కాయసఙ్ఖారో	-9.79391
▁అరఞ్ఞే	-9.79396
▁మజ్ఝిమ	-9.7945
పణ్ణ	-9.79562
నక	-9.79593
▁దోమనస్సం	-9.79602
▁తింస	-9.79609
న్తిఆదీసు	-9.79679
▁మధుర	-9.79688
మంస	-9.79708
▁విత్థారేన	-9.79731
▁సత్తరస	-9.79738
▁వణ్ణం	-9.79745
▁భరియా	-9.79812
▁ఛన్దో	-9.79833
▁అక్ఖ	-9.79858
▁ఉతు	-9.79883
▁మనుస్సానం	-9.799
ాపత్తి	-9.79945
▁హీన	-9.80022
▁పబ్బత	-9.80142
సఙ్ఘ	-9.80212
▁ఆహారో	-9.80265
ాభావతో	-9.80336
▁తస్సుద్దానం	-9.80338
▁ఏతస్మిం	-9.80394
▁సద్దం	-9.80441
▁పహాతబ్బహేతుకో	-9.80489
▁౫౬	-9.80499
▁పుఞ్ఞాని	-9.80546
▁ఇత్థిన్ద్రియం	-9.80601
▁ఆవి	-9.80634
▁రోగ	-9.80638
▁దట్ఠబ్బా	-9.80661
నత్థి	-9.80697
సేయ్యథాపి	-9.80705
▁చక్ఖునా	-9.80721
▁జాతకం	-9.80727
రత్త	-9.80744
▁హర	-9.80841
▁సంవత్తతి	-9.80842
▁దిట్ఠేవ	-9.80879
▁సముదయో	-9.80902
సఙ్ఖాత	-9.80939
▁ఏతేనాతి	-9.81008
▁గహణ	-9.81103
▁భత్తం	-9.8111
▁దసమం	-9.81212
▁వత్తబ్బా	-9.81296
ఘ	-9.81312
▁పవిస	-9.81355
సముట్ఠాన	-9.81424
▁సద్ధిన్ద్రియం	-9.81467
ద్వయం	-9.81577
▁గమ	-9.81594
▁వత్తబ్బో	-9.81603
▁నిరోధో	-9.8163
కారణం	-9.81669
ేతబ్బ	-9.81714
▁క్వచి	-9.81722
▁రూపాని	-9.81778
ఘాత	-9.81792
▁కస్సప	-9.81851
▁అప్పటి	-9.81863
▁యాయ	-9.81894
▁రత్తి	-9.81935
మగ్గో	-9.81961
ేమి	-9.82025
▁అవిజ్జానుసయ	-9.82072
▁కామా	-9.82079
లిఙ్గ	-9.82099
▁మేత్తా	-9.82102
▁ఇమేసు	-9.82192
సచ్చ	-9.82213
ాదీసుపి	-9.82225
▁పాణ	-9.82284
▁వస్సాని	-9.82291
▁దస్స	-9.82329
▁రక్ఖ	-9.82422
▁ముత్త	-9.8247
▁ఉప్పజ్జిత్థాతి	-9.82571
▁పరిత్త	-9.82665
▁వు	-9.82693
ీయతీతి	-9.827
▁బీజ	-9.8271
గణ	-9.82756
▁అఞ్ఞత్థ	-9.82776
▁రమ	-9.82824
తరం	-9.82825
▁కామేహి	-9.82964
ట్ఠం	-9.83011
▁బుద్ధా	-9.83022
▁విగత	-9.83049
నేవ	-9.83062
▁గన్థ	-9.83101
▁అఞ్ఞమఞ్ఞ	-9.83105
▁సుచి	-9.83205
▁అమత	-9.83242
▁ఓభాస	-9.83262
▁ఇతరేసం	-9.83321
నాతి	-9.8337
▁అన్త	-9.83402
ాపేసి	-9.83466
▁వేదనాసు	-9.83489
దుకం	-9.83514
కారస్స	-9.83603
మహ	-9.83634
వజ్జ	-9.8365
▁సహజాతం	-9.83662
▁అహమేవ	-9.8367
ముఖేన	-9.8384
▁రథ	-9.83906
▁దాతబ్బం	-9.83913
▁౧౭	-9.8401
▁పఠమే	-9.84018
▁బ్రాహ్మణస్స	-9.84049
తుం	-9.84052
▁తహిం	-9.84169
▁సిక్ఖాపదం	-9.84184
▁సమ్మాసమ్బుద్ధో	-9.84399
▁విత్థారతో	-9.84533
▁కతిహి	-9.84543
ిస్స	-9.84572
▁యాచ	-9.847
▁పుగ్గలం	-9.84715
▁విదిత్వా	-9.84748
▁౬౮	-9.84818
▁కమ్మేన	-9.84835
▁భవో	-9.84969
▁నవమం	-9.84974
▁౫౭	-9.84975
▁పకాస	-9.84989
▁రూపే	-9.85004
▁రత్తిం	-9.85035
ాసు	-9.85041
ాకారేన	-9.85043
▁గాథం	-9.85052
▁ముఖం	-9.85085
▁కోధ	-9.851
మీ	-9.85119
▁ఉదాహు	-9.85223
▁కాలో	-9.85398
కతమేహి	-9.85491
జన	-9.85513
▁యథారహం	-9.85529
▁దుక్కట	-9.85548
సఞ్ఞాయ	-9.85571
సహ	-9.85572
▁తిస్స	-9.85603
▁తువం	-9.85668
▁ఏవమాదినా	-9.85756
▁ఆగమ	-9.85758
▁అనన్తరే	-9.85763
▁పకాసేన్తో	-9.85769
▁కతమాని	-9.85779
▁అపరభాగే	-9.85845
కారీ	-9.85856
▁కాళ	-9.85864
సతి	-9.85907
యోగ	-9.85929
మాస	-9.85937
▁పయోగే	-9.8597
▁౭౦	-9.85979
౧౦	-9.8598
▁సేసా	-9.86009
▁మంస	-9.86013
▁వియాతి	-9.86034
▁కమ్మట్ఠాన	-9.86043
▁అనుసాస	-9.86079
ఇమం	-9.86132
▁సచ్చికట్ఠపరమత్థ	-9.86141
▁నిబ్బత్తో	-9.86167
సత	-9.8617
రాగ	-9.86217
▁సమణబ్రాహ్మణా	-9.86232
త్థేరస్స	-9.86235
▁మానానుసయో	-9.86295
▁కామధాతుయా	-9.86323
▁అరియో	-9.864
లోపో	-9.86447
▁వివేక	-9.86468
▁రాజగహే	-9.86531
▁వచీసఙ్ఖారో	-9.86591
చిత్తసముట్ఠానఞ్చ	-9.86655
▁ఏవఞ్హి	-9.86668
▁విపస్సనం	-9.8677
▁పాసాణ	-9.86776
▁ఆగమ్మ	-9.86922
▁ఆరమ్మణాధిపతి	-9.86925
క్కమ	-9.8693
హా	-9.86946
చక్ఖు	-9.87017
▁సమ్ముఖా	-9.87023
▁జల	-9.87069
▁దేవో	-9.87077
▁సఞ్ఞోజన	-9.87108
▁మాతు	-9.87112
చేతనా	-9.87144
బన్ధన	-9.8715
▁విపాకే	-9.87186
▁సుఖా	-9.87209
▁నసమ్పయుత్తే	-9.87236
సతాని	-9.87275
ేతీ	-9.87289
▁పారాజికం	-9.8732
▁అమ్బ	-9.87328
వేదనా	-9.8747
▁దేస	-9.87489
▁నిర	-9.87536
▁అరఞ్ఞ	-9.87556
▁పరిదేవ	-9.87579
బ్భ	-9.87587
వో	-9.8763
▁యేభుయ్యేన	-9.87683
▁హిత	-9.87719
▁ఏవాతి	-9.87734
వణ్ణం	-9.87942
▁దిస్వాన	-9.87963
▁సంవర	-9.87997
▁సేసమేత్థ	-9.88013
ేనా	-9.88029
▁సోమనస్స	-9.8806
▁గరహ	-9.8818
▁దూరే	-9.88196
న్తానం	-9.88211
▁సమథ	-9.8822
▁కమ్మట్ఠానం	-9.88266
▁ఆహర	-9.88339
కాని	-9.88404
▁అసంకిలిట్ఠ	-9.88439
▁కే	-9.8845
ాయతన	-9.88569
▁అనన్తర	-9.88692
▁తుణ్హీ	-9.88715
▁కప్పియ	-9.88743
▁మఙ్గల	-9.88749
భాస	-9.88785
సభావ	-9.88788
▁సఞ్ఞాయ	-9.88939
▁౧౮	-9.89099
▁ఏకాయ	-9.89141
▁అపర	-9.89178
ామీతి	-9.89216
▁ఏకన్త	-9.89258
▁పుత్తం	-9.89276
మఞ్ఞ	-9.89359
కిలేసా	-9.89425
▁కరుణా	-9.89462
▁సద్ధాయ	-9.8948
▁౬౫	-9.89504
▁కిరియా	-9.89524
▁ఉద	-9.89525
▁గహణం	-9.89542
▁పన్నరస	-9.89551
▁మధు	-9.89562
▁వత్తతి	-9.89579
▁నగర	-9.89583
▁ముసా	-9.89588
▁యథాక్కమం	-9.89589
▁ఏతేసు	-9.89616
గతి	-9.89638
▁గిహి	-9.8964
▁ఉపోసథ	-9.89713
▁యుజ్జతి	-9.89722
దుక	-9.89817
▁కుసలస్స	-9.89817
▁సేత	-9.89818
సీస	-9.89842
▁అభాసిత్థాతి	-9.89909
▁౬౧	-9.89937
▁అన్తమసో	-9.89974
స్సిదం	-9.90002
సమ్పదా	-9.90067
సుణాతు	-9.90068
▁౭౫	-9.90081
▁౬౯	-9.90128
లోమ	-9.90154
▁౧౯	-9.90298
▁అకప్పియ	-9.904
▁సఙ్గణ్హాతి	-9.90442
ధా	-9.90498
▁కులే	-9.90518
▁౮౦	-9.90525
▁వద	-9.90536
▁సమ్ప	-9.90566
▁కథితం	-9.90588
▁దళ్హ	-9.90651
▁లోకస్మిం	-9.90656
▁ఠపిత	-9.90657
▁గచ్ఛేయ్య	-9.90667
▁పారాజిక	-9.90706
▁భిక్ఖుస్స	-9.90747
▁అతీతే	-9.90769
తణ్హా	-9.90771
▁లోభో	-9.90784
▁రత్త	-9.9082
▁౭౪	-9.90825
▁తర	-9.90902
యుత్త	-9.90903
▁సావక	-9.90913
భోగ	-9.90919
రాసి	-9.90921
▁అనవజ్జ	-9.91001
▁పురేజాతపచ్చయేన	-9.91082
▁గచ్ఛన్తో	-9.911
▁అరూప	-9.91211
▁ఏవమేతం	-9.9127
▁౫౫	-9.91282
▁దుక్ఖసచ్చం	-9.91347
▁సమా	-9.91423
ధమ్మానం	-9.91463
ేయ్యా	-9.91533
▁సాధారణ	-9.91553
▁కథితా	-9.91558
▁సమ్పయుత్తో	-9.91564
▁అజ	-9.91615
▁జరా	-9.91674
▁౫౮	-9.91681
ాధిపతి	-9.91698
కు	-9.91702
మయా	-9.91751
సతం	-9.9184
▁కేహిచి	-9.91843
▁సరణ	-9.91846
ద్వయ	-9.91852
ిస్సతీ	-9.91859
▁౨౦	-9.91924
▁వచ్ఛ	-9.91968
▁సద్దో	-9.92015
గ్గాహ	-9.92075
సఙ్ఖాతా	-9.92192
▁నిరయం	-9.92222
పుగ్గల	-9.92294
▁ఘానాయతనం	-9.92334
▁వాపి	-9.92343
▁నరో	-9.92382
చి	-9.92389
▁హత్థే	-9.92427
అను	-9.92428
దేసనా	-9.92441
▁పూరేత్వా	-9.92534
▁రూపధాతుయా	-9.92535
▁మగ్గేన	-9.9267
రతో	-9.92705
▁తతియే	-9.92726
▁ఇన్ద్రియం	-9.92727
▁అకత	-9.9289
▁౭౩	-9.92926
▁ఏకచ్చే	-9.92998
▁మన	-9.93057
▁పబ్బజ్జా	-9.93171
▁సహజాతా	-9.93183
▁౬౦	-9.93231
ఆదీనం	-9.93356
▁ఆయతన	-9.934
▁పటిజానాతి	-9.93414
▁నామరూప	-9.93421
కోటి	-9.93427
▁౨౧	-9.93439
▁నివత్త	-9.93487
▁దన్త	-9.93493
▁ద్విధా	-9.93501
▁౭౬	-9.93593
▁సమ్మాసమాధి	-9.93666
▁నయ	-9.93711
▁వన్ద	-9.93781
▁విఞ్ఞాణక్ఖన్ధో	-9.93795
▁నుప్పజ్జిస్సతి	-9.93821
▁జాయతి	-9.93835
▁హన	-9.93927
▁అక్కోస	-9.93951
▁అధో	-9.93981
▁అఞ్ఞేసం	-9.94027
▁సమన్తా	-9.94065
▁పటిపక్ఖ	-9.94079
ితుకామో	-9.94109
రీ	-9.94221
▁భ	-9.9426
▁యేహి	-9.94311
భేదో	-9.9432
విధ	-9.94326
▁సామఞ్ఞ	-9.94455
▁విప్పయుత్తా	-9.94509
▁ఇమిస్సా	-9.94563
▁ఇరియాపథ	-9.94607
▁పరిచ్ఛేదో	-9.94671
కేహి	-9.94688
▁సేయ్యో	-9.94813
▁అరహం	-9.94823
అవితక్కవిచారమత్త	-9.94843
▁విహరామి	-9.94855
జాత	-9.94868
విసయ	-9.949
పురిస	-9.94901
▁మిత్త	-9.95004
▁ఉదకే	-9.95014
▁జానామి	-9.95021
▁ముఞ్చ	-9.95043
▁హేతుపచ్చయో	-9.95053
▁తేపి	-9.9509
▁హదయ	-9.95208
ార	-9.95252
లా	-9.95316
▁నిరయ	-9.95325
▁నఉపనిస్సయే	-9.95328
▁అనన్త	-9.95367
▁తేనేవాహ	-9.9542
దో	-9.95512
▁౨౩	-9.9552
▁ఏతస్సాతి	-9.95602
▁కసిణ	-9.95606
▁పూర	-9.95639
▁భావితా	-9.95639
▁౭౯	-9.95643
▁సఙ్ఖారక్ఖన్ధో	-9.95669
పా	-9.9568
▁౮౬	-9.95721
విసేసో	-9.95776
▁పరియాయేన	-9.95782
హీ	-9.95817
▁హఞ్చి	-9.95834
▁ఉపనిస్సయే	-9.95851
▁చుద్దస	-9.95882
▁వికప్ప	-9.95973
▁౭౮	-9.95979
గ్ఘ	-9.9608
▁అధిప్పేతో	-9.96114
▁సన్తే	-9.96118
▁సఙ్ఖారే	-9.96137
క్క	-9.96148
▁దాతుం	-9.9615
▁అనిచ్చం	-9.9617
▁మాతాపితరో	-9.96174
▁గహితం	-9.96194
▁లోహిత	-9.96198
వణ్ణో	-9.96235
▁సఙ్గహో	-9.96264
ినా	-9.96321
హిత	-9.96338
సేస	-9.96382
▁సీసం	-9.96483
▁కాతబ్బో	-9.96505
▁పచ్ఛిమభవికానం	-9.96526
▁ఖత్తియ	-9.96542
భాగ	-9.96609
▁ఏకే	-9.96631
▁అనత్థ	-9.96688
▁అపాయ	-9.96715
▁నేక్ఖమ్మ	-9.96717
దు	-9.96762
▁బాహిరం	-9.96767
▁సమన్నాగతా	-9.96834
జో	-9.96852
▁సబ్బాని	-9.96871
▁మన్ద	-9.96952
▁దుస్స	-9.96969
లక్ఖణో	-9.96979
▁కరణ	-9.97022
▁౬౬	-9.97044
▁ఝానే	-9.97055
గతా	-9.97086
▁సహజాతే	-9.97125
నఝానే	-9.972
▁మఞ్ఞే	-9.97223
▁తిట్ఠన్తి	-9.97287
▁౯౦	-9.97316
▁లభ	-9.97321
▁పివ	-9.97348
భణ్డ	-9.97476
▁జాల	-9.97477
▁పరిపూర	-9.97515
రుక్ఖ	-9.97523
▁౮౩	-9.97548
▁ఛబ్బగ్గియా	-9.9755
▁ఇత్థన్నామ	-9.97581
▁౨౪	-9.97598
మ్పీతి	-9.976
▁భోగ	-9.97648
▁ఏవరూపో	-9.9765
తిఆదీని	-9.97685
నయేన	-9.9776
సమయే	-9.9781
న్తియా	-9.97845
▁ఏకేక	-9.97856
వీరియ	-9.97868
▁భణ	-9.97874
▁దస్సనం	-9.97891
▁అత్థస్స	-9.97897
సదిసో	-9.97956
▁కామేసు	-9.97972
▁నిస్సయే	-9.98
▁సంసార	-9.98031
▁పణ్డిత	-9.98038
జాన	-9.98057
▁ఏవమేత్థ	-9.98109
▁అనుత్తరం	-9.98117
ప్పవత్తి	-9.98122
▁సత్తో	-9.98122
విస	-9.98125
▁కి	-9.98129
▁లాభ	-9.98177
▁అరూపధాతుయా	-9.98247
▁అధికరణం	-9.98247
▁విముత్తి	-9.98285
▁పదాని	-9.98334
పఞ్హో	-9.98376
▁వచనేన	-9.98406
▁ఇదఞ్చ	-9.98462
▁విచికిచ్ఛానుసయో	-9.98493
ఫలం	-9.98549
ుడ్	-9.98646
▁అస్సాద	-9.98673
అభి	-9.98681
▁ఆరమ్మణపచ్చయా	-9.98682
▁అభిఞ్ఞాయ	-9.98717
▁దిట్ఠం	-9.98822
▁విహరన్తి	-9.98836
▁సత్తే	-9.98847
▁నాస	-9.98869
▁నేతం	-9.98928
▁ఉపాదాన	-9.9895
▁తక్క	-9.98996
▁నిరయే	-9.99058
▁ఏవమస్స	-9.99059
▁సియాతి	-9.99101
▁సముదయసచ్చం	-9.99105
మణి	-9.99286
▁సుగతో	-9.99402
దస్సనత్థం	-9.9942
ేక	-9.99555
▁౨౫	-9.9962
▁సఙ్గహ	-9.99623
వతీ	-9.99639
▁ముదు	-9.99646
గా	-9.99649
▁భవిస్సన్తి	-9.99675
▁ఇతర	-9.99748
▁పరియాయ	-9.99748
▁పనావుసో	-9.99826
▁వగ్గ	-9.99851
▁దాతబ్బో	-10.0001
▁ఉద్దిస్స	-10.0001
అనన్తరే	-10.0002
ణి	-10.0002
▁౮౮	-10.0011
భోజన	-10.0012
తన్తి	-10.0013
చిత్తా	-10.0017
▁అభినన్దతి	-10.0024
▁పహాతబ్బం	-10.0026
▁ఛసు	-10.0034
కతా	-10.0037
▁ఉద్దేస	-10.0038
▁చిత్తసఙ్ఖారో	-10.0039
▁కరోన్తస్స	-10.004
▁బాహిర	-10.005
▁అద్ధా	-10.0053
▁పమాణం	-10.0053
▁విభజిత్వా	-10.0057
సఞ్ఞ	-10.006
▁౨౬	-10.0074
▁పురేజాతం	-10.0081
▁౮౪	-10.0083
▁భజ	-10.0089
▁వివర	-10.009
▁నూన	-10.0092
▁అధిపతి	-10.0101
▁పరిసా	-10.0108
▁ఆగతం	-10.0109
సుత్తే	-10.011
న్తిపి	-10.0115
▁తంతం	-10.0119
▁సహేతుక	-10.012
ేతబ్బా	-10.0122
▁ఆరామే	-10.0122
▁పుథుజ్జనో	-10.0128
▁పవ	-10.0131
పన	-10.0133
▁వీమంస	-10.0135
▁దేన్తి	-10.0139
▁సత్తమే	-10.014
కతం	-10.0149
▁బోధిసత్తస్స	-10.015
▁మనుస్సేసు	-10.015
▁౭౧	-10.0156
▁దేవదత్తో	-10.0157
▁అధిప్పేతా	-10.0159
▁పుణ్ణ	-10.0159
ణ్డ	-10.0163
▁సన్ధాయాహ	-10.0165
▁భణ్డ	-10.0171
కాయో	-10.0179
అహో	-10.0181
▁అనుపాదిన్న	-10.0183
▁ఏవమేవం	-10.0185
▁సాల	-10.0187
నమ	-10.0196
ట్ఠా	-10.0202
▁ఇసి	-10.0207
▁గిలాన	-10.0209
▁బ్రాహ్మణం	-10.0211
▁అజ్ఝత్త	-10.0213
▁౧౦౦	-10.0214
▁తేల	-10.0216
సఙ్ఖాతో	-10.0218
▁బ్రహ్మా	-10.0221
▁వనే	-10.0222
ముప	-10.0222
▁సున్దర	-10.0224
ీసు	-10.0228
▁చతుత్థే	-10.0235
▁ఆపన్నో	-10.024
గాథా	-10.0241
జం	-10.0256
▁పరమత్థ	-10.0259
▁వత్థుఞ్చ	-10.0259
▁౭౨	-10.026
▁యు	-10.0264
▁సచ్ఛికత్వా	-10.0268
▁ఉత్తానమేవ	-10.027
క్	-10.0273
▁౨౮	-10.0277
▁నిసీద	-10.0278
త్ర	-10.0282
▁గామే	-10.0283
▁సమణా	-10.0286
▁౮౯	-10.0288
▁పఠమజ్ఝాన	-10.0288
▁బలం	-10.0301
▁౨౭	-10.0302
▁ఖయ	-10.0304
సదిసా	-10.0307
▁కారేత్వా	-10.0308
▁సకం	-10.032
▁సద్ధమ్మ	-10.0321
మమ	-10.0322
▁నేవవిపాక	-10.0324
జాతో	-10.0328
మజ్ఝే	-10.034
త్తాతి	-10.0354
▁ఖత్తియో	-10.0354
వంస	-10.0354
▁అహ	-10.036
మనుస్స	-10.0362
▁ఇచ్ఛ	-10.0364
పక్ఖ	-10.037
▁మచ్ఛ	-10.0382
▁సక్క	-10.0386
▁ఘర	-10.0386
మత్తమ్పి	-10.0403
▁ఛిన్దిత్వా	-10.0404
త్తో	-10.0407
ిదం	-10.0419
▁హిత్వా	-10.0425
▁నమో	-10.0426
▁పగేవ	-10.0433
కథ	-10.0434
తఞ్చ	-10.0446
వగ్గే	-10.0447
▁అనాగతే	-10.0449
▁వుత్తనయమేవ	-10.045
జాల	-10.0453
▁భిక్ఖునీనం	-10.0453
▁దిట్ఠిం	-10.0454
▁సోభ	-10.0454
▁౮౫	-10.0457
▁ఆచిక్ఖ	-10.0458
▁ఆసనే	-10.0458
▁మారో	-10.046
పుత్తో	-10.0463
▁దోమనస్స	-10.0465
▁వస్సం	-10.0465
▁అమ్హేహి	-10.0469
▁౨౯	-10.0469
▁౭౭	-10.047
▁పమాణ	-10.0473
▁ఛిన్ద	-10.0488
▁ఏతాని	-10.0489
▁౩౧	-10.0491
▁అనిచ్చా	-10.0494
▁మూలం	-10.0497
▁విజ్జమాన	-10.0501
▁పస్సామి	-10.0505
▁౮౭	-10.0512
ిస్సం	-10.0515
మను	-10.0521
▁ఇచ్ఛతి	-10.0524
▁అరూపే	-10.0524
▁సహజాతాధిపతి	-10.0526
▁ఆనేత్వా	-10.0528
▁౩౦	-10.0533
▁నిదాన	-10.0533
▁రఞ్ఞా	-10.0534
▁భోజన	-10.054
▁ఛహి	-10.0541
▁ఆదితో	-10.0542
▁యుత్తం	-10.0544
▁పావిసి	-10.0544
▁రహో	-10.0545
▁౮౧	-10.0547
▁సదిస	-10.0549
▁కత్తు	-10.0556
పయోగ	-10.056
▁మహాభూతం	-10.0566
▁జానిత్వా	-10.0568
▁నత్థీ	-10.0569
గాహ	-10.0571
సఙ్ఖ	-10.0571
▁రత్తియా	-10.0576
▁ఝానస్స	-10.0578
▁నప్పజహతి	-10.0581
▁సతియా	-10.0583
▁అవసేస	-10.0583
సల్ల	-10.0584
▁౮౨	-10.0585
▁వత్తతే	-10.0597
▁అవిజ్జానుసయో	-10.06
ితబ్బా	-10.0606
ఇన్ద్రియ	-10.0607
▁ఇధాపి	-10.0611
▁పవత్తం	-10.0614
▁వధ	-10.0614
▁మాణవ	-10.0615
అన	-10.0618
▁అక్ఖర	-10.0618
▁అనుకమ్ప	-10.0635
వినయ	-10.0636
నిదాన	-10.0638
▁పణ్ణ	-10.0641
▁అచ్ఛ	-10.0641
▁థేరా	-10.066
కి	-10.0662
ాదిం	-10.0665
ుత్తర	-10.0665
▁పరినిబ్బాయిస్స	-10.0668
ిత్వాన	-10.0671
▁అమతం	-10.0677
▁సేనాసన	-10.068
▁బుజ్ఝ	-10.068
ఉపాదిన్నుపాదానియ	-10.0684
▁సతిమా	-10.0686
▁౬౨	-10.0691
▁వరం	-10.0691
ేతు	-10.0693
▁ఓవాద	-10.0695
▁హేట్ఠిమ	-10.0696
ేసీతి	-10.0698
▁అతిక్కమ	-10.0703
కారణా	-10.0705
▁పరివార	-10.0711
సమ్బన్ధ	-10.0715
మ్మ	-10.0724
▁ఉప్పాదేతి	-10.0726
▁ఉణ్హ	-10.0729
▁ఇధేవ	-10.0736
ాధిక	-10.0744
మణ్డల	-10.0749
▁పటిలద్ధ	-10.075
▁యజ	-10.0751
▁సట్ఠి	-10.0757
▁ఇట్ఠ	-10.0757
▁గబ్భ	-10.0762
▁దక్ఖిణ	-10.077
భావస్స	-10.0778
చతు	-10.078
▁ఠితస్స	-10.0781
▁బన్ధిత్వా	-10.0783
ణీ	-10.0784
▁గేహ	-10.0788
సఞ్ఞినో	-10.0795
▁మఞ్ఞతి	-10.0795
▁పరివత్త	-10.0798
▁చతుత్థో	-10.0799
▁సహేతుకో	-10.0804
▁పస్సన్తో	-10.0806
▁చక్క	-10.0806
▁సుణాతి	-10.0806
▁ఆవజ్జన	-10.0808
▁సమోధానేసి	-10.081
ీయన్తి	-10.0811
▁కథాయ	-10.0813
▁అఞ్ఞమఞ్ఞే	-10.0814
ఏవ	-10.0818
పుర	-10.0827
▁సన్ద	-10.0832
▁నిపాతో	-10.0836
▁ఏవరూపా	-10.0838
▁సన్తం	-10.0844
▁అసుభ	-10.0846
ఆదీసు	-10.0847
▁పుగ్గలానం	-10.0848
ఞ్జ	-10.0852
▁అహో	-10.0863
వాస	-10.0865
ావుసో	-10.0866
దుక్ఖం	-10.0867
త్థేరగాథావణ్ణనా	-10.0869
▁ఉప్పజ్జి	-10.0869
▁గన్తుం	-10.0872
▁కుక్కుచ్చం	-10.0873
సమ్	-10.0884
▁పహాతబ్బా	-10.0891
బ	-10.0894
వితక్క	-10.0897
నాయ	-10.0901
▁అఞ్ఞేహి	-10.0903
వచనేన	-10.0903
▁ఇచ్ఛా	-10.0903
▁గహేతబ్బో	-10.0906
▁లోపో	-10.0911
▁చేతసిక	-10.0914
కులే	-10.0917
▁వుచ్చతీతి	-10.0919
సఙ్ఖాతేన	-10.092
▁నకుసలో	-10.0921
దీప	-10.0925
▁సబ్బథా	-10.0928
▁పమాద	-10.0936
▁పసంస	-10.0939
▁విసయ	-10.0942
▁కుస	-10.0942
▁ఇన్ద్రియే	-10.0949
బీజ	-10.0953
▁పరిసాయ	-10.0959
▁సంయోజన	-10.096
▁కల్యాణ	-10.0962
▁ఝాపితా	-10.0964
▁విసేసతో	-10.0964
▁కుసలేసు	-10.0966
▁తాదిసం	-10.0967
▁అయఞ్చ	-10.0968
▁దుతియా	-10.0968
చరియా	-10.0979
▁సబ్బమ్పి	-10.0989
▁అల	-10.0997
మార	-10.0999
▁భేసజ్జ	-10.1001
▁తిక	-10.1003
సఙ్ఖార	-10.1012
ాహార	-10.1025
▁యంకిఞ్చి	-10.1033
▁అఞ్ఞతర	-10.1035
▁పథవిం	-10.1037
▁సప్పి	-10.1044
దస్సనేన	-10.1045
ధార	-10.1048
దణ్డ	-10.1049
▁భణతి	-10.1049
భేదతో	-10.105
▁కణ్హ	-10.1053
▁దస్సితో	-10.1055
▁౩౨	-10.1069
▁దాస	-10.107
▁అప్పనా	-10.1077
▁ఫుస	-10.1096
▁మఞ్ఞ	-10.1098
ఇమినా	-10.1099
పబ్బత	-10.1105
▁థేర	-10.1106
▁మగ్గా	-10.1106
▁౩౩	-10.111
▁కాక	-10.111
▁అనిచ్చ	-10.1114
▁మగ్గసచ్చం	-10.1117
▁అట్ఠి	-10.1118
ారామ	-10.112
▁సత్తాహం	-10.1121
▁సే	-10.1121
▁సబ్బేసు	-10.1127
మూలక	-10.1129
▁పరిభోగ	-10.1135
▁ఏతేహి	-10.1139
▁అనాగతం	-10.1141
రసో	-10.1142
▁అవత్వా	-10.1144
▁వయ	-10.1146
ాప	-10.1149
▁౩౫	-10.115
ాపేతుం	-10.1151
నాగ	-10.1155
వూపసమ	-10.116
▁౯౭	-10.117
బ్యఞ్జన	-10.1175
▁ఆకార	-10.1179
▁ఏకదివసం	-10.118
భేదేన	-10.118
▁కిచ్చం	-10.118
▁ఇన్ద	-10.1182
▁పక్కామి	-10.1182
▁కణ్ణ	-10.1184
▁థేరం	-10.1186
▁హేతం	-10.119
చీవరం	-10.1193
▁జిణ్ణ	-10.1195
▁బన్ధన	-10.1196
▁నానుసేతి	-10.12
▁మానో	-10.1203
దన్త	-10.1205
▁కుసలానం	-10.1205
▁అవిజ్జాయ	-10.1207
▁వివట్ట	-10.1208
▁ఉపోసథం	-10.121
సచ్చం	-10.1216
కోట్ఠాస	-10.1216
▁కత్తబ్బ	-10.1218
▁సమ్	-10.1225
నమ్పి	-10.1226
▁౯౪	-10.1229
▁మాస	-10.123
సబ్బే	-10.123
▁అనాసవో	-10.1233
తమ	-10.1235
మత్తా	-10.1238
▁నాగో	-10.1242
▁పక్ఖిపిత్వా	-10.1245
రథ	-10.1245
▁లాభీ	-10.1247
▁సుణాథ	-10.1247
▁జనో	-10.1248
▁వోహార	-10.1258
▁అనుసేతి	-10.1262
▁పహానం	-10.1265
▁మతా	-10.1268
▁అహోసీతి	-10.1268
▁సోతం	-10.1272
▁పురిసా	-10.1276
కారం	-10.1277
▁ణో	-10.1282
▁ఆచరియో	-10.1285
▁ఉపమా	-10.1286
▁అతిక్కమిత్వా	-10.1288
▁దారు	-10.1289
▁సిక్ఖ	-10.1291
మ్బ	-10.1296
▁సఞ్ఞ	-10.1303
కతమో	-10.1304
▁సాధుకం	-10.1304
ఝాన	-10.1314
ంసు	-10.1317
▁భవఙ్గ	-10.1333
న్తిఆదిమాహ	-10.1333
ప్పటి	-10.1334
▁అనులోమం	-10.134
▁కఞ్చి	-10.1341
▁చరిత్వా	-10.1343
▁పాకటం	-10.1348
▁పదస్స	-10.1355
రఞ్ఞో	-10.1359
▁ధాతుయా	-10.1359
▁వివిచ్చేవ	-10.1362
▁కమ్మాని	-10.1365
▁ఠితి	-10.1365
▁ఏవమాది	-10.1369
▁సఞ్జాత	-10.1379
పాప	-10.1383
▁పాపుణి	-10.1383
యమానో	-10.1389
▁చిరం	-10.139
రూపో	-10.139
▁ఆమిస	-10.1392
▁కాయకమ్మం	-10.1395
▁దదేయ్య	-10.1395
▁అరియమగ్గ	-10.1395
▁ఖమ	-10.14
▁దువే	-10.1403
ధీ	-10.1403
▁నగరే	-10.1411
▁౩౪	-10.1412
▁విహర	-10.1412
▁అజ్ఝ	-10.1418
అఞ్ఞమఞ్ఞే	-10.1421
▁రజ్జ	-10.1421
▁అము	-10.1425
సముట్ఠానం	-10.1431
▁ధఞ్ఞ	-10.1433
▁రస్స	-10.1438
▁అఙ్గేహి	-10.1443
ీయతే	-10.1444
లి	-10.1445
▁భిన్దిత్వా	-10.1449
కోతి	-10.1452
నీతి	-10.1453
▁౩౭	-10.1454
చక్క	-10.1456
▁ఛట్ఠ	-10.1458
▁ఖమతి	-10.146
▁హత్థేన	-10.1463
▁లద్ధా	-10.1464
ద్ద	-10.1466
▁ఆతాపీ	-10.147
▁దేసేసి	-10.1471
ధన	-10.1475
న్తరే	-10.1478
▁౫౩	-10.1478
▁అనన్తరా	-10.1481
▁అనుజానామి	-10.1483
▁భగవతి	-10.1483
▁పిణ్డ	-10.1485
▁అచ్చన్త	-10.1485
▁సతిపట్ఠాన	-10.1488
▁ఉపాసకో	-10.1489
▁ఉభతో	-10.149
బలం	-10.149
▁యమక	-10.1492
సఞ్ఞం	-10.1493
▁సత్థ	-10.15
▁రూపావచర	-10.1503
▁౯౮	-10.1504
▁సోక	-10.1506
▁ఖీర	-10.1507
▁సరీరే	-10.151
▁నిరుజ్ఝన్తి	-10.151
▁గాహ	-10.1517
చిత్తేన	-10.1518
▁పణీత	-10.1521
ేతా	-10.1523
▁ధీరో	-10.1523
▁ఇతిపి	-10.1526
▁పస్సతో	-10.1526
▁అసి	-10.1529
▁అన్తర	-10.1531
▁పజహ	-10.1533
▁అఞ్ఞేపి	-10.1538
యాతి	-10.1541
పక్క	-10.1542
▁ఉభిన్నం	-10.1545
ుప్పాద	-10.1546
▁ఖీణాసవ	-10.1549
ప్పమాణ	-10.1551
▁దస్సితా	-10.1552
▁అఞ్ఞాణ	-10.1555
కాలతో	-10.1557
నాహం	-10.1558
ూతి	-10.1561
▁౯౩	-10.1561
▁అవిక్ఖేపో	-10.1565
▁అధికరణ	-10.1565
ేన్తీతి	-10.1565
▁చరే	-10.1565
▁కోటి	-10.1566
▁దేసనం	-10.1568
▁ఖిప్పం	-10.1569
▁సమ్ముతి	-10.1571
▁౯౫	-10.1579
హన	-10.1581
పరిక్ఖార	-10.1586
▁౯౨	-10.1586
కిరియ	-10.159
ానమ	-10.1592
▁సుఖుమ	-10.1593
▁వాద	-10.1594
యుత్తో	-10.1595
▁౩౬	-10.1598
▁ఝాయ	-10.1599
▁అసుచి	-10.1608
▁పయోగ	-10.1609
ారహ	-10.1613
▁వినయే	-10.1618
జవన	-10.1618
కడ్	-10.1619
ణా	-10.1624
పతి	-10.1628
యతీతి	-10.1631
మకాసి	-10.1642
పుగ్గలో	-10.1647
▁అసాధారణ	-10.1649
సమాపత్తి	-10.1649
▁ఆగచ్ఛతి	-10.1655
▁బద్ధ	-10.166
వస	-10.1663
▁౯౧	-10.1668
▁పూజ	-10.1669
▁అకంసు	-10.167
▁అట్ఠఙ్గికో	-10.1674
▁పటిసమ్భిదా	-10.1675
▁అనత్తా	-10.1675
▁భవితబ్బం	-10.1684
▁అత్థియా	-10.1685
గ్గి	-10.1688
మజ్ఝ	-10.1689
▁అగ్గమగ్గ	-10.1693
▁ఓకాసం	-10.1694
▁కారణేహి	-10.1698
▁అస్సాదేతి	-10.1699
▁౩౯	-10.1702
▁దుక్ఖతో	-10.1704
▁ఉదానం	-10.1704
స్సేతం	-10.1704
▁గహితో	-10.1704
▁సమ్పయుత్తే	-10.1707
ిస్సతీతి	-10.1709
▁పక్ఖ	-10.1712
▁చిత్తాని	-10.1713
▁సమ్మదేవ	-10.1714
▁పబ్బజిత	-10.1714
▁ఆహరి	-10.1717
ముత్త	-10.1717
▁దమ	-10.1717
▁అబ్భ	-10.172
త్తిక	-10.1727
▁ఇన్ద్రియాని	-10.173
ఞ్ఞూ	-10.1733
పరియాయ	-10.1736
▁అనగారియం	-10.1736
ేనాపి	-10.1745
సమం	-10.1748
▁ఏత్తకం	-10.1749
▁వసి	-10.1757
▁సత్తన్నం	-10.176
▁పఞ్చమ	-10.1761
సఙ్క	-10.1761
▁సావకా	-10.1767
▁పచ్చయే	-10.1767
▁పుచ్ఛామి	-10.1769
▁ఖణ్డ	-10.1769
పరిచ్ఛేద	-10.1774
▁అన్తరే	-10.1782
▁అనిట్ఠ	-10.1784
▁తత్రాయం	-10.1785
▁సీలవా	-10.1785
▁౫౪	-10.1788
మగ్గం	-10.1791
▁వుద్ధి	-10.1792
▁పరిత్తం	-10.1798
▁కాచి	-10.18
సఙ్గహ	-10.1801
▁మహాభూతా	-10.1803
▁చేతియ	-10.1807
▁౯౬	-10.1809
ితు	-10.1811
▁వాత	-10.1816
ప్పకార	-10.1816
▁తథాపి	-10.1821
▁మర	-10.1825
▁కీళ	-10.1825
జీవ	-10.1826
▁౪౧	-10.1827
▁త్వ	-10.1828
▁వినేయ్య	-10.1832
▁సగ్గం	-10.1837
▁సమాదాయ	-10.1838
రసం	-10.1842
▁ఖేమ	-10.1846
▁పవత్తతీతి	-10.1848
ఆహారే	-10.185
▁పాకటో	-10.185
లో	-10.1855
▁ఛన్దం	-10.1856
▁పిట్ఠి	-10.1862
హో	-10.1866
▁౩౮	-10.1871
▁ఖేత్త	-10.1871
▁ఆయ	-10.1874
▁ఇత్థియా	-10.1875
▁సముద్ద	-10.1877
▁థేరేన	-10.1877
ఆమ	-10.1882
▁జనేతి	-10.1885
మత్థ	-10.1889
▁ఉపపజ్జతి	-10.1893
▁తప	-10.1895
▁అనాథపిణ్డికస్స	-10.1902
▁గహేతుం	-10.1904
▁పటిపత్తి	-10.1913
ిన్ద	-10.1914
▁అల్ల	-10.1918
పుచ్ఛ	-10.192
రూపా	-10.1921
▁దుక	-10.1921
భూ	-10.1922
▁నిసిన్న	-10.1924
▁జనే	-10.1925
▁అకుసలానం	-10.1926
▁సన్తకం	-10.1928
▁మహగ్గత	-10.1934
▁సేట్ఠో	-10.1937
▁౧౦౩	-10.1938
▁ఇత్థియో	-10.1939
▁ఆలోక	-10.1939
▁కాయికం	-10.194
సత్థ	-10.194
మానే	-10.1941
▁పాణాతిపాత	-10.1943
▁సమాపత్తి	-10.1943
▁సమ్పయుత్తం	-10.1943
▁చరన్తి	-10.1948
▁పవారణా	-10.195
▁కత్తా	-10.1955
▁జరామరణం	-10.1966
▁అట్ఠఙ్గిక	-10.1977
▁ఆసేవనే	-10.1977
▁మతో	-10.1978
ేతబ్బో	-10.1979
▁తివిధ	-10.1981
▁భేద	-10.1983
త్థఞ్చ	-10.1984
▁ఆకారేహి	-10.1985
చన్ద	-10.1987
చర	-10.1988
▁దోసం	-10.1994
▁౪౦	-10.1995
పాళి	-10.1997
▁భవిస్సతీతి	-10.2003
▁రాజానో	-10.2004
సఙ్ఖాతే	-10.2004
▁పాతిమోక్ఖం	-10.2005
▁సభాగ	-10.2013
భూమియం	-10.2014
ప్పహాన	-10.202
▁ఆరామ	-10.2024
▁సిక్ఖాపద	-10.2025
▁బహులీకతా	-10.2031
▁కిలేసానం	-10.2035
▁దిసం	-10.2037
▁గమ్భీర	-10.2039
అట్ఠ	-10.2039
▁విసుద్ధ	-10.2041
ప్పవత్త	-10.2048
▁ఖీణ	-10.205
▁పతిట్ఠా	-10.205
ఉదక	-10.2054
▁అస్సు	-10.2056
లీ	-10.206
కిరియాయ	-10.2063
పురిసో	-10.2063
సన్త	-10.2065
▁పు	-10.2065
▁ఆమ	-10.2067
ోయేవ	-10.2068
▁ఉస్స	-10.2069
▁నర	-10.2087
▁పటిసేవ	-10.2092
▁సంకిలిట్ఠ	-10.2095
▁విహారో	-10.2096
▁ఇదమేవ	-10.2097
▁సన్ధి	-10.2102
▁వుత్తాతి	-10.2106
▁హితాయ	-10.2108
▁యోజేత్వా	-10.2108
▁చక్ఖువిఞ్ఞాణం	-10.2109
▁లక్ఖణం	-10.2112
వుత్త	-10.2113
▁చక్ఖువిఞ్ఞాణ	-10.2116
▁నిబ్బ	-10.2118
యన్తో	-10.2119
ానిపి	-10.212
▁కారేసి	-10.2123
▁పాకట	-10.2124
▁సామం	-10.2127
▁౪౪	-10.2129
▁ఏతేసన్తి	-10.2136
▁మత	-10.2137
సిక్ఖాపద	-10.2138
▁కతత్తా	-10.2139
▁౧౦౨	-10.214
రక్ఖ	-10.2147
▁పరిభాస	-10.2148
▁విసమ	-10.2151
▁౪౩	-10.2152
▁సమ్పయుత్తకా	-10.2152
యిం	-10.2162
నవ	-10.2164
▁తదత్థ	-10.2164
దివసే	-10.2164
న్నం	-10.2164
ఘట	-10.2164
▁దిబ్బచక్ఖు	-10.2166
▁౯౯	-10.2173
▁పోస	-10.2175
సయ	-10.2176
▁రజ	-10.2177
▁విపస్సనాయ	-10.2178
▁కథేతి	-10.2178
▁అరహత్త	-10.2179
▁అగ్ఘ	-10.2181
▁౫౦	-10.2182
▁దీఘరత్తం	-10.2185
▁అయఞ్హి	-10.2186
▁పాపకా	-10.219
▁భాసితా	-10.2194
▁౪౫	-10.2196
ాదేసో	-10.2197
▁పరిస	-10.2199
▁దిట్ఠో	-10.22
సోత	-10.2209
ిమే	-10.2209
వేర	-10.2213
▁వుచ్చతే	-10.2213
▁౫౨	-10.2214
▁౪౨	-10.2216
▁మఞ్ఞసి	-10.2217
▁దార	-10.2225
యోజన	-10.2228
▁యఞ్ఞ	-10.223
ాలఙ్కార	-10.223
▁కాతబ్బా	-10.223
హర	-10.2231
▁పకాసితా	-10.2232
▁ఆకాస	-10.2234
▁ణ	-10.2238
▁౪౬	-10.224
▁సమ్పయుత్త	-10.2246
▁వుట్ఠహిత్వా	-10.2256
సమ్పత్తిం	-10.2258
నగరే	-10.2265
▁సత్థునో	-10.2268
▁అనుసేన్తి	-10.2273
పటిచ్చవారాది	-10.2274
▁పణీతం	-10.2275
ేస్సామీ	-10.2278
▁సోత	-10.2285
▁సత్తహి	-10.229
▁దేసనాయ	-10.2302
పత్తో	-10.2304
▁అఙ్గం	-10.2306
▁౪౯	-10.2308
▁౪౭	-10.2308
▁కామం	-10.2308
▁జీవితా	-10.2309
కరణే	-10.2309
▁కారణా	-10.231
▁పచ్ఛతో	-10.2317
▁ధ	-10.2321
▁అన్ధ	-10.2327
▁యావతా	-10.2329
▁దేవపుత్తో	-10.2329
మ్భ	-10.2329
▁యసో	-10.2332
▁సవితక్కసవిచార	-10.2332
▁నిబ్బత్తిత్వా	-10.2336
▁సస్స	-10.2338
▁సావత్థినిదానం	-10.2339
బ్రహ్మ	-10.2341
▁ఇత్థన్నామస్స	-10.2341
▁తాదిస	-10.2341
పదాని	-10.2342
▁మహానామ	-10.2343
▁ఛత్త	-10.2344
▁౧౦౪	-10.2346
▁పురిసం	-10.2346
▁మజ్ఝ	-10.2351
▁భుఞ్జతి	-10.2351
ిమ్హ	-10.2352
▁అతీతానాగత	-10.2354
సువణ్ణ	-10.2355
జానన	-10.2355
▁పఞ్చమే	-10.2365
▁భణ్డం	-10.2365
▁భూమియం	-10.2365
▁తదారమ్మణ	-10.2365
▁పత్తే	-10.2368
భయం	-10.2371
▁సిక్ఖతి	-10.2382
సమా	-10.2382
▁భేదో	-10.2385
▁దబ్బ	-10.2386
▁ఆపత్తిసముట్ఠాన	-10.2387
▁వేమతికో	-10.2392
▁దుబ్బల	-10.2392
▁సప్ప	-10.2393
▁దక్ఖ	-10.2394
్	-10.2399
▁పక్క	-10.24
▁సువిఞ్ఞేయ్యమేవ	-10.2402
▁సఙ్ఖం	-10.2403
▁త్వేవ	-10.2404
▁పరినిబ్బాన	-10.2422
▁సఙ్ఖేపతో	-10.2422
దిస	-10.2428
ద్వే	-10.243
గాథాయ	-10.2431
▁విత్థార	-10.245
▁సమ్పత్త	-10.2458
▁వుచ్చతీ	-10.246
▁అట్ఠకథా	-10.2463
మ్ప	-10.2467
▁యస	-10.2467
▁పుత్తా	-10.2469
▁పరియత్తి	-10.2474
▁నిక్క	-10.2476
భూతే	-10.2482
▁యుత్తో	-10.2485
నిరోధ	-10.2486
▁తాదిసో	-10.2489
▁ఞత్తి	-10.2491
▁నిసిన్నం	-10.2491
▁భిక్ఖుసఙ్ఘస్స	-10.2492
▁పీత	-10.2495
▁ద్వేపి	-10.2496
▁ఆసవ	-10.2497
వణ్ణా	-10.2501
▁వదేసి	-10.2502
▁ఉచ్చ	-10.2506
▁జహ	-10.2507
త్వ	-10.251
▁తతియా	-10.2511
▁వసం	-10.2511
▁ఓకాస	-10.2512
▁నామేన	-10.2515
స్సపి	-10.2517
సమయో	-10.2518
▁యమ్పి	-10.2527
▁ఆపత్తీనం	-10.2529
▁సక్కచ్చం	-10.253
పఞ్ఞో	-10.253
▁సుర	-10.2532
▁ఏతా	-10.254
▁నివాసేత్వా	-10.2547
▁దసహి	-10.2549
ఙ్క	-10.2549
ిస్ససి	-10.2549
కరణీయ	-10.255
▁యన్తి	-10.2551
▁౧౦౭	-10.2555
▁జివ్హా	-10.2558
▁దూర	-10.2561
▁నాపి	-10.2563
▁సుగత	-10.2563
ింసూతి	-10.2568
ణ్ణ	-10.2569
ోసి	-10.2574
▁పటిపజ్జ	-10.2575
సమ్పయుత్తా	-10.2576
▁పాణాతిపాతా	-10.2579
▁గన్తబ్బం	-10.2582
▁తమహం	-10.2593
▁సవన	-10.2597
▁దళ్హం	-10.2601
▁వూపసమ	-10.2602
కీ	-10.2603
▁గమనం	-10.2604
▁అపరే	-10.2607
కుసలా	-10.2608
▁పార	-10.261
▁అవిదూరే	-10.2611
▁విప్పయుత్తే	-10.2612
▁తిట్ఠ	-10.2614
సమ్పన్న	-10.2615
▁పచ్చక్ఖ	-10.262
▁సహాయ	-10.262
▁భవా	-10.2622
ియమానో	-10.2624
▁సంవత్తన్తి	-10.2626
▁౧౦౫	-10.2632
▁సఙ్ఘాదిసేసస్స	-10.2633
▁బ్య	-10.2635
▁ఆరోచేసి	-10.2636
▁రక్ఖతి	-10.264
కత్తా	-10.2641
▁నిక్ఖిప	-10.2644
▁దిబ్బేన	-10.2649
ుజ్జ	-10.265
▁ఆరోచ	-10.2655
▁సేవ	-10.2658
▁నదస్సనేన	-10.2661
▁వినాస	-10.2661
వద	-10.2663
▁దేవలోకే	-10.2668
▁పచ్చయానులోమం	-10.268
▁విభత్తి	-10.2681
తాది	-10.2682
▁అహమ్పి	-10.2683
▁పటిప్పస్సమ్భ	-10.2683
▁౧౦౬	-10.2685
▁చారికం	-10.2694
ిన్ద్రియ	-10.2694
▁రోద	-10.2696
▁అప్పమాద	-10.27
▁థిర	-10.2702
▁కన్త	-10.2705
▁సావకానం	-10.2705
సద్దా	-10.271
▁వేదితబ్బాని	-10.2711
భత్తం	-10.2718
▁యాన	-10.272
▁౧౧౦	-10.272
▁ఛన్న	-10.2727
▁ఇమమత్థం	-10.2727
▁౪౮	-10.2739
నిద్దేస	-10.2739
సీలం	-10.2742
▁అద	-10.2749
▁తమ్హా	-10.276
▁కచ్చి	-10.276
▁లహు	-10.2763
ేతే	-10.2766
▁కఙ్ఖా	-10.2768
▁కబళీకారో	-10.2773
▁పహాతబ్బహేతుకం	-10.2778
▁జరామరణ	-10.2778
ప్పత్తా	-10.2782
నిపాత	-10.2783
▁కటత్తారూపం	-10.2784
▁పరేహి	-10.2784
▁గేహే	-10.2788
▁చతుసచ్చ	-10.279
▁సంసట్ఠో	-10.2791
▁దస్సనాయ	-10.2791
▁సద్దహ	-10.2794
ఙ్గం	-10.2795
▁నిరుజ్ఝిస్సతీతి	-10.2797
▁గేహం	-10.2798
▁అబ్యాకతస్స	-10.2798
సరీర	-10.28
ాపదానం	-10.2804
▁౬౩	-10.2811
▁సఞ్ఞం	-10.2812
▁పురాణ	-10.2812
మ్హీతి	-10.2816
పథ	-10.2817
▁సమ్బుద్ధో	-10.2817
▁ఆరద్ధం	-10.2825
▁నిరనుసయో	-10.2826
▁పాత	-10.2841
వాదా	-10.2845
▁లద్ధం	-10.2849
▁పహీన	-10.2855
యేన	-10.2855
▁లామక	-10.2856
సన్ధి	-10.286
▁పటిగ్గహేత్వా	-10.2861
▁సూచి	-10.2863
స్మిన్తి	-10.2864
▁ఓలోకేన్తో	-10.2864
గామి	-10.2867
▁అపరో	-10.2867
▁పచ్చయచతుక్కం	-10.2868
సమణ	-10.2872
▁ఫలస్స	-10.2874
▁అస్సా	-10.2874
▁వత్తం	-10.2875
▁విన	-10.2877
చార	-10.2882
▁కట్ఠ	-10.2885
▁ఇతరే	-10.2885
▁ము	-10.2888
▁ముసావాద	-10.2896
▁బహులం	-10.2898
▁సద్దా	-10.2901
▁సామణేరో	-10.2904
ితత్తం	-10.2907
▁జిగుచ్ఛ	-10.2909
▁నీహర	-10.2915
▁దస్సేతుమాహ	-10.2915
▁చేత	-10.2917
▁కుమార	-10.2918
▁వత్తబ్బ	-10.2922
▁కథితో	-10.2926
▁౫౧	-10.2927
రణ	-10.2929
మ్హీ	-10.2933
వనే	-10.2933
మిగ	-10.2936
▁వక్ఖతి	-10.2937
▁చిర	-10.2938
▁పారాజికస్స	-10.2939
▁సయ	-10.294
▁కాయతో	-10.2942
▁పనాయం	-10.2942
▁ఇతరో	-10.2948
▁మంసం	-10.295
నిస్సిత	-10.2951
▁పత్తా	-10.2954
▁పఞ్చమో	-10.2955
▁౧౦౯	-10.2959
▁పుబ్బభాగ	-10.2962
▁సిప్ప	-10.2963
▁౧౧౫	-10.2967
▁పరిక్ఖార	-10.297
మాల	-10.2979
▁సోతాపన్నో	-10.298
గ్గం	-10.298
గన్థ	-10.2984
▁ఉపకార	-10.2988
దయో	-10.2989
▁పచ్ఛాజాతపచ్చయేన	-10.299
సనిదస్సనసప్పటిఘం	-10.2992
▁అధిగత	-10.2992
సాసన	-10.2992
▁లబ్భన్తి	-10.2993
యది	-10.2995
▁సుతన్తి	-10.2997
▁సస	-10.3003
▁పాతిమోక్ఖ	-10.3003
ాధి	-10.3008
▁తిణ్ణన్నం	-10.301
త్తి	-10.3012
▁ఆహారం	-10.3014
▁తథాగతం	-10.3016
▁అబ్యాకత	-10.302
▁నాహం	-10.3021
▁ఓదాత	-10.3021
▁వినయో	-10.3022
▁ఆదీనవం	-10.3027
▁విగ్గహో	-10.3027
▁థూప	-10.3028
▁వేళు	-10.3031
▁తాల	-10.3031
▁తమేనం	-10.3035
▁నామా	-10.3037
పటివేధ	-10.304
▁దుగ్గతి	-10.304
▁౧౦౧	-10.3041
కఙ్ఖ	-10.3044
▁అహేతుక	-10.3044
▁నీహరిత్వా	-10.3045
▁పాణి	-10.3047
▁జానాతీతి	-10.3048
్యా	-10.3049
దిసం	-10.305
▁పియా	-10.3053
▁అధమ్మ	-10.3053
▁అభిధమ్మ	-10.3053
▁ఖీణాసవో	-10.3054
▁సుద్ధం	-10.3055
రియ	-10.3057
▁ఠపేసి	-10.3059
▁అనుస్సర	-10.3059
▁జయ	-10.306
▁పరిసుద్ధ	-10.3062
▁చతురో	-10.3062
జాతా	-10.3063
▁విజ్ఝ	-10.3067
▁అభిభుయ్య	-10.3069
హీన	-10.3069
▁౧౦౮	-10.307
▁సేసేసుపి	-10.3074
▁౧౧౩	-10.3075
సీలో	-10.3076
తేవ	-10.3082
▁ననహేతు	-10.3083
▁తిక్ఖత్తుం	-10.3083
▁మోగ్గల్లాన	-10.3085
▁ఉళార	-10.3088
▁ఆస	-10.3093
సఙ్ఖాతస్స	-10.3097
▁కూట	-10.3098
మితి	-10.31
▁నిస్సగ్గియ	-10.3103
▁పిణ్డపాత	-10.3106
▁కస	-10.3109
▁పనాతి	-10.3113
▁పియో	-10.3115
▁ఏకత్త	-10.3117
భార	-10.3118
▁కరణీయం	-10.3127
▁౧౧౬	-10.3128
▁పవుచ్చతి	-10.313
▁దుట్ఠ	-10.313
▁సఙ్ఖ	-10.3131
కామా	-10.3134
▁సమ్బన్ధ	-10.3145
▁పటిఘ	-10.3151
కతో	-10.3155
కూట	-10.3159
వన్త	-10.316
▁ఝ	-10.3161
▁కత్తరి	-10.3163
▁కన్ద	-10.3164
▁విసిట్ఠ	-10.3172
భా	-10.3183
▁మాణవో	-10.3183
▁నమస్స	-10.3184
▁అదుక్ఖమసుఖాయ	-10.3189
హరణ	-10.319
ేస	-10.319
మానస్స	-10.319
▁సతిపట్ఠానా	-10.3197
▁జవన	-10.3201
▁పచ్చేకం	-10.3201
▁బ్యాకాసి	-10.3203
▁సత్థరి	-10.3203
▁పుర	-10.3205
▁ధువ	-10.3205
▁వణ్ణేన	-10.3206
భిన్న	-10.3209
▁బుద్ధే	-10.3216
▁పబ్బాజ	-10.3216
▁ఉక్కట్ఠ	-10.3217
▁లబ్భమాన	-10.322
రోగ	-10.3221
పరిభోగ	-10.3222
▁పేస	-10.3227
▁అద్దస	-10.3228
▁మహావీర	-10.3229
▁పరినిబ్బన్తాన	-10.3232
▁ఉపేతి	-10.3236
▁ఘ	-10.3237
▁సమాస	-10.324
▁చక్ఖుమా	-10.3241
▁సవితక్కసవిచారో	-10.3243
మిస్సక	-10.3253
▁ఓలోకేత్వా	-10.3255
▁అహేతుకం	-10.3256
▁౬౪	-10.3262
సంయోజన	-10.3265
విపస్సనా	-10.3265
▁అని	-10.327
▁సుఖేన	-10.3271
▁పరిహాయతి	-10.3273
పేక్ఖ	-10.3273
▁దేవే	-10.3274
▁తస్మింయేవ	-10.3276
▁ఏకేనాయతనేన	-10.3276
చరిత	-10.3277
▁చమ్మ	-10.3282
▁ముత్తో	-10.3282
▁సచేపి	-10.3287
▁సీమా	-10.3287
▁అధిక	-10.3295
▁దేసే	-10.3298
▁గోతమస్స	-10.3301
▁చాగ	-10.3302
▁ఆరోపేత్వా	-10.3302
ట్ఠి	-10.3303
ఇతో	-10.3305
▁అనుపుబ్బ	-10.3305
వాదో	-10.3305
నఇన్ద్రియే	-10.3306
▁నిక్ఖన్త	-10.3307
▁విఞ్ఞత్తి	-10.3314
▁విమోక్ఖ	-10.3315
సామి	-10.3315
వేద	-10.3319
▁అథో	-10.332
▁ఫాసు	-10.3321
▁అరహన్తో	-10.3323
▁చాయం	-10.3325
▁ఉద్ధర	-10.3327
లమ్బ	-10.3328
▁భిన్ద	-10.3333
▁యావజీవం	-10.3333
▁సద్ధ	-10.3334
▁విఞ్ఞాత	-10.334
పాన	-10.3342
▁జానం	-10.3347
▁పసన్నో	-10.3348
▁కేవల	-10.3352
▁ఇన్ద్రియానం	-10.3353
▁మహేసినో	-10.3353
ప్పత్త	-10.3354
యామ	-10.3359
▁ధమ్మదేసనా	-10.3359
వత్థుస్మిం	-10.3359
ట్ట	-10.3363
▁యక్ఖో	-10.3365
▁గోత్రభు	-10.3369
▁పాస	-10.3371
▁పపఞ్చ	-10.3373
▁క్రియా	-10.3374
▁అట్ఠమే	-10.3377
▁నిరుత్తి	-10.3378
▁మచ్చు	-10.3378
పూర	-10.3379
బోధి	-10.338
▁సత్తాహ	-10.3381
యదా	-10.3382
▁కుమారో	-10.3382
▁దసవిధ	-10.3385
సభావో	-10.3388
▁౧౧౨	-10.3395
నీల	-10.3397
▁అసుక	-10.34
వసానే	-10.34
▁ద్వత్తింస	-10.3402
వారవణ్ణనా	-10.3403
కాతి	-10.3403
▁వత్తమాన	-10.3404
విహారే	-10.3405
▁వార	-10.3412
నగర	-10.3415
▁సుఖస్స	-10.3418
▁లద్ధి	-10.3419
నిరోధో	-10.3424
▁౧౧౮	-10.3425
▁నఅధిపతిపచ్చయా	-10.343
▁పట	-10.343
▁నియత	-10.343
▁కథేత్వా	-10.3431
▁ధమ్మవినయే	-10.3433
ారమ్మణా	-10.3434
▁బాలా	-10.3436
మిస్స	-10.3439
▁సమయో	-10.344
▁ఆదీనవో	-10.344
▁లోకా	-10.3441
▁యద	-10.3445
▁హరిత	-10.3448
విభత్తి	-10.3449
▁చిత్తఞ్చ	-10.3457
కాలం	-10.3462
పహాన	-10.3462
కారక	-10.3463
పాల	-10.3465
▁సబ్బదా	-10.347
▁పవత్తిం	-10.3471
▁ఉద్ధచ్చ	-10.3474
▁విజాన	-10.3479
పఠమ	-10.348
▁సుగతిం	-10.348
▁విచారో	-10.3481
ఠ	-10.3487
▁కామరాగానుసయేన	-10.349
▁పకతియా	-10.3491
మిచ్ఛ	-10.3492
▁థోకం	-10.3493
▁తరుణ	-10.3493
ఇ	-10.3495
▁కాయాయతనం	-10.35
తథా	-10.3502
▁కత్వాన	-10.3503
▁దువిధ	-10.3503
▁విగతే	-10.3504
▁నీవరణ	-10.3504
పరివార	-10.3505
▁సుణ	-10.3505
▁ఉగ్గణ్హ	-10.3505
ఏవమేవ	-10.3506
వోహార	-10.3506
▁ఓఘ	-10.3508
పదే	-10.351
▁ఉభోపి	-10.3514
పఞ్ఞ	-10.3514
▁భావిత	-10.3515
▁పస్సిత్వా	-10.3515
▁నఆరమ్మణపచ్చయా	-10.3518
▁ఉపాసక	-10.3519
▁సకిం	-10.352
▁అయమత్థో	-10.3529
▁బారాణసియం	-10.3532
▁సుమనో	-10.3537
▁బ	-10.3542
నాది	-10.3554
▁పఠమా	-10.3557
పజ్జ	-10.3558
▁వుట్ఠాయ	-10.3561
▁చక్ఖున్ద్రియఞ్చ	-10.3562
▁తను	-10.3563
▁నివాస	-10.3565
▁అవుత్త	-10.3566
▁ఆహారపచ్చయేన	-10.3566
▁ఆగమన	-10.3567
▁పబ్బజ్జం	-10.3567
▁సమథవిపస్సనా	-10.3568
కణ్ణ	-10.3568
▁భద్ద	-10.357
▁ఘన	-10.3575
▁కిమ	-10.3577
భూతేన	-10.3577
పిణ్డ	-10.3579
▁సరే	-10.358
▁నోఉపాదా	-10.3591
▁ఆహంసు	-10.3591
▁మాసే	-10.3595
▁ద్వారం	-10.3596
▁పురేజాతే	-10.3597
▁ఆగచ్ఛన్తి	-10.3599
▁విభజ	-10.3603
▁వసతి	-10.3605
▁యాగు	-10.3608
▁సమన్నాగతస్స	-10.3609
▁కుమ్భ	-10.3611
▁తికం	-10.3612
కామో	-10.3616
మద	-10.3616
▁అనత్తతో	-10.3617
తరా	-10.3617
▁వుత్తోతి	-10.3621
▁హారో	-10.3624
▁ఆగచ్ఛ	-10.3627
▁సత్తమ	-10.3631
హేతుక	-10.3634
▁మానసం	-10.3635
▁అఞ్జలిం	-10.3635
సఞ్చ	-10.3636
▁అనుపుబ్బేన	-10.3637
ాథ	-10.3638
▁౧౧౪	-10.3639
▁సఙ్ఖారానం	-10.364
ద్వారే	-10.3641
▁అనఞ్ఞ	-10.3642
త్తికం	-10.3647
▁నఅబ్యాకత	-10.3648
▁నిసిన్నా	-10.3649
త్తేన	-10.3656
▁పఞ్చహఙ్గేహి	-10.3656
▁పుథుజ్జన	-10.3658
▁అగ్గో	-10.366
ోప	-10.3663
▁కామరాగ	-10.367
▁నిగ్గహ	-10.3675
యింసు	-10.3676
బహులో	-10.3676
▁వుత్తప్పకార	-10.3678
▁వచీకమ్మం	-10.3679
▁అధిప్పేతం	-10.3679
▁హదయం	-10.3679
▁ఫరిత్వా	-10.3683
▁మాతికా	-10.3685
▁కిమత్థం	-10.3686
▁ఛట్ఠే	-10.3695
▁ఉప్పాదో	-10.3695
▁౧౧౯	-10.3697
▁నాభి	-10.3697
▁విరాగ	-10.3704
▁హంస	-10.3705
▁౧౧౧	-10.3705
▁అఞ్ఞతరస్మిం	-10.3706
పాత	-10.3707
▁విమోక్ఖో	-10.3707
యఞ్చ	-10.3709
ాల	-10.3709
సిద్ధ	-10.3712
▁ఉపాదా	-10.3712
▁సియుం	-10.3716
▁వారే	-10.3717
స్సాద	-10.3717
▁ఇతరస్స	-10.3723
▁సంఖిత్తేన	-10.3723
బ్రాహ్మణ	-10.3723
▁పత్థయ	-10.3725
సమ్బోజ్ఝఙ్గో	-10.3726
ితబ్బన్తి	-10.3727
▁సమ్మోహ	-10.3729
భావా	-10.3731
▁జాన	-10.3733
▁దస్సితం	-10.3734
▁చుతో	-10.3735
పాక	-10.3741
▁నచ్చ	-10.3742
సరణ	-10.3742
▁ఏత	-10.3743
▁చత్తాలీస	-10.3745
▁గుణే	-10.3753
▁సఙ్ఖ్యావారో	-10.3754
▁జోతి	-10.3756
▁అరియం	-10.3758
▁జేట్ఠ	-10.3758
▁హింస	-10.376
▁సిబ్బ	-10.3767
▁పదేహి	-10.3767
▁పటిచ్ఛన్న	-10.3768
పఞ్ఞాస	-10.3772
▁ఉపపత్తి	-10.3772
మనా	-10.3772
▁అన్తరఘరే	-10.3779
▁సముదయ	-10.3785
న్తరం	-10.3787
▁సావకో	-10.3796
▁పటిక్కమ	-10.3799
రాగో	-10.3802
▁గవేస	-10.3803
▁మతం	-10.3805
▁చున్ద	-10.3805
▁ఉపట్ఠాన	-10.3816
▁అనుక్కమేన	-10.3819
▁వివిధ	-10.382
▁సిరి	-10.382
▁లోకియలోకుత్తర	-10.3821
▁నామరూపం	-10.3828
సాల	-10.3829
▁సమగ్గ	-10.3833
▁చేపి	-10.3836
▁లభన్తి	-10.3839
▁విస్సజ్జ	-10.3839
▁అవితక్కఅవిచార	-10.3851
▁మయి	-10.3853
▁అసఙ్ఖత	-10.3854
▁దసమే	-10.3856
▁అనఞ్ఞాతఞ్ఞ	-10.3857
▁ఉట్ఠాయాసనా	-10.3857
▁మగ్గాధిపతి	-10.386
▁గన్ధో	-10.3863
▁కథేన్తో	-10.3863
▁సముట్ఠాన	-10.3868
▁ధోవ	-10.3869
వాహ	-10.387
మోహ	-10.3871
▁ఛేత్వా	-10.3872
▁బ్యాధి	-10.3872
సమ్మాసమ్బుద్ధస్స	-10.3874
▁గతే	-10.3874
▁ఆసేవనపచ్చయ	-10.3875
▁పితరం	-10.3876
▁పటిక్ఖిపతి	-10.3881
▁అకుసలస్స	-10.3884
▁ఖన్తి	-10.3888
▁అలఙ్కార	-10.3893
▁వఙ్క	-10.3894
దుతియ	-10.3897
▁అనుసయ	-10.3898
▁సుక్ఖ	-10.39
▁రూపా	-10.3903
▁మాతరం	-10.3904
తల	-10.391
▁లోకుత్తరం	-10.3914
▁పకారేన	-10.3915
▁ఇత్థీనం	-10.3916
▁కామావచరం	-10.3916
భవే	-10.3918
▁౧౧౭	-10.3919
▁వేరమణీ	-10.3919
ిస్సామీతి	-10.392
▁పటిభాన	-10.3921
కట్ఠ	-10.3926
▁నిస్సరణ	-10.3935
▁నిన్న	-10.3938
సద్దం	-10.3946
పఞ్ఞాయ	-10.3954
▁బహువచన	-10.3954
చోర	-10.3961
▁మజ్జ	-10.3963
▁పుగ్గలే	-10.3963
▁ఖర	-10.3965
ఏత	-10.3967
సుం	-10.3969
▁వసన్తి	-10.3971
పటిలాభ	-10.3975
▁భవరాగానుసయో	-10.3976
ధనం	-10.3976
▁కిత్తి	-10.3978
▁చతుక్క	-10.3978
▁పఞ్ఞవా	-10.3979
▁విసేసన	-10.3979
▁సీలేన	-10.398
యుం	-10.3982
మిత్త	-10.3987
▁పత్తకల్లం	-10.3988
▁మేధావీ	-10.3988
▁చుతి	-10.3989
▁హోమి	-10.3992
▁గాథాహి	-10.3996
ముత్తమం	-10.3999
▁ఆపోధాతు	-10.4002
నిబ్బాన	-10.4002
▁అచ్చయేన	-10.4003
▁ఉప్పల	-10.4004
కుమ్భ	-10.4005
▁గామో	-10.4007
ప్పసాద	-10.401
▁ఠితే	-10.4011
▁ఞాయ	-10.4015
▁సావ	-10.4016
పక్ఖే	-10.4023
▁పతిట్ఠాయ	-10.4025
▁పటిపదం	-10.4029
యీ	-10.4029
▁అన్తే	-10.4032
▁దిస్సన్తి	-10.4033
ోదక	-10.4034
▁దుక్కటస్సా	-10.4034
▁పచ్ఛాజాతం	-10.4035
▁ఉప్పన్నే	-10.4035
▁మానానుసయఞ్చ	-10.404
▁థూల	-10.4044
▁ఉపసమ్పదా	-10.4047
▁అగ్గిం	-10.4051
▁విహరతో	-10.4051
▁సతసహస్స	-10.4052
▁హే	-10.4054
▁కోధో	-10.4056
▁హిరీ	-10.4057
▁సూరియ	-10.4057
▁జానన్తో	-10.4063
ధర	-10.4067
▁ఖిప	-10.4067
▁థుల్లచ్చయ	-10.4071
▁ఇతరా	-10.4074
ఫస్స	-10.4077
త్తయం	-10.4085
▁భూ	-10.4086
హన్తి	-10.4092
▁పేత	-10.4092
▁ఆయస్మతా	-10.4094
▁పగ్గయ్హ	-10.4095
▁పరిచ్ఛేద	-10.4101
▁కిఞ్చ	-10.4102
▁అవయవ	-10.4103
▁పస్సన్తి	-10.4106
యేవా	-10.4106
ాపేయ్య	-10.4106
▁గూథ	-10.4111
▁లగ్గ	-10.4112
▁నిసీదతి	-10.412
▁ఇదానేవ	-10.4121
▁సబ్బేవ	-10.4121
గమనం	-10.4122
▁సప్పురిస	-10.4123
రసా	-10.4124
▁సయన	-10.4126
▁సఙ్గ	-10.4128
▁చక్ఖాయతనఞ్చ	-10.4131
మనసికార	-10.4132
▁గణ్హన్తి	-10.4132
▁గహేత్వాన	-10.4134
▁బోధ	-10.4137
▁భాసేయ్య	-10.4145
▁జనపద	-10.4146
▁తస్సాతి	-10.4146
▁పవత్తో	-10.4147
▁మల	-10.4149
▁మానత్తం	-10.4152
తత్ర	-10.4154
▁పబ్బజితా	-10.4156
విభఙ్గ	-10.4157
▁తప్ప	-10.4158
▁పచ్చవేక్ఖతి	-10.4158
గమ్భీర	-10.4159
▁పరఞ్చ	-10.4161
▁పదక్ఖిణం	-10.4163
▁ఇతరం	-10.4163
▁సామణేర	-10.4163
నిరోధా	-10.4167
ప్పమాణం	-10.4167
▁అభిఞ్ఞేయ్యం	-10.4175
▁ధమ్మఞ్చ	-10.4177
▁సీహో	-10.4178
మానసో	-10.4179
▁పదే	-10.4183
▁తాసు	-10.4183
ాదో	-10.4185
సహగత	-10.4186
▁కల	-10.4187
ానుభావేన	-10.4189
▁పజా	-10.4193
▁సమ్బుద్ధం	-10.4196
▁బ్యాపాద	-10.4196
▁భూమీసు	-10.4199
▁పటిఞ్ఞా	-10.4203
వత్తం	-10.4204
విసయే	-10.4208
▁సుగతి	-10.4211
▁య్వాయం	-10.4213
▁ఉపాయ	-10.4215
▁సస్సత	-10.4215
▁చేతసికం	-10.4216
▁అసేక్ఖ	-10.4216
▁సబ్బాపి	-10.4216
▁పిణ్డపాతం	-10.4223
▁ఓవాదం	-10.4224
▁సోమనస్సం	-10.4226
ధమ్మేసు	-10.4229
▁ఉప్పన్నస్స	-10.4234
▁ఉపసఙ్కమ	-10.4235
▁ఏహి	-10.4236
▁వుత్తమేవ	-10.4237
▁పచ్ఛాజాతా	-10.4241
▁తేసంయేవ	-10.4241
▁కమ్ప	-10.4244
కుమార	-10.4245
▁పచ్చుప్పన్నం	-10.4246
▁తివిధం	-10.4246
–-	-10.4249
▁నేవసేక్ఖనాసేక్ఖ	-10.4255
▁నుప్పజ్జిత్థ	-10.4261
గామే	-10.4266
▁పరిజానాతీతి	-10.4266
నేయ్య	-10.4267
▁సమాదపేతి	-10.4269
▁దేవేసు	-10.427
▁పుత్తే	-10.4273
ిని	-10.4276
▁దా	-10.4278
▁ఇద్ధియా	-10.4281
మత్తో	-10.4281
ఆదీని	-10.4282
▁అనో	-10.4282
దిసా	-10.4289
ూపమా	-10.4291
మేక	-10.4292
▁మనాప	-10.4292
▁ఉద్ధచ్చం	-10.4294
మాలా	-10.4295
▁అనవసేస	-10.4295
సఙ్గహో	-10.4303
▁కటత్తా	-10.4303
▁పాక	-10.4304
▁పవిట్ఠ	-10.4306
▁హార	-10.4307
▁మయ	-10.431
▁అపనేత్వా	-10.4311
నగరం	-10.4312
▁పతిట్ఠిత	-10.4314
▁అభయ	-10.4314
▁ఉపపజ్జిత్వా	-10.4314
▁నిసీదింసు	-10.4315
▁అసీతి	-10.4316
▁వేదయితం	-10.4317
▁రట్ఠ	-10.4317
దాయక	-10.4322
▁నానప్పకార	-10.4324
▁దిసాయ	-10.4327
త్థస్స	-10.4329
▁సమేతి	-10.433
▁సబ్బస్స	-10.4331
▁విఞ్ఞాణస్స	-10.4332
▁పీతియా	-10.4333
▁ఉపజ్ఝాయ	-10.4337
అట్ఠకథాయ	-10.4341
▁పాకటా	-10.4342
భఙ్గ	-10.4344
▁గహ	-10.4347
నానత్త	-10.4347
▁మేత్తాయ	-10.435
ఆవుసో	-10.4352
▁దేహి	-10.4356
ిస్సామ	-10.4358
విభాగ	-10.4358
ేన్తస్స	-10.4359
▁మానం	-10.4362
సఙ్గ	-10.4362
▁వాచతో	-10.4364
▁పక్కమతి	-10.4367
▁కిన్తి	-10.4368
పట్ట	-10.4368
▁ఖయా	-10.4373
▁వహ	-10.4376
▁అభావేన	-10.4379
▁మోద	-10.438
▁సఙ్గహం	-10.4381
సాధన	-10.4382
▁చన్దన	-10.4389
▁బ్రూమి	-10.4391
మభి	-10.4392
క్ఖత్తుం	-10.4395
▁భావేతబ్బా	-10.4397
▁ఉపనిస్సయ	-10.4401
▁పహానా	-10.4406
ఖన్ధ	-10.4406
▁పటిగ్గణ్హ	-10.4408
▁విహరేయ్య	-10.441
▁ఆవజ్జ	-10.441
▁సద్దే	-10.4411
సేన	-10.4414
▁ఆవాసే	-10.4415
▁పురిమనయేనేవ	-10.4419
▁బ్యా	-10.4423
▁దేసితం	-10.4423
▁ఉగ్గత	-10.4423
▁అయమ	-10.4428
▁అమ్హే	-10.4429
చరణ	-10.443
▁ఆన	-10.4434
▁సమ్పత్తి	-10.4434
▁పఞ్హా	-10.4435
▁దహర	-10.4443
▁నవమే	-10.4444
▁ముచ్చతి	-10.4445
▁ఆసనం	-10.445
▁అట్ఠహి	-10.4451
▁గణ్హి	-10.4452
ణో	-10.4454
దీఘ	-10.4461
న్ధ	-10.4462
▁అప్పమత్తో	-10.4463
పరియాపన్న	-10.4463
▁నిపాత	-10.4464
ితాని	-10.4465
ేస్సామి	-10.4466
ాపీతి	-10.4468
▁కమ	-10.4479
▁ఝాయీ	-10.4479
లాభ	-10.4479
▁విచికిచ్ఛాసహగత	-10.4481
▁విసుద్ధిమగ్గే	-10.4484
లు	-10.4486
▁అనురూప	-10.4487
▁తాపస	-10.4488
▁బహూని	-10.4489
ఞ్ఞా	-10.4492
▁వీర	-10.4498
ితున్తి	-10.4503
పత్తి	-10.4505
▁దక్ఖిణా	-10.4506
బలేన	-10.4507
▁ఖీణాసవస్స	-10.4507
పాస	-10.4507
▁సహధమ్మిక	-10.4512
▁పటిచ్చసముప్పాద	-10.4514
సేయ్య	-10.4515
▁సోచ	-10.4515
▁కట	-10.4516
▁సేసో	-10.4524
తాయాతి	-10.4527
▁చిత్తతో	-10.4527
సేవన	-10.4528
▁అనన్తరూపనిస్సయో	-10.4529
▁వసిత్వా	-10.4531
▁విసేసేన	-10.4533
▁ఉప్పాదాయ	-10.4535
▁కోసియ	-10.454
క్ఖర	-10.4544
మఙ్గల	-10.4544
▁విపుల	-10.4547
▁దేవమనుస్సానం	-10.455
ానన్ద	-10.4552
▁చరణ	-10.4553
▁సుత్వాన	-10.4558
మేత్థ	-10.456
ప్పభేద	-10.4563
▁పేక్ఖ	-10.4566
▁ఆసవవిప్పయుత్త	-10.4572
వత్థూని	-10.4576
▁పత	-10.4577
▁ఇమ	-10.4582
▁అనాగామీ	-10.4585
▁థమ్భ	-10.4589
▁౧౨౦	-10.4591
▁ఆవాసికా	-10.4592
▁పాపుణ	-10.4592
▁మక్ఖ	-10.4592
▁ఉట్ఠాయ	-10.4593
▁భిక్ఖునిం	-10.4597
▁పరక్కమ	-10.4599
వితక్కవిచారమత్తో	-10.46
▁పటివేధ	-10.46
▁ఏతేనేవ	-10.4603
▁వుద్ధ	-10.4606
▁పత్థ	-10.4612
▁సమయ	-10.4613
త్వం	-10.4615
కాసి	-10.4616
బహు	-10.4616
▁వదన్తో	-10.4617
▁అత్థీ	-10.4617
▁మహాముని	-10.4618
కలాప	-10.4621
పవత్త	-10.4621
మత	-10.4625
▁మనోధాతు	-10.4627
ితన్తి	-10.4627
▁సానుసయో	-10.463
▁చన్దో	-10.4631
అఞ్ఞమఞ్ఞ	-10.4632
బుద్ధో	-10.4635
▁అపరేన	-10.4638
▁భార	-10.4641
▁సేయ్య	-10.4642
▁అత్తమనో	-10.4644
▁దివసం	-10.4644
సుపి	-10.4646
మత్తనో	-10.4647
పటిపక్ఖ	-10.4647
కతమే	-10.4648
▁తుమ్హేహి	-10.4648
ముఖం	-10.465
అప్ప	-10.4651
▁భోగే	-10.4654
యుత్తం	-10.4656
▁అర	-10.4658
▁ఆరబ్భాతి	-10.4659
ఞ్ఞాతావిన్ద్రియం	-10.4661
ాధిగమ	-10.4662
▁సమ్మాసతి	-10.4663
▁పదేసే	-10.4665
▁నిగ్రోధ	-10.4666
▁స్వేవ	-10.4666
పటిపత్తి	-10.4668
▁థుల్లచ్చయం	-10.467
కరణేన	-10.4671
▁వాచ	-10.4671
ోదకం	-10.4675
▁ఆసిం	-10.4676
▁తిరియం	-10.4678
▁అభబ్బో	-10.468
▁విసం	-10.4684
▁దుక్ఖే	-10.4686
▁అభినన్ద	-10.4688
ముత్తో	-10.4693
▁సబ్బఞ్ఞుతఞ్ఞాణ	-10.4699
▁పాపకమ్మం	-10.4699
▁చిత్తసంసట్ఠ	-10.4701
▁వనం	-10.4701
సన	-10.4702
▁ఓలోక	-10.4703
▁సత్థారా	-10.4704
▁పఞ్ఞ	-10.4713
▁పటిపాటియా	-10.472
▁మహతో	-10.4728
▁సమ్పన్న	-10.4732
▁నఅకుసలో	-10.4733
వాసి	-10.4736
ాసీతి	-10.474
▁వుట్ఠాన	-10.4742
▁ఉజు	-10.4742
▁జాయన్తి	-10.4743
▁దుక్ఖన్తి	-10.4745
కథాయ	-10.4745
▁అప్పహీనో	-10.4746
భు	-10.4753
౧౧	-10.4753
▁మనసికారో	-10.4754
▁ఉప్పజ్జేయ్య	-10.4756
▁కమ్మానం	-10.4759
విధాన	-10.476
▁సుఖదుక్ఖ	-10.4764
▁సమ్పత్తే	-10.4764
▁పియం	-10.4766
▁మల్ల	-10.4767
▁ఉపాసికా	-10.4769
చ్ఛేద	-10.477
▁పదట్ఠానం	-10.4771
వికప్ప	-10.4771
యిత్వాన	-10.4776
దేవతా	-10.4776
▁సమత్థో	-10.4778
గహణ	-10.4781
▁పఞ్హో	-10.4783
చుణ్ణ	-10.4785
▁అరహత్తమగ్గ	-10.4789
▁ఉక్ఖిపిత్వా	-10.4789
▁అనుభవ	-10.4793
▁సుత్తన్త	-10.4794
▁పత్తియా	-10.4799
▁చక్కవాళ	-10.4802
▁ఉపాయేన	-10.4804
కథఞ్హి	-10.4804
▁సోహం	-10.4804
వస్సం	-10.4805
▁పస్సద్ధి	-10.4805
నిస్సితం	-10.4806
▁అభివ	-10.4806
▁బాధ	-10.4807
▁గోచర	-10.4807
ుప్పన్న	-10.4807
కరా	-10.4808
▁అగారస్మా	-10.4812
▁చతుబ్బిధం	-10.4814
▁దోమనస్సిన్ద్రియ	-10.4818
సాఖ	-10.4818
▁పహాతబ్బ	-10.4819
▁బలవా	-10.482
లభ	-10.482
▁చేతో	-10.4821
▁సద్ధం	-10.4823
▁మత్త	-10.4825
ధాతుయా	-10.4826
రజ్జ	-10.4828
▁రహ	-10.483
వాత	-10.483
▁ఆలోకో	-10.4831
అజ్జ	-10.4831
కారా	-10.4834
▁యాచతి	-10.4837
▁సఙ్క	-10.4843
▁గిరి	-10.4845
▁పహర	-10.4847
▁రుక్ఖో	-10.4848
▁కత్తబ్బం	-10.4849
▁దువిధో	-10.4851
▁కుచ్ఛి	-10.4852
చరియ	-10.4853
ోపమ	-10.4855
▁కామావచరా	-10.4858
విపల్లాస	-10.4861
▁సతిపి	-10.4861
▁అచ్చ	-10.4864
▁కార	-10.4869
▁పహీయతి	-10.4869
▁పటిలభిస్సన్తి	-10.487
▁సమీపే	-10.4872
▁పీళ	-10.4874
▁నిద్దేసో	-10.4875
▁పాపకం	-10.4875
▁అరియానం	-10.4877
వన్తం	-10.4878
▁మగ్గఫల	-10.4883
▁ఇవ	-10.4885
▁సమూహ	-10.4886
▁సబ్బలోక	-10.4887
▁అవితక్కఅవిచారో	-10.4891
దిట్ఠ	-10.4893
రుహ	-10.4896
▁పుబ్బేవ	-10.4896
గమ	-10.4896
▁సఙ్ఖ్యా	-10.4898
▁పక్కమ	-10.4899
భూతస్స	-10.49
▁సల్ల	-10.4901
▁సబ్బదిసా	-10.4901
▁దస్సేసి	-10.4901
▁ఉపగన్త్వా	-10.4902
థాతి	-10.4904
గోత్త	-10.4908
▁అత్తతో	-10.4915
▁వత్థం	-10.4919
విజ్జా	-10.492
▁వోహర	-10.4923
▁ఆకాసానఞ్చాయతన	-10.4923
▁అనుఞ్ఞాతం	-10.4925
▁నసరణ	-10.4926
▁భణన్తస్స	-10.4927
▁తతియమ్పి	-10.4929
▁ఉపాదానం	-10.4931
స్వాగతం	-10.4936
ాచార	-10.4941
▁సేట్ఠి	-10.4942
▁సంసట్ఠా	-10.4946
కమ్మస్స	-10.4947
పరియాయో	-10.4949
కల్యాణ	-10.4952
▁విమాన	-10.4955
▁జఞ్ఞా	-10.4958
▁ఛడ్డేత్వా	-10.4959
▁అద్ధ	-10.4961
యమక	-10.4962
సాయ	-10.4962
మూలకం	-10.4962
సియా	-10.4968
▁విరోచ	-10.4969
▁సమణస్స	-10.4969
▁సోతాయతనం	-10.4975
▁సీఘం	-10.4977
▁నత్థియా	-10.4984
▁హత్థతో	-10.4987
▁ఏవమాదీసు	-10.4989
మధుర	-10.4989
▁ఇమినావ	-10.4989
మతి	-10.4992
▁సద్ధో	-10.4994
▁సమన్నాగతం	-10.4996
ికే	-10.4997
తూతి	-10.5
చీ	-10.5002
▁వసీ	-10.5004
▁అసక్కోన్తో	-10.5006
ానురూపం	-10.5009
ముఖో	-10.501
▁కహాపణ	-10.5011
గణనాయ	-10.5014
▁ఏవమాహంసు	-10.5015
▁హత్థపాద	-10.5019
▁ఆగన్తుక	-10.502
▁౧౨౪	-10.5023
▁జానేయ్య	-10.5024
▁౧౨౩	-10.5026
▁సఙ్ఖత	-10.5027
▁ఇన్ద్రియపచ్చయేన	-10.503
▁హీతి	-10.5031
▁దిట్ఠే	-10.5033
సక్క	-10.5033
అస్స	-10.5033
వాసినో	-10.5041
▁సహస్సం	-10.5043
▁సోతాపత్తిఫలే	-10.5051
సమ్పన్నం	-10.5052
▁పసన్న	-10.5054
▁నిబ్బుతో	-10.5056
రతి	-10.5057
ిధ	-10.5058
పదుమ	-10.5061
▁ఉపోసథో	-10.5062
▁వాదో	-10.5063
▁ఆహు	-10.5063
▁మిస్సక	-10.5066
▁పథవి	-10.507
▁గిహీ	-10.507
ాహీ	-10.5071
సామఞ్ఞ	-10.5071
▁దాతబ్బ	-10.5071
▁ఖన్ధేన	-10.5072
▁ఏకిస్సా	-10.5077
▁వినిచ్ఛయ	-10.5078
▁౧౨౨	-10.5078
సద్ధా	-10.508
సమ్మా	-10.5091
చమ్మ	-10.5092
▁తపో	-10.5096
▁బ్రహ్మచరియ	-10.5096
▁జోత	-10.51
అనాపత్తి	-10.51
▁మఞ్చ	-10.5101
▁సూకర	-10.5104
▁పయిరుపాస	-10.5106
నన్ద	-10.5106
▁కథిన	-10.5108
▁సంవరో	-10.5113
ిమం	-10.5118
▁దేసితా	-10.5119
▁వుత్తమ్పి	-10.512
▁పారం	-10.5121
▁సముట్ఠానేహి	-10.5122
▁అత్తభావే	-10.5123
▁అప్పమాణ	-10.5125
▁బోజ్ఝఙ్గ	-10.5126
▁భోన్తో	-10.5128
▁ఉపచార	-10.5134
▁సమాపత్తిం	-10.5135
హత్థి	-10.5137
హే	-10.5139
▁నిబ్బానస్స	-10.5141
▁దువిధం	-10.5142
▁అభావా	-10.5145
సట్ఠి	-10.5148
▁సము	-10.5149
రివ	-10.515
▁యోగ	-10.5151
▁థామ	-10.5151
▁గుణా	-10.5152
▁కిరియ	-10.5155
▁సకట	-10.5156
లోప	-10.5157
▁కరోథ	-10.5157
▁విభఙ్గవారో	-10.5161
▁సక్కోన్తి	-10.5161
▁మనం	-10.5162
▁మనోవిఞ్ఞాణధాతు	-10.5169
▁గుణం	-10.5171
▁ఫోట్ఠబ్బ	-10.5171
ేసా	-10.5173
త్థేర	-10.5175
ఞ్ఛ	-10.5177
▁ఫోట్ఠబ్బాయతనం	-10.518
▁చక్కవత్తి	-10.5182
▁పంసు	-10.5182
▁సూరియో	-10.5183
▁మమం	-10.5187
మాదాయ	-10.5188
ట్ఠే	-10.519
▁పరిచ్ఛిన్న	-10.5194
▁మహతా	-10.5195
▁బ్రూహి	-10.5196
▁సంకిలేస	-10.5197
లం	-10.5197
ఙ్గుల	-10.5198
సమో	-10.5199
▁ఇత్థిలిఙ్గ	-10.52
▁సమ్మప్పధాన	-10.5204
▁సామ	-10.5206
ేసూ	-10.5207
యుత్తా	-10.5212
▁కుసలత్తిక	-10.5219
▁మనసికరోతో	-10.522
▁కారక	-10.5223
▁అనుజాన	-10.5223
కమ్మట్ఠాన	-10.5226
పసాద	-10.5228
ట్ఠానతో	-10.523
▁ఠప	-10.523
▁ఉప్పాదేత్వా	-10.523
▁కోప	-10.5233
▁ఏకమేవ	-10.5237
▁హిమవన్త	-10.5237
▁వినయం	-10.5239
▁వీత	-10.524
ానన్తర	-10.5241
▁మారిస	-10.5243
సిద్ధి	-10.5243
సతసహస్స	-10.5245
▁అభిజ్ఝా	-10.5247
▁వీతిక్కమ	-10.5249
సిక్ఖ	-10.5252
▁కరిస్సతి	-10.5254
రహ	-10.5254
లోహిత	-10.5254
▁నిస్సరణం	-10.5255
▁పరియోసాన	-10.5256
సన్తాన	-10.5259
▁నిరుజ్ఝతీతి	-10.5261
▁పరిభుఞ్జ	-10.5262
రూపాని	-10.5266
▁సమనుపస్సతి	-10.5267
▁పవత్తన్తి	-10.5269
▁గయ్హ	-10.5276
అరియ	-10.5276
▁వుట్ఠాతి	-10.5277
▁కులం	-10.5278
సామణేర	-10.5278
▁రాహుల	-10.5282
పదేస	-10.5282
మేత	-10.529
▁అధిగమ	-10.5294
సీమా	-10.5297
▁వినస్స	-10.5298
▁భుత్త	-10.5298
పాయ	-10.53
సభావా	-10.5309
▁సప్పీతిక	-10.531
సమ్భార	-10.5319
వీథి	-10.5322
▁ఆకిఞ్చఞ్ఞాయతన	-10.5322
▁పాచిత్తి	-10.5322
మణ్డలం	-10.5324
ధారణ	-10.533
▁విఞ్ఞూ	-10.5331
▁పహాతబ్బహేతుక	-10.5339
▁భిక్ఖూతి	-10.534
ప్పధాన	-10.5342
▁భావే	-10.5344
▁౧౨౧	-10.5345
▁దహ	-10.5346
సమ్మ	-10.5352
త్థేన	-10.5355
లద్ధ	-10.536
▁విస్సట్ఠ	-10.5362
▁భూమియా	-10.5363
▁కిరియం	-10.5366
▁అస్సాస	-10.5368
▁చక్ఖువిఞ్ఞాణస్స	-10.5371
▁ఓళారిక	-10.5374
▁పురిమం	-10.5375
▁పస్సతీతి	-10.5379
▁పగ్గహ	-10.5379
ినం	-10.5381
ాదీ	-10.5382
భద్ద	-10.5384
▁అవిపరీత	-10.5386
ుద్దేస	-10.5389
▁పతిత	-10.5391
▁వివాద	-10.5391
పవత్తి	-10.5391
▁అబ్భన్తర	-10.5393
▁అమోహో	-10.5399
▁దేసితో	-10.5402
▁భర	-10.5404
▁విపరీత	-10.5404
▁ఖిత్త	-10.5406
కాళ	-10.5407
▁దస్సనత్థం	-10.5408
▁మోహస్స	-10.5411
▁గహేతబ్బ	-10.5416
రుక్ఖో	-10.542
▁వీస	-10.5422
▁సహసా	-10.5423
▁ఓవద	-10.5423
▁అరహ	-10.5424
▁అనరియ	-10.5424
▁కాతబ్బ	-10.5426
ఠాన	-10.5428
సమఙ్గీ	-10.543
▁అవచ	-10.5431
▁వత్థుస్మిన్తి	-10.5434
యమ్పి	-10.5436
▁నిపన్న	-10.5436
కత్థ	-10.5437
▁సజ్ఝాయ	-10.5439
సముద్ద	-10.5441
▁బుద్ధి	-10.5442
మ్	-10.5446
▁సచ్చా	-10.5448
▁పా	-10.545
▁సరూపతో	-10.5452
▁ఆచార	-10.5453
▁కథిత	-10.5453
▁దక్ఖిణం	-10.5456
▁పరిగ్గహ	-10.5462
▁ఫుస్స	-10.5469
▁అచ్ఛరా	-10.5474
▁వసన్తో	-10.5478
తిఆదికం	-10.5479
మహారాజ	-10.548
▁విసేసం	-10.5481
▁౧౨౫	-10.5482
▁సోణ	-10.5484
▁పుబ్బేపి	-10.5485
ఞ్ఞం	-10.5485
గ్గాహో	-10.5491
▁భోతో	-10.5494
▁పాళియా	-10.5494
▁ఉత్తాన	-10.5494
▁ఆసన్న	-10.5494
సుద్ధి	-10.5495
▁చతుబ్బిధ	-10.5496
రోధ	-10.5497
పరమ	-10.5498
బ్యా	-10.5502
▁తణ్హం	-10.551
విధం	-10.5511
▁విత్థారో	-10.5512
ేసీ	-10.5516
▁విసభాగ	-10.5517
రట్ఠ	-10.5524
ాసన	-10.5528
▁ఠానేహి	-10.5529
వికార	-10.5536
▁సుమేధ	-10.5537
▁భాయ	-10.5538
▁పటిపదాయ	-10.5538
దాయ	-10.5539
▁వసే	-10.554
▁ధువం	-10.5542
▁కస్సపో	-10.5542
▁జానన	-10.5542
భావనాయ	-10.5545
పారమి	-10.5546
వేదన	-10.5547
దుక్ఖనిరోధగామినీ	-10.555
మత్థం	-10.5553
▁ఉపపరిక్ఖ	-10.5555
ేతుకామో	-10.5566
భేదం	-10.5571
▁గవ	-10.5574
▁నిసిన్నస్స	-10.5576
▁ముత్తా	-10.5577
▁పుబ్బభాగే	-10.5578
స్వ	-10.5579
▁విచర	-10.558
▁అయ్యే	-10.56
పటిమణ్డిత	-10.5603
▁నోఆసవ	-10.5603
▁దక్ఖిణేయ్య	-10.5605
విభఙ్గే	-10.5605
▁ఉదకేన	-10.5611
▁అనువత్త	-10.5611
రోహ	-10.5614
▁అగ్గహేత్వా	-10.5615
▁దుక్ఖక్ఖన్ధస్స	-10.5615
పారమీ	-10.5618
▁ఇస్సా	-10.5625
▁కతన్తి	-10.5625
వీ	-10.5629
▁రక్ఖిత	-10.5636
▁దిట్ఠానుసయో	-10.5638
తబ్బ	-10.5638
పాణ	-10.5638
ిమా	-10.5639
▁పుచ్ఛితో	-10.5639
▁దీఘో	-10.564
▁వాక్యం	-10.5647
సేనాసన	-10.5648
▁ఖత్తియా	-10.5648
▁హత్థం	-10.565
సిక్ఖాపదే	-10.5652
▁కరిస్సామి	-10.5654
తప్ప	-10.566
▁చిత్తసముట్ఠాన	-10.566
▁పరిఞ్ఞాయ	-10.5661
ానన్తరం	-10.5664
▁ఞాత	-10.5665
▁సరణగమన	-10.5666
▁గచ్ఛామి	-10.5668
▁యమ	-10.5668
▁దువిధేన	-10.5672
▁మహాజనస్స	-10.5675
▁సమ్మాసమ్బుద్ధేన	-10.5679
▁సమత్థ	-10.568
▁గమనే	-10.5683
వన్తో	-10.5688
దత్త	-10.569
▁సకుణ	-10.569
ఞ	-10.5691
▁ఘరే	-10.5693
▁నిబ్బిన్దతి	-10.5698
▁సకలం	-10.5701
▁ఆదిం	-10.5701
కణ్టక	-10.5704
రహితా	-10.5705
సమ్పన్నా	-10.5706
▁వాక్య	-10.5706
అఞ్ఞ	-10.5707
▁విరతి	-10.5709
▁బుద్ధుప్పాదే	-10.5712
▁రాగస్స	-10.5713
ఛన్ద	-10.5715
▁పత్థనా	-10.5719
▁౧౨౬	-10.572
▁జవ	-10.5722
▁పఞ్ఞత్తన్తి	-10.5722
▁సమ్భవ	-10.5725
▁అనాపుచ్ఛా	-10.5725
▁పరియేస	-10.5726
▁గఙ్గా	-10.5727
సక	-10.5729
పణ్డితో	-10.573
యావ	-10.5731
ఖణ్డ	-10.5732
▁నదియా	-10.5733
▁ఉభయత్థ	-10.5735
గతే	-10.5737
ేయ్యాసి	-10.5739
▁దుక్ఖేన	-10.5741
దోసో	-10.5741
ణే	-10.5743
▁తదుభయ	-10.5746
▁నావా	-10.5746
మాహు	-10.5747
▁హోతూ	-10.5748
▁తేనాతి	-10.5749
▁అస్సాసపస్సాస	-10.5753
▁౧౨౮	-10.5755
వరం	-10.5757
▁అట్ఠసు	-10.5758
జ్ఝాసయ	-10.5763
▁రు	-10.5765
▁నక్ఖత్త	-10.5766
సప్ప	-10.577
▁నచిరస్సేవ	-10.5771
ఏతం	-10.5772
▁హవే	-10.5774
▁అరియసచ్చం	-10.5774
▁విమతి	-10.5777
పిట్ఠి	-10.5779
క్కన్త	-10.5779
▁ఇదమవోచ	-10.578
▁పచ్చయేహి	-10.5783
▁రస్సో	-10.5788
▁ఉపట్ఠానం	-10.579
▁ఘరం	-10.5791
▁౧౨౭	-10.5792
▁సాపి	-10.5793
▁పరికమ్మ	-10.5794
ద్వారం	-10.5795
పటిబద్ధ	-10.5805
▁సన్నిపాత	-10.5806
▁సఙ్ఘిక	-10.5809
ానఞ్హి	-10.5814
ామహం	-10.5815
▁పచ్చయపచ్చనీయం	-10.5815
▁అఞ్ఞస్మిం	-10.5817
పఞ్చమ	-10.582
▁దుచ్చరితం	-10.5822
▁పుథుజ్జనా	-10.5822
▁గుత్త	-10.5826
▁వంస	-10.5826
దీనం	-10.5826
▁పుత్తదార	-10.5829
సంయుత్త	-10.583
▁ఉత్తమం	-10.5831
జాతికో	-10.5832
▁సదిసో	-10.5832
▁దధి	-10.5833
ేహిపి	-10.5833
▁పటిసేధ	-10.5836
▁పురిసానం	-10.5838
▁ఫలసమాపత్తి	-10.5838
▁వాసేట్ఠ	-10.5839
▁మహారాజా	-10.5841
ాధిప్పాయ	-10.5843
▁నానత్త	-10.5843
▁ఉపసగ్గ	-10.5845
▁మద	-10.585
సమాన	-10.585
▁గామణి	-10.585
▁సక్కాయదిట్ఠి	-10.5856
▁ధాతూ	-10.5857
▁వివట	-10.5857
▁దద	-10.5859
ధరా	-10.5861
▁గణన	-10.5862
పుబ్బో	-10.5863
▁సత్తసు	-10.5867
▁పేసేసి	-10.5869
▁కారాపేత్వా	-10.5872
▁కదా	-10.5876
వాసీ	-10.5881
▁తణ్డుల	-10.5883
▁సహబ్యతం	-10.5886
తస్మా	-10.5891
గుణం	-10.5892
▁లూఖ	-10.59
▁మోక్ఖ	-10.5901
▁లోహ	-10.5903
పదానం	-10.5907
▁పయోజ	-10.5909
జనక	-10.591
▁పథవీధాతు	-10.5912
పాదిన్నుపాదానియో	-10.5913
▁పఞ్హే	-10.5915
▁పఞ్హ	-10.5915
▁భుఞ్జిత్వా	-10.5918
యోని	-10.5919
ిస్సామా	-10.5924
▁అవిజ్జమాన	-10.5925
▁పకార	-10.5925
ేన్తీ	-10.5926
▁మానానుసయేన	-10.593
▁ఆహారా	-10.5931
▁పదట్ఠాన	-10.5931
▁సల్లక్ఖేత్వా	-10.5932
▁యాచితో	-10.594
▁పఞ్ఞావిముత్తి	-10.5943
సఞ్ఞానాసఞ్ఞాయతన	-10.5943
▁అనుత్తరో	-10.5948
పణ్డిత	-10.5952
▁సమ్భావ	-10.5952
▁పుప్ఫం	-10.5953
▁భిక్ఖుసఙ్ఘం	-10.5954
▁ధుర	-10.5954
▁మద్ద	-10.5958
పచ్చయే	-10.596
▁ఖగ్గవిసాణకప్పో	-10.5962
▁అరణ	-10.5963
▁ఠపితా	-10.5964
▁దసన్నం	-10.5967
కరం	-10.5971
▁అనేకవిహిత	-10.5973
కమ్మే	-10.5974
పరిచ్చాగ	-10.5975
గరు	-10.5975
▁ధీతా	-10.5976
త్థేరఅపదానవణ్ణనా	-10.5976
▁అపరియాపన్నే	-10.5977
▁సమ్బుద్ధ	-10.5978
▁యుత్తా	-10.598
▁మోచ	-10.5983
▁కఞ్ఞా	-10.5983
▁సంవేగ	-10.5987
జిన	-10.5988
▁ఉచ్ఛు	-10.5989
▁ఠానాని	-10.5994
▁కరోహి	-10.5995
▁యోజన	-10.5999
▁ఉపోసథకమ్మం	-10.6
▁పచ్చవేక్ఖణ	-10.6003
▁ఏకవచన	-10.6007
మర	-10.6008
సావక	-10.6009
సమ్ముతి	-10.6011
▁అత్థేవ	-10.6012
▁సారథి	-10.6013
▁తదఞ్ఞ	-10.6016
ప్య	-10.6017
▁పటిలభ	-10.6017
▁పటిగ్గణ్హాతి	-10.6019
మయ్హం	-10.6019
వాచ	-10.602
ాచరియ	-10.6022
గు	-10.6022
సాధారణ	-10.6023
▁దువిధా	-10.6024
పట	-10.6026
▁సుమన	-10.6027
▁అరూపినో	-10.6031
నిస్సితా	-10.6034
సమూహ	-10.6035
భగవా	-10.6038
కారే	-10.6039
▁ఇద	-10.6042
▁సప్పాయ	-10.6042
చిత్తాని	-10.6044
చారీ	-10.6044
సిప్ప	-10.6045
▁పఞ్ఞాస	-10.6046
▁నాస్స	-10.6046
▁పణ్ణత్తి	-10.6053
ియమానే	-10.6055
ికానం	-10.6057
▁కుజ్ఝ	-10.6058
▁పథ	-10.6058
▁అభిక్కమ	-10.6058
▁ఆదీనవ	-10.6058
తలే	-10.6059
▁అత్తమనా	-10.6061
▁పానీయం	-10.6063
యు	-10.6063
▁భిత్తి	-10.6063
పరిసా	-10.6065
▁భోజ	-10.6065
▁తీరే	-10.6068
▁సాగర	-10.6069
▁రూపారూప	-10.607
▁ఫుసిత్వా	-10.6072
ట్ఠిత	-10.6073
▁మేథునం	-10.6076
త్తఞ్చ	-10.6077
పాదక	-10.6084
▁లబ్భతీతి	-10.6085
▁బహుస్సుతో	-10.6089
▁గిలానో	-10.6093
▁ఉపపజ్జ	-10.6093
▁పలాయ	-10.6102
భోజనం	-10.6104
ఏహి	-10.6105
యమానా	-10.6106
లోకో	-10.6106
▁అపరి	-10.6109
▁కేవలస్స	-10.6113
▁అతుల	-10.6114
ికాతి	-10.6116
▁దిట్ఠధమ్మిక	-10.6117
▁పటిచ్చసముప్పన్న	-10.6119
▁అనుబన్ధ	-10.6119
▁కఞ్చన	-10.6121
▁పబ్బతో	-10.6121
▁ఆప	-10.6121
▁పూరణ	-10.6123
మాతికా	-10.6126
▁త్య	-10.6127
▁ఉప్పజ్జిత్వా	-10.6129
ియమాన	-10.613
▁మేత్త	-10.6136
విపత్తి	-10.6136
▁సినేరు	-10.6137
యోగేన	-10.6146
▁ఇస్సర	-10.6146
సహగతా	-10.6151
సోక	-10.6152
మచ్ఛ	-10.6154
భిక్ఖూ	-10.6154
▁నానాక్ఖణికా	-10.6157
▁అరఞ్ఞం	-10.6157
▁పుబ్బేనివాస	-10.6157
▁సేల	-10.6166
▁ఆచరియేన	-10.617
▁మహాబోధి	-10.6173
దన	-10.6175
▁ఉద్ధరిత్వా	-10.6178
▁పరిపుచ్ఛ	-10.6182
▁ఉక్ఖిప	-10.6182
▁చణ్డ	-10.6183
▁అరహన్త	-10.6183
విభావన	-10.6184
మత్థకే	-10.6184
▁సద్ధివిహారిక	-10.6189
▁ధను	-10.6189
▁పఞ్ఞపేన్తి	-10.619
ుప్పాదన	-10.6192
పన్న	-10.6192
పార	-10.6194
▁తథారూప	-10.6198
చత్తారో	-10.6199
సంవర	-10.6199
▁ఘాత	-10.62
▁గోతమం	-10.6204
▁మయ్హ	-10.6207
▁హోన్తు	-10.6208
▁సబ్బేన	-10.621
పరిమాణ	-10.6213
▁గోణ	-10.6213
సహిత	-10.6214
పచ్చుప్పన్న	-10.6215
చతుత్థ	-10.6221
▁అస్మిం	-10.6222
▁దేసేస్సామి	-10.6223
▁సీలేసు	-10.6224
▁హీనం	-10.6226
పఞ్హ	-10.6227
▁తిక్ఖ	-10.6228
▁అరహత్తఫల	-10.6229
▁ఏతదవోచుం	-10.6231
చ్ఛిన్న	-10.6231
విధి	-10.6232
▁పబ్బజ్జ	-10.6235
సజ్జ	-10.6238
హోతి	-10.6238
రూపే	-10.6239
▁పరమత్థతో	-10.6239
ఙ	-10.6241
▁అరతి	-10.6243
▁విపులం	-10.6243
పత్తం	-10.6243
▁అభావ	-10.6246
ఞ్చాపి	-10.6248
▁ఉపాదిన్న	-10.625
▁పదేన	-10.6253
▁పత్తి	-10.6255
దస్సీ	-10.6256
▁అహోసిం	-10.6256
▁భోగా	-10.6258
▁అఞ్ఞాణం	-10.6259
▁తాదినో	-10.6259
సీలా	-10.6261
సిర	-10.6263
▁పుబ్బాపర	-10.6263
పథం	-10.6267
▁ఉపేక్ఖిన్ద్రియ	-10.6268
▁చుణ్ణ	-10.6276
▁రతనం	-10.6278
▁సివ	-10.6283
▁మిస్స	-10.6283
పుణ్ణ	-10.6283
▁గణ్హన్తో	-10.6284
▁కరణీయా	-10.6285
▁దుక్కర	-10.6285
▁హేవ	-10.6285
కులం	-10.6287
▁పచ్చవేక్ఖన్తి	-10.6288
క్రియా	-10.6295
▁విమల	-10.6297
▁రట్ఠం	-10.6299
▁సిస్స	-10.6303
▁నిక్ఖమ	-10.6304
సీసేన	-10.6306
భాగే	-10.6308
▁ఆరమ్మణపురేజాతం	-10.6309
▁భోజనే	-10.631
▁అదిన్నం	-10.6311
▁ఉజ్ఝాయన్తి	-10.6312
ానుభావ	-10.6318
హత	-10.6319
▁పక్ఖిత్త	-10.6319
సమాదాన	-10.6319
▁యోని	-10.632
▁కరణం	-10.6322
▁ఉద్ధ	-10.6322
ఉత్తరిమనుస్సధమ్మ	-10.6322
▁సమతిక్కమ్మ	-10.6323
▁అదత్వా	-10.6324
▁కరోన్తా	-10.6324
బద్ధ	-10.6326
▁విజహ	-10.6326
సేట్ఠి	-10.6326
దానేన	-10.6331
▁అమచ్చ	-10.6334
హత్థో	-10.6336
▁మహాజనో	-10.6338
▁సమథో	-10.6342
దస్స	-10.6345
▁నిక్ఖిపిత్వా	-10.6353
▁కాయిక	-10.6354
చ్ఛన్న	-10.6354
▁పరిబ్బాజకో	-10.6355
అత్త	-10.6357
▁రాగాది	-10.6357
▁హస	-10.6357
▁సమ్పరాయిక	-10.6358
▁వారి	-10.6361
▁సుతేన	-10.6363
▁సామి	-10.6364
▁గుణవన్త	-10.6365
▁సిఞ్చ	-10.6366
ాయపి	-10.6367
సోభ	-10.6372
▁జనం	-10.6375
▁అత్థా	-10.6376
నత్థ	-10.6379
▁పూతి	-10.638
▁కరిస్సామీ	-10.638
▁చుతా	-10.6382
నస్స	-10.6382
విసిట్ఠ	-10.6382
▁ఆనిసంస	-10.6383
▁ఆరమ్మణూపనిస్సయో	-10.6389
▁సేనా	-10.6389
ఆదీహి	-10.639
▁ఘోస	-10.6392
▁ఠపేతి	-10.6397
▁సరో	-10.64
భేసజ్జ	-10.6401
▁పచ్చనీక	-10.6402
▁మహాదానం	-10.6403
▁సరిత్వా	-10.6403
▁దేవలోక	-10.6412
▁ఏకచ్చ	-10.6416
▁కల్యాణమిత్త	-10.6417
పదాన	-10.6417
▁ఆసన	-10.6419
ప్పహానం	-10.6421
▁సిరసా	-10.6424
ియతి	-10.6428
▁ఏకమ్పి	-10.6428
▁విపరిణామ	-10.643
▁నిద్దేస	-10.6431
క్ఖణ	-10.6431
▁ఏకదేస	-10.6432
▁ఆపో	-10.6433
ధుర	-10.6433
▁పరినిబ్బుతో	-10.6434
ాకారం	-10.6435
▁ఇస్సరో	-10.6436
▁భావేత్వా	-10.6436
▁ఏయ్య	-10.6444
థేర	-10.6444
ీర	-10.6445
▁విముత్త	-10.6446
▁పుథుజ్జనస్స	-10.6447
▁ఉపేక్ఖాయ	-10.6447
మజ్ఝిమ	-10.6449
▁తావదే	-10.6449
▁గావో	-10.6458
▁అన్తేవాసిక	-10.646
కారేన	-10.6461
▁నిపజ్జ	-10.6466
▁తణ్హ	-10.6467
జాతం	-10.6467
▁సనిదస్సనసప్పటిఘ	-10.6468
▁భవేసు	-10.6468
▁వచీ	-10.6469
యాన	-10.647
▁ఏవన్తి	-10.6471
ళి	-10.6472
▁విపాకపచ్చయ	-10.6473
▁భావేన్తో	-10.6476
▁సక్ఖి	-10.6477
▁తుమ్హ	-10.6478
ఞ్ఞో	-10.6479
▁ఠానా	-10.6479
త్థన్తి	-10.6479
పూరణ	-10.6481
▁ఉపగత	-10.6481
కతమా	-10.6486
▁దేవపుత్త	-10.6488
▁హత్థీ	-10.6489
▁సోతాపత్తిఫల	-10.6491
ావహ	-10.6493
▁ఛన్దరాగ	-10.6494
▁సమ్బహులే	-10.6497
▁పరిచ్చజ	-10.6498
▁సూప	-10.6501
చతుక్క	-10.6503
▁సముదాయ	-10.6503
▁రూపకాయ	-10.6509
▁మేథున	-10.6511
▁భిక్ఖవో	-10.6515
▁నిదానం	-10.6518
కారకో	-10.652
▁మేత్తం	-10.6523
▁మహేసి	-10.6523
▁పహూత	-10.6523
ఞ్చేత్థ	-10.6523
▁పుత్తస్స	-10.6524
దుస్స	-10.6527
▁సమ్మావాచా	-10.6527
▁నరా	-10.6528
స్మిఞ్హి	-10.6532
▁అధిప్పాయేన	-10.6546
▁పటిబాహ	-10.6557
▁ఖ్వాహం	-10.6557
▁ఆర	-10.6557
లోచన	-10.6558
▁విహాసి	-10.6559
▁ధమ్మిక	-10.656
▁ధమ్మచక్కం	-10.6563
▁పఞ్చిన్ద్రియాని	-10.6563
▁పదానం	-10.6563
▁మనాపా	-10.6566
▁అధమ్మో	-10.6568
▁చోరా	-10.6569
▁వత్తమానే	-10.6573
▁నాగరాజా	-10.6575
▁పటిలభతి	-10.6575
య్హ	-10.658
▁విపల్లాస	-10.658
▁గాయ	-10.6584
▁హోన్తీ	-10.6587
▁సఙ్ఘాదిసేసో	-10.6591
▁తిత్థియ	-10.6591
▁పచ్చయుప్పన్న	-10.6591
▁ఉర	-10.6598
▁లోకుత్తరధమ్మ	-10.6599
▁పస్సం	-10.6602
▁హన్ద	-10.6602
▁సత్తి	-10.6604
▁దేసేన్తో	-10.6605
▁సదేవకే	-10.6605
▁అనాపత్తీతి	-10.6605
▁థుల్లచ్చయస్స	-10.6607
సేట్ఠ	-10.6608
▁నిద్దిట్ఠ	-10.6609
▁సాఖా	-10.6611
ాలయ	-10.6614
▁సాలి	-10.6616
▁అమనుస్స	-10.6618
ేహేవ	-10.662
▁అయుత్త	-10.6621
▁ఉపక్కమ	-10.6621
గూ	-10.6621
▁సురా	-10.6622
సభాగ	-10.6622
▁పవత్తనతో	-10.6623
సఙ్ఖత	-10.6624
▁అధమ్మేన	-10.6624
▁అజ్ఝుపేక్ఖ	-10.6626
▁పాన	-10.6626
▁చీవరే	-10.6626
▁అభిఞ్ఞేయ్యో	-10.6628
అధి	-10.6629
▁పకాసితో	-10.6634
క్ఖి	-10.6634
పకార	-10.6635
▁జీవితిన్ద్రియ	-10.6638
▁ఫర	-10.664
▁ఉస్సాహ	-10.664
▁వుత్తఞ్హి	-10.6641
ఇచ్చేత	-10.6644
రవ	-10.6648
జాతకే	-10.6649
▁బోధిసత్త	-10.665
▁దుతియజ్ఝాన	-10.6652
▁సీసే	-10.6652
▁దుతియమ్పి	-10.6652
▁సమాగతా	-10.6654
▁పసత్థ	-10.6654
▁పక్ఖిప	-10.6658
చేతియ	-10.666
ద్వి	-10.6661
▁తిల	-10.6667
▁పటివిద్ధ	-10.6668
దాస	-10.6671
యత్థ	-10.6671
మోద	-10.6674
నవిపాకధమ్మధమ్మో	-10.6675
▁తిధా	-10.6675
▁సన్తక	-10.6679
▁ఉట్ఠిత	-10.6679
▁యాచి	-10.6682
▁సుద్ధావాస	-10.6683
సఙ్ఖేప	-10.6683
తేసం	-10.6686
▁యోగో	-10.6686
భాసిత	-10.6688
▁పథవియం	-10.6693
▁విచిత్త	-10.6694
▁ధూమ	-10.6694
▁వత్థుపురేజాతం	-10.6695
▁అపచయగామి	-10.6695
కసిణ	-10.6698
ఞ్ఞాయ	-10.67
▁౧౩౦	-10.67
▁తాపసో	-10.6701
▁పనేస	-10.6702
సమయ	-10.6702
ిస్సా	-10.6704
విత్థార	-10.6705
▁ఫలసమాపత్తియా	-10.6706
▁ఉపట్ఠ	-10.6709
పదేన	-10.671
▁అన్తిమ	-10.6715
న్ధకార	-10.6716
▁లజ్జ	-10.6716
▁రుక్ఖం	-10.6717
యస్మిం	-10.6718
గబ్భ	-10.6722
▁ఖేత్తం	-10.6725
సంయుత్తం	-10.6727
▁పోరాణ	-10.6728
▁సమ్మావాయామో	-10.6728
▁నిరామిస	-10.673
▁అసమ	-10.673
▁పాసాద	-10.6731
కమ్పి	-10.6732
▁గహితత్తా	-10.6734
కణ్డ	-10.6734
దాయకో	-10.6735
రతనం	-10.6735
▁విద్ధంస	-10.6739
ధరో	-10.674
▁స్వా	-10.6741
▁తచ	-10.6742
క్ఖన్ధో	-10.6743
▁సఙ్ఘాటి	-10.6745
▁కులాని	-10.6746
త్థు	-10.6746
▁ఏతాయాతి	-10.6746
▁సమాపన్నస్స	-10.6747
▁ధాతూనం	-10.6747
▁ఇత్థన్నామో	-10.6752
▁మగ్గారమ్మణ	-10.676
▁అయో	-10.6763
▁పఞ్చవోకారే	-10.6764
▁ఆక	-10.6765
▁కథేతుం	-10.6768
▁సమథేహి	-10.6769
భాజన	-10.6772
తాని	-10.6772
▁నఖ	-10.6772
ంయేవ	-10.6773
▁కాయకమ్మ	-10.6776
▁నిరోధా	-10.6776
▁పాకార	-10.6779
▁ఖాదనీయం	-10.6779
పు	-10.6779
▁రాగం	-10.6781
సన్నిస్సిత	-10.6789
▁గారవ	-10.6789
▁కుసలాకుసల	-10.679
▁చతుత్థజ్ఝాన	-10.679
▁అనాసవా	-10.6792
▁సమ్భవతి	-10.6792
▁నిక్ఖమి	-10.6795
సభావం	-10.6798
▁సుద్ధి	-10.68
▁పరిఞ్ఞా	-10.6801
▁ఆచరియస్స	-10.6801
పూజ	-10.6803
మంసం	-10.6803
క్ఖా	-10.6804
పబ్బ	-10.6805
సమ్బోజ్ఝఙ్గస్స	-10.6806
▁దుక్కటన్తి	-10.6808
▁ఉత్తానత్థమేవ	-10.6813
▁అప్పహీన	-10.6814
తేల	-10.6815
▁మత్థకే	-10.6816
▁సఞ్చిచ్చ	-10.6817
వినాస	-10.6819
▁భిక్ఖుని	-10.6819
▁అనిమిత్త	-10.682
గామీ	-10.6822
▁అనాగతా	-10.6826
▁రతి	-10.6827
▁మజ్ఝత్త	-10.6827
▁పచ్చేకబుద్ధ	-10.6831
▁దివస	-10.6831
వత్థుకా	-10.6833
▁నిరుజ్ఝిస్సన్తి	-10.6834
▁భావితో	-10.6835
▁కుటి	-10.6836
▁అహేతుకపటిసన్ధి	-10.6837
▁మఞ్ఞమానో	-10.6839
ాసీ	-10.6839
▁సేయ్యం	-10.6842
▁తథాగతేన	-10.6844
ాభావేన	-10.6847
కఞ్చ	-10.6851
త్యాది	-10.6852
▁విచిన	-10.6855
▁నియమ	-10.6855
బోధ	-10.6857
వేస	-10.6859
▁కయిరా	-10.6859
▁జరాయ	-10.6859
▁కుక్కుట	-10.6861
▁ఆరభతి	-10.6862
▁సమన్నాగతేన	-10.6868
మూలం	-10.6871
▁వత్తన్తి	-10.6873
▁హాస	-10.6873
▁అనియ్యానిక	-10.6877
▁విపత్తి	-10.6879
▁సున్దరం	-10.6881
పదస్స	-10.6882
▁కతర	-10.6882
▁అతీతా	-10.6885
▁అబ్భన్తరే	-10.6885
హారో	-10.6886
▁పమోద	-10.6887
▁వాయమతి	-10.6887
▁బ్యాపాదో	-10.6887
▁సుఞ్ఞత	-10.6888
▁భేసజ్జం	-10.689
సణ్ఠాన	-10.6892
భయేన	-10.6893
▁౧౨౯	-10.6893
▁ముఖేన	-10.6894
సమ్భవతో	-10.6894
▁కారాప	-10.6899
దిన్న	-10.6901
▁విముచ్చ	-10.6901
పటిచ్ఛన్న	-10.6903
▁నిబ్బత్తా	-10.6905
▁పురిసేన	-10.6905
▁ధనేన	-10.6905
▁పజ్జ	-10.6905
▁సమ్పటిచ్ఛ	-10.6906
▁అగ	-10.6908
▁కరోథా	-10.6909
▁అనుయుఞ్జ	-10.6909
▁బలాని	-10.6913
పత్థ	-10.6915
▁ఉపట్ఠహ	-10.6916
▁ఆరక్ఖ	-10.6916
▁అధిప్పాయ	-10.6916
క్కమో	-10.6917
▁పూరిత	-10.6924
▁వేదన	-10.6925
▁దేవీ	-10.6925
▁సత్తమో	-10.6928
నతా	-10.6928
పరిత్త	-10.6929
▁కామభవ	-10.693
▁అభిభవ	-10.6934
▁దేథా	-10.6936
▁పభుతి	-10.694
▁వికాలే	-10.694
▁రూపావచరం	-10.6941
ఞాణేన	-10.6941
▁హోహి	-10.6942
ూపచార	-10.6944
▁ఖియ్యన్తి	-10.6945
▁పదేస	-10.6947
▁పసాదో	-10.6948
▁ఉప్పజ్జనక	-10.6949
రజ	-10.6953
ావసేస	-10.6953
చు	-10.6955
ఇచ్చాది	-10.696
▁పచ్ఛిమం	-10.696
▁పఞ్ఞప	-10.6961
▁సమాధిస్మిం	-10.6962
మరణ	-10.697
▁అవణ్ణం	-10.6971
౧౨	-10.6973
▁భూతం	-10.6974
▁ఛబ్బిధ	-10.6975
▁గుళ	-10.6975
▁నిపాతమత్తం	-10.6977
▁ఉదానేసి	-10.6977
▁అరణో	-10.6979
▁౧౪౦	-10.6981
దీ	-10.6984
▁తథాగత	-10.6986
▁గోత్తేన	-10.6987
▁పల్లఙ్క	-10.699
▁పాఠ	-10.6992
వుట్ఠ	-10.6993
▁సేసాని	-10.6993
పథే	-10.6994
▁౧౩౫	-10.6994
వరో	-10.6994
ానులోమ	-10.6995
ఏస	-10.6995
▁పబ్బతే	-10.6997
▁సంయోగ	-10.7
▁ఉపాదానసమ్పయుత్త	-10.7002
▁రాసి	-10.7002
▁తావదేవ	-10.7002
▁ఞాణస్స	-10.7005
▁అదుక్ఖమసుఖం	-10.7007
ఇదాని	-10.7009
ిత్వాతి	-10.7011
ఘర	-10.7012
▁మానుసం	-10.7013
▁కరోమి	-10.702
▁పరమం	-10.7024
▁దస్సామీ	-10.7024
▁పహీనత్తా	-10.7029
▁ఉపసమ	-10.7029
▁అక్ఖి	-10.7032
▁పటిజగ్గ	-10.7034
▁పాల	-10.7039
▁సాయం	-10.7041
కాలిక	-10.7042
▁సమానా	-10.7042
▁యదిపి	-10.7043
▁ఉపరిమ	-10.7045
▁ఇమానేత్థ	-10.7046
ానుయోగ	-10.7046
▁పత్తచీవరమాదాయ	-10.7046
▁ఆవట్ట	-10.7047
▁సమ్మతి	-10.7053
▁పవిట్ఠో	-10.7053
వాచక	-10.7054
▁భావితత్తా	-10.7055
▁జమ్బుదీప	-10.7055
▁సత్తు	-10.7056
నర	-10.7057
▁అఞ్జన	-10.7064
▁మనసికార	-10.7065
పటిసన్ధి	-10.7069
▁సుక్క	-10.7075
ాతీతి	-10.7077
▁అనాసవం	-10.7078
▁మనుస్సలోకే	-10.7079
▁ఞ	-10.7082
యోగే	-10.7083
▁అట్ఠమ	-10.7086
వనం	-10.7089
▁కుబ్బ	-10.709
▁సామివచనం	-10.709
ాదికా	-10.7093
▁గణ్డ	-10.7093
రూపేన	-10.7094
▁ఆసయ	-10.7103
▁ఉద్దిస	-10.7104
వచ్ఛ	-10.7106
ాదిభేదం	-10.7106
▁ఆసవో	-10.7107
విస్సజ్జన	-10.7109
▁౧౩౩	-10.711
▁కోవిదో	-10.7111
▁నేత్త	-10.7111
ణ్హ	-10.7117
▁సబ్బేహి	-10.7117
▁దేవతానం	-10.7117
ాపయ	-10.7119
▁కేసా	-10.7119
▁ఉపాదారూపం	-10.712
▁అత్తభావ	-10.7121
దివస	-10.7121
క్ఖీ	-10.7126
▁ధీరా	-10.7127
▁౧౩౭	-10.713
▁తేజో	-10.7131
పత్తియా	-10.7134
▁అహేతుకో	-10.7135
లోకే	-10.7137
▁ఆదియ	-10.714
▁అగారం	-10.7144
▁సమ్భవో	-10.7146
▁సాదియ	-10.7147
▁తాహి	-10.7148
▁వేస్సన్తర	-10.7149
▁కుచ్ఛిత	-10.715
▁వాస	-10.715
▁పక్ఖే	-10.7151
▁బాహు	-10.7151
చక్కం	-10.7153
పాణి	-10.7156
▁పునపి	-10.7157
▁నిదస్సన	-10.7163
▁హేత్థ	-10.7163
▁సఖా	-10.7164
▁అనుప్పత్తో	-10.7164
▁అనురుద్ధ	-10.7165
▁సంయోజనానం	-10.7165
్వ	-10.7166
▁అనభి	-10.7167
▁సవితక్కసవిచారా	-10.7169
▁ఉద్ధచ్చసహగతో	-10.717
▁మనుస్సే	-10.7171
మూలే	-10.7173
ఙ్గణ	-10.7174
▁వసా	-10.7175
పఞ్చిమే	-10.7175
▁కారితే	-10.7184
▁విపస్సిస్స	-10.7185
సయన	-10.7187
ఇమస్మిం	-10.7187
▁సమాధిన్ద్రియం	-10.7187
▁ఠపితం	-10.7188
▁పభవ	-10.7188
▁కోట్ఠాస	-10.719
బ్రహ్మచరియ	-10.7193
▁సీహనాదం	-10.7194
▁కమ్మునా	-10.7195
▁గచ్ఛన్తే	-10.7196
▁పాటిదేసనీయ	-10.7199
చత్తారోమే	-10.7199
▁పకాసేత్వా	-10.72
సహగతం	-10.7201
▁సమాపన్నో	-10.7206
వినిచ్ఛయో	-10.7209
▁మోహం	-10.7209
▁సక్కాయ	-10.7212
నియమ	-10.7212
▁ధమ్మధాతు	-10.7213
▁ఏకన్తేన	-10.7217
▁సక్య	-10.7218
సాధూ	-10.7221
▁పతిట్ఠితా	-10.7222
▁తస్సాపి	-10.7222
▁పుఞ్ఞకమ్మ	-10.7223
▁విముత్తో	-10.7223
కీళ	-10.7224
▁అవసేసం	-10.7225
విమోక్ఖ	-10.7227
▁కుహిం	-10.7228
▁ఫలాని	-10.7231
▁అప్పమాణం	-10.7232
▁తేసమ్పి	-10.7238
▁పటిసన్ధిం	-10.7238
▁విమానం	-10.7239
▁అద్దసం	-10.724
రూ	-10.7244
▁మారస్స	-10.7244
▁పాణం	-10.7245
▁౧౩౨	-10.7246
కస్మా	-10.7247
▁థేయ్య	-10.7247
▁ధమ్మకథం	-10.7253
▁భిక్ఖుసఙ్ఘో	-10.7253
▁ఛడ్డ	-10.7254
▁అనాదరియం	-10.7255
▁ఓత్తప్ప	-10.7257
సవన	-10.7259
▁ఖజ్జ	-10.7262
▁విపాచేన్తి	-10.7268
▁ముచ్చ	-10.727
▁ఛాద	-10.7271
పఞ్చహి	-10.7272
▁ఉదయ	-10.7273
▁ఉదాయి	-10.7273
▁తిట్ఠతీతి	-10.7275
▁యుగ	-10.7278
▁దేహం	-10.7279
▁అదా	-10.7279
▁సగ్గే	-10.7279
▁నానావిధ	-10.728
▁పుమ	-10.7292
▁సిక్ఖాపదాని	-10.7294
▁భూతా	-10.7295
▁అయమస్స	-10.7296
▁రసో	-10.7297
▁జన్తు	-10.73
▁సోత్థి	-10.7301
వాచా	-10.7302
▁సన్తతి	-10.7302
▁అప్పత్త	-10.7304
▁పస్సేయ్య	-10.7306
▁చణ్డాల	-10.7306
▁ఓతరిత్వా	-10.7307
▁ఇచ్ఛిత	-10.7307
▁సభావతో	-10.7308
ద్వయే	-10.7308
▁పరిత్తో	-10.731
▁దిస	-10.7312
తాప	-10.7312
▁అరియసచ్చ	-10.7312
▁సబ్బఞ్ఞు	-10.7312
▁పుచ్ఛన్తో	-10.7315
భూమిం	-10.7315
▁ఆలయ	-10.7316
▁మహల్లక	-10.7318
ఖన్ధఞ్చ	-10.7322
భేదే	-10.7323
▁నీచ	-10.7323
▁ఉపట్ఠాతి	-10.7323
నిదానం	-10.7325
▁వజ	-10.7327
▁చరన్తో	-10.7328
ియమానా	-10.7329
▁ఉప్పజ్జన్తీతి	-10.7329
▁దేహీ	-10.7329
కన్త	-10.733
▁౧౩౮	-10.733
▁గతం	-10.733
▁గచ్ఛన్తం	-10.7332
సఞ్ఞానాసఞ్ఞాయతనం	-10.7332
▁తేసన్తి	-10.7335
▁వక్ఖమాన	-10.7335
▁ధుతఙ్గ	-10.7336
సీహ	-10.7337
▁సంయోజనాని	-10.7338
గారవ	-10.7338
▁ఛత్తింస	-10.7339
▁మాతుగామో	-10.734
తిణ	-10.734
▁వికార	-10.7341
▁అనుమోద	-10.7342
▁లోహితం	-10.7342
▁పభా	-10.7345
▁పాయ	-10.7345
▁ఛత్తం	-10.7349
▁తేజోధాతు	-10.735
▁౧౩౧	-10.7352
▁సోతాపత్తిమగ్గ	-10.7353
పమాణ	-10.7354
▁నీవరణా	-10.7356
▁అచల	-10.7358
▁సమాదిన్న	-10.736
▁చేతి	-10.7362
▁పానీయ	-10.7365
సమ్పయుత్తం	-10.7365
▁ఉదాన	-10.7371
▁పణామ	-10.7371
హు	-10.7374
▁మహన్తో	-10.738
దణ్డక	-10.7381
ేస్సతి	-10.7381
▁౧౩౪	-10.7381
పటిపదా	-10.7381
▁అనుఞ్ఞాత	-10.7386
▁వత్థూని	-10.7388
▁బ్రహ్మలోకే	-10.7397
▁అజ్ఝాసయ	-10.7399
▁ఇమఞ్చ	-10.7399
▁జమ్బు	-10.74
ాతీత	-10.7401
▁ఫస్సపచ్చయా	-10.7402
▁తిరచ్ఛానగత	-10.7403
▁సుఖుమా	-10.7405
▁సాసనస్స	-10.7406
▁విఞ్ఞాణఞ్చాయతన	-10.741
▁పురేజాతస్స	-10.741
క్కమేన	-10.7411
▁ధారేతి	-10.7418
గేహ	-10.7418
▁అపచ్చ	-10.7422
▁ముఞ్చిత్వా	-10.7426
పరియన్త	-10.7426
సభ	-10.7429
▁వణ్ణే	-10.7431
హఙ్గేహి	-10.7431
▁సణ్హ	-10.7433
కాయా	-10.7434
▁సన్తానే	-10.7435
నయే	-10.7436
▁పరికప్ప	-10.7439
సబ్బం	-10.7442
▁అభిజ్ఝాదోమనస్సం	-10.7442
▁అతిక్కమ్మ	-10.7447
ఖిల	-10.7449
కుటి	-10.745
▁సినేహ	-10.7451
▁ఏవమేతస్స	-10.7452
▁ఖలు	-10.7452
▁నారీ	-10.7453
వినిచ్ఛయ	-10.7457
▁పరివారేత్వా	-10.7457
ీవ	-10.7459
▁ఠ	-10.7461
▁దేసిత	-10.7462
▁ఆణా	-10.7463
▁సమో	-10.7464
▁భద్ర	-10.7466
▁నామాని	-10.7466
లాప	-10.7467
సముదయో	-10.7467
క్ఖయ	-10.7468
ాదికో	-10.7468
పరియోసాన	-10.7469
▁౧౩౬	-10.7471
▁తివిధా	-10.7474
▁ఆపన్న	-10.7474
యోగో	-10.7474
▁పటిక్ఖిత్త	-10.7475
▁వేయ్యాకరణ	-10.7475
▁మణ్డ	-10.748
పుత్తా	-10.7483
▁సళాయతన	-10.7485
బ్యాకత	-10.7485
▁ఏకేకం	-10.7487
▁అన్తరామగ్గే	-10.7488
▁వుత్తి	-10.7489
▁ఆదిత్త	-10.7492
▁అభిభవిత్వా	-10.7493
▁పహ	-10.7493
▁అధమ్మిక	-10.7495
▁ఆరభ	-10.7496
▁విభవ	-10.7496
▁అపరాపరం	-10.7497
▁మేఘ	-10.7497
స్సామ	-10.7497
గోచర	-10.7499
▁పహరిత్వా	-10.7499
▁వయో	-10.7502
▁సూర	-10.7506
మాణవ	-10.7507
▁మహామోగ్గల్లానో	-10.7507
▁లిఖితం	-10.7508
▁దివ	-10.751
ిట్ఠ	-10.7518
▁ఇస్సరియ	-10.7519
▁మహాజన	-10.752
▁పటిచ్ఛాద	-10.7521
▁అయోనిసో	-10.7522
▁కిలమ	-10.7523
౨౦	-10.7524
▁వినిపాతం	-10.7525
ఇమస్స	-10.7527
▁ఉత్తానమేవాతి	-10.7529
నీవరణ	-10.7534
▁గోత్త	-10.7537
▁అజ్ఝత్తికం	-10.7537
▁సన్తా	-10.7537
▁రాధ	-10.7538
▁ముఖే	-10.7539
సన్తతి	-10.7541
▁తయిదం	-10.7545
▁సకే	-10.7548
▁ఓళారికా	-10.7549
▁ఘానం	-10.755
▁పఠన్తి	-10.755
▁ధారేయ్య	-10.7553
▁బ్యగ్ఘ	-10.7554
▁నిబ్బానఞ్చ	-10.7558
▁పహార	-10.7559
▁సుగన్ధ	-10.7559
▁కులగేహే	-10.756
ట్ఠితి	-10.7561
గిలాన	-10.7561
▁సంయమ	-10.7563
▁పుచ్ఛితబ్బత్తా	-10.7565
▁సమాపజ్జిత్వా	-10.7565
▁ఆకిఞ్చఞ్ఞాయతనం	-10.7567
▁అట్ఠకథాయ	-10.7568
▁పబ్బజ	-10.7569
▁భిజ్జతి	-10.7571
▁పజాయ	-10.7575
▁పవివేక	-10.7575
▁చఙ్కమ	-10.7585
వాదినో	-10.7585
▁ఉత్తమో	-10.7587
▁చేతేతి	-10.7589
▁జాతిం	-10.759
▁ఏతన్తి	-10.7591
పణ్ణాస	-10.7592
▁నాగా	-10.7592
వత్తన	-10.7593
▁తివిధో	-10.7595
▁మాలా	-10.7596
ధమ్మస్స	-10.7596
▁అలోభో	-10.7598
▁సబ్బేసమ్పి	-10.7599
▁విఞ్ఞాపేత్వా	-10.7601
ారమ్మణే	-10.7601
▁కారిత	-10.7602
▁విధ	-10.7605
▁పాదం	-10.761
▁విపాకా	-10.761
వీసతి	-10.761
▁సమ్మాసఙ్కప్పో	-10.761
▁పచ్చా	-10.7613
▁యాథావతో	-10.7613
▁తమ్హి	-10.7614
▁సావజ్జ	-10.7618
వుత్థ	-10.7619
▁అసన్త	-10.7621
▁సేతి	-10.7621
▁సుఖీ	-10.7623
▁హత	-10.7624
▁వణ	-10.7625
▁భఙ్గ	-10.7626
▁చేతియం	-10.7629
–	-10.7632
దీసు	-10.7635
విముత్త	-10.7637
▁విఞ్ఞాయతి	-10.7638
గుణా	-10.764
▁ఉగ్గహ	-10.7641
▁ఆబాధ	-10.7642
▁ఆజాన	-10.7644
▁కత్వాతి	-10.7644
▁సఙ్ఖేపో	-10.7648
▁దేవానమిన్ద	-10.7648
▁కామావచరే	-10.765
సఞ్ఞోజనసమ్పయుత్త	-10.7651
▁యుత్తి	-10.7651
కేసు	-10.7656
▁అఞ్ఞతరస్స	-10.7657
▁సోచతి	-10.7659
▁విఘాత	-10.7659
▁సేక్ఖ	-10.7659
పకతి	-10.7664
▁పఞ్ఞత్తో	-10.7664
పచ్చవేక్ఖణ	-10.7664
తస్సా	-10.7666
▁బహూనం	-10.7669
▁దేవానమిన్దో	-10.7671
▁నిస్సయో	-10.7675
న్తోపి	-10.7675
▁కారేతబ్బో	-10.7675
▁జర	-10.7677
▁ఫ	-10.7678
▁ఆపదాసు	-10.7683
▁మాయా	-10.7683
మగ్గేన	-10.7684
సానం	-10.7686
▁వజ్జేత్వా	-10.7686
▁సమేన్తి	-10.7687
నీయం	-10.7687
▁యుద్ధ	-10.7687
నసనిదస్సనసప్పటిఘ	-10.7688
వత్థుం	-10.7689
▁దేవరాజా	-10.7692
▁సరూప	-10.7692
ినిం	-10.7693
పో	-10.7694
త్థేరం	-10.7697
తాత	-10.7698
▁గుణేహి	-10.77
▁ఫుట్ఠ	-10.77
▁సుప్ప	-10.77
▁సమణం	-10.7701
▁రూపావచరే	-10.7702
▁పతిట్ఠితో	-10.7703
▁గరుక	-10.7704
▁పటిసంవేద	-10.7704
▁సకవాదిస్స	-10.7712
▁కాయానుపస్సీ	-10.7713
నియో	-10.7714
ుపాదాన	-10.7716
సఙ్ఘాట	-10.7717
ప్పచ్చయో	-10.7722
కిణ్ణ	-10.7724
▁పజహతీతి	-10.7725
పఞ్చక	-10.7726
ాతిక్కమ	-10.7728
▁సేట్ఠం	-10.773
అమ్హాకం	-10.7731
తణ్హ	-10.7735
▁రసా	-10.7736
▁జిత	-10.7738
▁సిక్ఖితబ్బం	-10.7739
▁వేవచనం	-10.774
ేసో	-10.774
చ్ఛా	-10.7741
▁భాసితస్స	-10.7749
కథాయం	-10.775
▁చిన్త	-10.7752
▁నిరోధం	-10.7752
విప్పయుత్తో	-10.7752
▁తేనుపసఙ్కమింసు	-10.7754
కాస	-10.7756
రతా	-10.7757
అద్ధా	-10.7757
▁అత్తనావ	-10.776
▁గచ్ఛన్తస్స	-10.776
▁చేతోవిముత్తిం	-10.776
▁పరిచార	-10.7762
▁గహేతబ్బా	-10.7763
▁సకదాగామీ	-10.7763
పుబ్బే	-10.7765
▁౧౩౯	-10.7766
▁ఖేప	-10.7769
త్థేరగాథా	-10.7772
▁పటిగ్గహ	-10.7776
▁ఓకాసో	-10.7779
▁బన్ధు	-10.778
భిక్ఖ	-10.778
▁కణ్టక	-10.7781
మహన్త	-10.7782
ఆహార	-10.7784
పరివారో	-10.7789
▁అపాయం	-10.779
యోగతో	-10.7794
▁మి	-10.7795
▁వేగేన	-10.7797
▁పసన్నచిత్తో	-10.7798
▁లోకుత్తరా	-10.7799
▁తిబ్బ	-10.7802
▁రూపాయతనఞ్చ	-10.7802
▁విహరతీతి	-10.7804
▁పభేద	-10.7804
▁మహప్ఫల	-10.7806
వినోదన	-10.781
▁అపగత	-10.781
▁సత్తేసు	-10.781
▁సక్కస్స	-10.7814
▁భిక్ఖం	-10.7814
▁కోసల	-10.7815
భేదా	-10.782
పాసాణ	-10.7822
▁నిరుజ్ఝిత్థాతి	-10.7823
▁ఆలపతి	-10.7824
▁మత్థకం	-10.7824
▁సాయ	-10.7825
▁పసేనది	-10.7827
పరిచ్ఛేదో	-10.783
▁అలాభ	-10.7832
▁పవిసతి	-10.7833
▁కామేసుమిచ్ఛాచార	-10.7833
స్మీతి	-10.7836
▁సిలా	-10.7837
▁పఞ్చసత	-10.7839
▁యోగావచర	-10.7841
▁పహోతి	-10.7842
వాహన	-10.7842
▁నిరత్థక	-10.7842
ట్ఠిక	-10.7843
లక్ఖణేన	-10.7846
సమ్భవ	-10.7846
▁సంసయ	-10.7847
▁ఘాన	-10.7847
▁లోకియా	-10.7848
ుద	-10.785
▁ఛట్ఠో	-10.7851
ుర	-10.7851
▁వీరియిన్ద్రియం	-10.7852
▁భగినీ	-10.7853
ేయ్యామ	-10.7855
▁ఆసవసమ్పయుత్త	-10.7855
▁సఙ్ఘాదిసేస	-10.7858
▁రూపియ	-10.7861
న్త్య	-10.7862
▁ఉగ్గ	-10.7862
ఖీణాసవ	-10.7863
▁కలాప	-10.7865
▁రూపక్ఖన్ధ	-10.7865
▁ఆపజ్జ	-10.7866
▁పేచ్చ	-10.7868
ఏత్థ	-10.7871
తప	-10.7871
▁పుప్ఫాని	-10.7877
▁మన్తే	-10.7878
▁హా	-10.788
ితస్స	-10.788
ాదిమ్హి	-10.7887
ావచర	-10.7887
పురే	-10.7889
▁అలోభ	-10.789
▁పఠమేన	-10.789
▁సన్ధ	-10.7898
▁భాజన	-10.79
ామసే	-10.7901
ేతున్తి	-10.7905
▁పసన్నా	-10.7906
▁పరిభుఞ్జతి	-10.7906
▁భాసిత	-10.7908
▁ఘరావాస	-10.7909
యథాపి	-10.791
▁పరా	-10.7911
వియ	-10.7913
▁దేవమనుస్సేసు	-10.7913
ఉద్ధచ్చకుక్కుచ్చ	-10.7917
▁ఆచరియా	-10.7922
▁పాటికఙ్ఖా	-10.7922
▁పనాహం	-10.7924
▁అతిక్కన్త	-10.7927
▁గోప	-10.7927
▁ఛట్ఠీ	-10.7929
▁పరిబ్బాజక	-10.7929
▁సముచ్ఛేద	-10.7929
▁చల	-10.793
విరోధ	-10.7933
▁సజ్జ	-10.7933
▁లోణ	-10.7933
▁పాపకమ్మ	-10.7934
▁కాయవిఞ్ఞాణస్స	-10.7937
▁విహరతీ	-10.7938
న్తేసు	-10.7939
▁యఞ్హి	-10.7941
▁పచ్చస్సోసుం	-10.7944
▁సఙ్ఘమజ్ఝే	-10.7946
▁ఇన్ద్రియేసు	-10.7946
▁యత్ర	-10.7946
ాకారో	-10.7949
వ్హయ	-10.795
▁గచ్ఛతీ	-10.7956
▁కథినం	-10.7958
▁రూపావచరానం	-10.7958
మజ్జ	-10.7959
▁ధమ్మస్సవన	-10.796
▁చితో	-10.7961
రోచ	-10.7961
▁అభిధమ్మే	-10.7963
▁పరియాయో	-10.7967
▁అవిసేసేన	-10.797
▁మహానుభావ	-10.797
▁కరణే	-10.7972
సుత	-10.7973
▁ఘోర	-10.7975
పటిపదం	-10.7977
రుచి	-10.7978
▁అహి	-10.7978
▁ధురం	-10.7979
▁పునబ్భవో	-10.7979
జాతికా	-10.798
▁పచ్ఛాభత్తం	-10.798
కుమారో	-10.798
▁పూజా	-10.7981
▁ఆనన్దం	-10.7986
▁అభవిస్స	-10.799
▁ఇస్స	-10.7991
▁సఙ్ఖారో	-10.7994
▁ఝానా	-10.7994
▁కామానం	-10.7997
▁మహబ్బలో	-10.7997
▁విరుద్ధ	-10.7997
▁అస్సాదో	-10.7998
▁జాగర	-10.8001
▁ఆపుచ్ఛ	-10.8001
▁ఆవాసో	-10.8001
▁నాయం	-10.8003
▁నిగ్గణ్హ	-10.8004
▁అఘ	-10.8005
ానుబన్ధ	-10.8011
▁రజో	-10.8013
ప్పయోగ	-10.8013
▁వస్ససత	-10.8014
▁విసయే	-10.8015
▁బ్రాహ్మణానం	-10.8016
ధాతూతి	-10.8017
కత్వా	-10.8022
▁చతువీసతి	-10.8022
▁మాతాపితూనం	-10.8023
▁దుర	-10.8023
▁అనుప్పాద	-10.8028
మక్ఖిత	-10.803
విసేసం	-10.8033
▁సంసారే	-10.8034
▁ధారయ	-10.8037
▁సమఞ్ఞా	-10.8038
రహిత	-10.8039
అపి	-10.8039
దేసే	-10.8043
కుసలత్తికం	-10.8044
▁పటిజాన	-10.8046
▁అరూపావచర	-10.8046
▁విభఙ్గ	-10.8057
▁విచార	-10.8058
▁అఞ్ఞిన్ద్రియం	-10.8059
సణ్ఠానం	-10.806
▁ఓతార	-10.806
▁నియతో	-10.8062
ట్ఠేనాతి	-10.8063
▁పగ్గణ్హ	-10.8065
▁లాభో	-10.8069
మన్తో	-10.807
▁సుప	-10.8071
సత్థా	-10.8071
మతో	-10.8073
▁పభాసతీ	-10.8073
▁వుచ్చమానో	-10.8074
▁నిసజ్జ	-10.8074
డ	-10.8077
విజ్జ	-10.808
ాయుక	-10.8084
తీహి	-10.8084
▁ఆహచ్చ	-10.8084
▁సమ్పత్తిం	-10.8086
సుభ	-10.8091
▁యేవ	-10.8092
▁యవ	-10.8093
▁నియామ	-10.8102
▁బహుతరా	-10.8103
▁పరియాదాయ	-10.8103
▁మతి	-10.8104
▁సంసన్దన్తి	-10.8105
▁మూలే	-10.8109
జీవిత	-10.8111
▁మనిన్ద్రియఞ్చ	-10.8112
▁భాతా	-10.8112
▁సేఖ	-10.8112
ఏతే	-10.8114
▁ఖణం	-10.8119
నిన్న	-10.812
▁అహఞ్చ	-10.812
మాది	-10.8122
▁అన్తం	-10.8123
▁పరామస	-10.8124
▁సన్తుట్ఠో	-10.8126
▁పరికమ్మం	-10.8132
▁మహీ	-10.8133
ఘోస	-10.8135
▁అమిత్త	-10.8135
ూపపత్తి	-10.8136
▁వేధ	-10.8139
▁నపురేజాతపచ్చయా	-10.8142
▁ఏకజ్ఝం	-10.8142
లాభీ	-10.8143
▁బహుధా	-10.8146
▁కప్పతి	-10.8148
పరిసుద్ధ	-10.8148
అత్తనో	-10.8149
▁అనుప్పన్నా	-10.8152
▁ధోవిత్వా	-10.8153
అఞ్ఞాతావిన్ద్రియ	-10.8153
▁సీఘ	-10.8158
▁పరిపూరేతి	-10.8158
▁పరిసం	-10.8158
▁రూపఞ్చ	-10.8159
ితాతి	-10.8159
న్తోతి	-10.8163
▁ఛన్దరాగో	-10.8163
▁ఆరోహ	-10.8165
మాతా	-10.8168
నానా	-10.8169
▁అధివచన	-10.8171
▁విసుద్ధి	-10.8173
▁కమ్మపథ	-10.8176
జల	-10.8176
ేయ్యాథ	-10.8176
పలిబోధ	-10.8181
పూజాయ	-10.8183
▁ఓలమ్బ	-10.8185
ఖణ	-10.8186
▁ధమ	-10.8189
విముత్తి	-10.819
▁ఞాణాని	-10.8191
పాఠ	-10.8192
▁౧౫౬	-10.8195
▁మహగ్ఘ	-10.8197
▁వగ్గో	-10.8198
దేవో	-10.8199
▁ఆకాసానఞ్చాయతనం	-10.82
ావరణ	-10.82
▁అవితథ	-10.8201
అతీత	-10.8203
▁లీన	-10.8209
ేథా	-10.8216
మద్ద	-10.8217
సేవ	-10.8219
కులా	-10.822
▁నాపరం	-10.8223
▁ఇత్థత్తాయా	-10.8225
▁అజానన్తో	-10.8226
సాటక	-10.8227
▁విద	-10.8228
త్తభావ	-10.8229
▁ఉట్ఠహ	-10.8229
▁సిక్ఖితబ్బ	-10.8229
▁ఇచ్ఛన్తి	-10.8232
▁విన్ద	-10.8234
▁లుద్ద	-10.8235
▁అనను	-10.824
▁సేక్ఖా	-10.8244
▁ఉత్తానత్థమేవాతి	-10.8246
▁విజ్జతీ	-10.8247
▁విరాగా	-10.8247
▁పాతుభవన్తి	-10.8247
వసా	-10.8249
మట్ఠ	-10.8253
▁రుక్ఖా	-10.8254
▁థేరానం	-10.8254
▁వాయమ	-10.8258
ాదిఅ	-10.8259
▁యాచన	-10.8259
నియామ	-10.8259
▁అబ్భుతం	-10.826
▁పరిహాయన్తి	-10.8261
▁యథ	-10.8261
ిస్సన్తీ	-10.8262
▁యోజేతబ్బో	-10.8263
▁పణ	-10.8264
దహ	-10.8264
▁పయోజనం	-10.8265
▁విముచ్చతి	-10.8266
▁పటిగ్గహిత	-10.8267
రోప	-10.8267
▁అచక్ఖుకాన	-10.8269
▁గణ్హథా	-10.8271
▁కరణీయో	-10.8271
వాది	-10.8272
▁భిక్ఖ	-10.8277
▁విసాఖ	-10.8278
▁రమణీయ	-10.828
▁కిలేసో	-10.828
ాభావా	-10.828
▁అపేక్ఖ	-10.8281
మఞ్చ	-10.8283
▁కప్పేతి	-10.8284
▁పాతు	-10.8284
▁౧౪౧	-10.8285
▁వితక్కవిచారానం	-10.8287
▁కఙ్ఖ	-10.8287
్వా	-10.8289
ానిసంస	-10.829
ాదయోపి	-10.829
▁పావ	-10.8291
▁నిక్ఖన్తో	-10.8292
▁అరహతి	-10.8292
▁విస్సజ్జన	-10.8296
▁సఙ్ఖారపచ్చయా	-10.8298
ఉపోసథ	-10.8301
జే	-10.8301
▁ఘానిన్ద్రియఞ్చ	-10.8303
▁వేళువనే	-10.8303
పేయ్యాల	-10.8303
▁నిద్దోస	-10.8305
ప్పత్తం	-10.8307
▁౧౫౦	-10.8309
▁అనన్తరం	-10.8311
ాబాధ	-10.8311
▁ఫాల	-10.8313
▁రాజగహం	-10.8322
ేభి	-10.8322
▁కరోహీ	-10.8324
▁థేరే	-10.8325
▁ఉజుం	-10.8325
▁పయోజన	-10.8331
▁నేత్వా	-10.8335
▁అరూపానం	-10.8337
▁౧౪౮	-10.8337
▁ఠితియా	-10.834
▁వుత్తేపి	-10.834
▁సంసరన్తో	-10.8342
▁పహీనం	-10.8343
▁అజాతసత్తు	-10.8343
▁సామీ	-10.8346
సంకిలేస	-10.8347
పదత్థ	-10.8348
సుత్తన్త	-10.8349
భాగియ	-10.8349
▁నిక్ఖిత్త	-10.835
▁పకిణ్ణక	-10.835
▁వూపసమా	-10.8353
▁దుచ్చరిత	-10.8354
▁ఉప్పజ్జమానా	-10.8355
ప్పమాణో	-10.8355
▁ఆరభి	-10.8358
▁చిత్తుప్పాద	-10.8359
పాదిన్నుపాదానియ	-10.836
▁అసఙ్ఖతా	-10.8364
అసుక	-10.8366
గవ	-10.8366
▁ఆకాసో	-10.8369
దక్ఖిణ	-10.8371
తిఆదీహి	-10.8371
▁సంవిజ్జమానా	-10.8374
నఖ	-10.8377
▁అసఙ్ఖ్యేయ్య	-10.8378
పోరిస	-10.8384
యస్మా	-10.8384
▁అమచ్చా	-10.8387
▁పుగ్గలిక	-10.8388
▁పేసేత్వా	-10.839
▁జానతో	-10.8391
▁భవిస్ససి	-10.8392
నికాయ	-10.8392
మహం	-10.8393
రట్ఠే	-10.8398
▁యావదేవ	-10.8399
తిస్సో	-10.8401
▁మనుఞ్ఞ	-10.8402
▁భవిస్సామి	-10.8402
▁ధమ్మాయతనఞ్చ	-10.8402
▁డంస	-10.8405
▁రజన	-10.8406
▁దీఘం	-10.8407
సామ	-10.8407
▁కోసజ్జ	-10.8408
▁ఏకవీస	-10.8409
సత్తో	-10.8413
▁సంసగ్గ	-10.8413
▁కిలేసేహి	-10.8416
▁అధిమత్త	-10.8418
తబ్బం	-10.8418
ియన్తి	-10.842
సముదయా	-10.842
నిబ్బత్త	-10.8422
▁అత్ర	-10.8422
ళా	-10.8423
వఙ్క	-10.8424
▁ఉపరూపరి	-10.8425
▁నప్పజానాతి	-10.8425
▁ఆఘాత	-10.8427
▁విభత్తా	-10.8428
▁పరిభుఞ్జితుం	-10.8428
▁కుప్ప	-10.8429
▁ధీర	-10.8431
▁చతువోకార	-10.8434
▁పాసాదిక	-10.8435
▁సనిదస్సన	-10.8435
▁ఏవమ	-10.8439
▁రసం	-10.844
వివేక	-10.8443
▁అవిగత	-10.8443
▁అతీతారమ్మణ	-10.8444
▁లక్ఖణాని	-10.8445
▁మోర	-10.8446
▁అద్దసా	-10.8448
ాసనే	-10.8451
▁సమతిక్కమ	-10.8453
ధో	-10.8454
▁యస్సా	-10.8455
▁నఅహేతుక	-10.8457
▁తజ్జ	-10.8461
▁నోచిత్త	-10.8463
▁సఙ్గహిత	-10.8463
సమ్పదం	-10.8464
తద	-10.8464
▁కప్పియం	-10.8466
▁పక్కోసాపేత్వా	-10.8467
▁సమాసో	-10.8469
▁ఏకత్థ	-10.847
▁ఉత్తరా	-10.8471
▁నిపత	-10.8472
▁పురిమబుద్ధ	-10.8472
సిత	-10.8473
▁ఉపట్ఠాక	-10.8474
▁౧౪౨	-10.8475
త్తు	-10.8477
▁లోహితక	-10.8478
▁ఆరకా	-10.8479
▁భిక్ఖూసు	-10.8483
▁బన్ధనం	-10.8487
▁మునిన్ద	-10.849
▁సుద్ధిం	-10.8496
నిచ్చ	-10.8496
▁ఉసభ	-10.8498
▁పరిసుద్ధం	-10.8499
▁పదీప	-10.8499
కాది	-10.8502
▁సమగ్గా	-10.8504
ితాయ	-10.8505
▁విభత్త	-10.8505
చిత్తేసు	-10.8506
▁పరిహర	-10.8506
▁సమ్మప్పఞ్ఞాయ	-10.8507
▁ఓర	-10.8508
▁అధిగతో	-10.8508
హేతూ	-10.8509
మాయ	-10.8509
▁దన్ధ	-10.8509
▁బుద్ధపూజాయి	-10.8509
▁రూపాది	-10.851
పాచిత్తియ	-10.8511
▁విస్సజ్జేత్వా	-10.8514
▁పటిలోమ	-10.8516
సన్థత	-10.8517
▁ఉపసమ్పన్నో	-10.8517
▁దిన్నో	-10.8518
▁తార	-10.8518
▁ఏకంస	-10.8521
▁పచ్చన్త	-10.8523
పీఠ	-10.8524
▁ఛవి	-10.8524
విరాగ	-10.8524
ావయవ	-10.8524
▁పవేస	-10.8525
▁సఙ్కప్ప	-10.8526
▁వేవచన	-10.8527
సన్న	-10.8528
▁విభావ	-10.8529
▁విన్దతి	-10.8529
▁మహామోగ్గల్లాన	-10.8529
త్థమ్భ	-10.8531
విహారం	-10.8532
▁రిత్త	-10.8535
▁కక్ఖళ	-10.8535
▁విహారస్స	-10.8536
▁దసబల	-10.8537
లోకుత్తర	-10.854
ప్పచ్చయ	-10.8541
కప్పో	-10.8542
దే	-10.8545
▁అకుసలమూల	-10.8546
▁౧౪౪	-10.8548
▁సమ్పజానకారీ	-10.8549
▁దిసాసు	-10.855
సంకిలేసికో	-10.855
బన్ధనం	-10.855
▁ఉప్పజ్జిస్సన్తి	-10.8551
▁వీథి	-10.8553
▁హేమ	-10.8555
▁వదమానో	-10.8555
▁సేనాపతి	-10.8556
▁కారేతి	-10.8557
▁విపస్స	-10.8557
క్ఖిత్త	-10.8558
▁౧౪౭	-10.8558
▁అసేఖ	-10.8563
▁ధమ్మదేసనాయ	-10.8564
▁చతుక్కం	-10.8568
▁తేజ	-10.8569
నామేన	-10.8569
కాతబ్బ	-10.8571
దుక్కట	-10.8575
▁వేరం	-10.8576
▁రూపీ	-10.8578
ిమ	-10.8579
తిఆదికా	-10.8579
త్థాయాతి	-10.8582
▁నాన	-10.8582
▁పహాతబ్బస్స	-10.8583
▁పాదా	-10.8584
▁నిబ్బానే	-10.8585
రక్ఖిత	-10.8589
▁నదిం	-10.8589
▁తిరో	-10.8589
▁అవహర	-10.859
▁మాతలి	-10.8591
▁యోగినా	-10.8591
▁౧౪౩	-10.8591
▁పటివిజ్ఝ	-10.8593
▁అగమ	-10.8593
▁చతురాసీతి	-10.8594
▁ఇచ్చేవ	-10.8595
▁తేసఞ్చ	-10.8595
▁అవస్సం	-10.8597
మానేన	-10.8599
▁మనోమయ	-10.86
▁పుమే	-10.8601
సన్తుట్ఠ	-10.8603
▁సఙ్గీతి	-10.8603
చిణ్ణ	-10.8604
▁ఉపాసకా	-10.8605
▁పఞ్చమీ	-10.8605
ాయతనం	-10.8607
▁సుఖసహగత	-10.8608
▁సుకత	-10.8609
▁ఇమాహి	-10.861
ిద్ధి	-10.861
▁ఉద్ధట	-10.8612
మ్బు	-10.8612
▁వేనేయ్య	-10.8613
▁దససు	-10.8613
▁ఛేదన	-10.8617
సచ్ఛికిరియాయ	-10.8617
పురిసిన్ద్రియఞ్చ	-10.8617
▁తేలం	-10.8617
▁దూత	-10.8619
▁మఞ్చపీఠ	-10.862
పుబ్బా	-10.862
▁దమ్మీ	-10.8621
▁పేత్తివిసయ	-10.8621
▁అహోసీ	-10.8622
▁సువ	-10.8623
▁ధార	-10.8624
▁బహుస్సుత	-10.8624
▁దీపే	-10.8625
స్సామీతిన్ద్రియం	-10.8626
▁వుట్ఠితో	-10.8628
▁పరిహాని	-10.8628
▁తథాగతే	-10.8628
▁ఖల	-10.8631
విసయో	-10.8631
పారాజిక	-10.8631
నియ	-10.8633
సోమనస్స	-10.8636
బుద్ధి	-10.8638
సముట్ఠానా	-10.864
లే	-10.8641
▁నావం	-10.8643
▁సబ్బకాలం	-10.8645
అపరేహిపి	-10.8646
ూపగ	-10.8647
రుద్ధ	-10.8649
▁కాతు	-10.865
ఞ్ఞాత	-10.8652
▁అవేచ్చప్పసాదేన	-10.8652
▁పంసుకూల	-10.8652
సమీపే	-10.8654
కప్పే	-10.8654
▁అదిన్నాదాన	-10.8656
▁అభిజాన	-10.8657
▁అగ్గం	-10.8657
▁పకతత్త	-10.8659
▁అవిజ్జాపచ్చయా	-10.8661
▁సతతం	-10.8667
▁ఓక్కమ	-10.8667
▁భిజ్జ	-10.8668
సుద్ధ	-10.8674
పరిసాయ	-10.8675
▁ఆమసతి	-10.8676
పరిగ్గహ	-10.8678
▁పటిక్ఖిపిత్వా	-10.8681
▁నిరన్తరం	-10.8682
▁భవతీతి	-10.8683
కమ్మట్ఠానం	-10.8684
▁సుఞ్ఞ	-10.8684
బ్రాహ్మణో	-10.8688
▁భిన్దతి	-10.869
▁తాదిసే	-10.8691
దూస	-10.8693
ేస్సన్తి	-10.8694
▁వేర	-10.8698
▁అఞ్ఞతరేన	-10.8702
▁కరణీయ	-10.8704
ాదీనఞ్చ	-10.8704
న్తేహి	-10.8705
▁జహిత్వా	-10.871
▁అన్న	-10.8712
▁ఇధాతి	-10.8713
సమాస	-10.8714
▁కతాధికారో	-10.8715
ేకదేస	-10.8715
▁అకాల	-10.8715
ుక్క	-10.8717
▁భియ్యోభావాయ	-10.8717
ుప్పత్తియా	-10.8718
▁జానాసి	-10.8719
మనోవిఞ్ఞాణధాతు	-10.872
▁జాయతే	-10.8721
▁సహస్సాని	-10.8721
▁కటత్తారూపానం	-10.8724
సహస్సం	-10.8725
ఞ్జన	-10.8726
సుఖుమ	-10.8728
▁ఉపధి	-10.8729
▁పదుమం	-10.8734
▁౧౪౬	-10.8736
వినిముత్త	-10.8737
▁పథవియా	-10.874
▁వివరిత్వా	-10.874
▁వివిత్త	-10.8743
▁సన్నిసిన్నా	-10.8743
▁విజ్జ	-10.8743
▁భవితుం	-10.8748
▁పరియేసతి	-10.8749
వాక్య	-10.875
▁భుత్వా	-10.875
▁అరియమగ్గో	-10.8751
▁అకార	-10.8756
▁అవసిట్ఠ	-10.876
▁సమనుపస్సామి	-10.8761
నీయో	-10.8762
సఙ్ఖాతాయ	-10.8762
▁సిక్ఖాయ	-10.8763
▁దహరో	-10.8763
ిత్థాతి	-10.8764
▁సుఞ్ఞం	-10.8765
▁ధారయామీ	-10.8766
▁ఉబ్బ	-10.8766
▁కరోతీ	-10.8767
ానుపస్సీ	-10.8769
సహాయ	-10.8769
ధాన	-10.877
▁జివ్హాయ	-10.877
▁అసుర	-10.8773
▁భస్స	-10.8774
▁లోల	-10.8775
▁ఉపయోగవచనం	-10.8778
కిత్తన	-10.8783
▁గన్థా	-10.8783
▁ధారణ	-10.8786
▁సాధ	-10.8787
▁యేనాయస్మ	-10.8788
▁రవ	-10.8789
▁పతిట్ఠహి	-10.8791
▁సహత్థా	-10.8791
▁ఆజీవ	-10.8792
▁ఆపజ్జతీతి	-10.8795
▁అధిమోక్ఖ	-10.8796
▁సీలాని	-10.8798
▁నావాయ	-10.8799
▁మేతం	-10.8799
ఞ్ఞు	-10.8801
▁నాసక్ఖి	-10.8802
▁సారణీయం	-10.8803
▁మగ్గపచ్చయ	-10.8803
▁లక్ఖ	-10.8807
పధాన	-10.8808
పుఞ్జ	-10.8809
▁విపస్సతి	-10.8811
రుళ్హ	-10.8811
వుట్ఠాన	-10.8814
▁థోమ	-10.8815
అవ	-10.8817
ియాతి	-10.8818
▁అదోసో	-10.8819
వ్హో	-10.8819
▁అద్ధానం	-10.882
▁గావ	-10.882
▁తుట్ఠ	-10.882
▁రాజపుత్త	-10.8822
▁మగ్గఞాణ	-10.8822
▁హిదం	-10.8822
▁అసం	-10.8823
▁సమాపత్తియో	-10.8826
▁అలఙ్కత	-10.8828
▁సహేతుకం	-10.8828
టీకా	-10.883
▁ట	-10.8832
▁పక్ఖన్ద	-10.8834
▁తిహేతుక	-10.8834
▁ఆకాసేన	-10.8836
ానంయేవ	-10.8836
తాదిసో	-10.8842
▁యోజేతబ్బా	-10.8842
▁సమ్మోదనీయం	-10.8844
▁నకమ్మపచ్చయా	-10.8845
సఙ్ఖ్య	-10.8847
రహితం	-10.885
తార	-10.885
▁చక్ఖుసమ్ఫస్స	-10.8853
▁పరివత్తేత్వా	-10.8855
▁సుత్తస్స	-10.8857
▁సక్కచ్చ	-10.8859
▁పుథూ	-10.8859
సీమాయ	-10.886
▁ఆదిసద్దేన	-10.886
▁ఞాతీ	-10.8862
రజ్జు	-10.8864
▁నయన	-10.8864
▁అవణ్ణ	-10.8866
▁వచ	-10.8869
▁తీర	-10.887
▁బ్రహ్మవిహార	-10.8872
గ్గో	-10.8873
▁విరూప	-10.8874
▁అరహన్తానం	-10.8874
▁సుప్పతిట్ఠిత	-10.888
▁నిహీన	-10.8883
▁తదుభయం	-10.8885
▁రాజకుమార	-10.8886
▁తత్రాపి	-10.8886
▁సహజాతో	-10.8888
▁సాదియతి	-10.8889
కోటియో	-10.8889
▁గిలానస్స	-10.889
గన్తబ్బ	-10.8892
▁౧౪౯	-10.8893
▁సాసవ	-10.8894
▁౧౬౦	-10.8894
మన్ద	-10.8895
▁రతో	-10.8896
▁పారమియో	-10.8896
▁సంస	-10.8897
▁దియ	-10.8898
▁రథం	-10.8902
▁నిధ	-10.8906
▁చక్కం	-10.8909
▁పారి	-10.891
▁తఞ్చే	-10.8912
▁థినమిద్ధ	-10.8914
సన్	-10.8914
▁ఛారత్తం	-10.8915
ట్ఠక	-10.8915
రుణ	-10.8916
పచ్చుపట్ఠానా	-10.8917
▁యుజ్జ	-10.8918
▁సోభన	-10.8922
పరిహార	-10.8922
▁మహప్ఫలం	-10.8924
▁అనుప్పన్నస్స	-10.8924
▁ముట్ఠి	-10.8926
▁సచక్ఖుకాన	-10.8926
▁మనుస్సో	-10.8927
▁ఉపట్ఠిత	-10.8929
▁ఏదిస	-10.893
▁బీజం	-10.8932
▁వేమతికా	-10.8937
▁ఆసుం	-10.8938
▁పటిసంవేదేతి	-10.8938
▁దుతియేన	-10.8939
▁స్వాయం	-10.8939
నామం	-10.894
▁ఏకచ్చస్స	-10.8941
పిటక	-10.8943
▁కరే	-10.8945
▁కుక్కుచ్చ	-10.8946
▁దోసా	-10.8947
సాలా	-10.895
సమ్ఫస్స	-10.8952
▁ఉపసఙ్కమి	-10.8952
▁విపస్సీ	-10.8955
▁భారో	-10.8955
▁లా	-10.8955
▁బ్రహ్మలోక	-10.8956
▁ఓక్కన్త	-10.8958
లోహ	-10.8958
▁జనస్స	-10.896
లోభ	-10.8961
▁ఓకాసే	-10.8962
▁మునీ	-10.8962
▁సమ్మసన	-10.8967
మాసే	-10.8968
▁సీలవన్త	-10.8969
▁విచికిచ్ఛాసహగతే	-10.8969
సప్పాయ	-10.8971
▁తిట్ఠేయ్య	-10.8972
ఏత్తక	-10.8972
▁కేవలఞ్చ	-10.8973
సఞ్ఞావేదయితనిరోధ	-10.8974
▁పిట్ఠ	-10.8974
▁ఖగ్గ	-10.8974
▁ఉపసమ్పన్న	-10.8975
౧౩	-10.8976
▁పోసో	-10.8976
▁పవారణాయ	-10.8977
▁సహేతుకా	-10.8977
▁నఅకుసల	-10.8981
▁పరలోక	-10.8982
▁అనియతో	-10.8985
వివట్ట	-10.8986
▁భబ్బో	-10.8987
ిన్ద్రియా	-10.899
▁సత్తమీ	-10.8993
▁అనుత్తర	-10.8995
వచనే	-10.8996
ేసిం	-10.8996
▁పఞ్చధా	-10.8998
జప్ప	-10.8999
▁సన్థత	-10.8999
▁విదూ	-10.9001
జి	-10.9004
ాయా	-10.9004
▁రతనత్తయ	-10.9004
▁ఉత్తరిం	-10.9005
▁సమనన్తరపచ్చయ	-10.9005
ిస్సర	-10.9006
▁పిటక	-10.9007
▁అజ్ఝత్తిక	-10.9007
పరిళాహ	-10.9013
ియమానం	-10.9014
నిర	-10.9014
సత్తి	-10.9016
▁మానానుసయం	-10.9017
▁లోకనాయకం	-10.9017
▁కాలమకాసి	-10.902
▁౧౪౫	-10.9021
బుజ్ఝ	-10.9021
▁సల్లేఖ	-10.9021
విరహిత	-10.9026
యక్ఖ	-10.9026
▁సిద్ధం	-10.9027
▁గరుకం	-10.9031
సిరి	-10.9031
▁ఉట్ఠహిత్వా	-10.9031
కాయం	-10.9032
పుప్ఫం	-10.9033
పరిస	-10.9034
▁జీవం	-10.9034
▁పుల్లిఙ్గ	-10.9035
▁ఉపసమ్పద	-10.9039
ుత్తమ	-10.9039
▁మత్తికా	-10.9041
▁ఆద	-10.9042
▁పునదివసే	-10.9042
▁జాతక	-10.9044
▁భుసం	-10.9045
▁పవత్తమాన	-10.9045
▁మిత్తో	-10.9046
▁ఉపేక్ఖాసహగతం	-10.9046
▁తమ్బ	-10.9047
▁ఉపజ్ఝాయో	-10.9047
స్మిఞ్చ	-10.9053
▁జీవతి	-10.9055
లేప	-10.9055
▁దుగ్గన్ధ	-10.9061
▁పటిక్కూల	-10.9061
▁నుప్పజ్జతీతి	-10.9063
సమాపత్తియా	-10.9064
▁గఙ్గాయ	-10.9064
▁చతుధా	-10.9065
హదయ	-10.9066
దిసో	-10.9068
సస్స	-10.9069
థూప	-10.9069
▁భాజ	-10.907
నిసిన్న	-10.9071
సమోధాన	-10.9073
▁దిట్ఠిగతం	-10.9078
వాసో	-10.9078
ఫరణ	-10.9081
▁సేక్ఖో	-10.9082
నివారణ	-10.9083
▁పగుణ	-10.9085
పరియోసానే	-10.9085
▁సఙ్ఖారక్ఖన్ధ	-10.9086
▁అప్పణిహిత	-10.9087
సమ్ప	-10.9088
▁పఞ్ఞం	-10.9089
దీహి	-10.9089
లిక	-10.909
▁అఞ్ఞమ్పి	-10.909
▁పరత్థ	-10.9094
▁గజ	-10.91
▁సభావో	-10.9101
▁విఞ్ఞాణఞ్చాయతనం	-10.9106
చిత్తే	-10.9107
▁ఖీరం	-10.9109
▁భావయ	-10.911
▁అప్పహాయ	-10.9114
గ్గే	-10.9115
▁రజత	-10.9117
ికస్స	-10.9121
▁౧౫౭	-10.9121
▁మహాసముద్దే	-10.9121
▁అయ్య	-10.9123
▁చేతోవిముత్తి	-10.9127
▁ఏకోవ	-10.9127
▁పరిఞ్ఞ	-10.9127
▁చోదనా	-10.9129
▁నిబ్బిదా	-10.9129
▁రుక్ఖస్స	-10.9131
ాధిప్పాయో	-10.9131
▁అసప్పురిస	-10.9133
▁విస్సాస	-10.9134
▁సుపిన	-10.9135
▁పరియన్త	-10.9136
▁దుక్ఖో	-10.9137
▁౧౫౩	-10.9139
▁పరియాపుణ	-10.914
ూపగా	-10.914
▁నిప్ఫన్న	-10.9141
▁అత్థేన	-10.9143
▁సన్థవ	-10.9144
▁సుత్తేన	-10.9145
▁కమేన	-10.9146
నామకో	-10.9147
▁సరతి	-10.9147
▁అరహత్తమగ్గేన	-10.9147
▁విభఙ్గే	-10.9147
▁సోతాపన్న	-10.9149
▁పుబ్బణ్హసమయం	-10.9149
▁మక్కట	-10.9151
▁కరుణాయ	-10.9152
▁సమాగమో	-10.9153
▁సీమం	-10.9153
▁దేథ	-10.9155
సమ్పదాయ	-10.9156
▁బహుల	-10.9156
▁యావకాలిక	-10.9156
ుద్ధ	-10.9157
చ్ఛేదన	-10.9166
▁సుపణ్ణ	-10.9166
▁పవత్తిత	-10.9167
▁పతతి	-10.9173
దేసనాయ	-10.9174
▁అభివాద	-10.9174
▁ఉప్పజ్జమాన	-10.9178
లతా	-10.9181
▁సఙ్ఖారేసు	-10.9181
▁పల	-10.9184
▁గచ్ఛతో	-10.9187
వాపి	-10.9188
▁భుజ	-10.9188
▁కరోన్తీతి	-10.9191
▁సమాదియ	-10.9192
▁ధమ్మాభిసమయో	-10.9193
▁అగమంసు	-10.9193
▁దుస్సీలో	-10.9194
గల	-10.9196
వేగ	-10.9198
వినయో	-10.9201
▁కలహ	-10.9203
▁౧౫౯	-10.9204
పటిపాటియా	-10.9205
▁ఆరద్ధ	-10.9206
▁పరిసుద్ధా	-10.9206
▁సాసవా	-10.9207
గన్ధో	-10.9209
▁వివాదో	-10.921
▁ఆణత్తి	-10.9211
▁సేద	-10.9213
సమత్థ	-10.9213
▁మహానుభావో	-10.9214
▁పరిపుణ్ణం	-10.9215
సంయోజనం	-10.9217
గణో	-10.9221
▁కేనట్ఠేన	-10.9224
▁విఞ్ఞాణపచ్చయా	-10.9225
▁సత్థం	-10.9226
ితోతి	-10.9226
▁౧౫౫	-10.9228
టో	-10.9229
తత్తా	-10.9231
▁సన్తేపి	-10.9232
▁నిప్	-10.9232
సతేహి	-10.9233
భాగో	-10.9234
ుపచ్ఛేద	-10.9234
ానుగత	-10.9236
ుల	-10.9237
▁తదుప	-10.9238
సుర	-10.9241
▁వినస్సతి	-10.9241
▁సూ	-10.9241
మహత్త	-10.9242
▁చక్ఖుధాతు	-10.9245
▁౧౫౪	-10.9245
▁సమ్పయుత్తపచ్చయ	-10.9246
▁ఉప్పజ్జమానం	-10.9247
▁నేక	-10.9247
▁బహుస్సుతా	-10.9248
భీ	-10.9251
ప్పకాసన	-10.9252
▁ఏవరూపే	-10.9253
▁విఞ్ఞాయ	-10.9253
▁అట్ట	-10.9257
భణ్డం	-10.926
▁పస్సతీ	-10.9261
మోక్ఖ	-10.9262
▁గచ్ఛామ	-10.9262
▁చవిత్వా	-10.9264
కటాహ	-10.9264
▁కచ్చాన	-10.9265
సోతం	-10.9267
▁పారిసుద్ధి	-10.9269
పాతుభావ	-10.9269
▁వజిర	-10.927
కచ్చి	-10.9271
▁అరియస్స	-10.9272
▁కన్తా	-10.9273
▁తాదీ	-10.9275
▁ఆరద్ధవీరియో	-10.9281
▁యథాభతం	-10.9282
▁ఆదికమ్మికస్సాతి	-10.9283
▁పూజయ	-10.9283
▁పటినిస్సజ్జ	-10.9289
▁పాకతిక	-10.929
▁నప్ప	-10.9292
▁నవవిధ	-10.9292
సద్దే	-10.9293
కోటియా	-10.9294
నయన	-10.9295
▁కురు	-10.9295
యతే	-10.9296
రస్స	-10.9298
▁పరినిబ్బుతే	-10.9298
భుత్త	-10.9299
సన్తాప	-10.93
▁నవుతి	-10.9301
▁అమర	-10.9303
▁అమ్మ	-10.9304
▁జాయ	-10.9306
▁బ్యాకర	-10.9309
విర	-10.931
జనపద	-10.931
▁౧౫౧	-10.9311
▁నిట్ఠా	-10.9313
▁యేపి	-10.9314
▁ఉపగతో	-10.9314
▁ఇద్ధిపాద	-10.9315
▁పరియోసానం	-10.9315
గోచరో	-10.9315
విధానం	-10.9315
▁సమాపజ్జతి	-10.9316
▁అప్పమత్తక	-10.9317
▁కిస	-10.9318
▁కాళక	-10.9319
మయో	-10.9321
సభావత్తా	-10.9322
▁భఞ్జ	-10.9323
భేసజ్జపరిక్ఖార	-10.9329
▁తితిక్ఖ	-10.9331
తయో	-10.9331
▁అచేలక	-10.9332
▁ఆయస్మన్తో	-10.9333
గణన	-10.9334
▁సద్ధమ్మం	-10.9335
సమణో	-10.9336
గ్గహిత	-10.9337
▁సిద్ధ	-10.9339
▁పరినిబ్బాయ	-10.9339
విఞ్ఞేయ్య	-10.934
▁ఆపజ్జిత్వా	-10.9342
▁అప్పం	-10.9342
▁పరిమాణ	-10.9346
▁ఉమ్మత్తకస్స	-10.9346
యిత్థ	-10.9346
▁పరినిబ్బుత	-10.9346
▁వల్లి	-10.9346
చయ	-10.9349
▁సతిన్ద్రియం	-10.9353
ిన్ద్రియాని	-10.9356
▁వసనట్ఠానం	-10.9356
పదేహి	-10.9356
బహుల	-10.9357
వచనస్స	-10.9358
సన్తోసో	-10.9359
▁౧౬౫	-10.9361
ళక	-10.9361
నీయా	-10.9362
▁లు	-10.9363
▁సునఖ	-10.9365
▁౧౫౮	-10.9365
▁పరిజానన్తి	-10.9367
▁వితక్కవిచార	-10.9367
▁ముణ్డ	-10.9367
▁తదనన్తరం	-10.9368
▁అకా	-10.937
▁పవత్తియా	-10.9372
▁లీనత్థప్పకాసనా	-10.9372
సుఖాయ	-10.9372
▁ఆరమ్మణపచ్చయో	-10.9373
▁థావర	-10.9373
యన్తీతి	-10.9375
▁కులపుత్తో	-10.9375
త్థేరవత్థు	-10.9378
▁కోట్ఠాసే	-10.9378
సన్తానే	-10.938
▁సన్తాప	-10.9381
▁పేమ	-10.9381
▁వాసం	-10.9383
▁లోకోతి	-10.9383
▁పణ్డక	-10.9385
▁సామిస	-10.9385
వగ్గస్స	-10.9386
▁ఇత్థిం	-10.9386
థో	-10.9388
తబ్బా	-10.9389
▁అప్పవత్తి	-10.9391
చత్తాలీస	-10.9393
▁పఞ్చాల	-10.9393
▁దన్ధాభిఞ్ఞం	-10.9396
▁ఆగతే	-10.9396
▁భక్ఖ	-10.9398
ూర	-10.9401
▁ఠా	-10.9404
▁మఞ్ఞథ	-10.9405
▁దిట్ఠిగత	-10.9405
▁పటిపజ్జతి	-10.9408
▁అట్ఠమో	-10.9409
▁మాతుల	-10.9411
ప్పహార	-10.9411
▁వాదం	-10.9412
▁తుల్య	-10.9412
▁పురం	-10.9412
హత్థా	-10.9413
▁తేభూమక	-10.9415
▁విసోధ	-10.9416
▁లద్ధో	-10.9418
సమాచార	-10.9419
▁మహాభూతానం	-10.9419
▁లతా	-10.942
▁పచ్చయం	-10.942
ానుసయ	-10.9423
ీభూత	-10.9425
తస్మిం	-10.9425
ేకవచన	-10.9425
ినియా	-10.9426
▁అకుప్ప	-10.9427
▁ఞాతో	-10.9432
ఉపాదానవిప్పయుత్త	-10.9433
ానుపస్సనా	-10.9434
▁హిస్స	-10.9435
▁వేదితబ్బోతి	-10.9437
▁సచ్ఛికతా	-10.9439
▁అనవ	-10.9439
నాళి	-10.944
▁అసప్పాయ	-10.9441
▁నియ్యాన	-10.9441
పరియ	-10.9442
▁సరా	-10.9443
▁ఆదర	-10.9443
▁ఠితత్తా	-10.9445
▁సఙ్ఘాదిసేసా	-10.9446
ాధిట్ఠాన	-10.9447
▁పరిణామ	-10.945
▁ఆవట్టనా	-10.945
▁సిఙ్గాల	-10.9451
దద	-10.9452
ారహో	-10.9452
▁సఙ్ఖా	-10.9452
సాగర	-10.9454
▁భిక్ఖునీతి	-10.9454
మాగమ్మ	-10.9454
త్థేరఅపదానం	-10.9456
▁అధిగమాయ	-10.9458
▁అభావో	-10.9458
వత్థుక	-10.9459
▁యువ	-10.946
▁సుఞ్ఞో	-10.9462
▁ఞాణన్తి	-10.9462
వతో	-10.9462
▁దసబలస్స	-10.9464
▁బుద్ధప్పముఖ	-10.9464
▁సమాధిం	-10.9469
న్	-10.9471
▁ఞాణవిప్పయుత్త	-10.9473
▁నాయకో	-10.9473
తాల	-10.9473
▁భవన్త	-10.9474
ాపనం	-10.9475
పటిసంయుత్త	-10.9475
పట్ఠాన	-10.9479
▁పఞ్ఞత్త	-10.9479
▁ఉక్కంస	-10.9479
▁పూవ	-10.9479
▁కథేన్తి	-10.9482
▁పోరాణా	-10.9482
▁నట్ఠ	-10.9484
▁పటిలాభ	-10.9487
▁పరివుతో	-10.949
ముని	-10.9491
▁జనక	-10.9492
▁అవితక్క	-10.9492
సన్నిపాత	-10.9493
▁వినిపాత	-10.9495
▁బోధియా	-10.9495
ూపమ	-10.9501
▁సేసేసు	-10.9503
▁నగ్గ	-10.9504
▁నిక్ఖిత్తో	-10.9506
▁విమోక్ఖా	-10.9506
వాచకో	-10.9508
పరాధ	-10.9508
▁లోకియం	-10.9508
▁పాచీన	-10.9508
▁ఛబ్బగ్గియే	-10.9509
▁సమ్పజాన	-10.9509
▁సిక్ఖాపదే	-10.951
▁అన్తోగధ	-10.951
▁రూపావచరా	-10.9511
▁అనిదస్సనసప్పటిఘ	-10.9512
▁లహుక	-10.9513
▁సిక్ఖం	-10.9515
▁భగిని	-10.9519
▁మేథునధమ్మ	-10.9522
▁పారగూ	-10.9523
పిణ్డపాత	-10.9527
▁పవత్తేతి	-10.9527
▁ఉక్ఖిత్త	-10.953
ఆరమ్మణ	-10.9531
▁పీతిసుఖం	-10.9533
▁దిట్ఠియో	-10.9537
విహిత	-10.9538
▁ఖేమం	-10.9539
దస్సనవసేన	-10.954
▁అచిత్తక	-10.9541
పటిగ్గహణ	-10.9542
మాపజ్జ	-10.9543
▁భిక్ఖుసఙ్ఘేన	-10.9543
▁ఇదన్తి	-10.9544
▁వుట్ఠహ	-10.9545
▁అత్థవణ్ణనా	-10.9545
▁జఙ్ఘ	-10.9549
▁పుచ్ఛన్తి	-10.955
విధిం	-10.955
గుత్త	-10.955
▁అనుగ్గహ	-10.9551
ఏ	-10.9552
▁ణ్వు	-10.9554
▁నక్ఖమతి	-10.9556
▁దుక్ఖపటిపదం	-10.9557
▁సీద	-10.9558
మిమం	-10.9559
▁సుభావిత	-10.9559
▁మాణవక	-10.9561
దీపక	-10.9562
▁గల	-10.9562
▁సుధా	-10.9562
▁లభేథ	-10.9565
ముఖే	-10.9565
హంస	-10.9565
▁కాయవిఞ్ఞాణం	-10.9565
▁పరామాస	-10.9566
కదా	-10.9567
సఞ్ఛన్న	-10.9568
మేస	-10.9568
▁పాతిమోక్ఖుద్దేస	-10.957
విధా	-10.9572
▁పటికూల	-10.9573
▁నిబద్ధ	-10.9575
గణా	-10.9575
▁పఞ్చఙ్గిక	-10.9577
▁సత్తస్స	-10.9579
▁చోదితో	-10.958
▁విధుర	-10.958
▁దస్సిత	-10.9582
త్థోతి	-10.9583
▁వితక్కస్స	-10.9583
▁మానుస	-10.9583
గిరి	-10.9584
▁తిణ్ణ	-10.9585
▁అఙ్గార	-10.9586
▁లబ్భా	-10.9587
▁మేత్తచిత్త	-10.9588
▁సావత్థిం	-10.9589
▁పటిపజ్జితబ్బ	-10.959
▁అజ్ఝోహారే	-10.9593
మక్ఖ	-10.9599
▁అధికార	-10.9603
విభాగో	-10.9605
▁సన్నిపతిత్వా	-10.9605
▁పురత్థిమ	-10.9606
▁ఓళారికం	-10.9608
▁పటిక్ఖిప	-10.9608
▁పమజ్జ	-10.9608
▁దుఖ	-10.9609
▁౧౬౧	-10.9614
కారన్త	-10.9616
అనిచ్చ	-10.9617
జీవితిన్ద్రియఞ్చ	-10.9618
కతమఞ్చ	-10.9619
▁వధిత్వా	-10.962
▁నిగమ	-10.9621
▁ది	-10.9621
▁నియోజ	-10.9622
▁పరిచర	-10.9623
▁ఏకచ్చం	-10.9625
▁కామగుణా	-10.9625
భావోతి	-10.9627
▁గతోతి	-10.9634
▁అమ	-10.9635
▁ధుత	-10.9636
▁అనుఞ్ఞాతా	-10.9637
▁ఉద్ధచ్చసహగతే	-10.9644
సత్తానం	-10.9645
▁అనుచ్ఛవిక	-10.9645
చ్ఛిన్ద	-10.9646
▁ఇధాధిప్పేత	-10.9647
▁పామోజ్జం	-10.9648
▁ముదితా	-10.9649
▁పరిగ్గహిత	-10.9649
▁ఖిప్ప	-10.965
▁భావనాపారిపూరి	-10.9652
▁పవత్తన	-10.9655
▁అసఙ్ఖతం	-10.9655
▁జాతియో	-10.9655
▁౧౬౭	-10.9656
వాదం	-10.9656
ముట్ఠి	-10.9656
▁లభి	-10.9657
▁మిత్తా	-10.9659
▁నాథో	-10.9661
▁పిట్ఠితో	-10.9661
నియత	-10.9662
▁తోస	-10.9662
సంసట్ఠ	-10.9663
▁సమ్పాద	-10.9666
▁ఆరఞ్ఞిక	-10.9666
▁పరిబ్బాజకా	-10.9668
సంసగ్గ	-10.9668
▁ఉపేక్ఖ	-10.967
▁అదుక్ఖమసుఖా	-10.9672
▁మహాథేర	-10.9672
▁అనుస్సరతి	-10.9672
▁యుజ్ఝ	-10.9673
▁దుగ్గత	-10.9677
▁గచ్ఛన్తీతి	-10.9677
▁రుక్ఖే	-10.9677
▁ఖార	-10.9678
▁పఞ్హావారో	-10.9681
▁బ్రాహ్మణే	-10.9684
భూతాయ	-10.9684
▁సఙ్ఖేప	-10.9687
నయం	-10.9688
▁అనుప్పన్న	-10.9689
▁సత్తవిధ	-10.9689
▁పాతో	-10.9689
పుట	-10.9691
▁సరణో	-10.9693
▁ఇచ్చ	-10.9693
▁కేసఞ్చి	-10.9693
▁చరమానో	-10.9693
▁కాయగతాసతి	-10.9695
▁యోనం	-10.9695
▁పదభాజనే	-10.9696
▁విఞ్ఞుతం	-10.9696
▁పోక్ఖర	-10.9699
▁నికన్తి	-10.9699
▁పూజేసి	-10.9699
▁పరిఞ్ఞాత	-10.97
▁ఖీణాసవా	-10.9706
▁లాభం	-10.9708
మేఘ	-10.9708
▁దిజ	-10.9708
స్మిమ్పి	-10.9709
కప్పియ	-10.9709
సుఞ్ఞ	-10.9711
▁సంయోజనం	-10.9711
ముద	-10.9713
▁పఞ్ఞత్తా	-10.9715
పత	-10.9716
పీత	-10.9717
▁పకత	-10.9719
సకం	-10.9724
▁సోధ	-10.9724
▁అయన్తి	-10.9724
అవిజ్జా	-10.9725
వీస	-10.973
సమఙ్గినో	-10.9731
ళ్హ	-10.9732
▁నిసీదన	-10.9733
▁తుచ్ఛ	-10.9734
సలాక	-10.9736
ానుసారేన	-10.9738
▁విప్ప	-10.9739
▁చక్ఖున్ద్రియ	-10.9739
అప	-10.974
▁సమ్మన్తి	-10.9741
▁సతిసమ్పజఞ్ఞ	-10.9742
▁అప్పహీనా	-10.9742
▁ఇదఞ్హి	-10.9742
వీతిక్కమ	-10.9743
▁విరజం	-10.9745
▁అనత్త	-10.9746
▁వత్థాని	-10.9749
పణ	-10.9751
చ్చాదినా	-10.9755
▁నళ	-10.9758
చ్ఛి	-10.9759
నీత	-10.976
▁వేపుల్లాయ	-10.9764
▁కూటాగార	-10.9765
▁పభస్సర	-10.9767
కాలేపి	-10.9767
▁మచ్ఛరియ	-10.9769
తిట్ఠ	-10.977
చిత్తుప్పాద	-10.9771
▁నిద్దిట్ఠా	-10.9772
▁ఉచ్చార	-10.9773
▁వన్దన	-10.9774
▁మనసో	-10.9778
▁నియతా	-10.9778
▁౧౭౬	-10.9781
నను	-10.9785
▁వచనీయో	-10.9788
యోజనా	-10.9789
▁అఞ్ఞతరా	-10.979
▁పాతుభావో	-10.9793
▁అఞ్ఞమఞ్ఞపచ్చయ	-10.9793
▁అచ్ఛరియ	-10.9794
పటిపన్న	-10.9796
▁వేదనాపచ్చయా	-10.9796
నామో	-10.9797
▁ఛిద్ద	-10.9797
▁ఉపేక్ఖకో	-10.9797
దామ	-10.9799
▁నిసిన్నే	-10.98
▁ఉద్దిసిత్వా	-10.9801
▁ఆవుధ	-10.9801
▁అనుస్సావన	-10.9801
▁కామావచరకుసల	-10.9801
▁ఘట్ట	-10.9802
▁దేసేత్వా	-10.9802
▁దుస్సీల	-10.9803
వీర	-10.9803
సవ	-10.9803
సఞ్ఞితా	-10.9804
అకుసల	-10.9805
▁అభూత	-10.9805
▁రుక్ఖమూలే	-10.9807
▁యస్సాతి	-10.9808
చిత	-10.9809
▁రూపేన	-10.9809
▁హత్థేహి	-10.981
▁అరియసచ్చాని	-10.9811
▁లోమ	-10.9813
లక	-10.9813
విహారో	-10.9813
▁కఙ్ఖతి	-10.9814
▁కణ్డ	-10.9816
▁దుక్ఖసముదయో	-10.9816
మూలకా	-10.9817
▁పచ్చత్త	-10.982
▁నివేస	-10.982
ూహి	-10.9823
దసహాయతనేహి	-10.9826
▁౧౫౨	-10.9826
▁విదితా	-10.9826
▁భోజనీయం	-10.983
▁సప్పురిసో	-10.9831
▁ఉయ్యానం	-10.9831
▁పచ్చేక	-10.9831
▁విభావనియం	-10.9834
▁పాతోవ	-10.9835
▁భాగ	-10.9835
▁సతిం	-10.9836
▁పచ్చవేక్ఖిత్వా	-10.9838
▁పరిచ్ఛిన్దిత్వా	-10.9838
ాదీన	-10.9839
మత్తక	-10.984
▁యోధ	-10.984
▁అభిఞ్ఞేయ్యా	-10.9842
▁పట్ఠాన	-10.9844
ేన్తా	-10.9844
▁పల్లఙ్కం	-10.9845
గుణే	-10.9846
▁అకిరియ	-10.985
▁రోచ	-10.985
రహితో	-10.985
స్మ	-10.9851
▁వత్థునా	-10.9852
పల్లఙ్క	-10.9854
▁దుక్కరం	-10.9859
▁సమాహితో	-10.9861
▁పవారిత	-10.9862
గీత	-10.9862
▁పహాతబ్బహేతుకా	-10.9864
▁నాఞ్ఞ	-10.9867
త్థేరస్సాపదాన	-10.9867
▁బహల	-10.987
▁గతియం	-10.9871
చారిక	-10.9872
▁నసహేతుక	-10.9873
▁సీలస్స	-10.9873
పజ్జోత	-10.9875
▁పతిట్ఠితం	-10.9877
▁పివిత్వా	-10.9877
▁విసయో	-10.9878
▁వీతివత్త	-10.9879
▁భవరాగానుసయం	-10.988
▁అనాగామిమగ్గ	-10.9881
▁ఇట్ఠా	-10.9882
▁జటిల	-10.9882
▁బ్యాకరేయ్య	-10.9883
▁౧౭౯	-10.9883
▁గీత	-10.9885
థమ్భ	-10.9886
▁కామచ్ఛన్దో	-10.9887
▁తికిచ్ఛ	-10.9888
▁౧౬౨	-10.9888
▁సుతవా	-10.9889
▁ఉస్సన్న	-10.989
తీర	-10.989
ణ్ణవ	-10.9891
అఙ్గ	-10.9893
▁గన్త్వాన	-10.9893
▁పీఠ	-10.9893
▁యథారుచి	-10.9896
▁రూపధాతు	-10.9897
▁బోధిసత్తం	-10.9899
ిచ్చ	-10.99
ుపేక్ఖా	-10.9902
▁నపుంసకే	-10.9902
▁అఞ్ఞాత	-10.9903
▁పత్తచీవరం	-10.9903
▁ధీ	-10.9904
▁విరజ్జ	-10.9904
▁దుమ	-10.9905
సినేహ	-10.9905
▁౧౭౪	-10.9906
పురేజాత	-10.9907
▁పరామసతి	-10.9908
▁యథాభూత	-10.9909
▁సద్ధిన్ద్రియ	-10.991
▁సమ్ముఖావినయేన	-10.9911
▁విపాకస్స	-10.9911
▁తాస	-10.9912
టక	-10.9914
▁పాపకానం	-10.9917
ాభినివేస	-10.9918
▁ఛళభిఞ్ఞా	-10.9919
సమఙ్గి	-10.9921
▁మమాయ	-10.9921
సుత్తవణ్ణనాయ	-10.9924
▁అచ్ఛరియం	-10.9925
▁ఖుర	-10.9928
▁సుఖుమం	-10.9931
▁లోకవిదూ	-10.9932
సితా	-10.9934
▁ధమ్మానుపస్సీ	-10.9934
▁౧౭౦	-10.9936
▁ఉగ్గహేత్వా	-10.9937
▁ఫుసతి	-10.9939
▁బ్యత్త	-10.994
ుట్ఠ	-10.994
▁ఉట్ఠాన	-10.994
▁సతాని	-10.9942
▁సువిఞ్ఞేయ్య	-10.9943
▁కారే	-10.9944
ఘన	-10.9945
▁వీతరాగ	-10.9948
విమానం	-10.9949
▁యంనూనాహ	-10.9949
▁వదేతి	-10.9951
▁విని	-10.9951
త్థరణ	-10.9953
▁ఇచ్చేవం	-10.9953
▁తప్	-10.9955
▁ఇత్థియం	-10.9956
▁గన్తబ్బో	-10.9957
▁భవన్తం	-10.9959
▁బద్ధో	-10.996
ోభాస	-10.9961
▁పరిచ్చత్త	-10.9962
▁పఞ్చక్ఖన్ధా	-10.9963
▁పమాదో	-10.9963
▁సంవచ్ఛర	-10.9964
కమ్మేన	-10.9964
▁పురిసే	-10.9964
▁కిచ్ఛ	-10.9965
▁పిదహ	-10.9965
▁పతిట్ఠహ	-10.9967
▁౧౬౯	-10.9968
▁ఇదమస్స	-10.9968
▁అద్ధాన	-10.997
▁మణ్డల	-10.9971
▁గన్ధా	-10.9972
పఞ్ఞత్త	-10.9974
▁సోమనస్సేన	-10.9974
రత్తం	-10.9976
▁వీతిసారేత్వా	-10.9977
▁నిక్ఖమ్మ	-10.9977
▁ఫలక	-10.9977
ిమాని	-10.9983
▁సమన్నాగతత్తా	-10.9984
▁గహట్ఠ	-10.9985
▁పటిపత్తియా	-10.9986
మత్థి	-10.9986
వాసం	-10.9987
▁కామావచరానం	-10.9988
దిబ్బ	-10.9988
సఞ్చేతన	-10.9988
ప్పవత్తియా	-10.9988
▁విధి	-10.9991
▁ధా	-10.9991
గహిత	-10.9992
▁ఠపితో	-10.9993
▁ఆగతత్తా	-10.9995
▁యోపి	-10.9996
పదట్ఠాన	-10.9998
ేస్వ	-11
సున్దర	-11
▁పత్థనం	-11
▁సోతాపత్తిఫలం	-11.0002
▁సాత	-11.0003
▁పన్థ	-11.0004
▁అనిచ్చతా	-11.0005
దుబ్బల	-11.0006
దన్తో	-11.0007
ముత్తమ	-11.0008
▁ఖుద్ద	-11.0008
ాయస్మా	-11.001
విచిత్త	-11.0011
ీధ	-11.0012
▁సయమ్పి	-11.0012
▁ఫుసే	-11.0013
బ్బం	-11.0014
మకంసు	-11.0014
▁మనోద్వారే	-11.0014
▁కామవితక్క	-11.0016
▁బుద్ధేన	-11.0016
▁ఆరమ్మణేసు	-11.0016
▁పధానం	-11.0017
▁నిద్దిసితబ్బ	-11.0019
▁నిరోధధమ్మ	-11.002
గణ్హ	-11.0021
గమా	-11.0021
▁నిబ్బత్తతి	-11.0022
ాచయగామినాపచయగామి	-11.0025
▁తదేకట్ఠ	-11.0025
సద్ధమ్మ	-11.0025
సిలా	-11.0025
▁ఠపేతుం	-11.0027
▁మనోవిఞ్ఞాణం	-11.0029
▁చోదేతి	-11.003
▁౧౭౩	-11.003
▁ఇత్థిన్ద్రియఞ్చ	-11.0031
▁నపుంసక	-11.0032
▁సేనం	-11.0033
▁ఉపేక్ఖాసహగతా	-11.0037
ోకాస	-11.0037
▁సుభద్ద	-11.0038
▁ఏకోపి	-11.0038
ధిక	-11.0041
▁సవ	-11.0042
▁ధమ్మకథిక	-11.0044
▁తజ్జా	-11.0044
▁వప	-11.0045
▁నిబ్బత్తేత్వా	-11.0045
పణీత	-11.0047
నమేవ	-11.0048
▁అయ్యా	-11.0049
▁కరోన్తీ	-11.005
▁ఏకంసేన	-11.0053
▁ఫరణ	-11.0054
▁పఞ్ఞత్తే	-11.0057
▁పచ్ఛిమా	-11.0057
సేతి	-11.0058
▁పటిపాద	-11.0062
▁అప్	-11.0062
▁పస్సి	-11.0062
విభవ	-11.0062
▁నన్ది	-11.0065
మిత్తో	-11.0068
వుద్ధి	-11.0068
▁రజ్జు	-11.007
సంసార	-11.0073
▁సయమ్భూ	-11.0073
▁యోనిసోమనసికార	-11.0073
విరహితో	-11.0073
▁విహేఠ	-11.0075
▁భీతో	-11.0075
విప్పయుత్తపచ్చయా	-11.0077
పుబ్బక	-11.0077
తేయ్య	-11.0078
▁అస్మా	-11.0079
▁సుఞ్ఞతో	-11.0079
▁ద్వారేసు	-11.0083
▁ఉపలబ్భతీతి	-11.0083
రాధ	-11.0085
▁మహాపురిసో	-11.0086
▁ధమ్మసేనాపతి	-11.0087
▁సమన్నాగతోతి	-11.0091
▁చిత్తవిప్పయుత్త	-11.0093
▁ఆధార	-11.0096
▁ఇరియ	-11.0098
▁ఆకఙ్ఖ	-11.0098
దాయకత్థేరఅపదాన	-11.0098
భుఞ్జ	-11.01
ావుధ	-11.0101
ేవాతి	-11.0102
ుస	-11.0103
▁పఞ్చవీసతి	-11.0104
▁పపత	-11.0105
కేస	-11.0105
తుర	-11.0105
▁౧౬౪	-11.0105
▁అపస్స	-11.0106
▁అగ్గసావకా	-11.0106
వత్థా	-11.0108
ేత్వాతి	-11.011
▁౧౭౫	-11.0111
▁అకుసలేహి	-11.0111
▁ఆయూహన	-11.0111
క్ఖిప	-11.0112
▁చిత్తన్తి	-11.0113
▁తుల	-11.0115
▁హేతునా	-11.0115
వోహారో	-11.0117
▁సక్కారం	-11.012
విప్ఫార	-11.012
▁పయోగో	-11.0121
▁నిధి	-11.0121
▁అనిదస్సన	-11.0122
▁నిక్ఖమన్త	-11.0124
▁అబ్యాకతఞ్చ	-11.0124
▁ఆనుభావేన	-11.0125
▁బుజ్ఝన్తీతి	-11.0129
విసుద్ధి	-11.0131
▁కాలఙ్కతో	-11.0132
▁సుభాసిత	-11.0132
▁అధిట్ఠానం	-11.0133
▁కతమ	-11.0135
▁చరేయ్య	-11.0135
▁నిన్ద	-11.0135
▁ఫుట్ఠో	-11.0139
▁అపస్సన్తో	-11.0139
విభఙ్గో	-11.014
ముఖా	-11.0143
▁సమాపజ్జ	-11.0144
▁అఞ్ఞమఞ్ఞస్స	-11.0147
▁ఆరమ్మణతో	-11.0147
▁జాతే	-11.0148
▁సఙ్ఘభేద	-11.0149
భాణవార	-11.015
▁కమ్మని	-11.0151
ాధికరణ	-11.0153
▁సన్తాన	-11.0153
▁కాసి	-11.0153
▁సిరీ	-11.0158
▁గమ్భీరో	-11.016
▁ఉయ్యాన	-11.016
▁యాపన	-11.016
▁దుతియస్స	-11.0162
దారక	-11.0164
▁దుక్ఖసచ్చ	-11.0164
▁పరివత్తన	-11.0166
▁అమ్బట్ఠ	-11.0166
▁విరాగో	-11.0167
▁వగ్గా	-11.0167
దిట్ఠీ	-11.0167
▁విసజ్జ	-11.0168
▁తీ	-11.0168
▁మరియాద	-11.0169
▁గహపతయో	-11.017
పక	-11.0171
▁దిబ్బం	-11.0175
▁పోత్థక	-11.0175
▁ఏత్థేవ	-11.0175
▁ఖన్ధేసు	-11.0175
▁౧౭౮	-11.0176
▁కలల	-11.0176
సమ్మాదిట్ఠి	-11.0177
▁అట్ఠన్నం	-11.0178
▁పటిసఞ్చిక్ఖతి	-11.0179
విదూ	-11.018
▁౧౭౨	-11.0181
▁ఏకేకస్మిం	-11.0183
▁౧౬౬	-11.0183
సఙ్ఘాదిసేస	-11.0184
▁అనుపాదాయ	-11.0184
▁నానత్తం	-11.0187
▁సుత్తన్తోతి	-11.0188
▁పటిఘానుసయం	-11.0188
▁ఆసీవిస	-11.0189
ిస్సథ	-11.0191
▁సరాగ	-11.0192
▁వేదనాక్ఖన్ధ	-11.0193
గమనే	-11.0195
ప్పసఙ్గ	-11.0196
▁పజానాతీ	-11.0197
▁ఉక్క	-11.0198
▁పాపికా	-11.02
▁అఞ్ఞాసి	-11.0204
▁పోరాణక	-11.0206
▁సకలసరీర	-11.0206
సదిసే	-11.0208
న్తరా	-11.0209
▁పక్ఖీ	-11.021
▁వేళురియ	-11.0211
▁దేవదత్త	-11.0212
నియా	-11.0212
బాహు	-11.0213
హేతుకం	-11.0213
▁సమ్పయోగ	-11.0217
▁విక్క	-11.0217
పఞ్చకం	-11.0218
▁ఘానాయతనఞ్చ	-11.0219
▁జన్తాఘర	-11.0219
▁బ్రహ్మే	-11.022
▁హనతి	-11.0221
▁ఆతుర	-11.0222
▁సీమ	-11.0224
▁సులభ	-11.0227
▁సమ్పహంస	-11.0228
ిస్ససీ	-11.0229
▁సాతం	-11.0229
▁అస్సోసి	-11.023
▁సబ్బాకారేన	-11.0231
కిత్తి	-11.0231
మోచన	-11.0238
సముట్ఠిత	-11.0239
▁పారిపూరియా	-11.0239
▁అఙ్గులి	-11.024
▁సక్కార	-11.024
▁పఠమమగ్గ	-11.024
▁౧౬౮	-11.0241
కత్త	-11.0241
▁వట్టన్తి	-11.0245
పాదే	-11.0246
▁అదిట్ఠ	-11.0247
సంసన్దన	-11.0248
▁హీనా	-11.0249
▁సకాయ	-11.0252
ుపట్ఠాన	-11.0253
▁ఆపత్తీతి	-11.0253
ాదీనమ	-11.0255
ధమ్మేన	-11.0258
▁గణ్హిత్వా	-11.026
కరణవసేన	-11.0261
▁అభిణ్హం	-11.0262
▁అసిత	-11.0263
▁యాచిత్వా	-11.0263
▁దుల్లభ	-11.0263
▁తచ్ఛ	-11.0265
▁న్హాయ	-11.0269
▁సోకపరిదేవదుక్ఖ	-11.0269
▁కుసలమూల	-11.0269
▁దానే	-11.0269
▁ఏకూనవీసతి	-11.0272
▁తుట్ఠో	-11.0272
బ్భన్తరే	-11.0274
▁గన్థో	-11.0276
▁అరణం	-11.0278
▁తబ్బ	-11.0284
▁కలి	-11.0284
▁ఫస్సం	-11.0286
ఉపాదాన	-11.0286
పానం	-11.0286
▁ఉద్దిట్ఠ	-11.0287
▁వోదాన	-11.0288
▁పటిగ్గహణ	-11.0289
▁నిబ్బిన్ద	-11.0291
▁త్వమ్పి	-11.0292
▁రూపన్తి	-11.0293
▁అరూపం	-11.0293
పరాయణ	-11.0294
గుమ్బ	-11.0297
▁సమనుపస్స	-11.0297
▁ఓసధ	-11.0297
▁తత్థాపి	-11.0298
▁సన్ని	-11.0299
బ్బి	-11.03
పరియోసానం	-11.0301
ఏకనవుతి	-11.0301
ిత్థీ	-11.0301
పాకార	-11.0302
▁మాల	-11.0303
▁పోక్ఖరణీ	-11.0303
▁ముసావాదా	-11.0304
▁ఆచయగామి	-11.0308
▁అరహత్తే	-11.0312
▁పఞ్చవిధ	-11.0313
▁గచ్ఛన్త	-11.0315
▁సమాదాన	-11.0316
▁కిలేసకామ	-11.0316
అపర	-11.0316
▁సముచ్ఛిన్ద	-11.0319
ాదీనమ్పి	-11.0322
యాచ	-11.0325
▁పూజితో	-11.0325
▁దోమనస్ససహగత	-11.0327
▁పదా	-11.0328
▁సుచరితం	-11.0329
టా	-11.0329
ఖేత్త	-11.0331
కోస	-11.0331
▁సమ్పజానముసా	-11.0331
▁ఆరఞ్ఞక	-11.0332
▁చన్దిమా	-11.0334
▁విరాగాయ	-11.0335
▁పతిట్ఠాతి	-11.0339
▁పాపుణన్తి	-11.0342
యాని	-11.0342
౧౮	-11.0342
▁పట్ఠప	-11.0344
▁విరమ	-11.0345
▁విజిత	-11.0347
తతియ	-11.0348
▁అచ్ఛిన్న	-11.0354
▁ఓట్ఠ	-11.0354
▁బ్యఞ్జనం	-11.0354
▁ఖయం	-11.0354
▁సోళసహి	-11.0354
హిత్వా	-11.0356
▁ఉపపన్నో	-11.0357
త్థేరేన	-11.0358
▁సావత్థి	-11.036
▁బుద్ధవచనం	-11.0361
ట్ఠానేసు	-11.0362
సతే	-11.0364
కణ్డం	-11.0364
ప్పకరణ	-11.0364
లేస	-11.0364
▁దేవతాయ	-11.0365
హచ్చ	-11.0365
పరియాయేన	-11.0366
▁సమ్మాఆజీవో	-11.0367
లస	-11.0368
▁నివాసే	-11.0368
వు	-11.0369
▁అత్థపటిసమ్భిదా	-11.037
ఇమాయ	-11.037
యన్తా	-11.037
▁దేతీతి	-11.037
నకాలే	-11.0371
▁సిప్పం	-11.0372
▁ద్విన్నమ్పి	-11.0372
▁సోతధాతుయా	-11.0373
గ్గణ్హ	-11.0373
▁ఉప్పజ్జ	-11.0375
బీజం	-11.0375
▁లభేయ్య	-11.0376
▁ఖీణా	-11.0377
▁సేవితబ్బో	-11.0379
మధు	-11.038
▁౧౮౪	-11.0381
▁చేతనాయ	-11.0385
నోతి	-11.0386
▁ఉభయం	-11.0388
పటిక్ఖేప	-11.0391
▁అకతం	-11.0391
▁పాణా	-11.0393
ఙ్గులి	-11.0395
▁గహితే	-11.0395
తుమ్హే	-11.0398
▁పదత్థ	-11.0399
ూపాయ	-11.0399
కరణతో	-11.04
▁అస్సమం	-11.04
▁చుతస్స	-11.04
▁అకుసలే	-11.0402
▁ఆవాస	-11.0403
▁సోభతి	-11.0405
▁ఆయత	-11.0405
జ్జన	-11.0406
▁సూల	-11.0407
▁ఏళకలోమ	-11.0409
▁దిట్ఠా	-11.0409
▁అనియత	-11.041
దాని	-11.0411
▁సపత్త	-11.0413
వీరియం	-11.0414
▁వివిచ్చ	-11.0415
▁అభిని	-11.0415
▁పస్సే	-11.0418
▁తుణ్హస్స	-11.0418
▁సఙ్ఖ్యం	-11.0421
▁థద్ధ	-11.0422
విమాన	-11.0424
▁స్నేహ	-11.0424
పరిసం	-11.0425
▁భుఞ్జితుం	-11.0427
▁సరస	-11.0428
▁అత్తభావో	-11.0428
నానత్తం	-11.0429
స్ససి	-11.0429
▁మాతుకుచ్ఛి	-11.0432
▁నియ్యానికం	-11.0436
సూరియ	-11.0436
▁పబ్బతం	-11.0437
▁నిసేధ	-11.0438
▁౧౮౧	-11.0438
▁కుప్పతి	-11.0439
▁ఆయతనం	-11.0439
చ్ఛన్ద	-11.0439
▁పగ్గణ్హాతి	-11.0445
▁బాహిరా	-11.0445
▁పూజం	-11.0449
▁థేరీ	-11.0452
సముదాయ	-11.0453
▁తులా	-11.0453
పథవీ	-11.0455
▁సఙ్గహితం	-11.0455
వత్థూసు	-11.0457
▁ఇణ	-11.0458
కథన	-11.0463
ిస్సన్తీతి	-11.0463
వస్సిక	-11.0463
భావాయ	-11.0464
▁మనాపం	-11.0464
▁సీలసమ్పన్నో	-11.0465
విసమ	-11.0466
బ్యత్త	-11.0468
▁మహాసత్తస్స	-11.0469
▁ఆరుయ్హ	-11.0469
▁అన్తరన్తరా	-11.0469
వసీ	-11.047
▁అగార	-11.047
▁ఉపాహనా	-11.0471
సంహిత	-11.0471
▁గహపతిపుత్త	-11.0474
▁లభతీతి	-11.0475
ట్ఠకథాయం	-11.0476
▁సీతల	-11.0476
▁సాధేతి	-11.0477
▁సత్తధా	-11.0477
▁ఛాదేతి	-11.0478
▁గమిస్స	-11.0479
▁తుయ్హ	-11.0479
▁గన్థసమ్పయుత్త	-11.0479
▁నన్దీ	-11.048
కట	-11.0484
▁థినమిద్ధం	-11.0485
▁ఉద్దేసం	-11.0488
మోగ్గల్లాన	-11.0488
▁సమ్భవన్తి	-11.0489
ూనం	-11.0489
▁౧౬౩	-11.049
▁వన్త	-11.0491
▁ఉత్తరాసఙ్గం	-11.0491
▁మజ్ఝిమో	-11.0493
ానురూప	-11.0494
ిఞ్చ	-11.0497
▁దుక్కటమేవ	-11.0498
మణ్డిత	-11.0498
రత	-11.0501
సద్దానం	-11.0501
▁ఏతాయ	-11.0504
▁గహణే	-11.0507
▁అత్తభావం	-11.0508
ఘరం	-11.0509
సాధక	-11.0509
▁అసుద్ధ	-11.0513
▁దుక్ఖస్సన్త	-11.0513
▁క్రియ	-11.0516
▁పటిసల్లాన	-11.0518
కమ్మా	-11.0519
▁నుపలబ్భతి	-11.052
▁ఉతుసముట్ఠానం	-11.0521
▁ఆమన్తేత్వా	-11.0521
▁పుట్ఠా	-11.0522
▁నిపన్నో	-11.0523
ారమ్మణో	-11.0524
పురేక్ఖార	-11.0525
▁తీసుపి	-11.0528
▁మహావీరో	-11.0529
▁ఛాయా	-11.053
కూల	-11.0531
▁అబ్యాపజ్జ	-11.0532
మ్పీ	-11.0532
▁గోచరో	-11.0532
చిర	-11.0533
▁పటిలభిత్వా	-11.0533
▁పారివాసిక	-11.0535
సన్నిభ	-11.0535
▁జనపదే	-11.0535
▁పచ్చత్థిక	-11.0537
▁ఞాతీనం	-11.0537
▁తివిధేన	-11.0538
▁ఏతమ్పి	-11.0538
▁దాసి	-11.0539
▁తీరం	-11.054
▁అప్పక	-11.0541
విఞ్ఞత్తి	-11.0542
▁గిహీనం	-11.0542
▁సమాధిస్స	-11.0543
▁ఆసవవిప్పయుత్తో	-11.0543
▁పసవ	-11.0544
▁గన్తబ్బ	-11.0545
▁అఞ్ఞేసు	-11.0545
▁సబ్బత్థాతి	-11.0545
▁మిగా	-11.0547
▁యథేవ	-11.0547
▁దారకా	-11.0547
గఞ్ఛి	-11.0548
▁పటిప్పస్సద్ధి	-11.0548
▁గన్ధబ్బ	-11.0548
▁కరోన్తేన	-11.055
▁దత్వాన	-11.055
▁జగ్గ	-11.0551
తలం	-11.0554
▁పక్ఖి	-11.0555
ాపయతి	-11.0556
▁ఆదినా	-11.0557
▁దిన్నే	-11.0558
▁సప్పచ్చయ	-11.0559
▁దిన్నా	-11.0559
▁నిమన్త	-11.056
▁భవన్తో	-11.0561
పటిభాన	-11.0564
పరికమ్మ	-11.0565
▁బహుజన	-11.0568
▁లోకనాయకో	-11.057
▁అథేకదివసం	-11.057
▁యథయిదం	-11.057
రూపస్స	-11.0572
▁విఞ్ఞాపే	-11.0575
▁పరిగ్గహేత్వా	-11.0576
ధమ్మేహి	-11.0577
▁౧౮౦	-11.0577
సంసయ	-11.0578
▁ఆచయగామీ	-11.0578
▁పజానన్తి	-11.0579
ుపగ	-11.0579
మరణం	-11.0579
▁సంవట్ట	-11.058
ఇచ్చేతే	-11.058
▁హోన్త	-11.0581
▁ఆనిసంసో	-11.0581
ాధిప్పాయేన	-11.0582
▁ఇద్ధిపాదా	-11.0583
▁అదిన్నాదానా	-11.0583
▁సీలక్ఖన్ధ	-11.0584
సదిసమేవ	-11.0584
మానసా	-11.0585
▁అభావిత	-11.0587
▁ఆకారేన	-11.0587
▁నాలం	-11.0591
▁పాపేత్వా	-11.0592
▁పక్కోస	-11.0593
▁విఞ్ఞూనం	-11.0593
▁వత్తబ్బత్తా	-11.0593
దరథ	-11.0593
▁మనాయతనఞ్చ	-11.0594
▁దుస్సీల్య	-11.06
విఘాత	-11.0604
దాసి	-11.0606
▁భిక్ఖా	-11.0606
ట్ఠపన	-11.0606
▁వేదియ	-11.0606
అగ్గి	-11.0606
సోధన	-11.0607
▁అప్పమాణో	-11.0607
ేయ్యో	-11.0607
▁నిరోధాయ	-11.0608
ఏకం	-11.0608
▁భవిస్సన్తీ	-11.061
▁౧౭౭	-11.061
ాదినో	-11.061
విచార	-11.061
సుఞ్ఞత	-11.0612
▁బహుక	-11.0613
వేధ	-11.0616
▁నకామావచర	-11.0618
▁వట్టతియేవ	-11.0618
ధఞ్ఞ	-11.0618
కిచ్ఛ	-11.062
▁వేసాలియం	-11.0621
▁అనభావం	-11.0621
లిత్త	-11.0622
▁పలిబోధ	-11.0625
మోచ	-11.0626
▁విస్సజ్జనం	-11.0628
కస్సప	-11.0628
▁ఆరామో	-11.063
▁హితం	-11.0631
౧౬	-11.0633
▁విసుజ్ఝతి	-11.0633
▁నరూపావచర	-11.0638
యానం	-11.0638
▁ఏకక్ఖణే	-11.0642
▁కరణవచనం	-11.0642
▁హన్త్వా	-11.0644
హమస్మి	-11.0644
▁అకుసలఞ్చ	-11.0644
▁వినిచ్ఛయం	-11.0645
నిస్సయపచ్చయేన	-11.0646
ాగమ	-11.065
పాతిమోక్ఖ	-11.0652
ారమ్భ	-11.0653
పల	-11.0653
న్ది	-11.0653
▁రూపాదీసు	-11.0654
▁ఆరమ్భ	-11.0657
▁సఞ్జాన	-11.0657
చా	-11.066
▁పగ్ఘర	-11.0661
వాదే	-11.0661
విహారీ	-11.0662
▁చేతసికో	-11.0662
▁సన్నిధి	-11.0662
▁ముఖతో	-11.067
▁పుబ్బచరితాపదాన	-11.0672
▁వివట్టూపనిస్సయ	-11.0672
▁ఆకఙ్ఖమానో	-11.0675
▁అవస్సుత	-11.0677
రంసి	-11.0678
▁ఏతి	-11.0678
▁అపదానం	-11.068
మతం	-11.0682
పరివాస	-11.0683
▁ఖయో	-11.0683
▁ఆలపన	-11.0683
▁బద్ధా	-11.0684
▁నాథ	-11.0685
▁నిమిత్తే	-11.0685
▁సేనాయ	-11.0685
▁౧౮౩	-11.0686
▁పుబ్బకమ్మం	-11.0687
▁వాతా	-11.069
చారో	-11.0692
సత్తా	-11.0693
▁పటిసఙ్ఖా	-11.0695
ావసానే	-11.0695
▁సుఞ్ఞతం	-11.0697
▁పటిసన్ధియం	-11.0699
గతస్స	-11.0701
▁కాయానుపస్సనా	-11.0706
ికన్తి	-11.0706
వచ	-11.0707
▁రమ్మ	-11.0708
ప్ఫల	-11.071
▁ఉపేక్ఖాసహగత	-11.071
▁దేవియా	-11.071
సఙ్ఘో	-11.0711
▁వాయామ	-11.0711
భూతానం	-11.0712
▁లోకుత్తరో	-11.0713
▁సబ్బఞ్ఞుతం	-11.0714
▁కంస	-11.0715
దానే	-11.0716
▁అన్ధకార	-11.0717
వత	-11.0718
క్ఖో	-11.072
▁తిణ్ణో	-11.0721
ూపనిస్సయ	-11.0724
▁కాతబ్బన్తి	-11.0724
▁పస్సావ	-11.0725
ఆచరియ	-11.0725
ద్ది	-11.0726
▁అక్ఖీని	-11.0726
అహ	-11.0729
▁అచ్ఛిన్ద	-11.0731
క్లేస	-11.0731
▁ఉపగచ్ఛ	-11.0732
▁సుఖన్తి	-11.0734
▁అవీచి	-11.0735
▁చరియా	-11.0739
కమ	-11.074
దూర	-11.0742
▁మనోరమం	-11.0742
▁సంవణ్ణనా	-11.0742
▁సాఖ	-11.0744
రాజస్స	-11.0744
▁సఙ్గామ	-11.0749
▁నిబ్బానన్తి	-11.0749
▁నహేతుఞ్చ	-11.075
▁కప్పతీ	-11.075
ేథాతి	-11.075
విగ్గహ	-11.0752
▁అభిక్కన్త	-11.0756
▁కాయికస్స	-11.076
▁సమ్పన్నో	-11.0762
ాసన్న	-11.0763
▁వుత్తేసు	-11.0766
▁సామికో	-11.0767
మానోతి	-11.0767
సన్తక	-11.0768
▁గజ్జ	-11.0774
ఙ్గో	-11.0775
▁సయమ్భు	-11.0775
▁పహీయన్తి	-11.0776
▁విసారదో	-11.0776
▁ఇసయో	-11.0778
▁వత్థబ్బం	-11.0778
▁పాతుభూత	-11.0778
▁అదస్సనే	-11.0778
▁అపుచ్ఛి	-11.078
▁ఆనన్తరియ	-11.078
▁అసఞ్చిచ్చ	-11.078
▁౧౯౦	-11.0782
ునో	-11.0786
▁అపేత	-11.0786
ాదిన్నఅనుపాదానియ	-11.0786
▁భఙ్గా	-11.0788
▁యాదిసో	-11.0788
▁రోగో	-11.0788
కమ్పన	-11.079
▁పచ్చక్ఖతో	-11.0791
▁౧౮౨	-11.0792
సన్నిస్సయ	-11.0793
▁భవఙ్గం	-11.0793
▁మనాపో	-11.0795
నిదస్సన	-11.0796
దీపన	-11.0796
▁సోతిన్ద్రియం	-11.0797
▁ఇత్తర	-11.0798
▁వేదేతి	-11.0798
పరిచ్ఛిన్న	-11.0799
సతిపట్ఠాన	-11.08
▁బ్రహ్మునా	-11.08
యమాన	-11.0802
▁ఆవహ	-11.0803
▁ఇమమేవ	-11.0804
౧౪	-11.0804
ూపసమ	-11.0808
▁ఛడ్డిత	-11.0808
చోళ	-11.0812
▁సఙ్గాయ	-11.0814
▁రుచ్చతి	-11.0814
వసన	-11.0814
కుచ్ఛి	-11.0819
▁ఉప్పన్నానం	-11.0819
టి	-11.0819
ానమేవ	-11.0819
▁లాభసక్కార	-11.0824
అట్ఠకథా	-11.0824
▁పరామట్ఠ	-11.0825
▁రుచిర	-11.0825
యుగ	-11.0827
▁బ్రహ్మునో	-11.0828
హింస	-11.0828
▁బజ్ఝ	-11.0829
▁హేస్సతి	-11.0831
▁కేవట్ట	-11.0831
▁గయ్హతి	-11.0832
▁ఆయతనాని	-11.0837
▁సోకో	-11.0838
▁తత్తక	-11.0841
గామం	-11.0841
కామావచర	-11.0842
పబ్బజిత	-11.0843
▁సముద్దో	-11.0843
▁పరేసు	-11.0846
భాగేన	-11.0847
చక్ఖూ	-11.0848
చారి	-11.085
▁కరోతో	-11.0851
▁మహానాగ	-11.0855
▁నోచిత్తసముట్ఠాన	-11.0857
▁వుట్ఠ	-11.0858
▁వచో	-11.0859
▁సుద్ధావాసానం	-11.086
నివాస	-11.0865
▁నిరుద్ధ	-11.0866
▁రోప	-11.0867
▁అఞ్ఞాయ	-11.0867
▁వుత్తస్స	-11.0871
▁సారిపుత్తస్స	-11.0871
▁భుస	-11.0872
▁బహూహి	-11.0872
▁అట్ఠాన	-11.0873
▁మహాకస్సప	-11.0877
▁కతస్స	-11.0878
ారహం	-11.0878
భావేనేవ	-11.0878
సస్సత	-11.0878
▁౧౭౧	-11.088
▁యుఞ్జ	-11.0882
అత్తా	-11.0883
▁రత్తో	-11.0883
▁ఆపత్తాధికరణం	-11.0883
▁ఉపపజ్జన్తస్స	-11.0885
▁తత్రిదం	-11.0886
▁ఇహ	-11.0887
▁సుఖితో	-11.0889
▁వత్తతీతి	-11.0889
▁వసన	-11.089
ాద	-11.0891
▁వత్వాన	-11.0895
▁ఉదకస్స	-11.0896
▁భావన	-11.0896
▁ఆనుభావ	-11.0899
▁ఞేయ్యం	-11.09
ఞ్ఞే	-11.0901
▁సఙ్గహితో	-11.0902
▁౧౮౫	-11.0902
లక్ఖణే	-11.0903
▁గావీ	-11.0905
▁సమానం	-11.0906
▁చేతియే	-11.0907
▁సిఙ్గ	-11.0907
▁ధమ్మతో	-11.0909
▁బిల	-11.0909
మాతు	-11.0909
▁అహేతుకా	-11.091
రామో	-11.0912
▁అరూపావచరే	-11.0914
ఛత్త	-11.0915
▁అనభిరతి	-11.0917
▁పకరణ	-11.0918
▁తమో	-11.092
▁సమ్మాకమ్మన్తో	-11.0929
త్థికో	-11.0929
▁వత్థుస్స	-11.0931
▁అనోమ	-11.0932
▁వినిధాయ	-11.0932
▁అజ్ఝభాసి	-11.0933
▁దన్తో	-11.0933
▁సఙ్ఖేపత్థో	-11.0935
▁సఙ్కేత	-11.0937
▁పరిపక్క	-11.0937
▁కారేన్తే	-11.094
▁దన్తా	-11.094
▁పత్తస్స	-11.094
▁సతిసమ్బోజ్ఝఙ్గో	-11.0941
▁ఆసఙ్క	-11.0941
▁అధిపతిపచ్చయా	-11.0943
▁అట్ఠంసు	-11.0944
▁బ్రహ్మదత్తే	-11.0948
▁కులేసు	-11.0949
ుచ్చ	-11.095
▁కనిట్ఠ	-11.0951
పోస	-11.0951
దస్సనతో	-11.0951
ట్ఠానాని	-11.0953
▁బాలస్స	-11.0955
▁సన్తప్ప	-11.0956
ఫ	-11.0956
చేత	-11.0957
▁తత్త	-11.0958
▁యసం	-11.0958
▁గరుభణ్డ	-11.0959
▁తిఖిణ	-11.096
▁వాళ	-11.096
▁పుబ్బేనివాసం	-11.0961
పఞ్హే	-11.0961
▁కుసలే	-11.0961
▁విప్పసన్న	-11.0964
భిక్ఖూనం	-11.0966
ప్పటిపన్న	-11.0966
ట్ఠకథా	-11.0966
మక	-11.0967
౧౭	-11.0969
▁వచీభేద	-11.0969
▁వోహారో	-11.0974
అలం	-11.0976
▁కుఞ్జర	-11.0977
నుగ్గహ	-11.0978
▁పరిక్ఖయా	-11.0978
▁సుఖఞ్చ	-11.098
ఖీణా	-11.0981
▁ఆనాపానస్సతి	-11.0981
పాసాద	-11.0981
▁పరిహీన	-11.0983
▁తిరచ్ఛాన	-11.0984
అఞ్ఞం	-11.0984
రూపూపపత్తియా	-11.0985
త్యా	-11.0985
▁యానం	-11.0985
పన్నో	-11.0986
▁నోఅవిగత	-11.0987
సణ్ఠిత	-11.0987
▁పఙ్క	-11.0991
▁అభిసమ్బుద్ధో	-11.0992
▁పచ్చయేసు	-11.0993
▁మగ్గక్ఖణే	-11.0994
▁పూజేత్వా	-11.0995
▁సముట్ఠానేన	-11.0996
తాపి	-11.0998
▁కారకో	-11.0999
▁లభామి	-11.0999
▁సుణోహి	-11.1001
▁నోకిలేస	-11.1001
స్సామి	-11.1002
▁విధా	-11.1004
విరుద్ధ	-11.1004
సదిసత్తా	-11.1005
▁సేవతో	-11.1006
గ్గా	-11.1006
▁ముహుత్త	-11.1009
▁సఙ్కమ	-11.101
▁ఆదిమ్హి	-11.101
▁అపరా	-11.101
▁వదతీతి	-11.1011
సమన్నాగతో	-11.1011
▁పజాననా	-11.1011
▁పచ్చత్తం	-11.1012
▁పనేసా	-11.1013
▁పరిక్ఖిత్త	-11.1017
▁ఖాదన్తి	-11.1019
దార	-11.1022
వజ్జిత	-11.1023
▁భవరాగానుసయేన	-11.1024
▁వీతరాగో	-11.1025
తిఆదీసుపి	-11.1025
▁నిద్దేసే	-11.1025
వేల	-11.1026
▁హీనో	-11.1026
▁నిద్దిస	-11.1029
▁వుచ్చమాన	-11.103
మచ్చ	-11.1032
▁పురా	-11.1032
▁కారియ	-11.1032
సత్తాహ	-11.1035
▁ఉపత్థమ్భ	-11.1037
▁పోట్ఠపాద	-11.1038
▁కుసీత	-11.1039
దివసతో	-11.1041
▁పిణ్డపాతిక	-11.1042
సావకో	-11.1043
▁ఆనీత	-11.1044
▁పవేసేత్వా	-11.1044
▁అలజ్జి	-11.1044
▁పసీదతి	-11.1044
మధి	-11.1045
▁ఆపన్నా	-11.1045
ున్తి	-11.1045
జనన	-11.1046
తబ్బో	-11.1047
▁పటిచ్ఛన్నం	-11.1048
▁వట్టం	-11.1048
▁మహేసినా	-11.1051
▁మాతుగామ	-11.1051
పియ	-11.1052
▁అనుస్సవ	-11.1052
ేవం	-11.1052
▁కుసలేన	-11.1052
▁అధిట్ఠిత	-11.1053
▁యోజే	-11.1053
లగ్గ	-11.1054
ద్ధో	-11.1054
▁అనియమ	-11.1055
▁ధీతరం	-11.1059
▁౧౯౬	-11.1061
▁నోగన్థ	-11.1064
▁అసురా	-11.1065
▁భవతణ్హా	-11.1065
ాపేన్తో	-11.1065
▁అనపేక్ఖ	-11.1066
▁ఆపజ్జేయ్య	-11.1067
▁లిఖ	-11.1068
చే	-11.1068
▁ఆనిసంసం	-11.1068
దస్సావీ	-11.1068
▁సవితక్కం	-11.1069
▁నిరుజ్ఝ	-11.107
▁ఉపేతో	-11.107
ాదిభేద	-11.1071
▁ఉపసంహర	-11.1072
▁పటిక్ఖేప	-11.1072
పతిత	-11.1074
▁గచ్ఛన్తీ	-11.1074
▁తథాగతా	-11.1076
▁భూమిం	-11.1079
సకుణ	-11.1079
▁కామగుణ	-11.1081
అనిచ్చం	-11.1082
త్థర	-11.1083
▁తేనేతం	-11.1083
హన్ద	-11.1085
▁సిక్ఖాపదేసు	-11.1085
▁భేరి	-11.1086
▁౧౮౯	-11.1086
▁అచ్చయ	-11.1086
▁వత్తు	-11.1088
▁సుద్ధిక	-11.1088
▁ఆవస	-11.1089
▁భద్దియ	-11.1089
▁అత్థఙ్గమో	-11.1091
▁ఇట్ఠానిట్ఠ	-11.1092
▁అనేకపరియాయేన	-11.1093
▁సతీతి	-11.1093
▁౧౮౬	-11.1093
౧౯	-11.1094
▁గాహాపేత్వా	-11.1095
▁పుఞ్ఞక్ఖేత్తం	-11.1095
▁యోబ్బన	-11.1097
▁ఏకక	-11.1098
▁కతపుఞ్ఞ	-11.11
▁ఉపపజ్జన్తి	-11.11
▁ఉపలక్ఖణ	-11.1101
▁సఞ్చేతనికా	-11.1101
▁అపన	-11.1102
▁వుట్ఠానం	-11.1104
రూళ్హ	-11.1104
▁దిబ్బా	-11.1105
▁సువిసుద్ధ	-11.1105
▁అప్పచ్చయ	-11.1105
దారు	-11.1106
▁చారు	-11.1106
▁వాయోధాతు	-11.1107
ావబోధ	-11.1108
▁అమనాప	-11.1108
మప్ప	-11.111
▁సవితక్కసవిచారం	-11.111
▁బోజ్ఝఙ్గే	-11.1111
▁అసమత్థ	-11.1111
▁హిరోత్తప్ప	-11.1111
▁ఉపసమ్పదం	-11.1112
▁పరివజ్జ	-11.1113
▁ఉప్పజ్జమానో	-11.1114
చేతసిక	-11.1117
▁నిదస్సనం	-11.1117
గతానం	-11.1118
ాభావో	-11.1118
మలం	-11.112
ీకత	-11.112
▁గణ్హన్తస్స	-11.112
▁రాజినో	-11.1121
పరియాపన్నా	-11.1123
▁వఞ్చ	-11.1123
▁దిబ్బాయ	-11.1124
▁హోథ	-11.1124
సఙ్ఘస్స	-11.1125
▁ఏత్తకా	-11.1126
▁పఠమాయ	-11.1128
రణం	-11.1128
▁అనేకే	-11.1129
ఠిత	-11.113
▁యేసు	-11.113
▁గిల	-11.1131
సఙ్గహిత	-11.1132
తస్మాతిహ	-11.1132
▁పాపిమా	-11.1134
▁హేతుదుక	-11.1134
యోగా	-11.1134
కారి	-11.1136
▁సఖ	-11.1139
▁నిరోధసమాపత్తి	-11.1143
▁రాజగహ	-11.1145
▁అనవసేసతో	-11.1145
▁దేవదూత	-11.1147
▁మయమ్పి	-11.1149
సంయోగ	-11.1149
పరో	-11.1149
▁యసస్సినో	-11.115
ాయేవ	-11.1151
▁గిజ్ఝ	-11.1153
▁విస్సజ్జిత	-11.1153
▁నిచ్ఛ	-11.1155
నామరూప	-11.1157
▁సఙ్ఘికం	-11.1158
▁పఞ్ఞపేతి	-11.1158
▁ద్వన్ద	-11.1158
▁జటా	-11.1159
▁ధజ	-11.1159
▁అనుపస్సనా	-11.116
▁సమ్పదాన	-11.1162
విన్ద	-11.1162
▁భావేతీతి	-11.1162
▁సముప్పన్న	-11.1165
భయా	-11.1167
▁ఏత్తక	-11.1168
▁ఉద్ధత	-11.1173
థామ	-11.1174
▁పరాభవ	-11.1176
▁పయుత్త	-11.1181
▁తతోపి	-11.1181
▁పుగ్గలేన	-11.1182
తవ	-11.1184
▁అగచ్ఛ	-11.1185
▁అవిక్ఖేప	-11.1185
దోమనస్స	-11.1186
▁ఏతాదిస	-11.1186
▁తిత్థ	-11.119
సద్ధ	-11.119
▁సణ్ఠాన	-11.1194
▁ఇచ్ఛితబ్బ	-11.1195
విపాకా	-11.1196
▁ఇదమేత	-11.1196
గామో	-11.1196
▁ఉభయమ్పి	-11.1198
▁అరహతా	-11.1198
సమ్భవో	-11.1198
▁వోదానం	-11.1198
▁పఠమస్స	-11.1199
▁నానుసేన్తి	-11.12
▁మోఘమఞ్ఞ	-11.12
▁సత్తతింస	-11.1201
▁ఆపజ్జిం	-11.1201
▁భుఞ్జేయ్య	-11.1202
▁ఉప్పజ్జేయ్యుం	-11.1203
ఝ	-11.1203
▁విప్పటిసార	-11.1203
▁లజ్జి	-11.1203
▁అసమాహిత	-11.1204
▁౧౯౧	-11.1204
ాదీనవ	-11.1205
ియ్యతి	-11.1206
▁ఉదర	-11.1209
న్తరాయో	-11.121
▁నహాయ	-11.1211
▁అధిముత్త	-11.1211
▁పారుపిత్వా	-11.1211
▁సమ్పటిచ్ఛిత్వా	-11.1212
▁సహాయక	-11.1218
ాదీతి	-11.1218
▁యత	-11.1219
▁పాదేన	-11.1219
నామకా	-11.1219
▁చోదన	-11.122
▁దారకే	-11.122
ాపేతీతి	-11.1221
▁ఉక్ఖేపనీయకమ్మం	-11.1221
▁అనేన	-11.1222
కోధ	-11.1223
▁వేఠ	-11.1223
▁హేతుఫల	-11.1223
▁పఞ్చవిఞ్ఞాణ	-11.1225
▁ఞాణసమ్పయుత్త	-11.1227
▁ఛేక	-11.1229
ోపమా	-11.1229
▁దుక్ఖితో	-11.1234
▁ఉపపజ్జన్తీ	-11.1236
దస్సనో	-11.1237
▁అనుపసమ్పన్నస్స	-11.1237
▁బోధిం	-11.1237
▁వీ	-11.1237
దల	-11.1239
▁పబ్బజి	-11.124
▁పణ్డు	-11.124
మఙ్గ	-11.1241
▁కసి	-11.1242
▁మహాబ్రహ్మా	-11.1242
పేతం	-11.1244
జవ	-11.1244
తక్క	-11.1245
నాద	-11.1245
▁భిసి	-11.1245
▁భూతగామ	-11.1246
ాపేసుం	-11.1246
▁పతిట్ఠ	-11.1246
వణ్ణనాయ	-11.1247
మానాయ	-11.1248
▁దణ్డం	-11.1248
▁లజ్జీ	-11.1249
▁ఠపేన్త	-11.125
▁కమ్మన్తి	-11.125
▁౨౦౭	-11.1254
▁నఅరణ	-11.1255
▁తుసిత	-11.1256
▁గన్ధం	-11.1256
▁లభతే	-11.1257
త్తక	-11.1258
▁తదఙ్గ	-11.1259
▁అనత్థాయ	-11.126
వాసిక	-11.126
▁మిచ్ఛత్తనియత	-11.1262
▁ఉపట్ఠహన్తి	-11.1263
గ్గహ	-11.1263
▁ఖాదతి	-11.1263
▁సబ్రహ్మచారీనం	-11.1263
▁యోజనం	-11.1264
నిక్ఖేప	-11.1267
ాభిసఙ్ఖార	-11.1268
ినోతి	-11.1268
▁కుసుమ	-11.1269
▁అఞ్ఞాతక	-11.127
▁పఠమజ్ఝానం	-11.127
సమథ	-11.1271
▁నివేసనం	-11.1272
▁అనుసేతీతి	-11.1276
▁తాతా	-11.1276
▁ముసావాదో	-11.1276
▁పరిళాహ	-11.1277
యఞ్ఞ	-11.1281
▁అకుసలమూలం	-11.1282
ిణ	-11.1283
▁ఆరద్ధో	-11.1285
▁ఆపజ్జి	-11.1285
▁సమాదహ	-11.1286
▁లబ్భ	-11.1286
దేహ	-11.1287
▁దదాతి	-11.1288
▁కుసలధమ్మ	-11.1289
తేసు	-11.1291
సీహో	-11.1291
▁గన్తు	-11.1291
▁సబ్బఞ్ఞూ	-11.1293
▁దజ్జ	-11.1294
పదవణ్ణనా	-11.1295
▁అరియసావకస్స	-11.1295
పఞ్ఞత్తియా	-11.1298
రమ	-11.1301
▁అనేకవిధ	-11.1302
గాథావణ్ణనా	-11.1304
▁తియోజన	-11.1305
▁అత్థఙ్గమా	-11.1306
భావదస్సనత్థం	-11.1307
▁దుబ్బచ	-11.1308
▁సచ్చేన	-11.1308
అతి	-11.1308
▁పణిధాయ	-11.1309
▁గణస్స	-11.1309
ట్ఠకథాయ	-11.1309
▁నాహోసి	-11.1309
▁పస్సథ	-11.131
▁సోమనస్సజాతో	-11.131
▁విభావేతుం	-11.1311
ధోవన	-11.1311
అనుపాదానియో	-11.1312
▁ఆగచ్ఛన్తం	-11.1312
▁అభిసఙ్ఖార	-11.1313
▁అక్ఖాహి	-11.1314
భాగం	-11.1314
▁హేతుపచ్చయ	-11.1315
▁దదామి	-11.1316
▁ఆసీస	-11.1317
▁ఏకవిధ	-11.1317
▁ఛవ	-11.1318
పరిపుణ్ణ	-11.1319
గాళ్హ	-11.1321
▁దూరతోవ	-11.1321
▁సబ్బమేతం	-11.1324
▁దుబ్బణ్ణ	-11.1324
▁పాసాదం	-11.1324
▁మాతుగామస్స	-11.1324
▁పారుప	-11.1325
▁౧౯౩	-11.1325
హేవ	-11.1326
ాగత	-11.1326
▁పాణాతిపాతో	-11.1327
▁ఞాతకా	-11.1327
▁తిదస	-11.1328
▁సమన్తపాసాదికాయ	-11.1331
▁కిలిట్ఠ	-11.1331
▁కామతణ్హా	-11.1331
▁సన్నిపతిత	-11.1333
▁భాసమాన	-11.1334
సూల	-11.1335
▁అంస	-11.1336
▁జనతం	-11.1336
తథేవ	-11.1336
▁కుమ్భకార	-11.1338
▁ధమ్మతా	-11.1338
▁మునినో	-11.134
▁ఏకదేసం	-11.1341
▁పసవతి	-11.1341
▁భు	-11.1341
▁ఆవాసా	-11.1343
▁౧౮౭	-11.1343
సహస్సేహి	-11.1344
▁పాకటమేవ	-11.1345
▁చతురస్స	-11.1346
▁దేవదత్తస్స	-11.1349
▁౧౯౫	-11.1349
నిస్సరణ	-11.1349
▁అరూపావచరా	-11.135
▁సిద్ధా	-11.1351
▁పరిక్ఖేప	-11.1351
ఙ్కుర	-11.1353
మనుస్సా	-11.1355
▁అనుపఞ్ఞత్తి	-11.1357
▁విచరన్తి	-11.1358
▁అనురుద్ధో	-11.1358
▁తిత్థియా	-11.1359
▁భణిత	-11.1364
▁రసాయతనం	-11.1365
▁సఙ్ఖతా	-11.1367
▁నస్సతి	-11.1368
▁భమ	-11.137
▁లప	-11.137
పరివత్త	-11.1371
▁బహిద్ధారమ్మణ	-11.1373
సిఖ	-11.1375
▁తణ్హాదిట్ఠి	-11.1375
▁సమ్భూత	-11.1377
▁భాసతో	-11.1378
▁జీర	-11.1378
▁సకత్థే	-11.138
▁పటిప్పస్సద్ధ	-11.1382
▁రాజూనం	-11.1384
▁దేన్తో	-11.1388
▁అనుకమ్పాయ	-11.1388
▁అత్థకామ	-11.1389
▁దేహ	-11.1389
▁అట్ఠకథాసు	-11.1389
▁సుఞ్ఞతా	-11.1389
ఫలా	-11.1389
▁రజనీయ	-11.1391
న్తిఆదీని	-11.1391
వస్సాని	-11.1391
పరిక్ఖిత్త	-11.1393
▁నవమ	-11.1393
ుపాయ	-11.1394
రాజానో	-11.1395
▁వేదితబ్బన్తి	-11.1395
▁ఉపట్ఠితా	-11.1396
▁ఆకాసం	-11.1396
పాహం	-11.1396
▁పరిచ్చాగ	-11.1398
▁అణ్డ	-11.1399
▁యాతి	-11.1399
▁నిరుద్ధా	-11.1401
గుహ	-11.1402
త్తికే	-11.1404
సమ్పయుత్తో	-11.1405
▁చిన్తయ	-11.1405
▁౧౯౮	-11.1405
▁మో	-11.1406
▁సిద్ధో	-11.1407
దసక	-11.1407
విగత	-11.1407
▁నవమో	-11.1408
▁నిస్స	-11.141
వీమంస	-11.1411
▁కమ్మార	-11.1412
▁ఖాదనీయ	-11.1416
▁కరిత్వాన	-11.1418
▁ఉపచినన్తో	-11.1419
▁విపాకధమ్మధమ్మో	-11.1419
▁ఉదాయీ	-11.142
▁కటి	-11.142
▁సఞ్ఞీ	-11.1421
▁మహాజనం	-11.1422
▁ఏత్తకేన	-11.1423
▁పసు	-11.1423
▁పతిట్ఠాపేసి	-11.1425
▁కిలన్త	-11.1427
▁అజాన	-11.1428
ముదు	-11.1428
▁ఖిప్పమేవ	-11.1429
▁విభూత	-11.1432
▁మన్తా	-11.1433
▁పటిపన్న	-11.1433
▁సమన్త	-11.1433
▁ఉపాస	-11.1435
▁సంసారో	-11.1436
▁ఆహట	-11.1438
▁అపచ	-11.1445
▁కణ	-11.1449
బన్ధనేన	-11.145
▁విసేసనం	-11.145
▁పరియేసిత్వా	-11.145
▁అదిస్వా	-11.145
▁కామో	-11.1451
అరూప	-11.1452
▁కుపితో	-11.1452
▁రఞ్జ	-11.1453
సమణబ్రాహ్మణ	-11.1453
▁అపరిసుద్ధ	-11.1454
▁చతుర	-11.1454
పచ్చుపట్ఠానం	-11.1455
వణ్ణేన	-11.1457
చన్దన	-11.1458
▁ఠానేన	-11.1458
ిత్థియో	-11.1459
▁ఏతదేవ	-11.146
దర	-11.1461
▁ఆసవక్ఖయ	-11.1462
నేక	-11.1462
▁ఝానాని	-11.1464
▁పునబ్భవ	-11.1466
నావ	-11.1466
▁అదస్సనం	-11.1466
▁బుద్ధసాసనే	-11.1467
సమ్బోజ్ఝఙ్గం	-11.147
▁సమ్బోధి	-11.1471
▁భిక్ఖునీహి	-11.1472
ాచయగామినాపచయగామీ	-11.1474
▁తికపాచిత్తియం	-11.1474
▁అఘానకాన	-11.1474
▁సుత్తన్తభాజనీయ	-11.1475
▁సమ్మోది	-11.1475
▁ఓసార	-11.1476
▁పసయ్హ	-11.1477
▁ఞేయ్య	-11.1478
పరియాపన్నం	-11.1479
ాభిసమయ	-11.148
▁పేసిత	-11.1485
▁వేదేహ	-11.1487
మతీ	-11.1488
▁ఆబాధో	-11.1489
▁మిన	-11.1492
పత్థనా	-11.1493
▁హత్థపాసే	-11.1498
▁౨౧౫	-11.1498
▁తేనస్స	-11.1499
చరియం	-11.1499
▁మీయ	-11.1499
మిచ్ఛా	-11.15
▁పత్తచీవర	-11.1501
▁అబ్భా	-11.1502
▁విప్పముత్తో	-11.1503
చిన్త	-11.1503
▁అరూపీ	-11.1505
▁విభత్తో	-11.1508
ఛన్న	-11.1508
▁అప్పియ	-11.1511
▁పబ్బజిం	-11.1513
▁చిత్తసమ్పయుత్త	-11.1516
▁అజ్ఝావస	-11.1517
▁వేజ్జ	-11.1518
▁ఆహారసముట్ఠానం	-11.1519
కుసుమ	-11.1521
▁కరి	-11.1521
▁దాతబ్బా	-11.1521
▁సంవాస	-11.1523
వచనీయ	-11.1523
ఞ్హేతం	-11.1524
▁భిక్ఖుసఙ్ఘే	-11.1525
▁సంవరం	-11.1526
▁గణ్హేయ్య	-11.1528
▁దిబ్బేహి	-11.1528
▁భిస	-11.1529
▁తీహాకారేహి	-11.153
▁యథాసుఖం	-11.1531
▁నచ్చగీత	-11.1531
▁చోరో	-11.1532
▁పేతం	-11.1533
▁ఏతస్మా	-11.1534
ితబ్బతో	-11.1534
▁జనిన్ద	-11.1536
▁సక్కోమి	-11.1538
▁౨౨౦	-11.154
▁భద్దే	-11.154
▁అనాగామిఫల	-11.1541
▁వాయామో	-11.1543
▁అభిక్కన్తం	-11.1544
▁తిరచ్ఛానయోని	-11.1544
▁విసద	-11.1546
▁సత్తమా	-11.1546
సమాగమ	-11.1546
▁పసాదేత్వా	-11.1548
▁తేత్తింస	-11.1548
▁౧౮౮	-11.155
ాభిముఖ	-11.1551
▁పేసల	-11.1553
▁నియుత్తో	-11.1554
▁ఫస్సా	-11.1555
విసేసేన	-11.1556
▁౧౯౪	-11.1557
▁ఉపజ్ఝాయస్స	-11.156
▁వత్థుకామ	-11.1564
సప్పి	-11.1566
▁మహాయసో	-11.1568
▁పచ్ఛిమే	-11.1569
వాదిత	-11.157
▁వదామీ	-11.1571
౧౫	-11.1574
▁దాయకో	-11.1575
▁ఓప	-11.1576
▁ఆవజ్జనాయ	-11.1579
▁వూపసన్త	-11.158
▁వేపుల్లం	-11.158
ూన	-11.1582
ప్పభవ	-11.1583
▁మహన్తేన	-11.1585
సగ్గ	-11.1588
▁ఏవమత్థో	-11.1589
▁సమణధమ్మం	-11.1589
▁ద్వారే	-11.1591
▁పురేభత్తం	-11.1593
కుసలతా	-11.1594
▁చతుప్పద	-11.1594
▁తిలోక	-11.1596
▁స్వే	-11.1596
సన్తో	-11.1596
▁లో	-11.1597
ముచ్చ	-11.1598
ఉద	-11.1599
▁భుమ్మం	-11.16
ిర	-11.16
▁సమాపజ్జి	-11.1602
▁నియ్యానిక	-11.1604
▁ద్వాసట్ఠి	-11.1605
ాగమో	-11.1607
ానుకమ్ప	-11.1608
▁ఆరద్ధవీరియ	-11.1608
▁గుణో	-11.1609
▁అనేకేహి	-11.1612
ేత	-11.1612
▁పముదిత	-11.1612
▁౨౦౫	-11.1616
▁ఆరుప్ప	-11.1619
▁సంవ	-11.1619
▁విముత్తం	-11.1619
సఞ్ఞోజన	-11.1619
▁ముత్తం	-11.1621
▁దట్ఠబ్బ	-11.1622
▁చాల	-11.1622
సవో	-11.1622
రజ్జం	-11.1622
▁పాపకే	-11.1623
▁విజ్జతీతి	-11.1624
▁చిత్తో	-11.1625
▁జానితబ్బం	-11.1626
▁సారమ్భ	-11.1627
సమ్భ	-11.1628
▁కేసే	-11.1628
కమ్మన్త	-11.1629
▁సారజ్జ	-11.1629
▁విహింసా	-11.163
▁ఆవాసం	-11.1631
మిధ	-11.1632
▁చక్ఖాయతన	-11.1632
కోప	-11.1633
▁కరోన్త	-11.1636
▁ఆలోప	-11.1636
ద్వాదస	-11.1637
▁ధమ్మాయతన	-11.1639
▁దణ్డక	-11.164
▁అప్పటిఘ	-11.164
▁నివత్థ	-11.164
ుపోసథ	-11.1641
▁అత్థేసు	-11.1643
▁మహతియా	-11.1644
▁పచ్చయానం	-11.1645
▁దీపం	-11.1645
▁ఠానమేతం	-11.1646
▁సన్తికా	-11.1647
▁జలం	-11.1648
కూజ	-11.1649
▁థలే	-11.1651
▁నుప్పజ్జిస్సతీ	-11.1652
▁పఠమతరం	-11.1652
▁గమిస్సామి	-11.1653
వినిచ్ఛయకథా	-11.1653
▁అవితక్కఅవిచారం	-11.1653
▁ఆరోచేత్వా	-11.1654
▁౧౯౨	-11.1655
ఉద్ధ	-11.1655
▁ఓదన	-11.1655
సఙ్కప్ప	-11.1659
▁మాగధ	-11.166
ామిస	-11.1661
అధమ్మ	-11.1661
▁భవితబ్బ	-11.1663
ితుకామా	-11.1663
▁ముతం	-11.1664
▁పట్ట	-11.1666
భాణక	-11.1667
▁సమ్బోధ	-11.1668
రామ	-11.1668
▁వదామీతి	-11.1669
▁విత్థారిత	-11.1671
▁మరతి	-11.1672
నీయే	-11.1673
▁పఞ్చసతా	-11.1673
▁మహాసావజ్జ	-11.1674
▁పాసాదే	-11.1674
▁ఓతిణ్ణ	-11.1676
ప్ఫ	-11.1677
▁అసదిస	-11.1677
గుణో	-11.1677
▁నివాసన	-11.1678
▁సదేవక	-11.1679
మస	-11.168
▁కప్పో	-11.1682
▁గచ్ఛన్తా	-11.1682
▁అసమ్మోహ	-11.1683
▁భవేయ్యాతి	-11.1683
▁౨౦౯	-11.1684
మత్తికా	-11.1687
సారో	-11.1687
▁దవ	-11.1688
పుగ్గలోకాసా	-11.1689
▁ఆరోపే	-11.1689
▁సక్యపుత్త	-11.1696
యోజనం	-11.1697
సీమ	-11.1697
▁రున్ధ	-11.1697
౪౦	-11.1697
▁సాణ	-11.17
▁తథాగతబలం	-11.17
ఖాదనీయ	-11.1701
▁సముట్ఠితం	-11.1702
▁అక్కమ	-11.1703
▁వాణిజా	-11.1703
▁పితరా	-11.1703
నాయక	-11.1704
▁అధిప్పేతత్తా	-11.1707
▁నేరయిక	-11.1708
మణ్డలే	-11.1708
నిగ్గహ	-11.1709
▁అజానిత్వా	-11.1709
▁౧౯౭	-11.1709
యావతా	-11.1711
▁హిరి	-11.1711
▁వుసితం	-11.1712
మ్బర	-11.1714
▁కపి	-11.1714
ణ్ఠ	-11.1714
▁పఞ్చక	-11.1715
▁కమ్బల	-11.1716
▁జేట్ఠక	-11.1716
▁కస్సపస్స	-11.1717
ుపట్ఠ	-11.1718
▁అసద్ధమ్మ	-11.1718
పురం	-11.1718
ాదిఅత్థ	-11.172
▁ఉభోసు	-11.172
▁ఆగచ్ఛేయ్య	-11.1722
▁ఉపద్దవ	-11.1723
▁గామన్తర	-11.1725
▁చేతసికా	-11.1725
లాభో	-11.1726
▁ఉప్పజ్జతీ	-11.1727
వాసే	-11.1727
▁అభిసమయ	-11.1727
▁జాతిపచ్చయా	-11.1727
▁నిరవసేస	-11.1728
విక్ఖేప	-11.173
సిఖర	-11.1731
▁కల్యాణం	-11.1731
అగ్గ	-11.1732
▁తదనురూప	-11.1733
▁ఫుల్ల	-11.1734
సాసనం	-11.1735
▁బాహా	-11.1735
▁సస్సతో	-11.1737
దేసో	-11.1738
▁కథేతబ్బ	-11.1739
▁ఠితేన	-11.174
పరామాసవిప్పయుత్త	-11.1741
▁అప్పేకచ్చ	-11.1741
విముత్తిఞాణదస్సన	-11.1741
▁సేనాసనాని	-11.1741
▁అధిముచ్చ	-11.1743
▁అజ్ఝత్తికా	-11.1745
▁నిద్దిట్ఠో	-11.1746
▁వస్ససతం	-11.1746
▁౨౦౬	-11.1747
▁ఛేద	-11.1747
▁పటిపన్నా	-11.1747
▁దుక్ఖిత	-11.1749
▁అన్వ	-11.1749
▁పీణ	-11.1752
▁భణన్తి	-11.1753
▁అభవ	-11.1754
సఙ్గీతి	-11.1754
వేదనం	-11.1754
▁విచికిచ్ఛాయ	-11.1754
▁రోస	-11.1754
థి	-11.1755
▁ముచ్ఛ	-11.1755
మత్తేనేవ	-11.1757
▁ఓరుయ్హ	-11.1757
▁సమ్పజ్జతి	-11.1758
▁జానాథ	-11.1758
▁౨౦౦	-11.1762
▁పదహతి	-11.1764
మారుయ్హ	-11.1765
▁అధిట్ఠాతబ్బ	-11.1765
▁సరద	-11.1767
▁అనుయుత్తో	-11.1767
జాతిక	-11.1769
▁చతుబ్బిధో	-11.1771
చతుక్కం	-11.1772
చిత్తానం	-11.1775
▁రసే	-11.1777
విపాకం	-11.1777
గమో	-11.1779
నిదస్సనం	-11.1779
▁అపుబ్బం	-11.178
▁గుణవ	-11.1781
▁ఆగమనం	-11.1784
సాఖా	-11.1784
▁అభిముఖ	-11.1784
▁గణనా	-11.1785
పురిమ	-11.1785
పరక్కమ	-11.1789
▁ఇమినాపి	-11.1791
▁పాదేహి	-11.1792
▁ధమ్మియా	-11.1794
▁అచిర	-11.1794
తవే	-11.1797
▁వచనత్థో	-11.1797
రియా	-11.1797
దాయకత్థేరస్స	-11.1797
▁ఉళారం	-11.18
▁దిట్ఠిగతిక	-11.1804
యోపి	-11.1805
ఘం	-11.1806
▁పాతిమోక్ఖసంవర	-11.1808
▁నిగణ్ఠ	-11.1808
ఇరియాపథ	-11.1808
▁అరిట్ఠ	-11.1811
▁అహన్తి	-11.1811
▁లోకియో	-11.1812
విప్పయుత్తచిత్త	-11.1813
▁సకదాగామిఫల	-11.1814
▁సప్పాణక	-11.1814
▁ఉచ్చావచ	-11.1814
▁విహఞ్ఞ	-11.1815
పాదో	-11.1817
సల్లక్ఖణ	-11.1818
దమ	-11.1818
ేమీతి	-11.182
▁వీరియారమ్భ	-11.182
▁అదాసిం	-11.1821
ముత్తా	-11.1821
జ్ఝాయ	-11.1823
▁ఉప్పాదిత	-11.1823
▁అభినివేస	-11.1824
▁సల్లప	-11.1825
నాస	-11.1825
హట	-11.1827
▁దిట్ఠానుసయ	-11.183
▁అస్సం	-11.183
సద	-11.1831
▁పాయాసి	-11.1832
▁న్హాన	-11.1833
▁ఞత్తియా	-11.1834
▁మూలాని	-11.1834
రూపజీవితిన్ద్రియ	-11.1836
▁న్హారు	-11.1837
▁దన్తకట్ఠ	-11.1837
▁దుక్ఖనిరోధో	-11.1842
▁వీణా	-11.1843
▁కచ్ఛ	-11.1843
హాస	-11.1844
▁రతనాని	-11.1846
ప్పభా	-11.1846
▁భగ్గ	-11.1848
ానుపస్స	-11.1849
ింసూ	-11.1849
▁భుమ్మ	-11.185
▁సబ్బఞ్ఞుతఞ్ఞాణం	-11.185
▁కుముద	-11.1853
▁ఆచిక్ఖి	-11.1853
ధికార	-11.1854
▁పటిగ్గహితం	-11.1856
▁ధర	-11.1856
▁అదు	-11.1857
▁దుమ్మ	-11.1857
▁సబ్బకిలేస	-11.1857
▁విజయ	-11.1858
యాచన	-11.1858
ిన్ద్రియో	-11.1859
▁అపరిమాణ	-11.1861
▁అద్ద	-11.1861
▁బిన్దు	-11.1867
▁౨౧౩	-11.1868
▁థన	-11.1869
▁భజతి	-11.1873
▁చీవరపిణ్డపాత	-11.1874
▁పరిభుత్త	-11.1875
గత్త	-11.1877
▁అనఞ్ఞసాధారణ	-11.1877
▁విదితో	-11.1879
▁ఆభుజిత్వా	-11.188
▁లోకస్మి	-11.1881
▁వదేయ్యుం	-11.1881
▁చేతోసమ్ఫస్సజ	-11.1882
▁అభినీహార	-11.1884
మారో	-11.1885
▁ఉపసన్త	-11.1885
▁పిపాస	-11.1888
▁నదతి	-11.1889
▁౨౨౮	-11.189
▁అఙ్గజాతం	-11.1891
యుగం	-11.1894
పకరణ	-11.1894
▁యోజిత	-11.1894
▁చీవరాని	-11.1896
▁ధారేన్తి	-11.1899
▁నవహి	-11.1901
▁చేతియస్స	-11.1902
ప్పత్తి	-11.1903
▁ఛుప	-11.1905
ప్పమాణా	-11.1905
▁కప్పం	-11.1907
సచ్చపరియోసానే	-11.1908
▁పిత్త	-11.1909
పరియాదాన	-11.1911
ఘటనా	-11.1912
చేతనాయ	-11.1912
▁నది	-11.1914
దుట్ఠ	-11.1915
▁మనోరమా	-11.1915
భావతోతి	-11.1919
▁పసీద	-11.192
▁పదహ	-11.1921
సుణ	-11.1921
▁భత్తు	-11.1921
వసం	-11.1922
▁కిల	-11.1923
▁౨౧౬	-11.1923
▁౨౩౪	-11.1924
▁నిరోధే	-11.1925
▁అబ్యాపాద	-11.1928
▁యతి	-11.1928
పచ్చయస్స	-11.1928
▁వస్సికసాటిక	-11.1929
▁హదయే	-11.1929
సబ్భావతో	-11.193
▁అధికం	-11.193
▁కయవిక్కయ	-11.193
▁అగ్గహేసి	-11.193
▁పదచ్ఛేదో	-11.193
▁అభిధమ్మభాజనీయ	-11.1931
▁పాదమూలే	-11.1932
▁౨౩౬	-11.1933
▁ఆరుళ్హ	-11.1933
▁ఉపమాయ	-11.1935
▁ధోత	-11.1937
▁సప్పటిఘ	-11.1938
▁తాది	-11.1939
▁బలవతర	-11.194
▁మన్దో	-11.1942
▁సముట్ఠానాదీని	-11.1943
▁విరతో	-11.1944
వత్థుకథావణ్ణనా	-11.1945
▁ఆదాస	-11.1945
విసయం	-11.1947
▁సారాగో	-11.1948
▁౨౩౮	-11.195
అత్థే	-11.1951
▁సబ్బథాపి	-11.1951
సముట్ఠానో	-11.1953
▁౨౧౮	-11.1954
సీత	-11.1954
▁సన్తీరణ	-11.1955
▁సబ్బధి	-11.1956
▁ఖాదిత్వా	-11.1958
ేయ్యున్తి	-11.1958
విల	-11.1963
▁పఞ్చదస	-11.1965
మిచ్చాది	-11.1966
▁ఉపచయో	-11.1966
▁నేత్తి	-11.1967
▁సుచరిత	-11.1967
▁పముఖ	-11.1968
▁అసక్కుణేయ్య	-11.197
▁అతీతో	-11.1976
దుగ్గ	-11.1977
▁కామధాతు	-11.1978
▁జలిత	-11.1978
▁విపాకానం	-11.1981
▁౨౦౩	-11.1983
▁ఉపకారక	-11.1984
▁౨౧౦	-11.1985
▁యసస్సి	-11.1986
సూచి	-11.1987
▁నిరోధసమాపన్న	-11.1989
▁కామూపసంహితా	-11.199
▁చిణ్ణ	-11.199
▁రుక్ఖమూల	-11.199
▁చఞ్ఞే	-11.199
▁అహిత	-11.1992
▁పసారేత్వా	-11.1992
▁యోగినో	-11.1992
సాత	-11.1994
▁తథారూపం	-11.1994
▁క్రియత్థా	-11.1995
▁దణ్డేన	-11.1996
భవఙ్గ	-11.1997
▁మచ్చునో	-11.2
▁భిన్నా	-11.2002
▁అనుభవిత్వా	-11.2002
మథ	-11.2002
▁కుణ్డల	-11.2003
భావఞ్చ	-11.2003
▁సామఞ్ఞతో	-11.2006
ాదిక	-11.2007
▁కింకారణా	-11.2008
ాదీనన్తి	-11.201
న్తస్సాతి	-11.2015
▁కుట	-11.2018
▁అనేకాని	-11.202
▁అన్నపాన	-11.202
తుల	-11.202
▁సిక్ఖేయ్య	-11.2022
▁కాయదుచ్చరిత	-11.2022
వచనో	-11.2022
బ్యాకరణ	-11.2025
▁మోహా	-11.2026
▁మహి	-11.2026
లఙ్కార	-11.2027
సోతాపత్తిఫలాదీని	-11.2027
▁ఆజీవక	-11.2029
ితానం	-11.2029
▁మజ్ఝిమా	-11.2029
▁నిరోధసచ్చం	-11.2031
▁సేయ్యా	-11.2031
▁ఫలే	-11.2031
▁సమ్పయుత్తస్స	-11.2034
▁౧౯౯	-11.2038
▁విముత్తియా	-11.204
ుద్ధార	-11.204
సేచన	-11.2041
▁ఆభతం	-11.2041
▁అజానన్త	-11.2041
▁తావతింస	-11.2042
పల్లవ	-11.2042
▁భావనామయ	-11.2044
రాజి	-11.2044
▁సేనాసనే	-11.2044
ేస్సామీతి	-11.2046
▁పరిగ్గణ్హ	-11.2046
▁పహారం	-11.2047
▁బాహియ	-11.2047
▁అరోగో	-11.2048
▁౨౩౭	-11.2048
▁మహిద్ధికో	-11.2048
▁అప్పీతిక	-11.205
▁మజ్ఝిమం	-11.205
▁నిరన్తర	-11.205
▁౨౪౩	-11.2051
▁నిసీదాపేత్వా	-11.2052
▁పంసుకూలిక	-11.2052
▁భయానక	-11.2054
▁నిమన్తేత్వా	-11.2054
▁అవితక్కం	-11.2054
▁దీపితా	-11.2055
▁కుసలచిత్త	-11.2056
▁జి	-11.2058
▁సుభం	-11.2058
▁విభావేతి	-11.2058
▁అఞ్ఞతిత్థియా	-11.2062
▁సురామేరయ	-11.2065
▁ఉస్సుక్కం	-11.2065
▁యథావుత్తం	-11.2065
▁విసాఖే	-11.2069
▁బ్యసన	-11.2069
▁౨౦౮	-11.207
పరిగ్గహో	-11.207
▁నప్పజహన్తి	-11.207
▁సబ్బసత్తానం	-11.207
స్	-11.2072
▁ఆగతోతి	-11.2072
క్ఖన్ధా	-11.2073
ూపమో	-11.2073
▁భవిస్స	-11.2074
▁దజ్జా	-11.2075
▁పరేన	-11.2075
▁రమ్మే	-11.2076
▁పరిమణ్డల	-11.2077
బ్రూహ	-11.2077
▁ఉన్నత	-11.208
▁మఞ్ఞేయ్య	-11.2081
▁అనోత్తప్పం	-11.2084
▁అయోనిసోమనసికార	-11.2085
▁దానేన	-11.2085
▁పోథ	-11.2087
భాజ	-11.2089
నిపాతో	-11.2089
▁దీపేన్తి	-11.209
▁అపదానే	-11.209
▁నిస్సరణఞ్చ	-11.209
▁సమథా	-11.2093
▁అనుపాదా	-11.2093
▁విఞ్ఞాణే	-11.2093
▁పచ్చేకసమ్బుద్ధో	-11.2094
▁౨౧౯	-11.2094
హేతుదుకం	-11.2096
▁వీమంసా	-11.2097
వుట్ఠి	-11.2098
పత్తా	-11.2099
ిస్సరో	-11.21
▁నామగోత్త	-11.21
▁అవేక్ఖ	-11.2101
▁వచ్చ	-11.2103
▁నిబ్బానాయ	-11.2105
▁ఉపసన్తో	-11.2105
▁జీవికం	-11.2106
▁ఉభిన్నమ్పి	-11.2107
▁పణిధీతి	-11.2107
▁ధమ్మసభాయం	-11.2107
▁మహీపతి	-11.2107
▁పవత్తియం	-11.2108
▁పుఞ్ఞకమ్మేన	-11.2109
▁తువ	-11.2109
▁సమిద్ధ	-11.211
▁పఞ్చకామగుణ	-11.211
▁నారియో	-11.2112
▁పరిక్ఖిపిత్వా	-11.2113
▁౨౩౩	-11.2113
▁౨౩౦	-11.2114
▁పఞ్చవోకారానం	-11.2115
▁గతిం	-11.2118
య్యా	-11.2118
▁గన్ధకుటి	-11.2119
థు	-11.212
▁రో	-11.212
▁సబ్బనామ	-11.2123
▁పతిరూప	-11.2124
▁ఘటేత్వా	-11.2125
▁అపరాధ	-11.2126
▁అన్తరాయో	-11.2127
క్కమ్మ	-11.2128
▁౨౦౧	-11.2132
▁దట్ఠుం	-11.2133
త్తన్తి	-11.2133
▁హితసుఖ	-11.2138
▁విపచ్చ	-11.2138
▁సుదిన్న	-11.2139
▁విభాగ	-11.214
▁చీవరేన	-11.2141
▁పటిక్ఖేపో	-11.2142
▁విగ్గహ	-11.2142
▁అపరమ్పి	-11.2144
▁నీవరణసమ్పయుత్త	-11.2144
వివరణ	-11.2145
పణిహిత	-11.2147
▁అనూన	-11.215
▁నిగ్	-11.215
▁దేసేతబ్బ	-11.2151
విభత్త	-11.2153
కూటం	-11.2153
▁నికాయ	-11.2155
వినిచ్ఛయం	-11.2155
▁వికిర	-11.2155
▁అరూపావచరానం	-11.2156
▁వస్సే	-11.2158
▁అగ్గిక్ఖన్ధ	-11.216
▁అగ్గసావక	-11.2162
ద్ధా	-11.2165
▁అగ్గివేస్సన	-11.2166
▁సళాయతనం	-11.2167
▁విబ్భమ	-11.2168
▁సమూహతా	-11.2168
▁పాతి	-11.2169
▁ఉప్పతిత్వా	-11.217
పటల	-11.2171
▁ధమ్మవిచయో	-11.2171
▁౨౨౯	-11.2171
నిస్సితో	-11.2175
ప్పదేసే	-11.2177
ద్ధజ	-11.2177
▁తస	-11.2181
▁కీదిసం	-11.2183
ికోతి	-11.2184
సమ్మత	-11.2187
▁౨౦౪	-11.2187
ఉచ్చ	-11.2188
▁దక	-11.2188
▁ఆచర	-11.2189
▁ఏత్తకమేవ	-11.2193
భుజ	-11.2194
▁నిక్ఖమతి	-11.2194
▁సియన్తి	-11.2195
▁అక	-11.2196
▁సబ్బసఙ్ఖార	-11.2197
మద్దన	-11.22
▁నోఉపాదాన	-11.2203
తావ	-11.2205
▁హాయ	-11.2206
రత్తి	-11.2206
▁ఫుట్ఠస్స	-11.2207
▁సబ్బతో	-11.2207
▁అప్పమత్తా	-11.2209
▁అప్పవత్త	-11.2209
▁ఆదాన	-11.2211
▁హన్తి	-11.2211
▁ఇతీతి	-11.2212
▁పీతిసమ్బోజ్ఝఙ్గ	-11.2215
▁సమ్పటిచ్ఛన	-11.2215
▁కమ్మవాచాయ	-11.2216
▁ఠపేతబ్బ	-11.2217
▁కుటిం	-11.2218
▁విచరతి	-11.2218
▁విజానాతి	-11.2218
▁సమణబ్రాహ్మణానం	-11.2219
▁ఏకవీసతి	-11.222
▁ఉపాహన	-11.2222
▁తాదిసస్స	-11.2223
▁అన్తరం	-11.2223
సంవాస	-11.2225
▁యావతతియం	-11.2226
▁విఞ్ఞాతబ్బో	-11.2226
ఇచ్చేవ	-11.2226
▁ఘమ్మ	-11.2227
▁పవత్తత్తా	-11.2228
▁పుచ్ఛితా	-11.223
ేన్తేన	-11.223
చత్తారిమాని	-11.2231
కిర	-11.2231
▁౨౦౨	-11.2232
▁అయమాయస్మా	-11.2233
▁తూరియ	-11.2233
▁౨౩౨	-11.2233
కమేవ	-11.2233
పథో	-11.2233
ాచరియో	-11.2234
▁ఉదాహరణ	-11.2234
▁సంవత్తన్తీ	-11.2235
▁సమాదియిత్వా	-11.2235
▁ఫోట్ఠబ్బా	-11.2237
▁సారమ్మణ	-11.2238
చ్చేవ	-11.2238
త్థికా	-11.224
▁సఙ్గహేత్వా	-11.2242
▁వరో	-11.2242
పవారణా	-11.2242
▁మాతఙ్గ	-11.2243
▁౨౧౨	-11.2244
▁కుట్ఠ	-11.2244
▁అనుసన్ధి	-11.2244
▁ధమ్మరాజా	-11.2244
▁సావకే	-11.2246
▁కారుఞ్ఞ	-11.2249
▁౨౧౪	-11.2249
▁మాతుగామేన	-11.2249
▁ఏవరూప	-11.225
▁నయిదం	-11.225
▁౨౧౧	-11.225
▁కాకో	-11.2252
▁నాళి	-11.2252
ధాతుయో	-11.2252
▁దస్సనీయ	-11.2254
▁చాహం	-11.2254
దినా	-11.2255
▁చాప	-11.2255
▁ఇమాసం	-11.2256
గమనేన	-11.2256
▁౨౨౪	-11.226
ఏకో	-11.2262
▁నిమ్మ	-11.2262
▁ఆతప	-11.2263
▁అభిన్న	-11.2263
▁౨౨౧	-11.2263
వత్థూ	-11.2263
మయే	-11.2263
▁పరామాసో	-11.2264
▁పాదేసు	-11.2265
▁అధిమోక్ఖో	-11.2267
ావి	-11.2268
వివిత్త	-11.2268
▁సీహనాద	-11.227
నేతం	-11.2271
యోగ్గ	-11.2273
నిద్దిట్ఠ	-11.2274
▁౨౨౫	-11.2275
▁సంయుత్త	-11.2275
మదో	-11.2277
లబ్భ	-11.2285
ాలి	-11.2286
▁చోళ	-11.2286
▁సుఖవిపాక	-11.2287
▁గున్నం	-11.2287
▁పటిలాభో	-11.2289
▁సుత్తాని	-11.2289
▁కారణన్తి	-11.229
ప్పచ్చయా	-11.229
▁వవత్థపేతి	-11.2291
▁అనుపసమ్పన్న	-11.2291
▁దోసస్స	-11.2292
▁అత్తహితాయ	-11.2292
▁సమిద్ధి	-11.2292
▁వణ్ణవాదీ	-11.2292
▁వివద	-11.2294
▁భాసిస్సామీ	-11.2295
▁వత్తమానా	-11.2299
▁బ్యసనం	-11.2299
ుస్సద	-11.2299
▁మగ్గసచ్చఞ్చ	-11.23
▁౨౨౬	-11.2301
▁ద్విత్తం	-11.2301
▁పుచ్ఛింసు	-11.2301
పభేద	-11.2304
▁అన్ధకారే	-11.2306
ఉతు	-11.2307
▁౨౨౨	-11.2307
▁ఏతిస్సా	-11.2308
యతీ	-11.2309
▁పిహిత	-11.2309
▁పరిసాసు	-11.231
ఫలో	-11.2311
ోకాసో	-11.2312
▁కుసలఞ్చ	-11.2313
▁చతురఙ్గ	-11.2313
▁సచిత్తక	-11.2313
▁వక్ఖామి	-11.2316
▁అహితాయ	-11.2316
▁పతిత్వా	-11.2318
▁వదే	-11.2318
▁ధున	-11.2319
▁అపరిపుణ్ణ	-11.2321
▁ఆరామం	-11.2322
జ్ఝో	-11.2325
సూర	-11.2325
▁గణ్హతో	-11.2325
న్తేవ	-11.2327
▁ఫలదాన	-11.2327
నివేసన	-11.2329
▁వినోద	-11.233
▁అరూపావచరం	-11.233
వన్దన	-11.2331
▁తదను	-11.2331
▁వలాహక	-11.2332
మత్తన్తి	-11.2333
హతో	-11.2333
పిట్ఠే	-11.2334
▁బోధిపక్ఖియ	-11.2334
పరం	-11.2335
▁జీయ	-11.2338
▁౨౧౭	-11.234
భావేనాతి	-11.2341
▁సుణన్తి	-11.2342
▁ముత	-11.2344
గరుక	-11.2344
▁పతిట్ఠాపే	-11.2344
▁సోయేవ	-11.2345
భరిత	-11.2345
▁పరిభుఞ్జితబ్బ	-11.2346
▁విదిత	-11.2346
▁కపిల	-11.2347
మహాపురిసలక్ఖణ	-11.2347
▁ఉత్త	-11.2348
▁వక్క	-11.2349
▁భరియాయ	-11.2349
▁హఞ్ఞ	-11.2349
ాదివణ్ణనా	-11.235
▁యత్తకం	-11.2351
పరియాపన్నో	-11.2354
▁మహాపథవీ	-11.2354
▁ఆనేఞ్జ	-11.2355
▁రాజకుల	-11.2355
▁పేక్ఖమానో	-11.2355
చ్ఛాదన	-11.2355
▁విధమ	-11.2356
సాలాయ	-11.2356
▁ఉపట్ఠాకో	-11.2359
▁పరిక్ఖీణ	-11.2359
▁వణ్ణా	-11.2359
▁నప్పటి	-11.236
▁కరణీయేన	-11.2362
▁దసాతి	-11.2364
▁వత్తబ్బమేవ	-11.2364
▁ఆపుచ్ఛిత్వా	-11.2365
పారుత	-11.2366
▁౨౩౫	-11.2367
▁నిద్దా	-11.2368
▁యత్తక	-11.2369
▁మహావిహార	-11.2369
▁పరివేణ	-11.237
▁పహితత్తో	-11.2371
▁సమ్మాసమ్బోధిం	-11.2373
▁లేణ	-11.2373
ాచ	-11.2374
▁విఞ్ఞేయ్యం	-11.2374
▁డ	-11.2375
▁పభాస	-11.2377
▁ఉక్ఖిత్తక	-11.2377
సముదయ	-11.2377
▁అప్పేవ	-11.2379
▁సఞ్చరిత్త	-11.2379
ఇత్థి	-11.238
▁సీతం	-11.2381
▁అప్పసద్ద	-11.2382
▁దాసో	-11.2383
ిసు	-11.2383
▁మహన్తే	-11.2384
▁విసాల	-11.2387
▁ఆభా	-11.2389
ప్పయోజన	-11.239
▁సఙ్గణ్హ	-11.2391
▁ఆల	-11.2393
▁సపరివార	-11.2394
సూప	-11.2394
▁పాపకో	-11.2395
బ్భన్తర	-11.2395
మిత	-11.2395
సఙ్కేత	-11.2396
సనం	-11.2396
కిలేసో	-11.2396
స్సరో	-11.2397
అత్థో	-11.2399
▁కిత్తావతా	-11.24
▁విక్ఖేప	-11.2403
తుకామో	-11.2403
దేయ్య	-11.2406
▁పపఞ్చసూదనియా	-11.2408
▁పాతురహోసి	-11.2408
ఉప్పన్న	-11.2409
▁ఉట్ఠా	-11.2409
▁సీలే	-11.2413
▁మోఘ	-11.2413
మణ్డ	-11.2413
వతియా	-11.2414
▁ఆవసథ	-11.2415
▁నోపరామాస	-11.2415
▁౨౪౦	-11.2416
▁ఇద్ధ	-11.2417
▁చిత్తచేతసికా	-11.2418
▁ఉపపజ్జేయ్య	-11.2419
విసయత్తా	-11.242
▁తావకాలిక	-11.242
▁సమ్మస	-11.2421
▁ఏసనా	-11.2421
▁౨౨౭	-11.2421
▁అరియపుగ్గల	-11.2422
ధజ	-11.2423
▁పబ్బజితస్స	-11.2423
▁సాధన	-11.2424
ాదిభావేన	-11.2425
▁విజ్ఝిత్వా	-11.2425
ావహం	-11.2426
▁౨౨౩	-11.2427
▁ఆరోచేతి	-11.2427
▁సఞ్జానాతి	-11.2433
ఖీర	-11.2435
▁మనోవిఞ్ఞాణ	-11.2436
విలాస	-11.2437
▁నారద	-11.2438
ధిప్పేత	-11.2439
▁అచేతసిక	-11.2439
▁ధురనిక్ఖేప	-11.2442
▁వత్తా	-11.2442
అన్తర	-11.2443
▁మహతీ	-11.2444
▁అగ్గినా	-11.2445
▁విహేస	-11.2445
▁ఉగ్గహిత	-11.245
▁కుణప	-11.2451
▁అహుం	-11.2453
సమత్థతా	-11.2455
పాదా	-11.2456
▁పటిచ్చసముప్పాదో	-11.2456
▁పటిపత్తిం	-11.2456
▁విఞ్ఞేయ్యో	-11.2456
▁సమ్పదా	-11.2459
▁భావేన	-11.2463
ాపయి	-11.2463
▁గు	-11.2465
ళార	-11.2465
▁లిచ్ఛవి	-11.2469
▁వుద్ధిం	-11.2469
▁ఆచరియుపజ్ఝాయ	-11.247
▁జాతిజరామరణ	-11.2471
▁దుట్ఠుల్ల	-11.2471
▁నప్పజహతీతి	-11.2472
ాహరణ	-11.2472
▁భవిస్సామీ	-11.2472
▁పబ్బజ్జాయ	-11.2474
▁ఉక్కణ్ఠ	-11.2474
పచ్చనీయానులోమం	-11.2475
విమానవణ్ణనా	-11.2476
▁రి	-11.2478
▁పాదో	-11.2478
▁పకాసేసి	-11.2478
డి	-11.2479
సముదయం	-11.2481
▁పస్ససి	-11.2481
▁సదిసా	-11.2481
ధాతుం	-11.2484
▁భోతి	-11.2484
గమ్మ	-11.2485
వోహారేన	-11.2485
▁సమ్పజ్జ	-11.2485
▁ఆవరణ	-11.2486
ుణ	-11.2487
▁నోనీవరణ	-11.2488
బన్ధు	-11.2488
▁మరణేన	-11.2489
▁సరం	-11.2489
సేక్ఖ	-11.249
▁అజానన్తస్స	-11.2491
త్వాన	-11.2492
▁దుహేతుక	-11.2494
▁అనాథ	-11.2496
▁ఆసవసమ్పయుత్తో	-11.2501
▁నిట్ఠం	-11.2504
తాదీహి	-11.2505
▁అగ్గే	-11.2506
▁ద్వేధా	-11.2506
నులోమపచ్చనీయం	-11.2509
▁సారిపుత్తత్థేర	-11.251
భిన్ద	-11.2512
సద్దతో	-11.2512
▁చిన్తా	-11.2513
▁పునప్పున	-11.2513
▁ఖీయతి	-11.2514
▁౨౩౯	-11.2515
▁కోట్ఠాసో	-11.2515
▁పవేద	-11.2516
వాసీనం	-11.2516
▁పరియోసానే	-11.2516
▁అత్తాతి	-11.2518
▁నిసీదితబ్బం	-11.252
▁౨౩౧	-11.2521
▁సతిపట్ఠానే	-11.2521
హేతుతో	-11.2523
▁వుట్ఠానస్స	-11.2524
▁కులపుత్తా	-11.2525
మిచ్చేవ	-11.2525
భుయ్య	-11.2525
▁పవారణం	-11.2526
▁జీవితే	-11.2526
▁పామోజ్జ	-11.2526
▁నయా	-11.2529
▁పరిహార	-11.253
▁సముట్ఠాప	-11.2531
▁పుట	-11.2533
▁జానాహి	-11.2534
▁పాసాదో	-11.2535
▁పురిసపుగ్గలో	-11.2535
▁కరోమీ	-11.2535
▁హేస	-11.2536
▁ధితి	-11.2536
పతీ	-11.2537
▁కారణే	-11.2537
▁ఉప్పజ్జన	-11.2538
▁అకుసలవిపాక	-11.254
▁సఠ	-11.2542
▁దాసీ	-11.2544
బ్యసన	-11.2545
▁ఏకవిధేన	-11.2547
▁సహసేయ్య	-11.2548
పురిసా	-11.2551
▁పాణినో	-11.2553
▁పుఞ్ఞేన	-11.2554
▁లాభసక్కారసిలోక	-11.2554
▁కుదాస్సు	-11.2554
నత్థో	-11.2559
▁మిత	-11.256
ముగ్గ	-11.2562
▁లద్ధనామ	-11.2564
ఘాతక	-11.2564
భాజనం	-11.2565
▁ఉపవస	-11.2567
▁గణో	-11.2568
మరియాద	-11.257
▁పదేసం	-11.2572
▁నగరస్స	-11.2572
▁హతో	-11.2572
ల్య	-11.2574
▁నియ్యాత	-11.2575
బహూ	-11.2575
‘‘	-11.2575
ాధిప	-11.2576
▁పతిట్ఠాన	-11.2576
క్ఖమ	-11.2576
▁గోత్రభుస్స	-11.2579
▁ఖణిక	-11.2579
ేయ్యాసీ	-11.2582
▁సమ్బోధాయ	-11.2584
▁అచ్చి	-11.2584
విసేసా	-11.2585
▁పమత్త	-11.2587
▁ఉద్ద	-11.2588
నిప్ఫాదన	-11.2589
▁జినం	-11.2591
విసుద్ధ	-11.2591
▁నివేసన	-11.2591
▁కిస్మిఞ్చి	-11.2592
▁పచిత్వా	-11.2592
▁బ్యత్తేన	-11.2592
▁పరిగ్గహో	-11.2593
▁బాళ్హ	-11.2593
▁వయప్పత్తో	-11.2595
▁ఉపాగమి	-11.2596
▁తస్మిఞ్చ	-11.2596
ఏసో	-11.2596
సముగ్ఘాత	-11.2596
▁పఠమపారాజిక	-11.2596
హతం	-11.2597
గ్గహణే	-11.2598
▁పబ్బజిస్సామి	-11.2598
ాహారో	-11.2598
బద్ధో	-11.2599
▁తణ్హక్ఖయ	-11.26
విపస్సనాయ	-11.2601
▁అగ్గమగ్గసమఙ్గీ	-11.2601
▁తేయేవ	-11.2604
▁సమే	-11.2605
▁గణ్హితుం	-11.2607
వితాన	-11.2609
▁దుల్లభో	-11.261
▁అవస్స	-11.2613
▁వివాదాధికరణం	-11.2614
▁దుబ్భిక్ఖ	-11.2616
బ్రహ్మా	-11.2617
▁గీవా	-11.2617
▁విసేసేత్వా	-11.2618
కామం	-11.2619
▁మద్ది	-11.262
▁కోట్ఠ	-11.2625
▁అభిరమ	-11.2625
▁ఉపసమ్పాదే	-11.2625
▁మహాసముద్దో	-11.2628
గ్ఘనక	-11.2631
▁దేయ్యధమ్మ	-11.2634
▁పరిక్ఖారో	-11.2636
▁ఉపాదారూప	-11.2636
▁మహగ్గతో	-11.2636
▁కాసావ	-11.264
గుళ	-11.2641
పచ్చయేన	-11.2641
సారీ	-11.2641
కమ్మన్తి	-11.2642
▁అఖణ్డ	-11.2645
అచ్ఛరియం	-11.2647
▁కుసలాబ్యాకత	-11.2648
▁లచ్ఛ	-11.2648
▁పారాజికా	-11.265
భావిత	-11.2651
▁పటిభానపటిసమ్భిద	-11.2652
▁యథాపి	-11.2652
చరియాయ	-11.2653
నవక	-11.2654
వసేనపి	-11.2655
మజ్ఝత్త	-11.2655
▁పటిస్సుత్వా	-11.2656
▁ఆరాధ	-11.2656
▁ఝానఙ్గ	-11.2658
గబ్భో	-11.2658
▁పబ్బాజేతబ్బో	-11.2658
సరిక్ఖ	-11.266
▁పట్ఠపేత్వా	-11.2661
▁ఇతరథా	-11.2661
▁దమ్మి	-11.2662
▁యకార	-11.2662
▁వుత్తనయత్తా	-11.2662
▁కారణభూత	-11.2663
▁సఉత్తర	-11.2665
▁అప్పత్వా	-11.2666
▁రథేసభ	-11.2666
▁పేమం	-11.2667
సఙ్ఖాతానం	-11.2668
▁పచ్చుప్పన్నా	-11.2669
న్థ	-11.2669
ాభిముఖో	-11.267
▁సముదయసచ్చఞ్చ	-11.2671
▁విరోచతి	-11.2672
▁ఫోట్ఠబ్బం	-11.2672
▁కమ్మఫల	-11.2672
▁సమాసే	-11.2673
త్తేపి	-11.2677
▁నానాకరణం	-11.2677
▁అనుస్సతి	-11.2677
▁పీతిసహగతో	-11.2678
▁మనుస్సభూతా	-11.2678
▁అసార	-11.2679
నిరుత్తి	-11.2679
ాహు	-11.2681
▁జప్ప	-11.2682
▁అస్సద్ధియ	-11.2683
పటిఞ్ఞం	-11.2683
▁ధారేన్త	-11.2684
▁భవనం	-11.2684
ఇచ్చ	-11.2685
▁నదాది	-11.2685
▁దుగ్గ	-11.2687
▁సూరియే	-11.2688
▁దిట్ఠిగతానం	-11.2689
▁౨౪౨	-11.2691
▁జేతవనం	-11.2691
▁మగ్గహేతుక	-11.2691
▁నిసజ్జాయ	-11.2692
▁సదిసం	-11.2695
సమ్మతో	-11.2695
ేస్సతీ	-11.2697
▁మోక్ఖో	-11.2697
విసయా	-11.2698
▁సముదాచర	-11.2698
ానో	-11.2698
▁ఆణాప	-11.2699
▁సమ్మజ్జ	-11.27
▁పరలోకే	-11.27
మేవా	-11.2701
పరిదీపన	-11.2702
▁భవరాగానుసయ	-11.2704
పరివత్తన	-11.2705
▁కీ	-11.2705
▁ఉణ్హం	-11.2707
పరిబ్బాజక	-11.2708
▁సచ్చానం	-11.2709
▁అనురక్ఖ	-11.271
చమ్మం	-11.271
▁నామికపదమాలా	-11.2711
ముట్ఠ	-11.2711
▁పణిధి	-11.2712
▁చతుబ్బిధా	-11.2712
దేవీ	-11.2712
ాగార	-11.2714
▁సచ్ఛికిరియా	-11.2714
కహాపణ	-11.2714
▁సరీరస్స	-11.2715
▁భావనం	-11.2716
▁సన్తిట్ఠతి	-11.2719
▁అయఞ్హేత్థ	-11.2719
ప్పయోగో	-11.2719
▁సద్దాయతనం	-11.272
ిహ	-11.2721
పూతి	-11.2725
▁జానితుం	-11.2726
పితా	-11.2726
▁సారత్తో	-11.2727
▁సుత్తేసు	-11.2728
▁రోహణ	-11.2728
▁సమాపత్తియా	-11.2728
▁సాసవో	-11.2729
▁అరహతీతి	-11.2733
▁సిథిల	-11.2735
▁ఖన్తిం	-11.2736
▁గబ్భం	-11.2737
▁సమ్మాసమ్బుద్ధా	-11.2737
▁పత్థనాయ	-11.2738
పచ్ఛిమచిత్తస్స	-11.2739
▁సన్న	-11.2739
▁వాతేన	-11.2739
▁రుచి	-11.2739
▁అభ	-11.2742
▁నిరా	-11.2742
▁హరి	-11.2743
గామినీ	-11.2743
▁సానుసయోతి	-11.2744
▁సీమాయ	-11.2744
ుమ	-11.2744
▁విసాఖా	-11.2747
రఞ్ఞ	-11.2748
▁ధమ్మికం	-11.2749
▁సమాపన్న	-11.2749
▁౨౪౧	-11.2749
▁సస్సతదిట్ఠి	-11.2749
▁దుక్ఖసచ్చఞ్చ	-11.2749
బలవ	-11.275
▁గన్థవిప్పయుత్త	-11.275
▁యదేవ	-11.2752
▁ద్వయ	-11.2753
▁మఞ్ఞన్తి	-11.2755
▁మహగ్గతం	-11.2756
విఞ్ఞాణం	-11.2756
▁అథోపి	-11.2758
▁అట్ఠిక	-11.2758
▁బారాణసి	-11.2758
▁వమ్మిక	-11.276
▁సఙ్ఖతం	-11.2762
వ్హే	-11.2768
▁విక్ఖమ్భిత	-11.2769
లోకం	-11.2769
▁సమ్మత్త	-11.2769
▁తదహు	-11.2773
పదా	-11.2775
▁థు	-11.2775
తరే	-11.2775
ాసనం	-11.2777
మానత్త	-11.2778
ితేన	-11.2779
క్కోస	-11.2779
ధాతూ	-11.2779
▁ఏకేకస్స	-11.278
▁వుత్తలక్ఖణ	-11.2781
చతున్నవుతి	-11.2782
పావురణ	-11.2782
దోసా	-11.2782
▁అనాగతారమ్మణ	-11.2783
▁ఇత్థిపురిస	-11.2783
అనన్తర	-11.2783
▁గన్ధాయతనం	-11.2783
▁అన్తలిక్ఖే	-11.2783
▁ద్విక్ఖత్తుం	-11.2784
▁తబ్బి	-11.2785
▁పరదార	-11.2785
బిన్దు	-11.2785
▁పథవీకసిణ	-11.2787
▁విప్పముత్త	-11.279
క్ఖేత్త	-11.2793
▁హు	-11.2793
▁కతకిచ్చ	-11.2793
లప	-11.2794
▁ఇధావుసో	-11.2794
మయి	-11.2795
▁కమ్మజ	-11.2798
విరతి	-11.2799
▁అసాత	-11.2804
▁కథన్తి	-11.2804
▁అనుప్పత్తా	-11.2806
తాళ	-11.2808
▁ఉపాసకం	-11.2808
బ్భవ	-11.281
▁నిచ్చల	-11.281
▁మలం	-11.2811
సారం	-11.2815
▁ఫుట	-11.2819
▁సమాధినా	-11.2827
▁గమిస్సతి	-11.2829
చ్ఛాయ	-11.2829
▁పాపే	-11.2829
కిరియం	-11.2832
▁తిట్ఠన్త	-11.2832
▁ఇన్ద్రియసంవర	-11.2833
▁సేతు	-11.2833
సక్కో	-11.2835
▁హరన్తి	-11.2836
లోల	-11.2837
ఉపనిస్సయ	-11.2839
వివాద	-11.2841
ేయ్యు	-11.2841
▁ముద్ధ	-11.2842
▁నప్పజానన్తి	-11.2846
▁సణ్ఠాతి	-11.2846
▁అసమ్భిన్న	-11.2846
▁విచక్ఖణో	-11.2846
▁పసన్నమానసో	-11.2846
▁అనావిల	-11.2846
▁ఇస్సరియం	-11.2848
ధాయ	-11.2848
▁ఉపట్ఠపేత్వా	-11.2848
▁సంసయో	-11.2849
▁తిచీవర	-11.2849
▁రూపధమ్మ	-11.285
▁మానత్త	-11.285
▁పవివిత్త	-11.285
▁విహిత	-11.2851
▁సక్కర	-11.2851
మూలా	-11.2851
ఇతిపి	-11.2851
▁పటిబలేన	-11.2852
▁యథాసమ్భవం	-11.2855
సుక్క	-11.2856
మనుసాస	-11.2858
విపాకో	-11.2859
▁సామణేరస్స	-11.286
ప్పత్తియా	-11.2862
నన్త	-11.2863
యామి	-11.2865
▁అపరియాపన్నా	-11.2865
▁పజహన్తో	-11.2866
సఙ్గహం	-11.2867
అల	-11.2867
వస్సో	-11.2869
▁అజ్జేవ	-11.2873
▁పజహథ	-11.2874
▁సత్థుసాసన	-11.2875
▁అభిసమయో	-11.2876
▁ఛేకో	-11.2877
▁సాసప	-11.2878
▁మిగో	-11.2879
▁కలహం	-11.288
ఞ్జలి	-11.288
రణే	-11.2881
▁విఞ్ఞాపేతి	-11.2882
▁దేన్త	-11.2882
పోతక	-11.2883
జయ	-11.2884
▁ఉభోహి	-11.2884
దస్సనా	-11.2889
▁కఙ్ఖం	-11.2891
▁యాయం	-11.2892
▁పుబ్బా	-11.2893
▁ఆరా	-11.2895
▁ఇన్ద్రియన్తి	-11.2895
▁హోతూతి	-11.2896
▁గాథాసు	-11.2896
▁దర	-11.2896
▁కథినుద్ధారో	-11.2898
▁యమ్హి	-11.2898
▁మత్థక	-11.2902
▁పచ్ఛాజాతే	-11.2902
వాచాయ	-11.2902
▁రుప్పన	-11.2905
▁పబ్బతా	-11.2905
▁భజన్తి	-11.2906
▁గణం	-11.2906
పరియోసానా	-11.2909
▁వియాకాసి	-11.291
▁కాయసుచరిత	-11.291
▁అనాసవ	-11.291
▁దలిద్ద	-11.2911
▁రూపారమ్మణం	-11.2911
సమఞ్ఞా	-11.2912
▁తూల	-11.2913
▁మరణస్స	-11.2913
ణ్ణో	-11.2913
▁సఙ్ఖారుపేక్ఖా	-11.2913
మూలకే	-11.2914
▁మచ్ఛరియం	-11.2915
▁ఏళక	-11.2916
▁పతితం	-11.2916
▁కథన	-11.2916
వాణిజ	-11.2917
▁బ్రహ్మచరియవాసో	-11.2917
దేవా	-11.2918
తుమ్హాకం	-11.2919
▁ఇద్ధివిధ	-11.292
▁ఆసా	-11.2922
▁మనోకమ్మం	-11.2922
▁కరింసు	-11.2924
▁పచ్చుప్పన్నే	-11.2926
▁పఠమమేవ	-11.2927
ాతిఆదీసు	-11.2927
▁లిఙ్గం	-11.2927
▁గద్రభ	-11.2928
▁మాసో	-11.2929
▁పతిరూపం	-11.2929
▁వన్దే	-11.2929
▁కిత	-11.2929
▁నుత్థ	-11.293
▁పిణ్డపాతో	-11.2931
సన్ధ	-11.2932
▁సుదస్సన	-11.2932
▁ఏవరూపస్స	-11.2933
▁అచ్ఛాద	-11.2934
▁సంసన్ద	-11.2936
▁ఆకాసధాతు	-11.294
▁దిట్ఠధమ్మ	-11.294
కులపుత్త	-11.2941
బ్యాధి	-11.2948
స్సామీతి	-11.2948
▁వచనత్థం	-11.2949
పరిఞ్ఞా	-11.2949
▁ఉపగతా	-11.2951
▁పరామాససమ్పయుత్త	-11.2951
ద్వేమే	-11.2955
నిట్ఠ	-11.2955
గచ్ఛతి	-11.2957
▁పుచ్ఛాయ	-11.2958
▁పాటిహారియం	-11.2959
సంవణ్ణనాయ	-11.2961
▁సంవిదహ	-11.2961
▁బుద్ధోతి	-11.2963
▁దుప్పఞ్ఞో	-11.2963
▁పోసే	-11.2963
▁అజ్ఝోహర	-11.2966
▁ఞాణదస్సన	-11.2966
దీపనా	-11.2967
▁విక్ఖమ్భన	-11.2967
అస	-11.2968
పుత్తం	-11.2972
భక్ఖో	-11.2973
▁సిస్సో	-11.2973
▁కామచ్ఛన్ద	-11.2973
ాధిట్ఠానం	-11.2973
▁అనవకాసో	-11.2974
▁నఅరూపావచర	-11.2974
▁అఞ్ఞాతికాయ	-11.2975
ఖో	-11.2976
▁భోజనాని	-11.2976
ానుస్సతి	-11.2977
▁అరుణుగ్గమన	-11.2977
యన్త	-11.2978
సరూప	-11.2979
▁పజాన	-11.298
▁తప్పచ్చయా	-11.298
ీయమాన	-11.2981
▁భాగో	-11.2985
▁కప్పేసి	-11.2986
▁అరహతం	-11.2986
▁భాయి	-11.2987
▁సప్పురిసా	-11.2988
▁ఉపాదానా	-11.2988
▁భవన్తీతి	-11.299
▁దీపేన్తో	-11.2992
గం	-11.2992
ూపమం	-11.2993
▁వుట్ఠి	-11.2996
▁సోతవిఞ్ఞాణ	-11.2996
▁వినాపి	-11.2996
▁యక్ఖా	-11.2997
▁నిమన్తితో	-11.2999
ఞాత	-11.2999
▁సబ్బకామ	-11.3
ఙ్కరో	-11.3001
ిత్థి	-11.3002
గ్గహణేనేవ	-11.3002
అనిదస్సనసప్పటిఘో	-11.3003
▁కద్దమ	-11.3004
▁ధోవన	-11.3005
▁అనోకాస	-11.3006
▁వేపుల్ల	-11.3006
▁ఏకదివస	-11.3007
▁వచనే	-11.3007
▁పవారణ	-11.3007
▁అరుణ	-11.3007
భగ్గ	-11.301
▁ఛన్నో	-11.3011
▁బహువిధ	-11.3011
▁అస్సమే	-11.3014
సమన్నాగత	-11.3016
అట్ఠానమేతం	-11.3016
▁చిత్తేకగ్గతా	-11.3017
▁సమత్తం	-11.3017
వాదేన	-11.3021
▁అభూతం	-11.3021
▁దుబ్భ	-11.3023
▁అధిగచ్ఛ	-11.3024
లాయ	-11.3028
▁దేసయ	-11.3029
▁నిబ్బుత	-11.3031
సాసనే	-11.3034
▁సల	-11.3034
ఆదేసో	-11.3035
ుబ్భ	-11.3035
▁వగ్గు	-11.3036
▁మత్తా	-11.3036
ోదయ	-11.3037
త్తమ	-11.3037
ద్దు	-11.3039
▁దియ్యమాన	-11.3039
▁ముయ్హ	-11.304
▁అనత్థం	-11.304
▁పఞ్చవోకారం	-11.304
మత్తానం	-11.3041
అబ్భ	-11.3042
▁ఫాసుక	-11.3042
▁వుత్తోయేవ	-11.3042
▁కాయా	-11.3045
▁అభిభూ	-11.3045
▁కరిస్సన్తి	-11.3045
ోకాసం	-11.3046
పుథుజ్జన	-11.3047
▁ఞా	-11.3049
▁సంహర	-11.3049
కవాట	-11.3049
▁అరియాయ	-11.3052
▁ఓభాసో	-11.3052
▁అన్తరాయా	-11.3053
▁మాపేత్వా	-11.3058
▁అసక్కోన్తా	-11.3058
▁పీతిసహగతా	-11.3058
క్రియ	-11.3058
▁సంవత్తతీ	-11.3059
▁సమాధియతి	-11.3059
▁ఓదనం	-11.3059
▁త్వఞ్చ	-11.306
▁సక్కం	-11.3061
యాగు	-11.3061
కరోతి	-11.3062
▁సచ్ఛికరోతి	-11.3062
▁పవత్తితం	-11.3062
పఞ్ఞం	-11.3065
▁కపణ	-11.3067
▁స్మా	-11.3067
▁బన్ధనా	-11.3068
▁సహజాతపచ్చయా	-11.3069
ుత	-11.3072
▁సమయా	-11.3072
▁సోతేన	-11.3072
దబ్బ	-11.3075
▁దోణ	-11.3076
సమాయోగ	-11.3076
▁నివిట్ఠ	-11.3077
▁వినయకమ్మ	-11.3078
▁యాథావ	-11.3079
▁భయతో	-11.308
▁ఏకాబద్ధ	-11.308
ఖత్తియ	-11.3082
▁వివిధా	-11.3082
మిచ్చ	-11.3082
▁పుచ్ఛిత	-11.3083
▁అజ్ఝత్తబహిద్ధా	-11.3084
▁నాగరాజ	-11.3084
విక్ఖమ్భ	-11.3087
▁విరజ్జతి	-11.309
▁ఝానపచ్చయ	-11.3091
▁కుమారం	-11.3091
సమన్నాగతం	-11.3092
▁చజ	-11.3093
లిత	-11.3097
▁అఞ్ఞతో	-11.3098
▁విఞ్ఞాణన్తి	-11.3098
▁దీపయ	-11.3099
▁అనుమోదనం	-11.3103
భాసా	-11.3104
▁పచ్చనీయుద్ధారో	-11.3104
▁మహేసక్ఖ	-11.3104
▁సమోధానపరివాస	-11.3105
విరహితం	-11.3105
▁అలజ్జీ	-11.3105
▁అలభిత్వా	-11.3105
▁నేసాద	-11.3105
▁దసాహ	-11.3105
▁అదంసు	-11.3106
▁ఖుజ్జ	-11.3107
▁క్య	-11.3107
▁ఆణాపేసి	-11.3107
▁తస్మాతిహ	-11.3112
▁ధుత్త	-11.3113
మహగ్గత	-11.3113
▁కమ్మవిపాక	-11.3114
ియే	-11.3114
▁అగ్గీ	-11.3115
నిబ్బ	-11.3115
జనో	-11.3116
▁అసోక	-11.3117
మానానం	-11.3117
నివత్తి	-11.3118
▁నిసీదితుం	-11.312
▁మనుస్సేహి	-11.3121
ుప్పల	-11.3122
▁విస్సజ్జేతి	-11.3123
▁దిట్ఠేన	-11.3125
▁దస్సామి	-11.3126
▁నిద్దాయ	-11.3132
▁నన్దో	-11.3133
▁దాతు	-11.3133
ప్పసన్న	-11.3134
▁సుద్ధో	-11.3134
సూకర	-11.3135
▁తుట్ఠి	-11.3135
▁సుఖితా	-11.3136
▁ఆవాట	-11.3136
▁నిబ్బత్తన్తి	-11.3138
▁దుక్ఖవిపాక	-11.3139
భీత	-11.3139
▁నవత్తబ్బ	-11.3139
ాహీతి	-11.3139
▁మహాకస్సపో	-11.3139
గణనా	-11.3139
▁పరిత్తా	-11.314
▁నిబ్బత్తం	-11.314
▁ఛడ్డే	-11.3143
▁సమ్ముఖావినయో	-11.3143
▁భూతాని	-11.3145
▁రమ్మం	-11.3145
▁అనుమాన	-11.3146
వినిబన్ధ	-11.3148
▁ఆభత	-11.3148
▁చక్ఖాది	-11.3151
వేలాయ	-11.3152
మనుయుత్తో	-11.3153
▁ఖాయతి	-11.3154
పూజా	-11.3154
జాయ	-11.3155
▁ఛిన్దతి	-11.3156
▁సబ్బఞ్చ	-11.3157
▁సమ్పతి	-11.3158
▁మనోసమ్ఫస్స	-11.3159
నలక్ఖణా	-11.3161
▁విజాయ	-11.3161
▁ఉద్ధచ్చసహగతం	-11.3161
▁నిప్ఫాదే	-11.3164
▁కారయి	-11.3165
▁కాయసంసగ్గ	-11.3166
▁అయ్యో	-11.3167
▁దాఠ	-11.3168
▁దయా	-11.3168
▁సామఞ్ఞఫల	-11.3168
▁పచ్ఛిమస్స	-11.3169
▁అలభన్తో	-11.317
▁నఅనాసవ	-11.317
▁మహాసుదస్సన	-11.3171
▁పాపుణింసూతి	-11.3171
▁పచ్చవేక్ఖమానో	-11.3173
▁పుబ్బన్త	-11.3173
▁పచ్చవేక్ఖణా	-11.3173
▁సుభా	-11.3174
▁మధురం	-11.3174
▁దేవతే	-11.3175
▁అరూపసఞ్ఞీ	-11.3175
▁కరిస్సామా	-11.3175
ఙ్గాని	-11.3177
▁యమహం	-11.3177
ఆపత్తి	-11.3179
▁లోకధాతు	-11.318
క్ఖేప	-11.3181
▁సక్కుణేయ్య	-11.3182
▁రుచ్చ	-11.3182
▁ఛదన	-11.3183
▁గేహసిత	-11.3184
▁గత్త	-11.3184
▁వత్తబ్బతం	-11.3186
▁కచ్చాయన	-11.3189
వసి	-11.3191
▁రూపారమ్మణ	-11.3192
▁వక్ఖామ	-11.3195
ఖల	-11.3195
▁నియ్యాతి	-11.3195
▁ఉపమం	-11.3196
▁యాగుం	-11.3197
కణ్హ	-11.3198
▁ఉరగ	-11.3199
విభావ	-11.3201
▁నరక	-11.3201
▁సుద	-11.3204
విజయ	-11.3204
▁మగ్గఙ్గం	-11.3205
▁కోసలో	-11.3206
▁పరితో	-11.3207
▁ఆఘాతో	-11.3207
▁కీళా	-11.3207
నియామేన	-11.3207
▁పత్తబ్బ	-11.3208
పక్ఖిక	-11.3208
ిద	-11.3208
సుక్కవిస్సట్ఠియా	-11.321
▁అహూ	-11.321
▁ఞాతక	-11.3214
అయ్య	-11.3214
▁పగ్గహేత్వా	-11.3216
అజ్ఝ	-11.3222
▁నిబ్బిదాయ	-11.3222
▁ఏకధమ్మ	-11.3223
ామా	-11.3227
కుతో	-11.3229
▁జేగుచ్ఛ	-11.3231
▁అతిసయ	-11.3233
▁అనాదర	-11.3234
▁జాతరూప	-11.3234
▁కామభోగీ	-11.3237
▁గిలానా	-11.3237
▁ఆహిణ్డ	-11.3237
గఙ్గ	-11.3237
▁ఉపద్దుత	-11.3237
▁చిత్తస్సేకగ్గతా	-11.3238
▁అననుస్సుతేసు	-11.3239
▁యువా	-11.324
▁భే	-11.324
▁ఇదమ	-11.324
▁పణ్డితేహి	-11.3241
భావదస్సన	-11.3242
▁పియరూపం	-11.3244
▁ఓత్తప్పం	-11.3244
▁యాదిసా	-11.3247
▁తాదిసా	-11.3247
నిసజ్జ	-11.3248
ుత్తమం	-11.325
▁హేతుసమ్పయుత్త	-11.3251
▁అనుప్ప	-11.3252
సఙ్గాహక	-11.3253
▁గోచరం	-11.3253
▁వేస్సన్తరో	-11.3253
▁సన్థర	-11.3254
కిస్స	-11.3255
▁వసన్త	-11.3255
▁రతా	-11.3257
విసేసే	-11.3258
న్తూతి	-11.3262
▁మూలాయ	-11.3262
▁సత్థార	-11.3262
పఞ్హా	-11.3262
త్తింస	-11.3264
తచ్ఛ	-11.3265
▁బాహ	-11.3266
▁భయా	-11.3266
సనే	-11.3269
▁ముహుత్తం	-11.3272
తన	-11.3273
వాచి	-11.3273
▁మగధ	-11.3273
▁నివత్తిత్వా	-11.3274
▁నిస్సయపచ్చయ	-11.3275
▁భవాభవ	-11.3277
▁రూపాయతన	-11.3279
▁గబ్భో	-11.328
▁దసమ	-11.3282
▁వతాయం	-11.3282
నిరయ	-11.3283
▁సుజాతో	-11.3283
పారిపూరి	-11.3284
▁సమోధాన	-11.3284
గోచరా	-11.3285
బలా	-11.3286
▁అలత్థ	-11.3287
చాల	-11.3287
▁సీహస్స	-11.3288
్త	-11.3288
▁జనపదేసు	-11.329
ఇమ	-11.3291
▁సన్తీతి	-11.3291
నదీ	-11.3291
▁అధిగతం	-11.3292
▁అఞ్ఞథత్తం	-11.3292
▁పరివారితో	-11.3292
▁సమ్మాదిట్ఠియా	-11.3292
▁విభూతం	-11.3294
▁అగ్గఫల	-11.3295
▁ఉణ్ణ	-11.3296
▁బలేన	-11.3299
▁కప్పాస	-11.33
యమ	-11.3302
▁ముదుక	-11.3303
ట్ఠీని	-11.3304
▁భుమ్మత్థే	-11.3305
▁భారం	-11.3305
▁తేవీసతి	-11.3306
తాపన	-11.3306
▁ఏకగ్గతా	-11.3308
బోజ్ఝఙ్గ	-11.3309
▁లఙ్ఘ	-11.3309
▁పరిక్ఖయం	-11.3311
▁కోధం	-11.3313
▁అజిన	-11.3313
▁విదితం	-11.3314
▁అసఞ్ఞ	-11.3315
▁సదేవకస్స	-11.332
▁జానాతీ	-11.3326
▁గామస్స	-11.3326
▁భి	-11.3327
యట్ఠి	-11.333
▁పితామహ	-11.3331
▁సఙ్ఘకమ్మ	-11.3333
▁జానతా	-11.3334
అఞ్ఞమఞ్ఞపచ్చయేన	-11.3336
▁ఉచ్ఛేదదిట్ఠి	-11.3336
▁దాయ	-11.3337
▁పస్సామీ	-11.3339
▁రత్తియో	-11.3342
మ్హసే	-11.3342
రోగో	-11.3343
▁విపస్సన	-11.3345
వచనతో	-11.3346
▁అక్ఖాతా	-11.3346
వికతి	-11.3347
▁పరాజయో	-11.3347
సఞ్ఞిస్స	-11.3347
మిద	-11.3348
సిక్ఖా	-11.3348
ఞ్చేతం	-11.3349
▁చఙ్కమన్త	-11.335
నవిపాకధమ్మధమ్మం	-11.3351
▁పారమీ	-11.3352
▁వితక్కం	-11.3352
▁కతోతి	-11.3353
▁బ్రాహ్మణేన	-11.3353
విజానన	-11.3354
▁దారుణ	-11.3354
▁నిక్ఖమన	-11.3356
▁నిస్సజ్జ	-11.3356
▁సుతో	-11.3357
▁ఆదీనవఞ్చ	-11.3357
ాభిరత	-11.3357
వికల	-11.3358
▁ధారేతు	-11.3359
▁వుత్థ	-11.336
ాభిధాన	-11.3361
న్వ	-11.3362
వాల	-11.3362
రేతి	-11.3363
కరే	-11.3364
▁సకుణో	-11.3365
ేకో	-11.3366
▁విక్కిణ	-11.3368
జఞ్ఞ	-11.3368
▁తదహుపోసథే	-11.337
▁మాగణ్డియ	-11.337
▁ధమ్మికో	-11.3371
▁చిత్తసహభు	-11.3371
▁కామావచరో	-11.3372
ామాతి	-11.3373
త్తర	-11.3373
▁యాచక	-11.3373
▁మానుసక	-11.3374
కిలమథ	-11.3375
▁వుత్తమత్థం	-11.3375
▁మహన్తా	-11.3375
▁పటిచ్ఛాదేత్వా	-11.3376
▁పసీదిత్వా	-11.3378
▁అమోహ	-11.3379
▁గవం	-11.3381
▁పటిగ్గాహక	-11.3381
సీసం	-11.3381
▁పరిపాక	-11.3383
▁అభిసఙ్ఖత	-11.3383
▁ఖీయ	-11.3385
ాయు	-11.3386
అట్ఠారస	-11.3387
గామినో	-11.3388
▁అకాలే	-11.3388
▁ఞాపేతబ్బో	-11.3391
▁ఆదీనవా	-11.3391
▁విబ్భన్త	-11.3391
నిదానా	-11.3391
▁వత్తబ్బన్తి	-11.3392
లాభా	-11.3392
▁రుహ	-11.3392
▁సకదాగామిమగ్గ	-11.3393
సయం	-11.3393
▁పస్సితుం	-11.3398
దోమనస్సుపాయాసా	-11.3398
▁అపరిక్ఖిత్త	-11.3398
▁అవిప్పటిసార	-11.34
▁పాసంసో	-11.34
▁ధమ్మపటిసమ్భిదా	-11.3401
▁సుణన్తో	-11.3401
▁విప్పసన్నేన	-11.3401
▁అకారణ	-11.3402
త్థమేవ	-11.3402
▁భవపచ్చయా	-11.3405
▁ఖయే	-11.3407
న్తరాయ	-11.3408
ీయం	-11.3408
▁అట్ఠఙ్గుల	-11.3409
▁అదస్సన	-11.341
▁మారిసా	-11.3411
▁అజానన	-11.3411
▁ఉపనిస్సయో	-11.3412
▁పసంసన్తి	-11.3412
▁మారం	-11.3413
▁యోగావచరో	-11.3414
గణ్డ	-11.3414
▁తల	-11.3415
వవత్థాన	-11.3416
పటిలాభో	-11.3421
్యం	-11.3422
ధిట్ఠాన	-11.3423
ఞాణస్స	-11.3424
తున్న	-11.3425
▁సచ్ఛికిరియాయ	-11.3425
▁అక్ఖాత	-11.3427
చల	-11.3431
యస	-11.3432
▁సముగ్ఘాత	-11.3434
▁వేహాసం	-11.3435
▁కల్ల	-11.3436
▁మహాపఞ్ఞో	-11.3437
▁అపచయగామీ	-11.3438
▁ముట్ఠస్సతి	-11.3438
▁కానిచి	-11.3438
▁యుగనద్ధ	-11.3438
▁పటివిరతా	-11.3439
▁ఆవ	-11.3439
ాదిభావ	-11.3439
▁యావదత్థం	-11.3439
▁దేవతాహి	-11.344
▁దేసనాపరియోసానే	-11.344
దన్తి	-11.3441
▁భిక్ఖాచార	-11.3442
గుణేన	-11.3442
పబ్బతే	-11.3443
▁నసహజాతే	-11.3443
▁థీ	-11.3443
▁పచ్చనీయం	-11.3444
ాపీ	-11.3445
▁నిబ్బానధాతుయా	-11.3445
▁రస్సత్తం	-11.3445
▁సుగ్గహిత	-11.3445
రిత్వా	-11.3445
▁కప్పసతసహస్స	-11.3446
▁మనుస్సభూతో	-11.3446
పచ్ఛా	-11.3447
▁ఏథ	-11.3448
బుద్ధస్స	-11.3448
▁బుద్ధగుణ	-11.3448
▁రుచియా	-11.3448
▁అగారవో	-11.3449
▁గేధ	-11.3449
▁తప్పటిపక్ఖ	-11.3449
▁ఉపనిధాయ	-11.345
▁పణ్డర	-11.3452
▁ఉపహత	-11.3452
లోకియ	-11.3453
ఙ్గుట్ఠ	-11.3454
▁సాధూతి	-11.3454
▁ఓపమ్మ	-11.3455
▁పచ్చయాకార	-11.3455
దాహ	-11.3457
▁అన్తరధాయ	-11.3457
▁ఏకరస	-11.3458
▁సేసానం	-11.3458
▁ఉదయబ్బయ	-11.3458
▁నహాన	-11.3459
▁చతుత్థస్స	-11.3459
▁బ్రాహ్మణీ	-11.346
కోవిదో	-11.3461
▁అధిట్ఠహ	-11.3462
బహులా	-11.3462
▁అభిభూత	-11.3464
▁అనియతా	-11.3464
▁అకామ	-11.3464
▁నిస్సార	-11.3465
▁వేరి	-11.3467
▁అవధి	-11.3467
దూత	-11.347
ఆకాస	-11.347
▁రుద	-11.3472
▁సంసట్ఠ	-11.3472
పఠమం	-11.3473
నకో	-11.3474
▁గరుభణ్డం	-11.3475
▁వినాసం	-11.3475
▁సంవస	-11.3475
సేల	-11.3475
▁థుతి	-11.3476
సంయుత్తే	-11.3482
▁పాచ	-11.3482
అనన్త	-11.3483
తేజ	-11.3487
రానం	-11.3489
▁కాస	-11.3491
సేఖ	-11.3493
▁లోమా	-11.3494
భవో	-11.3494
▁నపుంసకలిఙ్గ	-11.3494
▁పాటిహారియ	-11.3495
పయోగే	-11.3498
రోపన	-11.3499
మణ్డప	-11.35
▁పరియుట్ఠాన	-11.3504
▁భేసజ్జాని	-11.3504
▁పాపిమ	-11.3505
కాసీ	-11.3505
▁విత్థత	-11.3505
▁మనసికరోన్తో	-11.3506
▁మిథిల	-11.3506
▁వూపసమ్మతి	-11.3506
▁ద్వావీసతి	-11.3506
ాదిభావో	-11.3507
▁ఆపజ్జన్తి	-11.3508
▁మహాపచ్చరియం	-11.3508
▁ఆభస్సర	-11.3509
▁సమాపజ్జన	-11.3509
▁సునక్ఖత్త	-11.351
▁అనుగత	-11.3511
ఉత్తర	-11.3512
▁పరివేణం	-11.3512
▁ఉపనీత	-11.3513
▁సముట్ఠాపేతి	-11.3514
న్తరేన	-11.3515
నసీలో	-11.3515
▁పరిపూరేన్తి	-11.3515
▁మహత్త	-11.3515
కరుణా	-11.3515
▁అసమ్పత్త	-11.3517
కోట్ఠాసే	-11.3518
మత్తిక	-11.3518
▁ఆణత్త	-11.3518
▁అట్ఠారసహి	-11.3518
▁నిక్ఖేప	-11.3519
విత్త	-11.3519
▁కాయిన్ద్రియం	-11.352
సేనో	-11.3521
ఏతదగ్గం	-11.3521
▁ఉపాదానియ	-11.3522
సిఙ్గ	-11.3522
▁పీతిం	-11.3523
▁వస్సూపనాయిక	-11.3523
▁పత్థేతి	-11.3525
▁పరిసుద్ధో	-11.3525
▁కిమి	-11.3526
▁మూసిక	-11.3526
▁పటిసన్థార	-11.3528
త్తీ	-11.3531
వితక్కో	-11.3531
ికేన	-11.3531
త్థీ	-11.3533
సమ్మతా	-11.3533
▁భవేయ్యుం	-11.3533
▁విసుద్ధియా	-11.3534
▁సుఖినో	-11.3537
▁మహావుత్తి	-11.3537
▁సమ్మప్పధానా	-11.3539
▁ఏకపద	-11.3541
▁గుహ	-11.3542
▁సఘానకాన	-11.3542
▁పియరూపా	-11.3544
కసావ	-11.3545
▁అవధారణ	-11.3545
▁పచ్చేకబుద్ధా	-11.3547
▁ఖణో	-11.355
▁జట	-11.3553
▁సుఖదుక్ఖం	-11.3553
▁గహేతబ్బాని	-11.3556
సమాసో	-11.3557
మజ్ఝగ	-11.3558
▁సభిక్ఖుకా	-11.3558
▁ఆనిసంసా	-11.356
▁సుకరం	-11.356
▁మారే	-11.356
పచ్చుప్పన్నం	-11.3561
లక్ఖ	-11.3561
సముదాచార	-11.3562
▁కాయవిఞ్ఞత్తి	-11.3563
▁అమిత	-11.3564
▁పుణ్డరీక	-11.3567
▁అనాగామిస్స	-11.3568
▁పరిణత	-11.3569
▁అరియసావక	-11.357
దస్సి	-11.3572
▁హదయవత్థు	-11.3572
▁అనధి	-11.3574
▁నిరనుసయా	-11.3574
▁నఆసేవనపచ్చయా	-11.3574
▁భేరవ	-11.3575
▁అభిత్థవ	-11.3577
▁కరోసి	-11.3577
ప్పహానేన	-11.3577
నవిపాకధమ్మధమ్మ	-11.3578
▁అహిరిక	-11.3578
్పయుత్తలోభసహగత	-11.3579
సఙ్ఘాత	-11.3579
▁మహేసీ	-11.358
▁సన్ధాయేత	-11.3581
▁నివారే	-11.3582
▁ఆయతనేహి	-11.3582
▁సముదాచరన్తి	-11.3582
▁సన్నద్ధ	-11.3583
▁జాని	-11.3583
▁దేసేయ్య	-11.3586
▁భణే	-11.3586
భత	-11.3588
▁పిటకత్తయ	-11.359
నక్ఖత్త	-11.359
వలాహక	-11.3591
▁పణ్ణాస	-11.3591
భగవతో	-11.3591
▁దమిళ	-11.3592
▁నామరూపస్స	-11.3592
▁సుపినం	-11.3593
▁తేమాసం	-11.3594
చతూహి	-11.3595
▁తళాక	-11.3596
చేతసో	-11.3596
పచ్చుపట్ఠానో	-11.3596
▁రజ్జే	-11.3596
▁పచ్చవేక్ఖణఞాణ	-11.3597
▁అసక్కోన్త	-11.3597
ుప్ప	-11.3599
ముద్దిక	-11.3599
స్సరా	-11.3601
▁నిద్దిట్ఠం	-11.3601
▁పాదకజ్ఝాన	-11.3602
రూపానం	-11.3602
ప్పకారం	-11.3604
▁భిన్నో	-11.3606
మానసం	-11.3607
సఙ్ఖాతేహి	-11.3609
సఞ్ఞి	-11.3609
▁అభిభూతో	-11.361
కమ్మాని	-11.361
▁మాతర	-11.361
▁అకప్పియం	-11.361
▁పజాపతి	-11.3613
▁తథావిధ	-11.3614
వస్ససహస్సాని	-11.3616
▁అనిచ్చానుపస్సనా	-11.3616
ాదిభేదే	-11.3617
అరహత్త	-11.3618
▁పాతుభవతి	-11.3619
▁చమ్మం	-11.3621
▁వితక్కే	-11.3622
▁ఆకఙ్ఖతి	-11.3623
భజ	-11.3624
▁విచికిచ్ఛాసహగతం	-11.3627
▁విచరన్త	-11.3628
▁విరాజ	-11.3628
మేతన్తి	-11.3629
▁సబ్బానిపి	-11.363
ఫాణిత	-11.3631
ఇచ్చాదినా	-11.3632
▁ఆసవేహి	-11.3633
పుబ్బభాగ	-11.3633
ియోతి	-11.3634
▁గణ్హాతీతి	-11.3635
▁పరిఞ్ఞేయ్య	-11.3635
▁ఏకత్తం	-11.3635
జ్జు	-11.3636
▁అగా	-11.3636
▁చాతుమహారాజిక	-11.3636
▁సబ్బలోకే	-11.3637
▁వేదనానం	-11.3638
▁అనాపత్తీ	-11.3639
▁అవిపాక	-11.364
▁విజ్జమానే	-11.364
తేజో	-11.3641
▁అగ్గసావికా	-11.3643
ాతిఆది	-11.3643
▁అబ్భాచిక్ఖ	-11.3644
▁సేసపదేసుపి	-11.3644
▁సత్తరతనసమ్పన్నో	-11.3644
▁పరిపూరకారీ	-11.3645
▁హన్దాహం	-11.3646
▁లహుం	-11.3646
లోపే	-11.3647
▁అరియవంస	-11.3647
పదట్ఠానా	-11.3649
▁ఏకదేసేన	-11.3649
▁దుమ్మనో	-11.3649
▁అభిసేక	-11.365
మపి	-11.3651
య్యో	-11.3651
▁ఉపపన్నా	-11.3652
▁చతుసచ్చధమ్మ	-11.3652
ాభరణ	-11.3652
▁అపాకట	-11.3653
▁అభిసమ్బుద్ధ	-11.3656
▁నిమన్తన	-11.3658
పేతవత్థు	-11.3658
▁గాళ్హ	-11.3659
▁పసిద్ధ	-11.3661
యాయ	-11.3661
▁పటిచ్ఛ	-11.3663
▁సంవిజ్జతి	-11.3663
▁అనారమ్మణ	-11.3666
▁రాహు	-11.3666
పుబ్బఙ్గమ	-11.3666
హేతూతి	-11.3667
▁కుసలేహి	-11.3667
యన్తం	-11.3667
▁పిసాచ	-11.3669
▁పచ్చేస్స	-11.3669
▁అజ్జతగ్గే	-11.3671
▁ఆసేవన	-11.3673
▁మహాకరుణా	-11.3673
మనసికారో	-11.3674
▁పరియోదాత	-11.3676
▁థోక	-11.3677
▁ఆయతనానం	-11.3677
▁గమిస్సామీ	-11.3677
▁సమన్తచక్ఖు	-11.3677
▁మయూర	-11.3678
▁రంసి	-11.3683
నన్దీ	-11.3684
పుబ్బం	-11.3684
▁ఘంస	-11.3684
▁నావ	-11.3688
▁లోకనాథ	-11.3688
▁పయ	-11.3689
మదాసి	-11.369
అనాగత	-11.369
పరాయణో	-11.3691
ఘరే	-11.3697
▁ముగ్గ	-11.3698
▁పటినిస్సగ్గ	-11.3699
▁అనత్తమనో	-11.3699
ఫలక	-11.3703
నకం	-11.3705
▁బ్రహ్మచారీ	-11.3705
సమ్పత్త	-11.3706
ట్ఠానన్తి	-11.371
కతిచి	-11.371
▁దోసేన	-11.3711
▁అత్థతకథిన	-11.3713
▁అధివాసన	-11.3713
▁గారయ్హో	-11.3713
▁కతిపయ	-11.3714
▁సిఖీ	-11.3714
▁ఉచ్ఛిజ్జ	-11.3714
▁పటిబలో	-11.3715
న్తస్సాపి	-11.3715
▁పతిట్ఠాపేత్వా	-11.3716
▁ధారేతీతి	-11.3716
▁జహన్తి	-11.3717
▁కమ్మవాచా	-11.3717
▁ఓసక్క	-11.3722
▁ఇద్ధిపాదం	-11.3722
▁తఞ్ఞేవ	-11.3722
▁కపిలవత్థు	-11.3722
▁జేట్ఠో	-11.3725
ాభిముఖం	-11.3726
▁అసన్తం	-11.3726
మచ్ఛరియ	-11.3727
▁విహారా	-11.3727
విభావనా	-11.3728
▁అబ్యాకతమూల	-11.373
ఉపాసక	-11.373
భిక్ఖవో	-11.3733
▁పతిట్ఠాసి	-11.3733
▁జహతీతి	-11.3734
▁అవసానే	-11.3734
▁పరియా	-11.3736
ానిసంసా	-11.3737
మఞ్ఞాయ	-11.3737
▁అప్పమఞ్ఞా	-11.3738
▁కరోన్తే	-11.3738
▁నన్దియ	-11.3738
▁ఉపాయో	-11.3738
▁వుత్తేన	-11.3739
పటిపత్తియా	-11.374
▁విజమ్భ	-11.374
▁నాళికేర	-11.3743
▁దూతం	-11.3745
▁పకాసేతి	-11.3746
▁పకాసన	-11.3746
వతం	-11.3747
అయ	-11.3748
ఇట్ఠ	-11.3748
రత్తిం	-11.3749
▁౨౪౪	-11.375
▁ఇట్ఠక	-11.375
▁విఞ్ఞాణక్ఖన్ధ	-11.375
▁కుసలవిపాక	-11.3752
▁అతిమాన	-11.3752
▁చన్దిమసూరియా	-11.3754
▁అత్థఙ్గత	-11.3754
▁పరమత్థో	-11.3754
ధిగత	-11.3754
▁పకారేహి	-11.3755
పటిగ్గాహక	-11.3756
దాయికా	-11.3757
▁పసాదం	-11.3757
నామకం	-11.3757
▁సీలాదిగుణ	-11.3758
అనా	-11.376
▁అప్పమాదో	-11.376
▁తన్	-11.3761
దుక్ఖస్స	-11.3762
▁సభావేన	-11.3763
▁చేతోపరియఞాణస్స	-11.3765
▁సాగరో	-11.3766
▁సమ్బన్ధితబ్బం	-11.3766
తేహి	-11.3766
▁విఞ్ఞాపన	-11.3768
▁సమేన	-11.3768
మాగతం	-11.377
▁ఆదీసు	-11.377
▁అకరోన్త	-11.377
నాసిక	-11.3771
▁అస్సుతవా	-11.3772
▁బ్యఞ్జనే	-11.3772
కత్తు	-11.3774
వయవ	-11.3775
▁దానాని	-11.3775
మిఞ్జ	-11.3776
▁అసేస	-11.3776
▁సుసమాహిత	-11.3779
▁సబ్బదుక్ఖ	-11.378
▁రూపసఞ్ఞా	-11.378
▁లిచ్ఛవీ	-11.3783
▁సమ్పస్సమానో	-11.3783
▁అట్ఠవిధ	-11.3783
▁ఉమ్మత్తికాయ	-11.3783
▁మేసో	-11.3784
▁దిట్ఠిగతవిప	-11.3785
▁అరోగ	-11.3786
▁ధారేతబ్బ	-11.3786
▁ఆరోచిత	-11.3786
▁అనిచ్చాది	-11.3787
▁గిర	-11.3787
▁ధమ్మరాజ	-11.3787
పరమం	-11.3789
▁ఠానన్తి	-11.3789
ధారా	-11.379
▁విధాన	-11.379
▁సదేవమనుస్సాయ	-11.3792
▁అనుపస్సతి	-11.3792
చ్ఛాద	-11.3793
ియత్థేరఅపదాన	-11.3794
హితం	-11.3794
▁పురోహిత	-11.3796
▁ధఞ్ఞం	-11.3797
▁హేమన్త	-11.3798
▁మన్దా	-11.3799
▁సంఖిత్త	-11.3801
పబ్భార	-11.3802
బాహిర	-11.3802
వేకల్ల	-11.3802
తేతి	-11.3806
గుణేహి	-11.3806
▁ఫలేన	-11.3806
ాగన్త్వా	-11.3809
▁సమనుభాసన	-11.3809
▁మేఘో	-11.381
▁పరిహరతి	-11.381
▁వివేకజం	-11.381
▁విహత	-11.3811
పరిస్సయ	-11.3811
ఛక్క	-11.3812
▁అబ్భుతో	-11.3813
▁భుఞ్జన్తస్స	-11.3813
నమో	-11.3814
▁ధమ్మారమ్మణ	-11.3815
▁మన్తి	-11.3815
▁పజానాతీతి	-11.3818
జాతియా	-11.3819
▁బ్యాపార	-11.3819
▁బాహిరక	-11.3819
▁నిపకో	-11.3822
చేతియం	-11.3824
క్ఖణేయేవ	-11.3824
సట	-11.3825
నిబ్బత్తక	-11.3825
▁౨౪౮	-11.3825
▁సిమ్హి	-11.3827
▁వత్థూహి	-11.3829
ఙ్కో	-11.383
వణ్ణనాయం	-11.3832
▁ఠపేన్తో	-11.3834
▁ఝానేన	-11.3836
▁యస్సాయస్మ	-11.3836
▁పరిపుణ్ణో	-11.3836
పరే	-11.3836
▁రా	-11.3837
హుత	-11.3838
▁సంవణ్ణ	-11.3839
▁అసేక్ఖో	-11.3839
▁సిర	-11.3841
యన్తీ	-11.3841
▁సన్దిట్ఠికం	-11.3842
▁భయేన	-11.3843
▁థూపం	-11.3843
త్తస్స	-11.3844
▁మహాథేరో	-11.3845
▁ద్వీహ	-11.3845
▁జానితబ్బ	-11.3845
లాభినో	-11.3846
ేయ్యాథా	-11.3846
▁తాళ	-11.3846
ఇచ్ఛ	-11.3847
▁సమ్మతా	-11.3848
▁పరిస్సయ	-11.3848
ట్ఠానేయేవ	-11.3849
▁తత్తకం	-11.3849
దణ్డో	-11.3849
▁ఇత్థ	-11.3851
▁వాహ	-11.3853
▁అహఞ్హి	-11.3853
ిన్దో	-11.3853
▁అఙ్కుర	-11.3855
▁కుద్ధో	-11.3855
▁వివేకనిస్సితం	-11.3856
▁కుతోచి	-11.3856
భరణ	-11.3856
▁ఉమ్మాద	-11.3857
▁ఉమ్మత్తక	-11.3857
▁ఇచ్చేతం	-11.3859
▁వుత్తానం	-11.3859
▁వస్ససహస్సాని	-11.3859
భూతాని	-11.386
▁వదన్తీతి	-11.3862
▁వన్ది	-11.3864
ాతిఆదిమాహ	-11.3864
▁వచసా	-11.3864
▁అపచ్చం	-11.3865
▁యేభుయ్య	-11.3866
విద్ధంసన	-11.3866
▁అమూ	-11.3867
▁రాగేన	-11.3868
మచ్ఛర	-11.3868
సమ్బన్ధో	-11.3869
వీథియం	-11.3869
▁పిహ	-11.3869
▁మతే	-11.387
▁మేద	-11.387
గతేన	-11.3871
ాదీసూతి	-11.3872
▁ఠపన	-11.3873
▁అధిప్పాయం	-11.3874
▁భాగం	-11.3874
▁ఓక్కమతి	-11.3875
▁పాణినా	-11.3877
▁అనేకసత	-11.3878
సమాధీ	-11.3878
పరిక్ఖేప	-11.3878
▁పరివాస	-11.388
▁సీలాది	-11.3882
▁ఓతరతి	-11.3882
సోళస	-11.3886
▁అధమ్మం	-11.3886
▁యాపేతి	-11.3887
▁సాధూ	-11.3887
▁పాపుణిత్వా	-11.3891
ధూమ	-11.3894
కిణ్ణం	-11.3895
▁సహాయో	-11.3895
ఇమాని	-11.3897
▁పురక్ఖతో	-11.3897
▁పసంసా	-11.39
▁సతివినయ	-11.3901
▁సుమనా	-11.3902
అమ్భో	-11.3903
▁పస్సతా	-11.3904
ట్ఠితో	-11.3905
▁ఏకాదసమం	-11.3905
▁రుహతి	-11.3908
▁సేనక	-11.3908
▁సీలఞ్చ	-11.391
▁కరోమ	-11.391
▁భణ్డాగారిక	-11.391
▁గిమ్హ	-11.3911
▁పలాస	-11.3911
▁సక్కాతి	-11.3913
▁పాపాని	-11.3914
మానాతి	-11.3915
ఇద	-11.3916
▁గతీ	-11.3916
▁ఠితోతి	-11.3916
▁పతన్తి	-11.3917
▁౨౬౫	-11.3918
పరివుత	-11.3918
నాకారో	-11.3918
▁అగ్గట్ఠాన	-11.3918
ాదిగుణ	-11.3919
▁నిపజ్జి	-11.3921
▁జచ్చన్ధ	-11.3924
▁నవిపాకపచ్చయా	-11.3924
▁తతుత్తరి	-11.3924
గ్గేన	-11.3925
▁విస్సుతో	-11.3925
కుటిక	-11.3926
▁ధి	-11.3926
▁ఉపపత్తిక్ఖణే	-11.3927
మఞ్జ	-11.3927
▁దణ్డో	-11.3928
▁అనిదస్సనో	-11.3929
▁జాతోతి	-11.3929
సమ్పయోగ	-11.393
చరితో	-11.3931
దిట్ఠియా	-11.3932
▁అనోత్తప్ప	-11.3934
▁నోచిత్తసంసట్ఠ	-11.3935
▁సువిభత్త	-11.3936
▁సమూహో	-11.3939
▁అమ్హ	-11.3939
▁౨౬౩	-11.394
▁వీరో	-11.3943
▁నీవరణవిప్పయుత్త	-11.3943
బిమ్బ	-11.3943
▁ఆరోప	-11.3944
▁ఖేత్తే	-11.3944
▁పరిహాయ	-11.3944
అభిక్కన్తం	-11.3945
▁ఏదిసో	-11.3945
▁వేలాయం	-11.3947
▁సన్థరిత్వా	-11.3947
విభూసిత	-11.3948
▁పటిసల్లానా	-11.3948
౨౨	-11.3951
▁అపక్కమ	-11.3952
పచ్ఛిమ	-11.3952
▁భిక్ఖుసఙ్ఘ	-11.3953
▁నరాసభో	-11.3953
▁పచ్చయభూత	-11.3953
పయోగో	-11.3953
సమ్పద	-11.3955
▁ఛక్క	-11.3957
కోసల్ల	-11.3957
▁వుత్తప్పకారేన	-11.3957
▁అన్నం	-11.3959
సదిసాని	-11.396
▁మహాయస	-11.3963
దిసాయ	-11.3963
▁మేఘియ	-11.3964
▁సాతిసయ	-11.3964
▁పనేతే	-11.3964
▁వవత్థిత	-11.3965
▁పీఠం	-11.3967
▁మచ్ఛో	-11.3968
▁ఆరామిక	-11.3968
▁౨౪౬	-11.3971
మస్సాతి	-11.3972
▁దీపఙ్కర	-11.3973
ేతబ్బన్తి	-11.3973
▁చలన	-11.3974
వతా	-11.3974
చక్కవాళ	-11.3976
▁నిరనుసయోతి	-11.3977
▁కథినే	-11.3978
▁నిచ్ఛయ	-11.3978
ాదాయ	-11.3979
▁అన్వా	-11.398
▁అప్పిచ్ఛ	-11.398
విరహితా	-11.398
▁౨౪౫	-11.3982
▁ఆరోపిత	-11.3982
▁కాణ	-11.3984
▁అసమ్భవతో	-11.3984
▁సేఖియ	-11.3984
ానఞ్చేవ	-11.3985
కమ్ప	-11.3986
▁విహింస	-11.3988
▁ఉపచిత	-11.3988
▁వాదిత	-11.3988
▁ఆమన్త	-11.3989
▁చేస	-11.3989
భాణీ	-11.399
సేనాసనం	-11.399
ిచ్ఛా	-11.399
▁పథవీకసిణం	-11.3991
▁సోవణ్ణ	-11.3993
▁విసేసాధిగమ	-11.3993
పతిరూపక	-11.3993
▁బహుతరం	-11.3993
▁సమాదపే	-11.3995
ధమ	-11.3995
▁గాథాద్వయమాహ	-11.3995
▁చేతనాపణిధీహి	-11.3995
▁తివేదనన్తి	-11.3996
▁నేసోహమస్మి	-11.3996
▁దుక్ఖస్సన్తకరో	-11.3997
▁నిలీయ	-11.3997
▁సాతరూపం	-11.3997
▁భుఞ్జితబ్బం	-11.3998
▁ఫుసన	-11.3998
▁కతమేసం	-11.3998
రుక్ఖే	-11.3999
మేయ్య	-11.3999
▁సోతాపన్నా	-11.4
ిమ్హి	-11.4
▁సఞ్జానన	-11.4
వితక్కవిచారమత్తా	-11.4
▁మాతికం	-11.4001
▁ముదిత	-11.4002
▁గోతమీ	-11.4002
▁తిట్ఠతు	-11.4004
▁భగవన్తో	-11.4004
వారి	-11.4005
▁సుఖో	-11.4006
ాధీన	-11.4006
ఇచ్చాయస్మా	-11.4008
▁ఇచ్ఛామి	-11.4009
భవన	-11.4009
▁అనఞ్ఞథా	-11.4009
▁మాతుయా	-11.401
ాపేక్ఖ	-11.4011
▁కదలి	-11.4012
▁ఠానసో	-11.4014
▁పటిచ్ఛన్నా	-11.4015
▁సభిక్ఖుకో	-11.4015
అజ్ఝత్త	-11.4016
▁సుఞ్ఞా	-11.4016
▁ఫరతి	-11.4018
చూళ	-11.4018
హరణం	-11.4018
సామత్థియ	-11.4019
ఉప్పాద	-11.4019
తోవ	-11.402
▁ఇచ్ఛాయ	-11.4021
▁పాపస్స	-11.4021
దీపనత్థం	-11.4022
▁ఆరోగ్య	-11.4023
▁గామా	-11.4024
▁రత్తిన్దివ	-11.4024
సత్తమ	-11.4025
▁తుమ్హాక	-11.4025
పతన	-11.4029
▁వాచసిక	-11.403
జనా	-11.4031
అన్త	-11.4032
▁మారణ	-11.4033
▁అప్పిచ్ఛా	-11.4033
▁పహిణ	-11.4035
▁అచరి	-11.4036
క్ఖన్ధం	-11.4036
▁ఝాయతి	-11.4037
▁ఉబ్భ	-11.4038
▁కోస	-11.4039
▁నీవరణే	-11.4039
కథిన	-11.4039
▁అనుమోదన	-11.4044
ావహార	-11.4045
▁సన్తోస	-11.4045
▁పీతిసహగత	-11.4046
పరిసఙ్కిత	-11.4046
▁పరిభవ	-11.4047
▁జీవక	-11.4047
సమ్భవా	-11.4048
▁దుప్	-11.4049
▁అగ్గహిత	-11.4049
▁దుబ్భాసిత	-11.405
▁అప్పియో	-11.4051
హాని	-11.4051
▁అనుప్పన్నానం	-11.4054
▁అరక్ఖిత	-11.4055
▁వళఞ్జ	-11.4055
▁అపణ్ణక	-11.4055
▁అరియమగ్గేన	-11.4059
యఞ్హి	-11.4061
▁వట్టదుక్ఖ	-11.4062
▁నిద్ద	-11.4063
▁సుఖావహ	-11.4063
▁ఫోట్ఠబ్బే	-11.4066
▁కోధనో	-11.4067
▁యావతాయుకం	-11.4067
▁బ్రాహ్మణమహాసాల	-11.4067
▁అఞ్ఞాతావీ	-11.4067
▁అనాగతంసఞాణస్స	-11.4068
కతే	-11.4068
▁తబ్భావ	-11.4068
▁నిద్ధారేత్వా	-11.4069
సమ్మతం	-11.407
▁పస్ససిస్సామీ	-11.407
▁సలక్ఖణ	-11.407
▁సమోధానేత్వా	-11.4072
▁నిస్సట్ఠ	-11.4072
▁వసనట్ఠాన	-11.4073
జరా	-11.4073
ప్యత్ర	-11.4074
▁పఞ్చహాకారేహి	-11.4075
▁ద్విపద	-11.4075
▁అనుసన్ధిం	-11.4076
▁భాజనం	-11.4076
▁సాత్థికా	-11.4076
▁మోఘపురిస	-11.4077
▁మచ్ఛేర	-11.4078
▁అప్పమాణా	-11.4079
▁సారిపుత్తం	-11.4082
పరాజిత	-11.4082
▁మద్దిత్వా	-11.4083
▁పవరో	-11.4084
▁ఆళవక	-11.4085
ఉపేక్ఖా	-11.4085
▁గవేసన్తో	-11.4085
▁హిమ	-11.4086
ఫరుస	-11.4087
▁దుప్పఞ్ఞ	-11.409
▁తావతా	-11.409
ణేయ్య	-11.4092
పరియన్తం	-11.4093
భిక్ఖవే	-11.4093
▁అపరియాపన్న	-11.4094
చతుర	-11.4094
▁మహబ్బలా	-11.4095
▁కామగుణేసు	-11.4095
▁ఉపసంహరతి	-11.4096
▁అధమ్మకమ్మ	-11.4097
▁౨౫౬	-11.4097
▁వినట్ఠ	-11.4097
భేరి	-11.4099
▁పరిత్తారమ్మణం	-11.4099
భాజనీయ	-11.4101
దస్సిత	-11.4101
▁సూచ	-11.4102
▁ఉప్పజ్జనతో	-11.4103
దాయకం	-11.4105
▁కమల	-11.4105
కిఞ్చ	-11.4109
▁నిద్దం	-11.4111
ానాగత	-11.4112
▁కాయసఙ్ఖార	-11.4112
పూజం	-11.4114
▁సుత్తపద	-11.4114
▁సుఖసహగతా	-11.4115
▁తథూపమ	-11.4115
▁తేనావుసో	-11.4115
▁గణ్ఠి	-11.4115
▁అదోస	-11.4115
▁సామత్థియ	-11.4117
భూమక	-11.4118
▁బహూసు	-11.4119
బోధిసత్త	-11.412
కహం	-11.412
▁ఆయాచ	-11.412
▁జేతవన	-11.4121
పితు	-11.4121
▁అసఙ్గహిత	-11.4121
కరణత్థం	-11.4122
▁రథో	-11.4122
▁పక్కన్త	-11.4123
▁సవిచారం	-11.4123
సరా	-11.4124
▁ఓతర	-11.4128
▁గణభోజన	-11.4128
▁సల్లక్ఖే	-11.413
స్మీ	-11.413
బాల	-11.4131
▁కుహక	-11.4131
నవుతి	-11.4133
▁పో	-11.4134
▁అభివాదన	-11.4134
▁మాసా	-11.4135
▁తయోపి	-11.4135
▁ఆదికమ్మిక	-11.4137
▁పస	-11.414
▁కాయచిత్త	-11.414
▁వికాలభోజన	-11.4141
▁సమానసంవాసక	-11.4142
▁అనుగ్గణ్హ	-11.4142
▁బుద్ధానుస్సతి	-11.4143
▁దుమ్మేధ	-11.4143
▁కిఞ్చన	-11.4144
▁భద్దన్తే	-11.4144
తిస్సత్థేరో	-11.4145
▁ఆగమిస్సతి	-11.4146
▁ఓసారణ	-11.4147
▁నిచ్ఛర	-11.4148
సక్కార	-11.4149
కారినో	-11.4151
▁విఞ్ఞాయతీతి	-11.4151
భావేపి	-11.4152
▁కేనచిదేవ	-11.4152
▁అన్తరధాన	-11.4153
వరే	-11.4154
క్ఖన్ధే	-11.4154
▁సప్పటిఘం	-11.4155
ాభిభూ	-11.4155
పిట్ఠ	-11.4155
▁మహగ్గతా	-11.4156
▁యథాసకం	-11.4156
▁సిజ్ఝతి	-11.4156
కుక్కుచ్చ	-11.4157
దహన	-11.4158
▁సవితక్క	-11.4158
▁సలాక	-11.4159
▁అనిదస్సనం	-11.4159
భూతపుబ్బం	-11.416
▁పుచ్ఛామ	-11.4161
▁చత్తారోపి	-11.4161
త్థానం	-11.4161
▁సావసేస	-11.4161
▁దారకో	-11.4162
▁విసత్తికా	-11.4163
ావజ్జన	-11.4163
▁నహేతుపచ్చయో	-11.4163
▁వికప్పన	-11.4164
▁భవితబ్బన్తి	-11.4164
▁ఆపాయిక	-11.4164
▁౨౬౪	-11.4165
ాదీనీతి	-11.4167
ిమ్హా	-11.4169
చ్చా	-11.417
▁బ్యాకరణ	-11.417
▁జరామరణస్స	-11.4171
▁వోట్ఠబ్బన	-11.4173
పదేసే	-11.4173
ుప్పన్నం	-11.4174
ఞాణాని	-11.4177
▁తహం	-11.4178
▁పరివారే	-11.418
▁ధేను	-11.4181
ఇచ్చేవమాదీ	-11.4182
▁ఉదపాదీతి	-11.4183
▁సన్నిపతన్తి	-11.4184
▁ఆయూ	-11.4185
పుగ్గలస్స	-11.4186
విచికిచ్ఛా	-11.4188
విభాగేన	-11.4189
మచ్చు	-11.4191
▁వాల	-11.4191
పరిపూరణ	-11.4193
కుసలస్స	-11.4194
భతో	-11.4196
వ్హ	-11.4196
▁రజనీయా	-11.42
▁వస్సిక	-11.42
▁సబ్బస్మిం	-11.4201
▁విహ	-11.4201
కోసల్లం	-11.4203
▁సుణన్త	-11.4204
▁దణ్డి	-11.4207
▁అఙ్గీరస	-11.4208
నిజ్ఝాన	-11.4209
▁ఓవదతి	-11.4209
▁సంవేజ	-11.4209
నాథ	-11.421
▁౨౬౯	-11.421
▁మరణధమ్మ	-11.4211
ఫలాని	-11.4212
▁అగ్గమక్ఖాయతి	-11.4213
▁పరిదీపిత	-11.4213
▁పవారేతబ్బం	-11.4213
▁అనావాసో	-11.4214
అనాథపిణ్డిక	-11.4214
సదిసతా	-11.4214
▁ఫరుసా	-11.4216
పాళియా	-11.4216
▁విజ	-11.4216
▁పముఞ్చ	-11.4217
▁దేవమనుస్స	-11.4217
సహాయో	-11.4218
▁పరిమజ్జ	-11.4219
నిగ్ఘోస	-11.4219
▁సలాకభత్త	-11.4219
▁జనానం	-11.4221
▁అల్లీయ	-11.4221
▁౨౮౦	-11.4221
▁నిస్సిత	-11.4222
▁గహితాని	-11.4222
▁మిచ్ఛత్త	-11.4224
▁వుత్తేహి	-11.4225
▁ఏకాహప్పటిచ్ఛన్న	-11.4226
▁నియమేత్వా	-11.4226
▁విఞ్ఞూహి	-11.4228
స్సన్తీ	-11.4228
▁అధిట్ఠాతి	-11.423
▁అపాయేసు	-11.4231
▁వఞ్చన	-11.4232
గోచరం	-11.4233
ాపేన్తస్స	-11.4234
▁దుక్ఖసముదయ	-11.4234
హతా	-11.4235
యమానం	-11.4236
▁దేవేహి	-11.4237
▁సారమ్మణో	-11.4239
వహ	-11.424
▁౨౬౭	-11.4242
▁నిబ్బాయ	-11.4244
▁అనాగామి	-11.4246
▁రాగాదయో	-11.4249
▁అస్సాదఞ్చ	-11.4249
▁పటిపజ్జి	-11.4249
సమ్ఫస్సో	-11.4251
▁సమన్నాగత	-11.4251
వణిజ్జ	-11.4251
▁అస్సద్ధ	-11.4251
▁పుమా	-11.4251
గోచరే	-11.4251
భం	-11.4254
▁కారయ	-11.4255
▁తణ్హాపచ్చయా	-11.4256
▁దుతియదివసే	-11.4256
▁ఉపట్ఠాపే	-11.4257
గయ్హ	-11.4259
హాకారేహి	-11.4259
▁ఏకాదసహి	-11.4259
▁సుకతం	-11.426
౩౦	-11.426
పుగ్గలం	-11.4262
▁తాణ	-11.4262
▁విజ్జు	-11.4263
▁పారమిం	-11.4263
సస్సతో	-11.4263
దుక్ఖా	-11.4264
▁నేక్ఖమ్మం	-11.4265
▁గణ్హథ	-11.4267
సరీరం	-11.4268
౫౦	-11.4269
▁పిసుణ	-11.4269
ాతిక్కమే	-11.4269
▁౨౫౮	-11.4273
▁పూరేన్త	-11.4274
ుజ్జన	-11.4276
▁వచీదుచ్చరిత	-11.4276
▁విస్స	-11.428
▁పఞ్ఞాబలం	-11.4286
▁ధతరట్ఠ	-11.4286
▁అభాసథ	-11.4286
▁వచనమబ్రవి	-11.4287
▁సణికం	-11.4287
తావసేన	-11.4288
పరేత	-11.4288
▁బ్రూ	-11.429
▁సచిత్తకం	-11.4293
▁వణ్ణిత	-11.4293
▁మానే	-11.4293
▁దసమో	-11.4293
▁కథయ	-11.4293
▁వుత్తమేవత్థం	-11.4293
▁అభినివేసో	-11.4294
▁ఏతదగ్గే	-11.4295
▁పురిమాని	-11.4295
▁ఉత్తరో	-11.4295
ీయిత్థాతి	-11.4295
సహితం	-11.4297
▁సతా	-11.4298
రిత	-11.4299
పపఞ్చ	-11.43
▁సామఞ్ఞం	-11.43
▁దసధా	-11.4302
▁సూద	-11.4303
▁పవిసన్తి	-11.4304
▁చిన్తిత	-11.4305
▁నిబ్బత్తిత	-11.4305
ూని	-11.4306
▁సద్దేన	-11.4306
ాదీనిపి	-11.4306
సమ్భూత	-11.4307
పస్సే	-11.4309
▁మహాభోగ	-11.4311
▁చార	-11.4312
మేవేతం	-11.4313
▁వోదానస్స	-11.4313
▁పుథ	-11.4313
▁పురేజాత	-11.4314
▁వస్ససహస్స	-11.4314
▁తేవిజ్జ	-11.4315
సినా	-11.4316
▁ధంస	-11.4316
సేవిత	-11.4316
కారకా	-11.4317
▁సమ్భవతో	-11.4318
సముజ్జల	-11.4319
▁ఓపపాతిక	-11.432
▁పటిఞ్ఞాయ	-11.4321
౨౩	-11.4322
▁విపస్సి	-11.4323
ఖి	-11.4325
▁తతియజ్ఝాన	-11.4326
పవిట్ఠ	-11.4327
ఆరామ	-11.4327
పచ్చనీక	-11.4328
▁వమ	-11.4328
▁జనతా	-11.433
▁ఆచిణ్ణ	-11.4331
దసకం	-11.4333
▁ఆగతాని	-11.4334
▁౨౬౬	-11.4335
▁౨౪౭	-11.4335
▁సద్ధమ్మస్స	-11.4337
న్ద్రియ	-11.4337
▁కటుక	-11.4338
౨౧	-11.4339
నుగ	-11.4339
ుభ	-11.434
పఞ్చిమాని	-11.434
▁దహరా	-11.4341
▁సక్ఖర	-11.4341
▁విభత్తం	-11.4343
▁తచో	-11.4345
జ్జా	-11.4346
అడ్	-11.4347
వసేనాపి	-11.4347
నికాయట్ఠకథాయ	-11.4347
▁సిస్సా	-11.4348
ారహా	-11.4352
సరీరో	-11.4353
▁నిద్ధారిత	-11.4353
▁నియమో	-11.4353
▁సభా	-11.4354
▁దేవరాజ	-11.4354
▁అవిజ్జాసవో	-11.4355
▁బన్ధతి	-11.4355
▁అధివాసే	-11.4355
▁రట్ఠా	-11.4356
▁సిత	-11.4356
ధేయ్య	-11.4358
▁పరివితక్కో	-11.4359
▁చవతి	-11.4359
▁కబళ	-11.4359
▁సారో	-11.436
▁భిక్ఖునుపస్సయ	-11.436
▁సాయన్హసమయం	-11.436
▁ఉమ్ముజ్జ	-11.4361
▁మహబ్భయ	-11.4361
▁నానుసేతీతి	-11.4361
▁జరం	-11.4361
మారబ్భ	-11.4362
▁అననుఞ్ఞాత	-11.4362
▁అరియకన్త	-11.4362
▁ఫణ	-11.4363
▁మఙ్కు	-11.4364
లట్ఠి	-11.4365
▁౨౬౨	-11.4367
▁సోధేత్వా	-11.4368
▁వదన్తస్స	-11.4371
సుమన	-11.4372
▁భగ	-11.4375
▁అరియమగ్గం	-11.4377
▁మద్దీ	-11.4377
▁వాదే	-11.4378
▁సముచ్చయ	-11.4379
టం	-11.438
▁సమ్ముఖీభావ	-11.4381
▁ఆరక్ఖం	-11.4383
▁సంవరాయ	-11.4384
▁రూపేసు	-11.4385
▁కామసుఖ	-11.4385
▁పణ్డితానం	-11.4386
▁అరహత్తా	-11.4386
▁అమూళ్హవినయ	-11.4387
▁తస్సేవం	-11.4389
▁నిగ్గత	-11.4391
పుప్ఫాని	-11.4392
▁అరియేన	-11.4394
▁సామీచి	-11.4394
▁కుట్ట	-11.4394
▁సబ్బధమ్మ	-11.4395
▁రక్ఖణ	-11.4396
▁ఉపలబ్భ	-11.4397
▁ఓవాదో	-11.4398
▁తేపిటక	-11.4398
సఙ్ఖారా	-11.4399
▁గన్థనియ	-11.4399
▁నివారణ	-11.4399
▁భావితం	-11.4403
▁సమాహితే	-11.4404
▁ఆకిణ్ణ	-11.4405
▁పణ్డ	-11.4406
▁జనేతీతి	-11.4408
దోసం	-11.4408
▁విప్పకత	-11.4408
▁నమే	-11.4409
దస్సనత్థ	-11.4411
▁సీహళ	-11.4411
ాయతనాని	-11.4412
▁ఆనాపాన	-11.4413
▁కమ్పతి	-11.4415
▁పఞ్హస్స	-11.4415
▁కుసలకమ్మ	-11.4416
పీఠం	-11.4416
మాగతో	-11.4418
▁నుప్పజ్జిత్థాతి	-11.4419
మూ	-11.4419
▁ఏవమయం	-11.442
▁కామభవే	-11.4422
గమే	-11.4423
పదేసో	-11.4425
పరిగ్గహిత	-11.4425
సద్ధో	-11.4427
▁పణీతా	-11.4428
▁వితక్కఞ్చ	-11.4428
▁ఆయుప్పమాణం	-11.4428
▁౨౫౩	-11.4429
ాతిక్కన్త	-11.4429
పాటిహారియ	-11.4431
ఆసవ	-11.4431
▁ఇద్ధీ	-11.4433
▁ఝానానం	-11.4433
▁సమిఞ్జిత	-11.4434
▁సణ్ఠప	-11.4434
▁అబ్యాబజ్ఝ	-11.4435
▁విలుమ్ప	-11.4435
ూపసంహిత	-11.4435
▁బహవో	-11.4436
▁సఞ్ఞత	-11.4436
▁కాసిరాజ	-11.4436
▁అలభమాన	-11.4436
▁సల్లక్ఖ	-11.4436
▁అనాథపిణ్డికో	-11.4437
▁వినిచ్ఛిన	-11.4437
▁పురక్ఖత్వా	-11.4437
▁అత్థుద్ధార	-11.4438
▁సురాపాన	-11.4439
▁పరిస్సయా	-11.444
▁అధమ్మకమ్మే	-11.4441
▁దస్సయ	-11.4442
▁అభావం	-11.4442
ాయస్మతో	-11.4442
రజన	-11.4442
▁సమానత్థ	-11.4443
▁అఙ్గపచ్చఙ్గ	-11.4443
▁మోచేత్వా	-11.4444
▁రట్ఠపాల	-11.4444
▁లోమం	-11.4444
▁పచ్చవేక్ఖ	-11.4446
సంయుత్తవణ్ణనా	-11.4448
▁వయం	-11.4449
జు	-11.445
▁చక్ఖుస్స	-11.445
▁వుత్తత్థమేవ	-11.4451
▁అసమ్మిస్స	-11.4453
దయ	-11.4453
▁సారమ్భం	-11.4454
▁సుస్సూస	-11.4455
▁ఛద్దన్త	-11.4457
▁చరిత	-11.4459
గేహే	-11.4459
ఫుల్ల	-11.4461
▁పటిగ్గహో	-11.4462
▁దమే	-11.4462
పీళన	-11.4463
పిలోతిక	-11.4464
మరియ	-11.4465
▁చిత్తా	-11.4465
▁భారద్వాజ	-11.4466
పక్ఖన్ద	-11.4468
▁పదేసు	-11.4469
సుఖేన	-11.447
సమ్బాధ	-11.4471
▁గమిస్సన్తి	-11.4471
సారిపుత్త	-11.4473
ాలుక	-11.4474
▁వణ్ణతో	-11.4475
అన్తో	-11.4475
పరిభోగో	-11.4476
▁ససఙ్ఖార	-11.4476
▁సోతాపన్నస్స	-11.4478
▁విఞ్ఞాతం	-11.4478
▁బహూపకార	-11.4479
▁పటిహఞ్ఞ	-11.4479
ుగ్గత	-11.4482
▁౨౪౯	-11.4482
▁సుఖసహగతో	-11.4482
▁కీళన్తి	-11.4483
దూసక	-11.4483
▁ఞాతకే	-11.4483
యాపి	-11.4484
కాయే	-11.4485
▁వరే	-11.4485
పలాస	-11.4487
▁బ్రహ్మానం	-11.4487
చ్ఛిద్ద	-11.4488
అమ్మ	-11.4489
▁ధమ్మవినయ	-11.4489
▁పుచ్ఛేయ్య	-11.449
▁హరతి	-11.4491
సమ్పి	-11.4491
▁గిలానపచ్చయ	-11.4492
▁పటిబద్ధ	-11.4492
అమ్బ	-11.4493
▁అమ్భో	-11.4495
▁సుతా	-11.4498
వధ	-11.4498
▁౨౫౧	-11.4499
▁దీపితో	-11.4499
▁మోహఞ్చ	-11.45
పచ్చయం	-11.45
▁బారాణసిం	-11.4503
కాయేన	-11.4508
చ్ఛద	-11.4508
▁భావిత్థ	-11.4508
స్వాక్ఖాత	-11.4509
▁వుచ్చన్తే	-11.451
▁అవిపరిణామధమ్మ	-11.451
▁పోరిసాద	-11.451
▁ఉప్పాదేతబ్బ	-11.4511
▁నిబ్భయ	-11.4511
▁మిత్తామచ్చ	-11.4511
▁అపరిసేస	-11.4512
▁కల్యాణమిత్తతా	-11.4512
▁గణే	-11.4512
▁దాయాదో	-11.4512
▁తావతింసా	-11.4514
▁కోసమ్బియం	-11.4515
▁సణ్ఠహ	-11.4515
సఙ్ఖ్యా	-11.4515
▁వచీవిఞ్ఞత్తి	-11.4516
▁అధిచిత్త	-11.4517
▁సక్కత్వా	-11.4517
▁తదపి	-11.4518
▁సతసహస్సం	-11.4519
▁ఉదపాన	-11.452
గీవ	-11.4521
▁బలి	-11.4523
▁బన్ధనే	-11.4523
▁పల్లఙ్కేన	-11.4524
▁పజ్జల	-11.4524
వత్తబ్బే	-11.4524
▁చరిమ	-11.4525
పరమత్థ	-11.4525
▁పుత్తేహి	-11.4526
▁బ్రహ్మఞ్ఞ	-11.4526
▁ఛిజ్జ	-11.4526
నామా	-11.4528
▁అనుమోదిత్వా	-11.4531
ఙ్గార	-11.4533
▁ధమ్మపద	-11.4533
▁ఇచ్ఛసి	-11.4534
న్ధర	-11.4534
ధోత	-11.4535
▁భణేయ్య	-11.4535
▁గచ్ఛథ	-11.4536
▁లేడ్డు	-11.4537
ద్దస	-11.4538
ట్ఠానియ	-11.4538
ానమేతం	-11.4538
▁౨౫౯	-11.4539
▁సచ్ఛికతం	-11.4539
▁పుబ్బస్స	-11.454
సిక్ఖాపదఞ్చ	-11.454
▁విరోధ	-11.4545
▁సుసాన	-11.4546
▁హాని	-11.4546
సన్థర	-11.4548
ారోచన	-11.4548
బహువచన	-11.4548
▁రట్ఠవ	-11.4549
▁భాసితమ్పేతం	-11.455
▁అఙ్గణ	-11.4552
▁సమ్మత	-11.4553
ాదీహీతి	-11.4553
▁జాతిజర	-11.4553
ాదికథా	-11.4554
▁ఖీణాసవానం	-11.4554
ప్పటిపత్తి	-11.4558
▁మహాకస్సపత్థేర	-11.4559
▁౨౫౭	-11.456
▁మహాభూత	-11.4562
▁ణి	-11.4562
▁మనుస్సలోక	-11.4563
▁అన్తరధాయతి	-11.4564
▁సమ్మత్తనియత	-11.4564
▁సుపుప్ఫిత	-11.4565
ఙ్గపఞ్హో	-11.4565
భిసి	-11.4566
భాణి	-11.4567
▁దేమా	-11.4568
▁సువిముత్త	-11.4568
▁నిస్సట	-11.4569
రూపీ	-11.457
▁కోటిసతసహస్స	-11.457
▁పహాతబ్బహేతుకఞ్చ	-11.457
త్థీతి	-11.4573
▁పణ్డితం	-11.4574
▁కిలమతి	-11.4575
▁ధమ్మకమ్మే	-11.4575
ప్పటిసంవేదీ	-11.4577
▁పతిస్స	-11.4578
▁జహాతి	-11.4579
▁వీరియబలం	-11.4582
▁ఏవమేత	-11.4582
▁సప్పటిభయ	-11.4586
▁చిత్తసహభూ	-11.4586
▁అగిలానస్స	-11.4587
▁అపరన్త	-11.4588
భోగో	-11.4588
▁సద్ధాదేయ్య	-11.4588
▁సంవిగ్గ	-11.459
▁సగారవో	-11.4592
పరా	-11.4592
▁పవేధ	-11.4593
▁ఇజ్ఝతి	-11.4594
▁ఆణాపేతి	-11.4596
▁భన్త	-11.4597
▁౨౭౩	-11.4598
-‘	-11.4599
కన్ద	-11.4599
సంవేగ	-11.4599
▁పవస్స	-11.4599
▁భగ్గవ	-11.4599
విద్ధ	-11.4602
భోజనే	-11.4602
▁పవత్తమానం	-11.4603
▁దస్సేన్తి	-11.4604
పకత	-11.4604
▁ఆపజ్జితబ్బ	-11.4604
సంవత్తనిక	-11.4605
▁సువణ్ణం	-11.4605
▁లమ్బ	-11.4605
విపస్సన	-11.4605
▁కథేతబ్బం	-11.4605
▁పవేసన	-11.4606
కిచ్చా	-11.4606
▁సామఞ్ఞఫలాని	-11.4608
పాతో	-11.4609
[...]
