<unk>	0
<s>	0
</s>	0
,	-2.87628
ฯ	-3.87328
.	-4.04243
ติ	-4.09031
ํ	-4.13082
▁‘‘	-4.2194
▁	-4.33288
’’	-4.46193
▁น	-4.54627
▁จ	-4.56981
;	-4.74932
า	-4.76624
▁วา	-4.97412
สฺส	-5.04603
นฺติ	-5.10508
▁–	-5.21154
น	-5.43388
▁ปน	-5.50398
▁อ	-5.51397
ติฯ	-5.51962
เป	-5.56759
▁ตํ	-5.62846
?	-5.63995
ปิ	-5.70759
▁ตตฺถ	-5.75152
..	-5.80215
▁โส	-5.82992
▁โหติ	-5.84574
▁เอวํ	-5.88158
โต	-5.88984
▁โข	-5.95575
-	-5.98165
ญฺจ	-5.98797
▁ภิกฺขเว	-6.07566
’	-6.0914
▁เต	-6.09555
▁ตสฺส	-6.12098
▁นาม	-6.12804
ว	-6.17465
าติ	-6.18782
สุ	-6.19548
▁หิ	-6.22833
หิ	-6.26137
านํ	-6.27382
านิ	-6.39581
นํ	-6.46909
▁‘	-6.52107
▁ธโมฺม	-6.56784
▁ธมฺมา	-6.57573
▁เม	-6.57855
▁ส	-6.5805
▁เตสํ	-6.59191
▁ธมฺมํ	-6.61115
วเสน	-6.63911
าย	-6.64135
ย	-6.64459
▁อยํ	-6.64773
นฺติฯ	-6.66788
▁เตน	-6.66842
▁ยถา	-6.67186
▁โน	-6.67723
▁โหติฯ	-6.68475
▁ปฎิจฺจ	-6.6988
ก	-6.712
ํฯ	-6.71834
อ	-6.72855
▁อโตฺถฯ	-6.73075
▁ยํ	-6.75289
▁ภิกฺขุ	-6.76477
▁วิย	-6.77812
▁อุปฺปชฺชติ	-6.78114
ตา	-6.7925
▁โย	-6.80383
▁เทฺว	-6.8115
โก	-6.81164
ิ	-6.84351
▁เอกํ	-6.84665
▁ตถา	-6.8514
▁อถ	-6.85294
▁เอตฺถ	-6.85974
าทิ	-6.86073
▁กตฺวา	-6.86267
▁ฯ	-6.87865
▁ตสฺมา	-6.88254
▁ภควา	-6.8866
▁ภเนฺต	-6.90068
ตฺตา	-6.90138
▁อิทํ	-6.91513
▁ตโต	-6.92019
มฺปิ	-6.92656
ี	-6.92738
ตีติ	-6.93721
▁วุตฺตํ	-6.96145
โนฺต	-7.01319
สิ	-7.01833
เยว	-7.02174
▁อตฺตโน	-7.05321
โย	-7.06646
ยา	-7.07239
▁ปญฺจ	-7.07347
▁ปจฺจโย	-7.09893
ม	-7.09953
▁อาห	-7.11305
▁วุตฺตํฯ	-7.11423
▁สา	-7.14485
▁อิธ	-7.14753
เมว	-7.15052
▁ยสฺส	-7.15569
นา	-7.17518
▁จิตฺตํ	-7.1752
ส	-7.1832
▁มหา	-7.18626
▁อตฺถิ	-7.19496
▁เย	-7.19553
▁ป	-7.19886
▁ตีณิ	-7.20159
ป	-7.24897
▁ตสฺมิํ	-7.24927
ตํ	-7.25667
▁สตฺต	-7.26074
▁นว	-7.26823
กํ	-7.27625
▁อิติ	-7.28129
▁วิ	-7.29278
▁ภิกฺขู	-7.31398
ยํ	-7.32183
มฺหิ	-7.32702
▁นิฎฺฐิตาฯ	-7.35021
▁สุ	-7.35065
▁เอก	-7.37701
กา	-7.38149
ตาย	-7.38569
▁กิํ	-7.38819
▁เอว	-7.40005
▁เจว	-7.41534
ิตฺวา	-7.41836
นิ	-7.43541
▁ธมฺม	-7.43845
▁สพฺพ	-7.44361
▁นตฺถิ	-7.45524
▁ธมฺมสฺส	-7.45606
▁ภควโต	-7.45843
โน	-7.46552
เน	-7.46747
าฯ	-7.47736
▁อาปตฺติ	-7.48042
เต	-7.50821
▁วุจฺจติ	-7.50962
โส	-7.52308
ต	-7.53057
▁หุตฺวา	-7.5383
ตี	-7.55752
▁ยา	-7.56634
▁ยตฺถ	-7.57145
▁อิมินา	-7.57464
▁รูปํ	-7.58944
▁อิเม	-7.59751
▁อนุ	-7.62323
▁อามนฺตาฯ	-7.6354
▁โหนฺติ	-7.63923
▁อิมํ	-7.64096
▁ปจฺจโยฯ	-7.64877
▁ขนฺธา	-7.65425
ตฺถ	-7.66057
▁ทิสฺวา	-7.66233
▁สทฺธิํ	-7.67648
▁ราชา	-7.67681
เก	-7.68312
▁เหตุ	-7.68451
▁กถํ	-7.68787
▁เยน	-7.68808
▁ตฺวํ	-7.70093
วิ	-7.70583
ตฺวา	-7.71093
ุ	-7.72065
▁ปุน	-7.73107
▁ตโย	-7.73196
▁ฉ	-7.73211
▁อาวุโส	-7.73403
▁อุป	-7.73925
▁มํ	-7.74004
▁นุ	-7.75269
▁ว	-7.75462
▁อหํ	-7.76162
▁มา	-7.7682
▁ปญฺญา	-7.77473
▁สเจ	-7.77765
▁ตทา	-7.78043
▁เอโก	-7.78279
▁คเหตฺวา	-7.79063
▁โหตีติ	-7.79628
▁มม	-7.79909
▁๑	-7.79923
▁ภควตา	-7.80831
สุตฺตํ	-7.81745
▁เจ	-7.81811
▁อโตฺถ	-7.81867
▁อิทานิ	-7.82532
▁สติ	-7.82564
▁สตฺถา	-7.83383
สุตฺตวณฺณนา	-7.8577
าทีสุ	-7.86086
▁สห	-7.86211
▁นามฯ	-7.86385
▁ปุคฺคโล	-7.86422
▁สิยา	-7.88592
าทีนํ	-7.88658
▁ปจฺจยา	-7.89009
นฺตีติ	-7.90395
ตุ	-7.9052
▁สุตฺวา	-7.90593
มา	-7.90732
▁อา	-7.90953
▁ปฎิ	-7.91188
▁สพฺพํ	-7.91305
▁จฯ	-7.91488
▁นเหตุ	-7.91923
▁มหาราช	-7.92647
ถ	-7.93442
▁ยสฺมา	-7.9352
▁กมฺม	-7.9414
▁จตฺตาโร	-7.94228
▁ตาว	-7.94506
วา	-7.95823
▁อฎฺฐ	-7.95964
▁สเพฺพ	-7.96743
ภาวํ	-7.9682
ติอาทิ	-7.97488
ิกา	-7.97565
จ	-7.97924
▁เตนาห	-7.98611
▁กตํ	-7.98673
▁โลเก	-7.99009
ภาเวน	-7.99125
▁วตฺวา	-8.00602
▁เหตุปจฺจยา	-8.01211
▁ขเนฺธ	-8.01596
▁โก	-8.02289
สโทฺท	-8.02804
▁จิตฺต	-8.02874
▁ทส	-8.03149
นฺตสฺส	-8.03279
▁สมเย	-8.03377
▁ปุเพฺพ	-8.03679
าปิ	-8.04548
▁ปริ	-8.04891
าทโย	-8.04933
▁เอตํ	-8.0504
▁จตฺตาริ	-8.05172
ิต	-8.0527
ิโต	-8.05671
ติอาทินา	-8.05919
ตฺต	-8.05974
ภาโว	-8.06034
▁อารพฺภ	-8.06877
▁เวทนา	-8.06943
▁คนฺตฺวา	-8.06987
นฺตา	-8.07366
เย	-8.07425
▁ภิกฺขุโน	-8.07514
ธมฺม	-8.07805
าทีหิ	-8.07968
เส	-8.07999
นฺตี	-8.08773
▁ตุ	-8.08934
ปฺป	-8.08935
▁กิร	-8.09163
โร	-8.09555
สํ	-8.09785
▁เนว	-8.10266
▁ฐเปตฺวา	-8.10637
▁วตฺตเพฺพ	-8.10955
๗	-8.11428
▁อตฺถ	-8.11634
▁กมฺมํ	-8.12322
▁ทุกฺข	-8.12388
กาเล	-8.12409
▁สนฺธาย	-8.12569
▁อิมสฺมิํ	-8.1273
▁๒	-8.12918
สา	-8.12998
ิตา	-8.13543
▁อุ	-8.13642
๓	-8.13736
▁มยา	-8.13858
กถา	-8.13986
▁ปรํ	-8.14363
▁รูป	-8.14408
▁ปฐม	-8.14576
▁อโหสิ	-8.14739
▁ต	-8.14923
▁กิญฺจิ	-8.15009
วฑฺ	-8.1529
▁วิหรติ	-8.15456
▁ธเมฺม	-8.15593
▁อายสฺมา	-8.15631
▁โภ	-8.15878
๕	-8.15986
๙	-8.16819
๖	-8.16834
▁ปฐมํ	-8.16912
▁มยฺหํ	-8.17165
เนว	-8.17564
สฺมิํ	-8.17584
ร	-8.17676
๘	-8.17681
▁อน	-8.17738
▁วตฺถุ	-8.17749
▁ยาว	-8.1839
านีติ	-8.18511
มาโน	-8.18649
▁สม	-8.18937
▁ตณฺหา	-8.18941
๔	-8.19181
ิก	-8.19359
▁ภควนฺตํ	-8.19536
▁อภิ	-8.19706
ล	-8.19909
▁อสฺส	-8.20331
▁ก	-8.20405
▁อญฺญํ	-8.20597
เม	-8.20691
▁ทิฎฺฐิ	-8.20742
ภาว	-8.21163
าทีนิ	-8.21258
▁ทุกฺขํ	-8.2132
๑	-8.21455
▁พุทฺธ	-8.21536
▁วต	-8.21568
วโคฺค	-8.22317
๒	-8.23019
▁นิ	-8.23199
▁อิโต	-8.2348
ิย	-8.23688
▁เถโร	-8.23726
▁ปร	-8.24127
▁ทเสฺสตุํ	-8.2438
▁ทเสฺสติฯ	-8.25176
เฎฺฐน	-8.25557
▁สมฺมา	-8.25612
ช	-8.25887
▁วุจฺจติฯ	-8.26633
▁โยชนาฯ	-8.26671
▁ม	-8.2704
▁เหตุปจฺจยาฯ	-8.2754
▁จาติ	-8.28138
เกน	-8.28164
▁เทว	-8.28218
รูป	-8.29263
▁เวทิตโพฺพฯ	-8.29387
▁วุตฺต	-8.29727
ตฺถาย	-8.30143
▁ยทิ	-8.30832
ติอาทิฯ	-8.31263
▁สมนฺนาคโต	-8.31621
ตุํ	-8.31637
ิตํ	-8.31888
กมฺม	-8.3197
▁อปฺป	-8.32364
▁ขนฺธานํ	-8.32767
▁ทเสฺสโนฺต	-8.3281
▁ราช	-8.3292
▁กตเม	-8.33086
▁โอ	-8.33227
▁ตสฺสา	-8.33323
ีติ	-8.33714
▁ฌานํ	-8.33741
▁ภว	-8.34299
ตฺตํ	-8.34413
ตฺถํ	-8.34455
เนน	-8.34761
▁เหตุยา	-8.35137
เว	-8.35317
▁ทุติย	-8.35507
▁เตสุ	-8.35561
▁ชาติ	-8.3573
▁อโนฺต	-8.35888
▁กโรติ	-8.3597
▁รโญฺญ	-8.35983
ิํ	-8.36134
▁วาฯ	-8.36187
เนฺต	-8.36238
ามิ	-8.36994
เร	-8.37027
▁จิตฺตสฺส	-8.37291
▁มคฺค	-8.37527
▁เหฎฺฐา	-8.3784
ิตุํ	-8.37841
วณฺณนา	-8.37929
ท	-8.38075
▁สมฺพโนฺธฯ	-8.38122
▁๓	-8.38233
▁วจนํ	-8.38331
ิยา	-8.3848
▁ผล	-8.38551
▁วเสน	-8.38753
นฺตํ	-8.39111
เหตุ	-8.39432
▁กสฺมา	-8.40396
สี	-8.40612
▁โหนฺติฯ	-8.40649
▁สญฺญา	-8.40792
▁เกจิ	-8.40927
▁กต	-8.41329
▁ปฎฺฐาย	-8.4148
านิฯ	-8.4177
เญฺจว	-8.41985
▁พฺราหฺมณ	-8.41989
โม	-8.4203
▁โว	-8.42111
▁เวทิตพฺพํฯ	-8.42715
▁เหวํ	-8.42757
ห	-8.42896
▁ภิกฺขูนํ	-8.43005
▁พุโทฺธ	-8.43977
โตฺถ	-8.44211
หํ	-8.4432
▁เอส	-8.44374
▁อติ	-8.44469
▁ชานาติ	-8.44905
▁อาหฯ	-8.45095
▁ตานิ	-8.46201
▁ปจฺฉา	-8.46262
▁สุขํ	-8.46541
๐	-8.46694
▁ปุริโส	-8.46812
▁ตตฺร	-8.46824
▁สมเยน	-8.46873
▁วฎฺฎติฯ	-8.46906
▁ญาณ	-8.47427
เตน	-8.4761
▁สตฺตา	-8.47713
▁๔	-8.4799
▁ปุจฺฉา	-8.48088
สิกฺขาปทวณฺณนา	-8.48237
▁สุข	-8.48496
▁ญาณํ	-8.49072
ยฺย	-8.49122
มิ	-8.49234
ปริ	-8.49537
▁เตหิ	-8.49701
▁กุสลา	-8.50026
▁อุปสงฺกมิตฺวา	-8.50089
▁ตา	-8.50091
▁กาม	-8.50283
▁เอตทโวจ	-8.5034
ิโก	-8.50633
ภิ	-8.50712
ทิ	-8.50857
▁เวทนาย	-8.51168
▁เอวเมว	-8.51168
▁นิสฺสาย	-8.51338
ฎฺฐาเน	-8.5157
▁เว	-8.51587
ณ	-8.51789
▁สมาธิ	-8.52061
โฎฺฐ	-8.52125
▁อุปฺปชฺชนฺติ	-8.52262
▁สพฺพตฺถ	-8.52958
▁วุเตฺต	-8.53297
อยํ	-8.53309
เสฺสว	-8.53311
▁โหตี	-8.53575
▁๗	-8.53769
▁อิมา	-8.53844
▁เสสํ	-8.53954
▁พุทฺธสฺส	-8.54274
▁ทานํ	-8.54452
▁อิมสฺส	-8.54469
▁ทตฺวา	-8.54959
▁‘‘‘	-8.55059
▁เอเสว	-8.55082
▁สโงฺฆ	-8.55155
▁วุตฺตา	-8.55209
วตฺถุ	-8.55549
▁สกฺกา	-8.55647
▁ปุพฺพ	-8.55878
▁อาทิ	-8.55929
▁อุปริ	-8.56024
▁ปท	-8.56246
▁อุปฺปชฺชติฯ	-8.56504
▁อตฺตนา	-8.566
▁เอกมนฺตํ	-8.56899
เตฺถ	-8.57031
▁นานา	-8.57096
▁๕	-8.57164
ปจฺจยา	-8.57474
▁อารมฺมเณ	-8.57557
▁โกจิ	-8.57877
▁ตว	-8.57962
▁กุสลํ	-8.57971
ิํสุ	-8.58319
กสฺส	-8.58602
าว	-8.58721
▁ตีณิฯ	-8.59122
ปฎิ	-8.59146
โตฺต	-8.59187
▁คจฺฉติ	-8.59197
▁กาย	-8.59217
▁ปญฺญาย	-8.59402
▁พฺราหฺมโณ	-8.5974
▁เวทิตพฺพาฯ	-8.59784
จิตฺต	-8.59794
▁สนฺติเก	-8.60018
เอวํ	-8.60144
▁๖	-8.6045
ติอาทีสุ	-8.60527
▁อตฺถํ	-8.60651
มานา	-8.60719
▁พหุ	-8.60744
มฺหา	-8.61501
▁อโหสิฯ	-8.61514
ฎฺฐ	-8.61906
▁สยํ	-8.62038
สเทฺทน	-8.62193
▁ปตฺต	-8.62344
▁มโคฺค	-8.62362
กิํ	-8.62392
หีติ	-8.62543
▁อตฺตานํ	-8.6265
▁ธเมฺมหิ	-8.63018
▁สีล	-8.63021
▁อกุสลา	-8.63083
▁มโน	-8.63531
▁อธิปฺปาโยฯ	-8.63756
▁ยโต	-8.64079
มหา	-8.64127
▁ธมฺมานํ	-8.64438
▁โลก	-8.64774
▁ตถาคโต	-8.64985
▁อานนฺท	-8.6513
▁ปาป	-8.65701
ชฺช	-8.65835
งฺค	-8.65956
▁กิเลส	-8.66147
▁สงฺฆ	-8.66458
ิเต	-8.66489
▁มยํ	-8.66967
▁ปจฺจย	-8.67029
สฺสุ	-8.67167
สิฯ	-8.67337
▁๘	-8.67495
ภาวโต	-8.6755
กถาวณฺณนา	-8.67667
▁จีวรํ	-8.67871
▁วิญฺญาณํ	-8.67912
▁สทฺธา	-8.68005
▁มคฺคํ	-8.68234
สฺสา	-8.68375
ญฺหิ	-8.68506
▁ขนฺธ	-8.68517
▁อุปฺปชฺชิสฺสติ	-8.68526
▁ธเมฺมสุ	-8.6904
▁ธาตุ	-8.69191
โล	-8.6945
วณฺณ	-8.69498
▁๙	-8.69559
▁ญตฺวา	-8.69565
▁เอเต	-8.6983
▁เอกา	-8.70033
▁สาธุ	-8.7021
▁ภิกฺขุนา	-8.70339
▁จกฺขุ	-8.70397
านุ	-8.70652
นี	-8.70661
▁อิมานิ	-8.70801
▁๑๐	-8.71018
▁วุโตฺต	-8.7124
▁สจฺจ	-8.71385
▁ปหาย	-8.71456
▁นโยฯ	-8.71495
ปีติ	-8.71533
▁อิเมหิ	-8.71581
โตฯ	-8.71585
สฺสาติ	-8.71623
▁นเยน	-8.71678
▁สํ	-8.7199
▁กาเล	-8.72149
นาติ	-8.72252
▁จตุ	-8.72342
ิฯ	-8.72445
การ	-8.72535
ติอาทิมาหฯ	-8.72752
▁นตฺถิฯ	-8.73019
▁นิพฺพานํ	-8.73167
ูป	-8.73283
▁วินา	-8.73372
▁คาถา	-8.74033
สญฺญา	-8.74431
กาโร	-8.74647
นฺต	-8.74741
เนฺตน	-8.74873
กาย	-8.74875
▁ฐานํ	-8.7497
▁ปฎิสนฺธิกฺขเณ	-8.75155
ิกํ	-8.7546
โว	-8.75563
สูติ	-8.75951
▁อุทก	-8.76126
▁สงฺฆสฺส	-8.76389
คฺค	-8.76404
▁อว	-8.76746
ปท	-8.77193
▁ฐิโต	-8.77216
สุตฺต	-8.77266
▁ยถาภูตํ	-8.77416
นํฯ	-8.77749
▁กายสฺส	-8.77781
มาน	-8.77903
ายํ	-8.77956
ฎฺฐานํ	-8.78119
▁ปสฺสติ	-8.78558
▁อตฺต	-8.78757
▁ยสฺมิํ	-8.78802
▁จตูหิ	-8.79178
▁โค	-8.79278
▁ติโสฺส	-8.79484
▁พุทฺธํ	-8.79514
▁วตฺถุํ	-8.79581
ธาตุ	-8.80162
▁สาวตฺถิยํ	-8.80194
▁ปุญฺญ	-8.80241
▁ตาย	-8.8025
▁ทฺวินฺนํ	-8.80409
▁สเพฺพสํ	-8.8058
▁ทเสฺสตฺวา	-8.80631
อา	-8.80652
มคฺค	-8.80831
▁เทสนา	-8.80948
นนฺติ	-8.81003
▁กตโม	-8.81147
▁สตฺถุ	-8.81266
นโต	-8.8133
▁อุปสมฺปชฺช	-8.81527
อตฺถิ	-8.81845
ิํสุฯ	-8.81858
▁;	-8.82269
▁คหปติ	-8.82332
▁ฌาน	-8.82441
▁มูล	-8.82524
▁เอตมตฺถํ	-8.82647
▁อารมฺมณปจฺจเยน	-8.82843
▁อุปปชฺชนฺตานํ	-8.82843
▁ทุกฺกฎํ	-8.82856
▁เจตนา	-8.83136
ู	-8.83162
▁กาตุํ	-8.83253
▁ยทา	-8.83746
▁ท	-8.83904
▁กตมํ	-8.84309
▁สีลํ	-8.84504
▁นิพฺพาน	-8.84688
▁ตุเมฺห	-8.84866
▁ย	-8.84974
ผล	-8.85
ิโน	-8.85073
▁สงฺขารา	-8.85102
▁กา	-8.85354
หี	-8.85537
าภิ	-8.85607
▁ปุริส	-8.85803
กมฺมํ	-8.85877
เล	-8.85897
▁สุตฺต	-8.85923
▁กาล	-8.85988
ิโย	-8.86084
ธ	-8.86483
▁ปเนตฺถ	-8.8678
อหํ	-8.87138
▁จตโสฺส	-8.8726
ยถา	-8.87308
▁ภิกฺขุนี	-8.87432
▁กเปฺป	-8.87481
▁เทวตา	-8.87483
▁อวิคเต	-8.87513
ธโมฺม	-8.87518
▁เตเนว	-8.87535
ยนฺติ	-8.87538
▁อป	-8.8798
▁นิสิโนฺน	-8.87998
ปุน	-8.88042
▁วทนฺติฯ	-8.88107
▁ผลํ	-8.88346
▁ตท	-8.88467
▁กุสโล	-8.8866
ฺย	-8.88801
าทิวเสน	-8.88804
▁ตเถว	-8.88958
▁เทติ	-8.89409
▁ภเว	-8.89474
▁อมฺหากํ	-8.89614
▁เอเตน	-8.89851
▁อาปตฺติโย	-8.90005
านี	-8.90036
▁นโย	-8.90085
▁กุ	-8.90186
▁เกนจิ	-8.90264
▁ทฎฺฐพฺพํฯ	-8.90348
▁ตีหิ	-8.90719
▁อตฺตา	-8.90948
เตฺต	-8.91034
▁จีวร	-8.91304
อุปนิสฺสยปจฺจเยน	-8.91463
▁ภวิสฺสติ	-8.91526
▁อวิชฺชา	-8.92274
▁รูปานํ	-8.92602
ค	-8.92656
▁อปิ	-8.92739
าเปตฺวา	-8.92902
ถา	-8.92978
▁พหิทฺธา	-8.93082
▁ปุริม	-8.93295
▁กติ	-8.93391
▁นนุ	-8.93547
กรณ	-8.93631
สตฺต	-8.93676
▁โลโก	-8.93716
▁จตุนฺนํ	-8.94113
ทาน	-8.94121
▁ฐาเน	-8.94131
▁ทาน	-8.94196
นฺตุ	-8.94306
กถํ	-8.94355
ภูโต	-8.94499
▁มนุสฺสา	-8.94531
▁ตีสุ	-8.94629
านญฺจ	-8.94634
▁อุเปกฺขา	-8.95125
มตฺตํ	-8.95133
▁การณํ	-8.95205
▁สตฺตานํ	-8.95214
▁กาเยน	-8.95218
ญาณ	-8.95271
▁ตเตฺถว	-8.95296
▁ปุปฺผ	-8.95417
สีติ	-8.95582
▁ตญฺจ	-8.95613
▁กปฺป	-8.95617
นุ	-8.9566
▁สุวณฺณ	-8.95986
▁อุปฺปชฺชิตฺถ	-8.96044
▁อรหตฺตํ	-8.96104
▁ปญฺจหิ	-8.96214
▁เทวา	-8.96398
▁อคฺค	-8.96419
เทว	-8.9642
▁ปสฺส	-8.96763
▁กุสล	-8.96782
▁ปตฺวา	-8.96937
มุ	-8.96955
▁สพฺพโส	-8.96969
ิยํ	-8.96985
ฎฺฐาน	-8.97194
▁ทุ	-8.97198
ปจฺจย	-8.9725
ธมฺมา	-8.97294
▁วิสฺสชฺชนา	-8.97495
มตฺต	-8.97571
▁สาสนํ	-8.97697
▁กตฺถ	-8.9803
ราช	-8.98079
กฺข	-8.98432
▁อตฺถีติ	-8.98709
▁ค	-8.98822
ภ	-8.99006
▁ปฎิปทา	-8.99033
▁วิปสฺสนา	-8.99034
▁วาจาย	-8.99039
▁วุตฺตนเยเนว	-8.99178
ตสฺส	-8.99468
▁วณฺณ	-8.99535
▁เอเกน	-8.9958
▁จตูสุ	-8.99587
▁อเตฺถ	-8.99779
อิทํ	-8.99869
เยน	-8.99886
▁เสส	-8.99993
▁คาถมาห	-9.00091
▁ฐตฺวา	-9.00143
ภูตํ	-9.00261
▁ทสฺสเนน	-9.00272
▁ภิกฺขุํ	-9.00358
▁อุทกํ	-9.00595
สม	-9.0085
▁เกวลํ	-9.01028
▁พหิ	-9.01039
▁วิสุํ	-9.0124
▁สร	-9.01346
▁คุณ	-9.01368
ฎ	-9.01624
กปฺป	-9.01755
เยวฯ	-9.01865
▁จปรํ	-9.02051
นาม	-9.02289
▁กตมา	-9.02298
อุ	-9.02421
คโต	-9.02468
▁ปโตฺต	-9.02536
▁ปวตฺต	-9.02705
▁เอกโต	-9.02762
▁อญฺญตฺร	-9.02883
▁วินย	-9.0303
▁อนาปตฺติ	-9.03129
▁อิ	-9.03446
▁ตเสฺสว	-9.03784
สทฺท	-9.03814
ภว	-9.03887
▁ภาวนาย	-9.03891
▁วุตฺตาฯ	-9.03969
ฑฺ	-9.04078
▁ภาเวติ	-9.04161
▁เกน	-9.0426
▁อภิญฺญา	-9.04308
▁โทโส	-9.04467
คุณ	-9.04546
▁ราโค	-9.04591
▁ผโสฺส	-9.0461
▁ยถาห	-9.04622
ฬ	-9.04722
▁อุปฺปนฺนํ	-9.04885
▁อโญฺญ	-9.05045
▁วุตฺตนฺติ	-9.0522
▁อิเมสํ	-9.05257
▁อพฺยากโต	-9.05446
ภาเว	-9.05568
▁สทฺท	-9.05861
▁พหู	-9.05898
▁สาริปุตฺต	-9.06286
▁ทุกฺกฎสฺสฯ	-9.06353
▁มนสิ	-9.0638
▁ตติย	-9.06452
▁จกฺขายตนํ	-9.06676
ิสฺสติ	-9.06881
วิปาก	-9.07043
▁จกฺขุนฺทฺริยํ	-9.07104
▁วตฺตพฺพํ	-9.0712
▁อารมฺมณ	-9.07145
▁ทิสา	-9.07191
จฺจ	-9.0749
▁วิปาโก	-9.07732
ริ	-9.07757
▁ปรสฺส	-9.0776
▁กโรโนฺต	-9.07821
▁วทนฺติ	-9.07837
▁สุตํ	-9.0801
▁พฺรหฺม	-9.08264
▁กาลํ	-9.08268
▁อาคนฺตฺวา	-9.08306
สงฺขาตํ	-9.08462
▁วตฺถุสฺมิํ	-9.08543
▁ทฺวีหิ	-9.08716
▁อกุสลํ	-9.08858
สิกฺขาปทํ	-9.08962
ภูตา	-9.08983
▁อชฺฌตฺตํ	-9.09118
▁ปติ	-9.09145
▁ปุเร	-9.09181
▁อรหโต	-9.09256
▁อนุป	-9.09512
▁อญฺญ	-9.09566
▁ทฺวิ	-9.09582
วตฺต	-9.09725
สญฺญี	-9.09751
▁ติณฺณํ	-9.0983
▁วฎฺฎติ	-9.0992
▁ปชานาติ	-9.09939
▁ปาฬิยํ	-9.09996
ธเมฺม	-9.10022
▁ข	-9.10124
ตฺตาฯ	-9.10145
าหํ	-9.10171
▁เน	-9.10394
▁เสยฺยถาปิ	-9.10509
จิโตฺต	-9.10583
▁เจตฺถ	-9.10634
▁สโกฺก	-9.10767
ปตฺต	-9.10771
โท	-9.10886
▁กเมฺม	-9.10904
▁ยทิทํ	-9.10965
▁ขนฺธํ	-9.11083
▁นตฺถีติ	-9.11127
สทฺทสฺส	-9.11221
โค	-9.11408
▁การณ	-9.11423
▁โทส	-9.11508
▁อุปฺปชฺชตีติ	-9.11575
▁ช	-9.11725
▁ทุติยํ	-9.11734
▁ปวตฺติ	-9.11856
▁อส	-9.11951
▁มรณา	-9.12086
▁จา	-9.12267
▁มเชฺฌ	-9.12409
วเสเนว	-9.1243
านนฺติ	-9.12492
สุข	-9.12607
▁อเญฺญ	-9.12674
ยิ	-9.12894
▁กุล	-9.13077
▁กาโย	-9.13182
▁อยมฺปิ	-9.13207
▁เวทนากฺขโนฺธ	-9.13663
▁โคตโม	-9.13811
▁สโต	-9.14017
▁วทติฯ	-9.14288
รูปํ	-9.14359
ทา	-9.14385
ลกฺขณํ	-9.14387
▁อชฺช	-9.14516
▁อุปาทาย	-9.14545
▁ทฺวีสุ	-9.14546
▁อวิ	-9.14605
▁โคตม	-9.14645
▁ทุกฺขา	-9.14764
▁วส	-9.14773
ปญฺญา	-9.14843
▁ปีติ	-9.14858
▁สุฎฺฐุ	-9.14884
▁ตยา	-9.14887
▁กสฺสจิ	-9.15077
▁นาค	-9.15309
จิตฺตํ	-9.15556
▁โพธิสโตฺต	-9.15587
▁สมฺพหุลา	-9.15589
▁ตาสํ	-9.15634
ินี	-9.15747
ุํ	-9.15805
▁หตฺถ	-9.15837
ตาฯ	-9.15856
ชาตกํ	-9.15966
▁เหตุปจฺจเยน	-9.16037
ิตพฺพํ	-9.16093
▁นเหตุปจฺจยา	-9.16194
▁เอ	-9.16373
▁มาตา	-9.16389
▁สพฺพา	-9.16565
▁ปุโตฺต	-9.16643
สีล	-9.16809
▁ภาวนา	-9.17224
เณ	-9.17234
▁โลกํ	-9.17283
▁ทฺวาทส	-9.17329
▁อธิ	-9.17364
▁วุโตฺตฯ	-9.17382
▁วิชฺชา	-9.17406
▁ลกฺขณ	-9.17429
เกหิ	-9.17502
เอก	-9.17507
โลก	-9.17536
▁คโต	-9.17538
ราชา	-9.17732
▁ฉนฺท	-9.17894
▁อพฺยากตา	-9.1801
ธิ	-9.1805
▁สนฺต	-9.18112
▁คาม	-9.1832
ตฺถิปจฺจเยน	-9.18338
▁ปจฺจ	-9.18346
สู	-9.18352
▁ทีฆ	-9.18473
▁อวเสสา	-9.18475
เห	-9.18559
▁กํ	-9.18625
’’’	-9.1876
▁ทิฎฺฐ	-9.18838
▁อคฺคิ	-9.18921
สฺมา	-9.19002
▁อาสิ	-9.19082
▁อาปตฺติํ	-9.19331
ุป	-9.19344
▁วุตฺตตฺตา	-9.19447
▁หตฺถิ	-9.19507
▁มนุสฺส	-9.19735
▁อตฺถโต	-9.19788
▁โสฬส	-9.19926
โตติ	-9.19997
ปา	-9.20033
▁ผลํฯ	-9.20102
▁ครุํ	-9.2011
นญฺจ	-9.20248
▁อินฺทฺริย	-9.20255
▁วสฺส	-9.20281
▁วิเสส	-9.20368
ฉ	-9.20392
พล	-9.20473
▁สรณํ	-9.20516
พฺพ	-9.20543
ปญฺจ	-9.20696
อุป	-9.20918
▁ปาท	-9.20999
▁สมฺมาทิฎฺฐิ	-9.21057
▁ปิย	-9.2121
▁ธน	-9.2123
▁อาทาย	-9.21238
▁ธมฺมเทสนํ	-9.21303
▁เภทา	-9.21322
าสิ	-9.21388
▁เยสํ	-9.21407
▁สิ	-9.21496
ชฺฌ	-9.21517
▁ปาฬิ	-9.21518
กฺขเณ	-9.21597
▁ฐิต	-9.21893
▁ปวเตฺต	-9.21907
วจนํ	-9.22486
▁สิกฺขา	-9.22488
▁การเณน	-9.22494
▁อินฺทฺริยา	-9.2251
▁สาสน	-9.22592
รุ	-9.22645
▁เอตสฺส	-9.22869
ภูต	-9.23005
ทุกฺข	-9.23097
ธมฺมํ	-9.23228
▁ปุคฺคลสฺส	-9.23278
▁เนสํ	-9.23349
▁พล	-9.23456
▁กโรนฺติ	-9.23492
ีนํ	-9.23521
▁ภวํ	-9.23569
โกฯ	-9.23628
▁ปุคฺคลา	-9.23672
สุฯ	-9.23715
▁สมโณ	-9.23827
ียติ	-9.24108
▁จิเตฺตน	-9.24159
▁สก	-9.24314
▁ทสฺสน	-9.24414
▁ปุนปฺปุนํ	-9.24571
▁วร	-9.24579
กโร	-9.24635
กานํ	-9.24646
อิธ	-9.24754
▁ปเรสํ	-9.24882
▁ร	-9.24949
นฺตร	-9.25003
▁อญฺญมญฺญํ	-9.2507
▁สรีร	-9.25181
รา	-9.25195
จฺฉ	-9.25265
▁อนนฺตรปจฺจเยน	-9.25299
▁อเนก	-9.25355
▁ตถาคตสฺส	-9.25355
▁สงฺฆํ	-9.25428
สเจ	-9.25433
▁ภาสิตํฯ	-9.25474
▁จิตฺตสมุฎฺฐานํ	-9.25484
คตํ	-9.25496
มานํ	-9.25557
▁สมณ	-9.25567
กาล	-9.25609
▁ภูมิ	-9.25768
▁ห	-9.25861
วาท	-9.25862
▁อนา	-9.25936
▁สุตฺตํ	-9.2598
เสน	-9.2617
▁วจน	-9.26193
▁นิจฺจ	-9.26248
▁วิปาก	-9.26505
ปทํ	-9.2672
▁วิญฺญาณ	-9.26723
▁อกุสล	-9.26778
▁เตนุปสงฺกมิ	-9.26796
▁เอกสฺมิํ	-9.26833
▁สทา	-9.26864
▁อนฺตรา	-9.26876
▁ปิตา	-9.26905
▁นิพฺพตฺต	-9.26917
▁ลทฺธ	-9.26966
นิสฺสย	-9.27039
▁ทานิ	-9.27063
นฺติอาทิ	-9.2716
าม	-9.27253
▁กเถสิฯ	-9.27334
▁จร	-9.27413
▁สโนฺต	-9.27414
อารมฺมเณ	-9.2774
มเคฺค	-9.27761
สพฺพ	-9.27802
▁ปญฺจนฺนํ	-9.27858
▁ยถาวุตฺต	-9.28018
กุล	-9.28391
▁อุปฺปนฺน	-9.28681
▁อายสฺมโต	-9.28864
▁ปทํ	-9.28886
▁ทฎฺฐโพฺพฯ	-9.28936
▁นิรุชฺฌติ	-9.29058
▁เอสา	-9.29083
▁สมาโน	-9.29142
▁รชฺชํ	-9.29144
▁ปุตฺต	-9.29169
อิติ	-9.29174
▁คจฺฉ	-9.29221
ชาตกวณฺณนา	-9.29299
▁วตฺต	-9.2935
▁อุทฺธํ	-9.29656
▁เอตฺถาติ	-9.29761
▁นามํ	-9.29885
▁วีริยํ	-9.29933
▁อิจฺจาทิฯ	-9.3013
▁เอกาทส	-9.30241
▁อรหา	-9.30398
เท	-9.30407
▁อายสฺมนฺตํ	-9.30553
▁วน	-9.30555
▁ติฎฺฐติ	-9.3056
นวเสน	-9.30817
▁ปณฺฑิโต	-9.30936
▁กตฺถจิ	-9.31062
▁สนฺติกํ	-9.31091
▁นิฎฺฐิตํฯ	-9.31103
▁อกุสโล	-9.31343
อาทิ	-9.31345
โณ	-9.31371
ชา	-9.31576
วคฺค	-9.31606
▁อปิจ	-9.31726
ติปิ	-9.31752
▁ทุคฺคติํ	-9.32049
▁สมาน	-9.32053
▁มรณ	-9.32112
▁วิส	-9.32166
▁ปญฺญตฺตํ	-9.32349
▁อานโนฺท	-9.32369
▁คณ	-9.32477
▁เอโส	-9.3253
เภท	-9.32575
▁สงฺขาร	-9.32603
▁จิตฺตสมุฎฺฐานาน	-9.32621
▁อตฺถาย	-9.32767
▁อารมฺมณํ	-9.32809
เฑฺ	-9.32836
▁สจฺจํ	-9.32915
▁เจตสา	-9.33041
ลา	-9.3306
▁ทฺวาร	-9.33136
▁มนสา	-9.33163
▁อุปฺปาทกฺขเณ	-9.33233
▁ปรม	-9.33302
ตตฺถ	-9.33324
▁วฎฺฎ	-9.33376
ญฺญ	-9.33442
▁สมฺม	-9.33457
ปุพฺพ	-9.33464
▁ราค	-9.33516
▁ทิพฺพ	-9.3356
▁กิสฺมิํ	-9.33691
▁อุปฺปชฺชิสฺสติฯ	-9.33841
กร	-9.33863
▁ฐิตา	-9.3393
▁ล	-9.34086
มยํ	-9.341
▁มุข	-9.34168
▁พฺรหฺมจริยํ	-9.34168
▁ปเร	-9.34188
▁นิสีทิฯ	-9.34192
▁นิจฺจํ	-9.34209
▁กาเย	-9.34225
▁อริย	-9.34415
▁สาสเน	-9.34551
เตฺตน	-9.34552
สุปิ	-9.34571
กุ	-9.34635
▁ชีวิต	-9.34757
▁โมโห	-9.34825
▁ปตฺตํ	-9.34863
กิจฺจ	-9.34982
▁ลภติ	-9.35017
▁นภาวนาย	-9.35081
ทิฎฺฐิ	-9.35259
▁อาหริตฺวา	-9.35299
ปาท	-9.35316
ลกฺขณ	-9.35325
สมนนฺตเร	-9.35336
▁ปุริมา	-9.35461
▁๑๑	-9.35468
▁ปญฺหํ	-9.35543
▁สนฺติ	-9.3563
▁จตุตฺถ	-9.3565
▁มณิ	-9.35783
ปฺ	-9.35962
คจฺฉ	-9.35997
าทินา	-9.36071
▁เถรสฺส	-9.36139
▁ทฺวยํ	-9.36315
ฆ	-9.36432
ปฎิสมฺภิทา	-9.36438
ปร	-9.36483
าหิ	-9.36577
▁เชตวเน	-9.36606
ิตพฺพ	-9.36649
ตโร	-9.36727
▁อุเปกฺขินฺทฺริย	-9.37008
▁นิรุชฺฌิสฺสติ	-9.37091
นฺตานํ	-9.37148
▁มิค	-9.37212
▁ปจฺฉิม	-9.37315
▁ชีว	-9.37323
ิสฺสนฺติ	-9.37422
▁โมห	-9.37594
เฎฺฐ	-9.3778
▁ปกติ	-9.3778
▁มาน	-9.37839
▁พฺราหฺมณา	-9.37886
▁สเพฺพปิ	-9.37966
วาร	-9.3799
▁คติ	-9.3802
มุข	-9.38181
▁วจนโต	-9.38204
▁เอกโจฺจ	-9.38318
สฺมิ	-9.38428
▁สุทฺธ	-9.38447
เสฺส	-9.38507
าน	-9.38665
▁สุเตฺต	-9.38726
วาโร	-9.38817
โป	-9.3882
ภาส	-9.38867
▁มนินฺทฺริยํ	-9.38895
▁อญฺญตโร	-9.38926
ยติ	-9.38949
▁วฎฺฎตีติ	-9.38987
▁กเรยฺย	-9.39047
▁ชน	-9.39077
ธา	-9.39165
▁เหตู	-9.3926
▁อญฺญถา	-9.39277
สมฺปยุตฺต	-9.39291
▁วิหรโนฺต	-9.39351
มสฺส	-9.39358
▁ภิกฺขุนิโย	-9.39372
▁ปุรโต	-9.39422
นย	-9.39525
▁วิยฯ	-9.39552
▁ตติยํ	-9.39589
ตร	-9.39788
กิ	-9.39893
โห	-9.39927
เช	-9.39972
รี	-9.39986
▁เอวรูปํ	-9.40047
▁ตนฺติ	-9.40082
เตฺถโร	-9.40198
มูล	-9.4021
รส	-9.40228
▁วิหรติฯ	-9.40251
▁เตรส	-9.4026
▁อาคต	-9.40312
รํ	-9.40422
▁อุโภ	-9.40433
▁โหตุ	-9.40546
ณิ	-9.40656
▁กโรติฯ	-9.40709
▁โสมนสฺสินฺทฺริย	-9.40757
▁อาสวา	-9.40771
▁โพธิ	-9.4079
▁ทินฺนํ	-9.41052
▁วุตฺตนเยน	-9.41153
▁สต	-9.41319
▁เอตฺตาวตา	-9.41404
▁ตมฺปิ	-9.41441
▁อธิปติปจฺจเยน	-9.41448
▁อตีตํ	-9.41478
ยโต	-9.4157
▁กิสฺส	-9.41575
▁อุตฺตม	-9.41579
▁อิตฺถี	-9.41615
▁อายุ	-9.41651
▁รูปายตนํ	-9.41688
▁ภวิสฺสติฯ	-9.41772
▁ปิณฺฑาย	-9.41808
▁ตุมฺหากํ	-9.41808
▁อญฺญา	-9.41857
▁ชีวิตํ	-9.41982
▁ทุกฺขสฺส	-9.42111
▁กถา	-9.42272
▁กมฺมสฺส	-9.42297
▁ภาโว	-9.42331
▁สมฺป	-9.42361
กิจฺจํ	-9.4239
▁อปฺปฎิ	-9.42406
โช	-9.4241
▁สุต	-9.42481
▁สกล	-9.42486
ทานํ	-9.42531
▁ตเทว	-9.42543
▁ภวนฺติ	-9.42693
▁ธเมฺมน	-9.42816
▁ธาตูหิ	-9.42818
▁ปหาตโพฺพ	-9.42905
โภ	-9.4291
▁สาร	-9.42915
ภูมิ	-9.42931
วร	-9.42936
▁โหนฺตีติ	-9.42983
▁นอธิปติยา	-9.4301
▁ภุญฺช	-9.43219
เจ	-9.43263
▁คจฺฉติฯ	-9.43301
วิเสส	-9.43312
▁พลว	-9.43324
▁ปถวี	-9.43419
▁กายํ	-9.4348
ชาติ	-9.43577
▁อฑฺ	-9.43648
▁วาจา	-9.43801
▁อนาปตฺติฯ	-9.43809
สมฺปตฺติ	-9.44039
▁สมยํ	-9.44353
▁กาเม	-9.44354
นีย	-9.44426
▁อาปตฺติยา	-9.44428
ิสฺสามี	-9.44521
กนฺติ	-9.44603
▁คนฺธ	-9.44615
▁คณฺห	-9.44672
ทสฺสน	-9.44826
มํ	-9.44967
▁ปธาน	-9.45204
▁จิเตฺต	-9.45223
สมฺปโนฺน	-9.45293
▁ภวิสฺสตี	-9.45296
ญฺจาติ	-9.45362
ทฺวาร	-9.45402
▁จวนฺตานํ	-9.45424
▁ภงฺคกฺขเณ	-9.45458
▁มหนฺตํ	-9.45563
นฺติอาทินา	-9.45641
▁ยญฺจ	-9.45643
▁ปญฺญตฺติ	-9.45679
▁ปุญฺญํ	-9.45753
ิเก	-9.45758
มาเน	-9.45797
▁ปฎิสนฺธิ	-9.45797
สหสฺส	-9.45868
▁สุขาย	-9.45883
▁ตเมว	-9.45888
▁อุปฺปตฺติ	-9.45987
▁มหาภูเต	-9.45988
▁ยาจ	-9.46059
▁ทีป	-9.46112
▁ปุโฎฺฐ	-9.46122
▁ปวิสิตฺวา	-9.46168
▁อฎฺฐกถายํ	-9.46272
มเตฺต	-9.46347
มน	-9.46416
▁วีริย	-9.46467
▁โสปิ	-9.46619
▁ภย	-9.46625
▁อสฺสาติ	-9.46639
▁องฺค	-9.46665
▁นิสีทิตฺวา	-9.46717
นิเทฺทสวณฺณนา	-9.46722
ยสฺส	-9.46736
▁วุตฺตเญฺหตํ	-9.46868
▁อถสฺส	-9.46971
▁คจฺฉนฺติ	-9.47045
ภิกฺขุ	-9.47055
▁มุนิ	-9.4715
▁วนฺทิตฺวา	-9.47201
▁ภิกฺขุนิยา	-9.47358
▁อิตฺถิ	-9.47359
วาเร	-9.47385
▁กโรตีติ	-9.47385
▁สมฺปยุตฺตกานํ	-9.47446
สฺสาปิ	-9.47492
▁ปพฺพชิตฺวา	-9.47529
▁ปุจฺฉ	-9.47532
▁ขาท	-9.47544
คต	-9.47559
▁วิหาร	-9.47628
ปี	-9.47658
ปจฺจโย	-9.4766
▁ขโนฺธ	-9.47721
คฺคหเณน	-9.47802
▁อญฺญตรํ	-9.47838
▁ญาติ	-9.47885
วจน	-9.47901
▁จตุตฺถํ	-9.48184
▁ธนํ	-9.48195
▁กุโต	-9.48219
▁อาคโต	-9.48257
▁กมฺมปจฺจเยน	-9.48299
▁ภ	-9.4857
สาร	-9.48614
▁ชาโต	-9.48626
จิ	-9.48648
▁อาปชฺชติฯ	-9.48727
▁อย	-9.48779
▁วิหาเร	-9.48988
เมวฯ	-9.49038
ปุปฺผ	-9.49096
▁ธาตุโย	-9.4922
▁วโณฺณ	-9.49262
▁อฎฺฐารส	-9.49375
กุสลํ	-9.49376
▁อเญฺญน	-9.49442
▁ปาจิตฺติยสฺสฯ	-9.49444
▁ปาเท	-9.4946
กาโล	-9.49531
▁ปญฺญตฺตํฯ	-9.49562
▁ภยํ	-9.49704
ปฺปโตฺต	-9.49725
▁อุตฺตริ	-9.49745
านมฺปิ	-9.49754
เรน	-9.49897
▁นามาติ	-9.49914
▁๑๒	-9.49931
▁โนวิคเต	-9.49966
▁เอวมฺปิ	-9.49967
▁มิจฺฉา	-9.49968
▁นนฺท	-9.50013
▁สเงฺฆน	-9.50209
▁อาโรเจสุํฯ	-9.50301
เมตํ	-9.50306
▁กสฺส	-9.50322
กํฯ	-9.50328
▁กเต	-9.50367
▁ทเสฺสติ	-9.50392
▁ชีวิตินฺทฺริยํ	-9.50428
▁คหิต	-9.50458
▁ภิกฺขูหิ	-9.50543
▁อริยสาวโก	-9.50758
▁สโพฺพ	-9.5078
▁อสญฺญสตฺตานํ	-9.50795
ิทํ	-9.5099
▁ปนสฺส	-9.51042
▁มาร	-9.51103
ิสฺสามิ	-9.51105
▁อาหาเร	-9.5115
โยฯ	-9.51151
วสฺส	-9.51253
▁อาปชฺชติ	-9.51315
▁คาถาโย	-9.51345
วิหาร	-9.51454
▁นครํ	-9.51465
มิว	-9.51505
▁ภตฺต	-9.51536
ุฑฺ	-9.51549
▁เอกสฺส	-9.51625
ทฺธ	-9.5163
▁วิหารํ	-9.51762
เทส	-9.51784
▁ปุถุ	-9.51834
▁วทติ	-9.51857
โทส	-9.51894
▁เอวญฺจ	-9.52094
ารมฺมณ	-9.52132
▁เอตรหิ	-9.5217
▁เอเตสํ	-9.52262
เตฺวว	-9.52309
▁ปโร	-9.52393
▁นวิปฺปยุเตฺต	-9.52472
▁ฉนฺนํ	-9.52491
พุทฺธ	-9.5255
สหชาต	-9.52584
▁ยานิ	-9.52591
▁สาริปุโตฺต	-9.52665
▁สหชาตปจฺจเย	-9.52778
▁สมุฎฺฐาติ	-9.5282
▁จูฬ	-9.52859
สาธุ	-9.53044
▁เสนาสนํ	-9.53078
▁รุกฺข	-9.5316
▁ทิวา	-9.53416
เยวาติ	-9.53448
▁อภิวาเทตฺวา	-9.53526
▁ครุ	-9.53723
▁อุภย	-9.53761
▁กิญฺจาปิ	-9.54009
ิกาย	-9.54075
สนฺติ	-9.54137
มี	-9.54172
▁ภาว	-9.54222
นโย	-9.54231
▁เทวานํ	-9.54383
▁สุทํ	-9.5439
คา	-9.54475
ตฺถา	-9.5465
▁อตีต	-9.54665
▁ทิวเส	-9.54673
▁ปจฺจุปฺปนฺน	-9.54698
▁ปาจิตฺติยํ	-9.54706
จิตฺตสฺส	-9.54709
▁จนฺท	-9.54763
▁ปเนตํ	-9.54804
▁มห	-9.54806
▁รูปกฺขโนฺธ	-9.54823
▁ภิโยฺย	-9.54853
ฎฺฐํ	-9.54992
โอ	-9.55007
▁ชนา	-9.5503
▁ปา	-9.55091
อวิคต	-9.55153
▁กามราคานุสโย	-9.55163
หตฺถ	-9.55174
▁เก	-9.55258
▁จาปิ	-9.55354
ปญฺญตฺติ	-9.55472
สห	-9.55655
นิเทฺทโส	-9.55661
▁สีห	-9.55687
▁โจร	-9.55851
▁เส	-9.56104
ญาณํ	-9.56218
▁อิทฺธิ	-9.56246
▁ทุกฺขาย	-9.56258
ข	-9.56732
▁อญฺญสฺส	-9.56799
▁ปาจิตฺติยํฯ	-9.56831
▁ปฎิวิรโต	-9.56837
▁อพฺยากตํ	-9.56941
▁โลกิย	-9.57049
▁ทุติเย	-9.5707
ตนฺติ	-9.57131
▁พหุํ	-9.5714
▁อายติํ	-9.57275
▁วิเสโส	-9.57316
▁ปิตุ	-9.57376
าห	-9.57398
ทุ	-9.57427
▁สหสฺส	-9.57439
ปจฺฉาชาเต	-9.57458
▁เหตุํ	-9.57663
▁ภาส	-9.57919
▁ภเวยฺย	-9.5793
มโน	-9.5794
▁ทินฺน	-9.57975
▁อุตฺตร	-9.58009
ตาติ	-9.58171
▁วทามิ	-9.58192
▁คตา	-9.58222
▁วีสติ	-9.58232
▁พนฺธ	-9.58267
▁ตุยฺหํ	-9.58294
▁อุปฺปชฺชิสฺสตี	-9.58296
▁มคฺคสฺส	-9.58374
▁วิปากํ	-9.58455
▁สมฺปชาโน	-9.58662
ารมฺมณํ	-9.58677
▁เวทนํ	-9.58698
▁คเหตพฺพํฯ	-9.58735
ุปฺปตฺติ	-9.58745
▁เอวฯ	-9.58869
มนุ	-9.58986
▁อภาสิ	-9.59018
▁กาเลน	-9.59044
▁มเคฺค	-9.59047
ตรํ	-9.59065
▁สมฺ	-9.59102
ตพฺพํ	-9.59148
▁คาถาย	-9.59254
▁ตตฺถาติ	-9.59287
ตฺตย	-9.5938
ปฺปฎิ	-9.59424
▁เนวทสฺสเนน	-9.59425
▁รส	-9.59551
▁วิตโกฺก	-9.59565
▁อชฺฌตฺต	-9.59595
▁อาจริย	-9.59643
สฺสามิ	-9.59666
▁นิมิตฺต	-9.59744
สมาธิ	-9.59817
นิมิตฺต	-9.59853
มิทํ	-9.59875
▁อากาเส	-9.59911
ปุจฺฉา	-9.59967
เมวาติ	-9.59983
พนฺธ	-9.60033
▁ปาจิตฺติย	-9.60132
▁วเทยฺย	-9.6019
▁ปุริสสฺส	-9.60219
มย	-9.60268
ปุโตฺต	-9.60283
คฺคหณ	-9.60342
▁ปฎิฆานุสโย	-9.60395
▁อุปาลิ	-9.60453
▁รูปสฺส	-9.60799
▁กิเลสา	-9.60807
▁อุทปาทิ	-9.60814
▁อริยา	-9.60815
อถ	-9.60824
สุขํ	-9.60845
ภาวโตฯ	-9.60896
▁สมา	-9.60988
▁จิเนฺตตฺวา	-9.61047
ตพฺพ	-9.61077
▁เสว	-9.61088
ามี	-9.61116
▁ผสฺส	-9.61177
▁นิโรธ	-9.612
▁ราชานํ	-9.6124
▁ธมฺมายตนํ	-9.61349
ตโพฺพ	-9.61354
กิริยา	-9.61392
▁โลกสฺส	-9.61424
ิตตฺตา	-9.61492
▁อุปฺปนฺนา	-9.61557
▁สิยาฯ	-9.61609
▁เสยฺยถิทํ	-9.61652
▁กามราคานุสย	-9.61653
ีย	-9.61737
▁ยุตฺต	-9.61777
▁ขเนฺธหิ	-9.61838
▁โลภ	-9.61874
▁กิ	-9.61915
▁๑๓	-9.61965
ภย	-9.61968
ลฺล	-9.62087
▁โยชนา	-9.62312
▁ปฎิปโนฺน	-9.62353
▁อสติ	-9.62393
▁ญาเณน	-9.62415
▁ปวตฺตา	-9.62529
สมา	-9.62601
▁รกฺข	-9.62614
▁สเงฺฆ	-9.62769
▁นอาเสวเน	-9.62798
▁อปร	-9.63007
▁เร	-9.63021
▁ปณฺฑิตา	-9.63125
กถญฺจ	-9.63154
▁ทณฺฑ	-9.63231
▁วฎฺฎตี	-9.63267
▁ฐาเนสุ	-9.63282
▁คมน	-9.63323
ณํ	-9.63354
▁นิสฺสคฺคิยํ	-9.63362
▁ครห	-9.63392
▁นปุเรชาเต	-9.63439
▁มชฺฌิม	-9.63449
กุสโล	-9.63471
ยิตฺวา	-9.63479
▁สโกฺกติ	-9.63488
นฺท	-9.63496
▁สตฺตรส	-9.63548
าธิ	-9.63582
วาติ	-9.63632
คมน	-9.63691
▁อหุ	-9.6371
▁อิตฺถํ	-9.63711
ราค	-9.63793
ฎฺฐา	-9.63866
วเสนาติ	-9.63911
มาส	-9.63915
▁ปาปํ	-9.63933
สุตฺตาทิวณฺณนา	-9.63959
มโคฺค	-9.64055
คาม	-9.64195
▁นที	-9.64288
▁วิจิกิจฺฉา	-9.64299
▁พาโล	-9.64387
ทส	-9.6439
วุตฺติ	-9.64418
▁กิเลเส	-9.64468
▁ปหีนา	-9.64568
▁นีล	-9.64577
มตฺตเมว	-9.64626
▁ขุทฺทก	-9.64661
าทิโต	-9.64681
ยํฯ	-9.6469
จีวร	-9.64714
เนฯ	-9.64743
▁อธิปติยา	-9.64801
▁นกเมฺม	-9.64852
▁เอตทโหสิ	-9.64866
▁อาสวานํ	-9.64874
นิเทฺทเส	-9.64908
▁จกฺขุํ	-9.64995
▁ภวติ	-9.65158
ณา	-9.65189
วคฺควณฺณนา	-9.65196
▁รตน	-9.65204
ตู	-9.65215
อนุ	-9.65487
▁ปุริสินฺทฺริยํ	-9.65524
▁ฉินฺน	-9.65538
ตทา	-9.65562
▁๑๔	-9.65563
▁อุท	-9.65575
▁อโธ	-9.65613
▁ชาตา	-9.65736
▁กโต	-9.65739
▁วิชฺชติ	-9.65754
▁สจฺจานิ	-9.65852
วน	-9.65879
▁ทิฎฺฐิยา	-9.65936
โฆ	-9.66038
▁ติณ	-9.66279
▁ปกตูปนิสฺสโย	-9.66314
▁อาหาร	-9.66366
ภเนฺต	-9.66378
▁ขเณ	-9.6643
▁สภาว	-9.66437
▁ภูต	-9.66451
▁ปาโฐ	-9.66578
▁สตํ	-9.66635
▁ปวิส	-9.66673
▁คณฺหาติ	-9.66702
ภาวนา	-9.66702
▁กริตฺวา	-9.66735
▁กามาวจร	-9.66787
▁นวิปาเก	-9.66886
าปตฺติ	-9.66984
▁อกตฺวา	-9.66998
นฺน	-9.67106
นฺติยา	-9.67131
▁อาคตา	-9.6716
▁ทุติโย	-9.67221
▁อุปนิสฺสาย	-9.67248
▁กตา	-9.67343
▁ปหานาย	-9.67374
ลกฺขณา	-9.6743
โกติ	-9.67468
สหสฺสานิ	-9.67474
กานิ	-9.67541
นเฎฺฐน	-9.67688
ายาติ	-9.67755
การสฺส	-9.67773
▁เจตโส	-9.67786
ภตฺต	-9.67842
▁วุจฺจนฺติ	-9.67848
▁๕๙	-9.6787
ทีป	-9.67892
▁ปจ	-9.67925
▁๕๗	-9.67979
▁อลํ	-9.68017
ตโต	-9.68076
▁ชรา	-9.68101
▁ชาติยา	-9.68121
▁ชล	-9.68155
โกฺข	-9.6823
▁ปาณ	-9.68295
▁อุปฺปโนฺน	-9.68365
▁ปริชานาติ	-9.68461
▁อิสิ	-9.68546
▁อตฺตนิ	-9.6861
สมฺ	-9.68647
ชน	-9.68672
▁ชาต	-9.68706
เวทนา	-9.68735
▁หี	-9.68751
การณ	-9.68801
ปกฺข	-9.68805
▁นิกฺขมิตฺวา	-9.68826
▁อนิจฺจโต	-9.68944
▁มุ	-9.68945
▁สมตฺตาฯ	-9.68983
▁นาภิชานามิ	-9.6914
▁เหตุสฺส	-9.69159
▁วตฺตุํ	-9.69181
▁๕๘	-9.69196
▁อามเนฺตสิ	-9.69285
วชฺช	-9.69306
ิตฺถ	-9.69452
▁๕๖	-9.69464
วโณฺณ	-9.69622
สมฺปทา	-9.69637
มยา	-9.69661
คณ	-9.69741
ตฺถิ	-9.69885
▁ตสฺสโตฺถ	-9.69891
▁โสต	-9.69955
▁สมนฺตโต	-9.69998
อาทโย	-9.70008
วฎฺฎ	-9.7004
▁ตมตฺถํ	-9.70109
▁กทาจิ	-9.70177
▁นาคเสน	-9.70254
โตปิ	-9.70278
ผลํ	-9.7028
มเตฺตน	-9.70339
▁๖๐	-9.70595
าทิเก	-9.70618
▁ปญฺจสุ	-9.70643
▁จกฺกวตฺตี	-9.70647
▁เจตํ	-9.70666
เกสุ	-9.70674
▁รูเป	-9.70698
▁ปชหติ	-9.70709
▁วิปาเก	-9.70742
▁อนุสยา	-9.70758
▁ตณฺหาย	-9.70779
นิมิตฺตํ	-9.70785
สฺสามี	-9.70826
▁ปรโต	-9.70939
อนุชานามิ	-9.70999
กาม	-9.71017
กรณํ	-9.71028
ปุตฺต	-9.71079
▁คจฺฉตีติ	-9.71085
อิเม	-9.71123
สติ	-9.7119
▁โยนิโส	-9.71215
▁ภโว	-9.71227
▁อรูป	-9.71257
▁อยเมว	-9.71261
▁ปฐเม	-9.71274
ทุกํ	-9.71277
▁ตถ	-9.71282
▁ปจฺฉิมานํ	-9.71379
วาที	-9.71403
▁คิหิ	-9.71501
▁ทุสฺส	-9.71504
▁นิมิตฺตํ	-9.71519
โยค	-9.71553
▁ปุจฺฉิตฺวา	-9.71598
▁ภริยา	-9.71643
วิปฺปยุตฺต	-9.71685
▁อติวิย	-9.7177
▁เมตฺตา	-9.71806
ปาป	-9.71886
มห	-9.7194
สทิส	-9.71958
เตฺถรสฺส	-9.71961
▁พุทฺธานํ	-9.72013
▁ฐาน	-9.72143
▁พฺยา	-9.72222
▁สญฺญากฺขโนฺธ	-9.72336
ตุกาโม	-9.72406
สต	-9.72532
▁กถ	-9.72537
ภูเต	-9.72539
เหตุยา	-9.72558
นตฺถาย	-9.72672
▁ภินฺน	-9.72673
▁อุปฺปาท	-9.72675
▁อนุโลม	-9.728
▁วิมุตฺติ	-9.72834
▁ชานนฺติ	-9.72961
วจเนน	-9.73013
▁อเหสุํ	-9.73056
▁เอตฺถาปิ	-9.73075
▁๑๕	-9.73076
กฑฺ	-9.73142
าทิกํ	-9.73172
ตฺย	-9.73173
▁วาจํ	-9.73297
▁อุตุ	-9.73297
ปสฺส	-9.73305
ปจฺจ	-9.73441
▁๖๖	-9.73525
▁อาวิ	-9.73553
▁หีน	-9.73591
▁สคฺค	-9.736
▁พฺยญฺชน	-9.73607
เจฺจ	-9.73634
พฺภ	-9.73661
▁อทาสิฯ	-9.73675
▁มนายตนํ	-9.73797
▁อยเมตฺถ	-9.73952
▁รตฺติ	-9.7396
สงฺข	-9.73978
▁อิเธกโจฺจ	-9.74012
▁อุปลพฺภติ	-9.74026
ปเท	-9.74033
▁ปญฺญินฺทฺริยํ	-9.74043
เภ	-9.74056
▁คต	-9.7415
▁สรีรํ	-9.74158
▁ฆานินฺทฺริยํ	-9.74169
รูโป	-9.74186
▁มิจฺฉาทิฎฺฐิ	-9.74207
ธมฺมานํ	-9.74223
เญฺญว	-9.7423
ีหิ	-9.74238
กาโย	-9.74242
▁ฉโนฺท	-9.74264
▁ปหีโน	-9.74303
▁ลิงฺค	-9.74341
▁สเตฺต	-9.74375
นตฺถิยา	-9.74377
▁ขณ	-9.74391
▁กถญฺจ	-9.74455
▁มาตุ	-9.74487
▁ปพฺพชิโต	-9.74489
▁เอกํฯ	-9.74494
▁กิจฺจ	-9.74536
โฎ	-9.74568
▁กายสงฺขาโร	-9.74606
ยุ	-9.74648
▁ชาน	-9.74658
▁สยเมว	-9.74691
▁เกส	-9.74745
▁คามํ	-9.74756
▁อรเญฺญ	-9.75044
▁ทุกฺกฎํฯ	-9.75064
ตฺตสฺส	-9.75137
▁อุโปสถ	-9.75146
▁ตาต	-9.75168
▁ปสาท	-9.75247
ธี	-9.75313
▁ตสฺสุทฺทานํ	-9.75503
มุเขน	-9.7553
สตานิ	-9.75573
▁โภชนํ	-9.75585
▁มหาสโตฺต	-9.75645
▁ปนฺนรส	-9.7565
ิตพฺพํฯ	-9.75685
▁ลภิตฺวา	-9.75713
การณํ	-9.75739
▁ปหาตพฺพเหตุโก	-9.75759
▁วณฺณํ	-9.75781
▁ฆฎ	-9.75821
▁มรณํ	-9.75853
▁ปาโฐฯ	-9.75866
▁อิตฺถินฺทฺริยํ	-9.75879
▁โทมนสฺสํ	-9.75911
▁๑๖	-9.75918
▁๒๒	-9.75946
ิสฺสํ	-9.75959
▁ปุคฺคล	-9.76029
▁อิมาย	-9.76032
▁วิตฺถาเรน	-9.76054
▁ปทุม	-9.76065
▁ชเน	-9.76082
หา	-9.76111
จกฺขุ	-9.76138
หาร	-9.76147
▁ฐิตํ	-9.76205
▁อิทมฺปิ	-9.76243
▁ตญฺหิ	-9.76283
▁อี	-9.76302
▁สตฺถารํ	-9.76336
เสยฺยถาปิ	-9.76347
▁ชิน	-9.76379
▁สมํ	-9.76431
▁กามา	-9.76467
▁ปหาน	-9.76571
▁ชาตกํ	-9.76584
▁สุจิ	-9.7659
สมฺปตฺติยา	-9.76603
วุ	-9.76688
ภู	-9.76785
ลิ	-9.76865
▁ทิเฎฺฐว	-9.76899
ชํ	-9.76979
▁สทฺธินฺทฺริยํ	-9.76992
▁๖๑	-9.77017
▁นิโรโธ	-9.77035
▁ปฎิปชฺช	-9.77102
▁มุทุ	-9.77129
นฺติอาทีสุ	-9.7716
▁ปุญฺญานิ	-9.77183
▁อาหาโร	-9.77228
▁อนฺต	-9.77276
▁วชฺช	-9.77301
▁กาฬ	-9.77348
าปน	-9.77373
▁กร	-9.77386
▁อตีเต	-9.77473
▁ปริตฺต	-9.77487
วณฺณํ	-9.77515
▁อุปฺปชฺชิตฺถาติ	-9.77576
▁สีส	-9.7762
▁กรุณา	-9.77622
▁สโตฺต	-9.77655
▁สหชาต	-9.77696
▁กฺวจิ	-9.77774
กตา	-9.77781
▁นุปฺปชฺชติ	-9.77811
กรเณ	-9.77814
สตํ	-9.77833
ชฺฌาน	-9.77863
▁ติํส	-9.77924
▁สทฺทํ	-9.77941
▁เทส	-9.77974
▁นิสฺสย	-9.78021
▁มธุ	-9.78025
คตา	-9.78098
▁โลกุตฺตร	-9.7811
▁จกฺขุนา	-9.78207
▁๖๕	-9.7839
▁ปโยเค	-9.78451
▁พุทฺธา	-9.78456
ญฺช	-9.78462
▁ภตฺตํ	-9.78502
▁๖๗	-9.78522
▁สมุทโย	-9.78547
▁ภาสิตํ	-9.78556
▁เอเตนาติ	-9.78558
▁สหชาตํ	-9.78597
▁เอตสฺมิํ	-9.78612
ลกฺขโณ	-9.78646
▁กสฺสป	-9.7871
สร	-9.78754
▁เทโว	-9.78774
▁กาโล	-9.78839
▁กาเมหิ	-9.78857
▁โกธ	-9.78948
▁กเมฺมน	-9.78964
▁รูปานิ	-9.79045
▁อิตเรสํ	-9.79066
ทฺท	-9.7907
ปณฺณ	-9.79139
▁มนุสฺสานํ	-9.79142
▁วสฺสานิ	-9.7915
▁อโน	-9.79179
▁ปุ	-9.79286
การี	-9.79295
▁สีต	-9.79313
▁ตหิํ	-9.79341
ิตโพฺพ	-9.79382
ชาโต	-9.79464
▁อิจฺฉ	-9.79477
▁กุเล	-9.79484
▁วท	-9.79505
▁ตุณฺหี	-9.7954
▁วิคต	-9.79588
▁อกาสิฯ	-9.79629
▁กิริยา	-9.79714
กต	-9.79721
▁โสมนสฺส	-9.79729
▁สมฺมาสมฺพุโทฺธ	-9.79771
าเปติ	-9.79773
▁ทีเปติฯ	-9.79789
▁นิร	-9.79878
▁อนนฺตเร	-9.79906
นตฺถิ	-9.79907
▁ตร	-9.79922
▁กติหิ	-9.7994
▁เวทนาสุ	-9.79962
กโต	-9.79981
เภโท	-9.80034
▁ยกฺข	-9.80045
จิตฺตสมุฎฺฐานญฺจ	-9.80123
ิตํฯ	-9.80158
▁ทกฺขิณ	-9.80158
▁ปริปุณฺณ	-9.8019
▁๕๕	-9.80196
▁เอกาย	-9.80294
กุเล	-9.80307
▁คาถํ	-9.80347
▁เสสา	-9.80367
▁วิทิตฺวา	-9.80382
▁กลฺยาณ	-9.80424
▁วตฺถ	-9.80429
▁อหเมว	-9.805
▁ปริเทว	-9.80524
▁อิเมสุ	-9.80657
นตฺถํ	-9.80795
▁วิตฺถารโต	-9.8086
▁อนาคต	-9.80899
สทิโส	-9.80932
คฺฆ	-9.80953
▁สมฺมุขา	-9.80971
▁พาล	-9.80999
▁ตุวํ	-9.81047
▁พฺราหฺมณสฺส	-9.81131
▁โยเชตพฺพํฯ	-9.81138
▁เสฎฺฐ	-9.8115
▁นิพฺพโตฺต	-9.81155
▁รตฺติํ	-9.81261
▁๑๗	-9.81269
▁อริโย	-9.81313
รตน	-9.81372
กฺขนฺธ	-9.81428
วเคฺค	-9.81433
▁มานานุสโย	-9.81453
โญฺญ	-9.81491
โธ	-9.81493
▁อรญฺญ	-9.81563
นาย	-9.81596
▁อาจิกฺข	-9.81683
▁สงฺข	-9.81779
▁สิกฺขาปทํ	-9.81791
▁สงฺขาเร	-9.81848
กเมฺม	-9.81862
▁กตมานิ	-9.81892
▁วจีสงฺขาโร	-9.81918
▁ปริภุญฺช	-9.81949
▁เอวมาทินา	-9.81994
▁สมณพฺราหฺมณา	-9.82038
สมุฎฺฐาน	-9.82104
▁เวทิตโพฺพ	-9.82106
▁ปุคฺคลํ	-9.82138
สทิสํ	-9.82217
ปุญฺญ	-9.82221
▁อปรภาเค	-9.82239
รโส	-9.82267
จิตฺตา	-9.82271
กิเลสา	-9.82332
มุป	-9.82348
▁ปกาเสโนฺต	-9.82438
▁พีช	-9.8244
มชฺฌ	-9.82548
▁รม	-9.82559
▁กามธาตุยา	-9.82571
▁อติเรก	-9.82577
รูเป	-9.82577
▁ราชคเห	-9.82579
▁อายตน	-9.82626
▁นสมฺปยุเตฺต	-9.82652
ียตีติ	-9.82672
▁ถ	-9.8272
▁นิรุชฺฌิตฺถ	-9.82727
▁ยาย	-9.82765
ทสฺสเนน	-9.82773
สงฺขาต	-9.82791
▁วนฺท	-9.82899
นีติ	-9.82941
▁อารมฺมณาธิปติ	-9.83018
▁อาคมฺม	-9.83022
โทฺธ	-9.83022
โกฎิ	-9.83152
สุเตฺต	-9.8323
ลุ	-9.83241
าทีสุปิ	-9.83391
▁มุขํ	-9.83394
▁สมฺปยุตฺตา	-9.83466
▁อุทาหุ	-9.8348
▁เอวญฺหิ	-9.83514
อภิ	-9.83524
▁อญฺญตฺถ	-9.83526
รโต	-9.83547
วตฺถ	-9.83565
▁กปฺปิย	-9.83671
สงฺขาร	-9.83694
มฺห	-9.83723
▁ทิสฺสติ	-9.83769
▁เอกนฺต	-9.83794
กุสล	-9.83808
ามีติ	-9.83829
อิมํ	-9.83848
กิเลส	-9.83872
ตณฺหา	-9.83915
กาเร	-9.83922
▁๗๐	-9.8395
▁เยภุเยฺยน	-9.84024
▁สกฺก	-9.84116
▁รช	-9.84186
นฺตเร	-9.8419
▁เอกเจฺจ	-9.84237
ทํ	-9.84298
▁สุขา	-9.84318
ภาค	-9.84422
▁เอวาติ	-9.84446
▁วิปสฺสนํ	-9.84457
▁ทูเร	-9.8459
จิเตฺตน	-9.8471
▁ลภ	-9.84725
▁กตฺตุ	-9.84733
▁เสสเมตฺถ	-9.84752
สญฺญาย	-9.84874
▁คนฺถ	-9.84914
▁ตติเย	-9.85003
▁พฺย	-9.85007
นมฺปิ	-9.8504
▁มหนฺต	-9.85045
▁ปิว	-9.85085
▁วิเวก	-9.85087
ิปฺปยุตฺตปจฺจเยน	-9.85149
▁สุภ	-9.85236
▁วิตกฺก	-9.85301
▁๖๘	-9.85413
▁๘๐	-9.85452
▁มงฺคล	-9.85485
▁ขตฺติย	-9.85502
▁วิยาติ	-9.85516
▁ทา	-9.85527
สุณาตุ	-9.85547
▁สเนฺต	-9.85551
สุํ	-9.85578
▁มนฺท	-9.85578
▁ฌาเน	-9.85641
▁ชิโน	-9.85668
▁มุสา	-9.85671
▁อุปฺปชฺชนฺติฯ	-9.85805
ยาติ	-9.85846
▁สิกฺข	-9.85907
▁โลโภ	-9.85916
▁๑๘	-9.86025
อน	-9.86058
▁รูปํฯ	-9.86119
▁ภณฺฑ	-9.86134
▁ปพฺพต	-9.86152
▁ปุเรชาตปจฺจเยน	-9.8619
▁กมฺมฎฺฐานํ	-9.862
พฺย	-9.86204
▁สมฺปยุโตฺต	-9.86385
▁สทฺธาย	-9.86455
ภเว	-9.86462
▁เอเตสุ	-9.86489
▁สํสาร	-9.86496
▁กุสลสฺส	-9.86557
▁สโทฺท	-9.86569
▁คาเม	-9.8657
▁อนุสาส	-9.86577
▁อุทเก	-9.8661
เอว	-9.86775
ลิงฺค	-9.86791
▁๖๒	-9.86898
▁อนฺตมโส	-9.86911
▁๗๔	-9.8692
▁ปุณฺณ	-9.86921
▁๑๙	-9.86968
▁ตม	-9.86978
จตุ	-9.87012
▁๖๙	-9.87053
▁ทุกฺขสจฺจํ	-9.87074
▁หเตฺถ	-9.87152
▁เอวเมตํ	-9.87155
กฺก	-9.87183
▁ปพฺพชฺชา	-9.8719
นคเร	-9.87242
▁จิเนฺตสิ	-9.87257
▁นิรยํ	-9.87264
▁นิสฺสเย	-9.87291
สมเย	-9.87348
▁รตฺต	-9.87448
▁อาหร	-9.8745
▁ฆานายตนํ	-9.87493
▁ทิสฺวาน	-9.87647
▁เกหิจิ	-9.87655
▁มน	-9.87716
▁อมฺพ	-9.87785
มาห	-9.87831
สฺสิทํ	-9.87834
▁สหชาตา	-9.87855
▁ภิกฺขุสฺส	-9.87866
▁สญฺญาย	-9.87955
▁อนิ	-9.87969
เฎ	-9.8797
เสฺสตํ	-9.87994
โภชน	-9.88054
าธิปติ	-9.88137
▁ปุตฺตํ	-9.88152
▁รูปธาตุยา	-9.88195
คเต	-9.88202
เชฺช	-9.88225
▁อนาคเต	-9.8831
▁ติสฺส	-9.88321
▁คหณ	-9.88338
รูปา	-9.88395
▁ทารุ	-9.88406
มเชฺฌ	-9.88452
▁มธุร	-9.88455
ตพฺพา	-9.88482
ณี	-9.88502
มตฺตา	-9.88567
คฺคหณํ	-9.88617
สงฺฆ	-9.88632
▁คจฺฉโนฺต	-9.88642
▁มเญฺญ	-9.88642
ิตาฯ	-9.88808
▁๒๐	-9.88816
▁วิญฺญาณกฺขโนฺธ	-9.88817
ราสิ	-9.88893
สงฺขาตา	-9.88893
▁ปิฎฺฐิ	-9.88916
สีส	-9.89063
โลม	-9.8908
▁นิสีท	-9.89144
▁อุปนิสฺสเย	-9.89159
▁ภณ	-9.89171
อตฺถ	-9.89172
▁อธิฎฺฐาน	-9.89249
▁อภาสิตฺถาติฯ	-9.89309
▁ปาราชิก	-9.89312
เนฺท	-9.89321
▁หิต	-9.89334
▁สหชาเต	-9.89338
ยุตฺต	-9.89383
▁สญฺญ	-9.8948
▁อทาสิ	-9.89552
▁อเหสุํฯ	-9.89612
ิตุกาโม	-9.89621
▁เสโยฺย	-9.8964
าป	-9.89704
การํ	-9.89739
▁อญฺญมญฺญ	-9.89758
▁สมนฺตา	-9.89781
ทฺวย	-9.89866
▁ทฺวิธา	-9.8987
▁โลหิต	-9.89913
ายตน	-9.90011
▁เอวมาห	-9.90017
อโห	-9.90035
▁จรติ	-9.90121
▁อนนฺตร	-9.90129
ากาเรน	-9.90138
▁ภาวิตา	-9.9016
มฺปีติ	-9.90199
▁สีสํ	-9.9027
▁๒๑	-9.90279
▁อภาวโต	-9.90309
▁สงฺขารกฺขโนฺธ	-9.90322
คนฺธ	-9.90377
▁เหตุปจฺจโย	-9.90399
▁ลพฺภติ	-9.90454
▁มเคฺคน	-9.90461
▁นอุปนิสฺสเย	-9.90484
มุตฺต	-9.90491
สุํฯ	-9.90561
กาฯ	-9.90587
กตํ	-9.90639
ยุโตฺต	-9.90734
มานสฺส	-9.90794
ปาล	-9.90864
วาโท	-9.90946
▁ชิวฺหา	-9.90965
▁ปูเรตฺวา	-9.91029
▁จตุตฺถํฯ	-9.91084
คติ	-9.91103
มณิ	-9.91167
▁ปฐโม	-9.91171
▁อห	-9.9121
ภณฺฑ	-9.9126
▁หญฺจิ	-9.91332
▁โภชน	-9.9143
โยฺย	-9.91617
▁อรหํ	-9.91626
▁เสนาสน	-9.91638
▁ปจฺฉิมภวิกานํ	-9.91681
เสยฺย	-9.91682
▁กรณ	-9.91692
▁ปุจฺฉิฯ	-9.91741
▁อิมิสฺสา	-9.91752
▁อธิปติ	-9.91878
▁อโห	-9.91894
▁โรค	-9.91894
▁อญฺญมเญฺญ	-9.91932
▁สาล	-9.92025
▁อเญฺญสํ	-9.92085
พฺรหฺม	-9.92096
▁สรณ	-9.92141
▁ทฬฺห	-9.92201
▁ภาสติ	-9.92218
▁วิจิกิจฺฉานุสโย	-9.92228
หาโร	-9.92271
▁หิตฺวา	-9.92357
นเยน	-9.92498
▁หร	-9.92593
▁๒๓	-9.92598
▁ผุส	-9.92658
มาหฯ	-9.92665
วเน	-9.92693
ตพฺพํฯ	-9.92694
▁พาหิรํ	-9.92696
ทสฺสนํ	-9.92701
▁นาเมน	-9.92714
▁อาคม	-9.92729
ปโญฺห	-9.92762
▁เทเส	-9.92805
วณฺณา	-9.92817
▁อนิจฺจํ	-9.9286
▁สามญฺญ	-9.92992
▁สพฺพานิ	-9.93021
คาถา	-9.93025
▁๖๓	-9.93075
▁อุทฺทิสฺส	-9.93234
▁มาตาปิตโร	-9.93271
▁มนฺต	-9.93353
ปเกฺข	-9.93371
▁อนุตฺตรํ	-9.93397
▁ชานามิ	-9.93461
▁ทุกฺกฎ	-9.93473
▁เสต	-9.93491
▁๘๖	-9.9357
▁ปุจฺฉิ	-9.93571
วตี	-9.9361
▁อารมฺมณปจฺจยา	-9.93611
ยฺยาติ	-9.9365
เจตนา	-9.93733
ณฺฑ	-9.93743
▁กีฬ	-9.93747
▁ปสํส	-9.93788
วิสย	-9.93805
▁เอวรูโป	-9.93831
▁เตเนวาห	-9.93838
ิโตฯ	-9.93847
▁๘๓	-9.93849
▁โสภ	-9.93861
▁ปริยาเยน	-9.94036
▁กาเมสุ	-9.94048
▁อรูปธาตุยา	-9.94106
▁โพชฺฌงฺคา	-9.94186
▁๘๔	-9.94242
▁ปฎิฆานุสย	-9.9425
▁ฉพฺพคฺคิยา	-9.94268
เทสนา	-9.94293
อาทีนํ	-9.94382
กฺกม	-9.94388
▁อฎฺฐาสิฯ	-9.94537
▁มุตฺต	-9.94545
▁สมุทยสจฺจํ	-9.94546
▁๒๔	-9.94578
▁นโร	-9.94655
▁ทาตุํ	-9.9467
ิเตน	-9.94708
เภเทน	-9.94735
มณฺฑล	-9.948
▁๗๒	-9.94816
▁อธิกรณํ	-9.94853
โนฯ	-9.94864
อนนฺตเร	-9.94905
▁๗๑	-9.94941
▁เนตํ	-9.94942
ติอาทีนิ	-9.94948
โลเก	-9.94958
▁อุทฺธ	-9.95017
ยมาโน	-9.95103
โภค	-9.95145
▁นคร	-9.95158
ตรา	-9.95183
ิสฺสตี	-9.95198
▁ทุติยํฯ	-9.95238
▁เยหิ	-9.95263
ทฺวยํ	-9.95265
▁สุคโต	-9.95292
▁วสิ	-9.95305
▁ปหาตพฺพํ	-9.95364
ยญฺจ	-9.95373
▁วจเนน	-9.95374
▁ทิฎฺฐํ	-9.95407
▁อทฺธา	-9.95425
คฺคาห	-9.95434
▁เอตสฺสาติ	-9.95438
▁๙๐	-9.95612
▁อวิตกฺกวิจารม	-9.95615
หน	-9.95652
▁๕๔	-9.95716
กฺกโม	-9.95729
▁เตปิ	-9.95731
▁ปติฎฺฐา	-9.95768
▁ทนฺต	-9.95775
▁มจฺฉ	-9.95784
▁กณฺณ	-9.95791
▁พุเทฺธ	-9.95803
ลํ	-9.95854
โฬ	-9.95871
▁จิตฺตสงฺขาโร	-9.95872
ภุ	-9.95872
▁คิลาน	-9.95881
▁วเน	-9.9592
▁ปชานาติฯ	-9.95981
ภาวสฺส	-9.95989
▁ปุถุชฺชโน	-9.96011
สฺว	-9.96047
▁อนนฺต	-9.96108
▁ภวิสฺสนฺติ	-9.96169
▁วตฺตพฺพา	-9.96237
▁เอวเมตฺถ	-9.96254
▁อคมาสิฯ	-9.96293
▁๒๕	-9.96317
▁ปริสา	-9.96334
▁สตฺตเม	-9.96421
▁นิรุชฺฌติฯ	-9.96476
▁วีมํส	-9.96478
▁อุปฺปชฺชิตฺถฯ	-9.96539
เถ	-9.96543
▁คเจฺฉยฺย	-9.9659
วิญฺญาณ	-9.96636
▁อรูเป	-9.96714
▁อธิวจนํฯ	-9.96716
▁สาวก	-9.96727
าการ	-9.96729
▁อตฺถสฺส	-9.96802
เตฺถน	-9.9682
▁วิจร	-9.96857
▁อภินนฺทติ	-9.96858
▁๒๖	-9.96991
▁นามรูป	-9.97021
▁นูน	-9.97056
▁จตุเตฺถ	-9.97057
▁๗๘	-9.97077
▁เทเสติ	-9.97079
▁ลพฺภติฯ	-9.97104
าวุโส	-9.97123
▁วินิจฺฉโย	-9.97128
▁ปนาวุโส	-9.97159
เญฺญ	-9.97164
▁๗๕	-9.97184
▁จุทฺทส	-9.97214
▁วาปิ	-9.97357
▁คโตฯ	-9.97367
▁วิจิกิจฺฉานุสย	-9.97492
▁อมุ	-9.97517
▁๗๓	-9.97542
เยยฺย	-9.97544
สเพฺพ	-9.97589
▁เอวมสฺส	-9.97637
▁ขตฺติโย	-9.97654
▁เทวทโตฺต	-9.97666
▁อสฺสุ	-9.97671
ทสฺสนตฺถํ	-9.97686
▁ปทานิ	-9.97687
▁ขนฺธาฯ	-9.97691
▁๘๒	-9.97714
▁มํส	-9.97714
▁๑๐๐	-9.97727
เลน	-9.97743
▁โกฎิ	-9.97746
วี	-9.97756
โสฺส	-9.97784
▁ฉสุ	-9.97791
▁มนุเสฺสสุ	-9.97803
▁๗๖	-9.97804
▁สงฺคณฺหาติฯ	-9.9787
▁วิภชิตฺวา	-9.97883
▁วตฺถุญฺจ	-9.9791
มล	-9.97915
▁สมถ	-9.97924
▁ปญฺญายติ	-9.98039
▁ปเตฺต	-9.98095
▁อนิจฺจ	-9.9812
ตโพฺพฯ	-9.98163
▁อาปโนฺน	-9.98225
▁เอวเมวํ	-9.98267
▁วสฺสํ	-9.98333
▁อสํกิลิฎฺฐ	-9.9841
▁วิสย	-9.98414
▁๘๑	-9.98437
▁อฎฺฐกถา	-9.98474
▁ยถารหํ	-9.9848
โคฺค	-9.9851
ชาน	-9.98642
สงฺขาโต	-9.98662
▁ปมาณ	-9.98673
▁มาโร	-9.98717
▁อาสเน	-9.98789
ตฺร	-9.98805
รตฺต	-9.98905
เนฺตสุ	-9.98932
▁นิรุชฺฌิสฺสติฯ	-9.98951
▁๒๗	-9.98969
▁ปมาณํ	-9.98992
ณฺณ	-9.99056
▁ตติยํฯ	-9.99063
ตฺตญฺจ	-9.99084
▁ทสฺสนํ	-9.99104
▁๒๘	-9.99149
รุกฺข	-9.99161
▁หทย	-9.99183
▁สมณา	-9.99292
▁รถ	-9.99318
▁กาเรตฺวา	-9.99342
▁อนตฺถ	-9.99391
ปติ	-9.99402
มํส	-9.99448
▁มิตฺต	-9.99456
▁อมต	-9.99482
▁หน	-9.99494
▁อิทญฺจ	-9.99514
▁เนววิปา	-9.99536
เคฺค	-9.99539
▁สกํ	-9.99614
ชาตา	-9.99623
▁พลํ	-9.99644
▁โอภาส	-9.99654
▁ลาภ	-9.99657
▁พฺรหฺมา	-9.99657
๑๐	-9.99737
▁อุสฺส	-9.99825
▁อวิชฺชานุสโย	-9.99894
▁วจฺฉ	-9.99906
อปฺป	-9.99918
▁อุเทฺทส	-9.99932
▁สิยาติ	-9.99955
▁ปญฺจมํฯ	-9.99992
▁๘๙	-10.0001
▁๘๘	-10.0001
▁สจฺฉิกตฺวา	-10.0004
▁อนวชฺช	-10.0006
ภา	-10.0008
พุโทฺธ	-10.0012
▁ทิฎฺฐิํ	-10.0016
▁สปฺปิ	-10.0026
▁เนกฺขมฺม	-10.0027
▁ฐปิต	-10.0029
ตญฺจ	-10.0039
▁โหตีติฯ	-10.0044
▁อินฺทฺริเย	-10.0049
▁กโรนฺตสฺส	-10.005
▁เวท	-10.0052
ภูเตน	-10.0066
ถฯ	-10.0083
▁เถรา	-10.0091
▁ปสฺสามิ	-10.0092
ปฺปวตฺติ	-10.0093
▁อล	-10.0094
▁ภิกฺขุนีนํ	-10.0097
▁๒๙	-10.0098
▁อโถ	-10.0098
▁คมฺภีร	-10.0102
เค	-10.0103
มคฺคํ	-10.0105
ิเย	-10.0106
▁ตํตํ	-10.0108
มฺพ	-10.0109
ปโตฺต	-10.0112
▁นิทาน	-10.0113
▁๓๑	-10.0124
▁พาหิร	-10.0127
ทิวเส	-10.0128
▁๗๗	-10.0131
▁รโห	-10.0134
▁อุปาทาน	-10.0139
▁มหาภูตํ	-10.014
ปุคฺคโล	-10.014
▁เหฎฺฐิม	-10.0147
▁เวทิตพฺพา	-10.0147
สจฺจ	-10.0148
▁ตติโย	-10.0153
เนฺตหิ	-10.0157
ญาเณน	-10.016
าทิํ	-10.016
▁อนุภว	-10.0164
▁๕๓	-10.0166
▁เวฬุ	-10.0168
▁ปรินิพฺพายิสฺส	-10.0169
สญฺญ	-10.0171
▁กมฺมฎฺฐาน	-10.0175
ตฺติ	-10.0178
▁สตฺตมํฯ	-10.0181
เมน	-10.0187
กิริย	-10.0187
ปุคฺคล	-10.0189
▁อนุปาทินฺน	-10.019
▁รตฺติยา	-10.019
▁อมตํ	-10.0201
งฺก	-10.0207
▁ฆร	-10.0207
▁๓๐	-10.0207
รกฺข	-10.0214
▁เคห	-10.0222
นฺติปิ	-10.023
ปุริโส	-10.0235
▁สเหตุโก	-10.0239
▁สาธารณ	-10.0244
ปุ	-10.0245
▁สมฺมุติ	-10.0245
สญฺญิโน	-10.0247
▁สฎฺฐิ	-10.0248
▁อาเนตฺวา	-10.0251
สทิสา	-10.0252
ยฺยุํ	-10.0255
▁อนิจฺจา	-10.0257
▁กตฺตา	-10.0258
ทุกฺขํ	-10.0259
▁ขย	-10.0265
▁นิรเย	-10.0266
ฎฺฐิ	-10.0266
▁ปเคว	-10.0267
กฺขิ	-10.0268
▁พุชฺฌ	-10.0271
▁ฉินฺทิตฺวา	-10.0276
▁๗๙	-10.0287
าภาวโต	-10.0291
▁ปริยาย	-10.0292
ปุร	-10.0293
▁ปฐมชฺฌาน	-10.0294
วาส	-10.0295
▁อิเธว	-10.0305
ยติฯ	-10.0305
▁วทามิฯ	-10.0308
▁รญฺญา	-10.0309
▁ปาปุณ	-10.0312
ภตฺตํ	-10.0314
▁ฉฎฺฐํฯ	-10.0315
▁เอตานิ	-10.0326
เตฺถรคาถาวณฺณนา	-10.0326
▁สโมธาเนสิ	-10.0328
▁ปณฺฑิต	-10.0328
▁อเมฺหหิ	-10.0339
▁นตฺถี	-10.034
มตฺตมฺปิ	-10.0353
▁ฐิติ	-10.0368
▁อิธาปิ	-10.0368
▁มูลํ	-10.0369
▁ฉหิ	-10.0369
▁โภค	-10.0374
▁ปาร	-10.0379
ยโนฺต	-10.0381
▁สํวร	-10.0385
▁ปวตฺตํ	-10.039
▁กุกฺกุจฺจํ	-10.0393
ปุริส	-10.0393
▁สติมา	-10.0402
ราโค	-10.0402
กตฺตา	-10.0405
▁นามา	-10.0416
คามิ	-10.0418
ปกฺก	-10.0419
▁เอวรูปา	-10.0425
▁ชาตํ	-10.0427
▁อามิส	-10.0427
▁อิจฺฉา	-10.043
▁ปุคฺคลานํ	-10.043
รโญฺญ	-10.0438
▁วรํ	-10.0449
▁อิตฺถนฺนาม	-10.045
▁ปฐมํฯ	-10.0452
▁โพธิสตฺตสฺส	-10.0454
▁นคเร	-10.0461
▁อาทิโต	-10.0463
เตหิ	-10.0464
▁อปริ	-10.0468
▁สนฺตํ	-10.0469
▁๘๗	-10.0472
▁ปสฺสโนฺต	-10.0474
ปฺปตฺตา	-10.0477
▁อฎฺฐิ	-10.0478
ริย	-10.0478
▁ฌาปิตา	-10.0479
▁อุตฺตานเมวฯ	-10.048
▁ภวงฺค	-10.0481
สงฺคห	-10.0485
▁นิฎฺฐิโตฯ	-10.0488
นาทิ	-10.0498
▁นกุสโล	-10.0504
ฎฺฎ	-10.0505
ปจฺจเย	-10.0507
▁กุสเลสุ	-10.0508
▁อช	-10.0509
▁นิพฺพตฺติ	-10.051
▁ตป	-10.0511
▁อภิญฺญาย	-10.0514
ตฺถญฺจ	-10.0517
ฬา	-10.0519
▁สเพฺพสุ	-10.052
▁ตาทิสํ	-10.052
อาทีสุ	-10.0522
▁ปฎิลทฺธ	-10.0528
▁สพฺพถา	-10.0529
เธ	-10.0537
▁ธ	-10.0538
ภูตสฺส	-10.0542
▁นิรุตฺติ	-10.0551
มม	-10.0555
▁อนนฺตรา	-10.0561
ธน	-10.0561
▁ฌานสฺส	-10.0564
สภาว	-10.0567
▁นิกฺขิป	-10.0568
▁จกฺก	-10.0572
สงฺขาเตน	-10.0579
นิโรโธ	-10.058
▁นาโค	-10.058
เภทโต	-10.0584
▁อนุกมฺป	-10.0586
▁อุภโต	-10.0587
ิเม	-10.0588
▁พนฺธิตฺวา	-10.0589
▁ปวตฺตติ	-10.059
▁เตล	-10.059
▁วิเสสโต	-10.0594
ุปฺปาท	-10.0599
กฺ	-10.0601
▁๓๒	-10.0604
▁ปริสาย	-10.0606
▁ยถากฺกมํ	-10.0607
▁นโม	-10.061
เหว	-10.061
สโม	-10.0613
ตฺตาติ	-10.0617
วินย	-10.0619
▁วิหร	-10.0619
▁ปหาตพฺพา	-10.0621
▁อนาคตํ	-10.0623
▁ปรมตฺถ	-10.0627
▁อรหตฺต	-10.0631
สมุฎฺฐานํ	-10.0638
▁มคฺคา	-10.0638
▁๓๓	-10.0645
ทณฺฑ	-10.0645
าร	-10.0648
▁อิจฺฉติ	-10.0652
▁คหิตา	-10.0652
▁สติยา	-10.0652
ยตีติ	-10.0654
▁กตฺวาฯ	-10.0659
▁นิรย	-10.0662
วิธ	-10.0665
ญฺญู	-10.0665
▁วิหรามิ	-10.0668
▁คนฺตุํ	-10.067
▁ทิโฎฺฐ	-10.067
▁กถาย	-10.0672
รเณ	-10.0673
▁ปถวิํ	-10.0674
▁กงฺขา	-10.0681
ธเมฺมสุ	-10.0689
▁มคฺคสจฺจํ	-10.0692
▁กสิณ	-10.0697
พเลน	-10.0707
▁อโกฺกส	-10.0709
▁ทาส	-10.0711
▁สพฺพมฺปิ	-10.0712
▁สปฺป	-10.0713
▁อกปฺปิย	-10.0716
ทนฺต	-10.0717
▁โลโป	-10.0718
เกฺข	-10.072
▁ชโน	-10.0723
▁อิตร	-10.0723
มโตฺต	-10.0724
▁๓๕	-10.0724
นาค	-10.0725
มุเข	-10.0728
▁อนฺตเร	-10.0728
▁ฐิตสฺส	-10.0737
▁รฎฺฐ	-10.0749
▁อฎฺฐมํฯ	-10.0758
▁ปจฺจเย	-10.077
สจฺจํ	-10.077
▁ฐิเต	-10.0775
โตฺถฯ	-10.0776
▁นาภิ	-10.0785
อิมินา	-10.0785
▁วิภตฺติ	-10.0786
▁อธิกรณ	-10.0792
▁อวตฺวา	-10.0795
▁วุตฺตนยเมวฯ	-10.0796
มฺภ	-10.0798
▁ทสมํฯ	-10.0799
▁ติฎฺฐติฯ	-10.0804
▁อสุภ	-10.0807
▁กุสลานํ	-10.0813
▁ทเทยฺย	-10.0814
▁กิจฺจํ	-10.0817
▁๙๒	-10.0823
▁ปุริสา	-10.0828
▁สตฺตาหํ	-10.0836
▁อาจริโย	-10.0837
พลํ	-10.0843
▁๘๕	-10.0845
▁ลาภี	-10.0845
ินา	-10.0845
อญฺญมเญฺญ	-10.0846
▁๕๒	-10.0847
▁อนิทสฺสนอปฺปฎิฆ	-10.085
นก	-10.0855
▁อูน	-10.0858
▁อเญฺญหิ	-10.086
▁วิชาน	-10.086
▁เหตํ	-10.0862
▁ฆ	-10.0862
▁วินเย	-10.0863
กาโม	-10.0865
นฺติอาทิฯ	-10.0868
มนฺต	-10.087
ทุก	-10.0881
▁คพฺภ	-10.0884
▁โอกฺกม	-10.0885
▁อินฺท	-10.089
▁๖๔	-10.089
▁เอเก	-10.0892
▁เถรํ	-10.0895
▁ธาตุยา	-10.0896
วส	-10.0897
ฌาน	-10.0903
▁อปฺปนา	-10.0904
▁ปาสาณ	-10.0907
ฺยา	-10.0909
▁สทฺธมฺม	-10.0909
ทฺวาเร	-10.0913
▁รชฺช	-10.0915
สามิ	-10.0918
▁จริตฺวา	-10.0925
▁ทุเว	-10.0927
▁ลทฺธา	-10.0927
▁วุจฺจนฺติฯ	-10.0928
สทฺทา	-10.0929
▁โรท	-10.0931
มาร	-10.0931
▁ติก	-10.0931
กตโม	-10.0935
กฺขเนฺธ	-10.0936
▁ปริยตฺติ	-10.0941
▁อญฺญตร	-10.0943
▁๓๔	-10.0946
▁๙๑	-10.0962
นฺนํ	-10.0964
ภาโวฯ	-10.0967
าปทานํ	-10.0969
▁ยํกิญฺจิ	-10.0971
สมาปตฺติ	-10.0972
▁ปหานํ	-10.0982
▁สรีเร	-10.0984
▁๓๗	-10.0989
▁ภาเว	-10.099
▁เอเตหิ	-10.0996
▁นวมํฯ	-10.0999
▁กมฺมานิ	-10.1001
▁ธีโร	-10.1001
▁สมฺปยุเตฺต	-10.1005
▁อวิชฺชาย	-10.1007
▁ตกฺก	-10.1008
ฆาต	-10.1009
▁โนอุปาทา	-10.101
▁ปมาท	-10.1011
เรหิ	-10.1018
▁เถร	-10.1019
▁สนฺธิ	-10.1021
▁นิวตฺต	-10.1021
กามา	-10.1023
▁ยุ	-10.1025
▁วิวิเจฺจว	-10.1025
คาห	-10.1026
นาหํ	-10.1031
▁อเงฺคหิ	-10.1033
▁นิกฺขม	-10.1034
▁กญฺจิ	-10.1041
▁วิชฺชติฯ	-10.1042
▁ฉินฺท	-10.1044
▁สทิส	-10.1053
▁กตฺตพฺพ	-10.1055
ุปาทินฺนุปาทานิย	-10.1064
▁อุปาสโก	-10.1069
มุโข	-10.1073
▁มาโน	-10.1084
ชาต	-10.1089
▁อติกฺกมิตฺวา	-10.1089
ิสฺส	-10.1096
▁ฉฎฺฐ	-10.1101
วีริย	-10.1102
▁อนฺธ	-10.1103
▁สมุทฺท	-10.1105
▁ปกฺขิปิตฺวา	-10.1108
มาเนน	-10.1108
▁ภินฺทิตฺวา	-10.1109
คฺคิ	-10.111
▁๙๓	-10.1111
▁กายกมฺมํ	-10.1111
▁๓๖	-10.1112
านม	-10.1113
▁อนุชานามิ	-10.1114
เฬ	-10.1116
▁อุโปสถํ	-10.1118
▁สาธุกํ	-10.112
จีวรํ	-10.112
โลโป	-10.112
▁สนฺท	-10.1122
การณา	-10.1122
▁จิรํ	-10.1124
ปุจฺฉ	-10.1125
ารมฺมเณ	-10.1133
▁ขิปฺปํ	-10.1135
ชาล	-10.1136
ปทานิ	-10.1146
นาฯ	-10.1147
▁โวหาร	-10.1151
▁อสงฺคหิตา	-10.1155
▁พนฺธน	-10.1156
▁๙๔	-10.1163
▁อสฺสาท	-10.1163
▁ฌาย	-10.1167
▁นีหร	-10.1167
▁อสิ	-10.1171
▁ปญฺจม	-10.1172
▁อกาสิ	-10.1174
วิหาเร	-10.1177
▁โสตํ	-10.1179
วิตกฺก	-10.118
เวร	-10.1186
ชานน	-10.1188
▁ภควติ	-10.1188
▁อุภินฺนํ	-10.1191
▁ปริส	-10.1201
▁โอวาท	-10.1202
▁อสุจิ	-10.1209
▁เอวมาทิ	-10.1213
คาเม	-10.1221
▁กณฺห	-10.1221
▁กุจฺฉิ	-10.1221
▁อฎฺฐงฺคิโก	-10.1228
▁อยญฺจ	-10.1233
▁อาตาปี	-10.1234
▁อนิฎฺฐ	-10.1235
▁๙๘	-10.1235
▁อนุสฺสร	-10.1238
อาหาเร	-10.1244
เปฺป	-10.1245
▁เจติย	-10.1256
▁วิเนยฺย	-10.1256
ชีว	-10.1257
กมฺปิ	-10.1257
▁๓๙	-10.1258
อินฺทฺริย	-10.1262
▁ปสฺสโต	-10.1266
โสต	-10.127
วิเสโส	-10.1271
▁อวิเกฺขโป	-10.1273
▁ขมติ	-10.1278
▁ภช	-10.1283
▁เจโต	-10.1283
▁ปกฺข	-10.1287
▁อุปมา	-10.1291
▁ปากฎํ	-10.1296
▁สาวกา	-10.1296
▁อเญฺญปิ	-10.1303
▁ปต	-10.1306
วเสนฯ	-10.132
มุขํ	-10.1321
ตฺถสฺส	-10.1323
▁สมนฺนาคตา	-10.1325
▁เอกทิวสํ	-10.1328
าทิอ	-10.1328
▁อิติปิ	-10.1329
ภาโค	-10.1331
▁ทิ	-10.1331
▁๙๖	-10.1332
▁กนฺท	-10.1332
▁ปุจฺฉามิ	-10.1336
จร	-10.1338
▁ปาราชิกํ	-10.1344
▁อสฺสาเทติ	-10.1346
▁ปญฺจเม	-10.1347
จริยา	-10.1352
▁อุทานํ	-10.1359
▁ปาปุณาติ	-10.136
▁สญฺชาต	-10.1369
▁เชฎฺฐ	-10.1371
หุ	-10.1377
▁ลภติฯ	-10.1381
▁อาวชฺชน	-10.1383
▁สวน	-10.1385
▁ตฺว	-10.1386
▁๓๘	-10.1386
าล	-10.1386
สญฺญํ	-10.1386
▁นามํฯ	-10.1387
สมฺปยุตฺตา	-10.1388
▁ปริตฺตํ	-10.1388
▁ทิสฺสติฯ	-10.1392
▁อุชุ	-10.1392
▁ฉนฺทํ	-10.1393
▁สคฺคํ	-10.14
วิภตฺติ	-10.1401
▁ปริวาร	-10.1402
▁สมฺมาสมฺพุทฺธ	-10.1402
▁มหาภูตา	-10.1404
▁๔๑	-10.1405
▁อนตฺตา	-10.1407
▁เทสนํ	-10.1408
▁ยมก	-10.1415
▁ปฎิสมฺภิทา	-10.1419
▁กาตพฺพํ	-10.1421
▁จเร	-10.1425
▁การเณหิ	-10.1428
อิ	-10.143
กาลโต	-10.1431
เรยฺย	-10.1432
▁นวฯ	-10.1435
▁วตฺตโพฺพ	-10.1437
าถ	-10.1439
▁๙๕	-10.1439
▁สมฺมเทว	-10.1442
▁สีลวา	-10.1443
▁ทุกฺขโต	-10.1446
▁กถิน	-10.145
คฺคํ	-10.1454
จฺจาทิฯ	-10.1459
▁มุญฺจ	-10.1461
▁วตฺตพฺพํฯ	-10.1463
▁อาเสวเน	-10.1464
▁กาจิ	-10.1467
▁ปลาย	-10.1469
▁เถเรน	-10.1469
าลงฺการ	-10.1471
▁โอกาสํ	-10.1474
ยี	-10.1478
▁ปากโฎ	-10.1483
▁สตฺตนฺนํ	-10.1488
ุตฺตร	-10.1488
▁กล	-10.1495
▁กายิกํ	-10.15
▁ปาณิ	-10.1503
โยชน	-10.1503
▁วิวฎฺฎ	-10.1505
ทโย	-10.1513
▁อากาส	-10.1513
▁ตตฺรายํ	-10.1514
▁จมฺม	-10.1517
รถ	-10.1519
▁ปวารณา	-10.1519
▁อกุสลานํ	-10.1525
▁จิตฺตานิ	-10.1527
▁ณ	-10.1528
▁๔๐	-10.1528
▁ปาติโมกฺขํ	-10.153
โข	-10.1532
▁ปชห	-10.1536
▁ปทสฺส	-10.1539
▁สมฺปยุตฺตํ	-10.1549
▁ชีวิตา	-10.1551
▁อจฺจนฺต	-10.1551
▁มาณว	-10.1551
▁สูริย	-10.1553
สงฺขาเต	-10.1553
ปุโพฺพ	-10.1553
ิตนฺติ	-10.1554
▁สเหตุก	-10.156
▁เสโฎฺฐ	-10.1564
พ	-10.1566
▁เอตฺตกํ	-10.1569
▁อินฺทฺริยานิ	-10.1569
▁อิตฺถิโย	-10.157
ียเต	-10.1572
ทาเนน	-10.1573
▁อนคาริยํ	-10.1578
▁สํกิเลส	-10.1579
▁โทมนสฺส	-10.1583
ปริเจฺฉท	-10.1583
สาล	-10.1583
▁ปวตฺตตีติ	-10.1585
ถาติ	-10.1591
▁สนฺตกํ	-10.1592
▁พหุลีกตา	-10.1593
▁ปฎิปตฺติ	-10.1593
▁อปาย	-10.1594
▁สมาปตฺติ	-10.1599
▁ทฎฺฐพฺพาฯ	-10.1602
นฺติอาทิมาหฯ	-10.1603
▁อิตฺถิยา	-10.1603
▁ปาณาติปาตา	-10.1603
▁สมฺปยุตฺตกา	-10.1604
มนา	-10.1606
เตสุ	-10.1607
มฺป	-10.1608
กี	-10.1611
สมโย	-10.1617
▁อริยมคฺค	-10.1624
▁วิปฺปยุตฺตา	-10.1624
พหุ	-10.1628
รูเปน	-10.1628
▁รูปาวจร	-10.163
▁ปูติ	-10.163
▁คหณํ	-10.1633
โถ	-10.1634
▁๔๔	-10.1644
กาส	-10.1649
▁กเถ	-10.1649
▁สามํ	-10.1651
▁ปฎิปกฺข	-10.1654
▁ทิพฺพจกฺขุ	-10.1659
กรเณน	-10.1661
▁จตุสจฺจ	-10.167
▁๔๓	-10.1672
▁ลหุ	-10.1677
▁ปากฎ	-10.1678
กาติ	-10.1683
การา	-10.1684
▁พฺยาธิ	-10.169
▁หเตฺถน	-10.169
▁อนาถปิณฺฑิกสฺส	-10.1691
▁๕๐	-10.1692
▁คเหตุํ	-10.1701
พีช	-10.171
▁๔๕	-10.171
▁๑๐๒	-10.1711
▁อกต	-10.1717
▁ตนุ	-10.1723
▁ราชาโน	-10.1724
าราม	-10.1725
▁เทวโลเก	-10.173
▁จกฺขุวิญฺญาณํ	-10.1732
▁ขีร	-10.1734
▁โทสํ	-10.1734
▁มญฺญสิ	-10.1738
▁เอวมาหฯ	-10.1738
ินฺทฺริย	-10.1746
▁อปเร	-10.1747
▁พฺราหฺมณํ	-10.175
▁ทิสํ	-10.1755
กเปฺป	-10.1759
อฎฺฐ	-10.1759
ภาเค	-10.176
▁มจฺจุ	-10.1763
▁อธิปฺปาโย	-10.1763
▁สย	-10.1765
รุโกฺข	-10.177
▁อากาเรหิ	-10.177
▁๙๗	-10.1774
▁สุนฺทร	-10.1774
▁๔๒	-10.1776
ปถ	-10.1776
นีโย	-10.1777
▁ปาปกา	-10.1781
▁วิชฺชมาน	-10.1782
▁ปสฺสติฯ	-10.1783
▁ปณีตํ	-10.1788
ปาทินฺนุปาทานิโย	-10.1788
▁อนฺตร	-10.1789
สฺมินฺติ	-10.1789
ปฎิจฺจวาราทิ	-10.1791
▁เอเกก	-10.1791
มฺม	-10.1792
▁๔๖	-10.1799
▁กามํ	-10.1801
▁ชาล	-10.1804
▁วิหาโร	-10.1806
▁สํโยชน	-10.1808
▁อนุเสนฺติ	-10.1811
เยฺย	-10.1817
▁ขนฺติ	-10.182
▁๔๙	-10.1821
▁๔๗	-10.1822
ภยํ	-10.1825
ตาทิ	-10.1826
มูเล	-10.1826
รณ	-10.1828
▁วาเร	-10.1829
ตเล	-10.1832
สงฺก	-10.1833
▁องฺคํ	-10.1835
โชฺช	-10.1837
▁โยเชตฺวา	-10.1837
โยโค	-10.184
▁ภวา	-10.1846
▁อติกฺกม	-10.1846
▁ปณีต	-10.1847
กถาฯ	-10.185
▁กตตฺตา	-10.1851
▁ฐเป	-10.1853
รสํ	-10.1853
▁ชายติ	-10.1856
วาทา	-10.1856
▁สงฺก	-10.1856
▁๑๐๓	-10.1859
▁เอตา	-10.1861
▁ทุพฺพล	-10.1862
▁สมฺปยุตฺต	-10.1867
หิต	-10.1876
▁สาวตฺถินิทานํ	-10.1878
▁จรนฺติ	-10.1878
ิตฺวาน	-10.1882
ปฺปมาณ	-10.1884
▁ภู	-10.1886
▁สิริ	-10.189
▁เภโท	-10.1893
▁อินฺทฺริยํ	-10.1895
▁เวมติโก	-10.19
▁วุฎฺฐหิตฺวา	-10.1903
▁อาย	-10.1912
▁อิตฺถนฺนามสฺส	-10.1912
▁การณา	-10.1913
▁อวิชฺชานุสย	-10.1922
▁ทีฆรตฺตํ	-10.1923
▁เทวปุโตฺต	-10.1925
▁ตาทิโส	-10.1931
▁หิตาย	-10.1936
มติ	-10.1936
▁สหาย	-10.1938
▁สงฺคห	-10.1939
▁อคฺคมคฺค	-10.194
▁สีมา	-10.1941
โลโก	-10.1942
▁มชฺฌ	-10.1942
ปโญฺญ	-10.1943
ยฺห	-10.1945
▁วคฺค	-10.1946
▁อุปฺปเนฺน	-10.1952
▁กิเลสานํ	-10.1953
▁มต	-10.1953
▁วิปสฺสนาย	-10.1953
เทฺธ	-10.1957
▁อกฺข	-10.1967
โกฺก	-10.197
ลี	-10.1974
▁ปูเร	-10.1975
▁สมาส	-10.1975
▁ปุริสํ	-10.1979
เทฺว	-10.1988
▁ธมฺมาฯ	-10.1988
▁สมฺมาสมาธิ	-10.1989
▁ทุติยา	-10.1991
▁วุตฺตาติ	-10.1996
▁อกฺขร	-10.2001
▁ปุตฺตา	-10.2006
พฺยา	-10.2006
กฺขา	-10.2009
▁ยาวตา	-10.2012
▁ปริโภค	-10.2013
▁สงฺคโห	-10.2014
สมฺปนฺนา	-10.2016
▁เขม	-10.2019
▁สามิ	-10.2021
▁อยญฺหิ	-10.2023
าเปตุํ	-10.2025
▁ปฎิชานาติ	-10.2026
▁วิชฺฌ	-10.2029
▁เอเตสนฺติ	-10.2029
▁ปุจฺฉติฯ	-10.2032
▁สเม	-10.2037
ปาฬิ	-10.2038
▁อชฺฌ	-10.2039
▁จิร	-10.204
▁เทเว	-10.2041
ฺ	-10.2042
▁อาปตฺตีนํ	-10.2043
สมฺปตฺติํ	-10.2044
▁อิทเมว	-10.2047
กิริยาย	-10.2056
ปพฺพต	-10.2058
สมฺปนฺน	-10.2059
▁อภิภุยฺย	-10.2061
▁วจี	-10.2061
ิเกน	-10.2066
ิตุ	-10.2066
▁ภณฺฑํ	-10.2067
านิปิ	-10.2068
▁วเทสิ	-10.207
โงฺค	-10.2078
เยวา	-10.2079
โพธิ	-10.2081
▁ปจฺฉโต	-10.2081
▁ตถาปิ	-10.2083
▁อาราม	-10.2092
▁จตุโร	-10.2094
▁ติฎฺฐนฺติ	-10.2096
▁นิสินฺนํ	-10.2097
▁อิริยาปถ	-10.2099
▁นร	-10.2099
สงฺค	-10.2101
▁โภเค	-10.2103
เพฺพ	-10.2103
สมฺม	-10.2107
▁ตมหํ	-10.2109
▁ขณฺฑ	-10.2109
▁ปฎิเสว	-10.211
▁วิปฺปยุเตฺต	-10.2113
▁ทิเพฺพน	-10.2115
▁ขม	-10.2115
▁อโย	-10.2118
▁สมาทาย	-10.2121
▁อพฺภ	-10.2121
▁สกฺกจฺจํ	-10.2122
▁สตฺถ	-10.2122
นิทสฺสนสปฺปฎิโฆ	-10.2131
▁จกฺขุวิญฺญาณ	-10.2132
ยฺยฯ	-10.2133
▁อสีติ	-10.2134
กเมฺมน	-10.2134
▁วุจฺจตี	-10.2138
ิมํ	-10.2157
▁สเร	-10.2157
นฺตรํ	-10.2159
▁๑๑๐	-10.216
▁ภูมิยํ	-10.2162
▁วสํ	-10.2164
กตเมหิ	-10.2165
▁อุณฺห	-10.2167
ปิณฺฑ	-10.2172
▁สทฺทา	-10.2173
สนิทสฺสนสปฺปฎิฆํ	-10.2175
▁ทฬฺหํ	-10.2176
ิสฺสสิ	-10.2178
ยฺยา	-10.2185
ปชฺช	-10.2187
▁อิตเร	-10.2188
▁ภวิสฺสตีติ	-10.2196
▁ปจฺจยานุโลมํ	-10.2196
▁อปโร	-10.2203
▁เตฺวว	-10.2206
หร	-10.221
▁นทสฺสเนน	-10.2215
▁สงฺขํ	-10.2215
▁ยญฺญ	-10.2217
▁นิพฺพตฺติตฺวา	-10.2217
▁ปโยค	-10.2225
▁สมฺปตฺต	-10.2226
▁สเงฺขปโต	-10.2236
นฌาเน	-10.2238
▁๑๐๗	-10.2239
ชวน	-10.2239
▁วเณฺณน	-10.2247
▁ปณฺณ	-10.2248
▁ทฺวตฺติํส	-10.2249
นฺธ	-10.2254
▁ลกฺขณํ	-10.2256
▁ปฎิวิชฺฌ	-10.2256
▁ปีต	-10.2256
▁ทสหิ	-10.2257
▁นิสีทิ	-10.2264
▁ปหาตพฺพเหตุกํ	-10.2267
▁นาปิ	-10.2268
▁ธมฺมเทสนา	-10.227
▁วสี	-10.2274
ปเถ	-10.2274
▁ถิร	-10.2275
▁ชิคุจฺฉ	-10.2276
▁สมฺพุโทฺธ	-10.228
ินฺท	-10.2281
เสว	-10.2282
▁มหานาม	-10.2286
▁ยมฺปิ	-10.2288
▁คุเณ	-10.2297
▁๔๘	-10.2301
▁๑๐๑	-10.2308
▁นิรุชฺฌิสฺสตีติ	-10.2312
ภาวา	-10.2321
▁ภิกฺขุสงฺฆสฺส	-10.2321
▁ตมฺหา	-10.2327
▁๙๙	-10.233
▁อพฺยากตสฺส	-10.2331
▁นิสฺสรณ	-10.2337
▁คมนํ	-10.234
▁สตฺตหิ	-10.234
▁เทสนาย	-10.234
ิสฺสตีติ	-10.2342
▁เคเห	-10.2342
กฺขโนฺธ	-10.2343
ปโยค	-10.2344
▁ปเรหิ	-10.2345
โสภ	-10.2347
พนฺธน	-10.235
กาเรน	-10.2351
▁จิเนฺต	-10.2357
▁สาวกานํ	-10.2357
▁นิวาเสตฺวา	-10.2363
▁เทนฺติ	-10.2368
▁วินโย	-10.237
ปฺปหาน	-10.2371
▁สามเณโร	-10.2376
▁ยช	-10.2376
▁มาเส	-10.2379
▁ปจฺจยจตุกฺกํ	-10.2384
▁นุปฺปชฺชิสฺสติ	-10.2386
▁สํสโฎฺฐ	-10.2387
▁คโนฺธ	-10.2397
▁อโคฺค	-10.2406
พทฺธ	-10.2408
ทิสา	-10.241
▁อหมฺปิ	-10.2413
▁พหุลํ	-10.2414
ภูมิยํ	-10.2414
▁สวิตกฺกสวิจาร	-10.2417
▁กจฺจิ	-10.2417
▁เทฺวปิ	-10.242
สีโล	-10.2433
คุ	-10.2434
▁อนนุ	-10.2436
▁ทุฎฺฐ	-10.2444
▁องฺคานิฯ	-10.2444
▁สุณ	-10.2446
▁ปตฺตา	-10.2446
สุวณฺณ	-10.2449
▁โสตาปโนฺน	-10.2457
มูลก	-10.2457
▁อวิทูเร	-10.2458
วิปฺปยุตฺตปจฺจยา	-10.246
▁ภุญฺชติ	-10.2468
▁ปุคฺคเล	-10.2468
▁ติฎฺฐ	-10.247
▁๑๐๘	-10.2475
▁ขีณาสโว	-10.2475
▁เภสชฺช	-10.2477
▁ปริเยส	-10.2477
▁ภทฺท	-10.2478
วิปสฺสนา	-10.2479
▁อิตโร	-10.2481
▁ปพฺพชิต	-10.2481
▁ปกฺกม	-10.2486
▁๕๑	-10.2488
▁ปเท	-10.2492
▁ปญฺจมํ	-10.2492
เปกฺข	-10.2495
▁กฺริยา	-10.2499
▁ปจฺฉาชาตปจฺจเยน	-10.2501
าโท	-10.2503
วิสเย	-10.2505
▁กิตฺติ	-10.2507
▁วย	-10.2509
นม	-10.2511
▁รูปา	-10.2512
ิํสูติ	-10.2512
วารวณฺณนา	-10.2516
▁รสฺส	-10.2519
▁ตถาคต	-10.2521
ิตตฺตํ	-10.2521
▁จาริกํ	-10.2524
▁กพฬีกาโร	-10.2525
▁ปสโนฺน	-10.2525
▁มํสํ	-10.2527
▁กายโต	-10.2528
▁วิวร	-10.2528
ิตพฺพา	-10.2534
▁อุปนิสฺสย	-10.2535
▁อาสว	-10.2538
▁เขตฺต	-10.2538
▁ทุกฺกฎสฺสา	-10.2547
สนฺธิ	-10.2548
▁ทเสฺสตุมาห	-10.2549
▁โสก	-10.2552
ทีนํ	-10.256
▁ลทฺธํ	-10.2563
▁ยนฺติ	-10.2563
▁อุปสมฺปทา	-10.2566
งฺคํ	-10.2568
▁ชานิตฺวา	-10.2569
จี	-10.2569
▁มุโตฺต	-10.2572
▁ทุคฺคติ	-10.2575
ธนํ	-10.2578
▁โอโลเก	-10.2581
▁พาลา	-10.2593
▁ติณฺณนฺนํ	-10.2597
▁ปฎิคฺคเหตฺวา	-10.26
กรา	-10.26
▁ทสฺสนาย	-10.2601
▁อสฺสา	-10.2601
ตานิ	-10.2603
▁สุทฺธํ	-10.2607
▁๑๐๔	-10.2609
▁สภาค	-10.2609
▁อาการ	-10.2611
ิตานิ	-10.2613
นคร	-10.2614
กตฺถ	-10.2615
▁วุทฺธิ	-10.2616
▁ปจฺจกฺข	-10.2619
ิตโพฺพฯ	-10.2621
มฺหีติ	-10.2622
▁วาท	-10.2622
▁สสฺส	-10.2624
▁นนเหตุ	-10.2627
▁กโรนฺติฯ	-10.2632
▁โอโลเกโนฺต	-10.2635
▁กุส	-10.2636
ิกาฯ	-10.2641
ตม	-10.2642
ยทิ	-10.2645
ิยมาโน	-10.2646
▁ปิโย	-10.265
▁อญฺญาณ	-10.2652
▁เจตสิก	-10.2654
▁สูจิ	-10.2655
ิสฺสาม	-10.2656
วิภงฺค	-10.2656
ปทานํ	-10.2656
▁ธญฺญ	-10.2658
▁สมุทย	-10.2666
▁มาณโว	-10.2667
▁ลทฺธิ	-10.2671
▁อาปตฺติสมุฎฺฐาน	-10.2673
▁สมฺพโนฺธ	-10.2677
▁๑๑๕	-10.268
▁โมท	-10.2682
▁อนญฺญ	-10.2683
▁ปนายํ	-10.2689
▁กตฺตริ	-10.2691
▁คิริ	-10.2691
▁อิมมตฺถํ	-10.2694
▁ชรามรณ	-10.2695
▁ทุเกฺข	-10.2701
จกฺก	-10.2702
ปริยาย	-10.2706
▁อทุกฺขมสุขาย	-10.2708
▁เจปิ	-10.2717
▁นมสฺส	-10.2719
▁ยโกฺข	-10.2721
▁สุเขน	-10.2721
▁ตเมนํ	-10.2722
▁สุณาติ	-10.2726
จาร	-10.2727
▁๑๑๒	-10.2729
ตล	-10.273
เจฺฉท	-10.2732
▁ผลสฺส	-10.2736
▁มาส	-10.2736
▁มญฺญติ	-10.2739
▁สติปฎฺฐานา	-10.2744
วิส	-10.2744
นอินฺทฺริเย	-10.2746
▁ตถาคตํ	-10.2747
▁ชานาตีติ	-10.2751
ผ	-10.2753
เยฯ	-10.2753
▁ปริญฺญา	-10.2754
▁วิหรนฺติ	-10.2754
▁ปรินิพฺพนฺตาน	-10.2756
สิกฺขาปท	-10.276
คมนํ	-10.2767
ยทา	-10.2768
▁ติกฺขตฺตุํ	-10.2769
สมฺป	-10.2771
▁ภณติ	-10.2772
สทฺทํ	-10.2772
สงฺขาตสฺส	-10.2775
คม	-10.2777
มิค	-10.2777
อาม	-10.2779
▁อาหารํ	-10.2779
ฬิ	-10.278
กุมาร	-10.2781
▁ตทารมฺมณ	-10.2784
วสาเน	-10.2787
▁คม	-10.2789
▁สญฺญํ	-10.279
▁เอเกนายตเนน	-10.2791
▁วตฺตํ	-10.2792
▁ปหีน	-10.2793
▁ทุก	-10.2794
▁สุขุม	-10.2795
▁อเหตุกํ	-10.2799
▁ยโส	-10.2805
▁อธิก	-10.2806
ตถา	-10.2806
▁อาทีนวํ	-10.2807
สรีร	-10.2808
▁นาหํ	-10.281
นว	-10.2811
▁ปริภาส	-10.2815
ปนฺน	-10.2816
▁ทูร	-10.2819
▁อุจฺจ	-10.2819
▁วุ	-10.2822
โณฺฑ	-10.2826
▁สมฺพนฺธ	-10.2829
▁นีวรณ	-10.283
▁สโม	-10.2839
▁อฎฺฐงฺคิก	-10.2845
เตฺถร	-10.2848
▁อรหโนฺต	-10.2848
▁สวิตกฺกสวิจาโร	-10.2848
▁คหิตํ	-10.2848
วจนํฯ	-10.2848
มิติ	-10.2849
เภเท	-10.2854
วาเท	-10.2854
▁วิคเต	-10.286
▁วาต	-10.2861
วิธํ	-10.2861
▁อฎฺฐเม	-10.2861
▁สตฺถริ	-10.2867
▁ธมฺมวินเย	-10.2869
ูติ	-10.2873
▁สิกฺขาปท	-10.2876
▁กถิต	-10.2881
▁สํกิลิฎฺฐ	-10.2886
▁ปาณาติปาต	-10.2886
มฺหี	-10.2887
▁ฉเฎฺฐ	-10.2892
▁อาคตํ	-10.2892
▁สติปฎฺฐาน	-10.2894
▁๑๑๘	-10.2899
▁กรณียํ	-10.2904
ตฺตยํ	-10.291
นิโรธ	-10.2914
▁กามราคานุสเยน	-10.2915
▁อาทีนโว	-10.2915
กณฺณ	-10.2915
▁ปยิรุปาส	-10.2917
▁อวเสส	-10.2917
▁ปรินิพฺพาน	-10.2917
▁ชิณฺณ	-10.2918
เจฺฉ	-10.2919
▁ผาสุ	-10.292
▁นิสินฺนา	-10.2922
▁คเต	-10.2922
วนํ	-10.2926
▁ปนาติ	-10.2928
▁สมโย	-10.293
▁อุปาทา	-10.2931
▁นอธิปติปจฺจยา	-10.2935
ิตพฺพนฺติ	-10.2936
▁อุทฺธร	-10.2936
ปญฺญ	-10.2937
พหุโล	-10.2942
กาลํ	-10.2942
▁นีหริตฺวา	-10.2951
▁นิฎฺฐิตํ	-10.2953
▁๑๐๕	-10.2957
▁กุมาโร	-10.2961
กูฎ	-10.2965
▁เสยฺย	-10.2969
▁ปกฺก	-10.2976
มณฺฑลํ	-10.2982
▁วเณฺณ	-10.2985
▁เสฎฺฐิ	-10.2987
าเทโส	-10.2991
▁อม	-10.2991
▁วุจฺจตีติ	-10.2997
▁อินฺทฺริยานํ	-10.3
กฎฺฐ	-10.3002
▁ปเจฺจกํ	-10.3002
▁สเจปิ	-10.3005
▁พทฺธ	-10.3008
คฺคาโห	-10.3009
▁นิพฺพเตฺต	-10.3009
▁ยาวชีวํ	-10.3018
▁ภินฺท	-10.3019
นิเทฺทส	-10.302
▁วตฺตพฺพ	-10.3021
สฎฺฐิ	-10.3026
▁วิสุทฺธ	-10.3027
นีล	-10.3028
สีลํ	-10.3029
▁นอารมฺมณปจฺจยา	-10.303
▁เห	-10.3035
▁ปพฺพช	-10.3036
▁๑๑๑	-10.304
▁โคตมสฺส	-10.304
▁อภิธมฺม	-10.3041
▁กายายตนํ	-10.3041
▁สพฺพทา	-10.3042
ารมฺมณา	-10.3043
▁วิตฺถาร	-10.3047
▁ปริหายติ	-10.3048
ตฺว	-10.305
ทก	-10.305
▁ตาล	-10.3054
กฺขตฺตุํ	-10.3054
▁สุณาถ	-10.3058
มิจฺฉ	-10.3058
▁วิจาโร	-10.3062
▁สุคติํ	-10.3063
▁อภาสิฯ	-10.3064
เญฺจ	-10.3069
▁๑๑๔	-10.3071
เทเส	-10.3071
▁ทสฺส	-10.3072
▁จายํ	-10.3073
ตเร	-10.3076
สิกฺข	-10.3077
▁จกฺขุนฺทฺริยญฺจ	-10.3078
พฺยญฺชน	-10.308
สมฺมุติ	-10.3082
▁สมฺปตฺติ	-10.3087
▁สุมโน	-10.3088
รสา	-10.309
▁ปุเรชาเต	-10.3091
นครํ	-10.3092
ปฺปตฺต	-10.3095
▁ชานํ	-10.31
สมฺพนฺธ	-10.3102
▁อตีตานาคต	-10.3109
▁จุติ	-10.3109
▁ปฎิฆ	-10.3109
ตฺติก	-10.311
▁ทาตโพฺพ	-10.3113
▁สาวโก	-10.3114
มภิ	-10.3115
ปฎิฆานุสเยน	-10.3116
▁อาหารปจฺจเยน	-10.3116
▁ปุเรชาตํ	-10.3116
ปารมิ	-10.3116
▁อุปปตฺติ	-10.3119
▁ปกาส	-10.312
ตํฯ	-10.3121
กถาย	-10.3125
▁ทีเป	-10.3131
อิโต	-10.3131
เ	-10.3131
▁ตสฺมิํเยว	-10.3132
▁ปวตฺติํ	-10.314
▁มาติกา	-10.314
▁ลคฺค	-10.3141
▁จิตฺตญฺจ	-10.3143
▁อจฺฉ	-10.3144
จา	-10.3144
▁กถิตา	-10.3145
▁๑๑๖	-10.3146
จิเตฺต	-10.3148
ตฺติกํ	-10.3149
▁อุเปติ	-10.3149
วตฺถุสฺมิํ	-10.315
นิทาน	-10.3157
▁ติกํ	-10.3157
▁มหาวีร	-10.3158
นเย	-10.316
▁วิญฺญตฺติ	-10.3162
▁อภิชฺฌา	-10.3166
▁โถกํ	-10.3166
เอวเมว	-10.317
▁ปวโตฺต	-10.317
▁คจฺฉนฺติฯ	-10.3184
▁อุปฺปาโท	-10.3187
วาโส	-10.3188
▁อตฺตภาเว	-10.3189
วิภเงฺค	-10.319
▁โคตฺรภุ	-10.3191
▁หทยํ	-10.3192
▁ปญฺหา	-10.3193
▁กเถตฺวา	-10.3198
▁ปญฺจหเงฺคหิ	-10.3198
▁สงฺขฺยา	-10.3201
เกฯ	-10.3203
เณน	-10.3207
▁๑๐๙	-10.3209
▁ปิณฺฑปาต	-10.3213
▁ทพฺพ	-10.3214
▁สมนฺนาคตสฺส	-10.3218
กถาวณฺณนาฯ	-10.3218
▁เวทิตพฺพานิฯ	-10.3219
▁โอโลเกตฺวา	-10.3223
คาถาย	-10.3229
▁โอกาส	-10.3229
สกฺก	-10.3234
▁สกิํ	-10.3235
▁ยาคุ	-10.3236
▁มญฺญ	-10.3237
▁ทสเม	-10.3237
▁สมุฎฺฐาน	-10.3238
▁วธ	-10.3239
▁อาคจฺฉ	-10.3246
▁สมุ	-10.3246
กถ	-10.3253
▁๑๑๙	-10.3253
▁อญฺชลิํ	-10.3253
▁ถูป	-10.3255
โจ	-10.3258
▁๑๑๓	-10.3261
▁อุปาสิกา	-10.3268
▁อนตฺตโต	-10.3268
▁ชวน	-10.327
▁สงฺขฺยาวาโร	-10.327
▁โสณ	-10.3273
▁โธว	-10.3276
▁กิมตฺถํ	-10.3277
โจฺจ	-10.3278
▁โลห	-10.3281
ภาร	-10.3285
▁มานสํ	-10.3286
▁ปกาเส	-10.3287
▁สีโห	-10.329
▁ทฎฺฐโพฺพ	-10.3294
สก	-10.3295
มิตฺต	-10.3296
▁อิฎฺฐ	-10.3297
▁เคหํ	-10.3297
▁อุปฺปาเทติ	-10.3298
▁วิตเกฺก	-10.3301
ทตฺต	-10.3301
▁วิภช	-10.3306
▁ทท	-10.3308
▁คาโม	-10.3308
ลมฺพ	-10.3325
▁อยมโตฺถ	-10.3328
ีสุ	-10.334
▁ปฐมา	-10.3342
▁อเนฺต	-10.3343
สโมฺพชฺฌโงฺค	-10.3344
▁สิปฺป	-10.3344
▁วจีกมฺมํ	-10.3344
▁อริยํ	-10.3344
▁อนฺตรฆเร	-10.3347
▁ทกฺข	-10.3352
▁สีเลน	-10.3352
▁สํขิเตฺตน	-10.3353
▁อหํฯ	-10.3355
▁เอต	-10.3356
▁เฉตฺวา	-10.3357
▁ปกติยา	-10.336
หนฺติ	-10.3362
▁วิโรจ	-10.3362
▁มทฺท	-10.3363
ภิกฺขู	-10.3371
▁สงฺขารานํ	-10.3374
▁อนุปุเพฺพน	-10.3376
▁วิปฺป	-10.3377
▁ผริตฺวา	-10.3378
▁พาราณสิยํ	-10.338
นิปาต	-10.3382
▁โอทาต	-10.339
▁อธมฺม	-10.3393
▁สเทฺท	-10.3394
ครุ	-10.3395
กุลํ	-10.3395
ปุเร	-10.3397
▁สหชาตาธิปติ	-10.3399
▁ยุตฺตํ	-10.3399
▁ตรุณ	-10.3402
วรํ	-10.3403
▁วิสํ	-10.3403
▁นิกฺก	-10.3405
▁วห	-10.3405
▁๑๑๗	-10.3408
▁วุฎฺฐาย	-10.3409
ปาต	-10.3412
▁โยชน	-10.3423
▁อนญฺญาตญฺญ	-10.3425
▁กาก	-10.3426
▁อญฺญตรสฺมิํ	-10.3429
▁สลฺล	-10.3435
▁อเหตุก	-10.344
▁ชห	-10.344
▁อุปฎฺฐาน	-10.3441
▁อนภิ	-10.3443
▁กามาวจรํ	-10.3445
▁วุตฺตานิ	-10.3447
▁อุปฺปชฺชิสฺส	-10.345
▁ภวราคานุสโย	-10.3451
▁โชติ	-10.3453
คุเณ	-10.3453
▁มคฺคาธิปติ	-10.3455
▁อาโรเปตฺวา	-10.3455
▁ปสฺสิตฺวา	-10.3464
▁มร	-10.3467
▁ปาเป	-10.347
▁รุ	-10.3471
▁อิตฺถีนํ	-10.3471
▁ปุเตฺต	-10.3474
▁ปฎิคฺคณฺห	-10.3478
▁โลกุตฺตรํ	-10.348
าเนว	-10.3481
▁โกโธ	-10.3483
▁อุกฺกฎฺฐ	-10.3487
รูปานิ	-10.3495
ยมก	-10.3497
▁จุโต	-10.35
▁ภวนฺติฯ	-10.3502
▁อุฎฺฐายาสนา	-10.3503
▁ปตฺตกลฺลํ	-10.3503
▁นามรูปํ	-10.351
▁อุโภปิ	-10.351
▁ปฎิญฺญา	-10.3514
โวหาร	-10.3514
▁มยิ	-10.3517
ธาร	-10.3522
▁กเถโนฺต	-10.3523
ทาเน	-10.3524
▁ปชา	-10.3527
กงฺข	-10.3531
▁ปพฺพชฺชํ	-10.3531
▁๑๐๖	-10.3531
▁ปญฺญวา	-10.3536
▁โหมิ	-10.3537
วจเน	-10.3539
สชฺช	-10.354
▁อุปฺปาเท	-10.354
ญฺญา	-10.3543
▁ทกฺขิณา	-10.3548
▁สตฺตาห	-10.3548
▁อกุสลสฺส	-10.3554
นิสฺสิต	-10.3555
▁มานานุสยญฺจ	-10.3556
▁เมธาวี	-10.3557
▁ปุถุชฺชน	-10.3562
▁ปเทหิ	-10.3564
▁วตฺตติ	-10.3564
โทโส	-10.3569
▁ปกาเรน	-10.3569
▁วิเสโสฯ	-10.357
▁อาวาเส	-10.3573
▁ปริสุทฺธ	-10.3576
▁อาปชฺช	-10.3578
▁สุร	-10.3579
▁ทฺวารํ	-10.3581
มานโส	-10.3583
▁ปิตรํ	-10.3584
▁สกฺขิ	-10.3584
วํส	-10.3584
▁เทติฯ	-10.3586
▁ชานาติฯ	-10.3588
จนฺท	-10.3589
▁มญฺจ	-10.3591
ฐ	-10.3592
▁โลกสฺมิํ	-10.3592
▁หิรี	-10.3593
▁สํวตฺตติฯ	-10.3595
▁นิยต	-10.3596
ูปมา	-10.3598
สุทฺธิ	-10.3601
▁อาคจฺฉติ	-10.3601
▁อาโปธาตุ	-10.3602
▁ฆน	-10.3602
▁ยส	-10.3603
▁สมฺปนฺน	-10.3605
▁หส	-10.3605
▁มาตรํ	-10.3606
▁ปํสุ	-10.3609
โยเคน	-10.361
นโตฯ	-10.3612
วาทิ	-10.3617
มาล	-10.3618
▁ปาจิตฺติ	-10.3625
▁คาถาหิ	-10.3627
▁ขีณาสว	-10.3632
วิตกฺกวิจารมโตฺต	-10.3632
▁เวรมณี	-10.3636
ชฺฌา	-10.3637
ที	-10.3639
▁จกฺขายตนญฺจ	-10.3647
▁ทิเฎฺฐ	-10.3647
รห	-10.3649
ธารณ	-10.3656
▁วิหรโต	-10.3657
▁สมฺพุทฺธํ	-10.3661
▁นิปชฺช	-10.3665
▁อายสฺมตา	-10.3666
าธิก	-10.3666
สีเสน	-10.3667
▁วตฺตเตฯ	-10.3669
เวท	-10.367
ปญฺญาส	-10.3671
▁กาตพฺพํฯ	-10.3671
▁กูฎ	-10.3673
▁ปฎิปทํ	-10.3673
▁อคฺคิํ	-10.3675
▁ภาวิต	-10.3677
เสส	-10.3677
จุ	-10.3678
สย	-10.3679
▁อปฺปมาท	-10.3681
ิมฺห	-10.3681
▁ทิสฺสนฺติ	-10.3682
▁คเวส	-10.3683
▁ชย	-10.3684
▁วิปสฺส	-10.3685
▁วี	-10.369
▁มาเร	-10.3691
▁ปคฺคยฺห	-10.3692
ภิฯ	-10.3693
▁วีต	-10.3693
▁สทฺทห	-10.3695
▁มานตฺตํ	-10.3697
▁ตโป	-10.3698
▁สุขสฺส	-10.3699
▁นิสินฺน	-10.3706
▁ชรามรณํ	-10.3707
▁จินฺต	-10.371
มนุสฺส	-10.3711
กาสิ	-10.3712
▁กุมาร	-10.3714
▁ปสฺสทฺธิ	-10.3718
▁สํสร	-10.372
▁ภาสิตา	-10.372
▁โลกา	-10.372
มุท	-10.3722
▁เจตสิกํ	-10.3722
ิสฺสติฯ	-10.3723
▁มหคฺคต	-10.3724
ปเทน	-10.3725
▁จาค	-10.3727
ปูร	-10.3727
▁สตฺตม	-10.3728
▁อิตรา	-10.3742
▁เทเวสุ	-10.3745
ตตฺร	-10.3751
▁สมถวิปสฺสนา	-10.3752
▁มหาราชา	-10.3754
▁กามราค	-10.3754
▁ปณฺณตฺติ	-10.3759
โมห	-10.376
▁ปจฺฉาชาตา	-10.3762
▁ปจฺจุปฺปนฺนํ	-10.3763
สภาวา	-10.3768
▁เภท	-10.3768
▁ญาณํฯ	-10.3771
▁จโนฺท	-10.3775
▁ปูเช	-10.3775
▁วิหเรยฺย	-10.3776
▁วุโตฺตติ	-10.3776
าทโยฯ	-10.3784
ปวตฺติ	-10.379
วิชฺชา	-10.379
▁จตฺตาลีส	-10.3793
นีเย	-10.3795
▁กตฺวาน	-10.3796
▁คูถ	-10.3797
▁กาเร	-10.3802
▁อุปฺปนฺนสฺส	-10.3806
▁เทหิ	-10.3808
มาลา	-10.3808
▁อเมฺห	-10.3808
▁กุรุ	-10.3809
▁วิสม	-10.381
▁อจฺจเยน	-10.3811
วาสิ	-10.3819
▁อุทฺธจฺจํ	-10.3821
▁ตทตฺถ	-10.3824
ณฺห	-10.3825
▁ภูมีสุ	-10.3826
▁จล	-10.3827
▁ปรญฺจ	-10.3828
สาลา	-10.3829
▁อุปปชฺชิตฺวา	-10.383
▁อนุปุพฺพ	-10.3831
▁มโต	-10.384
▁ชานโนฺต	-10.3841
นิโย	-10.3841
▁ตสฺสาติ	-10.3841
▁นาส	-10.3843
ฆฎ	-10.3849
▁ขยา	-10.385
ปฎิเวธ	-10.385
โนฺตฯ	-10.3852
▁อุปการ	-10.3858
▁ปติฎฺฐาย	-10.3859
▁นปฺปชหติ	-10.3862
วาสิโน	-10.3864
▁กฎตฺตา	-10.3869
▁ปริชานาตีติ	-10.3873
▁ติวิธํ	-10.3874
▁วาจโต	-10.3875
าที	-10.3878
ปฺปมาณํ	-10.388
มุโตฺต	-10.3881
▁โอวาทํ	-10.3883
▁เวทยิตํ	-10.3884
ปริโภค	-10.3887
วตฺตํ	-10.3895
▁อามนฺตา	-10.3896
วนฺตํ	-10.3897
▁ปทกฺขิณํ	-10.39
ิสฺสามีติ	-10.3902
▁นวเม	-10.3902
▁โสมนสฺสํ	-10.3904
เตว	-10.3918
▁ยฺวายํ	-10.392
าหาร	-10.3921
▁ฉนฺน	-10.3923
▁สุกฺข	-10.3925
▁ปิณฺฑปาตํ	-10.3926
อฎฺฐกถาย	-10.3926
▁วตฺตมาน	-10.3936
▁ขีณ	-10.3937
▁สมาทเปติ	-10.3942
เญฺจตฺถ	-10.3943
▁ปพฺพชิตา	-10.3944
▁มาลา	-10.3947
พฺราหฺมณ	-10.3952
สตฺถ	-10.3953
กุสลา	-10.3954
▁สเพฺพว	-10.3956
▁ฆาน	-10.3957
▁วสนฺติ	-10.396
▁พฺรูมิ	-10.3963
▁อิตรํ	-10.3968
▁สงฺฆาทิเสโส	-10.397
▁อปเนตฺวา	-10.397
▁นาน	-10.3971
▁อาราเมฯ	-10.3972
ปน	-10.3975
มหาราช	-10.3976
านนฺท	-10.3976
ปญฺญาย	-10.398
ิตสฺส	-10.3981
▁ปเทเส	-10.3982
เทวตา	-10.3983
▁ตาทิส	-10.3983
อาวุโส	-10.3987
▁อพฺยากต	-10.3989
▁โสตาปตฺติผเล	-10.399
▁กฎฺฐ	-10.3991
กญฺจ	-10.3994
▁ปีติยา	-10.3997
ปาก	-10.4
สมฺปนฺนํ	-10.4
▁ปากฎา	-10.4004
▁อิทฺธิยา	-10.4004
ยฺยํ	-10.4009
ินิ	-10.4011
▁สุปฺป	-10.4017
▁ฌายี	-10.4017
วโสฺส	-10.4019
▁ธมฺมญฺจ	-10.402
สนฺต	-10.4022
▁อุปฺปาทาย	-10.4029
เมยฺย	-10.4033
ปฺปวตฺต	-10.4034
▁ปุราณ	-10.4036
การโก	-10.4036
▁อภินนฺท	-10.4036
โนฺตติ	-10.404
▁ปริวตฺต	-10.404
▁ทุร	-10.4043
▁อนนฺตรูปนิสฺสโย	-10.4045
▁อาสิํ	-10.4047
▁อวิตกฺกอวิจาร	-10.4054
▁นนฺทิ	-10.4059
วสฺสํ	-10.4061
สทฺธา	-10.4061
–-	-10.4067
▁คเหตฺวาน	-10.4071
วุตฺต	-10.4074
ปหาน	-10.4075
มิโตฺต	-10.4079
▁กม	-10.4082
▁สาม	-10.4085
รกฺขิต	-10.4087
▁สมฺปเตฺต	-10.4087
▁สตฺถุโน	-10.4088
▁สนฺนิ	-10.409
สมฺมา	-10.4092
▁รุโกฺข	-10.41
▁มานํ	-10.41
▁อนาคามี	-10.4101
▁ปุริมนเยเนว	-10.4103
▁ปตฺถย	-10.4105
▁๑๒๐	-10.4108
▁อนุกฺกเมน	-10.4109
ฎฺฐิติ	-10.4116
▁เวทิตพฺพํ	-10.4117
▁จิตฺตโต	-10.4123
▁วสิตฺวา	-10.4128
▁นิสฺสคฺคิย	-10.4129
▁จตุโตฺถ	-10.4129
▁วิสุทฺธิมเคฺค	-10.413
มเคฺคน	-10.4134
▁มหามุนิ	-10.4135
▁ยุโตฺต	-10.4136
สํโยชน	-10.4138
▁อาป	-10.4147
▁อุปสงฺกม	-10.415
▁เตสํเยว	-10.4152
▁สพฺพสฺส	-10.4152
สมงฺคี	-10.4155
▁กินฺติ	-10.4155
กมฺมสฺส	-10.4156
เหตุก	-10.4159
หตฺถิ	-10.416
ทสฺสี	-10.4164
▁ยุชฺชติฯ	-10.4164
ปริโยสาเน	-10.4166
ตุนฺติ	-10.4167
▁อาวาสิกา	-10.4168
▁สพฺพาปิ	-10.4173
▁อชาน	-10.4174
▁อปฺปมโตฺต	-10.4175
▁ปหานา	-10.4176
▁พหูนิ	-10.418
▁ฉตฺต	-10.418
▁วทโนฺต	-10.4185
▁อาสนํ	-10.4186
▁ภิกฺขุนิํ	-10.4187
▁จตุกฺก	-10.4187
มตฺถ	-10.4189
ยิฯ	-10.4189
กตเม	-10.4189
มาโนฯ	-10.419
▁อปฺปหีโน	-10.419
▁อภโพฺพ	-10.419
▁กุมฺภ	-10.4193
▁นิสีทติ	-10.4196
▁เอเตเนว	-10.4202
▁นี	-10.4204
สิํ	-10.4205
ปฎฺฎ	-10.4206
▁สุคติ	-10.4211
▁อิทาเนว	-10.4213
เมตฺถ	-10.4215
เนสุ	-10.4218
กสิณ	-10.422
วีถิ	-10.4221
าเปยฺย	-10.4222
▁นิพฺพ	-10.4224
เอ	-10.4226
เข	-10.4227
นิพฺพาน	-10.4228
▁อาคมน	-10.4228
รเฎฺฐ	-10.4229
▁กามาวจรา	-10.4231
▁ทาตพฺพํ	-10.4232
สาสน	-10.4233
▁สมนฺนาคโตฯ	-10.4234
▁อุจฺฉุ	-10.4235
▁วิเสเสน	-10.4236
▁อารพฺภาติ	-10.4241
▁องฺคานิ	-10.4243
▁อุปฺปล	-10.4247
▁สมฺมาสติ	-10.4249
ธเมฺมน	-10.4249
▁คเหตโพฺพฯ	-10.425
ธาตุยา	-10.4251
กฺกนฺต	-10.4253
▁ตาสุ	-10.4259
▁อุปฺปชฺชิ	-10.4262
▁อปเรน	-10.4262
ิยมาเน	-10.4263
สิกฺขาปเท	-10.4264
▁อนุเสติ	-10.4264
▁ปญฺญ	-10.4264
▁ภาร	-10.4265
▁ปกฺกามิฯ	-10.4268
▁จีวเร	-10.4269
▁สมโตฺถ	-10.427
▁นอกุสโล	-10.427
▁ทุวิโธ	-10.4271
▁อตฺตมโน	-10.4273
หต	-10.4275
ยุตฺตํ	-10.4275
ญ	-10.4276
▁มท	-10.4281
ลทฺธ	-10.4286
▁เทวมนุสฺสานํ	-10.4287
▁วีร	-10.4287
▁สิกฺขติ	-10.4295
▁มหโต	-10.4303
▁ขิป	-10.4304
อญฺญมญฺญ	-10.4305
คโนฺธ	-10.431
▁ปฎิชาน	-10.4314
▁ฉเฑฺฑ	-10.4314
▁เสฺวว	-10.4315
▁ปโญฺห	-10.4316
▁สทฺธํ	-10.4318
เปยฺย	-10.432
▁ชเนติ	-10.4323
▁อุตฺตรา	-10.4323
▁วิมุโตฺต	-10.4327
กาเส	-10.4327
ตายาติ	-10.433
▁ถุลฺลจฺจยํ	-10.433
▁สตฺถารา	-10.4331
▁อาโลโก	-10.4332
▁ตติยา	-10.4332
วตฺถูนิ	-10.4333
▁มนสิกาโร	-10.4337
▁อาสนฺน	-10.4339
▁ลามก	-10.434
▁ตุเมฺหหิ	-10.4342
▁เจติ	-10.4342
▁คหิโต	-10.4347
ตตฺตา	-10.4352
▁จิตฺตสํสฎฺฐ	-10.4352
ตฺถุ	-10.4353
▁อฎฺฐหิ	-10.4356
▁ปริหร	-10.4358
▁พฺยาปาท	-10.4362
▁ทม	-10.4364
▁วิญฺญาณสฺส	-10.4366
▁อรหตฺตมคฺค	-10.4368
คนฺถ	-10.4369
▁มโนธาตุ	-10.4369
▁วิปุล	-10.437
ียนฺติ	-10.4372
ผสฺส	-10.4375
▁ปตฺติยา	-10.4377
▁อุปจาร	-10.4378
▁สํสฎฺฐา	-10.4383
▁อุปฺปเชฺชยฺย	-10.4383
▁อสุก	-10.4383
▁โสหํ	-10.4384
▁ปฎิลภิสฺสนฺติ	-10.4385
นิโรธา	-10.4392
สิทฺธ	-10.4393
▁อภาเวน	-10.4398
รตนํ	-10.4398
▁สงฺคหํ	-10.4403
▁ชายนฺติ	-10.4411
ทุติย	-10.4415
▁๑๒๒	-10.4416
โงฺก	-10.4419
▁ปาปกมฺมํ	-10.442
▁ราสิ	-10.4424
ปาเท	-10.4426
▁สุคต	-10.4427
▁สโทฺธ	-10.4431
▁อุปฎฺฐห	-10.4431
▁ชาเนยฺย	-10.4435
▁โภชเน	-10.444
สีมา	-10.445
โนติ	-10.445
▁ปุเพฺพว	-10.4456
▁ปพฺพเต	-10.4457
▁อตฺถี	-10.446
เรฯ	-10.446
▁สมฺปฎิจฺฉ	-10.4463
▁ปิยํ	-10.4463
เมก	-10.4465
▁๑๒๓	-10.4466
▁สพฺพทิสา	-10.4469
▁โสตายตนํ	-10.4471
▁กมฺมานํ	-10.4472
▁ขตฺติยา	-10.4473
▁ชญฺญา	-10.4476
▁มนาป	-10.4477
▁สุตฺวาน	-10.4479
สฺวาคตํ	-10.4483
เนหิ	-10.4485
▁ปุร	-10.4485
▁ญาย	-10.4487
▁วิวาท	-10.4489
▁จตุพฺพิธํ	-10.449
▁อริยานํ	-10.4491
▁ทิวสํ	-10.4494
▁เอกตฺต	-10.4497
▁๑๒๔	-10.4498
กาโส	-10.45
▁ปฎิปาฎิยา	-10.4501
โยเค	-10.4505
▁ขีณาสวสฺส	-10.4506
วิมุตฺต	-10.4511
▁วิราค	-10.4517
▁มล	-10.4519
▁ปาปกํ	-10.452
▁วุจฺจเต	-10.4524
▁อลฺล	-10.4524
▁ปาติโมกฺข	-10.4525
▁ปสฺสนฺติ	-10.4529
านุภาเวน	-10.4531
▁มเนฺต	-10.4532
▁อวิตกฺกอวิจาโร	-10.4535
▁ทิสาย	-10.4541
▁ปิณฺฑ	-10.4542
ภงฺค	-10.4543
คณนาย	-10.4544
▁อุฎฺฐาย	-10.4546
▁ฆเร	-10.4546
ปฎิปตฺติ	-10.4546
▁ปฎิเวธ	-10.4547
มทฺท	-10.4547
▁อุปาทานํ	-10.4551
▁ตีเร	-10.4552
▁โม	-10.4553
สมํ	-10.4553
ปาน	-10.4558
▁สโงฺฆฯ	-10.4559
กรณีย	-10.4559
▁ปุถุชฺชนา	-10.456
ิตุนฺติ	-10.456
▁อุปคนฺตฺวา	-10.4561
อริย	-10.4562
▁โจเท	-10.4565
สฺสามีติ	-10.457
กุฎิ	-10.4572
▁ภณนฺตสฺส	-10.4574
อินฺทฺริยปจฺจเยน	-10.4575
▁ปเญฺห	-10.4576
เสฎฺฐิ	-10.4577
▁เมตฺตาย	-10.4581
▁ติริยํ	-10.4583
ตฺวํ	-10.4584
▁กตฺตพฺพํ	-10.4585
ตพฺพาฯ	-10.4589
▁สูริโย	-10.4589
ลตา	-10.4592
▁สมีเป	-10.4594
▁สมนฺนาคตํ	-10.4597
วท	-10.4597
▁กิญฺจ	-10.4601
จฺจิกฎฺฐปรมเตฺถน	-10.4602
▁คาถมาหฯ	-10.4606
าปีติ	-10.4614
▁สมุฎฺฐาเนหิ	-10.4617
▁วนํ	-10.4618
▁นตฺถิยา	-10.4619
ราม	-10.4623
▁มิ	-10.4625
วาห	-10.4625
▁อาหุ	-10.4627
▁นิพฺพุโต	-10.4627
▁สํวโร	-10.4632
มฺ	-10.4637
วโร	-10.4637
เยหิ	-10.4638
▁ปฎ	-10.4641
▁คุณา	-10.4645
โยติ	-10.4648
▁กุฎิ	-10.465
มาเส	-10.4651
▁โทมนสฺสินฺทฺริย	-10.4653
▁วตฺตมาเน	-10.4654
▁ยาน	-10.4656
ลกฺขณํฯ	-10.4657
▁ทุกฺขนฺติ	-10.4657
▁วตฺถํ	-10.4657
▁วิโมกฺข	-10.4663
วโนฺต	-10.4664
อชฺช	-10.467
โมฯ	-10.4673
กายา	-10.4676
มิสฺส	-10.4677
ิกานํ	-10.4679
▁ปุพฺพภาค	-10.4681
▁อาส	-10.4682
▁อธิคต	-10.4683
▁สมาปตฺติํ	-10.4683
▁ตติยมฺปิ	-10.4687
▁อสํ	-10.4688
▁วเส	-10.469
เลหิ	-10.469
▁ปุพฺพภาเค	-10.4694
คุณํ	-10.4695
▁วงฺก	-10.4698
▁นิโคฺรธ	-10.4702
▁วาโท	-10.4704
▁อทฺธ	-10.4704
ิตุํฯ	-10.4705
▁วิภงฺควาโร	-10.4707
▁อนุโลมํ	-10.4709
▁๑๒๑	-10.4709
▁สหสฺสํ	-10.471
▁วินยํ	-10.4711
▁สทฺธ	-10.4711
วเตฺต	-10.4715
ิโตติ	-10.4716
▁อตฺตโต	-10.4721
เนยฺย	-10.4722
▁คห	-10.4722
▁พลวา	-10.4723
▁สงฺคหิตา	-10.4723
▁อาหริฯ	-10.4723
▁ลพฺภมาน	-10.4725
▁ญตฺติ	-10.473
วิหาโร	-10.473
มาทาย	-10.4731
▁วุตฺตมฺปิ	-10.4733
กฺกเมน	-10.4733
▁อคารสฺมา	-10.4736
ูปค	-10.4737
โรฯ	-10.4738
▁ปูร	-10.4739
▁อุปาเยน	-10.4746
▁ขเนฺธน	-10.4747
าสน	-10.4751
รุห	-10.4752
▁ปาวิสิฯ	-10.4755
ชาตํ	-10.4758
ทีฆ	-10.4759
▁ปถวิ	-10.4763
▁มนุเสฺส	-10.4767
สิทฺธิ	-10.4767
▁อโวจ	-10.4771
▁อุกฺขิปิตฺวา	-10.4772
▁จกฺกวาฬ	-10.4773
▁สมูห	-10.4773
▁โภโนฺต	-10.4774
วาจ	-10.4779
หรณ	-10.478
เหยฺย	-10.4781
▁ปกฺขิป	-10.4782
▁อภาวา	-10.4782
ตูติ	-10.4786
▁กสฺสโป	-10.4793
▁มโนวิญฺญาณธาตุ	-10.4793
เนนาติ	-10.4794
ปฎิลาภ	-10.4798
านุรูปํ	-10.4798
▁ชมฺพุ	-10.4802
▁ติวิธ	-10.4802
▁ภิชฺช	-10.4804
ปฐม	-10.4806
จริต	-10.4807
▁สมคฺค	-10.4808
▁ปุจฺฉติ	-10.4814
อนาปตฺติ	-10.4816
▁ปารํ	-10.4819
▁ทุเกฺขน	-10.4821
▁ปุริมํ	-10.4822
▁สีฆํ	-10.483
▁พฺรูหิ	-10.4835
ทีสุ	-10.4836
▁นิรุชฺฌตีติ	-10.484
สมณ	-10.4844
ปริเจฺฉโท	-10.4845
ปริวาโร	-10.4845
ารห	-10.4846
▁สมณสฺส	-10.485
▁มมํ	-10.4852
▁ทีโฆ	-10.4853
คู	-10.4853
เทโว	-10.4854
ยมานา	-10.4855
▁อสโกฺกโนฺต	-10.4856
▁โผฎฺฐพฺพายตนํ	-10.4856
▁สุวิเญฺญยฺยเมวฯ	-10.4856
มตฺถํ	-10.486
▁มุตฺตา	-10.4863
▁สมย	-10.4865
▁สติปิ	-10.4869
มท	-10.487
▁คิหี	-10.4871
สามญฺญ	-10.4873
าเปสิฯ	-10.4874
▁โสจ	-10.4876
▁หตฺถโต	-10.4877
▁มนสิกโรโต	-10.4886
▁คเหตพฺพ	-10.4886
▁เอวมาทีสุ	-10.489
▁ธนุ	-10.4891
▁เอกิสฺสา	-10.4892
▁สาสนํฯ	-10.4892
▁ปูช	-10.4893
▁คเม	-10.4895
▁อโมโห	-10.4898
▁อุโปสโถ	-10.4904
▁อิมินาว	-10.4905
ฎา	-10.4908
▁เสนา	-10.4913
▁โอวท	-10.4916
▁คุณํ	-10.492
อุทก	-10.4921
▁ฉเฑฺฑตฺวา	-10.4922
▁พุทฺธิ	-10.4922
▁สงฺคหิตาฯ	-10.4922
▁มนํ	-10.4923
สเทฺท	-10.4927
กรํ	-10.4931
▁เอหิ	-10.4934
▁มหตา	-10.4935
▁วิเสสน	-10.4938
▁อิว	-10.4938
▁อโวจฯ	-10.4945
▁อทา	-10.4947
▁เอวมาหํสุ	-10.4948
▁หํส	-10.4948
▁วิญฺญู	-10.4948
▁วตฺถุสฺมินฺติ	-10.495
▁สงฺขต	-10.4961
▁ปจฺจา	-10.4963
▁๑๒๕	-10.4964
▁ปญฺห	-10.4966
▁เทสิโต	-10.4967
ปณฺฑิโต	-10.4968
ทกํ	-10.4968
▁คมเน	-10.4968
▁อเยฺย	-10.4971
▁โมคฺคลฺลาน	-10.4975
ยุตฺตา	-10.4976
ลาภ	-10.4978
▁จกฺกวตฺติ	-10.4978
โหติ	-10.498
▁อุปฺปาเทตฺวา	-10.4983
▁อุปาย	-10.4983
▁อธิเปฺปตา	-10.4983
▁สุเมธ	-10.4984
▁พ	-10.4985
▁จตุวีสติ	-10.4987
สมฺปยุตฺตํ	-10.499
▁ธุวํ	-10.4994
▁อคฺฆ	-10.4996
▁โมเจ	-10.4997
▁สหสา	-10.4997
▁รูปารูป	-10.4997
▁อู	-10.4999
▁จกฺขุวิญฺญาณสฺส	-10.5002
▁อุตฺตาน	-10.5014
▁สีเส	-10.5017
ทฺวเย	-10.502
สิยา	-10.5024
ปริฬาห	-10.5027
หโตฺถ	-10.5027
▁กิริยํ	-10.5029
▁โป	-10.503
าสีติ	-10.5031
▁มย	-10.5031
วิโมกฺข	-10.5031
ฎฺฐานโต	-10.5031
▁นิรุชฺฌนฺติ	-10.5039
ปฎิสนฺธิ	-10.504
โพธ	-10.5044
▁โคจร	-10.505
เงฺค	-10.5052
▁ปญฺญเป	-10.5053
▁ปิยา	-10.5054
ชฺฌาสย	-10.5057
▁ปาตุ	-10.5057
สํยุตฺตํ	-10.5059
▁ปสาเท	-10.5061
ธโร	-10.5063
▁อุทเกน	-10.5066
▁ทุวิธํ	-10.5067
นิสฺสิตํ	-10.5069
▁ตณฺหํ	-10.5071
สาย	-10.5078
สงฺคโห	-10.5078
ิสฺสามา	-10.5083
▁คจฺฉเนฺต	-10.5083
▁เปกฺข	-10.5085
▁วินสฺส	-10.5087
▁วิกปฺป	-10.5088
▁อาเน	-10.5098
▁ถูล	-10.5099
▁ทิฎฺฐานุสโย	-10.51
กมฺมฎฺฐาน	-10.51
▁ปุจฺฉิโต	-10.5102
ทุกฺขนิโรธคามินี	-10.5105
▁อุฬาร	-10.5106
โนฺน	-10.5114
▁ทเสฺส	-10.5114
▁โมหสฺส	-10.5129
กถญฺหิ	-10.5129
▁กิริย	-10.5131
รหิตา	-10.5131
▁นาวา	-10.5132
อาทีนิ	-10.5133
▁วสโนฺต	-10.5135
▁อนุรุทฺธ	-10.5137
▁มาริส	-10.5139
▁กโรถ	-10.514
▁สงฺค	-10.5142
▁ปสนฺน	-10.5144
ธมฺมสฺส	-10.5146
โภชนํ	-10.5147
กิเลโส	-10.5148
▁สยน	-10.5152
โลป	-10.5152
คโณ	-10.5153
▁ทุวิเธน	-10.5154
▁ปุเพฺพปิ	-10.5155
▁นิพฺพานสฺส	-10.5156
▁อาโลก	-10.5157
มเย	-10.5168
▁ตทาฯ	-10.5169
นนฺท	-10.517
▁วิเสสํ	-10.517
ิเตสุ	-10.5173
สิต	-10.5174
วตฺถุกา	-10.5174
▁อารทฺธํฯ	-10.5175
▁อภาว	-10.5175
▁สมฺมาสมฺพุเทฺธน	-10.5181
▁อนวเสส	-10.5183
ิสฺสา	-10.5185
▁วิห	-10.5189
▁อาม	-10.519
▁วิปจฺจ	-10.519
▁วิสฺสเชฺช	-10.5195
เอเต	-10.5196
ทฺวิ	-10.5197
มาทิ	-10.5198
เชฺชยฺย	-10.5199
สเต	-10.5201
▁๑๒๘	-10.5201
ปาสาท	-10.5202
▁ภูมิยา	-10.5203
▁โภโต	-10.5204
คี	-10.5206
▁๑๒๖	-10.5208
ปโนฺน	-10.5209
ธาน	-10.5209
▁อุทฺทิส	-10.521
▁ทกฺขิณํ	-10.5212
▁ปหร	-10.5217
ธรา	-10.5218
ปารมี	-10.5218
▁ปสฺสตีติ	-10.5221
มาหุ	-10.5222
มโนฺต	-10.5223
▁อนธิ	-10.5224
▁ถุลฺลจฺจย	-10.5225
มญฺญ	-10.5226
▁นิปฺ	-10.5229
สฺสาท	-10.5229
มชฺช	-10.5231
▁กุลํ	-10.5232
▁สเพฺพน	-10.5232
▁ทาตพฺพ	-10.5234
▁สชฺช	-10.5237
▁อตฺถา	-10.5237
▁สกลํ	-10.524
▁พาหุ	-10.5241
▁คยฺห	-10.5241
โลหิต	-10.5245
▁วิมุตฺต	-10.5249
▁นินฺน	-10.5249
คณฺห	-10.525
▁ยท	-10.525
▁ฐาเนหิ	-10.5255
▁สมฺพหุเล	-10.5256
▁สส	-10.5259
▁สพฺพโลก	-10.5266
▁คงฺคา	-10.5273
ปญฺห	-10.5278
ชาตเก	-10.528
▁นจฺจ	-10.5283
ภาวนาย	-10.5284
จิตฺตานิ	-10.5284
▁รกฺขติ	-10.5285
ขา	-10.5287
นิพฺพตฺต	-10.529
▁ปฎิกฺกม	-10.5292
▁ปญฺญตฺตนฺติ	-10.5292
▁หเว	-10.5296
▁๑๒๗	-10.5296
านุภาว	-10.5297
▁นิเทฺทโส	-10.5299
▁ปฎิปทาย	-10.5299
▁กิม	-10.53
▁มชฺช	-10.5301
▁หตฺถํ	-10.5308
▁ปพฺพโต	-10.5314
ภณฺฑํ	-10.5315
▁ปจฺจยปจฺจนียํ	-10.5319
▁อุคฺคณฺห	-10.5321
▁อริยสจฺจํ	-10.5327
คฺคเห	-10.533
▁ปถวีธาตุ	-10.5331
▁วโย	-10.5331
▁ผลสมาปตฺติ	-10.5332
▁ตาปส	-10.5334
ตสฺมา	-10.5335
▁เอกเมว	-10.5336
▁นิสฺสรณํ	-10.5339
▁ปฎิจฺจสมุปฺปาท	-10.5346
▁อิทมโวจ	-10.535
▁ปตฺถนา	-10.5352
าทิกา	-10.5352
▁หีติ	-10.5353
ปาณ	-10.5354
▁อาโรเจสิฯ	-10.5355
จฺฉินฺน	-10.5355
วูปสม	-10.5358
▁ทธิ	-10.5359
▁นิพฺพินฺทติ	-10.5362
▁อวิปรีต	-10.5362
▁กริสฺสามิ	-10.5365
▁วาริ	-10.5366
ริว	-10.5368
▁มนาปา	-10.5368
▁ปญฺญตฺติฯ	-10.5371
▁หา	-10.5374
ิโกฯ	-10.5375
▁อิสฺสา	-10.5375
▁คจฺฉามิ	-10.5376
อธิ	-10.5377
ง	-10.5379
ปุณฺณ	-10.5382
▁กญฺจน	-10.5386
ยมฺปิ	-10.539
▁ปหาตพฺพเหตุก	-10.5392
▁ปรา	-10.5395
▁อญฺญสฺมิํ	-10.5396
ปิฎฺฐิ	-10.5396
▁อปริยาปเนฺน	-10.5397
▁สฺวา	-10.5398
▁อวุตฺต	-10.5399
โจร	-10.5399
านนฺตรํ	-10.54
▁อิม	-10.5401
▁วิสฺส	-10.5403
▁สาขา	-10.5404
▁สกฺย	-10.5404
▁ปภา	-10.5406
ปโถ	-10.5407
▁ปวตฺตติฯ	-10.5408
▁ปาฬิยา	-10.5408
▁ราคาทิ	-10.541
▁ปเกฺข	-10.5413
▁สทิโส	-10.5413
▁ปุริสานํ	-10.5418
กโปฺป	-10.5419
ายสฺมโต	-10.5419
▁โอฆ	-10.542
▁คณฺหาติฯ	-10.5421
▁คณน	-10.5424
▁โอตร	-10.5424
▁วากฺย	-10.5425
▁ปาปุณิฯ	-10.5425
ปริยาปนฺน	-10.5425
▁อนุสย	-10.5426
กุลา	-10.5428
▁ตุมฺห	-10.543
จริย	-10.5436
▁มคฺคผล	-10.5438
▁อากาสานญฺจายตน	-10.5439
▁วุตฺตานิฯ	-10.5439
▁สิพฺพ	-10.5442
วิเธน	-10.5446
▁มานานุสเย	-10.5446
▁ปูชา	-10.5447
▁วุฎฺฐาน	-10.545
▁ฐ	-10.5452
▁มลฺล	-10.5453
▁ทุวิธา	-10.5453
▁จนฺทน	-10.5455
▁อาโป	-10.5457
ติอาทิกํ	-10.5458
▁อนาปุจฺฉา	-10.5458
▁อสาธารณ	-10.5459
▁สกฺกายทิฎฺฐิ	-10.546
นานตฺต	-10.5461
นิสฺสิตา	-10.5461
▁คิลาโน	-10.5462
▁สงฺฆาทิเสสสฺสฯ	-10.5463
▁นิสินฺนสฺส	-10.5468
▁รห	-10.5468
เภทํ	-10.547
สมย	-10.5472
ทฺวารํ	-10.5473
▁อุปปชฺช	-10.5475
▁โหตู	-10.5475
▁ชนปท	-10.5477
ขิล	-10.5477
▁ทุกฺขกฺขนฺธสฺส	-10.5478
▁ทมฺมี	-10.5478
▁ปปญฺจ	-10.548
▁ปญฺญาวิมุตฺติ	-10.548
▁สรูปโต	-10.5486
โนฺตปิ	-10.5486
▁กโรหี	-10.549
▁นานุเสติ	-10.5494
▁พาธ	-10.5496
▁ปจฺจเยหิ	-10.5496
▁อุปฎฺฐ	-10.5496
มธุร	-10.5497
▁อนุพนฺธ	-10.5498
▁อจฺจ	-10.5498
าสี	-10.55
▁ญาต	-10.5501
ปทสฺส	-10.5501
▁มหาชนสฺส	-10.5501
ตฺยาทิ	-10.5502
เวส	-10.5505
▁กทา	-10.5506
ิํฯ	-10.5506
▁นิวาเส	-10.5508
▁สุตฺตนฺต	-10.5509
▁พุทฺธุปฺปาเท	-10.5511
▁จุนฺท	-10.5515
รฎฺฐ	-10.5516
▁การาเปตฺวา	-10.5517
▁สนฺตา	-10.5519
▁อาทิํ	-10.5521
▁นทิยา	-10.5521
▁อนุตฺตโร	-10.5525
▁ปริญฺญาย	-10.5526
ภิกฺข	-10.5526
▁สํวตฺตติ	-10.5527
ภเยน	-10.5529
▁ภร	-10.553
▁ฆรํ	-10.5532
▁ปว	-10.5534
▁ทสฺสนตฺถํ	-10.5535
▁สพฺพญฺญุ	-10.5537
▁นาสฺส	-10.5539
▁ราคสฺส	-10.554
จมฺม	-10.5542
ตฺวาน	-10.5542
ยิตฺวาน	-10.5544
▁คามณิ	-10.5546
ปวตฺต	-10.5552
▁ปเทน	-10.5553
▁ยุค	-10.5553
▁อคฺคเหตฺวา	-10.5554
▁ทุจฺจริตํ	-10.5564
มตฺถเก	-10.5566
ญฺญาตาวินฺทฺริยํ	-10.5567
มโย	-10.5568
กฺขี	-10.5569
▁อุโปสถกมฺมํ	-10.557
▁สโมฺมห	-10.5571
▁กถิตํฯ	-10.5571
ชาติโก	-10.5577
▁กตนฺติ	-10.5579
▁ทสนฺนํ	-10.558
▁ยาจิโต	-10.558
▁ธุว	-10.558
▁อเตฺถว	-10.558
▁ธาตู	-10.5581
เอตํ	-10.5581
▁สโญฺญชน	-10.5583
▁วิสิฎฺฐ	-10.5583
▁ถาม	-10.559
▁อนุวตฺต	-10.5594
▁ทฎฺฐพฺพํ	-10.5595
▁อาหารา	-10.5597
▁ยุตฺตา	-10.5597
ปฺปจฺจโย	-10.5598
▁สิชฺฌ	-10.5602
▁กญฺญา	-10.5602
▁สมานา	-10.5602
▁มุสาวาท	-10.5603
ปตฺตํ	-10.5604
▁ติกฺข	-10.5606
มีติ	-10.5608
▁อาสย	-10.5609
▁เกวล	-10.5612
▁ภิตฺติ	-10.5612
กฺริยา	-10.5613
หีน	-10.5617
▁มหาโพธิ	-10.5618
▁เตโชธาตุ	-10.5618
▁อธิคม	-10.5619
▁อวจ	-10.5622
▁สเทวเก	-10.5623
▁สิลา	-10.5626
▁สหพฺยตํ	-10.5627
▁สมาคตา	-10.5627
เตฺถรอปทานวณฺณนา	-10.5629
▁วินิจฺฉย	-10.5633
▁เมถุนํ	-10.5635
▁นจิรเสฺสว	-10.564
▁ทีเปติ	-10.564
▁ปาก	-10.5642
กาทิ	-10.5642
วิธิ	-10.5644
▁อนว	-10.5644
เตฺถรํ	-10.5647
ปุเพฺพ	-10.565
▁กโรหิ	-10.5651
ภโว	-10.5652
▁สโร	-10.5655
▁วิมติ	-10.5655
▁สชฺฌาย	-10.5655
านนฺตร	-10.566
รช	-10.5661
▁อุตฺตมํ	-10.5662
▁ผุสฺส	-10.5663
▁ภุญฺชิตฺวา	-10.5664
▁ภิกฺขุสงฺฆํ	-10.5665
▁พหุสฺสุโต	-10.5665
ญฺญํ	-10.5668
▁ปฎิคฺคณฺหาติ	-10.5669
ขณฺฑ	-10.5669
▁กนฺต	-10.567
คามี	-10.567
▁นานากฺขณิกา	-10.5672
▁สารถิ	-10.5674
▁สลฺลเกฺขตฺวา	-10.5676
▁ทสฺสิต	-10.5676
ิกาติ	-10.5676
▁อุปฎฺฐานํ	-10.568
ฆร	-10.5683
โ	-10.5686
▁กาตพฺพ	-10.5688
มาติกา	-10.5688
นาปิ	-10.5689
สฺสตี	-10.5699
▁ธีตา	-10.57
▁ปาสาท	-10.5701
▁ปหาตพฺพ	-10.5701
สมาน	-10.5702
▁ตนฺ	-10.5708
▁ราหุล	-10.5708
▁ปาน	-10.571
ปทุม	-10.5712
ปริสา	-10.5712
วิเธ	-10.5713
▁อรูปิโน	-10.5713
ยาว	-10.5719
สภาโว	-10.5719
▁ปุรา	-10.5721
▁ปพฺพชฺช	-10.5722
▁ยุตฺติ	-10.5722
ีฯ	-10.5723
วาจก	-10.5729
▁ทาตพฺพํฯ	-10.5735
สหคตํ	-10.5741
▁ตฺย	-10.5744
ฎฺฐกถา	-10.5744
มยฺหํ	-10.5747
▁โภคา	-10.5748
ทิสํ	-10.5751
หิเต	-10.5752
สุขุม	-10.5757
จารี	-10.5758
▁เตนาติ	-10.5762
จิต	-10.5762
▁ปตฺติ	-10.5763
▁กฎตฺตารูปํ	-10.5767
สงฺขาเร	-10.5769
ฬฺห	-10.5769
สมูห	-10.5773
▁อเสกฺข	-10.5773
▁อุปชฺฌาย	-10.5773
▁อตฺตมนา	-10.5774
▁วูปสม	-10.5775
▁วิปุลํ	-10.5777
▁ปลิ	-10.5781
ภควา	-10.5783
▁วิจิกิจฺฉาสหค	-10.5784
โพฺพ	-10.5784
คโม	-10.5787
▁อุทฺธจฺจ	-10.5788
▁ปฎิจฺฉนฺน	-10.5791
▁สเคฺค	-10.5791
▁อโหสิํ	-10.5795
▁ทสฺสิตา	-10.58
▁อาปุจฺฉ	-10.5802
▁อารมฺมณปุเรชาตํ	-10.5804
▁ตปฺป	-10.5805
ุเทฺทส	-10.5805
▁ธมฺมธาตุ	-10.5812
▁สนฺธายาห	-10.5812
▁อญฺญาณํ	-10.5813
▁วิรติ	-10.5813
ทิส	-10.5816
มูลํ	-10.5818
▁โจรา	-10.5822
▁อจฺฉรา	-10.5823
▁มิสฺสก	-10.5823
▁หีนํ	-10.5829
วิปตฺติ	-10.5829
ภี	-10.5831
ทีหิ	-10.5832
▁อุมฺม	-10.5833
▁ฐานานิ	-10.5833
▁อาณา	-10.5833
มงฺคล	-10.5833
คุณา	-10.5837
▁อุจฺจา	-10.5838
▁เทเสสฺสามิ	-10.5839
▁กเถสิ	-10.5843
▁ปพฺพาเช	-10.5843
▁อยม	-10.5845
รู	-10.5845
▁โลกิยโลกุตฺตร	-10.5847
▁ตาทิโน	-10.5848
นิปาโต	-10.5852
▁อกฺขิ	-10.5852
▁วีส	-10.5852
จฺฉิ	-10.5853
ทาย	-10.5853
ุํฯ	-10.5855
▁สขา	-10.5861
คมเน	-10.5863
▁อฎฺฐสุ	-10.5865
ภินฺน	-10.5868
▁ปหูต	-10.5868
มร	-10.5873
▁วิมาน	-10.5877
▁สมโถ	-10.5878
▁อาคจฺฉนฺติ	-10.588
▁เอวนฺติ	-10.5881
เสฺวว	-10.5882
▁อรณ	-10.5884
▁สีเลสุ	-10.5885
อารมฺมณูปนิสฺสโย	-10.5887
▁เกวลสฺส	-10.5888
▁อทินฺนํ	-10.5888
าหี	-10.5892
▁อาจริเยน	-10.5894
▁นิรนุสโย	-10.5895
▁ขร	-10.5896
▁รฎฺฐํ	-10.5903
▁ทหร	-10.5906
พฺรหฺมจริย	-10.5906
▁ปานียํ	-10.591
▁กถิตํ	-10.591
▁โหนฺตุ	-10.5915
ตฺตํฯ	-10.5917
▁โณ	-10.5919
นิจฺจ	-10.5921
▁ปริพฺพาชโก	-10.5922
ปริยาโย	-10.5925
สาธน	-10.5927
▁ขชฺช	-10.5931
นิยา	-10.5933
เสฎฺฐ	-10.5934
▁ปริกมฺม	-10.5935
▁รตนํ	-10.5935
ญฺจาปิ	-10.5936
▁นิวาเร	-10.5936
▁ทห	-10.5938
▁โคตมํ	-10.5942
ญฺฉ	-10.5946
▁สมฺมาวาจา	-10.5947
▁ปริกฺขาร	-10.5949
▁กฎ	-10.5949
โรค	-10.595
สหคตา	-10.5951
สมฺภาร	-10.5954
▁อรติ	-10.5957
▁อาโรเป	-10.5958
▁ปรมตฺถโต	-10.5959
▁เปเส	-10.596
▁มุเข	-10.5961
เอหิ	-10.5964
▁จุตา	-10.5965
▁อนุชาน	-10.5965
▁อิสฺสโร	-10.5965
▁สุญฺญต	-10.5967
▁นิกฺขิปิตฺวา	-10.5968
▁วิชห	-10.5968
นิวารณ	-10.5969
วาสี	-10.5971
ฐาน	-10.5972
จตฺตาโร	-10.5973
วิการ	-10.5974
▁ลูข	-10.5976
▁ปฎิภาน	-10.5977
▁สเก	-10.5982
โคจโร	-10.5985
▁ผุสิตฺวา	-10.5986
วิปฺป	-10.5986
▁คณฺหโนฺต	-10.5987
ทายโก	-10.5991
ุตฺตม	-10.5999
ขนฺธ	-10.6004
▁ปญฺญาส	-10.6004
ธาว	-10.6004
▁อธิเปฺปโต	-10.6006
▁สมติกฺกมฺม	-10.6007
ปุตฺตา	-10.601
▁ปจฺจเวกฺขนฺติ	-10.6012
าธิคม	-10.6012
วโต	-10.6012
▁วตฺถุสฺมิํฯ	-10.6014
▁ภเวยฺยฯ	-10.6014
สฺสาม	-10.6015
▁วกฺขติ	-10.6017
ิกสฺส	-10.6018
ินํ	-10.6019
▁ปรินิพฺพุโต	-10.6021
านญฺหิ	-10.6022
สฺสปิ	-10.6023
▁อากิญฺจญฺญายตน	-10.6025
วาจา	-10.6029
ภทฺท	-10.6032
▁เสข	-10.6037
▁ปจฺจเวกฺขณ	-10.6038
▁มูเล	-10.604
โจฺฉ	-10.6041
▁ปุปฺผํ	-10.6046
▁อนาคตา	-10.6046
▁ปริเจฺฉโท	-10.6047
มฺพุ	-10.6047
จตฺตาลีส	-10.605
▁เอตทโวจุํ	-10.6051
▁สุทฺธิ	-10.6051
▁ปเสฺสยฺย	-10.6055
▁ปุพฺพาปร	-10.6057
เกฺก	-10.6058
▁กโรนฺตา	-10.6058
▁คาโว	-10.606
▁สตฺตสุ	-10.606
▁อุทปาทิฯ	-10.6061
▁อิตฺถิลิงฺค	-10.6066
ปฺผ	-10.6067
▁คาห	-10.6068
▁อสฺมิํ	-10.6069
▁สาธ	-10.6071
▁นาคราชา	-10.6072
▁อุปปริกฺข	-10.6072
สมุทโย	-10.6072
▁มหาชโน	-10.6079
▁ฐานา	-10.6079
ากาโร	-10.608
กตมา	-10.6081
เตฯ	-10.6082
▁ปเตฺถ	-10.6084
▁สํเวค	-10.6087
▁หตฺถี	-10.6088
▁อุทฺธริตฺวา	-10.6088
ทห	-10.6089
▁นิกฺขนฺต	-10.609
กาฬ	-10.6095
▁อรญฺญํ	-10.6096
▁นิวาส	-10.6097
▁ภเวสุ	-10.6097
▁สตฺติ	-10.6099
▁มหาทานํ	-10.6099
▁กส	-10.61
▁ภาเวโนฺต	-10.6103
▁ปริปุจฺฉ	-10.6105
▁กริสฺสามี	-10.6106
กลาป	-10.6106
▁อภิเญฺญโยฺย	-10.6107
สน	-10.6109
▁ลุ	-10.6111
ภุญฺช	-10.6111
▁ลพฺภตีติ	-10.6114
วิธา	-10.6114
▁กาตโพฺพ	-10.6115
โฑฺ	-10.6116
าธิกรณ	-10.6116
ทสหายตเนหิ	-10.6118
สุภ	-10.6118
วิทฺธ	-10.6119
เนฺน	-10.612
▁สปฺปาย	-10.6122
▁ธมฺมจกฺกํ	-10.6123
▁สริตฺวา	-10.6123
▁เหว	-10.613
▁นรา	-10.6131
ิมา	-10.6133
สหาย	-10.6135
▁กตํฯ	-10.6135
▁นานตฺต	-10.6137
▁อิตฺถนฺนาโม	-10.6137
▁ภิกฺขโว	-10.614
การก	-10.614
ปฺปตฺตํ	-10.6143
▁ปริโยสาน	-10.6144
▁มตฺถเก	-10.6144
เทยฺย	-10.6148
▁อุทายิ	-10.6148
▁อุภยตฺถ	-10.6148
ปฎิปทา	-10.6151
▁ภาเวตฺวา	-10.6151
ชิน	-10.6154
▁อสงฺขต	-10.6155
อตฺต	-10.6157
▁วีติกฺกม	-10.6158
สโตฺต	-10.6161
▁วิสเย	-10.6164
▁เมถุน	-10.6165
▁สุเตน	-10.6166
▁โยนิ	-10.6168
▁มเหสิ	-10.6172
▁ปสฺสํ	-10.6174
▁ภุ	-10.6176
▁จกฺขุมา	-10.6176
▁นส	-10.618
▁สุตนฺติ	-10.6183
▁นปฺป	-10.6185
▁โหนฺตี	-10.6186
▁เอกมฺปิ	-10.6187
▁อวิเกฺขป	-10.6193
▁ทสฺสิโต	-10.6194
ตปฺป	-10.6195
ปตฺติ	-10.6195
▁สุรา	-10.6201
▁สปฺปุริส	-10.6204
กุมาโร	-10.6204
▁นานปฺปการ	-10.6208
▁ปาส	-10.6211
▁อพฺภนฺตเร	-10.6211
▁สิรสา	-10.6212
▁เถเร	-10.6213
ทายก	-10.6213
▁สาปิ	-10.6214
▁ปุเพฺพนิวาส	-10.6215
▁ภาวิโต	-10.6215
▁๑๓๐	-10.6218
าการํ	-10.6221
นิเทฺทโสฯ	-10.6222
▁ชนํ	-10.6224
วนฺต	-10.6225
ปาส	-10.6226
▁โยโค	-10.6226
▁ปุถุชฺชนสฺส	-10.6229
▁เทเสโนฺต	-10.6233
▁มตา	-10.6234
เภสชฺช	-10.6236
กิณฺณ	-10.6238
▁ปติฎฺฐาเป	-10.6238
สานํ	-10.6238
ปาย	-10.6239
สโมฺพชฺฌงฺคสฺส	-10.624
▁ธเนน	-10.624
▁สุขทุกฺข	-10.6243
▁วสติ	-10.6244
▁อาณตฺติ	-10.6248
▁มยฺห	-10.6249
▁ปญฺจินฺทฺริยานิ	-10.6251
าสุ	-10.6252
สนฺตาเน	-10.6255
▁อภย	-10.6256
▁ผลสมาปตฺติยา	-10.6259
▁สนฺธ	-10.6259
▁อนาสโวฯ	-10.6261
▁โปส	-10.6265
▁วช	-10.6268
▁โปเส	-10.6268
▁ติธา	-10.6268
สตฺติ	-10.6269
ลกฺขเณน	-10.627
าสเน	-10.6277
▁ขิตฺต	-10.6279
สวน	-10.6279
▁ปญฺจโวกาเร	-10.628
ตเพฺพ	-10.628
▁ปสาโท	-10.6281
มจฺฉ	-10.6282
▁ภิกฺขุนิ	-10.6285
▁กยิรา	-10.6286
ารมฺมโณ	-10.6289
คพฺภ	-10.6291
โกฎฺฐาส	-10.6291
▁วิญฺญาต	-10.6296
▁ปุริเสน	-10.6304
วาทิโน	-10.6306
จฺฉา	-10.6308
▁สจฺจา	-10.6313
มิสฺสก	-10.6314
▁สมฺมาวายาโม	-10.6315
▁อปจยคามิ	-10.6315
▁ขฺวาหํ	-10.6315
▁พฺยาปาโท	-10.6315
▁ปถวิยํ	-10.6315
▁เนตฺวา	-10.6317
วินโย	-10.6318
▁สมเถหิ	-10.632
▁อทตฺวา	-10.632
โณฺณ	-10.6325
▁อุปฺปชฺชิตฺวา	-10.6325
▁หิมวนฺต	-10.6327
▁วีถิ	-10.6331
▁วุตฺตญฺหิ	-10.6332
▁นิทานํ	-10.6333
▁ชร	-10.6335
▁อนิมิตฺต	-10.6349
▁นิรุชฺฌิสฺสนฺติ	-10.6352
▁ชาโตฯ	-10.6352
▁คหิเต	-10.6352
▁วิชฺช	-10.6354
▁อุกฺขิตฺต	-10.6356
พุทฺธิ	-10.6356
นิทสฺสน	-10.6356
▁อเหตุกปฎิสนฺธิ	-10.6357
▁๑๒๙	-10.6358
▁ขาทนียํ	-10.636
▁ตณฺห	-10.6361
▁อุเปกฺขาย	-10.6362
วเฎฺฎ	-10.6362
▁โชต	-10.6362
▁อิท	-10.6365
▁อธเมฺมน	-10.6365
ยสฺมิํ	-10.6369
▁ราคํ	-10.6373
▁เขตฺตํ	-10.6373
ยาม	-10.6375
▁โวหร	-10.638
▁รุกฺขํ	-10.6381
▁นิปาต	-10.6385
▁จรณ	-10.6388
ิยมานา	-10.6389
▁ชาเต	-10.6391
▁อนตฺต	-10.6391
▁ตถาคเตน	-10.6391
ฉนฺท	-10.6394
สมฺผสฺส	-10.6394
▁กุลานิ	-10.6394
▁สวิตกฺกสวิจารา	-10.6397
▁อท	-10.6397
▁ตาปโส	-10.6397
▁กตฺวาติ	-10.6402
▁คาย	-10.6403
▁กายกมฺม	-10.6406
▁คณฺฑ	-10.641
▁ปวตฺตนโต	-10.6413
▁รูปาวจรํ	-10.6414
▁กรณํ	-10.6414
วิภาค	-10.6421
▁วเตฺต	-10.6421
าทิเภทํ	-10.6424
▁ทุวิธ	-10.6425
▁สมาปนฺนสฺส	-10.6426
▁อพฺภนฺตร	-10.6426
▁กาตโพฺพฯ	-10.6427
▁เมตฺตํ	-10.6428
▁ปุตฺตสฺส	-10.643
▁กามาวจเร	-10.643
▁โสเธ	-10.6432
▁อเนกวิหิต	-10.6433
▁อตฺตภาว	-10.6433
▁พฺรหฺมจริย	-10.6434
วิโธ	-10.6436
เวน	-10.6439
▁มตฺติกา	-10.6441
รติ	-10.6441
▁นนฺที	-10.6441
▁เกสา	-10.6444
▁ลโทฺธ	-10.6445
▁อรูปาวจร	-10.6447
▁เตโช	-10.6449
▁อธโมฺม	-10.6449
▁ยม	-10.6451
มต	-10.6452
▁มตํ	-10.6453
▁สโกฺกติฯ	-10.6454
▁สิญฺจ	-10.6454
▁มนุสฺสโลเก	-10.6457
▁อรโณ	-10.6458
คุโณ	-10.6458
▁ผ	-10.6458
▁มญฺญมาโน	-10.6462
▁อฎฺฐม	-10.6465
▁รโส	-10.6467
▁ทุกฺกฎนฺติ	-10.6468
ปิตา	-10.6471
▁ติล	-10.6473
ปริวาร	-10.6474
▁ทเม	-10.6479
▁อุชฺฌายนฺติ	-10.648
▁สมนฺนาคเตน	-10.6481
▁ปริโตฺต	-10.6482
▁โกสิย	-10.6485
▁สเพฺพหิ	-10.6486
คฺคา	-10.6487
วาต	-10.6488
▁ธาตูนํ	-10.6488
▁ปทานํ	-10.6492
▁กเถตุํ	-10.6495
▁๑๔๐	-10.6498
▁วิกาเล	-10.6499
▁นิทสฺสน	-10.6504
ินิํ	-10.6505
▁หริต	-10.6506
สลฺล	-10.6506
นียํ	-10.6508
▁เอตายาติ	-10.6508
▁อาชีว	-10.6508
ปจฺจุปฺปนฺน	-10.6511
▁วิท	-10.6512
▁กถิตาฯ	-10.6512
▁วิจิกิจฺฉานุส	-10.6514
▁เทวี	-10.6514
▁สมาธิสฺมิํ	-10.6515
▁เสยฺยํ	-10.6516
▁นิเทฺทส	-10.6519
▁ปจฺจเวกฺขติ	-10.6521
▁ปาปุณาติฯ	-10.6522
▁ภาวิตตฺตา	-10.6522
▁คหิตตฺตา	-10.6526
ุปาทาน	-10.6526
เมฺห	-10.6528
ปฺปเภท	-10.6528
▁ทุติยมฺปิ	-10.6528
▁๑๓๓	-10.653
▁สมฺภว	-10.6533
▁ปวิโฎฺฐ	-10.654
เคฺคน	-10.6541
▁สฬายตน	-10.6541
▁ปริชานาติฯ	-10.6542
นียา	-10.6543
▁โหหิ	-10.6543
▁มานุสํ	-10.6544
▁เสกฺข	-10.655
▁ภิ	-10.6552
▁โยค	-10.6553
▁๑๓๕	-10.6554
▁ปาริ	-10.6554
▁ชราย	-10.6554
วีสติ	-10.6555
▁เภสชฺชํ	-10.6558
จตุกฺก	-10.6559
▁การิเต	-10.6565
▁พลานิ	-10.6566
▁อตีตา	-10.6566
▁อนาสวํ	-10.6567
▁โคเตฺตน	-10.6568
▁สุวิ	-10.6569
▁วิสฺสฎฺฐ	-10.6572
▁อนาปตฺตีติ	-10.6576
▁โกฎฺฐาเส	-10.6579
▁อากงฺข	-10.6579
▁เทหี	-10.658
▁อตฺถิฯ	-10.6582
▁อเหตุโก	-10.6582
▁อารภติ	-10.6582
▁ปห	-10.6583
ิตาติ	-10.6585
▁อาทีนว	-10.6589
▁รโช	-10.6589
▁นิปาโตฯ	-10.659
▁วินิจฺฉโยฯ	-10.6592
▁อาสววิปฺปยุตฺต	-10.6594
▁ตาทิเส	-10.6597
▁กุชฺฌ	-10.6598
▁ตี	-10.6598
▁ติวิธา	-10.6598
▁นุปฺปชฺชติฯ	-10.66
▁สนฺธาว	-10.6601
▁อธิเปฺปโตฯ	-10.6602
▁นารี	-10.6602
▁วายมติ	-10.6603
าธิปฺปาย	-10.6603
ยุค	-10.6606
เสหิ	-10.6609
▁นิพฺพตฺตา	-10.6609
▁สาว	-10.661
ิเยน	-10.661
สนฺตาน	-10.6611
สฺมิญฺหิ	-10.6613
▁กาเรสิ	-10.6617
เตสํ	-10.6618
วาทํ	-10.6618
▁อทุกฺขมสุขํ	-10.6619
สมฺมาสมฺพุทฺธสฺส	-10.662
▁ปฎิกฺขิป	-10.6621
▁รติ	-10.6624
ฎฺฐิต	-10.663
▁โกวิโท	-10.663
▁๑๓๒	-10.6631
▁อชฺฌุเปกฺข	-10.6634
▁อตฺร	-10.6636
▁ภวิตพฺพํ	-10.6638
ลาภี	-10.6639
▁อาสโว	-10.6639
ทสฺสนํฯ	-10.664
▁เทถา	-10.6641
▁๑๓๗	-10.6642
สมุ	-10.6646
▁ธีรา	-10.6647
▁ปจฺฉิมํ	-10.6647
▁หนฺท	-10.6648
โสฯ	-10.6648
▁ปล	-10.6648
▁ธารย	-10.6648
ุปฺปนฺน	-10.6651
▁ปภุติ	-10.6653
ธุร	-10.6653
▁สญฺจิจฺจ	-10.6653
วิธาน	-10.6656
สนฺนิ	-10.6657
▁ปหีนตฺตา	-10.6657
ภาคํ	-10.6663
▁วิสภาค	-10.6663
▁นิสีทิํสุฯ	-10.6664
▁กโรถา	-10.6668
▁ตปฺ	-10.6669
ชิ	-10.6669
▁ฉวิ	-10.667
สิตา	-10.667
▁อิมาเนตฺถ	-10.6671
ทุสฺส	-10.6673
ยิํ	-10.6677
นิทานํ	-10.668
▁มคฺคารมฺมณ	-10.6684
มนสิการ	-10.6687
▁ติโร	-10.6688
▁อนุรูป	-10.6688
▁ปรมํ	-10.6689
▁เหม	-10.669
▁กโรมิ	-10.6698
ิจฺฉ	-10.6699
จิเตฺตสุ	-10.6701
▁อทฺทสํ	-10.6703
▁อุทฺธจฺจสหคโต	-10.6706
ลกฺขเณ	-10.6708
▁อาจริยสฺส	-10.6711
าทีน	-10.6712
ปญฺจิเม	-10.6714
▁ปติฎฺฐิตา	-10.6716
ิโนฯ	-10.6727
▁สาทิย	-10.6728
ปฺปหานํ	-10.6728
▁สมาปโนฺน	-10.6729
▁ตจ	-10.6736
▁ภุมฺม	-10.6737
ธร	-10.6738
▁มหโนฺต	-10.6741
▁เทหํ	-10.6741
อาทีหิ	-10.6742
▁ปตฺตจีวรมาทาย	-10.6743
▁ภูตํ	-10.6746
▁สนฺตาเน	-10.6746
▁เจต	-10.6749
▁อนาทริยํ	-10.6749
▁นิโรธา	-10.6753
▁สสฺสต	-10.6757
ปญฺจม	-10.6757
▁๑๓๑	-10.6757
▁อารภ	-10.6762
สาธารณ	-10.6763
นฺตู	-10.6769
▁สมฺภโว	-10.6773
เหตู	-10.6774
เญฺช	-10.6776
▁สายํ	-10.6777
▁มาตุคาโม	-10.6779
▁วิมานํ	-10.678
▁ปาฐ	-10.6781
ฆํ	-10.6781
▁นีวรณา	-10.6783
▁วาเสฎฺฐ	-10.6784
▁วิปสฺสิสฺส	-10.6784
ปฺปสาท	-10.6785
▁๑๓๘	-10.6787
▁รูปาวจเร	-10.6789
มํสํ	-10.6795
▁อนุปฺปโตฺต	-10.6796
ปริยเนฺต	-10.6798
▁๑๓๔	-10.6799
▁มุเขน	-10.68
▁ผร	-10.68
ปริสํ	-10.6801
▁วิภว	-10.6801
สมฺภวโต	-10.6801
▁นิพฺพาเน	-10.6806
▁อุตฺตโม	-10.6807
▁อุกฺขิป	-10.6809
ปฎิปกฺข	-10.6811
สรโณ	-10.6812
ทิฎฺฐ	-10.6812
ปฺปมาโณ	-10.6812
▁นิสฺส	-10.6812
กมฺมฎฺฐานํ	-10.6812
▁วิปากา	-10.6814
▁อุตฺตานตฺถเมวฯ	-10.6816
ภาคิย	-10.6823
โตฺถติ	-10.6824
▁ภวติฯ	-10.6825
▁สตฺตุ	-10.6828
หิํส	-10.6832
▁สาลิ	-10.6833
▁พฺรหฺมโลเก	-10.6836
▁ทุกฺกร	-10.6836
▁ชีวิตินฺทฺริย	-10.684
▁โมหํ	-10.6842
งฺคุล	-10.6844
ปกติ	-10.6844
อิทานิ	-10.6849
▁ปติฎฺฐิต	-10.6851
▁เสสานิ	-10.6851
▁สีหนาทํ	-10.6854
วคฺคสฺส	-10.6854
จกฺกํ	-10.6857
▁ขลุ	-10.6858
▁มตฺต	-10.686
▁ปกาเสตฺวา	-10.686
▁ปติฎฺฐิโต	-10.686
▁ฐปิตํ	-10.6861
ปาโท	-10.6861
ตสฺสา	-10.6862
ยุเตฺต	-10.6863
▁ภิกฺขุสโงฺฆ	-10.6863
จุณฺณ	-10.6863
▁วิปตฺติ	-10.6864
▁อุพฺภ	-10.6866
▁อาจาร	-10.6869
▁นิมฺม	-10.6869
▁ปคฺฆร	-10.687
▁ผลานิ	-10.6878
โมฺพ	-10.6882
▁ธมฺมกถํ	-10.6886
▁อสงฺคหิตาฯ	-10.6891
▁ปาณํ	-10.6892
▁จตุตฺถชฺฌาน	-10.6893
เอต	-10.6896
▁อวเสสํ	-10.6897
กลฺยาณ	-10.69
สพฺพํ	-10.6905
▁อคารํ	-10.6913
กฺขนฺธเก	-10.6916
▁อุร	-10.6917
▁ผสฺสปจฺจยา	-10.6919
▁วิปริณาม	-10.6922
▁ตสฺสาปิ	-10.6922
▁ชนฺตุ	-10.6923
ิตฺวาติ	-10.6924
▁สมาเส	-10.6925
▁ทสฺสามี	-10.6926
▁รุเกฺข	-10.6927
▁ฉตฺตํ	-10.6928
▁อุปฺปชฺชนฺตีติ	-10.6928
เภทา	-10.693
▁อปฺปมาณํ	-10.693
ติโสฺส	-10.693
▁อาร	-10.693
▁ปาต	-10.6931
▁กุหิํ	-10.6932
กณฺฎก	-10.6934
▁เทวราชา	-10.6934
▁โอฬาริก	-10.6935
▁เปต	-10.6936
▁วาเจ	-10.6936
▁สิกฺขาปเท	-10.6937
▁วินิปาตํ	-10.6937
ปญฺจหิ	-10.6945
▁มเหสิโน	-10.6947
▁เทวปุตฺต	-10.6955
▁สมาธินฺทฺริยํ	-10.6956
▁สํโยชนานิ	-10.6957
▁อรห	-10.6959
▁วเสฺส	-10.6962
▁ปุเรชาตสฺส	-10.6964
เตติ	-10.6964
▁ญา	-10.6964
▁สํโยชนานํ	-10.6966
ปุพฺพา	-10.6966
อปิ	-10.6971
▁สเตฺตสุ	-10.6973
ริยา	-10.6975
โชฺฌ	-10.6976
▁โลหิตํ	-10.6978
▁ปริเจฺฉโทฯ	-10.6979
ญฺชน	-10.698
▁เตภูมก	-10.6981
จตฺตาโรเม	-10.6983
▁โอฬาริกา	-10.6983
▁กุสลตฺติก	-10.6987
▁ญ	-10.6992
▁ยทิปิ	-10.6992
สทิเส	-10.6995
▁ปริจฺจช	-10.6995
ปโร	-10.6996
▁ปติฎฺฐห	-10.6996
▁สาย	-10.7001
▁นิสฺสโย	-10.7001
▁ปวาเร	-10.7001
▁๑๓๖	-10.7001
▁ติวิโธ	-10.7003
▁อุปสมฺปาเท	-10.7006
▁ปณฺฑุ	-10.7006
สเตหิ	-10.7007
▁อกํสุฯ	-10.7007
▁กมฺมุนา	-10.7008
▁เตสนฺติ	-10.7009
▁อก	-10.701
▁ฌ	-10.701
กายํ	-10.7012
▁วาจ	-10.7012
▁ปเจฺจก	-10.7018
▁อวณฺณํ	-10.7021
▁ภาสิต	-10.7024
วิภโงฺค	-10.7027
ตุํฯ	-10.7031
ปถํ	-10.7032
ยตฺถ	-10.7032
สมุฎฺฐานา	-10.7037
▁ปาทํ	-10.7038
▁มหาโมคฺคลฺลาโน	-10.7038
▁เอเกกํ	-10.7038
▁อโยนิโส	-10.7041
▁ญาณสฺส	-10.7042
▁อภิชฺฌาโทมนสฺสํ	-10.7043
▁คจฺฉนฺตํ	-10.7044
▁เหตฺถ	-10.7047
าปนํ	-10.7048
▁ทุโกฺข	-10.7048
หเงฺคหิ	-10.705
▁อญฺชน	-10.7051
▁ภูตา	-10.7052
ฺว	-10.7055
จาริ	-10.7055
▁การก	-10.7057
สํกิเลสิโก	-10.7057
▁อยมสฺส	-10.7057
▁โจท	-10.7057
▁ตาวเทว	-10.7058
▁กสิ	-10.7059
ฎฺฐานํฯ	-10.7059
ธาตูติ	-10.7065
▁อาเสวนปจฺจเย	-10.7066
▁กุพฺพ	-10.7068
▁กรเณ	-10.7069
▁ปุจฺฉโนฺต	-10.7072
▁เทวตานํ	-10.7072
หาเร	-10.7073
▁กเถติ	-10.7073
▁อุปริม	-10.7075
▁เตสมฺปิ	-10.7077
▁เถยฺย	-10.7081
านุโลม	-10.7082
ยาฯ	-10.7084
▁เอกเนฺตน	-10.7086
▁สกฎ	-10.7087
ราชสฺส	-10.7088
▁จิตฺตสมุฎฺฐาน	-10.7089
สนฺตติ	-10.7092
ภเตฺต	-10.7092
▁ภาเวตพฺพา	-10.7092
▁ปุนปิ	-10.7092
นฺทิ	-10.7094
▁ตาหิ	-10.7094
คหณ	-10.7099
▁มารสฺส	-10.71
▁ตยิทํ	-10.71
▁วินาส	-10.7101
▁วตฺถูนิ	-10.7101
ญาเณ	-10.7103
าจริย	-10.7106
▁ชิ	-10.7107
สโกฺก	-10.7108
▁อชฺฌตฺติกํ	-10.7108
เอส	-10.7108
กฺขณ	-10.7109
▁โสตฺถิ	-10.7112
▁โลกุตฺตรา	-10.7113
▁เกเส	-10.7113
จาโร	-10.7113
▁ทิฎฺฐธมฺมิก	-10.7114
สมฺผโสฺส	-10.7114
▁สงฺคีติ	-10.7115
▁นีจ	-10.7116
▁สํสาเร	-10.7116
▁สโญฺญชนสมฺปยุ	-10.7117
เปตฺวา	-10.7117
▁ขิยฺยนฺติ	-10.7117
▁ถมฺภ	-10.712
ทฑฺ	-10.712
▁เอวเมตสฺส	-10.712
▁อภิภวิตฺวา	-10.7121
▁มายา	-10.7121
ปตฺติยา	-10.7125
ูปปตฺติ	-10.7125
ิฎฺฐ	-10.7127
ิสฺสนฺติฯ	-10.7128
▁ปฎิสนฺธิํ	-10.7129
▁จรโนฺต	-10.7131
▁ปุเม	-10.7132
▁อุนฺน	-10.7134
▁เมฆ	-10.7134
ลพฺภ	-10.7135
▁ชาตาฯ	-10.7137
▁นาคา	-10.714
ิสฺสนฺตี	-10.714
ตป	-10.7141
รตา	-10.7142
รชฺช	-10.7142
เรสุ	-10.7142
▁อุปาทินฺน	-10.7144
นานา	-10.7148
าทิมฺหิ	-10.7149
ปฺปกาส	-10.715
▁เทวานมิโนฺท	-10.7151
▁อติกฺกมฺม	-10.7154
▁ฉตฺติํส	-10.7154
▁สงฺขาโร	-10.7159
▁สานุสโย	-10.7159
▁กิเลโส	-10.7161
▁อธิปฺปาเยน	-10.7161
ปริตฺต	-10.7165
▁โพชฺฌงฺค	-10.7166
▁อโลโภ	-10.7167
▁วุทฺธ	-10.7168
▁นาเม	-10.7169
▁ปาติ	-10.717
▁รสา	-10.717
เตฺถรคาถา	-10.7171
▁สู	-10.7173
ปเทส	-10.7174
–	-10.7174
▁โวโรเป	-10.7175
▁สเงฺขโป	-10.7175
▁อุกฺก	-10.718
ุโน	-10.718
▁อปายํ	-10.718
▁ติฎฺฐตีติ	-10.7182
▁วสา	-10.7183
▁สิกฺขาปทานิ	-10.7183
▁สุมน	-10.7185
▁อปฺปมาณ	-10.7185
โคจร	-10.7185
▁ปริวาเรตฺวา	-10.7194
▁อภิภว	-10.7195
▁สภาวโต	-10.7196
▁ปฐเมน	-10.7198
สโงฺฆ	-10.7198
▁กหาปณ	-10.7198
▁ปถ	-10.7199
▁ปฎิกฺขิปติฯ	-10.7204
▁อลงฺการ	-10.7209
▁วิญฺญาย	-10.721
▁สาสนสฺส	-10.7211
รานํ	-10.7212
▁อุปฺปชฺชนก	-10.7214
▁ปทฎฺฐาน	-10.7217
▁อโหสีติฯ	-10.7218
สาธู	-10.7219
รเญฺญ	-10.7221
▁นิพฺพตฺติฯ	-10.7222
วาสํ	-10.7222
กีฬ	-10.7227
▁สุขี	-10.7227
ปสาท	-10.7232
▁สกุณ	-10.7233
▁เจติยํ	-10.7237
▁หตฺถปาท	-10.7238
▁ลชฺช	-10.7238
▁โอตริตฺวา	-10.7239
▁มุญฺจิตฺวา	-10.7241
▁ยาถาวโต	-10.7242
▁อสฺสาโท	-10.7248
▁อญฺญาตาวินฺทฺริ	-10.7249
▁สงฺฆาฎิ	-10.725
▁เจโตวิมุตฺติํ	-10.725
มาณว	-10.7255
▁สนฺตติ	-10.7255
▁ปริเจฺฉท	-10.7256
มหํ	-10.7257
อิมสฺมิํ	-10.7258
▁นิสิเนฺน	-10.7261
▁ปริคฺคห	-10.7262
▁ฐเปติ	-10.7262
▁ภาสิตสฺส	-10.7265
นฺตฺย	-10.7265
▁อุตฺตานเมวาติฯ	-10.7266
กถายํ	-10.7268
▁ปฎิลภ	-10.727
โยคโต	-10.727
▁อาปทาสุ	-10.727
ปริยาเยน	-10.727
วิหารํ	-10.7274
▁๑๓๙	-10.7275
กฺขร	-10.7275
▁รชฺชุ	-10.7276
ีว	-10.7282
▁อุปเน	-10.7283
▁คณฺหนฺติ	-10.7285
▁ฆานํ	-10.729
▁ปกฺขิ	-10.729
▁ปชหตีติ	-10.729
▁อภิธเมฺม	-10.7292
ารมฺภ	-10.7294
▁ปฎิชคฺค	-10.7296
▁ปจฺฉาชาตํ	-10.7298
าโน	-10.73
▁โลกิยา	-10.7301
▁โสตาปตฺติผล	-10.7303
▁วุตฺติ	-10.7304
ปาโต	-10.7304
ถิ	-10.7306
▁ปุจฺฉิตพฺพตฺตา	-10.7309
▁พหุตรา	-10.731
วิสโย	-10.7311
▁ยุชฺชติ	-10.7312
▁วิญฺญาเปตฺวา	-10.7312
▁เจเตติ	-10.7314
▁ปติต	-10.7316
กสฺมา	-10.7316
▁ปกาสิตา	-10.7316
▁รูปายตนญฺจ	-10.7317
เสวน	-10.7317
▁ปกฺกมติ	-10.7319
▁เสฎฺฐํ	-10.732
▁นิรุชฺฌิตฺถาติ	-10.732
วจนสฺส	-10.7326
สญฺญานาสญฺญายตนํ	-10.7327
ปฺย	-10.7328
เสติ	-10.7331
▁ชาติํ	-10.7332
▁อญฺญตรสฺส	-10.7332
▁เทเสสิฯ	-10.7332
รชฺชุ	-10.7335
▁ชานน	-10.7339
ผเล	-10.7342
▁คตํ	-10.7342
มุตฺตมํ	-10.7342
▁สเพฺพสมฺปิ	-10.7343
สิริ	-10.7343
▁กุลเคเห	-10.7344
กฺขย	-10.7344
▁สมฺมาสงฺกโปฺป	-10.7345
สรณ	-10.7345
▁วเชฺชตฺวา	-10.7346
นิกาย	-10.7349
▁วิชิต	-10.7351
ตฺถนฺติ	-10.7352
▁กเร	-10.7352
▁วิโมโกฺข	-10.7352
ภาโวติ	-10.7353
หโต	-10.7354
▁สิเนรุ	-10.7356
▁สกทาคามี	-10.7356
▁นิรุชฺฌิตฺถฯ	-10.7358
วจฺฉ	-10.7358
▁สตสหสฺส	-10.7361
คิ	-10.7362
▁ปชาย	-10.7362
▁มุจฺจติ	-10.7364
▁โอกาโส	-10.7366
▁ตมฺหิ	-10.7366
ปณฺณาส	-10.7368
คารว	-10.7375
▁ปสนฺนา	-10.7376
สาโร	-10.7376
▁เอตนฺติ	-10.7377
โภชเน	-10.7377
▁เอกูนวีสติ	-10.7383
▁กายานุปสฺสี	-10.7383
ายตนํ	-10.7384
▁สุป	-10.7388
▁ภเวฯ	-10.739
ปเทหิ	-10.739
▁นิโรธํ	-10.7391
สญฺญานาสญฺญายตน	-10.7395
▁ปหริตฺวา	-10.7396
▁สมณํ	-10.7397
▁สตฺตมี	-10.7397
▁อากิญฺจญฺญายตนํ	-10.7399
สมนฺนาคโต	-10.7401
หํฯ	-10.7402
ปณฺฑิต	-10.7404
▁นิยโต	-10.7404
ีร	-10.7404
ินฺทฺริโย	-10.7405
ิธ	-10.7408
▁กิลม	-10.7411
▁จงฺกม	-10.7412
▁มตฺถกํ	-10.7412
▁การาเป	-10.7412
คมา	-10.7413
อทฺธา	-10.7416
▁ปเวเส	-10.7416
▁เทสิตํ	-10.7417
มโต	-10.742
▁โพธิสตฺต	-10.7421
คณา	-10.7423
▁ปริยาโย	-10.7425
▁อาวาโส	-10.7427
▁ภิกฺขํ	-10.7428
กเร	-10.7429
▁สมาปชฺชิตฺวา	-10.7431
▁เสติ	-10.7433
▁อาวชฺช	-10.7433
ติณ	-10.7435
ทโนฺต	-10.7437
▁ปนาหํ	-10.7438
▁ฌานา	-10.7438
นาโม	-10.744
▁รุกฺขา	-10.744
▁ลภนฺติ	-10.7441
วิตฺถาร	-10.7444
กุสลตฺติกํ	-10.7445
ภูม	-10.7447
▁ภคินี	-10.7449
▁รกฺขิต	-10.7449
มจฺจ	-10.7449
ปริคฺคห	-10.7458
▁อาสน	-10.7459
▁ปาฎิกงฺขา	-10.746
▁อนฺตรามเคฺค	-10.7464
▁วิปาเจนฺติ	-10.7464
▁ธาเรติ	-10.7464
วเณฺณ	-10.7467
ุฎฺฐ	-10.7467
▁อตฺตนาว	-10.7467
▁คุเณหิ	-10.7468
▁รูปาวจรานํ	-10.7469
▁อุคฺคต	-10.7471
▁อานนฺทํ	-10.7473
▁ฉฎฺฐี	-10.7473
อสฺส	-10.7474
▁ภาย	-10.7475
นินฺน	-10.7475
▁อปราปรํ	-10.7476
▁อรหนฺต	-10.7477
มานานํ	-10.7484
วิเสสํ	-10.7485
▁อุปาสก	-10.7487
▁ปรินิพฺพาย	-10.7489
▁ปสนฺนจิโตฺต	-10.7491
กทา	-10.7491
ภาเคน	-10.7492
▁อิมญฺจ	-10.7494
▁ปเสนทิ	-10.7499
▁สกวาทิสฺส	-10.7499
▁นุปฺปชฺชิตฺถ	-10.7503
▁อภิส	-10.7508
สาข	-10.7509
▁ปจฺฉาภตฺตํ	-10.7514
▁กามานํ	-10.7515
▁สเมนฺติ	-10.7515
▁รูปาทิ	-10.7517
สฺมีติ	-10.7518
▁วีริยินฺทฺริยํ	-10.7519
▁ธุรํ	-10.7519
▁อิจฺจาทิ	-10.752
▁ปฎิพาห	-10.7521
ปูช	-10.7522
สปฺปาย	-10.7522
วเณฺณน	-10.7522
▁ขณํ	-10.7523
เตฺถเรน	-10.7527
▁กายวิญฺญาณสฺส	-10.7527
▁นิคฺคห	-10.7528
▁กี	-10.7528
ยถาปิ	-10.7528
▁ลาโภ	-10.7529
าจาร	-10.753
วสา	-10.753
ธเมฺมหิ	-10.7531
▁ปวิฎฺฐ	-10.7531
เสนาสน	-10.7535
อญฺญ	-10.7535
▁ปจฺจยุปฺปนฺน	-10.7536
ปรม	-10.7536
กาลิก	-10.7537
▁ปุนพฺภโว	-10.7538
▁นิรามิส	-10.7539
อิมสฺส	-10.7539
▁เปจฺจ	-10.7542
▁โลณ	-10.7544
▁ปฎิจฺจสมุปฺปนฺน	-10.7545
ูปจาร	-10.7551
▁อนุปฺปนฺนา	-10.7551
าจริโย	-10.7552
ามา	-10.7557
▁อุปฺปชฺชมานา	-10.7558
สญฺหิ	-10.7558
▁นกฺขตฺต	-10.7559
ปมา	-10.7561
▁คจฺฉตี	-10.7563
สมฺปทํ	-10.7564
▁สมาปชฺช	-10.7565
มู	-10.7567
อมฺหากํ	-10.7568
กเต	-10.7571
▁ญาตี	-10.7576
▁อธิปฺปาย	-10.7577
▁ปาจีน	-10.7578
ชาติกา	-10.7579
อห	-10.7579
▁ฉนฺทราโค	-10.758
อตฺถิยา	-10.7581
าภาเวน	-10.7581
▁ปภาสตี	-10.7583
▁อินฺทฺริเยสุ	-10.7584
วิตโกฺก	-10.7584
▁พฺรเหฺม	-10.7591
▁นิพฺพิทา	-10.7592
▁ปเสฺส	-10.7593
สํวร	-10.7599
มตฺตโน	-10.7599
▁นิมิเตฺต	-10.7599
▁สํสนฺทนฺติ	-10.761
▁วิภงฺค	-10.7613
▁สกฺกาย	-10.7615
▁เตนุปสงฺกมิํสุ	-10.7622
▁มนินฺทฺริยญฺจ	-10.7623
ุนฺติ	-10.7624
▁สมญฺญา	-10.7626
▁ภิกฺขูติ	-10.7628
▁กถินํ	-10.7629
สมฺภว	-10.7631
▁วิวิธ	-10.7632
▁อนริย	-10.7633
▁วิคฺคโหฯ	-10.7634
นาเมน	-10.7634
▁ธูม	-10.7634
เทเว	-10.7635
ปูชาย	-10.7637
ติอาทิกา	-10.7644
▁อญฺญินฺทฺริยํ	-10.7648
▁หาร	-10.765
คาโม	-10.7654
▁นปุเรชาตปจฺจยา	-10.7657
▁อจกฺขุกาน	-10.7658
▁พหุธา	-10.766
▁ปเนส	-10.7662
▁มหี	-10.7663
▁อากาโส	-10.7663
▁ปานีย	-10.7664
▁เสกฺขา	-10.7664
▁วิทู	-10.7664
ิม	-10.767
▁พฺยากาสิฯ	-10.7671
สเน	-10.7673
▁ปวุจฺจติฯ	-10.7673
▁อริยสจฺจ	-10.7675
▁อสงฺขตา	-10.7676
าทิโก	-10.7677
▁นิพฺพานญฺจ	-10.7677
นีโต	-10.7678
▁มหาชน	-10.7679
สตสหสฺส	-10.7679
▁สาคร	-10.768
กนฺต	-10.7682
▁จณฺฑาล	-10.7683
เลฺล	-10.7683
▁๑๔๑	-10.7685
▁ตพฺพิ	-10.7686
ปตฺถ	-10.7687
สตฺถา	-10.7687
▁อุปปชฺชติฯ	-10.7689
▁อารพฺภฯ	-10.769
▁สีฆ	-10.7691
▁สูกร	-10.7691
มกฺข	-10.7693
ปฎิปทํ	-10.7696
▁เทวมนุเสฺสสุ	-10.7697
ปุริสินฺทฺริยญฺจ	-10.7698
▁จตุกฺกํ	-10.7698
นเมว	-10.7698
มุขา	-10.7699
สโนฺตโส	-10.7699
สีลา	-10.7701
▁ธุต	-10.7701
ภาชน	-10.7702
▁โมกฺข	-10.7703
สฺมิมฺปิ	-10.7704
ปาณิ	-10.7704
▁นิกฺขโนฺต	-10.7705
▁วิปรีต	-10.7705
▁อร	-10.7707
มาตา	-10.7708
สมโณ	-10.771
▁หาโร	-10.7715
นฺตรา	-10.7715
▁ปการ	-10.7718
มกาสิ	-10.7719
▁ปริสุทฺธา	-10.7722
▁หิํส	-10.7723
▁โกสล	-10.7724
▁ปฎฺฐเป	-10.7725
▁ปุปฺผานิ	-10.7727
สํโยชนํ	-10.7727
ฆาโต	-10.773
▁อยฺย	-10.7731
▁โสจติ	-10.7732
มูลเก	-10.7732
หิปิ	-10.7734
▁ปโหติ	-10.7735
โยนิ	-10.7739
▁ยตฺร	-10.7741
▁ยสฺสา	-10.7743
▁สูร	-10.7743
มชฺฌิม	-10.7745
นีวรณ	-10.7745
▁ตชฺชา	-10.7746
▁พหูนํ	-10.775
▁ทุกฺกฎสฺส	-10.7751
▁วิหรตี	-10.7757
สภาค	-10.776
▁วุตฺตเมวฯ	-10.7762
▁รูปิย	-10.7766
▁ปริจฺฉินฺน	-10.7768
▁ปริปูร	-10.7772
▁วุจฺจมาโน	-10.7778
▁โอร	-10.7778
ุปฺปตฺติยา	-10.778
▁ปเทส	-10.778
ามิฯ	-10.778
▁วิชฺชตี	-10.7781
านุสย	-10.7783
ปฎ	-10.7784
▁เทสิตา	-10.7784
ตฺติเก	-10.7786
▁๑๔๘	-10.7786
▁ทิวส	-10.7787
เคห	-10.7788
▁อนิจฺฉ	-10.779
ามเส	-10.7794
▁ทิโนฺน	-10.7794
ปริยาปโนฺน	-10.7796
▁โปราณ	-10.7797
▁อุปธิ	-10.7799
▁โคตฺต	-10.78
วตฺถุํ	-10.7801
▁ภาตา	-10.7801
หมสฺมิ	-10.7801
▁ตเญฺจ	-10.7802
▁อชานโนฺต	-10.7803
▁กฺริย	-10.7803
▁คจฺฉนฺตสฺส	-10.7804
ราธ	-10.7807
ามฯ	-10.7808
▁ชมฺพุทีป	-10.781
มานาย	-10.7812
▁สํวตฺตนฺติ	-10.7812
▁วิมล	-10.7812
ายปิ	-10.7813
▁๑๕๖	-10.7813
▁รโต	-10.7815
▁ธุตงฺค	-10.7815
มณฺฑเล	-10.7815
▁ตถาคเต	-10.7815
▁ปญฺจวีสติ	-10.7818
▁ฆานินฺทฺริยญฺจ	-10.7818
▁กรณีโย	-10.7818
ฎํ	-10.7818
ทุคฺค	-10.782
▁ปริยาทาย	-10.782
เชฺฌ	-10.7821
▁ปาตุภวนฺติ	-10.7821
▁โอกาเส	-10.7822
▁พฺราหฺมณานํ	-10.7822
▁สงฺฆมเชฺฌ	-10.7823
▁วิภตฺตา	-10.7824
▁นายํ	-10.7827
▁ปริกมฺมํ	-10.7827
าคาร	-10.7828
▁ยญฺหิ	-10.7829
▁อภวิสฺส	-10.7831
▁มณฺฑ	-10.7832
มฺมาสมฺพุทฺธสฺสฯ	-10.7833
เถร	-10.7834
ูปโม	-10.7834
▁เมตฺต	-10.7837
มโห	-10.7839
▁สพฺพญฺญุตญฺญาณ	-10.7841
▁ปโยชนํ	-10.7842
▁อาคนฺตุก	-10.7843
ิโฎฺฐ	-10.7844
นกาเล	-10.7845
วิโนทน	-10.7848
วิตเกฺก	-10.7849
▁อากาสานญฺจายตนํ	-10.7853
▁ปริสํ	-10.7854
ปูรณ	-10.7856
นิร	-10.7857
▁สํวิชฺชมานา	-10.786
▁๑๔๒	-10.7861
กุมฺภ	-10.7862
▁ภงฺค	-10.7862
▁อทฺทสา	-10.7863
▁วํส	-10.7863
▁อมจฺจา	-10.7865
▁๑๕๐	-10.7867
▁ปูริต	-10.7867
▁อรูปานํ	-10.7868
เอตฺถ	-10.7869
เตฺถรวตฺถุ	-10.7871
▁สนฺธายาหฯ	-10.7871
▁ภสฺส	-10.7874
▁วูปสมา	-10.7874
▁อาหจฺจ	-10.7874
ยสฺมา	-10.7874
▁อาจริยา	-10.7876
▁อนฺตราย	-10.788
การเก	-10.788
▁อทฺทส	-10.7881
สมุทยา	-10.7883
▁มาเน	-10.7884
▁ปาฎิ	-10.7884
ารโห	-10.7889
▁อภิกฺกม	-10.789
▁กุสลากุสล	-10.7891
▁ชา	-10.7891
▁อกุสเล	-10.7893
นิสฺสยปจฺจเยน	-10.7894
วิสิฎฺฐ	-10.7896
ทิวส	-10.7897
▁อสุร	-10.7898
▁สงฺขารปจฺจยา	-10.7899
▁อติกฺกนฺต	-10.7901
▁เวฬุวเน	-10.7901
▁วิหรตีติ	-10.7902
อตฺตโน	-10.7904
▁กาตพฺพาฯ	-10.7907
▁รูปญฺจ	-10.7907
เฎฺฐนาติ	-10.7908
▁อฎฺฐกถาย	-10.7909
ตาทิโส	-10.7912
▁ธมฺมายตนญฺจ	-10.7914
ปาทก	-10.7915
▁กกฺขฬ	-10.7915
▁วิตกฺกวิจารานํ	-10.7916
▁อหญฺจ	-10.7918
▁อพฺภุตํ	-10.7918
ปทาน	-10.792
▁อิสฺสร	-10.792
▁โห	-10.7921
▁ฉายา	-10.7926
ทโตฺต	-10.7926
▁ลา	-10.7927
▁เสล	-10.7928
พาห	-10.7929
พฺราหฺมโณ	-10.7932
เจติย	-10.7933
▁กาสิ	-10.7933
▁โอตฺตปฺป	-10.7935
▁กูฎาคาร	-10.7935
▁อวิเสเสน	-10.7936
▁ภา	-10.7938
▁จุณฺณ	-10.794
▁ปาทา	-10.7941
▁สว	-10.7941
▁ปจฺจโสฺสสุํฯ	-10.7941
▁มาตาปิตูนํ	-10.7941
ตาต	-10.7941
สมาส	-10.7941
สคฺค	-10.7943
▁พุทฺธปูชาย	-10.7944
▁ปจฺจนีก	-10.7944
สมุทฺท	-10.7946
▁มนสิการ	-10.7947
▁ผุฎฺฐ	-10.7951
ุทฺธ	-10.7952
วตฺถา	-10.7953
เวยฺย	-10.7953
ุตฺตานตฺถเมวาติฯ	-10.7954
ปเสฺส	-10.7955
▁ปริหายนฺติ	-10.7955
ญฺญาย	-10.7955
▁วิสุทฺธิ	-10.7956
มาย	-10.7957
▁ตมฺพ	-10.7958
▁เอกวีส	-10.7959
ิทฺธิ	-10.7959
▁อุปสมฺปโนฺน	-10.7961
▁ทิส	-10.7961
▁สนฺนิสินฺนา	-10.7963
▁นิสชฺช	-10.7964
ติอาทีหิ	-10.7965
าทโยปิ	-10.7966
พนฺธนํ	-10.7971
เตยฺย	-10.7973
▁วิราคา	-10.7974
คมเนน	-10.7974
▁นิปนฺน	-10.7975
าโย	-10.7975
สมีเป	-10.7976
ภาเวนฯ	-10.7979
▁ปริวเตฺต	-10.798
▁โจทน	-10.7982
▁อชาตสตฺตุ	-10.7982
▁เอวรูเป	-10.7982
▁เอกชฺฌํ	-10.7982
▁ปฎิวิทฺธ	-10.7986
ทฺธา	-10.7987
▁โลกสฺมิํฯ	-10.7988
▁ฐิติยา	-10.7988
▁๑๔๔	-10.7989
ตฺถายาติ	-10.799
▁สาเธ	-10.7991
สุต	-10.7992
▁อนุยุญฺช	-10.7993
▁จตุราสีติ	-10.7994
▁อธิคโต	-10.7995
าทีนญฺจ	-10.7998
▁สมฺปชานมุสา	-10.7998
▁อโนฺตคธ	-10.7998
โลภ	-10.7999
▁อวยว	-10.8002
▁จิโต	-10.8002
▁เอวม	-10.8002
สิลา	-10.8002
▁คงฺคาย	-10.8002
▁เวเคน	-10.8003
รณํ	-10.8004
จฺจาทิ	-10.8006
▁มนุโสฺส	-10.8008
ณฺฑิ	-10.801
▁เวเท	-10.801
▁กงฺข	-10.8011
าเปสิ	-10.8013
▁วิมุจฺจ	-10.8015
ตีหิ	-10.8021
กรโณ	-10.8022
▁๑๔๓	-10.8026
▁สนฺตุโฎฺฐ	-10.8028
▁สุญฺญ	-10.8029
▁เภ	-10.803
▁พุเทฺธน	-10.8032
▁มุจฺจ	-10.8033
มุนิ	-10.8036
▁ปริภุญฺชิตุํ	-10.8037
▁ปโมท	-10.8039
าราเม	-10.8041
▁กปฺปิยํ	-10.8042
สหสฺสํ	-10.8043
ฬก	-10.8044
ชนก	-10.8045
▁สกฺกสฺส	-10.8048
▁สเหตุกา	-10.8056
▁วิญฺญาณญฺจายตน	-10.8058
▁อุฎฺฐห	-10.8058
กตฺวา	-10.8063
▁สมฺมปฺปญฺญาย	-10.8065
▁วุฎฺฐิโต	-10.8066
▁พาหา	-10.8068
▁มหานุภาว	-10.8069
นฺธการ	-10.8069
มาตุ	-10.8069
▁รสํ	-10.807
ฎิ	-10.8071
▁๑๔๗	-10.8074
เณฺห	-10.8077
▁อุปาสกา	-10.8078
▁พฺราหฺมเณ	-10.8078
▁วิตฺถาโร	-10.8082
คเตน	-10.8082
▁ปริปูเรติ	-10.8082
▁อนิทสฺสนอปฺปฎิ	-10.8082
▁มิตฺตา	-10.8082
ปุปฺผํ	-10.8083
▁ยาวเทว	-10.8083
ปญฺจก	-10.8085
▁ราชคหํ	-10.8085
▁อธิวจน	-10.8085
▁ภวิสฺสามิ	-10.8086
▁สงฺฆิก	-10.8087
▁มกฺข	-10.8088
▁เวร	-10.8094
▁อปฺปหีน	-10.8095
▁ปหีนํ	-10.8098
▁วุเตฺตปิ	-10.8098
คิริ	-10.8101
สมฺปยุโตฺต	-10.8102
▁อามส	-10.8104
▁ปหาตพฺพสฺส	-10.8106
นฺตสฺสาติ	-10.8106
▁สมฺปชานการี	-10.8107
▁โยคินา	-10.8107
ติฎฺฐ	-10.8107
ยเต	-10.811
ิสฺสร	-10.811
▁วิภเงฺค	-10.8114
▁โสตาปตฺติมคฺค	-10.8115
▁สหชาโต	-10.8117
คฺคหเณ	-10.8119
▁ลกฺขณานิ	-10.812
▁อุปฺปชฺช	-10.812
▁ธี	-10.812
ภูมิํ	-10.8122
▁อารกา	-10.8122
▁อรหติ	-10.8123
▁นิโรเธ	-10.8123
▁รูปี	-10.8127
เชน	-10.8128
▁กิเลเสหิ	-10.8128
▁อญฺญาต	-10.8129
โลเป	-10.813
▁ยุทฺธ	-10.8132
▁สมฺปตฺติํ	-10.8135
▁ตทุภย	-10.8138
▁สุทฺธิํ	-10.814
ปม	-10.814
พหุล	-10.8142
▁เตลํ	-10.8142
▁อนนฺตรํ	-10.8144
▁โผฎฺฐพฺพ	-10.8146
▁คนฺตพฺพํ	-10.8146
ิยมานํ	-10.8146
▁เท	-10.8148
▁มาตลิ	-10.8148
เธยฺย	-10.8149
สสฺส	-10.815
▁เปเสตฺวา	-10.8155
▁ทหโร	-10.8155
ชฺชา	-10.8156
ตเว	-10.8157
▁วทมาโน	-10.8157
▁สมาโส	-10.8157
▁ชานโต	-10.816
▁พนฺธนํ	-10.8161
▁เวรํ	-10.8162
▁อนฺตํ	-10.8162
มนฺท	-10.8164
▁สํสรโนฺต	-10.8165
▁ทีฆํ	-10.8166
เนวาติ	-10.8168
▁มาคธ	-10.817
ยานํ	-10.8172
พฺภนฺตเร	-10.8173
▁สเมติ	-10.8174
โสตํ	-10.8175
มูลกา	-10.8181
▁กนฺตา	-10.8185
▁อยุตฺต	-10.8187
▁นทิํ	-10.819
กนวิปากธมฺมธโมฺม	-10.819
▁อุปรูปริ	-10.819
▁พฺยากเรยฺย	-10.819
วิรุทฺธ	-10.8191
วุฎฺฐ	-10.8192
สาม	-10.8196
▁อารกฺข	-10.8197
▁ปญฺจโม	-10.8199
▁อฆ	-10.82
▁อนุโมท	-10.8201
▁โธวิตฺวา	-10.8201
▁วิวฎ	-10.8202
วิร	-10.8207
คมฺภีร	-10.8207
นฺตเสฺสว	-10.8208
▁สามี	-10.8208
วิปากา	-10.821
๑๑	-10.8212
▁อุคฺค	-10.8212
ตพฺพนฺติ	-10.8214
▁ปญฺจมี	-10.8217
สนฺนิสฺสิต	-10.8217
▁ตโม	-10.8219
▁นินฺท	-10.822
▁เอยฺย	-10.8221
วิทู	-10.8222
สีห	-10.8227
ปเญฺห	-10.8228
▁ญาณานิ	-10.8228
▁มุนี	-10.823
สงฺขต	-10.8231
▁อเวจฺจปฺปสาเทน	-10.8232
▁อิตฺถตฺตายา	-10.8232
▁โพชฺฌเงฺค	-10.8232
▁ปทุมํ	-10.8233
▁อญฺญตเรน	-10.8233
▁ภิโยฺยภาวาย	-10.8233
▁นาปรํ	-10.8233
▁ตทหุ	-10.8235
ตฺวาติ	-10.8236
ตุเมฺห	-10.8239
สรณํ	-10.8239
▁สมฺพุทฺธ	-10.824
เทน	-10.8243
วินาส	-10.8244
▁ธุร	-10.8244
▁ภิกฺข	-10.8248
▁ฐปิตา	-10.8249
มาปชฺช	-10.8252
เณฺฑ	-10.8253
▁อุชุํ	-10.8254
สฺสามีตินฺทฺริยํ	-10.8259
กมฺมา	-10.8259
▁สาวเก	-10.826
▁อสญฺญ	-10.8261
มธิ	-10.8261
▁มิสฺส	-10.8262
▁การ	-10.8263
สนฺ	-10.8264
▁สามเณร	-10.8264
ปตี	-10.8264
▁สหสฺสานิ	-10.8265
▁ปริยาปุณ	-10.8265
▁สตตํ	-10.8266
กิตฺติ	-10.8267
▁รูปกฺขนฺธ	-10.8268
▁สทฺธิวิหาริก	-10.8269
▁ติพฺพ	-10.8272
▁๑๔๖	-10.8273
วุฎฺฐิ	-10.8274
▁อมจฺจ	-10.8275
ตฺตี	-10.828
ฺต	-10.8281
▁หิริ	-10.8283
▁โปโส	-10.8284
▁วิจิน	-10.8284
โคตฺต	-10.8284
▁ปชฺช	-10.8285
สงฺขาโร	-10.8287
▁วายม	-10.8287
▁วิจิกิจฺฉาสหคเต	-10.8287
รตฺตํ	-10.8287
โวฺห	-10.8288
▁ชายเต	-10.8288
ยนฺตา	-10.8289
▁โทสา	-10.829
▁สมุเจฺฉท	-10.8292
▁สิกฺขิตพฺพ	-10.8293
▁วุฎฺฐ	-10.8294
▁อตุล	-10.8294
▁รเส	-10.8295
ุปค	-10.8296
▁กริสฺสติ	-10.8298
▁วุฎฺฐาติ	-10.83
สํกิเลส	-10.8304
สภาวํ	-10.8304
มรณ	-10.8305
▁ตุจฺฉ	-10.8306
▁คตาฯ	-10.831
▁เถรานํ	-10.831
▁เสนาปติ	-10.8312
▁ผนฺท	-10.8313
▁สมฺปาเท	-10.8315
วาริ	-10.8318
▁ปโกฺกสาเปตฺวา	-10.8318
ิตฺถาติ	-10.8319
▁สมนุปสฺสามิ	-10.832
▁พหุวจน	-10.8321
▁คนฺถา	-10.8325
▁ทิสาสุ	-10.8326
โสก	-10.8327
▁ปกฺขิตฺต	-10.8328
▁คุตฺต	-10.8328
าภาวา	-10.8331
สหเสฺสหิ	-10.8331
▁อนุญฺญาต	-10.8334
▁อภิชาน	-10.8335
▁สณฺห	-10.8337
ตายฯ	-10.8337
▁ชหิตฺวา	-10.8338
ภูตาย	-10.8338
▁อทฺธานํ	-10.8339
▁อโทโส	-10.834
พาหุ	-10.834
▁เตช	-10.834
ปเตฺต	-10.8342
▁ภุตฺวา	-10.8344
▁ปริหาย	-10.8344
ภาวาย	-10.8345
▁โมโหฯ	-10.8345
ริโต	-10.8348
▁สเหตุกํ	-10.8354
าทีนมฺปิ	-10.8357
ปุคฺคเล	-10.8357
▁ปริญฺญ	-10.836
▁สโมฺมทนียํ	-10.836
▁นกมฺมปจฺจยา	-10.836
▁ภทฺร	-10.8361
วิสฺสชฺชน	-10.8361
ายา	-10.8361
สมฺปชญฺญ	-10.8362
▁ปาปกมฺม	-10.8363
วินิจฺฉย	-10.8363
▁ปุญฺญกมฺม	-10.8364
▁วิหารสฺส	-10.8366
หตฺถา	-10.8366
▁วตฺตุ	-10.8366
▁กฎตฺตารูปานํ	-10.8366
๑๒	-10.8369
▁ปุถู	-10.8369
▁สพฺพกาลํ	-10.8371
▁อหุฯ	-10.8371
▁อโหสี	-10.8371
เอกํ	-10.8372
▁วิการ	-10.8372
▁อาโรห	-10.8376
▁รตนตฺตย	-10.8376
ริโย	-10.8378
▁อรหนฺตานํ	-10.8382
▁ฐเปสิฯ	-10.8383
▁ปริปูเร	-10.8384
รเณน	-10.8388
วิธานํ	-10.8391
▁นาวํ	-10.8392
▁อวิชฺชาปจฺจยา	-10.8394
สุร	-10.8394
มโนวิญฺญาณธาตุ	-10.8396
▁ทุติเยน	-10.8396
อิเจฺจต	-10.8399
▁สารณียํ	-10.84
▁วิน	-10.84
ทสฺสเน	-10.8401
▁ฉารตฺตํ	-10.8404
▁ลป	-10.8404
▁อนฺติม	-10.8405
▁ธารยามี	-10.8405
▁จกฺกํ	-10.8406
▁สหตฺถา	-10.8406
ลภ	-10.8407
▁อเปกฺข	-10.8407
วิญฺญตฺติ	-10.8407
วฺหย	-10.8408
สหคต	-10.841
▁นวม	-10.841
▁ลกฺข	-10.8411
▁๑๖๐	-10.8411
กปฺปิย	-10.8413
ปริสาย	-10.8414
▁วิสฺสาส	-10.8415
▁ตณฺฑุล	-10.8417
ปตฺตี	-10.8418
▁อนิยโต	-10.8421
▁ฉนฺทราค	-10.8422
▁หิทํ	-10.8422
▁ปรกฺกม	-10.8423
โมกฺข	-10.8423
▁อิมาหิ	-10.8423
าปิต	-10.8423
▁ปุริเส	-10.8424
▁กโรตี	-10.8425
▁วิจาร	-10.8427
▁วิญฺญาเป	-10.8428
▁อนุปฺปนฺนสฺส	-10.8428
คุเณน	-10.8429
▁โอป	-10.8433
▁อุปาทานวิปฺปยุ	-10.8433
▁อคฺคํ	-10.8434
ิตาย	-10.8434
▁ภวตีติ	-10.8435
▁อวสฺสํ	-10.8436
▁คนฺธา	-10.8436
▁มิโตฺต	-10.8437
ปฺผล	-10.8438
▁อนฺน	-10.8443
สมฺปยุตฺตกานญฺจ	-10.8446
▁อาทิกมฺมิกสฺสา	-10.8446
▁อาทิย	-10.8447
มํฯ	-10.8448
▁เสโกฺข	-10.8448
สิปฺป	-10.8449
าราโม	-10.8451
▁วิสฺสเชฺชตฺวา	-10.8453
อปเรหิปิ	-10.8454
▁๑๔๙	-10.8455
▁นปุํสเก	-10.8457
▁คหิตาฯ	-10.8457
ขี	-10.846
▁สงฺฆาทิเสส	-10.8463
▁ปริภุญฺชติ	-10.8466
โมฺม	-10.8471
▁ปถวิยา	-10.8472
ทีเป	-10.8474
▁ปญฺญเตฺต	-10.8474
▁วิญฺญาเณ	-10.8476
ปเร	-10.8476
▁สิว	-10.8477
▁อาสุํ	-10.8478
▁อาลปติฯ	-10.8478
▁สุทฺธาวาส	-10.8479
▁อนุญฺญาตํ	-10.8479
▁ลีน	-10.8479
▁การเณ	-10.848
▁สจกฺขุกาน	-10.848
▁โล	-10.8482
มาโร	-10.8484
▁ภาโร	-10.8488
พโทฺธ	-10.8488
▁ชีวํ	-10.8489
▁มหาสมุเทฺท	-10.8491
▁นิจฺฉ	-10.8499
▁ครุกํ	-10.8503
เวธ	-10.8504
▁ทาร	-10.8509
▁ปุตฺตทาร	-10.8513
▁สนฺนิปาต	-10.8513
▁วินฺทติ	-10.8514
▁อิเจฺจว	-10.8515
รโณ	-10.8516
▁กถิโต	-10.8519
▁สรา	-10.8519
▁เอกเทส	-10.852
▁อุทย	-10.8522
▁สีลานิ	-10.8522
▁อรหตฺตผล	-10.8523
เขตฺต	-10.8525
▁ภาชน	-10.853
กาโรฯ	-10.8531
▁อิธาติ	-10.8532
ฎีกา	-10.8532
▁มานานุสยํ	-10.8533
▁นิคฺคณฺห	-10.8533
▁สาสวา	-10.8535
▁สกฺกจฺจ	-10.8535
▁วิปสฺสี	-10.8536
มูลกํ	-10.8536
วิมุตฺติ	-10.8537
▁มหปฺผลํ	-10.8537
▁วีณา	-10.8537
▁พีชํ	-10.8539
ทูส	-10.8541
▁อาปชฺชตีติ	-10.8543
▁ทิฎฺฐิคตํ	-10.8545
▁ปฐโมฯ	-10.8546
▁ปริสุทฺธํ	-10.8547
ฎฺฐาเนสุ	-10.8549
▁วิวริตฺวา	-10.855
▁อุปชฺฌาโย	-10.855
▁สาทิยติ	-10.8551
▁อุตฺตริํ	-10.8551
▁อามสติ	-10.8552
▁ตทุภยํ	-10.8554
▁สุตฺตสฺส	-10.8555
▁๑๔๕	-10.8555
▁ทสสุ	-10.8555
▁เตสญฺจ	-10.8558
มุตฺตา	-10.856
▁เอกวจน	-10.8564
วิจาร	-10.8564
▁กุสลาฯ	-10.8566
วิภาโค	-10.8566
▁สมาปตฺติโย	-10.8568
ปฺปการ	-10.8569
▁ภวิตุํ	-10.8569
ขาท	-10.857
วาจโก	-10.8571
▁ปญฺจธา	-10.8572
ปริกฺขาร	-10.8572
▁กตร	-10.8574
▁กตาธิกาโร	-10.8577
อาสโว	-10.8578
โวหาโร	-10.858
▁นยน	-10.8581
▁ภุช	-10.8584
ิเกหิ	-10.8584
▁๑๕๗	-10.8586
▁สฺวายํ	-10.8587
▁เวสฺสนฺตร	-10.8597
▁ปญฺญํ	-10.8599
กรณํฯ	-10.86
ชล	-10.86
านิสํส	-10.86
ตุกามา	-10.8602
▁อุเปกฺขาสหคตํ	-10.8602
ปริยาปนฺนํ	-10.8603
▁จณฺฑ	-10.8605
▁ปาเต	-10.8606
▁อวหร	-10.8607
▁รถํ	-10.861
▁พหุสฺสุตา	-10.861
ทสฺส	-10.8613
▁ชิวฺหาย	-10.8613
▁ฆาเต	-10.8615
▁วิโมกฺขา	-10.8616
▁เวธ	-10.8619
▁นุปฺปชฺชตีติ	-10.8621
▁ทสฺสิตํ	-10.8621
▁สมาคโม	-10.8624
▁อาปนฺน	-10.8625
มานสา	-10.8625
▁ธาว	-10.8627
อาหาร	-10.8627
สโว	-10.8628
สงฺขาตาย	-10.8629
▁อนฺว	-10.8631
▁กาตุ	-10.8632
ิโนฺท	-10.8633
ลาพุ	-10.8634
▁อเตฺถน	-10.8637
จรณ	-10.8638
▁ลุทฺท	-10.864
ชโน	-10.864
เวทน	-10.8643
▁เวทน	-10.8645
▁อปจฺจ	-10.8646
▁อิตฺถ	-10.8648
▁ปกิณฺณก	-10.8648
▁เวเนยฺย	-10.8649
▁สุเตฺตน	-10.865
▁วตฺตติฯ	-10.8652
ทิสฺส	-10.8653
ภาเวเนว	-10.8654
หทย	-10.8654
เสโน	-10.8656
▁อุเป	-10.8657
▁คณฺหถา	-10.8658
สามเณร	-10.8665
▁๑๕๓	-10.8666
▁อสม	-10.8668
▁ชานาสิ	-10.8668
▁๑๕๔	-10.8673
▁๑๕๙	-10.8673
▁อโหสีติ	-10.8673
▁ฉฎฺฐํ	-10.8673
▁รชต	-10.8674
▁นิปต	-10.8676
โวหาเรน	-10.8677
▁ปเภท	-10.8679
▁ปารมิโย	-10.8679
▁อารทฺธวีริโย	-10.8681
▁วิวาโท	-10.8682
▁คารว	-10.8683
▁คิลานสฺส	-10.8686
▁อปฺปหาย	-10.8687
▁ทุติยชฺฌาน	-10.8688
เอกนวุติ	-10.8689
ปาโล	-10.869
สฺสามา	-10.869
▁สํวณฺณนา	-10.8691
▁ภโพฺพ	-10.8692
▁อปเน	-10.8693
สิร	-10.8693
▁พฺยญฺชเน	-10.8695
▁สมคฺคา	-10.8695
โกฎิโย	-10.8696
ปฎิพทฺธ	-10.8703
รหิตํ	-10.8705
ุท	-10.8706
▁ติเฎฺฐยฺย	-10.871
กณฺฑํ	-10.871
▁รูปาวจรา	-10.8711
▁เนตฺติ	-10.8712
ตฺถิโก	-10.8712
▁ภุสํ	-10.8712
▁ลพฺภนฺติ	-10.8712
นามโก	-10.8712
▁ถินมิทฺธ	-10.8713
วาเทน	-10.8714
สญฺจ	-10.8714
เรติ	-10.8715
านุปสฺสนา	-10.8715
▁รโสฺส	-10.8717
▁รุกฺขสฺส	-10.8717
ลาเภ	-10.8718
ปจฺจุปฎฺฐานา	-10.8719
▁นิปาโต	-10.8719
านุสฺสติ	-10.872
มุฎฺฐิ	-10.8721
▁ตทุป	-10.8721
▁อาคเม	-10.8721
▁๑๕๕	-10.8722
▁ปหียติ	-10.8722
ตสฺมิํ	-10.8723
▁๑๕๑	-10.8724
▁นิรนฺตรํ	-10.8725
▁จตุธา	-10.8726
ปาจิตฺติย	-10.8727
▁ธร	-10.8731
▁ปีฐ	-10.8731
ตโพฺพติ	-10.8731
▁มหปฺผล	-10.8731
▁มชฺฌตฺต	-10.8732
▁มุฎฺฐิ	-10.8733
อโตฺถ	-10.8734
ปฎฺฐาน	-10.8737
▁ชนปเท	-10.8737
▁อทฺธาน	-10.8738
รํสิ	-10.874
สมาปตฺติยา	-10.8742
▁สิเนห	-10.8742
ตฺตานํ	-10.8743
▁ปฎิปฺปสฺสทฺธิ	-10.8743
▁อวิชฺชานุส	-10.8744
▁คจฺฉาม	-10.8744
▁ปฎิปชฺชิตพฺพ	-10.8746
าคม	-10.8747
วํเส	-10.8748
▁สมฺปรายิก	-10.8748
▁จตุรงฺค	-10.8748
▁นิกฺขิตฺต	-10.8748
ยานิ	-10.875
▁อาวส	-10.8752
ญฺญุ	-10.8753
▁ปุพฺพณฺหสมยํ	-10.8753
▁หต	-10.8755
▁อริยมโคฺค	-10.8756
▁ธมฺมาภิสมโย	-10.8756
▁ตาที	-10.876
ลาป	-10.876
▁อปฺปณิหิต	-10.876
▁อยฺยา	-10.8762
สฺมิญฺจ	-10.8763
▁ขีรํ	-10.8764
▁คหเณ	-10.8768
กฎ	-10.8768
▁สิยุํ	-10.8768
▁กมฺป	-10.8769
ปาฐ	-10.8771
▁อาทิสเทฺทน	-10.8772
คห	-10.8775
▁นิพฺพิ	-10.8777
▁ปวารณาย	-10.8781
▁ชนสฺส	-10.8783
มธุ	-10.8783
▁ทิย	-10.8784
▁สงฺขาเรสุ	-10.8785
▁มุทิตา	-10.8786
ินฺทฺริยา	-10.8787
วิปาโก	-10.8789
▁ชิต	-10.879
▁วิสฺสชฺช	-10.8791
▁เยนายสฺม	-10.8791
▁สตฺตมํ	-10.8791
▁อตีตารมฺมณ	-10.8792
▁ปํสุกูล	-10.8792
ูร	-10.8794
ทาส	-10.8794
▁นิฎฺฐา	-10.8794
สิข	-10.8794
ธาเร	-10.8796
▁อโลภ	-10.8797
สญฺญาเวทยิตนิโรธ	-10.8798
▁ยถาภตํ	-10.8798
รสฺส	-10.8799
▁สุญฺญํ	-10.8799
ปฎิปาฎิยา	-10.8799
▁ภิกฺขูสุ	-10.8801
▁ปริวเตฺตตฺวา	-10.8804
ิตพฺพาฯ	-10.8805
▁สุธา	-10.8805
▁๑๕๘	-10.8807
ปฺปจฺจย	-10.8807
▁อุฎฺฐหิตฺวา	-10.8808
▁โลหิตก	-10.8809
ิตฺวาฯ	-10.881
าคต	-10.8811
ภูตานํ	-10.8811
▁ทาเน	-10.8815
▁อุปสมฺปท	-10.8816
▁จกฺขุธาตุ	-10.8816
▁เญยฺย	-10.8817
▁ปรินิพฺพุเต	-10.882
▁ปวิสติ	-10.8822
▁อหิ	-10.8823
ปพฺพเต	-10.8825
▁เมตํ	-10.8825
▁สงฺฆาทิเสสา	-10.8828
สนฺท	-10.883
▁อิทฺธิวิธ	-10.8831
▁กุกฺกุฎ	-10.8832
▁วิญฺญาณปจฺจยา	-10.8832
▁ปริเยสติ	-10.8832
าเนวฯ	-10.8834
▁อญฺญมฺปิ	-10.8837
▁ตตฺราปิ	-10.8837
เมฺม	-10.8838
ียํ	-10.8841
เทสนาย	-10.8841
▁คจฺฉโต	-10.8844
▁ภิกฺขา	-10.8846
▁อวิชฺชมาน	-10.8848
▁ปฎิกฺขิปิตฺวา	-10.8851
▁ปุนทิวเส	-10.8853
สีเล	-10.8853
วเส	-10.8854
ยิํสุ	-10.8854
▁ปุม	-10.8855
▁๑๖๕	-10.8855
▁กามคุณา	-10.8857
▁สรณคมน	-10.8857
▁อสมฺ	-10.8858
นานตฺตํ	-10.8858
▁ทุสฺสีโล	-10.8858
▁มหลฺลก	-10.8858
▁ผุโฎฺฐ	-10.8859
▁สิรี	-10.8862
ยนฺตีติ	-10.8863
▁สมาทิย	-10.8863
กณฺฑ	-10.8865
สโนฺต	-10.8866
▁สทฺธมฺมํ	-10.8866
▁สุโญฺญ	-10.8867
▁วิญฺญาณญฺจายตนํ	-10.8867
าคาเร	-10.8868
▁เทวานมินฺท	-10.8868
▁นิหีน	-10.8869
▁อุปคโต	-10.8871
▁มหเนฺต	-10.8872
สุขาย	-10.8874
▁คว	-10.8875
▁สมาทินฺน	-10.8875
นข	-10.8875
▁เทถ	-10.8878
▁สงฺกปฺป	-10.8879
▁ฆเฎฺฎ	-10.8882
สมฺปทาย	-10.8883
▁เทวโลก	-10.8885
▁นวุติ	-10.8885
เมตฺวา	-10.8885
▁ญาโต	-10.8887
▁นิกฺขิโตฺต	-10.8888
▁ลีนตฺถปฺปกาสนา	-10.8888
▁อโชฺฌหาเร	-10.8888
▁ทนฺธาภิญฺญํ	-10.8888
▁มหานุภาโว	-10.8888
▁หุ	-10.8891
ปต	-10.8891
โลจน	-10.8893
▁เจโตวิมุตฺติ	-10.8896
มกาสิฯ	-10.8896
▁อคาร	-10.8897
▁สเนฺตปิ	-10.8899
▁สีมํ	-10.89
▁อชฺฌาสย	-10.89
▁โจทนา	-10.8902
ทู	-10.8905
มาคมฺม	-10.8905
▁ปาว	-10.8905
▁อธิเปฺปตํฯ	-10.8908
▁อรหเตฺต	-10.8912
สโย	-10.8914
▁อาธาร	-10.8915
▁สมาธิํ	-10.8916
▁ฐา	-10.8917
เตฺถสุ	-10.8919
▁ภินฺทติ	-10.8919
▁ปาปิกา	-10.8919
▁อุสฺสาห	-10.892
▁รูเปน	-10.892
พฺพิ	-10.8921
สภาวตฺตา	-10.8921
▁สตฺถํ	-10.8923
▁ราธ	-10.8927
▁วินฺท	-10.8928
▁สจฺฉิกตา	-10.8929
▁เทเสสิ	-10.893
▁วินิ	-10.8932
▁จวิตฺวา	-10.8933
มตฺถิ	-10.8934
อว	-10.8935
▁เอโกว	-10.8935
▁ทสฺสิโตฯ	-10.8937
มิมํ	-10.8938
ทสฺสโน	-10.8938
ุกฺก	-10.8939
▁อาวฎฺฎนา	-10.8941
▁ตุลฺย	-10.8943
▁นาวาย	-10.8944
▁ผสฺสา	-10.8945
ตท	-10.8946
วิคฺคห	-10.8946
ปริยนฺตํ	-10.8948
▁วิปสฺสติ	-10.8953
▁นายโก	-10.8953
อิท	-10.8955
สาลาย	-10.8955
▁รา	-10.8955
สณฺฐิต	-10.8956
▁ปี	-10.8956
▁สงฺขา	-10.8956
▁คเณ	-10.8959
▁โวทาน	-10.8959
เตล	-10.8961
▁ปริปุณฺณํ	-10.8963
▁ฉฬภิญฺญา	-10.8964
▁อุปฺปชฺชมานํ	-10.8966
▁ผุเส	-10.8968
▁โภช	-10.8969
มาโนติ	-10.8969
สญฺญิตา	-10.8971
ทุกฺกฎ	-10.8975
▁ปณ	-10.8978
▁อปฺปหีนา	-10.8978
▁เนวเสกฺขนาเสกฺข	-10.8978
วิปฺผาร	-10.8978
▁อฎฺฎ	-10.8979
▁อรหตฺตมเคฺคน	-10.8979
สมฺปเนฺน	-10.898
▁ปุริมพุเทฺธ	-10.8981
▁ธมฺมิก	-10.8981
▁ปสฺสตี	-10.8981
▁อมฺม	-10.8983
วินิมุตฺต	-10.8984
▁มญฺญถ	-10.8986
▁วิรุทฺธ	-10.8987
ิโกติ	-10.8989
▁อาคเต	-10.899
▁ฆเฎ	-10.8992
นาฬิ	-10.8992
▁สตินฺทฺริยํ	-10.8993
▁อุยฺยาน	-10.8994
▁อตฺถวณฺณนา	-10.8996
▁อคฺคสาวกา	-10.8996
นิสฺสเย	-10.8997
▁หทเย	-10.8998
▁วิสฺสชฺชน	-10.8998
สมนฺนาคต	-10.8999
ยาจ	-10.9
▁นาเส	-10.9002
▁สภาโว	-10.9003
ชีวิตินฺทฺริยญฺจ	-10.9003
▁อุปฎฺฐาก	-10.9004
▁วาทํ	-10.9005
▁ผเล	-10.9006
▁นิทฺทิฎฺฐ	-10.9007
▁ธมฺมเทสนาย	-10.9007
▁ปุรํ	-10.9007
▁เกนเฎฺฐน	-10.9009
▁คมิสฺส	-10.901
▁ตส	-10.901
สตฺตา	-10.9011
ตโย	-10.9011
นามํ	-10.9012
▁หญฺญ	-10.9012
▁ขีณาสวา	-10.9012
▁โยเช	-10.9012
โฆส	-10.9015
คเม	-10.9016
▁คุณว	-10.9019
สมาจาร	-10.9021
พนฺธเนน	-10.9021
▁ทิเนฺน	-10.9021
▁สุว	-10.9023
▁ฉพฺพคฺคิเย	-10.9024
▁เวมติกา	-10.9026
▁อาวฎฺฎ	-10.9026
▁๑๖๑	-10.9028
เจฺฉทน	-10.9029
▁สุคนฺธ	-10.9033
เมฺป	-10.9034
ตฺถํฯ	-10.9034
ภูเตสุ	-10.9035
▁ตุฎฺฐ	-10.9036
▁อฎฺฐมํ	-10.9036
ปริยนฺต	-10.9036
รุจิ	-10.9037
▁ฆฎฺฎ	-10.9038
▁สํสย	-10.9039
▁อปรา	-10.904
ิสฺสสี	-10.9041
▁อานิสํส	-10.9042
ามหํ	-10.9043
วิญฺญาเณ	-10.9046
การิ	-10.9046
▁อชฺฌตฺติก	-10.905
โรธ	-10.9051
▁ทุติโยฯ	-10.9054
นิยาเมน	-10.9055
▁เอกจฺจ	-10.9057
▁สรูป	-10.9059
กฺขนฺธก	-10.9059
▁โคณ	-10.9059
จกฺขู	-10.906
ตลํ	-10.9061
▁เสเสสุ	-10.9062
▁นิยม	-10.9064
▁ธา	-10.9064
▁การิต	-10.9064
▁โพธิยา	-10.9066
สาธ	-10.9067
▁อุมฺมตฺตกสฺส	-10.907
▁สรโณ	-10.9072
▁ตทนนฺตรํ	-10.9072
▁ทุกฺขปฎิปทํ	-10.9073
สหิต	-10.9074
▁กายวิญฺญาณํ	-10.9077
▁เสเสสุปิ	-10.9078
▁เขมํ	-10.9079
▁สโกฺกนฺติ	-10.9082
▁พลิ	-10.9083
▁โลกิยํ	-10.9083
▁อายสฺมโนฺต	-10.9085
วาปิ	-10.9087
▁สเงฺขป	-10.9091
วิธิํ	-10.9092
▁วิตกฺกสฺส	-10.9097
▁สุนิ	-10.9099
▁วิกฺก	-10.9099
▁โจทิโต	-10.91
▁ปริโยสานํ	-10.91
สมุทยํ	-10.9102
▁อาสวสมฺปยุตฺต	-10.9103
กฺขโย	-10.9107
▁อฎฺฐาสิ	-10.9113
▁กโรนฺตีติ	-10.9115
▁ทิฎฺฐา	-10.9115
▁อริยสฺส	-10.9115
▁ฐปิโต	-10.9116
▁อุทฺธจฺจสหคเต	-10.9116
▁วิสโย	-10.9117
▁อวิตถ	-10.9117
▁นิคเม	-10.9119
ลีน	-10.9121
▁อปฺปวตฺติ	-10.9125
วิเสเส	-10.9126
▁นาโถ	-10.9127
ลฺลิ	-10.9128
▁กลาป	-10.9129
▁ติตฺถ	-10.913
▁สมนุปสฺสติ	-10.913
▁อิตฺถิํ	-10.9131
▁กรุณาย	-10.9131
▁อาหํสุฯ	-10.9132
สํสฎฺฐ	-10.9132
▁จิตฺตุปฺปาท	-10.9133
▁ภาเสยฺยฯ	-10.9134
▁ปฎิคฺคหิต	-10.9138
อวิชฺชา	-10.9138
▁เอกจฺจํ	-10.9141
▁อารมฺมณปจฺจโย	-10.9143
▁วธิตฺวา	-10.9144
▁กลิ	-10.9144
สณฺฐาน	-10.9146
วิเสเสน	-10.9147
จริโต	-10.9149
พิ	-10.9151
เนติ	-10.9151
เตฺถรอปทานํ	-10.9153
▁รุกฺขมูเล	-10.9154
▁โปราณา	-10.9159
▁โมร	-10.9159
▁ปฎินิสฺสชฺช	-10.9163
คตสฺส	-10.9163
▁อากาเสน	-10.9164
▁ปญฺหาวาโร	-10.9164
▁ทนฺธ	-10.9165
▁สโญฺญชนวิปฺปยุ	-10.9166
▁กุลปุโตฺต	-10.9166
▁กเมน	-10.917
▁ภคินิ	-10.917
าคโม	-10.9174
▁อุปฺป	-10.9174
▁สปฺปุริโส	-10.9178
▁วุตฺตปฺปการ	-10.9178
ปุเรชาต	-10.9178
▁ปริวุโต	-10.9178
คนฺตฺวา	-10.9179
▁ธาเรยฺย	-10.9179
▁วาตา	-10.9179
ูปคา	-10.918
วสี	-10.9185
▁ตถาคโตฯ	-10.9189
▁๑๖๗	-10.9189
▁ปรามส	-10.9192
▁ลพฺภา	-10.9194
วเชฺช	-10.9195
▁วลฺลิ	-10.9195
ปมาณ	-10.9195
▁เภริ	-10.9197
อญฺญมญฺญปจฺจเยน	-10.9198
▁ปวตฺติยา	-10.9199
โมจ	-10.92
ฆเร	-10.9207
▁จตุโวการ	-10.9209
สจฺฉิกิริยาย	-10.9209
▁ปมาโท	-10.9209
▁สปฺปีติก	-10.9209
▁กายคตาสติ	-10.9209
▁วณ	-10.9209
เนตํ	-10.921
วิสุทฺธ	-10.921
▁มติ	-10.9211
▁อสงฺขตํ	-10.9212
▁ปีติสุขํ	-10.9215
▁อิฎฺฐา	-10.9217
▁วิชาย	-10.9217
กตมญฺจ	-10.9217
▁ฎ	-10.9218
เหตุกํ	-10.9219
ยุํ	-10.922
มตํ	-10.922
คํ	-10.9221
▁ฉาเท	-10.9221
สมฺภ	-10.9226
▁อวีจิ	-10.9228
พเนฺธ	-10.923
จฺจา	-10.9231
สตฺตานํ	-10.9231
▁อลงฺกต	-10.9232
▁๑๕๒	-10.9238
เมส	-10.9238
▁โอฬาริกํ	-10.9241
▁ขิปฺป	-10.9243
▁อนุญฺญาตา	-10.9243
▁อญฺญตรา	-10.9244
▁อธิคมาย	-10.9244
▁ติรจฺฉานโยนิ	-10.9249
▁อภาวโตฯ	-10.925
▁วจ	-10.925
หากาเรหิ	-10.9252
▁นิยฺยาน	-10.9254
สิโต	-10.9255
▁วิภาเว	-10.9256
▁ปคฺคณฺห	-10.9257
▁อธิโมกฺข	-10.9257
▁นกฺขมติ	-10.9257
ธํ	-10.9258
▁ทุกฺขสมุทโย	-10.926
▁สมาปชฺชติ	-10.926
▁ปฎิฆานุสยํ	-10.9261
▁กมฺมปถ	-10.9264
▁กาโม	-10.9264
▁อาปชฺชิ	-10.9264
▁มหาภูตานํ	-10.9265
▁คโตติ	-10.9268
วเร	-10.9271
▁เสโสฯ	-10.9273
▁เวปุลฺลาย	-10.9273
▁จตุพฺพิธ	-10.9274
ทย	-10.9274
กาสา	-10.9277
กิร	-10.9278
สมฺภโว	-10.9279
▁สีม	-10.9283
▁ปโยชน	-10.9283
▁เอกจฺจสฺส	-10.9284
▁นิฎฺฐิโต	-10.9286
▁นิยตา	-10.9287
ภณ	-10.9288
▁เวทนาปจฺจยา	-10.9289
▁กายวจี	-10.9289
นยํ	-10.9291
ลงฺก	-10.9291
▁ลาภํ	-10.9291
▁สํส	-10.9292
▁ปสฺสิ	-10.9293
▁อุปาส	-10.9296
▁โฆส	-10.9296
อิเจฺจเต	-10.9296
นฺตสฺสฯ	-10.9298
▁ภิกฺขุสเงฺฆน	-10.9299
▁ทสพลสฺส	-10.9299
▁สรติ	-10.93
▁สมาหิโต	-10.93
▁โคป	-10.9302
โปฺป	-10.9302
▁ปาโต	-10.9302
กจฺจิ	-10.9302
▁อภาวิต	-10.9304
โณฺห	-10.9304
▁วิรชํ	-10.9306
▁ติติกฺข	-10.9309
านุสาเรน	-10.9309
▁อิทนฺติ	-10.931
มตฺติกา	-10.9311
โกฎิยา	-10.9312
▁ปญฺญตฺตา	-10.9313
▁เสน	-10.9313
▁อสฺสาส	-10.9314
▁ธารณ	-10.9316
สปฺป	-10.9319
▁พาหิรา	-10.9319
▁ปริกปฺป	-10.9321
▁ธมฺมสฺสวน	-10.9322
▁อุเปกฺขโก	-10.9323
▁ปารคู	-10.9324
▁วิร	-10.9324
ปุตฺตํ	-10.9324
สุญฺญ	-10.9325
านุวตฺต	-10.9326
สมฺมตา	-10.9326
▁ปริพฺพาชกา	-10.9328
▁นิกนฺติ	-10.9329
▁ปฎิปฺปสฺสมฺภ	-10.933
▁๑๖๒	-10.933
▁ทนฺตกฎฺฐ	-10.9331
▁หิสฺส	-10.9332
นตา	-10.9333
▁อุปปชฺชติ	-10.9333
▁อปฺปํ	-10.9334
▁ทุจฺจริต	-10.9335
ตฺตภาว	-10.9338
สีโห	-10.934
▁เยปิ	-10.9341
▁อนาสโว	-10.9342
▁ชาติโย	-10.9342
โยชนา	-10.9343
▁ปหาตพฺพเหตุกา	-10.9344
มฎฺฐ	-10.9344
▁โกฎฺฐาส	-10.9345
ตุกาเมน	-10.9346
▁คเณฺหยฺย	-10.9349
▁โสมนเสฺสน	-10.935
▁วิภาวนิยํ	-10.935
▁โภชนียํ	-10.935
▁โลโกติ	-10.9351
▁ปรินิพฺพุต	-10.9351
▁พโทฺธ	-10.9352
ปริจฺจาค	-10.9353
▁อายต	-10.9354
ปณีต	-10.9357
สเญฺจตนา	-10.9358
▁นิรตฺถก	-10.9359
▁ปาโมชฺชํ	-10.936
▁อิตรสฺส	-10.936
นีต	-10.9362
านุป	-10.9363
▁อคม	-10.9366
▁มนโส	-10.9366
▁ภาวน	-10.9367
ปุรํ	-10.9369
▁อาปชฺชิตฺวา	-10.9371
▁มนุญฺญ	-10.9373
▁ภวราคานุสยํ	-10.9373
สงฺคหิต	-10.9375
▁๑๗๔	-10.9378
▁สิวิ	-10.9378
▁สมนฺนาคโตติ	-10.9379
กาเย	-10.9381
วิย	-10.9384
▁มิคา	-10.9384
▁โยนํ	-10.9386
สีม	-10.9387
▁โธต	-10.9387
▁ปิฎฺฐิโต	-10.9389
อสุก	-10.939
วินฺท	-10.9391
ปาร	-10.9391
▁ปาริสุทฺธิ	-10.9392
▁อุปกฺกม	-10.9392
▁ขุร	-10.9393
▁คาถาฯ	-10.9393
▁วิทิตา	-10.9394
▁สมตฺถ	-10.9395
ิยนฺติ	-10.9395
▁สี	-10.9398
▁อภิเญฺญยฺยา	-10.9398
▁กลฺยาณมิตฺต	-10.9398
▁ตาวเท	-10.94
งฺคุ	-10.9401
รเส	-10.9402
▁ตติโยฯ	-10.9402
▁วิธิ	-10.9402
โยปิ	-10.9404
▁นิทฺทิฎฺฐา	-10.9404
ชีวิต	-10.9407
▁สาวตฺถิํ	-10.9409
▁ปลฺลงฺกํ	-10.9413
▁ปสตฺถ	-10.9415
▁วสนฎฺฐานํ	-10.9419
เฆ	-10.942
▁อธิวจนํ	-10.942
▁ทฎฺฐพฺพา	-10.9422
ปริมาณ	-10.9422
▁ปจฺฉิมา	-10.9423
าพาธ	-10.9426
▁กถย	-10.9426
ิตฺถิโย	-10.9429
▁จาติฯ	-10.9429
ิกฎฺฐปรมเตฺถนา	-10.9431
▁วาสํ	-10.9435
▁ฐิตตฺตา	-10.9436
▁ปาปกานํ	-10.9442
▁ภาวนาปาริปูริ	-10.9445
▁อิทญฺหิ	-10.9447
▁มหาโมคฺคลฺลาน	-10.9447
สุเขน	-10.9447
▁ญาณนฺติ	-10.9448
▁ลตา	-10.9448
สมาทาน	-10.9449
▁อนุปฺป	-10.9449
ินฺทฺริยานิ	-10.9449
▁ธมฺมานุปสฺสี	-10.9451
ปกฺขิ	-10.9452
▁๑๗๖	-10.9453
▁รูปธาตุ	-10.9453
▁ปเวเท	-10.9454
▁ชาคร	-10.9456
▁สีลาทิ	-10.9457
▁ทุกฺกรํ	-10.9461
วุทฺธิ	-10.9462
ปุเตฺตน	-10.9464
รหิโต	-10.9464
ทิวสโต	-10.947
ุเปกฺขา	-10.947
▁ยว	-10.9472
โกปิ	-10.9475
▁จเรยฺย	-10.9476
กรณโต	-10.9477
▁สุตวา	-10.9477
▁ริตฺต	-10.9477
สมตฺถ	-10.9477
สีติฯ	-10.9478
▁ปญฺจสต	-10.9479
▁กเรยฺยฯ	-10.948
▁จิโตฺต	-10.948
▁สลฺลเกฺข	-10.9481
ตฺตุ	-10.9481
▁มกฺกฎ	-10.9482
มหนฺต	-10.9483
▁ปาตุภาโว	-10.9483
▁สุญฺญโต	-10.9484
มิจฺฉา	-10.9485
▁อิตฺถิยํ	-10.9486
▁อาราเม	-10.9487
▁วิฆาต	-10.9488
▁๑๗๐	-10.9489
▁วีติสาเรตฺวา	-10.9493
▁วจนีโย	-10.9493
▁ปญฺจกฺขนฺธา	-10.9494
▁กามจฺฉโนฺท	-10.9494
▁ปทภาชเน	-10.9494
ทน	-10.9495
▁กามาวจรานํ	-10.9495
▁มุนินฺท	-10.9496
▁นิปโนฺน	-10.9497
▁สํโยชนํ	-10.9497
ปฺปวตฺติยา	-10.9497
▁สิกฺขํ	-10.9499
ปนา	-10.9503
านุปสฺสี	-10.9504
ปฺปมาเณ	-10.9504
กาเลปิ	-10.9505
วากฺย	-10.9506
รูปสฺส	-10.9507
▁ปาการ	-10.9508
▁เทเสตฺวา	-10.9508
นิยาม	-10.9509
▁กลห	-10.9509
ปฺปเทเส	-10.951
▁อนิจฺจตา	-10.9511
ทสฺสนวเสน	-10.9512
▁ปุจฺฉนฺติ	-10.9512
▁โสตาปตฺติผลํ	-10.9512
อกุสลํ	-10.9513
สมงฺคิโน	-10.9514
▁สตฺตสฺส	-10.9517
นิสฺสิโต	-10.9517
▁ปจฺจยํ	-10.9517
▁วิโนเท	-10.9517
▁ปาสาเท	-10.9517
ิยมาน	-10.9518
คมฺม	-10.9518
▁๑๖๙	-10.952
▁สติํ	-10.9522
▁ปโยโค	-10.9522
▁คนฺตโพฺพ	-10.9523
▁ปญฺญเปนฺติ	-10.9525
ิยาติ	-10.9526
▁ชีวติ	-10.9528
▁ภุตฺต	-10.9531
▁ภาวย	-10.9533
ภยา	-10.9534
▁สมฺมนฺติ	-10.9536
▁อริยสจฺจานิ	-10.9536
สุตฺตวณฺณนาย	-10.9538
ทายกเตฺถรอปทาน	-10.9539
ลาโภ	-10.954
▁๑๖๔	-10.9542
▁อุปลพฺภตีติ	-10.9542
▁ทิฎฺฐิโย	-10.9543
▁อุสภ	-10.9544
เยถ	-10.9544
▁สนฺนิปติตฺวา	-10.9545
▁วิญฺญุตํ	-10.9545
▁นิเทฺทเส	-10.9549
▁ลิขิตํฯ	-10.955
วธ	-10.9551
▁อทุกฺขมสุขา	-10.9551
สโทฺธ	-10.9552
โฆโส	-10.9552
▁วิราโค	-10.9553
อพฺยากโต	-10.9554
ปจฺจเวกฺขณ	-10.9555
๒๐	-10.9557
วจโน	-10.9557
▁มหาปุริโส	-10.956
านุกมฺป	-10.9561
ิมานิ	-10.9561
ปฺปภา	-10.9562
▁สนฺนิธิ	-10.9562
▁กโรนฺตี	-10.9564
ตุฯ	-10.9565
▁อนาสวา	-10.9568
▁ตาทิ	-10.9571
▁กายิก	-10.9575
▁สตานิ	-10.9575
▁กเปฺปติ	-10.9576
▁อปฺปตฺต	-10.9577
▁อิเจฺจวํ	-10.9578
▁โปกฺขรณี	-10.9579
▁สิกฺขาย	-10.9579
มาเนสุ	-10.958
มิต	-10.958
▁๑๗๙	-10.9582
วาเส	-10.9583
นฺตโร	-10.9587
▁ยาจิ	-10.9589
▁เกสญฺจิ	-10.9589
▁นิกฺขมฺม	-10.959
▁สลฺลป	-10.959
ฌ	-10.9591
▁คโนฺถ	-10.9591
▁โลกวิทู	-10.9591
▁สูป	-10.9593
▁กณฺฑ	-10.9595
สมฺมาทิฎฺฐิ	-10.9596
เยสุ	-10.9596
▁ติกิจฺฉ	-10.9597
ปโกฺข	-10.96
▁ปกฺขี	-10.9603
▁ยถารุจิ	-10.9603
▁อุทฺทิสิตฺวา	-10.9604
▁อนิยฺยานิก	-10.9604
▁ปาราชิกสฺส	-10.9605
▁สุขุมํ	-10.9606
▁ปาราชิกสฺสฯ	-10.9608
▁มโนวิญฺญาณํ	-10.9611
▁จรมาโน	-10.9612
▁คจฺฉนฺตีติ	-10.9617
ทฺธํ	-10.9618
▁รุห	-10.9618
▁อนาคามิ	-10.9619
▁ปิวิตฺวา	-10.9621
นนุ	-10.9621
▁วิปากสฺส	-10.9624
▁ผสฺสํ	-10.9626
▁ธมฺมเสนาปติ	-10.9629
▁เยว	-10.963
▁ปเจฺจกพุทฺธ	-10.9631
▁ปวิเวก	-10.9632
อป	-10.9634
▁อพฺยากตญฺจ	-10.9635
ทเส	-10.9636
▁คติยํ	-10.9636
▁สยมฺภู	-10.9637
▁๑๗๓	-10.9638
▁ลเภยฺย	-10.9639
▁กุสเล	-10.9639
เตฺตหิ	-10.964
▁โพธิสตฺตํ	-10.9641
▁ลเภถ	-10.9644
▁ฐเปตุํ	-10.9644
▁อสนฺต	-10.9645
วิสุทฺธิ	-10.9645
ตาว	-10.9645
▁มาตุกุจฺฉิ	-10.9645
จตุเกฺก	-10.9646
วุฎฺฐาน	-10.9646
▁นิพฺพเตฺตตฺวา	-10.9647
▁พุชฺฌนฺตีติ	-10.9647
▁กิส	-10.9647
▁หเตฺถหิ	-10.9648
▁สีลสฺส	-10.9648
ปาทินฺนุปาทานิยํ	-10.9648
โสมนสฺส	-10.965
▁ปรามาส	-10.965
วิปากํ	-10.9651
▁ปฎิจฺฉาเท	-10.9653
มุคฺค	-10.9654
▁วเทติ	-10.9655
▁๑๗๒	-10.9656
ปริส	-10.9656
นิเกฺขป	-10.9656
▁มญฺจปีฐ	-10.9658
สาขา	-10.9659
ทุพฺพล	-10.9659
▁ปจฺฉิเม	-10.9659
▁อุกฺกา	-10.9659
วิจาโร	-10.9661
ฎฺฐานานิ	-10.9662
▁กมฺมนิ	-10.9663
▁ภกฺข	-10.9663
ผโล	-10.9664
ปรา	-10.9665
▁นานาวิธ	-10.9666
▁ราชปุตฺต	-10.9666
▁ชนก	-10.9667
▁วสฺสสต	-10.9667
▁อีส	-10.9668
วีริยํ	-10.9669
▁ปชานาตี	-10.9671
ตติย	-10.9675
▁เช	-10.9675
จิตฺตานํ	-10.9675
ตฺตเย	-10.9677
▁อิทมสฺส	-10.9678
สาวก	-10.9678
▁๑๖๖	-10.9678
เวลาย	-10.968
ทารุ	-10.968
▁สยมฺปิ	-10.9681
กรณวเสน	-10.9681
▁อธิเปฺปตาฯ	-10.9681
ิยติ	-10.9683
ทาม	-10.9683
▁ทินฺนา	-10.9684
▁อุปคจฺฉ	-10.9684
▁วตฺถุนา	-10.9686
าจยคามินาปจยคามิ	-10.9686
▁คหปตโย	-10.9686
▁สมนฺนาคตตฺตา	-10.9686
ทูร	-10.9687
▁วิรชฺช	-10.9687
▁ปลฺลงฺก	-10.9688
โฎฺฐฯ	-10.9688
▁ชาตํฯ	-10.9689
▁มุสาวาทา	-10.9689
▁สุตฺตโนฺตติ	-10.969
▁สมุโทฺท	-10.9691
▁ปริจฺฉินฺทิตฺวา	-10.9692
ปนฺนา	-10.9692
สนฺน	-10.9695
▁ปตติ	-10.9696
▁ทฺวา	-10.9698
▁วิธา	-10.97
วิรหิโต	-10.97
▁กณ	-10.9703
▁นิธิ	-10.9703
นร	-10.9705
มตี	-10.9705
▁เววจนํฯ	-10.9706
▁คมฺภีโร	-10.9706
▁ยสฺสาติ	-10.9708
▁ภีโต	-10.971
เณยฺย	-10.9712
ถุ	-10.9713
▁ราชคห	-10.9714
▁อสฺมา	-10.9714
▁กณฺฎก	-10.9716
▁เสนํ	-10.9716
วิมานํ	-10.9717
อิจฺจ	-10.9718
นฺตราโย	-10.9719
▁อจฺฉริยํ	-10.972
▁สุปฺปติฎฺฐิต	-10.972
▁อุเปกฺขาสหคตา	-10.9721
▁อารมฺมณโต	-10.9723
▁อนุโภ	-10.9723
▁เอเตฺถว	-10.9725
▁อยนฺติ	-10.9726
▁วาร	-10.9727
▁สมาทาน	-10.9727
สยน	-10.9728
ิตฺถี	-10.9729
▁เฉทน	-10.9729
▁โถเม	-10.9731
▁ติรจฺฉานคต	-10.9731
ตฺถายฯ	-10.9732
▁ฆานายตนญฺจ	-10.9735
▁มชฺฌิโม	-10.9735
าหุ	-10.9736
▁อเวกฺข	-10.9736
โสธน	-10.9736
▁กงฺขติ	-10.9736
▁ครู	-10.9737
▁ปชหติฯ	-10.9741
▁ปจฺจเวกฺขิตฺวา	-10.9741
ณฺฐ	-10.9743
ปริสุทฺธ	-10.9743
▁อภาโว	-10.975
มูฬฺห	-10.9751
กฺกมน	-10.9752
อารมฺมณ	-10.9753
▁กามภว	-10.9754
นฺตสฺสาปิ	-10.9756
ปทวณฺณนา	-10.9757
▁อายาจ	-10.9761
▁ทฺวาเรสุ	-10.9762
สนํ	-10.9762
▁อนุปฺปาท	-10.9765
จฺฉิโนฺน	-10.9766
ปโยเค	-10.9766
▁๑๖๘	-10.9769
▁นาว	-10.977
▁มุคฺค	-10.977
▁นปุํสก	-10.9772
วิกปฺป	-10.9773
สทฺทานํ	-10.9773
โลห	-10.9774
ทุฎฺฐ	-10.9774
▁วิเน	-10.9775
ตฺตนฺติ	-10.9775
▁อรณํ	-10.9778
▁พฺรหฺมโลก	-10.9778
เปตํ	-10.9779
ฎฺฐกถายํ	-10.9779
ปการ	-10.9781
▁๑๗๕	-10.9782
▁สาวตฺถิ	-10.9783
▁ตุโฎฺฐ	-10.9784
▁ภวนฺตํ	-10.9784
▁ทาย	-10.9784
▁อธิฎฺฐานํ	-10.9785
ตีร	-10.9785
จตุตฺถ	-10.9786
▁คุฬ	-10.9787
▁อญฺญมญฺญสฺส	-10.9787
▁มหคฺฆ	-10.9788
▁ชานิ	-10.9789
นาว	-10.979
▁ชาตก	-10.9791
▁วตฺถานิ	-10.9791
ปฎิปนฺน	-10.9791
านุโยค	-10.9792
▁กปิ	-10.9792
▁ทิว	-10.9793
ปาราชิก	-10.9794
ายสฺมา	-10.9796
โกส	-10.9797
ยิตฺถ	-10.9797
▁สาตํ	-10.9797
ทานิ	-10.9798
▁๑๗๘	-10.9798
ทฺทิ	-10.9799
▁มโนทฺวาเร	-10.9799
▁ยุชฺฌ	-10.9799
▁สาสว	-10.98
▁อชิน	-10.9802
▁วตฺตนฺติ	-10.9807
▁อารมฺมเณสุ	-10.9808
▁อานนฺตริย	-10.9808
▁ปาริปูริยา	-10.9811
▁เอโกปิ	-10.9811
▁อตฺถปฎิสมฺภิทา	-10.9812
าปเน	-10.9813
โกว	-10.9816
▁รุจิ	-10.9819
อิตฺถิ	-10.9819
วต	-10.9822
▁ปฎิกฺกูล	-10.9825
▁ชาย	-10.9826
▁วชิร	-10.9826
▁พหุสฺสุต	-10.9831
▁สีท	-10.9832
▁สญฺญี	-10.9832
▁จกฺขุนฺทฺริย	-10.9833
▁กาลงฺกโต	-10.9835
▁มหาวีโร	-10.9836
วิหารี	-10.9836
▁อุคฺคเหตฺวา	-10.9838
▁มหพฺพโลฯ	-10.9838
ปุพฺพํ	-10.9839
▁อารมฺภ	-10.9841
▁ปูชิโต	-10.9841
▁อุยฺยานํ	-10.9841
วิเวก	-10.9843
โภเค	-10.9848
ฎฺฐิก	-10.9848
ปายาส	-10.9848
เชยฺย	-10.9849
▁อเปฺป	-10.9849
สุทฺธ	-10.9851
▁วิราคาย	-10.9851
▁อนุปาทาย	-10.9852
▁จาเว	-10.9852
▁อวสิฎฺฐ	-10.9855
▁เสวิตโพฺพ	-10.9857
▁ปฎิปตฺติยา	-10.9857
▁ตฺวมฺปิ	-10.9857
าสว	-10.9858
▁รุกฺขมูล	-10.9859
▁ขยํ	-10.9859
▁๑๘๑	-10.9862
ฉตฺต	-10.9863
▁ปฎิสญฺจิกฺขติ	-10.9865
▁อาปตฺตีติ	-10.9865
▁อาฆาต	-10.9865
วตฺถู	-10.9866
▁๑๘๔	-10.9866
▁โลกุตฺตโร	-10.9867
ปานํ	-10.9869
สเตฺต	-10.987
▁สีเล	-10.9871
▁ทิพฺพํ	-10.9872
▁ปริชาน	-10.9873
▁อาจยคามิ	-10.9874
▁มตาฯ	-10.9876
▁อิสฺสริย	-10.9876
▁โคจโร	-10.988
▁กปฺปติ	-10.9881
▁ชว	-10.9881
ุปฺปาโท	-10.9881
อิจฺจาทิฯ	-10.9884
▁อารทฺธ	-10.9885
▁เอกตฺถ	-10.9885
▁ยาจิตฺวา	-10.9886
โมท	-10.9886
▁สหธมฺมิก	-10.9886
▁อเคฺค	-10.9886
▁ปุริเม	-10.9888
▁ปภว	-10.9889
คิลาน	-10.989
าทีติ	-10.989
โลกุตฺตร	-10.9893
▁สีลสมฺปโนฺน	-10.9893
▁หีนา	-10.9893
▁คนฺตฺวาน	-10.9894
▁จนฺทิมา	-10.9896
▁ปตฺถนํ	-10.9899
▁ทุคฺค	-10.99
ชเน	-10.9901
ิํสู	-10.9905
▁ปาโตว	-10.9908
นฺตเรน	-10.9908
▁ยํนูนาห	-10.9913
▁ปาเล	-10.9913
▁ปพฺพชิํ	-10.9913
▁อาสววิปฺปยุโตฺต	-10.9919
▁ปาณา	-10.9922
อฎฺฐกถา	-10.9922
▁เกวลญฺจ	-10.9922
ยาน	-10.9923
ทฺว	-10.9924
▁ขโย	-10.9926
โกฎฺฐาเส	-10.9926
▁ปธานํ	-10.9929
▁อกํสุ	-10.993
▁๑๖๓	-10.9931
▁โสกปริเทวทุ	-10.9932
ทนฺติ	-10.9933
เมต	-10.9934
▁โผฎฺฐเพฺพ	-10.9934
าธิฎฺฐาน	-10.9934
▁โรโค	-10.9935
ทาสิ	-10.9935
▁ปเจฺจ	-10.9937
ียติฯ	-10.9937
พีชํ	-10.9938
▁องฺคุลิ	-10.9939
▁อตฺถงฺคมา	-10.9939
▁อเนเก	-10.994
▁อุปปโนฺน	-10.9941
▁โสตธาตุยา	-10.9941
ผลา	-10.9941
▁ยถาภูต	-10.9942
▁เอเกกสฺมิํ	-10.9942
เตฺตปิ	-10.9943
▁คาว	-10.9943
▁พทฺธา	-10.9944
▁อเปฺปก	-10.9945
▁ปฎิสงฺขา	-10.9946
าทิโน	-10.9948
▁ขคฺควิสาณกโปฺปฯ	-10.9949
▁สุจริตํ	-10.9949
พินฺทุ	-10.9952
▁ปูชํ	-10.9953
เวค	-10.9955
▁รชน	-10.9956
▁อกุสเลหิ	-10.9957
▁เอกํเสน	-10.9959
▁ปติฎฺฐ	-10.9959
▁อปคต	-10.996
เมสุ	-10.996
▁ปิฎฺฐ	-10.996
พทฺธา	-10.9961
▁วณฺณา	-10.9962
▁สกฺการํ	-10.9964
▁อภิณฺหํ	-10.9965
เนก	-10.9966
อิตฺถินฺทฺริยญฺจ	-10.9971
▁นิยฺยานิกํ	-10.9972
▁ทุติยสฺส	-10.9972
งฺคม	-10.9977
วิสม	-10.9978
ตาล	-10.9978
▁เทสิต	-10.9982
▁ขล	-10.9983
▁สมฺมาอาชีโว	-10.9984
▁อปสฺสโนฺต	-10.9985
▁นปฺปฎิ	-10.999
งฺคุลิ	-10.9991
▁เจติเย	-10.9992
▁อฎฺฐนฺนํ	-10.9993
▁กมฺมวิปาก	-11
วินิจฺฉโย	-11.0001
▁สพฺพากาเรน	-11.0004
กเมว	-11.0005
โลกํ	-11.0005
โรจ	-11.0005
ติอาทีสุปิ	-11.0006
รุเกฺข	-11.0009
▁ปคฺคณฺหาติ	-11.0009
จิณฺณ	-11.0012
ตาปิ	-11.0014
▁ฑํส	-11.0014
▁อุเทฺทสํ	-11.0015
เทโส	-11.0017
▁อโสฺสสิ	-11.0017
▁มีย	-11.0017
▁คุ	-11.0017
▁ทารกา	-11.0018
ลาโป	-11.0022
▁อาคตตฺตา	-11.0022
▁เจตสิโก	-11.0022
▁ติวิเธน	-11.0023
▁ราชกุมาร	-11.0024
▁สํโยค	-11.0024
▁อิณ	-11.0024
▁วากฺยํ	-11.0025
▁ภวโนฺต	-11.0028
มรณํ	-11.0028
▁เววจน	-11.0029
สเนฺน	-11.0031
▁หีโน	-11.0032
▁ตุณฺหสฺส	-11.0035
▁ปรตฺถ	-11.0036
กิณฺณํ	-11.0037
ฆา	-11.0037
จริยํ	-11.0038
นามรูป	-11.0042
▁สมฺปชาน	-11.0042
คหิต	-11.0049
▁โสฬสหิ	-11.0049
▁อุปาหนา	-11.0049
▁อิจฺฉิต	-11.005
าวรณ	-11.0051
▁อิริย	-11.0052
▁มนาปํ	-11.0053
▁ภุส	-11.0053
ายุ	-11.0055
▁ปมชฺช	-11.0056
▁เหตุนา	-11.0058
▁หนติ	-11.0058
▁ญาตีนํ	-11.0059
ตริ	-11.006
ปฺปจฺจยา	-11.006
▁อาปเชฺชยฺย	-11.0062
▁วป	-11.0062
▁พนฺธุ	-11.0063
ชว	-11.0065
▁คช	-11.0068
▁จิตฺตนฺติ	-11.0068
▁อเสฺส	-11.0079
▁คณฺหิตฺวา	-11.0079
▁เวฬุริย	-11.008
๑๓	-11.0082
▁อสฺสมํ	-11.0084
▁รุท	-11.0084
▁เอตฺตกา	-11.0084
▁ลิข	-11.0085
มุฎฺฐ	-11.0085
▁โลกนายโก	-11.0085
▁สุกฺก	-11.0086
▁นิโทฺทส	-11.0086
ปิณฺฑปาต	-11.0086
กาสํ	-11.0087
ยตี	-11.0087
▁นุปลพฺภติ	-11.0087
▁สงฺขฺยํ	-11.0087
▁ติโณฺณ	-11.0088
เมวา	-11.0089
ปุริสา	-11.009
▁ปตฺตจีวรํ	-11.009
นิพฺพ	-11.0091
▁๑๘๐	-11.0092
▁เสเส	-11.0092
▁โพชฺฌงฺคาฯ	-11.0093
อเตฺถ	-11.0094
ุล	-11.0094
ิกนฺติ	-11.0095
▁๑๗๗	-11.0095
▁อาจยคามี	-11.0095
▁โกป	-11.0095
▁อทินฺนาทานา	-11.0095
▁สกาย	-11.0096
คุห	-11.0097
▁เถรี	-11.0098
ทกฺขิณ	-11.0099
▁อตฺตภาโว	-11.0099
▁นิโรธาย	-11.0101
ภาณวาร	-11.0101
ปจฺจเยน	-11.0101
▁กมฺมาร	-11.0102
▁ขีณา	-11.0103
▁อุภยํ	-11.0103
▁อกตํ	-11.0104
▁ปฎิโลม	-11.0104
▁ติตฺถิย	-11.0105
▁เอตมฺปิ	-11.0105
▁มโนรมา	-11.0107
▁อายตนํ	-11.0108
ปญฺจกํ	-11.0108
▁นาลํ	-11.0109
▁ภุญฺชิตุํ	-11.011
▁พุทฺธวจนํ	-11.0111
วิราค	-11.0113
▁ปตี	-11.0113
▁ทฎฺฐพฺพ	-11.0114
▁ยาปน	-11.0114
โยคา	-11.0116
▁กุกฺกุจฺจ	-11.0116
▁อุตุสมุฎฺฐานํ	-11.0117
▁ทิฎฺฐิคตวิปฺปยุ	-11.0122
▁นิพทฺธ	-11.0124
▁อนุตฺตร	-11.0124
▁วนฺต	-11.0125
ปถวี	-11.0126
▁สิงฺคาล	-11.0129
▁ปุฎฺฐา	-11.0135
▁ยถยิทํ	-11.0136
▁ทฺวาสฎฺฐิ	-11.0137
▁ติเหตุก	-11.0137
▁ถินมิทฺธํ	-11.0138
▁อรูปาวจเร	-11.0141
▁ปริมาณ	-11.0141
▁รโตฺต	-11.0141
▁คเหตพฺพํ	-11.0142
▁สทฺธินฺทฺริย	-11.0142
คตานํ	-11.0143
มฺปี	-11.0145
▁มนายตนญฺจ	-11.0146
ปีฐ	-11.0147
าวหํ	-11.0153
▁วิปากปจฺจเย	-11.0154
▁ยุชฺช	-11.0154
าเปตีติ	-11.0154
ปริวตฺต	-11.0154
▁อุฎฺฐาน	-11.0155
มณฺฑ	-11.0157
▁วตฺตพฺพตฺตา	-11.0159
▁๑๘๓	-11.016
▁คนฺตุ	-11.0161
สีมาย	-11.0161
าตีต	-11.0163
▁อานิสํโส	-11.0163
▁ปกาสิตาฯ	-11.0164
▁อวิคต	-11.0164
▁วินิจฺฉยํ	-11.0166
▁อญฺญาสิ	-11.0167
▁วาณิชา	-11.0168
▁ตุลา	-11.0168
สงฺฆาฎ	-11.017
นิมิเตฺต	-11.0172
▁อนุสฺสรติ	-11.0172
เสนา	-11.0172
▁วิญฺญูนํ	-11.0172
▁๑๘๒	-11.0174
▁ผรุสา	-11.0174
วิกติ	-11.0175
▁อาทิตฺต	-11.0177
▁ติรจฺฉาน	-11.0177
▁อนุปสฺสนา	-11.0183
▁กเถตพฺพ	-11.0186
▁การาป	-11.0187
▁พฺรหฺมทเตฺต	-11.0188
▁มโนรมํ	-11.0189
▁อาพาธ	-11.0189
หาเรน	-11.0191
▁ทฺวินฺนมฺปิ	-11.0192
▁เวสาลิยํ	-11.0192
คญฺฉิ	-11.0193
▁ตตฺถาปิ	-11.0193
▁ฐิตํฯ	-11.0194
▁นิปฺผนฺน	-11.0195
▁อณฺฑ	-11.0195
▁มุณฺฑ	-11.0196
▁กตาฯ	-11.0201
วุตฺถ	-11.0202
▁กายานุปสฺสนา	-11.0205
▁อทสฺสเน	-11.0206
▁ขเนฺธสุ	-11.0208
▁อกิริย	-11.0209
▁มมาย	-11.0209
▁อกุสลญฺจ	-11.0209
สณฺฐ	-11.0212
▁หนฺตฺวา	-11.0213
▁คิหีนํ	-11.0216
▁เนก	-11.0221
▁จตุร	-11.0221
▁อายูหน	-11.0222
▁อุตฺตริมนุสฺส	-11.0222
▁ทโนฺต	-11.0223
▁พฺยญฺชนํ	-11.0225
▁คุโณ	-11.0226
ิยาฯ	-11.0226
▁ปวตฺตนฺติ	-11.0226
▁นิพฺพานํฯ	-11.0227
▁นิทฺทิส	-11.0227
▁โลกุตฺตรธมฺม	-11.0228
▁อรูปํ	-11.0229
▁อนุปฺปนฺน	-11.023
เพฺภ	-11.0232
อิมาย	-11.0233
ขฺยา	-11.0235
▁สุคเต	-11.0236
▁ทุข	-11.0237
▁ตทนุ	-11.024
▁อารุยฺห	-11.024
▁สตฺตธา	-11.024
▁ยเถว	-11.024
▁ปพฺพตํ	-11.0241
ปาเน	-11.0243
▁กโรเนฺตน	-11.0243
▁อกา	-11.0243
▁ยาทิโส	-11.0244
▁อปฺปมาโณ	-11.0244
▁ปชานนฺติ	-11.0247
ยุคํ	-11.0247
▁โยปิ	-11.0249
▁อาเสวน	-11.025
▁อนภาวํ	-11.0251
▁โสตาปนฺน	-11.0251
▁ชาตสฺส	-11.0251
ปุเตฺต	-11.0251
ธญฺญ	-11.0252
▁ปเรสุ	-11.0253
▁อิสฺส	-11.0253
▁คนฺตพฺพํฯ	-11.0253
▁ทาสิ	-11.0254
▁กายิกสฺส	-11.0257
▁ปุพฺพกมฺมํ	-11.0259
▁สพฺพตฺถาติ	-11.0259
▁สนิทสฺสน	-11.026
▁จุตสฺส	-11.026
▁อิทฺธิปาทา	-11.026
วสิ	-11.0267
▁วคฺคา	-11.0267
ปิฎก	-11.0272
สงฺกปฺป	-11.0278
▁อมฺพฎฺฐ	-11.0278
▁วตฺตโพฺพฯ	-11.0278
วีส	-11.028
▁พหล	-11.0281
คุตฺต	-11.0284
▁ธิติ	-11.0285
สมุฎฺฐาโน	-11.0286
▁สิปฺปํ	-11.029
▁สยมฺภุ	-11.029
▁อมร	-11.0291
▁โสตินฺทฺริยํ	-11.0291
▁มหาสตฺตสฺส	-11.0291
▁อามเนฺตตฺวา	-11.0292
▁วโจ	-11.0293
นโยฯ	-11.0294
กรณา	-11.0295
▁อากงฺขมาโน	-11.0296
▁อธิปติปจฺจยา	-11.0297
▁ติณฺณ	-11.0299
จโย	-11.0303
▁สมฺมส	-11.0303
▁ปฎิลภิตฺวา	-11.0304
▁ทุกฺขสฺสนฺต	-11.0304
อกุสล	-11.0309
ิเกสุ	-11.0309
▁ปาเปตฺวา	-11.031
มลํ	-11.0311
▁อานุภาเวน	-11.0313
▁เทตีติ	-11.0317
▁นานตฺตํ	-11.0317
▁เสเสสุปิฯ	-11.032
นิฎฺฐ	-11.0321
นาท	-11.0326
▁กุปฺป	-11.0326
▁ลภตีติ	-11.0327
▁วุเตฺตสุ	-11.0327
▁เอทิส	-11.0328
นที	-11.0329
▁อุเปกฺข	-11.0329
ิเตหิ	-11.0329
ปญฺญตฺติยา	-11.0332
▁อุปสคฺค	-11.0334
▁เสนาสเน	-11.0336
▁๑๗๑	-11.0337
▁อสาร	-11.0339
โทสา	-11.0339
▁จริยา	-11.0339
▁ปฎิปชฺชติ	-11.034
กล	-11.034
▁สาวชฺช	-11.0341
▁อเหตุกา	-11.0342
▁โยคาวจเร	-11.0343
▁ปุพฺพจริตาปทาน	-11.0343
▁อุตฺตราสงฺคํ	-11.0343
▁วิวิจฺจ	-11.0343
▁มนาโป	-11.0343
▁ลิจฺฉวิ	-11.0343
▁สมฺมุขาวินเยน	-11.0343
▁อาราโม	-11.0343
▁อิตฺตร	-11.0344
▁อิสโย	-11.0345
▁โถม	-11.0345
▁วาฬ	-11.0346
ปทตฺถ	-11.0346
▁อาคเจฺฉยฺย	-11.0346
▁ทนฺตา	-11.0346
เถน	-11.0348
▁อสญฺจิจฺจ	-11.0352
▁ตีสุปิ	-11.0353
▁อเญฺญสุ	-11.0354
สงฺฆสฺส	-11.0354
▁ภวิตพฺพํฯ	-11.0355
ปิณฺฑิ	-11.0355
กม	-11.0358
▁สุขิโต	-11.0359
▁ลชฺชิ	-11.0359
ปริหาร	-11.0359
ทฺร	-11.0361
ภเณฺฑ	-11.0362
สาสนํ	-11.0362
▁ยุว	-11.0364
▁มจฺฉริย	-11.0364
▁วิสารโท	-11.0364
▁สุทฺธาวาสานํ	-11.0366
▁นิพฺพินฺท	-11.0366
▁ตีรํ	-11.0368
าทิเภเท	-11.0369
ปาสาณ	-11.0369
▁อานาปานสฺสติ	-11.0369
าปยิ	-11.037
▁กุปฺปติ	-11.037
▁ฆาต	-11.037
มนุสฺสา	-11.0371
▁โณฯ	-11.0372
▁อุปฺปนฺนานํ	-11.0373
▁รูปนฺติ	-11.0374
▁ภงฺคา	-11.0375
าธิฎฺฐานํ	-11.0377
▁หาส	-11.0377
▁กุสเลน	-11.0378
▁อกาล	-11.038
▁สพฺพญฺญุตํ	-11.038
▁สมฺภวนฺติ	-11.0381
▁เทวิยา	-11.0387
▁มนฺตา	-11.0389
จล	-11.0392
▁สมาธิสฺส	-11.0393
▁ทตฺวาน	-11.0393
ปริโยสาน	-11.0395
▁สมุฎฺฐาเนน	-11.0396
▁อาโรเจสุํ	-11.0397
นฺตนฺติ	-11.0397
▁ธมฺมกถิก	-11.0397
▁อคฺคี	-11.04
▁มุขโต	-11.04
▁นข	-11.0402
▁สติปฎฺฐาเน	-11.0404
▁สติสโมฺพชฺฌโงฺค	-11.0404
▁อตฺตภาวํ	-11.0404
ุปเจฺฉท	-11.0405
▁สาริปุตฺตสฺส	-11.0406
▁อจล	-11.0408
▁กิมิ	-11.0409
กาเยน	-11.0412
ปริยาปนฺนา	-11.0413
พโล	-11.0413
าทีนม	-11.0414
▁อิมเมว	-11.0419
▁คณฺหิ	-11.0419
ฆาตก	-11.042
▁พฺรหฺมุนา	-11.0421
▁นานุเสติฯ	-11.0422
เลป	-11.0422
เลข	-11.0422
▁รูปกาย	-11.0422
▁สมฺมติ	-11.0423
ตฺถเมว	-11.0424
▁โพเธ	-11.0426
าวสาเน	-11.0427
▁ถุ	-11.0427
▁อภิเญฺญยฺยํฯ	-11.0429
สติปฎฺฐาน	-11.0431
▁ปทา	-11.0431
ฌาเน	-11.0432
▁๑๙๐	-11.0432
▁ปฎฺฐาน	-11.0432
▁คเห	-11.0438
▁กถิโตฯ	-11.044
โทสํ	-11.044
มถ	-11.0441
าหาโร	-11.0443
วงฺก	-11.0444
▁อเถกทิวสํ	-11.0448
▁อชฺฌภาสิ	-11.0448
▁นิปฺผาเท	-11.0448
▁อนฺตรนฺตรา	-11.0449
▁อธิฎฺฐ	-11.0449
▁พุทฺธปฺปมุข	-11.0449
คณน	-11.0449
▁พฺรหฺมุโน	-11.045
▁อูรุ	-11.0451
▁ภวิสฺสนฺตี	-11.0452
เกติ	-11.0453
ปฎิเกฺขป	-11.0454
ชฺชน	-11.0454
▁มุจฺจิ	-11.0454
▁ปญฺญาฯ	-11.0456
▁ปฎิสนฺธิยํ	-11.0456
▁สิสฺส	-11.0456
กูฎํ	-11.0458
▁โจโร	-11.0459
ปทา	-11.0461
เนตฺถ	-11.0462
▁การโก	-11.0463
▁ยถ	-11.0464
▁นิสีทน	-11.0465
▁ฉาเทติ	-11.0468
▁อปุจฺฉิ	-11.0468
▁ธม	-11.0471
▁กุเลสุ	-11.0472
มตฺตํฯ	-11.0472
▁เสท	-11.0472
าภิมุโข	-11.0473
▁วินิธาย	-11.0474
อตฺตา	-11.0474
▁รูปาทีสุ	-11.0476
▁ปรามสติ	-11.0477
พฺภา	-11.0478
▁๑๘๕	-11.0479
▁ปาปุณนฺติ	-11.0479
▁ปตฺถ	-11.0483
▁นิรุทฺธา	-11.0484
▁เอกกฺขเณ	-11.0485
โรติ	-11.0486
▁โจเทติ	-11.0487
อญฺญํ	-11.0489
ยตฺต	-11.049
ยฺยาถ	-11.0491
▁พาลสฺส	-11.0493
▁สามิโก	-11.0493
สฺม	-11.0493
▁เปม	-11.0495
▁สมฺมสน	-11.0497
ารหํ	-11.0498
ชฺฌาเน	-11.0499
▁อาปตฺตาธิกรณํ	-11.0501
▁ภวราคานุสเยน	-11.0501
รูปูปปตฺติยา	-11.0501
▁วีตราโค	-11.0502
รญฺญ	-11.0502
▁มุสาวาโท	-11.0503
▁อกฺขีนิ	-11.0504
ฺถ	-11.0504
เจต	-11.0504
▁เทฺวธา	-11.0508
▁ปารุป	-11.0508
▁สุโณหิ	-11.0509
▁สํวตฺตนฺติฯ	-11.0509
▁กโปฺป	-11.0511
เสโฎฺฐ	-11.0511
▁อสุรา	-11.0515
▁ปาณาติปาโต	-11.0515
▁อาสา	-11.0517
▁ลภามิ	-11.0518
นิกฺขม	-11.0519
เมติ	-11.0521
▁สมฺปโนฺน	-11.0524
▁โฆร	-11.0525
านุพนฺธ	-11.0525
▁สนฺตก	-11.0526
▁สมุทาย	-11.0527
ปีต	-11.0527
▁สเจฺจน	-11.0527
▁เตเนตํ	-11.0527
▁หริ	-11.0529
▁ถทฺธ	-11.0529
▁ภญฺช	-11.0533
กาสี	-11.0534
▁ปภสฺสร	-11.0534
กุจฺฉิ	-11.0536
ฆรํ	-11.0536
นฺตราย	-11.0536
ิจฺฉา	-11.0537
คามํ	-11.0537
▁สุญฺญตํ	-11.0537
▁กโรโต	-11.0541
▁ปุเพฺพนิวาสํ	-11.0541
ปรมํ	-11.0548
ทิโส	-11.0552
▁ขิ	-11.0555
▁สมฺมากมฺมโนฺต	-11.0555
▁อากาเรน	-11.0556
▁ปหียนฺติ	-11.0556
▁ปริคฺคเหตฺวา	-11.0558
▁นิโยเช	-11.0558
▁สญฺชาน	-11.0558
นทิ	-11.056
▁๑๙๖	-11.056
ปิย	-11.056
▁นฺหา	-11.0561
▁โวหาโร	-11.0562
เทวา	-11.0563
▁ภวตณฺหา	-11.0563
▁ทุลฺลภ	-11.0564
ทสฺสาวี	-11.0566
ิเยสุ	-11.0567
ขีณา	-11.0567
▁สมาทเป	-11.0571
ภโกฺข	-11.0572
▁วิสฺสชฺชนํ	-11.0573
ลาย	-11.0573
▁ปรโลก	-11.0574
▁ปจฺจตฺตํ	-11.0576
ลาเภน	-11.0576
เอโก	-11.0578
▁วาโยธาตุ	-11.0579
▁คาวี	-11.058
ฎฺฐก	-11.0583
▁ยสํ	-11.0584
▁มเหสินา	-11.0584
อลํ	-11.0584
▁อภิสมฺพุโทฺธ	-11.0585
▁อพฺภา	-11.0586
▁อุสฺสนฺน	-11.0586
อุโปสถ	-11.0586
▁ทสฺสิตาฯ	-11.0588
▁๑๘๙	-11.059
▁วิรูป	-11.0591
▁มคฺคกฺขเณ	-11.0592
▁เจเต	-11.0594
▁สํสาโร	-11.0594
▁ชงฺฆ	-11.0595
▁วกฺก	-11.0596
▁ผรณ	-11.0597
▁ปตฺตสฺส	-11.0598
▁นิทฺทาย	-11.0602
ตฺถร	-11.0602
▁ปเนสา	-11.0602
มญฺจ	-11.0603
คฺคหิต	-11.0603
▁นิรา	-11.0605
ุทฺธจฺจกุกฺกุจฺจ	-11.0605
▁ปคุณ	-11.0606
สเย	-11.0609
▁อาทินา	-11.0609
▁รุจฺจติ	-11.0609
สฺ	-11.061
▁กตสฺส	-11.0611
▁ทิพฺพา	-11.0612
ภิกฺขูนํ	-11.0616
▁ตตฺริทํ	-11.0618
▁เอตฺตเก	-11.0618
▁ยาวกาลิก	-11.0618
▁ปจฺจเยสุ	-11.0619
▁อุปฺปชฺชมาโน	-11.062
วสฺสานิ	-11.062
▁โจฬ	-11.062
▁๑๘๖	-11.0622
▁เสนาย	-11.0623
สูร	-11.0623
▁อเนน	-11.0624
สํวโร	-11.0626
อนิจฺจํ	-11.0628
ปฺปหาเนน	-11.0628
▁กาตพฺพา	-11.0631
กุโต	-11.0632
สมฺมโต	-11.0632
▁เหสฺสติ	-11.0635
▁คนฺตพฺพ	-11.0635
▁๑๙๑	-11.0635
▁คชฺช	-11.0636
▁ชฎา	-11.0638
ิสฺสถ	-11.0639
▁ทาโส	-11.0641
ตาป	-11.0641
▁สนฺตาน	-11.0641
▁วเท	-11.0642
ราเช	-11.0643
▁เสวโต	-11.0645
▁เญยฺยํ	-11.0645
▁กุสลาทิ	-11.0645
▁กามวิตกฺก	-11.0651
ิโนติ	-11.0652
ิตโพฺพติ	-11.0652
วโฎฺฎ	-11.0654
คนฺตุ	-11.0655
▁สมานํ	-11.0656
าทีสุฯ	-11.0656
าภินิเวส	-11.0659
▁วิวฎฺฎูปนิสฺสย	-11.0662
▁ปาเณ	-11.0662
▁ปุญฺญเกฺขตฺตํ	-11.0662
▁สมุจฺฉินฺท	-11.0662
▁อเนกปริยาเยน	-11.0663
▁สโมฺมทิ	-11.0663
▁เปส	-11.0663
▁อนุรุโทฺธ	-11.0663
▁ตุยฺห	-11.0664
▁ตีร	-11.0665
▁ทฺวาเร	-11.0666
าทินฺนอนุปาทานิย	-11.0667
▁เวทิย	-11.0667
▁จารุ	-11.0668
▁สเงฺขปโตฺถ	-11.0668
▁สงฺขารกฺขนฺธ	-11.0668
▁อสปฺปุริส	-11.0669
▁ขาณุ	-11.0669
▁วุฎฺฐห	-11.067
▁ปูเชตฺวา	-11.0671
▁อุทกสฺส	-11.0672
▁ราชิโน	-11.0673
▁ปีฬ	-11.0674
▁อุคฺคหิต	-11.0675
▁ทิพฺพาย	-11.0675
▁อุปสมฺปนฺน	-11.0675
▁ภเทฺท	-11.0678
▁หิตํ	-11.068
ปตฺตา	-11.068
เนฺตฯ	-11.0681
▁โตเส	-11.0684
สุตฺตนฺต	-11.0684
▁ผุสติ	-11.0684
▁ปูรณ	-11.0684
▁นฺหาย	-11.0685
▁กปฺปตี	-11.0688
ูปจาเร	-11.0689
กามํ	-11.069
▁ตทญฺญ	-11.0691
นามกา	-11.0691
▁อมนุสฺส	-11.0692
สีสํ	-11.0696
▁ภวงฺคํ	-11.0697
▁โผฎฺฐพฺพา	-11.0697
ิญฺจ	-11.0698
▁สวิตกฺกํ	-11.0699
▁เวทิตโพฺพติ	-11.0699
▁วิต	-11.07
กฺกมฺม	-11.0701
จฺฉนฺท	-11.0702
เธน	-11.0703
▁ปริวาเร	-11.0705
ปุญฺช	-11.071
ขณ	-11.0713
▁อาคโตฯ	-11.0713
นิยม	-11.0713
▁สิกฺขาปเทสุ	-11.0715
อนุปาทานิโย	-11.0717
▁อโชฺฌ	-11.0717
าลย	-11.0717
▁พชฺฌ	-11.0717
▁พหูหิ	-11.0718
▁ปทีป	-11.0718
▁สิทฺธา	-11.0718
▁อนภิรติ	-11.0718
▁วตฺตตีติ	-11.072
▁วิสุชฺฌติ	-11.072
▁ปฎิคฺคหณ	-11.0721
▁ภุเญฺชยฺย	-11.0722
▁วทตีติ	-11.0723
กิเลเส	-11.0723
ปเทเส	-11.0724
▁สาต	-11.0725
▁มยมฺปิ	-11.0725
▁๒๐๗	-11.0725
▁ยสสฺสิโน	-11.0727
วตฺถูสุ	-11.073
ธิก	-11.0732
▁อนุม	-11.0732
สโก	-11.0734
▁ปจฺจกฺขโต	-11.0734
โนฺตว	-11.0734
▁สมาปชฺชิ	-11.0735
สทิสตฺตา	-11.0736
▁โลกิโย	-11.0737
▁กาตพฺพนฺติ	-11.0738
▁สงฺฆิกํ	-11.0738
ุตฺตเม	-11.0739
▁วิจิตฺต	-11.0741
▁สปฺปจฺจย	-11.0742
▁นิโรธสมาปตฺติ	-11.0743
▁ตนฺต	-11.0743
▁วิชฺชมาเน	-11.0744
ตสฺมาติห	-11.0747
ปฎิจฺฉนฺน	-11.0747
▁อชฺฌตฺติกา	-11.0748
ยฺยาสิ	-11.0753
▁ทิช	-11.0754
ทินา	-11.0754
▁ปญฺจาล	-11.0754
ีธ	-11.0754
ปาเล	-11.0756
▁ธีร	-11.0758
▁สมฺปชฺช	-11.0758
▁ปริคฺคหิต	-11.0758
▁ปชานนา	-11.0759
▁ปริกฺขยา	-11.0761
▁อรหตา	-11.0762
▁ลชฺชี	-11.0762
▁ชีร	-11.0765
กโรติ	-11.0765
เนฺตว	-11.0766
▁อุปปชฺชนฺตี	-11.0766
▁เอติ	-11.0769
▁นานุเสนฺติ	-11.077
▁อายตนานิ	-11.0771
▁อารโทฺธ	-11.0771
▁อุเปโต	-11.0771
สาส	-11.0772
▁ปริพฺพาชก	-11.0773
▁โหถ	-11.0776
▁อานิสํสํ	-11.0776
ุปฺปาทน	-11.0777
▁เหสฺส	-11.0777
จฺฉาท	-11.0779
ทนฺตา	-11.0781
ทสฺสนโต	-11.0782
สํยุตฺต	-11.0783
▁กาเรเนฺต	-11.0783
▁ปญฺจโมฯ	-11.0786
ปุริม	-11.0788
▁อาปนฺนา	-11.079
▁โพธิํ	-11.0791
ิตพฺพโต	-11.0792
▁จินฺตา	-11.0792
▁ปวตฺตน	-11.0798
▁ทารเก	-11.0799
▁ธาร	-11.0799
ปเทสุ	-11.0799
กมฺมํฯ	-11.08
▁อาทิมฺหิ	-11.0803
▁นฎฺฐ	-11.0805
ุสฺส	-11.081
ทโณฺฑ	-11.0811
หจฺจ	-11.0811
▁สิทฺธ	-11.0813
▁อนฺธกาเร	-11.0813
▁ปาปิมา	-11.0815
▁ปฎิคฺคห	-11.0815
▁อุปฎฺฐิตา	-11.0815
▁เวเทติ	-11.0818
ปริกมฺม	-11.0818
▁ททาติ	-11.0819
▁สุเข	-11.0823
▁สโมฺพธิ	-11.0823
จาริก	-11.0824
▁ฉพฺพิธ	-11.0824
▁อนุเสตีติ	-11.0824
▁โมฆมญฺญ	-11.0825
▁สาเร	-11.0825
▁คจฺฉนฺตี	-11.0825
▁อิห	-11.0826
▁อญฺญาย	-11.0826
หฎ	-11.0829
▁โอลมฺพ	-11.083
ปุพฺพงฺคม	-11.083
▁ถุลฺลจฺจยสฺสฯ	-11.083
▁วุฎฺฐานํ	-11.0834
วิสยํ	-11.0835
▁ททามิ	-11.0836
▁ตจฺฉ	-11.0836
▁อทาสิํ	-11.0837
▁ปาเทน	-11.0837
▁ทกฺขิเณยฺย	-11.0837
▁พหุชน	-11.0837
องฺค	-11.0837
▁ปฎิสลฺลาน	-11.0837
▁กฎิ	-11.0838
▁อุทร	-11.0838
วาเสน	-11.084
▁ทเสฺสสิฯ	-11.084
เสฺสน	-11.0843
▁๑๙๓	-11.0844
▁อกฺขาหิ	-11.0846
กฺขโทมนสฺสุปายาส	-11.0846
▁อาวาสา	-11.0847
▁อเนฺตวาสิก	-11.0848
การเณ	-11.0849
พฺรหฺมา	-11.085
ทารก	-11.0854
▁ชฎิล	-11.0857
ปส	-11.0858
▁ทุสฺสีลฺย	-11.0858
▁๑๘๗	-11.0859
▁ทณฺฑํ	-11.086
▁ชนตํ	-11.0864
▁วิภตฺต	-11.0865
เสโส	-11.0865
▁วูปสเม	-11.0867
▁๑๙๕	-11.0868
▁เอตฺตเกน	-11.0868
▁ภิสิ	-11.0869
▁มุนิโน	-11.0869
▁โวทานํ	-11.0869
▁กาฬก	-11.0873
ภาวโตติ	-11.0873
▁ติตฺถิยา	-11.0873
▁ลพฺภนฺติฯ	-11.0874
▁ยานํ	-11.0874
▁สเญฺจตนิกา	-11.0875
▁มริยาท	-11.0876
▁ปิตรา	-11.0881
▁โสมนสฺสชาโต	-11.0881
▁อนุปสมฺปนฺนสฺส	-11.0882
▁คจฺฉนฺตา	-11.0882
▁มาล	-11.0882
สงฺคาหก	-11.0883
สมฺมตํ	-11.0883
▁ทสมํ	-11.0884
▁อาปชฺชิํ	-11.0885
▁อตีโต	-11.0885
▁คาหาเปตฺวา	-11.0885
▁ปากติก	-11.0888
▁สมนฺต	-11.0888
▁อุปปชฺชนฺตสฺส	-11.0888
สโมฺพชฺฌงฺคํ	-11.089
▁ปญฺญตฺต	-11.0893
▁สุขนฺติ	-11.0894
▁ทูรโตว	-11.0894
▁คนฺถสมฺปยุตฺต	-11.0895
ภาวทสฺสนตฺถํ	-11.0896
▁สกเตฺถ	-11.0896
▁ภิกฺขุสเงฺฆ	-11.0898
▁เทโนฺต	-11.0899
ปฎิคฺคหณ	-11.0899
▁ถเล	-11.09
▁นิเวสนํ	-11.0901
▁เปตํ	-11.0905
▁ปฐมชฺฌานํ	-11.0907
▁ลภเต	-11.0908
▁สพฺพเมตํ	-11.0908
เวทนํ	-11.0911
▁ปุคฺคลิก	-11.0911
ฑ	-11.0913
มยิ	-11.0917
▁ภาเวน	-11.0918
สมาโส	-11.0919
▁โธ	-11.092
▁ภูมิํ	-11.0921
▁ญาตกา	-11.0923
▁ธีตรํ	-11.0924
ตฺถโต	-11.0925
▁กโตฯ	-11.0925
ภุตฺต	-11.0928
▁วตฺวาน	-11.0929
าคนฺตฺวา	-11.093
▁อกุสลมูลํ	-11.0931
▁ปฎิลาภ	-11.0932
▁อนิทสฺสน	-11.0933
ยกฺข	-11.0934
▁อรูปาวจรา	-11.0934
▁ปณิธาย	-11.0935
▁วิปากธมฺมธโมฺม	-11.0935
▁มโนฺท	-11.0937
▁พุทฺธสาสเน	-11.0937
มนุเสฺส	-11.0937
▁๑๙๘	-11.0937
▁อลชฺชิ	-11.0942
▁ปเวเสตฺวา	-11.0943
▁อุตฺต	-11.0943
คาถาวณฺณนา	-11.0948
▁เอตาย	-11.0949
▁ปริเยสิตฺวา	-11.0951
▁สพฺพญฺญู	-11.0951
▁สมนฺตปาสาทิกาย	-11.0955
▁เทวทตฺตสฺส	-11.0955
▁อสมตฺถ	-11.0956
▁อเจลก	-11.0957
▁วฎฺฎํ	-11.0957
โวฯ	-11.0958
▁อภูต	-11.0958
▁สวิตกฺกสวิจารํ	-11.0958
▁คณสฺส	-11.096
ตฺยา	-11.0965
▁อนวเสสโต	-11.0968
กมฺป	-11.0975
รหิต	-11.0975
เญฺญน	-11.0977
▁ธมฺมโต	-11.0982
▁อุปฎฺฐาเป	-11.0982
▁ญาณวิปฺปยุตฺต	-11.0983
ปธาน	-11.0983
▁วีตินาเม	-11.0984
คาธ	-11.0987
กิจฺฉ	-11.0987
▁สุญฺญตา	-11.0988
สญฺฉนฺน	-11.0989
▁อุเกฺขปนียกมฺมํ	-11.0989
▁ติกปาจิตฺติยํ	-11.099
▁อฆานกาน	-11.099
▁หตฺถปาเส	-11.0991
▁วิปฺปมุโตฺต	-11.0991
สุณ	-11.0991
▁๒๑๕	-11.0992
▁นานุ	-11.0995
▁ทุกฺขิโต	-11.0995
ฎฺฐิโต	-11.0998
▁นิยุโตฺต	-11.1
▁อิชฺฌ	-11.1001
▁ทิเพฺพหิ	-11.1001
ีกต	-11.1004
ปิเฎฺฐ	-11.1005
▁ตพฺพ	-11.1006
รเห	-11.1006
▁วจเน	-11.1006
คุเณหิ	-11.1008
▁ปุคฺคเลน	-11.1008
เยติ	-11.1008
๑๘	-11.1009
ิกํฯ	-11.1009
▁ปญฺจสตา	-11.1012
▁อาคตาฯ	-11.1014
▁สมุทา	-11.1014
▁อาพาโธ	-11.1016
ปาโก	-11.1017
▁สาเว	-11.1018
▁สิโทฺธ	-11.1022
ีติฯ	-11.1023
▁โกสชฺช	-11.1024
กจฺฉ	-11.1025
ราชาโน	-11.1025
าทีนว	-11.1025
▁วตฺถุสฺส	-11.1025
▁ปฎิจฺฉนฺนํ	-11.1027
ปพฺพชิต	-11.1027
▁ปริจฺจ	-11.1028
▁เสฺว	-11.1028
▁ภาเวตีติ	-11.1029
▁ยาจน	-11.1033
▁สงฺคหิต	-11.1033
กุพฺพ	-11.1033
▁อวสฺส	-11.1033
▁สงฺคาม	-11.1036
หนฺท	-11.1036
ภาวญฺจ	-11.1038
▁ปิทห	-11.1038
ปฺปโยโค	-11.1039
▁สมฺภวติ	-11.1041
▁สราค	-11.1043
ภวํ	-11.1046
▁รสายตนํ	-11.1047
▁กุปิโต	-11.1047
การกา	-11.1047
▁ปฎิปนฺนา	-11.1048
▁วิภาเวตุํ	-11.1049
นิฯ	-11.105
▁สตฺตติํส	-11.1051
▁วิภโตฺต	-11.1051
▁มหายโส	-11.1051
เงฺก	-11.1053
าเปโนฺต	-11.1053
▁อธิมุตฺต	-11.1053
▁อาคจฺฉนฺตํ	-11.1054
▁๑๙๒	-11.1055
▁๑๙๔	-11.1055
สฺสโร	-11.1055
อนิจฺจ	-11.1057
▁สพฺพตฺถฯ	-11.1057
าทีนนฺติ	-11.1057
▁๒๒๐	-11.1058
▁อนิจฺจาทิ	-11.1058
▁เจตนาย	-11.1059
อคฺคิ	-11.106
▁ฐาเนน	-11.1061
▁กริสฺสตี	-11.1061
▁วกฺขมาน	-11.1064
▁เจตสิกา	-11.1065
▁อุปสม	-11.1066
▁เหตุทุก	-11.1067
ภาเวนาติ	-11.1068
▁โยชนํ	-11.1069
▁ทุกฺขสจฺจ	-11.1069
▁อทฺท	-11.1069
เจฺฉโท	-11.107
▁อกุปฺป	-11.1073
ญาณสฺส	-11.1075
▁ภินฺนา	-11.1075
กายสฺส	-11.1076
จฺฉาทน	-11.1076
▁กามตณฺหา	-11.1078
ปลิ	-11.1079
▁วุตฺตสฺส	-11.108
▁ปาปเก	-11.1081
▁สํวรํ	-11.1082
▁อธิมตฺต	-11.1082
▁กุสลมูล	-11.1082
▁ชคฺค	-11.1083
▁อจฺฉริย	-11.1083
▁อุเท	-11.1083
▁ขุทฺท	-11.1086
▁สุขญฺจ	-11.1087
ตเถว	-11.1088
▁ตณฺหาทิฎฺฐิ	-11.1088
▁จกฺขุสมฺผสฺส	-11.109
กมฺมนฺติ	-11.1094
▁คนฺธพฺพ	-11.1094
นิมฺม	-11.1094
ธารา	-11.1095
ปฺปภว	-11.1096
▁มหาพฺรหฺมา	-11.1096
วิเสสา	-11.1097
▁อนเปกฺข	-11.1097
ปริเกฺขป	-11.1097
ูนํ	-11.1098
ทสฺสนา	-11.1098
เณฺณ	-11.1098
ภํ	-11.1099
สปฺปิ	-11.1099
▁ทุกฺขํฯ	-11.1099
▁เอกเทสํ	-11.11
▁อุปปชฺชตี	-11.1101
▁อทินฺนาทาน	-11.1101
ยส	-11.1102
▁ตีหากาเรหิ	-11.1103
▁อตฺถงฺคโม	-11.1103
▁วายาโม	-11.1103
▁อาหารสมุฎฺฐานํ	-11.1104
ปฺปมาณา	-11.1105
▁อุปฺปเชฺชยฺยุํ	-11.1105
▁อรูปี	-11.1105
▁เอตสฺมา	-11.1106
▁อาโร	-11.1109
าธิป	-11.1109
▁ปาสาทํ	-11.111
▁สงฺขตา	-11.111
▁กฺริยตฺถา	-11.1111
▁ปารุปิตฺวา	-11.1112
▁สุทฺธิก	-11.1114
▁มุตฺตํ	-11.1115
▁๑๘๘	-11.1115
▁อนุกมฺปาย	-11.1115
▁ฐิโตฯ	-11.1116
▁ทาตพฺพา	-11.1118
คฺคโห	-11.1119
▁อภิกฺกนฺตํ	-11.1119
จาเร	-11.112
▁สงฺฆเภท	-11.1121
วินิจฺฉยกถา	-11.1122
▁ปญฺญายติฯ	-11.1122
▁นิทฺทิโฎฺฐ	-11.1125
ปตฺถนา	-11.1125
▁ปริจร	-11.1125
▁มหาชนํ	-11.1125
ทิพฺพ	-11.1125
ปฺปโยค	-11.1127
▁มุตํ	-11.1127
นฺติอาทีนิ	-11.1128
สาวโก	-11.1128
ชปฺป	-11.1129
▁ภิส	-11.1132
▁ปทฎฺฐานํฯ	-11.1132
▁ปุเรภตฺตํ	-11.1133
▁โปกฺขร	-11.1133
มเตฺตเนว	-11.1133
▁อากาสํ	-11.1134
ุพฺภ	-11.1134
▁อการ	-11.1136
▁กุญฺชร	-11.1137
▁ราชูนํ	-11.1138
วิชฺช	-11.1138
▁อุปฎฺฐหนฺติ	-11.114
วีมํส	-11.114
วิปลฺลาส	-11.114
▁พฺยคฺฆ	-11.1143
ฬาร	-11.1145
หตํ	-11.1146
▁อาชาน	-11.1149
▁อนตฺถาย	-11.1149
▁วตฺตเพฺพฯ	-11.1152
▁กาเรสิฯ	-11.1152
นฺตูติ	-11.1153
▁อกาเล	-11.1155
▁ปวตฺติต	-11.1156
ปญฺญตฺต	-11.1159
าจยคามินาปจยคามี	-11.1159
▁จตุพฺพิโธ	-11.1159
▁นุปฺปชฺชิสฺสตี	-11.1159
▁มหติยา	-11.1159
▁ตถาคตพลํ	-11.116
▁ฐานเมตํ	-11.1162
▁เอวมโตฺถ	-11.1162
▁ปสยฺห	-11.1162
▁ยุญฺช	-11.1163
▁ปรามาสวิปฺปยุ	-11.1165
▁๒๐๕	-11.1165
▁ปสาเทตฺวา	-11.1167
▁สมนุปสฺส	-11.1167
▁สุลภ	-11.1168
▁โนอาสว	-11.1169
▁ภตฺตุ	-11.1169
พหุลา	-11.1169
▁ปส	-11.117
▁คนฺธํ	-11.1171
▁สิเกฺขยฺย	-11.1173
▁เวปุลฺลํ	-11.1173
▁อธิวาเส	-11.1173
▁กามาวจรกุสล	-11.1175
▁คโณ	-11.118
▁อเตฺถสุ	-11.118
▁สพฺรหฺมจารีนํ	-11.1183
▁นฺหารุ	-11.1184
▁นทิ	-11.1184
▁ฌานานิ	-11.1185
▁อเนเกหิ	-11.1185
ราชิ	-11.1187
เตโช	-11.1188
▁อภินิ	-11.1188
▁กรณีย	-11.119
เสฯ	-11.1196
▁ภวิสฺส	-11.1197
วิสยา	-11.12
ปาหํ	-11.1201
ขิ	-11.1203
▁วิสาข	-11.1205
▁นุปฺปชฺชิสฺสติฯ	-11.1209
จีวเร	-11.1209
มูลา	-11.1209
▁ยุวา	-11.1211
▁มาตุคามสฺส	-11.1214
สีท	-11.1214
▁มหากสฺสป	-11.1214
▁อุปจินโนฺต	-11.1215
▁โท	-11.1216
ิสฺสนฺตีติ	-11.1218
▁ปลิโพธ	-11.1218
▁สมุฎฺฐิตํ	-11.1218
งฺคานิ	-11.1219
กณฺห	-11.1219
▁ปทตฺถ	-11.1221
▁กริตฺวาน	-11.1222
ทายกเตฺถรสฺส	-11.1222
สฺสตีติ	-11.1223
รชฺชํ	-11.1224
โสติ	-11.1225
▁ขิปฺปเมว	-11.1226
▁ลกฺขเณ	-11.1227
เสฺว	-11.1227
▁อฎฺฐกถาสุ	-11.1228
เวล	-11.1229
▁สมฺปฎิจฺฉิตฺวา	-11.123
▁อจิร	-11.1231
ุตฺตมํ	-11.1231
หิตํ	-11.1232
กุสลตา	-11.1233
▁วทามี	-11.1234
▁เนตฺต	-11.1235
▁สโกฺกมิ	-11.1236
▁เอเกฯ	-11.1237
▁สุขสหคต	-11.1237
▁ตทงฺค	-11.1237
▁วโร	-11.124
สงฺฆาทิเสส	-11.1243
▁อกฺขา	-11.1244
▁วสฺสสตํ	-11.1247
▁๒๐๖	-11.1248
เมฺภ	-11.1248
ฑิ	-11.1251
▁อุปลกฺขณ	-11.1251
มุทุ	-11.1251
ริตฺวา	-11.1252
▁ตุสฺส	-11.1256
▁อทสฺสนํ	-11.1256
โกวิทา	-11.1257
▁วุฎฺฐิ	-11.1257
▁อาวชฺชนาย	-11.1257
▁สุปฺปฎิ	-11.1257
สเงฺขป	-11.1263
ปริญฺญา	-11.1264
▁อุภยมฺปิ	-11.1264
▁สเลฺลข	-11.1264
▁ปูชย	-11.1264
▁คหิตํฯ	-11.1265
เญฺหตํ	-11.1265
▁อุฬารํ	-11.1268
▁ทชฺชา	-11.1268
าคตํ	-11.1269
▁เสนาสนานิ	-11.1271
ชุ	-11.1273
าตุร	-11.1273
▁ยถาวุตฺตํ	-11.1273
▁ปายาสิ	-11.1275
▁อุทายี	-11.1275
▁ครุภณฺฑ	-11.1277
▁อณุ	-11.1278
มารุยฺห	-11.1278
นฺว	-11.1278
▁สมณธมฺมํ	-11.1281
▁กสฺสปสฺส	-11.1283
▁ปฎิเสธ	-11.1285
▁วิทิโต	-11.1288
ผรณ	-11.1291
ฆฎนา	-11.1291
▁กลฺยาณํ	-11.1292
▁อธิการ	-11.1292
▁สมถา	-11.1293
▁เตตฺติํส	-11.1293
▁ทายโก	-11.1294
▁สตีติ	-11.1297
▁กมฺมนฺติ	-11.1297
สมฺผสฺสปจฺจยา	-11.1297
าธิปฺปาโย	-11.1298
ทินฺน	-11.1304
ปจฺจยสฺส	-11.1307
▁วิมุตฺตํ	-11.1307
▁สสฺสโต	-11.1308
▁อุทยพฺพย	-11.1308
วินิจฺฉยํ	-11.1309
▁เอตเทว	-11.1311
หิตฺวา	-11.1312
▁ปาโท	-11.1313
อวิคเต	-11.1314
▁สนฺถต	-11.1315
าวห	-11.1319
▁กมฺมช	-11.1319
ปเณฺณ	-11.1324
▁คมิ	-11.1325
นุโลม	-11.1327
▁องฺคชาตํ	-11.133
▁ปเรน	-11.133
▁อุภเย	-11.1331
▁อสฺสํ	-11.1332
▁อาราธ	-11.1333
▁สิกฺขิตพฺพํ	-11.1336
▁๒๐๐	-11.1337
▁ทุกฺขนิโรโธ	-11.1339
ตฺถิกา	-11.1339
▁ปโกฺกส	-11.1339
▁๒๐๙	-11.134
▁ขุ	-11.1341
▁คมิสฺสามิ	-11.1342
สหเสฺสน	-11.1342
จินฺติต	-11.1342
▁ปจฺจุปฺปเนฺน	-11.1342
▁ทาเนน	-11.1342
▁เสตุ	-11.1343
▁โลม	-11.1343
▁นคฺค	-11.1345
พฺรวิ	-11.1346
▁อนุยุโตฺต	-11.1347
▁ปสีทติ	-11.1347
ลิก	-11.1348
▁นหาย	-11.1349
▁ขาทนฺติ	-11.1349
▁มคฺคญาณ	-11.1349
▁ญตฺติยา	-11.135
▁จีวเรน	-11.1351
▁ปจฺจนฺต	-11.1352
▁พฺยากร	-11.1352
ทท	-11.1353
▁ยาจติฯ	-11.1354
▁ตโตปิ	-11.1354
พเล	-11.1355
กูช	-11.1355
▁วเนฺท	-11.1356
▁อุโภสุ	-11.1357
ปริโยสานํ	-11.1358
จตุกฺกํ	-11.1359
▁ฉิชฺช	-11.1359
▁อุทาเนสิ	-11.136
▁กเถติฯ	-11.1362
▁ปจฺจยานํ	-11.1362
▁ปสวติ	-11.1363
▁โทเส	-11.1363
สพฺภาวโต	-11.1363
ินิยา	-11.1364
▁คเนฺธ	-11.1365
▁ปุลฺลิงฺค	-11.1366
▁๒๑๓	-11.137
สทฺธ	-11.1372
เนนฯ	-11.1372
ยาวตา	-11.1373
▁เขเตฺต	-11.1373
▁ยถาสุขํ	-11.1374
▁สนฺติกา	-11.1375
▁ฐิเตน	-11.1376
▁อิทเมต	-11.1376
มุจฺจ	-11.1376
เตเชน	-11.1378
ปฎิสํยุตฺต	-11.1379
เทติ	-11.1381
▁ปณาม	-11.1382
▁วสฺสิกสาฎิก	-11.1384
ตุกามตาย	-11.1387
▁พาเล	-11.1388
สโมฺภค	-11.1389
▁อริยสาวกสฺส	-11.1391
▁ตถาคตา	-11.1391
▁ขคฺค	-11.1392
พฺยตฺต	-11.1393
▁วตฺตมานา	-11.1393
▁๑๙๗	-11.1393
▁ปฐมสฺส	-11.1394
▁ภูตคาม	-11.1395
ปโยโค	-11.1395
▁๒๓๘	-11.1397
▁๒๒๘	-11.1399
▁อวิตกฺก	-11.14
▁๒๑๘	-11.1401
▁อาสงฺก	-11.1403
นิวตฺติ	-11.1403
▁เจโตสมฺผสฺสช	-11.1404
▁๒๑๐	-11.1405
▁ตาตา	-11.1405
▁สุโข	-11.1405
▁อนุปาทา	-11.1409
▁วิชฺชตีติ	-11.141
▁ตถารูปํ	-11.1413
▁สุปณฺณ	-11.1414
▁ชาติปจฺจยา	-11.1419
▁จตุโตฺถฯ	-11.142
วิเสโสฯ	-11.142
▁นิพฺพานนฺติ	-11.142
มตฺตนฺติ	-11.1423
รูปานํ	-11.1424
▁มเญฺญยฺย	-11.1425
▁๒๓๖	-11.1427
คว	-11.1433
ทฺวาทส	-11.1433
▁ปคฺคห	-11.1433
▁อนุสฺสติ	-11.1434
วิลาส	-11.1437
วตฺถุกถาวณฺณนา	-11.1438
▁กลล	-11.1438
▁วทามีติ	-11.1439
เตฺตสุ	-11.1439
▁อุปาทานสมฺปยุ	-11.1441
▁อาวห	-11.1441
▁นิคม	-11.1446
▁อารญฺญิก	-11.1446
▁รเมฺม	-11.1447
▁อุพฺพ	-11.145
ภาสิต	-11.145
วาฯ	-11.145
อตีต	-11.145
กตฺต	-11.1453
▁ธาเรนฺติ	-11.1453
นตฺถ	-11.1454
นฺห	-11.1454
▁ทุทฺท	-11.1455
▁ทเณฺฑน	-11.1456
▁สํวตฺตนฺตี	-11.1456
▁ปริหา	-11.1456
▁ภม	-11.1457
▁ปฎิคฺคหิตํ	-11.1458
▁โร	-11.1458
▁รตนานิ	-11.1459
▁เยสุ	-11.1459
กฺขิตฺต	-11.146
โลโปฯ	-11.1461
พฺยากต	-11.1462
อพฺยากตํ	-11.1462
▁อหนฺติ	-11.1462
▁อชานิตฺวา	-11.1463
▁เวทย	-11.1464
าคารํ	-11.1465
▁อจฺฉินฺท	-11.1465
สนฺตุฎฺฐ	-11.1467
โสตาปตฺติผลาทีนิ	-11.1467
▁เตนสฺส	-11.1468
ฎฺฐี	-11.1469
▁กทลิ	-11.147
จมฺมํ	-11.1473
อุท	-11.1474
รว	-11.1474
▁มิเตฺต	-11.1477
▁ปกรณ	-11.1479
▁อปทาเน	-11.1479
▁๒๑๖	-11.1482
▁วิปากานํ	-11.1483
▁๒๐๓	-11.1483
ณฺฑุ	-11.1484
นิสฺสรณ	-11.1484
▁อาลป	-11.1485
▁๒๓๔	-11.1485
▁อิจฺฉิตพฺพ	-11.1486
▁ปฐมาย	-11.1488
▁พฺยตฺต	-11.1491
สมณพฺราหฺมณ	-11.1492
▁กายา	-11.1494
านํเยว	-11.1496
สงฺคีติ	-11.1496
นโก	-11.1497
วิสท	-11.1497
▁ชลํ	-11.1502
โพฺภ	-11.1503
ลทฺธิ	-11.1503
▁อาโรเจตฺวา	-11.1505
▁อาภุชิตฺวา	-11.1509
▁อุปจโย	-11.151
▁เนมิ	-11.151
▁อุปสโนฺต	-11.1511
กมฺมานิ	-11.1511
▁โ	-11.1513
▁นามานิ	-11.1513
▁๒๐๘	-11.1515
▁๒๓๗	-11.1515
เสสุ	-11.1515
▁สมุฎฺฐานาทีนิ	-11.1517
▁ปณฺฑก	-11.1517
▁นิปาตมตฺตํฯ	-11.1517
▁ภิกฺขุนีหิ	-11.1518
▁ปฐมตรํ	-11.1519
สูจิ	-11.1519
ปริปุณฺณ	-11.152
▁วเทยฺยุํ	-11.152
โภโค	-11.152
▁อุปฺปชฺชตี	-11.1521
▁ทิฎฺฐานุสย	-11.1522
▁อาวาสํ	-11.1522
▁สุภาวิต	-11.1523
▁ชานิตพฺพํ	-11.1523
▁สนฺตาป	-11.1527
พุ	-11.1529
▁สาราโค	-11.1529
▁ปาเทหิ	-11.1533
ปาริ	-11.1538
▁อวิตกฺกอวิจารํ	-11.1538
▁โสภติ	-11.1539
▁นทติ	-11.1539
▁อญฺญติตฺถิยา	-11.154
วตฺถุก	-11.154
จิณฺณํ	-11.1542
▁สีหฬ	-11.1544
▁อทิสฺวา	-11.1545
▁นิฎฺฐิตา	-11.1545
▁สพฺพธิ	-11.1547
▁วตฺตา	-11.1547
ภาสา	-11.1547
สจฺจปริโยสาเน	-11.1547
▁๒๔๓	-11.1549
▁๒๓๓	-11.1549
สุนฺทร	-11.155
▁กจฺจาน	-11.1552
ทายาท	-11.1554
▁องฺคาร	-11.1556
▁อสเงฺขฺยยฺย	-11.1558
มหตฺต	-11.156
▁อวิตกฺกํ	-11.1563
▁ปเจฺจกสมฺพุโทฺธ	-11.1563
▁โอรุยฺห	-11.1564
▁สมฺปยุตฺตสฺส	-11.1564
▁นปฺปชหนฺติ	-11.1566
▁ญตฺติฯ	-11.1566
▁สมาทห	-11.1567
มฺพร	-11.1569
▁ปราภว	-11.1569
▁โยเชตพฺพาฯ	-11.157
▁กปฺปํ	-11.157
▁นิทฺทิสิตพฺพ	-11.157
▁อาลย	-11.157
▁วิเสสนํ	-11.157
ชาเต	-11.1571
▁ทีปํ	-11.1571
▁อุปชฺฌายสฺส	-11.1571
สิกฺขา	-11.1573
▁โลล	-11.1574
นิย	-11.1575
▁อาคมนํ	-11.1576
ุปฎฺฐ	-11.1576
▁๒๑๙	-11.1576
จิร	-11.1577
▁คจฺฉถ	-11.1577
กจฺจ	-11.1577
สีต	-11.1578
▁ปติฎฺฐาติ	-11.1578
▁อปฺปวตฺต	-11.1581
▁ธมฺมตา	-11.1582
▁กิํการณา	-11.1582
ปริโภเคน	-11.1583
▁มจฺจุโน	-11.1583
▁เจติยสฺส	-11.1583
▁ปเนเต	-11.1583
โกฺกส	-11.1583
เทฺท	-11.1585
▁ปหารํ	-11.1587
▁มหเนฺตน	-11.1588
▁อานุภาว	-11.1588
▁นาถ	-11.1589
▁สุภํ	-11.1589
▁อธมฺมกมฺม	-11.1591
ตฺถมฺภ	-11.1592
▁รมฺม	-11.1593
สมนฺนาคตํ	-11.1595
▁วิรโต	-11.1599
▁วจนโตฺถ	-11.1599
▁เอกวีสติ	-11.1601
ปฺปธาน	-11.1601
▁วาส	-11.1602
▁โมหา	-11.1602
▁เวเทห	-11.1603
▁สพฺพถาปิ	-11.1605
▁อปุพฺพํ	-11.1605
สภ	-11.1605
▁ยสสฺสิ	-11.1608
▁กิจฺฉ	-11.1609
▁ธมฺมิยา	-11.161
ปริโยสานา	-11.1612
▁นิพฺพานาย	-11.1613
ตานํ	-11.1614
โคฺฆ	-11.1614
นาส	-11.1615
▁อาราเธ	-11.1615
▁๒๐๔	-11.1615
▁อพฺภุ	-11.1616
▁เข	-11.1617
เคเห	-11.162
▁อุปคตา	-11.1622
▁๑๙๙	-11.1622
▁ปณิธีติ	-11.1623
▁มหีปติ	-11.1624
สโทฺทฯ	-11.1624
▁กถิเน	-11.1624
▁สตฺตมา	-11.1627
▁ธมฺมราชา	-11.1628
▁คติํ	-11.1628
▁เสยฺยา	-11.1629
▁รเชฺช	-11.1629
▁สลาก	-11.163
▁ปญฺจโวการานํ	-11.1632
▁นิมเนฺต	-11.1633
คล	-11.1633
▁๒๑๒	-11.1633
▁นาริโย	-11.1634
▁รว	-11.1635
▁ปจฺจเวกฺข	-11.1636
▁ปฎิลาโภ	-11.1637
งฺกโร	-11.1637
▁ภวิตพฺพ	-11.1638
กฺขิป	-11.164
▁วิชย	-11.1641
▁อค	-11.1641
นฺนา	-11.1641
▁อนิยต	-11.1641
▁ปริคฺคณฺห	-11.1644
วจนีย	-11.1645
คาฬฺห	-11.1646
▁ปฎิเกฺขโป	-11.1646
โธวน	-11.1646
เมหิ	-11.1647
หู	-11.1647
วจนโต	-11.1647
ลิต	-11.1648
▁อภิภู	-11.1648
าวจร	-11.1649
▁อเนกานิ	-11.1651
มิฯ	-11.1653
▁สฺมา	-11.1655
▁สุวิเญฺญยฺย	-11.1657
▁ตุว	-11.1658
▁อธมฺมิก	-11.1659
▁พินฺทุ	-11.1659
ทร	-11.166
▁อโรโค	-11.166
โยชนํ	-11.166
าวโพธ	-11.1662
▁นปฺปชหติฯ	-11.1662
ิสฺสโร	-11.1663
▁อโนตฺตปฺปํ	-11.1664
สํยุเตฺต	-11.1664
ปาการ	-11.1666
▁มาตุล	-11.1666
▁ปสฺสถ	-11.1667
▁นิวาสน	-11.1669
▁คเจฺฉ	-11.1669
▁วณฺณย	-11.167
เหตุทุกํ	-11.167
งฺคณ	-11.1673
▁วิจรนฺติ	-11.1674
▁อรูปาวจรานํ	-11.1674
▁๒๐๑	-11.1675
ปริจฺฉินฺน	-11.1676
▁๒๑๔	-11.1677
าจิกฺข	-11.1678
▁๒๐๒	-11.1678
▁คณฺหนฺตสฺส	-11.1679
▁อภิเญฺญยฺยํ	-11.168
▁๒๑๑	-11.1681
▁ปวุจฺจตี	-11.1682
▁ปญฺจวิญฺญาณ	-11.1683
▁ปิสุณา	-11.1683
▁๒๒๔	-11.1683
▁อธิโมโกฺข	-11.1683
ลส	-11.1684
▁ธมฺมวิจโย	-11.1685
▁สูริเย	-11.1686
าคมน	-11.1686
▁อาภตํ	-11.1686
▁ปริกฺขิปิตฺวา	-11.1686
▁ชานาถ	-11.1687
าธิปฺปาเยน	-11.1687
▁๒๓๒	-11.1687
▁ปสาเรตฺวา	-11.1688
▁ฆเฎตฺวา	-11.1689
ปฺปตฺติ	-11.1691
▁มหิ	-11.1694
▁ทุปฺป	-11.1695
▁โลกสฺมิ	-11.1695
▁อจฺฉินฺน	-11.1698
▁ทาตโพฺพฯ	-11.1699
คตนฺติ	-11.17
ถูป	-11.1701
▁อธิกํ	-11.1701
▁ปฎิจฺจสมุปฺปาโท	-11.1701
▁สฬายตนํ	-11.1702
ทเกน	-11.1703
▁กุณฺฑ	-11.1703
▁เอเตฺถ	-11.1704
▁วิกปฺปน	-11.1704
▁สมูหตา	-11.1704
▁อิทฺธ	-11.1706
▁อุสฺสุกฺกํ	-11.1707
▁ทีปิตา	-11.1708
▁นาฬิ	-11.1708
รญฺญา	-11.171
▁ปโยเช	-11.171
▁อิตรสฺสฯ	-11.1711
▁ปริภุญฺชิตพฺพ	-11.1712
▁วสน	-11.1712
▁อวณฺณ	-11.1715
▁สุโทฺธ	-11.1715
▁ปิหิต	-11.1715
มาคตํ	-11.1718
ฺห	-11.1718
ตว	-11.1719
วฺห	-11.1719
โมจน	-11.172
▁วิจิกิจฺฉาย	-11.1723
▁ปโยช	-11.1724
▁นิเกฺขป	-11.1725
ิตฺถิ	-11.1729
▁มนฺทา	-11.1729
กูเล	-11.173
▁เปเสสิฯ	-11.173
คโพฺภ	-11.1731
ฺม	-11.1732
▁๒๒๒	-11.1732
▁โกล	-11.1735
▁มิโค	-11.1735
จนฺทน	-11.1737
ทิฎฺฐี	-11.1737
▁อนฺธการ	-11.1739
▁ปจฺจุปฺปนฺนา	-11.1741
ตฺตร	-11.1742
▁วุสิตํ	-11.1742
▁นิโรธสจฺจํ	-11.1742
▁ปริหีน	-11.1743
สหิตํ	-11.1743
▁อาลมฺพ	-11.1743
าเปนฺติ	-11.1743
▁อุปสมฺปทํ	-11.1744
นิกายฎฺฐกถาย	-11.1745
▁มหาสาวชฺช	-11.1745
าลงฺกาเร	-11.1746
▁มโนมย	-11.1746
▁อาสีส	-11.1748
▁อุปฺปติตฺวา	-11.1748
▁สมฺปโยค	-11.1749
ภูเตหิ	-11.175
▁อจิตฺตก	-11.1751
▁สิยนฺติ	-11.1752
มโท	-11.1752
เมเวตํ	-11.1752
▁ปญฺจวิธ	-11.1753
วาเต	-11.1754
▁ปรามาโส	-11.1756
▁ปกฺขนฺท	-11.1758
▁๒๒๕	-11.176
▁จีวรานิ	-11.1763
▁คนฺธกุฎิ	-11.1763
กตาย	-11.1764
คามินี	-11.1764
▁โภติ	-11.1765
สํหิต	-11.1766
ยเนฺต	-11.1769
▁พฺรหฺมญฺญ	-11.177
นิทานา	-11.1772
▁ผุลฺล	-11.1774
▁นิสฺสรณญฺจ	-11.1776
▁โสโก	-11.1778
ุปชฺฌาย	-11.1778
▁มหิทฺธิโก	-11.1779
▁อุทฺธฎ	-11.178
▁กุมุท	-11.1782
▁ปิปาส	-11.1783
ปิเณฺฑ	-11.1783
▁อาณาเป	-11.1784
สนา	-11.1785
▁วิชฺชุ	-11.1787
คีต	-11.1788
▁กีทิสํ	-11.1788
▁อปรมฺปิ	-11.1788
▁คีวา	-11.179
▁ชีวิเต	-11.179
ปาติโมกฺข	-11.179
▁สํยม	-11.1792
▁๒๒๖	-11.1792
▁สามญฺญโต	-11.1793
▁วิโสเธ	-11.1794
▁สภา	-11.1797
▁๒๒๑	-11.1797
ิเตฯ	-11.1798
▁ฉฑฺฑ	-11.1798
▁ภเวยฺยาติ	-11.1799
▁ฐเปสิ	-11.1799
เกส	-11.18
▁ฐปน	-11.18
▁วิสาเข	-11.1802
▁วิญฺญาตโพฺพ	-11.1803
▁คุนฺนํ	-11.1803
โตว	-11.1804
▁อุฎฺฐิต	-11.1804
▁สีลวเนฺต	-11.1805
ุจฺจ	-11.1805
▁อเชฺฌส	-11.1806
▁ปฎฺฎ	-11.1806
จตฺตาริมานิ	-11.1807
ปริกฺขาเร	-11.1807
▁สตฺตโม	-11.1808
▁โยคิโน	-11.1809
▁จเญฺญ	-11.181
▁พฺยสนํ	-11.181
▁๒๓๐	-11.1812
▁อุปปเชฺชยฺย	-11.1814
▁มคฺคสจฺจญฺจ	-11.1814
▁ทุฎฺฐุลฺล	-11.1814
สํสโคฺค	-11.1816
▁๒๑๗	-11.1816
▁วิมุตฺติยา	-11.1818
ธโมฺมติ	-11.1818
▁ตุสิต	-11.1819
๑๔	-11.1823
ทสฺสิ	-11.1823
▁สมฺมาสมฺพุทฺธา	-11.1823
▁ณิ	-11.1825
▁อารภิฯ	-11.1826
▁สุวิสุทฺธ	-11.1826
▁นวมํ	-11.1827
ปฎิลาโภ	-11.1833
▁วิวิธา	-11.1833
▁มรเณน	-11.1834
▁สนฺตีรณ	-11.1835
ิยฺยติ	-11.1836
▁ปฎิสํเวเท	-11.1837
อาสว	-11.1837
▁อุปาทารูปํฯ	-11.1837
▁สกเล	-11.1838
▁สามิเก	-11.184
มปฺป	-11.1841
▁วเคฺค	-11.1843
▁ปริโยสาเน	-11.1844
▁วิธ	-11.1847
โมโกฺข	-11.1848
▁มูลานิ	-11.1848
▁กุฎิํ	-11.1848
▁มรติ	-11.1849
▁อรูปาวจรํ	-11.1849
▁ภยา	-11.185
สารี	-11.185
▁กุณฺฑล	-11.1852
นสีโล	-11.1852
โทมนสฺส	-11.1853
เสกฺข	-11.1853
▁นิโรธธมฺม	-11.1853
ปาฎ	-11.1856
คเพฺภ	-11.1856
ปโท	-11.1857
▁ติโยชน	-11.1857
▁อิตีติ	-11.1858
▁๒๒๓	-11.1859
ปริเจฺฉเทน	-11.186
▁มชฺฌิมํ	-11.1861
ารหา	-11.1861
านุคต	-11.1861
สิกฺขาปทญฺจฯ	-11.1862
▁ตาทิสา	-11.1862
▁ปุมา	-11.1863
ภาสาย	-11.1863
▁มหคฺคโต	-11.1863
▁ยตฺตกํ	-11.1863
เนฺธ	-11.1863
▁อสโกฺกนฺตา	-11.1863
▁ธมฺมสภายํ	-11.1863
▁โกฎฺฐาโส	-11.1863
▁วิหญฺญ	-11.1865
เสวนา	-11.1865
▁สีลวนฺต	-11.1865
ภาชเน	-11.1866
▁ปุญฺญกเมฺมน	-11.1867
▁อุภินฺนมฺปิ	-11.1867
ปรินิพฺพา	-11.1868
วิโรธ	-11.1868
▁อชฺฌาวส	-11.1868
▁คณนา	-11.1869
▁เทวทตฺต	-11.1869
▁ปริคฺคโห	-11.187
▁ปญฺจก	-11.1873
▁นีวรเณ	-11.1873
▁อยมายสฺมา	-11.1874
▁๒๒๙	-11.1875
▁สงฺคาย	-11.1877
▁มตฺถก	-11.1877
กฺขนฺธํ	-11.1878
▁วิปฺปฎิสาร	-11.1878
▁อาวาส	-11.1879
▁ทีเปนฺติ	-11.1879
▁อูนก	-11.188
▁สกฺยปุตฺต	-11.188
▁อุฎฺฐา	-11.1881
วิจิตฺต	-11.1881
▁สพฺพโลเก	-11.1883
▁อาสวสมฺปยุโตฺต	-11.1888
▁วิลป	-11.1888
ปฺปจฺจเย	-11.1889
วิภาวน	-11.1891
ชฺฌาสโย	-11.1891
ินฺทฺริเยน	-11.1892
▁ปุเรชาตํฯ	-11.1892
▁มทฺทิ	-11.1895
▁อาคโตติ	-11.1895
▁สมณพฺราหฺมณานํ	-11.1895
สกฺกา	-11.1896
▁สีลกฺขนฺธ	-11.1897
าปิโต	-11.1898
▁วกฺขามิ	-11.1901
เวฺห	-11.1903
▁อคมาสิ	-11.1906
▁ปจฺจตฺต	-11.1908
ลาภา	-11.1908
นิยต	-11.1908
ปาทา	-11.1909
โญฺช	-11.1914
▁กุสลญฺจ	-11.1916
▁ปุจฺฉิตา	-11.1917
▁พิล	-11.1918
▁กิตฺตาวตา	-11.1919
▁ปาเทสุ	-11.1921
กรณีเย	-11.1923
▁๒๓๕	-11.1924
▁สทฺธเมฺม	-11.1924
▁ปปญฺจสูทนิยา	-11.1924
▁กาโก	-11.1925
▁ปหิตโตฺต	-11.1925
▁กรณีเยน	-11.1925
▁ทฺวิตฺตํ	-11.1926
สภาวโต	-11.1926
▁ปาทมูเล	-11.1927
▁กามธาตุ	-11.1928
าวยว	-11.193
▁อคมํสุฯ	-11.1931
ปฺปตฺติยา	-11.1933
▁มชฺฌิมา	-11.1934
▁ชีวิกํ	-11.1936
▁๒๒๗	-11.1936
าติอาทิ	-11.1941
ปติต	-11.1944
▁ภณนฺติ	-11.1947
สรณา	-11.1948
▁ผุฎฺฐสฺส	-11.1948
▁ปีติสหคตา	-11.1948
▁อารามํ	-11.1948
▁วิภูส	-11.1949
ปุริเส	-11.195
▁อาวุธ	-11.195
▁คณฺหโต	-11.1951
วิมาน	-11.1952
▁เอติสฺสา	-11.1955
หรณํ	-11.1956
▁ยาจติ	-11.1962
▁พฺรหฺมจาริ	-11.1963
▁มเต	-11.1964
▁โยเชตโพฺพฯ	-11.1965
▁ขาทิตฺวา	-11.1965
▁โจ	-11.1965
▁โสเยว	-11.1965
ลิเงฺค	-11.1966
▁ปวตฺตตฺตา	-11.1968
▁นยิทํ	-11.1968
กเทส	-11.197
▁สาณ	-11.1972
▁อนฺตรํ	-11.1972
▁หิตสุข	-11.1974
พลา	-11.1976
ปจฺจนียานุโลมํ	-11.1976
มิเจฺจว	-11.1976
▁เหตุผล	-11.1978
ภาชนีย	-11.1978
๑๖	-11.1979
▁อุปสํหร	-11.1979
อุเปกฺขา	-11.1984
▁สพฺพญฺญุตญฺญาณํ	-11.1984
▁หนฺติ	-11.1984
▁อคฺคิเวสฺสน	-11.1985
▁ยาวตติยํ	-11.1985
▁อนุสฺสาวน	-11.1985
▁นปฺปชหตีติ	-11.1985
▁มิจฺฉตฺตนิยต	-11.1985
จิตํ	-11.1986
▁โทสสฺส	-11.1987
▁สํสโย	-11.1987
▁จิตฺตเจตสิกา	-11.1987
▁อาสวกฺขย	-11.1987
▁สงฺคเหตฺวา	-11.1989
▁อุปฺปชฺชน	-11.199
ยตเน	-11.199
▁อตฺตหิตาย	-11.1991
สมฺปยุเตฺต	-11.1992
▁นิมเนฺตตฺวา	-11.1993
▁ปรโลเก	-11.1994
▁สมาทิยิตฺวา	-11.1994
▁ภาสิสฺสามี	-11.1995
▁๒๔๐	-11.1995
▁๒๓๙	-11.1995
▁โมโกฺข	-11.1997
▁วิชานาติ	-11.2002
▁นโนฺท	-11.2002
▁นวหิ	-11.2003
▁โกเป	-11.2003
▁นิยาม	-11.2003
สกํ	-11.2005
มิธ	-11.2005
▁อปฺปมตฺตา	-11.2006
นุโลมปจฺจนียํ	-11.2006
▁๒๓๑	-11.2008
เญฺจตํ	-11.2009
▁อีทิส	-11.2009
▁สพฺพสตฺตานํ	-11.201
▁อนฺตราโย	-11.2011
ปฺปเตฺต	-11.2011
▁จตุพฺพิธา	-11.2012
เจตนาย	-11.2013
ธโมฺมฯ	-11.2014
▁วิสาขา	-11.2016
▁สมฺปทา	-11.2016
ปจฺฉิมจิตฺตสฺส	-11.2017
นโม	-11.2017
ุตฺตโม	-11.2018
▁สาข	-11.2018
▁นิฎฺฐํ	-11.2019
▁อนุสนฺธิ	-11.2019
▁วิคฺคโห	-11.2021
▁ปวุจฺจติ	-11.2023
▁คีต	-11.2023
ปวารณา	-11.2025
▁ปูว	-11.2026
ปิณฺฑํ	-11.2029
▁อสโมฺมห	-11.2029
▁อคฺคินา	-11.203
▁ภวิสฺสสิฯ	-11.2031
▁กมฺมวาจาย	-11.2037
ทุเก	-11.2037
▁กโร	-11.2039
ปฺยตฺรฯ	-11.204
สหคเตน	-11.2041
▁ปโห	-11.2041
▁อหิตาย	-11.2042
กูป	-11.2044
าโรห	-11.2045
ภูตตฺตา	-11.2045
▁ปิฎก	-11.2047
▁หิโรตฺตปฺป	-11.2047
▁สนฺธาเยต	-11.2047
นโตฺถ	-11.2048
▁ปริกฺขาโร	-11.2049
▁คเนฺถ	-11.2049
▁ปุเญฺญน	-11.2049
▁ชนินฺท	-11.205
ฆน	-11.205
▁โรเจ	-11.2051
▁อธิมุจฺจ	-11.2051
▁ชานาหิ	-11.2051
โลฺล	-11.2052
▁ปริจฺฉินฺท	-11.2054
▁ปริสาสุ	-11.2055
▁ปติตฺวา	-11.2056
▁ทฎฺฐุํ	-11.2057
▁สทิสา	-11.2057
รตฺติ	-11.2057
ปเทเสน	-11.2057
▁เปกฺขมาโน	-11.2057
▁อุคฺคห	-11.2058
▁อิจฺจ	-11.206
▁สาสโว	-11.206
มเนฺต	-11.2061
▁ปาราชิกา	-11.2061
เปกฺขา	-11.2063
▁อาปุจฺฉิตฺวา	-11.2064
▁วิปลฺลาส	-11.2065
▁โรป	-11.2065
▁อหุํ	-11.2066
▁สมฺมาสโมฺพธิํ	-11.2066
สงฺกโปฺป	-11.2067
กิจฺจา	-11.2067
ถมฺภ	-11.2067
▁สโมฺพธาย	-11.2068
▁อนุภวิตฺวา	-11.2068
มตฺตานํ	-11.2069
▁ปู	-11.2069
▁กุทาสฺสุ	-11.207
วิชฺฌ	-11.2075
▁อภิสมย	-11.2077
คณนา	-11.2079
▁ยาม	-11.208
▁สามิส	-11.2082
▁ภาเสยฺย	-11.2083
เมตนฺติ	-11.2083
▁ปาสาโท	-11.2084
นิยํ	-11.2084
ฎก	-11.2086
นาโค	-11.2093
เจล	-11.2093
▁อิมาสํ	-11.2094
▁หโต	-11.2097
สโญฺญ	-11.2098
พฺยาปชฺช	-11.2098
ตีเร	-11.2099
▁อมิตฺต	-11.21
สูริย	-11.2102
ทล	-11.2102
▁จตุรสฺส	-11.2102
นิปฺผตฺติ	-11.2102
▁อคฺคมคฺคสมงฺคี	-11.2103
คุมฺพ	-11.2103
กิริยํ	-11.2104
พนฺธุ	-11.2104
▁ภิกฺขุสงฺฆ	-11.2104
▁วิเญฺญโยฺย	-11.2105
▁สมติกฺกม	-11.2107
▁ปาริวาสิก	-11.2108
▁อนฺตลิเกฺข	-11.2109
ิยเตฺถรสฺส	-11.2109
สรีโร	-11.211
▁กามาวจโร	-11.2114
▁ปพฺพชิสฺสามิ	-11.2114
▁วณฺณวาที	-11.2115
▁เทวตาย	-11.2115
▁นิสีทาเปตฺวา	-11.2115
นฺตาปิ	-11.2116
สูป	-11.2117
ทีน	-11.2118
▁เอตฺตกเมว	-11.2118
▁พฺราหฺมเณน	-11.2119
▁ปสุ	-11.212
▁จาหํ	-11.2123
เปยฺยาล	-11.2123
▁สุตฺตานิ	-11.2124
▁กโรเนฺต	-11.2126
▁สานุสโยติ	-11.2126
▁ตชฺช	-11.2127
▁วิเญฺญยฺยํ	-11.2129
รม	-11.213
▁อรูปิ	-11.2131
▁๒๔๒	-11.2131
▁อิมินาปิ	-11.2131
▁คณฺหิฯ	-11.2132
▁ปฎิเสเธ	-11.2133
▁มตฺตา	-11.2133
▁ทุลฺลโภ	-11.2134
▁อริฎฺฐ	-11.2135
▁ปริกฺขิตฺต	-11.2136
ูปมํ	-11.2136
ตฺถี	-11.2137
วาณิช	-11.2139
ปุฎ	-11.214
▁เวทนากฺขนฺธ	-11.214
▁อโชฺฌส	-11.214
▁ปญฺญเปติ	-11.2141
ปริยโนฺต	-11.2141
อนา	-11.2142
กามาวจร	-11.2143
ิตฺถฯ	-11.2145
อรูป	-11.2147
ภูตานิ	-11.2148
▁ปพฺพชิตสฺส	-11.215
▁อาเสว	-11.2151
▁พฺยากาสิ	-11.2152
ุปฺปาทา	-11.2152
ิตเพฺพ	-11.2153
▁สิยุํฯ	-11.2153
▁ปญฺจทส	-11.2154
▁วิหาสิ	-11.2155
▁มหคฺคตํ	-11.2156
ุทฺท	-11.2157
▁อโถปิ	-11.2158
▁วิตฺถาเร	-11.2159
อนิทสฺสนสปฺปฎิโฆ	-11.2159
าลิ	-11.216
▁จุ	-11.2162
▁ปสฺสสิ	-11.2162
▁วุทฺธิํ	-11.2165
วิสยตฺตา	-11.2165
ขีณาสว	-11.2165
▁ปุนปฺปุน	-11.2165
อจฺฉริยํ	-11.2165
▁หุตฺวาฯ	-11.2166
▁ปฎิปตฺติํ	-11.2169
▁ปจฺจนุโภ	-11.2171
▁นิรุชฺฌนฺติฯ	-11.2172
▁ปีติสหคโต	-11.2172
▁ชาติชรามรณ	-11.2173
▁ยกฺขา	-11.2174
▁การิย	-11.2174
▁มหาสมุโทฺท	-11.2175
▁ปุริสปุคฺคโล	-11.2176
กตฺตุ	-11.2178
▁นทาทิ	-11.2178
▁วิสชฺช	-11.2179
▁มหาปถวี	-11.2181
▁ทยา	-11.2182
รํสี	-11.2183
คตีสุ	-11.2184
๑๗	-11.2184
▁เอกวิเธน	-11.2184
▁สพฺพทุกฺข	-11.2184
▁สุนข	-11.2184
▁สมุทยสจฺจญฺจ	-11.2184
▁อาภา	-11.2185
▁สุภทฺท	-11.2186
ยฺยุํฯ	-11.2189
▁วิชฺฌิตฺวา	-11.2191
▁อุปฎฺฐาโก	-11.2191
▁เปมํ	-11.2191
▁อุปมาย	-11.2192
▁ทิฎฺฐิคตานํ	-11.2193
▁อารา	-11.2193
▁อุเปกฺขาสหคต	-11.2194
▁มาตุคาเมน	-11.2195
▁มนุสฺสภูตา	-11.2196
าวโห	-11.2196
▁ทาสี	-11.2197
▁วุฎฺฐานสฺส	-11.2197
▁ปาฎิเทสนีย	-11.2197
กนวิปากธมฺมธมฺม	-11.2197
▁อาน	-11.2198
สมตฺถตา	-11.2198
▁วิวาทาธิกรณํ	-11.2203
▁ปิยรูปา	-11.2204
กาเรหิ	-11.2204
‘‘	-11.2205
วิมานวณฺณนา	-11.2206
ตฺถานํ	-11.2207
▁สุเตฺตสุ	-11.2208
▁สจฺฉิกา	-11.2208
▁ภเวยฺยา	-11.2209
▁ญาตเก	-11.2209
▁อปฺปฎิฆ	-11.2211
วิชานน	-11.2212
▁ปวตฺติยํ	-11.2213
กูเฎ	-11.2214
สทฺทโต	-11.2214
▁สุธมฺม	-11.2215
พฺยากรณ	-11.2215
▁อุปสนฺต	-11.2216
ปรํ	-11.2216
▁มาโส	-11.2216
▁กปณ	-11.2217
▁ปจิตฺวา	-11.2217
▁อฎฺฐก	-11.2217
▁ทสม	-11.2221
▁ปริยา	-11.2221
▁กาเรตโพฺพ	-11.2222
▁ยติ	-11.2223
▁ภวิสฺสามี	-11.2223
โลฯ	-11.2224
าทิคุณ	-11.2224
▁อกฺขาตา	-11.2225
มาสิ	-11.2226
หตฺถํ	-11.2226
นิวิฎฺฐ	-11.2228
▁๒๔๑	-11.2229
▁ราหุ	-11.2231
▁มนุ	-11.2231
▁ปสฺสาว	-11.2231
อุปาทาน	-11.2232
▁กโรมี	-11.2233
▁อเปฺปว	-11.2233
เทวี	-11.2234
▁สุราเมรยมชฺชปมา	-11.2234
▁สรีรสฺส	-11.2234
▁สปฺปาณก	-11.2234
▁อาหํสุ	-11.2235
▁รํสิ	-11.2236
▁คเหตโพฺพ	-11.2237
ตกฺก	-11.2237
▁นิทฺทา	-11.224
▁ปาปโก	-11.224
▁วาเท	-11.224
▁หิเต	-11.2241
▁สนฺ	-11.2241
ปณ	-11.2241
▁ปุจฺฉิต	-11.2242
สงฺขารา	-11.2243
▁อจฺจิ	-11.2245
วิโนท	-11.2245
สาคร	-11.2247
▁พนฺธนา	-11.2248
▁ชิเน	-11.2248
▁สจฺจานํ	-11.2251
▁อภินีหาร	-11.2251
หุต	-11.2252
▁ถุติ	-11.2253
▁สารโตฺต	-11.2253
▁สุภา	-11.2253
เมตํฯ	-11.2254
กสุตฺตวณฺณนา	-11.2254
านุรูป	-11.2254
▁อุปาคมิ	-11.2255
านเมว	-11.2256
ปูชา	-11.2257
▁จกฺขายตน	-11.2257
▁โผฎฺฐพฺพํ	-11.2259
▁จีวรปิณฺฑปาตเ	-11.2261
สโมฺพธ	-11.2262
▁ทุกฺขสจฺจญฺจ	-11.2263
▁สญฺชานาติ	-11.2263
▁วีตราค	-11.2265
ธุ	-11.2266
ตฺตม	-11.2268
▁ทิเฎฺฐน	-11.2269
▁อพฺยา	-11.2272
สงฺคหํ	-11.2272
ทฺทส	-11.2273
▁โคตฺรภุสฺส	-11.2274
าทีสูติ	-11.2275
▁คิล	-11.2275
วฎฺฎิ	-11.2277
าวุธ	-11.2286
▁การณนฺติ	-11.2287
▁สีตํ	-11.2288
เนปิ	-11.2289
ตาทีหิ	-11.229
▁ลจฺฉ	-11.229
▁สุปิน	-11.2291
ยฎฺฐิ	-11.2291
สารํ	-11.2291
อิเจฺจว	-11.2292
▁อารุปฺป	-11.2293
▁ปาณิโน	-11.2294
▁ขเย	-11.2296
▁ปจฺฉาชาเต	-11.2297
จตุนฺนวุติ	-11.2298
▁ทมฺมิ	-11.2298
าทิวณฺณนา	-11.2299
ทีโป	-11.2301
▁วิเสเสตฺวา	-11.2302
▁อโตฺถติ	-11.2302
▁เกวฎฺฎ	-11.2305
วาสีนํ	-11.2306
งฺคา	-11.2306
▁ฉโนฺน	-11.2307
▁มหนฺตา	-11.2307
▁อปทานํฯ	-11.2308
▁มหตี	-11.2309
โจฬ	-11.231
▁วิธุร	-11.231
▁สํวฎฺฎ	-11.2311
▁ตมฺ	-11.2313
นวุติ	-11.2313
▁เชตวนํ	-11.2314
▁อโสก	-11.2315
รตเน	-11.2317
▁สงฺขารุเปกฺขา	-11.2317
านุภวน	-11.2317
▁วจนํฯ	-11.2319
▁ปฎิกูล	-11.2321
คเณ	-11.2323
ภาช	-11.2324
▁นฬ	-11.2325
▁รเฎฺฐ	-11.2325
▁กุจฺฉิต	-11.2328
มก	-11.2328
▁อภินิเวส	-11.2329
ทิคุณ	-11.2329
▁อุกฺกํส	-11.2329
▁เสโส	-11.2331
▁อภิรม	-11.2332
▁สมาปตฺติยา	-11.2332
▁เฉโก	-11.2334
พฺยํ	-11.2339
ูหิ	-11.234
▁ปุรตฺถิม	-11.234
กุณฺฑ	-11.2341
ยุํฯ	-11.2341
▁คหฎฺฐ	-11.2342
▁การยิ	-11.2342
▁อุณฺหํ	-11.2345
▁สุนฺทรํ	-11.2346
สมถ	-11.2346
มาสํ	-11.2347
สมํฯ	-11.2347
าปิตํ	-11.2348
วิโส	-11.2348
▁วเชฺช	-11.2349
าภาวโตฯ	-11.235
าทิภาเวน	-11.2351
ปริคฺคโห	-11.2353
เสตฺวา	-11.2354
▁ขณิก	-11.2355
ญฺญาต	-11.2356
▁ทาตุ	-11.2356
▁ปพฺพตา	-11.2357
▁ปณิธิ	-11.2358
▁นปฺปชานนฺติ	-11.2361
▁อาโรเจติ	-11.2361
▁ทีปงฺกร	-11.2362
▁ทุปฺปโญฺญ	-11.2362
าปก	-11.2363
▁โอภาโส	-11.2363
โทเส	-11.2364
กิญฺจ	-11.2366
▁วกฺข	-11.2367
มิเตฺต	-11.2368
▁ฆราวาส	-11.2368
ูปม	-11.2369
▁ขโณ	-11.2369
เอโส	-11.237
าวิ	-11.2371
▁ปริปกฺก	-11.2372
ญฺชลิ	-11.2373
▁อํส	-11.2373
▁ภชติ	-11.2373
▁สํยุตฺต	-11.2374
ฺยํ	-11.2374
▁คโพฺภ	-11.2375
▁อนาคามิผล	-11.2375
▁วุตฺตนยตฺตา	-11.2376
▁อชานนฺตา	-11.2376
▁วิจกฺขโณ	-11.2377
▁วิญฺญายติฯ	-11.2378
▁ขนฺติํ	-11.2381
▁อิธาวุโส	-11.2381
ปฎิภาน	-11.2381
วิภาว	-11.2382
▁วิรม	-11.2382
▁สหชาตปจฺจยา	-11.2382
▁อุปาสกํ	-11.2383
▁คณฺหิตุํ	-11.2383
พหู	-11.2384
วิปสฺสนาย	-11.2386
วตฺถํ	-11.2386
วลย	-11.2387
▁กาลมกาสิฯ	-11.2389
▁ปชหโนฺต	-11.2393
▁ภวราคานุสย	-11.2394
▁คหณํฯ	-11.2396
▁อปริยาปนฺนา	-11.2396
▁ปฎิจฺฉนฺนา	-11.2399
ิตุกามา	-11.24
▁ปณฺฑิโตฯ	-11.24
▁อนุปฺปตฺตา	-11.2402
▁อสกฺกุเณยฺย	-11.2402
▁ภวนํ	-11.2402
▁อินฺทฺริยนฺติ	-11.2405
วีติ	-11.2406
ชฺฌานํ	-11.2407
▁วตฺตพฺพเมว	-11.2408
▁นิสฺสิต	-11.2408
ุปฺปนฺนํ	-11.2409
สนฺตาป	-11.2409
▁สพฺพกิเลส	-11.2409
▁นิคณฺฐ	-11.241
▁อุปาทานา	-11.241
▁ขาทติ	-11.2411
▁สพฺพโต	-11.2411
▁กุลปุตฺตา	-11.2414
▁สงฺขตํ	-11.2416
ทีปนา	-11.2416
▁ฑ	-11.2417
▁เอสนา	-11.2418
▁อปฺปจฺจย	-11.2421
ปญฺหา	-11.2421
รูฬฺห	-11.2422
▁สมฺมปฺปธานา	-11.2423
▁อิธาธิเปฺปต	-11.2425
นิวาส	-11.2426
▁วิยากาสิ	-11.2426
ามาติ	-11.2426
ภวงฺค	-11.2428
าสนํ	-11.2428
สมุทย	-11.2428
▁ครุก	-11.2428
โมฺภ	-11.2429
▁อฎฺฐาน	-11.243
▁ฉฑฺฑิต	-11.243
▁สเงฺกต	-11.2431
ตฺติํส	-11.2431
อเหตุโก	-11.2432
ิตานํ	-11.2433
ชนํ	-11.2433
▁นิสชฺชาย	-11.2433
ทสก	-11.2434
▁ทก	-11.2435
▁ปวารณํ	-11.2437
พโนฺธ	-11.2438
▁อินฺทฺริยํฯ	-11.2438
▁ภิโนฺน	-11.244
ทสวิเธน	-11.244
ขณฺฑํ	-11.2442
▁อรหตีติ	-11.2443
▁มลํ	-11.2443
เหตุโต	-11.2445
นิยาโม	-11.2446
▁ยาติ	-11.2447
▁สํวตฺตตี	-11.2447
▁สุณนฺติ	-11.2449
สเจฺจ	-11.245
▁สพฺพาว	-11.2451
▁สารชฺช	-11.2452
▁วิจาเร	-11.2454
▁อนิจฺจานุปสฺสนา	-11.2454
▁วเร	-11.2455
▁วจนตฺถํ	-11.2456
สารุปฺป	-11.2457
หเตฺถน	-11.2459
๑๙	-11.2459
▁สมิทฺธิ	-11.2463
กิณฺณา	-11.2463
▁โกส	-11.2463
ยุเตฺตน	-11.2464
▁ปติตํ	-11.2466
▁ปกาเสสิ	-11.2466
ปูติ	-11.2467
▁วนฺทิ	-11.2468
▁ปฎิกฺขิตฺต	-11.2469
โฎฺฐติ	-11.2471
▁นิพฺพาเป	-11.2472
▁คพฺภํ	-11.2473
▁อุสุ	-11.2474
คาร	-11.2474
▁นครสฺส	-11.2474
▁ปเทสํ	-11.2475
▁ปาราชิกํฯ	-11.2476
พฺยาธิ	-11.2477
ายตนานิ	-11.248
▁ตาวติํส	-11.2481
ปริเจฺฉทํ	-11.2482
▁นามิกปทมาลา	-11.2482
ปจฺฉา	-11.2483
▁สทฺทายตนํ	-11.2483
ทุจฺจริต	-11.2483
▁ววตฺถเป	-11.2484
▁พหุล	-11.2485
คโนฺถ	-11.2486
▁อธิเปฺปตํ	-11.2486
สงฺขาตานํ	-11.2488
ปลิโพธ	-11.2488
▁กิสฺมิญฺจิ	-11.2489
อุตุ	-11.2489
ปจฺจยํ	-11.249
▁ชนฺตาฆร	-11.249
สาธารโณ	-11.249
▁อยเญฺหตฺถ	-11.249
▁นิทฺธ	-11.249
กุสุม	-11.2491
▁อุปาหน	-11.2491
▁คนฺธายตนํ	-11.2491
▁มชฺฌิเม	-11.2491
▁ทเสฺสสิ	-11.2493
▁พฺรหฺมจริยวาโส	-11.2493
▁มณฺฑล	-11.2496
นฺทฺริย	-11.2498
▁อิตรถา	-11.2498
▁อภิสมโย	-11.2499
▁อนุโลมํฯ	-11.2499
▁สจฺฉิกิริยา	-11.2501
โปส	-11.2501
▁อสฺสเม	-11.2502
▁สปฺปุริสา	-11.2503
วสฺสสหสฺสานิ	-11.2503
ปฎิญฺญํ	-11.2503
▁ถล	-11.2503
▁กุสุม	-11.2505
วจ	-11.2506
▁วิหรนฺติฯ	-11.2507
▁ทสา	-11.251
▁คณํ	-11.2515
ุตฺตเร	-11.2515
วีติกฺกม	-11.2517
สฺมี	-11.2518
▁รุนฺธ	-11.2518
▁สมฺมปฺปธาน	-11.2521
▁ปริวตฺตน	-11.2521
มุเตฺต	-11.2522
▁ฑยฺห	-11.2523
▁ชินํ	-11.2526
▁อหู	-11.2526
เหน	-11.2528
▁นิสฺ	-11.2531
▁มจฺฉริยํ	-11.2531
สยํ	-11.2531
▁ขียติ	-11.2532
เจฺจน	-11.2534
▁ปตฺถนาย	-11.2535
▁ปริตฺตา	-11.2536
▁นิยฺยาติ	-11.2538
อชฺฌตฺต	-11.2539
สมุฎฺฐาเน	-11.2539
โชติ	-11.2541
▁ติโลก	-11.2544
▁วคฺคุ	-11.2544
ชี	-11.2545
นิรุตฺติ	-11.2545
▁อโนม	-11.2546
เจฺจว	-11.2548
สมฺปนฺนสฺส	-11.2548
▁นิรนฺตร	-11.2548
▁ภายิ	-11.255
▁ปเวท	-11.255
อนาคต	-11.255
▁วิทฺธํเส	-11.255
▁วตฺตเต	-11.255
▁อิสฺสริยํ	-11.2551
▁ปวตฺติตํ	-11.2552
สมญฺญา	-11.2552
▁มรณสฺส	-11.2553
ปริฬาโห	-11.2554
ฎฺฐปน	-11.2554
▁โปฎฺฐปาท	-11.2555
▁อสฺสาสปสฺสาเส	-11.2555
▁ปฎิสฺสุตฺวา	-11.2555
▁เวสฺสนฺตโร	-11.2555
▁สมฺปหํเส	-11.2555
▁สณฺฐาติ	-11.2555
▁เอวรูปสฺส	-11.2555
▁กามูปสํหิตา	-11.2555
▁สมฺมุขาวินโย	-11.2556
▁ปญฺจโวการํ	-11.2556
▁นานากรณํ	-11.2556
▁อญฺญาติกาย	-11.2556
▁อุปการก	-11.2558
▁ทฺวิกฺขตฺตุํ	-11.2558
▁พฺยเตฺตน	-11.2559
▁เปตฺติวิสย	-11.256
▁กฺว	-11.2562
▁นิมนฺติโต	-11.2564
กฺกเม	-11.2566
▁โภชนานิ	-11.2566
ภาชนํ	-11.2567
▁ปฎิชานาติฯ	-11.257
▁สทฺธมฺมสฺส	-11.2572
▁มูลาย	-11.2574
วชฺชิตา	-11.2574
▁อุทาเน	-11.2575
ธมฺมโต	-11.2575
ปญฺญํ	-11.2576
พลว	-11.2576
▁ผเลน	-11.2577
▁โอทนํ	-11.2577
▁ปฎิปฺปสฺสทฺธ	-11.258
▁วิตกฺกํ	-11.2582
สํสคฺค	-11.2582
▁มธุรํ	-11.2583
สาลํ	-11.2583
นานเตฺต	-11.2586
▁ลหุก	-11.2591
วสํ	-11.2593
ยิํสุฯ	-11.26
▁ภยโต	-11.2602
รเสน	-11.2602
สุญฺญต	-11.2602
▁ปริจฺจตฺต	-11.2603
▁อรุณ	-11.2603
▁อุฎฺฐาเป	-11.2603
▁ปํสุกูลิก	-11.2604
▁โพธ	-11.2605
เยวาติฯ	-11.2607
นฺตรธาน	-11.2607
▁พุโทฺธติ	-11.2608
าเทเส	-11.2609
▁สเมน	-11.2609
▁รมฺมํ	-11.2609
กโณฺฑ	-11.2609
▁กุมารํ	-11.261
▁ภาวนํ	-11.2611
▁กถนฺติ	-11.2614
▁อีทิสํ	-11.2618
▁ลิงฺคํ	-11.2619
▁ปจฺจนียุทฺธาโร	-11.262
โกลาหล	-11.262
▁อธิกรเณ	-11.2621
▁ปิณฺฑปาโต	-11.2621
▁ปสนฺนมานโส	-11.2621
▁กลหํ	-11.2621
ตุมฺหากํ	-11.2622
▁กงฺขํ	-11.2622
▁โกสโล	-11.2622
▁วยปฺปโตฺต	-11.2622
▁คนฺถวิปฺปยุตฺต	-11.2623
▁เปสิต	-11.2623
▁อชฺฌตฺตพหิทฺธา	-11.2623
สเตฺถ	-11.2624
วิญฺญาณํ	-11.2624
▁สุขิตา	-11.2624
▁ธมฺมิกํ	-11.2624
ิโยฯ	-11.2625
▁อทิฎฺฐ	-11.2625
▁เวยฺยากรณ	-11.2626
▁ปพฺพชฺชาย	-11.2627
▁เอกวิธ	-11.263
▁ยถาสมฺภวํ	-11.2631
▁ภเณ	-11.2632
▁กตม	-11.2635
โทฺท	-11.2636
▁สามเณรสฺส	-11.2636
▁ทสฺสิตํฯ	-11.2637
▁ปุพฺพา	-11.2638
▁นิกฺข	-11.2639
พุทฺธสฺส	-11.2639
▁ตสฺมาติห	-11.264
ธาตุโย	-11.2641
▁มโนกมฺมํ	-11.2641
▁อนตฺถํ	-11.2642
▁พนฺธเน	-11.2642
โลโม	-11.2643
ฑฺฑ	-11.2643
▁ชานิตุํ	-11.2644
▁วิสเม	-11.2644
▁ปทห	-11.2644
เนโตฺต	-11.2644
วาจาย	-11.2646
▁อปฺปตฺวา	-11.2646
▁การณํฯ	-11.2647
▁ตุฎฺฐิ	-11.2647
▁สกุโณ	-11.2647
▁อนฺนปาน	-11.2648
▁มิจฺฉาฯ	-11.2648
หรเณ	-11.2649
เสยฺยา	-11.2651
▁ราม	-11.2653
หเรยฺย	-11.2654
▁สมาธินา	-11.2656
สมฺปาท	-11.2658
▁อเจตสิก	-11.2658
ญาณํฯ	-11.2659
โรโค	-11.2664
▁สํวาส	-11.2664
▁อโชฺฌหร	-11.2666
▁พเลน	-11.2666
▁ตปฺปจฺจยา	-11.2668
▁ยเทว	-11.2669
ารทฺธ	-11.2673
▁ขมาเป	-11.2674
เนฺทยฺย	-11.2674
▁อิจฺฉนฺติ	-11.2675
▁มคฺคงฺคํ	-11.2678
▁ยายํ	-11.2679
▁อากาสธาตุ	-11.2681
สตฺถุ	-11.2682
▁นุตฺถ	-11.2683
าสนฺน	-11.2683
เนวเสกฺขนาเสโกฺข	-11.2686
▁ทุคฺคนฺธ	-11.2686
▁โยคาวจโร	-11.2686
▁วิหรเนฺต	-11.2686
▁อนวกาโส	-11.2687
▁อิทม	-11.2687
▁คิลานา	-11.2689
▁อุปาทิย	-11.2689
▁สมยา	-11.2689
▁อเชฺชว	-11.269
▁อุปฎฺฐเปตฺวา	-11.2692
▁โอฎฺฐ	-11.2692
▁อาฆาโต	-11.2693
▁โนจิตฺตสํสฎฺฐ	-11.2693
▁ยมหํ	-11.2693
▁อลชฺชี	-11.2695
▁ปฎฺฐเปตฺวา	-11.2695
▁ปตฺตจีวร	-11.2696
▁มญฺญนฺติ	-11.2698
าติกฺกเม	-11.2698
สุกฺก	-11.2699
▁เอโกทิ	-11.2701
▁วิจิกิจฺฉาสหคตํ	-11.2702
▁ชีวก	-11.2702
ปฺปเภเท	-11.2704
นุตฺตร	-11.2704
เทฺธน	-11.2709
สิขา	-11.2709
าธิเก	-11.271
▁ทีเปโนฺต	-11.2711
สาธก	-11.2712
▁อญฺญโต	-11.2713
▁สุชาโต	-11.2715
▁กีฬา	-11.2716
▁ปกต	-11.2716
▁ปติรูป	-11.2718
อปร	-11.2718
ปริกฺข	-11.2719
าทีนิปิ	-11.2721
▁อุทาน	-11.2722
▁เตเยว	-11.2724
▁ภวนฺตีติ	-11.2726
▁กิลิฎฺฐ	-11.2726
▁รูปารมฺมณํ	-11.2727
ชรา	-11.2728
▁วิญฺญาณนฺติ	-11.273
▁เทวเต	-11.2731
▁ปจฺจเวกฺขณา	-11.2732
สฺสรา	-11.2732
▁อภว	-11.2733
▁วนฺทน	-11.2733
▁สนฺติฎฺฐติ	-11.2734
สโญฺญชน	-11.2734
อิติปิ	-11.2735
▁ปจฺฉิมสฺส	-11.2735
▁วิมุจฺจติ	-11.2736
▁คณฺฐิ	-11.274
▁ปาจ	-11.2741
▁นิยฺยานิก	-11.2743
เวหิ	-11.2744
▁ปติรูปํ	-11.2744
▁จิเตฺตกคฺคตา	-11.2745
จฺฉิชฺช	-11.2746
สํวณฺณนาย	-11.2748
สฺสู	-11.275
รูปี	-11.2752
▁ภารทฺวาช	-11.2752
▁อนนุสฺสุเตสุ	-11.2752
▁กามโภคี	-11.2752
มงฺค	-11.2753
▁ปจฺจเวกฺขมาโน	-11.2756
วาริต	-11.2756
อฎฺฐานเมตํ	-11.2757
▁อาสี	-11.2757
สโมธาน	-11.2757
▁นอเหตุก	-11.2757
สมฺภวา	-11.2758
เฎฺฐสุ	-11.2759
▁ปิตฺต	-11.276
▁ปคฺคเหตฺวา	-11.2761
▁อภิวาทน	-11.2761
▁ปิยรูปํ	-11.2761
ราเชน	-11.2765
เวณิ	-11.2766
▁กรณียาฯ	-11.2768
อิจฺจาทินา	-11.2768
▁ภิชฺชติ	-11.2769
▁ตาวกาลิก	-11.277
▁สปตฺต	-11.277
▁ตูล	-11.2771
▁ผรุส	-11.2773
▁ปริวาริโต	-11.2773
▁สมนุ	-11.2776
กิเจฺจสุ	-11.2778
▁ภาวนามย	-11.2778
▁ทุสฺสีล	-11.2781
▁ทร	-11.2781
รุกฺขา	-11.2782
ปรายโณ	-11.2786
▁มารํ	-11.2787
▁ปญฺญินฺทฺริย	-11.2788
▁นามโคตฺต	-11.2788
▁วิเกฺขป	-11.2788
ปุคฺคลํ	-11.2796
▁เอฬ	-11.2798
ปทฎฺฐานา	-11.2799
▁อชานนฺตสฺส	-11.2799
▁อนุรกฺข	-11.28
▁ปริปุโณฺณ	-11.28
▁คุณวนฺต	-11.2803
▁อภิกฺกนฺต	-11.2803
คตฺต	-11.2805
ปจฺจโยฯ	-11.2805
▁ยาทิสา	-11.2805
▁ญาณสมฺปยุตฺต	-11.2807
ชาตสฺส	-11.281
▁อลาภ	-11.281
วิโทฺธ	-11.281
ินีฯ	-11.281
▁วิภาว	-11.2816
▁อเถ	-11.2816
สรีเร	-11.2816
▁กริสฺสามา	-11.2818
▁ปุริโม	-11.2819
▁สุตฺตนฺตภาชนีย	-11.2819
▁ปราชโย	-11.2819
▁ปาสํโส	-11.2819
▁อญฺญถตฺตํ	-11.282
▁เอเกกสฺส	-11.282
▁อชฺฌา	-11.282
▁สหชาตาธิปติฯ	-11.2821
▁มุยฺห	-11.2821
อิเธว	-11.2821
▁มหากสฺสโป	-11.2822
มนสิกาโร	-11.2822
▁โสวณฺณ	-11.2823
▁ตสฺมิญฺจ	-11.2823
▁โลมา	-11.2824
▁นิพฺพิทาย	-11.2825
▁ตถารูเป	-11.2826
▁ปจฺจนียํ	-11.2826
▁วิเสเส	-11.2826
▁โหตูติ	-11.2828
▁กุฎ	-11.2829
มุตฺตม	-11.283
▁พฺรหฺมวิหาร	-11.2831
▁พฺยนฺตี	-11.2832
▁เตวีสติ	-11.2836
▁สํวิทห	-11.2837
ปวิฎฺฐ	-11.2839
▁ปาปุณิ	-11.2841
▁ปสีท	-11.2841
▁ปรมโตฺถ	-11.2843
▁วินาเส	-11.2844
▁วิภูต	-11.2847
มริยาท	-11.2847
▁วุจฺจมาน	-11.2848
กเณฺฑ	-11.285
ธาตู	-11.2851
▁สุโต	-11.2851
▁ธาเรนฺต	-11.2851
▁อมนาป	-11.2852
▁วจฺจ	-11.2853
▁ปฎิเกฺขป	-11.2855
▁ชนปเทสุ	-11.2856
▁อตฺตาติ	-11.2857
วิญฺญา	-11.2858
วนฺทน	-11.2858
โคจรา	-11.2859
▁จกฺขาทิ	-11.286
▁วตายํ	-11.2862
▁สกฺกํ	-11.2863
▁วิกเปฺป	-11.2863
▁หาย	-11.2864
▁อปรํ	-11.2864
ยาจน	-11.2864
▁เวริ	-11.2865
▁ปติฎฺฐหิฯ	-11.2865
▁สาคโร	-11.2867
วณฺณนาย	-11.2867
เทฺวเม	-11.2869
ปาริปูริ	-11.2869
▁หรนฺติ	-11.287
▁ธุน	-11.2872
▁ธมฺมิโก	-11.2872
▁อนาคามิมคฺค	-11.2872
าปเร	-11.2873
▁ญาป	-11.2875
▁วิญฺญาเปติ	-11.2876
▁โคจรํ	-11.2877
▁สุณโนฺต	-11.2877
▁อสาต	-11.2878
▁นาสกฺขิ	-11.288
ปจ	-11.2882
▁ทุมฺม	-11.2882
▁ทิฎฺฐิคต	-11.2884
▁อุทฺท	-11.2884
คามิโน	-11.2885
กกฺก	-11.2885
▁รุปฺปน	-11.2885
▁วิปฺปสเนฺนน	-11.2886
▁จิตฺตสหภุ	-11.2887
าวชฺชน	-11.2888
▁ตฺวญฺจ	-11.2889
จงฺกม	-11.2889
▁อภิวาเท	-11.289
มุญฺจ	-11.2891
▁อรูปสญฺญี	-11.2892
สมฺพโนฺธ	-11.2892
▁ปาฎิหาริยํ	-11.2892
ตาปน	-11.2893
ลงฺกต	-11.2893
▁อปฺ	-11.2893
ยญฺหิ	-11.2894
▁กิต	-11.2894
▁โอตฺตปฺปํ	-11.2897
▁อนิยตา	-11.2898
▁ชีย	-11.2898
▁ยต	-11.2898
▁สมฺมาทิฎฺฐิยา	-11.2899
อุทฺธ	-11.2899
สาโล	-11.29
▁วินสฺสติ	-11.2902
▁ปสาเร	-11.2902
▁ภาโค	-11.2902
ปฎิมณฺฑิต	-11.2903
▁รตา	-11.2903
อนนฺตร	-11.2903
▁อนุสาสนิ	-11.2905
วิห	-11.2905
▁อปฺปมาโท	-11.2906
▁อุกฺกณฺฐ	-11.2907
▁รุจิร	-11.2908
กาเมสุมิจฺฉาจารา	-11.2909
ทิวเสน	-11.2909
▁ทสฺสามิ	-11.2912
วิฆาต	-11.2912
▁เวหาสํ	-11.2913
▁อคารโว	-11.2913
ยาคุ	-11.2914
▁ธาเรตุ	-11.2914
▁ติขิณ	-11.2915
▁ควํ	-11.2916
▁วิภูตํ	-11.2917
ชญฺญ	-11.2918
▁คามสฺส	-11.292
สญฺญิสฺส	-11.292
▁กรณียา	-11.2921
สรา	-11.2922
วชฺชิต	-11.2923
ลิมฺป	-11.2923
มจฺจุ	-11.2923
เสนาสนํ	-11.2924
▁ปาเฐ	-11.2924
▁สเทวก	-11.2924
▁ปฎิปนฺน	-11.2927
๑๕	-11.2928
▁ยถาปิ	-11.2928
▁กริสฺสนฺติ	-11.293
▁สรํ	-11.2932
กิสฺส	-11.2932
ราเคน	-11.2933
ยนฺตี	-11.2934
▁วินาปิ	-11.2934
▁วุเตฺตน	-11.2934
ชนา	-11.2935
▁โกธํ	-11.2935
▁อุณฺณ	-11.2935
▁มมา	-11.2936
▁โลกธาตุ	-11.2937
กสฺสป	-11.2941
เลยฺย	-11.2941
ทายิกา	-11.2943
ภาวทสฺสน	-11.2943
ชาย	-11.2944
▁ทุกฺขเวทน	-11.2944
คามเก	-11.2946
▁มิน	-11.2946
▁อุทฺธจฺจสหคตํ	-11.2947
▁ชานตา	-11.2947
▁วตฺถุปุเรชาตํ	-11.2948
▁สณฺฐาน	-11.2948
▁สมุป	-11.2948
วิรหิต	-11.2949
▁อนารมฺมณ	-11.2949
▁สมฺปชฺชติ	-11.295
ุม	-11.2951
▁ปสฺสามี	-11.2951
▁อานาปาน	-11.2952
▁จิตฺตเสฺสกคฺคตา	-11.2954
▁อปจยคามี	-11.2954
▁นสหชาเต	-11.2954
▁ปฎิวิรตา	-11.2954
▁ปาปุณิํสูติฯ	-11.2954
▁อลภโนฺต	-11.2954
▁อนูน	-11.2954
▁คคน	-11.2954
▁นิโรธสมาปนฺนา	-11.2954
สเงฺฆ	-11.2955
▁ปริสุโทฺธ	-11.2955
สเม	-11.2956
ีเย	-11.2956
สาวเก	-11.2957
▁มโจฺฉ	-11.2959
ยาย	-11.2959
▁วุตฺตมตฺถํ	-11.2959
▁ปฎิลภติ	-11.2959
▁ปกาสิโต	-11.2963
▁ปริกฺขยํ	-11.2963
เฎฺฐนฯ	-11.2963
วิภาวนา	-11.2964
▁อภูตํ	-11.2965
▁อนิยม	-11.2965
▁ปณฺฑิเตหิ	-11.2966
นิปฺผาท	-11.2967
▁อรหตํ	-11.2968
▁ฌาเนน	-11.2969
อล	-11.2969
▁ภวาภเว	-11.2969
▁ยมฺหิ	-11.297
จฺฉวิ	-11.2975
▁เลฑฺฑุ	-11.2978
▁นิสีทิตุํ	-11.2978
▁เอฬกโลม	-11.2978
▁อานิสํสา	-11.298
เสยฺยํ	-11.298
▁โสเตน	-11.298
▁เกจิฯ	-11.2985
ยม	-11.2986
ุณฺณ	-11.2987
▁อพฺภุโต	-11.2988
▁อานีต	-11.299
▁มาเปตฺวา	-11.299
▁ภวปจฺจยา	-11.299
▁ปาปิม	-11.299
▁ปุจฺฉาย	-11.2992
▁โทเสน	-11.2992
▁ติทส	-11.2992
▁สมเณ	-11.2994
สงฺฆา	-11.2998
▁มุหุตฺตํ	-11.3005
▁อาทีนวญฺจ	-11.3006
▁มาริสา	-11.3007
▁สตฺตวิธ	-11.3008
ิตฺถิยา	-11.3009
▁คาเห	-11.3011
▁กุฎฺฐ	-11.3012
▁นิพฺพตฺตํ	-11.3014
ปริยตฺติ	-11.3018
คุฬ	-11.3018
▁นโน	-11.3019
▁ตาทิสสฺส	-11.302
ิยํฯ	-11.302
▁มนสิกโรโนฺต	-11.3022
▁อาโรเจตพฺพ	-11.3022
▁สภิกฺขุกา	-11.3022
▁ปาตุภูต	-11.3022
▁สเทวกสฺส	-11.3022
▁ลาภา	-11.3022
▁อนุโมทนํ	-11.3023
พฺรูห	-11.3024
คุโตฺต	-11.3024
มนฺติ	-11.3024
▁สจฺฉิกิริยาย	-11.3025
▁วโคฺคฯ	-11.3025
▁ฉว	-11.3025
▁เทสนาปริโยสาเน	-11.3025
▁ปฐมเมว	-11.3026
สมฺภเว	-11.3027
▁อภิภูโต	-11.3027
กมฺมิก	-11.3031
▁มนุสฺสภูโต	-11.3032
มนุยุโตฺต	-11.3034
สงฺขฺย	-11.3034
วิรหิตา	-11.3035
นุตฺตริย	-11.3036
านิสํสา	-11.3036
▁อาทีนวา	-11.3036
สุกฺกวิสฺสฎฺฐิยา	-11.3037
▁รุจิยา	-11.3037
▁พฺราหฺมณี	-11.3038
ปฐมํ	-11.3039
พาหุลฺล	-11.304
▁วตฺตพฺพตํ	-11.3041
นามกํ	-11.3042
ธนุ	-11.3042
▁สญฺจริตฺต	-11.3043
ปจฺจนีก	-11.3044
▁อายตเนหิ	-11.3046
ินฺทฺริเย	-11.3046
กวจน	-11.3047
วิรหิตํ	-11.3047
▁อนุเสติฯ	-11.3047
วิวาท	-11.3048
▁อุปาโย	-11.305
ฎฺฐานนฺติ	-11.305
▁ภิกฺขุนีติ	-11.3052
▁สุขิโน	-11.3052
สทฺธมฺม	-11.3053
▁จิตฺตสมฺปยุตฺต	-11.3055
สาวกา	-11.3056
มาคโต	-11.3056
▁เจตนาฯ	-11.3056
▁วิสุทฺธิยา	-11.306
▁ทิฎฺฐธมฺมสุข	-11.306
▁อุปมํ	-11.3061
ปรมา	-11.3062
▁มหาวุตฺติ	-11.3063
ทุกฺขา	-11.3064
▁อธิคตํ	-11.3066
▁วุตฺตตฺตาฯ	-11.3066
▁สมฺมชฺช	-11.3069
▁อนุปสมฺปเนฺน	-11.307
▁เวฐ	-11.3071
▁สมฺปยุตฺตาฯ	-11.3071
▁วิภาค	-11.3072
▁สีมาย	-11.3075
▁ยาคุํ	-11.3075
คยฺห	-11.3075
ุปฎฺฐาน	-11.3076
คณํ	-11.3077
▁วิปสฺสิ	-11.3078
▁สยเน	-11.3078
สงฺขฺยา	-11.3078
▁สจฺฉิกโรติ	-11.308
▁อนาคตารมฺมณ	-11.308
วิรติ	-11.3081
สาสเน	-11.3081
▁อุโยฺยเช	-11.3081
จาริกํ	-11.3083
รโห	-11.3084
▁อิทฺธิปาทํ	-11.3084
▁ปเจฺจสฺส	-11.3084
กิจฺจานิ	-11.3085
สหคโต	-11.3086
▁สหาโย	-11.3086
▁ราเคน	-11.3088
▁อฎฺฐุปฺปตฺติ	-11.3088
มนุสาส	-11.3088
าภิมุขํ	-11.3089
▁ววตฺถ	-11.3089
▁ภูตานิ	-11.309
▁ปารมี	-11.309
▁ตทหุโปสเถ	-11.309
▁นอาเสวนปจฺจยา	-11.309
▁อเสโกฺข	-11.309
▁ทฺวาวีสติ	-11.309
▁สุทฺธาวาเส	-11.3091
ฐิต	-11.3093
พาหิร	-11.3095
▁กามคุณ	-11.3095
▁อุทาหรณ	-11.3096
โกสลฺลํ	-11.3097
จตูหิ	-11.3098
▁มาสา	-11.3099
สมฺมุขา	-11.3099
▁วกฺขาม	-11.3101
▁ปฎิพเลน	-11.3103
ทรถ	-11.3105
▁ปฎิลภติฯ	-11.3105
▁คาถาสุ	-11.3105
▁สฆานกาน	-11.3106
▁สมฺมาสมาธิฯ	-11.3107
▁รสฺสตฺตํ	-11.3109
สมนฺต	-11.311
▁รโถ	-11.311
▁นิเวสน	-11.311
สํโยค	-11.3113
▁มหาปโญฺญ	-11.3113
▁อุเจฺฉททิฎฺฐิ	-11.3114
▁ทีย	-11.3115
▁อายู	-11.3117
▁จตุตฺถสฺส	-11.3117
▁วิรว	-11.3117
▁อาทร	-11.3118
ุโปสโถ	-11.3118
▁อุทฺทิฎฺฐ	-11.3119
ลคฺค	-11.3119
ายุก	-11.312
▁กายินฺทฺริยํ	-11.3121
าติอาทีสุ	-11.3122
▁ทโณฺฑ	-11.3122
โกวิโท	-11.3125
▁นิกฺขมิ	-11.3125
▁ปริหานิ	-11.3126
▁วิรชฺชติ	-11.3127
วตา	-11.3128
▁สกิ	-11.3129
▁ตเตฺถต	-11.3129
▁อุตฺตโร	-11.313
▁ภาช	-11.313
เอตทคฺคํ	-11.3131
นาเม	-11.3133
กมฺปน	-11.3133
▁สาโร	-11.3134
▁อริยาย	-11.3134
▁มนุเสฺสหิ	-11.3134
ทุกฺขสฺส	-11.3135
นุพโนฺธ	-11.3137
ทมฺม	-11.3137
▁โอภาเส	-11.3138
▁อฎฺฐารสหิ	-11.3139
นญฺหิ	-11.3141
▁คมิสฺสติ	-11.3143
ลฺย	-11.3143
อนฺตร	-11.3144
ฉนฺน	-11.3144
โกสลฺล	-11.3146
▁สงฺคยฺห	-11.3146
▁ภารํ	-11.3146
กูล	-11.3147
รุทฺธ	-11.3147
▁สมูโห	-11.3148
▁ปทฎฺฐานํ	-11.3149
ปจฺจุปฺปนฺนํ	-11.315
▁อาว	-11.3151
▁ปสาทํ	-11.3152
▁ตตฺต	-11.3153
เวโส	-11.3153
▁รเถ	-11.3153
▁ฉินฺทติ	-11.3155
เหตูติ	-11.3155
านีติฯ	-11.3155
เวทิ	-11.3156
มตฺตาย	-11.3157
▁สีหสฺส	-11.3159
▁อคฺคสาวิกา	-11.3159
▁อาหิณฺฑ	-11.3159
▁สตฺตรตนสมฺปโนฺน	-11.316
▁วินาสํ	-11.316
▁โยนิโสมนสิการ	-11.316
▁นิกฺขมติ	-11.316
▁สกฺกุเณยฺย	-11.316
▁ภเวยฺยุํ	-11.3161
▁นิรุเทฺธ	-11.3161
วิตกฺกวิจารมตฺตํ	-11.3162
าภาโว	-11.3162
เกฺลส	-11.3162
▁ปนฺน	-11.3162
▁เทวมนุสฺส	-11.3163
▁อุปนิสฺสโย	-11.3163
▁ปญฺจกามคุณ	-11.3163
วสฺสิก	-11.3164
▁ปรทาร	-11.3165
▁กริสฺส	-11.3166
▁ภชนฺติ	-11.3167
▁ปฎิคฺคเหตพฺพ	-11.3168
▁ปวารณ	-11.3169
▁ธช	-11.3169
▁คิชฺฌ	-11.3173
ตรณ	-11.3174
▁ทูตํ	-11.3177
ตจฺฉ	-11.3178
▁ชายติฯ	-11.3178
▁ปเจฺจกพุทฺธา	-11.3179
▁มุทฺธ	-11.3182
ยามิ	-11.3183
▁อุโภหิ	-11.3184
สรีรํ	-11.3184
▁อพฺยาปาท	-11.3185
▁ปริเวณํ	-11.3185
▁กนิฎฺฐ	-11.3187
▁กุสเลหิ	-11.3187
ตฺถาติ	-11.3189
สมฺมต	-11.319
▁ภณิต	-11.3192
▁นิวตฺถ	-11.3192
▁กามคุเณ	-11.3193
ปเทโส	-11.3193
ธีน	-11.3194
นฺตุฯ	-11.3196
▁อนุสฺสว	-11.3196
▁อาเนญฺช	-11.3196
ปจฺฉิม	-11.3197
อุตฺตร	-11.3197
▁อขณฺฑ	-11.3199
▁นิรวเสส	-11.3199
าเทสา	-11.32
▁ปชาปติ	-11.3201
▁อายูห	-11.3201
วเสนปิ	-11.3202
เมฆ	-11.3203
สีโส	-11.3205
▁เอกก	-11.3208
▁ทณฺฑิ	-11.3208
▁มเหสี	-11.321
▁อาณาเปสิ	-11.321
สงฺฆาต	-11.321
าทีนีติ	-11.3211
▁วีโร	-11.3211
▁อุปปนฺนา	-11.3212
▁มานุส	-11.3212
ฎฺฐีนิ	-11.3214
▁อโสฺส	-11.3215
ญาณานิ	-11.3216
▁วิยา	-11.3217
▁วิทิตํ	-11.3219
มฺหเส	-11.322
▁อเปต	-11.3222
▁มหคฺคตา	-11.3222
▁เภสชฺชานิ	-11.3223
▁วาเตน	-11.3225
ยิตตฺตํ	-11.3225
▁คิร	-11.3228
▁อาคตํฯ	-11.3228
ฉฎฺฐ	-11.3229
▁มหาปจฺจริยํ	-11.3229
▁วูปสมฺมติ	-11.3229
▁อตฺถตกถิ	-11.3229
▁กานิจิ	-11.3229
ชีโว	-11.3229
▁นิปโก	-11.3229
ปิโลติก	-11.3229
▁สทิสํ	-11.3229
▁อนตฺตมโน	-11.323
▁สกฺการ	-11.323
▁เทเสยฺย	-11.3231
▁สนฺทิฎฺฐิกํ	-11.3231
▁อลภิตฺวา	-11.3232
▁อสเนฺต	-11.3232
▁รตฺติโย	-11.3232
▁ปญฺญโตฺต	-11.3233
▁เชโฎฺฐ	-11.3233
▁อภิหร	-11.3235
หํส	-11.3236
ลหุ	-11.3236
▁นิพฺพานธาตุยา	-11.3237
▁ชานาตี	-11.3238
▁กตปุญฺญ	-11.3239
▁อทฺทสฯ	-11.3239
ทฺทุ	-11.3239
ปุเณฺณ	-11.3239
▁สุขทุกฺขํ	-11.3239
▁สาธูติ	-11.324
ภิกฺขโว	-11.324
นาภิ	-11.324
▁ปหาร	-11.3243
▁ภควนฺต	-11.3244
▁สพฺพานิปิ	-11.3244
ปกฺขิกา	-11.3246
▁ตเทกฎฺฐ	-11.3246
▁อาสเวหิ	-11.3247
วาล	-11.3249
▁อนาคามิสฺส	-11.3251
ินฺติ	-11.3251
▁ตุล	-11.3253
▁อมู	-11.3255
ปาจ	-11.3255
นิคฺค	-11.3255
▁เตมาสํ	-11.3256
▁หาโรฯ	-11.3256
มญฺญาย	-11.3257
▁สุขสหคตา	-11.3257
▁นิวตฺติตฺวา	-11.3259
▁ธญฺญํ	-11.3259
เจตสิก	-11.3261
▁วิหารา	-11.3262
ปริยาทาน	-11.3263
กาเมน	-11.3266
▁โอสาเร	-11.3267
▁อนฺตรธาย	-11.3269
▁กามภเว	-11.3269
▁อุปฺปชฺชมาน	-11.3269
▁ยาวทตฺถํ	-11.327
▁รูปสญฺญา	-11.327
▁คล	-11.3271
▁ธมฺมปฎิสมฺภิทา	-11.3271
▁มคฺคเหตุก	-11.3271
ธาย	-11.3272
มิจฺจ	-11.3273
▁อนาปตฺตี	-11.3274
▁หทยวตฺถุ	-11.3274
▁ปชหถ	-11.3276
▁อปจฺจํ	-11.3276
ปฺปฎิปตฺติ	-11.3279
▁๒๔๔	-11.328
นิสชฺช	-11.3282
▁นิคฺ	-11.3286
มานตฺตา	-11.3289
▁สมฺปติ	-11.3291
▁วสฺสูปนายิก	-11.3291
▁จตุตฺถี	-11.3292
▁สจิตฺตก	-11.3294
▁ลหุํ	-11.3294
▁พฺรหฺมจารี	-11.3295
ารามํ	-11.3295
▁ชหนฺติ	-11.3296
กฎาห	-11.3296
▁สพฺพสตฺต	-11.3296
▁กโรนฺต	-11.3297
▁เอกคฺคตา	-11.3297
▁ครุภณฺฑํ	-11.3298
▁มุฎฺฐสฺสติ	-11.3298
▁อุมฺมตฺติกาย	-11.3299
▁ปาติโมกฺขุเทฺทส	-11.3299
▁นิรนุสโยติ	-11.3299
▁นปฺปชานาติ	-11.33
▁ถาวร	-11.33
▁สิขี	-11.3301
▁กายวิญฺญตฺติ	-11.3302
▁ภุมฺมเตฺถ	-11.3302
▁กโตติ	-11.3303
▁ปฎิพโล	-11.3303
วิภว	-11.3304
▁ปุรกฺขโต	-11.3304
▁ปกาสิโตฯ	-11.3306
▁ปสีทิตฺวา	-11.3307
▁กาเรติ	-11.3307
โคจเร	-11.3308
วาจํ	-11.3308
ทีปกํ	-11.3308
▁อุปนิธาย	-11.3309
คฺคหเณเนว	-11.3309
▁๒๔๘	-11.331
▁ทกฺขิ	-11.331
เญฺจติ	-11.3311
กฺขเณเยว	-11.3312
▁วฎฺฎติเยวฯ	-11.3312
▁สมาหิต	-11.3313
วิสารท	-11.3313
▁วตฺถูหิ	-11.3315
▁ถูปํ	-11.3316
เจตโส	-11.3318
▁นามรูปสฺส	-11.332
เวยฺยา	-11.332
▁สุกรํ	-11.3321
ตโม	-11.3321
▁อสนฺตํ	-11.3322
▁นิพฺพุต	-11.3324
▁อชฺชตเคฺค	-11.3326
สณฺฐานํ	-11.3326
▁คตี	-11.3327
▁สิสฺสา	-11.3329
▁อาค	-11.3329
▁อายตนานํ	-11.333
▁นารท	-11.3331
▁จมฺมํ	-11.3331
▁อธิเปฺปต	-11.3332
ณฺฎ	-11.3337
▁อกปฺปิยํ	-11.3339
▁สกลสรีร	-11.334
▁วตฺตพฺพนฺติ	-11.334
▁เอทิโส	-11.3341
▁อุปฎฺฐิต	-11.3341
ธโน	-11.3341
▁สฺมิํ	-11.3341
มญฺช	-11.3342
▁โสตาปนฺนา	-11.3343
▁รมณีย	-11.3344
กฺขนฺธา	-11.3345
▁ปสํสนฺติ	-11.3346
▁อฎฺฐงฺคุล	-11.335
▁นาล	-11.335
▁ทานานิ	-11.335
สทิสํฯ	-11.335
▁มหาวิหาร	-11.3353
▁สภาเวน	-11.3357
รโตฺต	-11.3362
▁เสสานํ	-11.3363
▁ทสพล	-11.3364
▁ปริปูเรนฺติ	-11.3366
▁วีมํสา	-11.3366
ปาฎิหาริย	-11.3366
▁จนฺทิมสูริยา	-11.3367
ปจฺจุปฎฺฐาโน	-11.3369
▁เสสปเทสุปิ	-11.3369
▁สมฺปสฺสมาโน	-11.3369
ทิฎฺฐิยา	-11.3369
▁อนิทสฺสโน	-11.337
นาถ	-11.337
▁ปุเจฺฉยฺย	-11.3371
ภควโต	-11.3371
กณฺณิก	-11.3371
▁อุปาทารูป	-11.3371
▁หนฺทาหํ	-11.3371
▁วิเวกนิสฺสิตํ	-11.3371
▁อธิวาสน	-11.3372
าคเม	-11.3372
ปฺปติฎฺฐ	-11.3373
▁อลตฺถ	-11.3375
▁วตฺถุปุเรชาตํฯ	-11.3375
โลกิย	-11.3376
นโนฺท	-11.3377
▁อฎฺฐวีสติ	-11.3377
▁กุโทฺธ	-11.3377
ภาโร	-11.3377
ปฺปเทส	-11.3378
นิวา	-11.3378
เปตวตฺถุ	-11.3379
อภิกฺกนฺตํ	-11.3379
ลฎฺฐิ	-11.3381
าภิมุข	-11.3381
ปาริสุทฺธิ	-11.3382
▁คณฺหาตีติ	-11.3383
ยนฺตํ	-11.3383
สมุฎฺฐิต	-11.3384
หานิ	-11.3384
▁กปฺปสตสหสฺส	-11.3384
▁นิกฺขมิฯ	-11.3386
▁ตตฺตกํ	-11.3387
ตฺตาย	-11.3387
ฌานปจฺจเยน	-11.3388
▁อปฺปมญฺญา	-11.3388
มานาติ	-11.3391
ปิตุ	-11.3391
▁ขาทนีย	-11.3393
▁ปริยนฺต	-11.3393
ารญฺญ	-11.3393
ยุตํ	-11.3393
▁นิทฺท	-11.3395
▁ชหตีติ	-11.3396
▁โยเชตพฺพ	-11.3396
▁กโรสิ	-11.3399
กติจิ	-11.34
▁อเสข	-11.3401
▁กุร	-11.3403
▁๒๖๓	-11.3404
▁อากงฺขติ	-11.3405
▁สิถิล	-11.3405
▁สุมนา	-11.3405
▁ปาสาทิก	-11.3411
▁มหากรุณา	-11.3411
ปริทีปน	-11.3413
▁โอวทิ	-11.3414
▁ปุเรชาต	-11.3415
าภิภู	-11.3415
▁ปาปานิ	-11.3416
ภิสิ	-11.3416
มิท	-11.3417
สมงฺคิ	-11.3418
▁๒๖๕	-11.3418
▁ภาเค	-11.3418
▁เมถุนธมฺม	-11.3419
ปาเต	-11.3419
จฺฉินฺท	-11.3419
▁อาตุร	-11.3419
▁สมุทาจรนฺติ	-11.3422
▁ปริโต	-11.3422
ปฎิปตฺติยา	-11.3424
ปุตฺตสฺส	-11.3424
ิยเตฺถรอปทาน	-11.3425
▁ถน	-11.3426
▁อปฺปมาณา	-11.3426
ิโยติ	-11.3428
▁สิมฺหิ	-11.3431
มานสํ	-11.3432
▁ปุนพฺภว	-11.3432
▁วุตฺตนย	-11.3436
ฎฺฐาเนน	-11.3436
▁ฉฬ	-11.3438
ปกต	-11.3439
▁อิตฺถิปุริส	-11.344
▁ธาเรตีติ	-11.344
▁นวิปากปจฺจยา	-11.344
▁วิสฺสุโต	-11.344
▁ปริปูรการี	-11.3441
▁ปจฺจาสีส	-11.3441
▁ฆมฺม	-11.3441
▁วิเวกชํ	-11.3443
▁อุปปตฺติกฺขเณ	-11.3443
▁ปณาเม	-11.3443
ุปาทานกฺขโนฺธ	-11.3444
▁วายาม	-11.3445
▁ปฎิจฺฉาเทตฺวา	-11.3447
▁มหาเถโร	-11.3447
▁ปสํสา	-11.3447
▁ทุมฺมโน	-11.3448
▁ภิเนฺน	-11.3449
▁สุคฺคหิต	-11.3449
ปุถุชฺชน	-11.345
▁คามา	-11.3453
ทเน	-11.3454
▁เวลายํ	-11.3455
วิจิกิจฺฉา	-11.3456
▁วสฺสสหสฺสานิ	-11.3461
เจติยํ	-11.3461
▁เมตฺตจิตฺต	-11.3462
มิโค	-11.3462
▁สรภ	-11.3463
ุเทฺทโส	-11.3463
▁อุปนิ	-11.3463
▁ปกาเรหิ	-11.3464
▁อทุ	-11.3466
ทีปก	-11.3466
▁สพฺพญฺจ	-11.3466
▁อุคฺคจฺฉ	-11.3467
▁นิกฺ	-11.3468
▁วุตฺตานํ	-11.3468
▁อธิปฺปายํ	-11.3468
▁วิกฺขมฺภน	-11.3469
▁นโยติ	-11.3471
▁มหานาค	-11.3472
▁ปริณาเม	-11.3478
▁ปาณินา	-11.3479
▁ปริสฺสยา	-11.3479
▁ทชฺช	-11.3481
▁อุรค	-11.3482
รต	-11.3482
▁วิเหส	-11.3483
▁ปาปุณิตฺวา	-11.3484
รงฺค	-11.3484
▁ฐเปโนฺต	-11.3484
ชีวิก	-11.3485
▁สามีจิ	-11.3485
▁ติปุ	-11.3486
▁อธมฺมํ	-11.3486
ณโต	-11.3487
▁อวสาเน	-11.3488
▁สามิวจนํฯ	-11.3491
▁อุปฺปาทิต	-11.3495
▁คมิสฺสามี	-11.3496
▁สล	-11.3497
ขตฺติย	-11.3497
ติสฺสเตฺถโร	-11.3498
▁ผลก	-11.3498
▁ปริญฺญาต	-11.3498
ปล	-11.3499
▁โคตมี	-11.3499
าเปตพฺพ	-11.3499
นายก	-11.3499
▁ขาร	-11.3501
ายนฺติ	-11.3501
▁เทเวหิ	-11.3502
สตฺตาห	-11.3503
คฺคยฺห	-11.3503
สงฺขาเตหิ	-11.3504
ยู	-11.3507
กายิก	-11.3509
▁มมฯ	-11.3509
▁ภาคํ	-11.351
▁มิถิล	-11.3511
▁วิเหเฐ	-11.3511
▁เจตนาปณิธีหิ	-11.3511
▁สภิกฺขุโก	-11.3511
▁ยุคนทฺธ	-11.3511
▁เนโสหมสฺมิ	-11.3511
▁ญาเปตโพฺพ	-11.3511
ชาตี	-11.3511
▁นราสโภ	-11.3511
▁ปริโสเธ	-11.3512
▁สอุป	-11.3513
▁ทุกฺขสฺสนฺตกโร	-11.3513
ญาต	-11.3516
สภาโวฯ	-11.3516
▁สํวิ	-11.3516
▁กุโตจิ	-11.3516
▁ปริตฺตารมฺมณํ	-11.3516
อาเทโส	-11.3517
กุสลสฺส	-11.3517
▁สหเสยฺย	-11.3518
▁สเทวมนุสฺสาย	-11.3519
▁นววิธ	-11.3519
ิมฺหา	-11.352
อนนฺต	-11.352
▁เมโส	-11.352
▁โอวาโท	-11.3521
▁กํส	-11.3522
สมูโห	-11.3523
▁สนฺถริตฺวา	-11.3525
▁ปติฎฺฐาเปตฺวา	-11.3525
▁ฎา	-11.3526
สญฺญิ	-11.3527
▁นิทฺทิฎฺฐํ	-11.3527
▁ปกฺกามิ	-11.3527
▁สุกต	-11.3528
▁ธิ	-11.3528
▁สํสคฺค	-11.3528
เฎฺฐหิ	-11.3528
▁สนฺถร	-11.3528
ผรุส	-11.3531
▁ฌาเป	-11.3532
▁เนยฺย	-11.3536
▁ปสฺสตา	-11.3536
คฬ	-11.3539
▁อนุโลเม	-11.3542
โลเภน	-11.3543
▁เหมนฺต	-11.3546
ทุเกฺข	-11.3547
▁ปติฎฺฐาน	-11.3548
▁ปีติํ	-11.3549
▁อริยมเคฺคน	-11.3549
▁วิจฺฉ	-11.355
▁โกธโน	-11.355
▁อกุสลวิปาก	-11.355
▁ญาเณ	-11.3553
สกุณ	-11.3554
▁๒๔๕	-11.3554
▁สาธู	-11.3556
ภาวํฯ	-11.356
▁อริเยน	-11.356
▁สนฺตีติ	-11.3561
▁วิทิต	-11.3561
สเจฺจน	-11.3561
▁เจโตปริยญาณสฺส	-11.3563
▁เวทนานํ	-11.3563
▁ทณฺฑี	-11.3564
▁กุสีต	-11.3564
▁เหตุปจฺจย	-11.3565
▁ติฎฺฐนฺติฯ	-11.3566
▁อุปฎฺฐาติ	-11.3567
▁สมฺพ	-11.3567
▁วทนฺตีติ	-11.3568
▁ปสฺสิตุํ	-11.3569
ขิโล	-11.3571
อคฺค	-11.3571
▁อจริ	-11.3573
ปจฺจุปฎฺฐานํ	-11.3573
▁ทุพฺพณฺณ	-11.3574
กุฎ	-11.3575
มสฺสาติ	-11.3575
▁ขีย	-11.3576
▁สุทสฺสน	-11.3576
กสุตฺตํ	-11.3577
▁อภิสมฺพุทฺธ	-11.3577
▁เอกูน	-11.3577
▁กาสาว	-11.3578
รหิเต	-11.3578
ภูตปุพฺพํ	-11.358
ปริหรณ	-11.3581
▁ปถวีกสิณํ	-11.3581
เทสนํ	-11.3581
▁สารมฺมณ	-11.3582
▁อุปสงฺกมิ	-11.3582
▁รูเปสุ	-11.3582
▁อสฺสม	-11.3583
นลกฺขณา	-11.3583
▁คาถาทฺวยมาห	-11.3583
▁ลิจฺฉวี	-11.3583
▁ผลทาน	-11.3584
▁อุจฺจาวจ	-11.3584
▁เอตทเคฺค	-11.3584
▁สีลญฺจ	-11.3587
▁สุญฺญา	-11.3587
▁เยภุยฺย	-11.359
งฺคุฎฺฐ	-11.359
▁สติสมฺปชญฺญ	-11.359
▁กปิลวตฺถุ	-11.359
▁ผเสฺส	-11.3591
▁ตโจ	-11.3591
▁สาตฺถิกา	-11.3593
▁สํวิชฺชติ	-11.3594
▁สสฺสตทิฎฺฐิ	-11.3594
ปฺปโยชน	-11.3597
▁สาริปุตฺตํ	-11.3597
▁วจสา	-11.3598
▁ปริจิตา	-11.3601
▁อายา	-11.3601
ทีปนตฺถํ	-11.3604
▁๒๕๖	-11.3605
▁มหาเถร	-11.3606
▁วิจิกิจฺฉาสหคตา	-11.3607
▁เคหสิต	-11.3608
▁อิจฺฉามิ	-11.3608
▁ปาปสฺส	-11.3609
▁อนญฺญถา	-11.3609
ฎฺฐกถาย	-11.361
เทห	-11.3611
▁สารมฺมโณ	-11.3612
▁อสฺสุตวา	-11.3613
▁ฐานโส	-11.3614
▁วิเหฐ	-11.3614
▁๒๔๖	-11.3617
▁ตเสฺสวํ	-11.3617
ยมานํ	-11.3618
▁อวธารณ	-11.3618
▁มาตุยา	-11.3619
▁กมฺพล	-11.362
▁ชานามี	-11.362
▁อภิสงฺขาร	-11.3622
▁๒๖๔	-11.3623
▁สญฺจ	-11.3623
▁ภุญฺชนฺตสฺส	-11.3623
กรณตฺถํ	-11.3624
▁ตุมฺหาก	-11.3626
าปตฺติโย	-11.3627
าปตฺติํ	-11.3629
▁อสฺสาเท	-11.363
▁กฎุก	-11.363
▁วิกิร	-11.3631
กฺขนฺธกวณฺณนา	-11.3631
▁เอกเทเสน	-11.3632
ปูชํ	-11.3633
▁เตนาวุโส	-11.3635
สีเลน	-11.3637
▁สมาหิเต	-11.3637
ชาตก	-11.3641
▁อนุปฺปนฺนานํ	-11.3642
ปริคฺคหิต	-11.3644
▁เจส	-11.3644
▁ปีฐํ	-11.3644
▁เสฺนห	-11.3645
คพฺภํ	-11.3646
▁ชลิต	-11.3647
▁อุปวส	-11.3648
▁โทณ	-11.3651
▁สาสป	-11.3652
โคโตฺต	-11.3652
ยีติ	-11.3655
▁สปฺปฎิฆํ	-11.3656
▁อญฺญาตาวี	-11.3656
▁สปฺปฎิฆ	-11.3656
ุคฺคมน	-11.3658
▁สญฺช	-11.3659
▁สาตรูปํ	-11.3659
วีถิยํ	-11.3659
ูปนิสฺสย	-11.3659
ปฺปเภทํ	-11.366
▁เหส	-11.366
▁สโมธาเนตฺวา	-11.366
▁อหญฺหิ	-11.3662
ปฺปโยเค	-11.3662
▁อนฺนํ	-11.3662
▁ภทฺทเนฺต	-11.3663
อุปมา	-11.3663
ารเมฺภ	-11.3666
▁พหุตรํ	-11.3667
าทิกถา	-11.3668
▁ปญฺจหากาเรหิ	-11.3669
▁อรหตฺตา	-11.3669
▁อาสเว	-11.367
▁โรเป	-11.3671
▁พาราณสิ	-11.3673
ญฺญมฺปิ	-11.3673
▁กวิ	-11.3673
ุเปกฺข	-11.3676
นิรย	-11.3676
▁วิปฺปกต	-11.3676
กฺริย	-11.3676
▁กามคุเณสุ	-11.3679
ฎุ	-11.3679
ตถ	-11.3679
▁สุจริต	-11.368
▁นเหตุปจฺจโย	-11.368
▁มนฺติ	-11.3682
▁ปวโร	-11.3683
สนฺถต	-11.3684
▁ปริสุเทฺธ	-11.3685
▁กมฺมผล	-11.3686
เทสิต	-11.3687
าภินนฺท	-11.3687
▁อโยฺย	-11.3687
▁วิสตฺติกา	-11.3687
▁คเวสโนฺต	-11.3688
▁โปตฺถก	-11.3688
▁วิชมฺภ	-11.3688
จริยาย	-11.3689
▁วิโรจติ	-11.369
▁ลิเงฺค	-11.3691
โปณ	-11.3692
พฺภนฺตร	-11.3692
▁หตา	-11.3692
▁ภุญฺชิตพฺพ	-11.3693
▁วญฺจน	-11.3695
ตนุ	-11.3695
▁อุเทฺทโส	-11.3697
จฺจเย	-11.3698
▁นิมฺมิต	-11.3698
วิสํ	-11.37
เกฺขน	-11.3703
▁วิตฺถาริต	-11.3704
มารพฺภ	-11.3706
▁ตาส	-11.3706
ปริจิต	-11.3706
▁ปฐนฺติ	-11.3709
▁อปริมาณา	-11.3709
▁นาริ	-11.371
ชีวิ	-11.3712
เงฺคน	-11.3712
อเญฺญ	-11.3715
▁ทูต	-11.3717
▁ปฎิสํเวเทติ	-11.3717
▁ขายติ	-11.3718
▁ตหํ	-11.3719
โคป	-11.3719
นยน	-11.3719
▁สเทฺทน	-11.372
ตฺถีติ	-11.3724
▁ปิณฺฑปาติก	-11.3724
ปุปฺผานิ	-11.3725
อิเจฺจวมาที	-11.3728
▁นิรุชฺฌ	-11.3728
▁ติเวทนนฺติฯ	-11.3729
▁ปทเจฺฉโทฯ	-11.3729
▁อนาคตํสญาณสฺส	-11.3729
ปุเรกฺขาร	-11.3729
▁สวิจารํ	-11.3729
ภาเวปิ	-11.373
▁เวยฺยาวจฺจ	-11.373
▁อนาวาโส	-11.3732
▁อวธิ	-11.3732
ลาภิโน	-11.3732
▁ปฎิคฺคโห	-11.3733
▁รุจฺจ	-11.3734
▁โยเค	-11.3734
ตุณฺฑ	-11.3734
▁ปสฺสสิสฺสามี	-11.3736
ภาณี	-11.3738
▁กโรม	-11.3738
นิปาเต	-11.3739
อิจฺจายสฺมา	-11.3739
ารโมฺภ	-11.374
▁๒๕๘	-11.374
▁ติฎฺฐตุ	-11.3742
ฎฺฐาเนเยว	-11.3743
สสฺสโต	-11.3743
▁วาโย	-11.3744
▁ปญฺญาพลํ	-11.3745
สุจิ	-11.3751
▁สมนฺตจกฺขุ	-11.3753
▁มทฺทิตฺวา	-11.3754
▁ยาเปติ	-11.376
▁เขป	-11.3761
▁กตเมสํ	-11.3762
▁สพฺพงฺค	-11.3762
รุฬฺห	-11.3764
▁วีติ	-11.3765
▁ปณฺณาส	-11.3766
▁อปฺปิโย	-11.3766
อี	-11.3767
จิตฺตุปฺปาท	-11.3769
โฎฺฎ	-11.3769
นนฺที	-11.377
▁อโชฺฌตฺถร	-11.377
สิงฺค	-11.3771
▁อมฺห	-11.3771
เตฺถฯ	-11.3772
▁นยา	-11.3772
▁สนฺน	-11.3774
ายตนา	-11.3774
▁ภาเวติฯ	-11.3774
วจนา	-11.3775
▁ตณฺหาปจฺจยา	-11.3775
▁เลณ	-11.3776
▁๒๖๗	-11.3778
สุเตฺตน	-11.3779
▁อปฺปกา	-11.3779
▁ทหรา	-11.378
▁เฉก	-11.378
▁ฐานนฺติ	-11.3781
อิมานิ	-11.3783
▁๒๖๙	-11.3784
▁อปจิ	-11.3785
ทสกํ	-11.3787
▁ตทนุรูป	-11.3787
▁มเญฺจ	-11.3787
▁นิทาเน	-11.3788
จิตฺตตาย	-11.3788
▁ปารมิํ	-11.3789
กรุณา	-11.3789
▁อปริสุทฺธ	-11.379
▁อาปชฺชนฺติ	-11.379
อโมฺภ	-11.379
▁๒๖๒	-11.379
ปาตุภาว	-11.3793
▁นิยเม	-11.3794
▁ปฎิปฺปสฺสเมฺภ	-11.3795
▁กเถนฺติ	-11.3795
▁สุกตํ	-11.3796
▁ภเณยฺย	-11.3798
เกนาติ	-11.38
▁โจเร	-11.38
▁อคฺคมกฺขายติ	-11.3802
▁นิทฺธาเรตฺวา	-11.3804
▁พาฬฺห	-11.3804
มณฺฑิต	-11.3805
▁กลฺยาณมิตฺตตา	-11.3805
▁เนวสญฺญานาสญฺญ	-11.3807
▁สจิตฺตกํ	-11.3809
▁วิพฺภม	-11.3809
▁สาตฺถก	-11.381
▁ทูเส	-11.3811
▁สมฺมตา	-11.3811
เกฺขยฺย	-11.3812
สมุปฺปนฺน	-11.3814
▁๒๔๗	-11.3815
▁สมุทาจร	-11.3816
▁อภินิเวโส	-11.3816
▁ชนตา	-11.3816
▁วจนมพฺรวิ	-11.3817
▁ตาวตา	-11.3817
▁อาจร	-11.3818
นิโรธํ	-11.3819
▁ปฎิภานปฎิสมฺภิท	-11.382
▁คารยฺห	-11.382
สหาโย	-11.382
▁วิญฺญายตีติ	-11.3821
นตฺถายฯ	-11.3822
วตฺตเพฺพ	-11.3822
ชาติยา	-11.3823
ภิกฺขเว	-11.3824
▁มาณวก	-11.3824
ยิํฯ	-11.3826
▁ปริชานนฺติ	-11.3827
▁ทารโก	-11.3828
▁เนกฺขมฺมํ	-11.3828
กฺขม	-11.3829
▁นิฎฺฐ	-11.3831
▁ปชานาตีติ	-11.3832
▁อุปฺปชฺชิฯ	-11.3833
กุสเล	-11.3834
านเญฺจว	-11.3834
▁ถี	-11.3834
▁อาคมิสฺสติ	-11.3835
▁ภาค	-11.3835
กเมฺมสุ	-11.3835
▁๒๖๖	-11.3836
ธาตุํ	-11.3836
▁ปาทกชฺฌาน	-11.3836
▁เทวตาหิ	-11.3837
▁ปาติโมเกฺข	-11.384
▁อิทฺธี	-11.3841
าปี	-11.3841
▁อธิฎฺฐิต	-11.3843
ผลานิ	-11.3844
▁สญฺชานน	-11.3846
วินเย	-11.3847
▁วุตฺตปฺปกาเรน	-11.3849
▁อนุสนฺธิํ	-11.3851
งฺฆ	-11.3852
▁พุทฺธานุสฺสติ	-11.3853
คฺคหณํฯ	-11.3854
▁สามญฺญํ	-11.3855
▁โอส	-11.3855
▁ชานนฺติฯ	-11.3856
▁สพฺพนาม	-11.3858
นเยเนว	-11.386
▁อสุทฺธ	-11.3862
▁วนฺทนา	-11.3866
ุตฺตริ	-11.3866
▁รุปฺป	-11.3867
▁อุทปาทีติ	-11.387
▁สุปินํ	-11.387
▁วธก	-11.3873
วิภาเคน	-11.3873
สโงฺค	-11.3873
▁ตตุตฺตริ	-11.3876
▁กายสุจริต	-11.3876
▁วิกฺกิณ	-11.3876
▁อนุญฺญาโต	-11.3876
▁นานุเสตีติ	-11.3877
▁เทวทูต	-11.3878
▁นิลีย	-11.3878
▁อวิชฺชาสโว	-11.3879
ทิสาย	-11.3879
▁สพฺพสฺมิํ	-11.3879
รูเปหิ	-11.3879
▁ภควโนฺต	-11.3881
▁เอกาทสหิ	-11.3881
▁สมฺปฎิจฺฉน	-11.3882
สินา	-11.3882
▁ปริปาก	-11.3883
▁นิยเมตฺวา	-11.3884
▁๒๘๐	-11.3884
▁อสมฺภวโต	-11.3885
▁สุขุมาฯ	-11.3885
เภริ	-11.3886
มิตฺตา	-11.3886
▁ปณีตโภชน	-11.3886
สโภ	-11.3888
▁ปุถ	-11.3889
ปจฺจา	-11.3891
▁ทสโม	-11.3891
ญฺจุปาทานกฺขนฺธา	-11.3892
▁เกนจิเทว	-11.3892
▁มจฺจา	-11.3893
▁ปุฎ	-11.3893
วเสนาปิ	-11.3893
▁เมโฆ	-11.3894
▁ปทภาชน	-11.3895
วติยา	-11.3896
จรา	-11.3898
ปริโภโค	-11.3898
▁มทฺที	-11.3898
▁อิจฺฉาย	-11.3898
ุสฺสท	-11.3899
▁สุขุมา	-11.39
▁อสฺสาทญฺจ	-11.39
▁พา	-11.3901
▁อาสีวิส	-11.3901
▁ภาวิตํ	-11.3902
พีชนิ	-11.3904
▁ฌานงฺค	-11.3907
▁สูโร	-11.3907
▁พิมฺพ	-11.3909
▁สนฺนิปตนฺติ	-11.391
จเกฺก	-11.3911
▁วุเตฺตหิ	-11.3911
▁อธิฎฺฐาติ	-11.3913
▁สกทาคามิ	-11.3915
▁อายตนา	-11.3916
▁ทุม	-11.3916
▁สุขสหคโต	-11.3917
นากาโร	-11.3917
▁นุปฺปชฺชิตฺถาติ	-11.3918
▁สมุฎฺฐาเปติ	-11.3919
▁วิตกฺกญฺจ	-11.392
▁สตสหสฺสํ	-11.392
าทีหีติ	-11.392
ามิส	-11.3921
▁ภเยน	-11.3922
▁ลสุณ	-11.3923
นิโรธคามินิ	-11.3923
▁อมฺหาก	-11.3924
▁มเหสิโนฯ	-11.3925
พุทฺธํ	-11.3925
ทาร	-11.3926
วณิชฺช	-11.3927
▁นิชฺช	-11.3927
โลเม	-11.3927
▁ปกรเณ	-11.393
ปญฺจิมานิ	-11.3932
▁ปญฺหสฺส	-11.3933
▁วยํ	-11.3933
▁มงฺกุ	-11.3933
▁วุจฺจมานา	-11.3936
มํเส	-11.3936
กาลิโก	-11.3939
▁วิญฺญาตํ	-11.3943
▁ทุพฺภ	-11.3943
าติอาทิมาหฯ	-11.3946
▁จิตฺตา	-11.3946
▁กุมาเร	-11.3947
▁ปเตฺตน	-11.3948
▁วิญฺญุ	-11.3948
ทายกํ	-11.3948
ปาฬิยา	-11.3948
▁สมฺมุ	-11.395
าธิโป	-11.3951
▁สณิกํ	-11.3951
▁อิฎฺฐานิฎฺฐ	-11.3951
▁อภิธมฺมภาชนีย	-11.3951
▁ปุพฺพสฺส	-11.3951
▁พฺรู	-11.3952
▁อารทฺธวีริย	-11.3952
▁วีริยารมฺภ	-11.3952
▁อธมฺมกเมฺม	-11.3952
[...]
