<unk>	0
<s>	0
</s>	0
,	-2.89091
.	-3.93312
།	-3.997
ཾ	-4.01093
ཏི	-4.20447
▁‘‘	-4.20608
’’	-4.43257
▁ན	-4.55629
▁ཙ	-4.57286
ཱ	-4.59968
ོ	-4.66255
▁	-4.80136
ེ	-4.91796
▁ཝཱ	-4.97108
སྶ	-4.97482
ནྟི	-5.09403
▁–	-5.21694
ེན	-5.38272
▁པན	-5.46813
▁ཏཾ	-5.6151
༎	-5.63393
པེ	-5.64577
?	-5.65187
॰	-5.7217
▁ཏཏྠ	-5.73751
ཏི།	-5.75662
▁སོ	-5.83742
▁ཧོཏི	-5.83791
▁ཨ	-5.8568
▁ཨེཝཾ	-5.85858
པི	-5.89029
▁ཁོ	-5.94927
ཏོ	-5.98476
-	-6.00761
ཱནཾ	-6.05456
ཉྩ	-6.075
▁བྷིཀྑཝེ	-6.08122
▁ནཱམ	-6.08305
’	-6.10076
▁ཏསྶ	-6.10187
▁ཏེ	-6.11463
ན	-6.17781
▁ཧི	-6.19193
ཱཏི	-6.20102
ཱནི	-6.25516
ེཧི	-6.28939
ཾ།	-6.34009
ཱཡ	-6.43109
ཝ	-6.44177
ེསུ	-6.46023
▁‘	-6.50326
;	-6.52177
ི	-6.5431
ཝསེན	-6.58233
▁ཏེསཾ	-6.59138
▁མེ	-6.59952
▁དྷམྨཱ	-6.60415
▁དྷམྨོ	-6.60988
▁ཏེན	-6.63101
▁ཨཡཾ	-6.63223
▁དྷམྨཾ	-6.63404
ོ།	-6.63803
▁ཧོཏི།	-6.65766
▁།	-6.67736
▁ཡཐཱ	-6.68576
▁ཨཏྠོ།	-6.70531
▁ཝིཡ	-6.7244
▁པཊིཙྩ	-6.73129
▁ཡཾ	-6.74425
▁བྷིཀྑུ	-6.7695
▁ཨཐ	-6.79511
▁ཨུཔྤཛྫཏི	-6.81333
▁དྭེ	-6.81863
▁ཨེཏྠ	-6.82001
▁ཀཏྭཱ	-6.82412
▁ཡོ	-6.82782
ནཾ	-6.83212
▁ཏསྨཱ	-6.83997
ཨ	-6.85937
མྤི	-6.86024
▁ནོ	-6.86647
▁ཏཐཱ	-6.86802
▁བྷགཝཱ	-6.87627
ཱདི	-6.88295
▁ཨེཀཾ	-6.88959
ཏྟཱ	-6.8924
▁བྷནྟེ	-6.894
▁ཨིདཾ	-6.89627
▁ས	-6.90108
▁ཏཏོ	-6.90336
ཱི	-6.90486
▁ཝུཏྟཾ	-6.92037
ཀ	-6.93414
ཏཱ	-6.95083
ནྟི།	-6.95849
ཱ།	-6.99926
▁ཨཏྟནོ	-7.01667
ཡ	-7.04213
▁ཝུཏྟཾ།	-7.06637
མེཝ	-7.06661
ཏི༎	-7.08615
▁ཨཱཧ	-7.11495
ོཏི	-7.11876
▁པཙྩཡོ	-7.12726
▁ཨིདྷ	-7.14547
▁སཱ	-7.15817
▁ཙིཏྟཾ	-7.16258
▁ཡསྶ	-7.16655
▁པཉྩ	-7.17937
ཡེཝ	-7.2022
མ	-7.22072
▁ཡེ	-7.22405
▁ཏསྨིཾ	-7.2369
▁ཏཱིཎི	-7.23901
▁ཨཏྠི	-7.24217
ཏཱིཏི	-7.25126
སུ	-7.27476
▁,	-7.28564
▁སཏྟ	-7.29314
ཀོ	-7.29925
▁ཨིཏི	-7.30202
▁ནཝ	-7.30264
▁བྷིཀྑཱུ	-7.30303
ཏཱཡ	-7.31582
ེཏི	-7.32156
▁ཨེཝ	-7.36215
▁ཀིཾ	-7.37458
▁མཧཱ	-7.39742
ཡོ	-7.39888
ཡཱ	-7.40155
▁ནིཊྛིཏཱ།	-7.40499
མྷི	-7.421
▁ཙེཝ	-7.42451
ིཏྭཱ	-7.43671
▁བྷགཝཏོ	-7.43935
▁ནཏྠི	-7.441
ནཱ	-7.46532
ཡཾ	-7.47364
▁དྷམྨསྶ	-7.49346
ཧི	-7.4938
▁ཧུཏྭཱ	-7.49556
▁ཨཱཔཏྟི	-7.50214
ེཡྻ	-7.51144
ཏཾ	-7.53104
▁ཝུཙྩཏི	-7.53303
▁སབྦ	-7.53544
▁ཨིམིནཱ	-7.53879
▁ཨེཀ	-7.56936
ེ།	-7.57766
▁ཡཏྠ	-7.58318
ནྟོ	-7.58539
▁ཡཱ	-7.59633
▁དྷམྨ	-7.59768
▁ཙ།	-7.60244
▁ཨིམེ	-7.60387
ས	-7.60429
▁རཱུཔཾ	-7.6051
▁དིསྭཱ	-7.61175
སི	-7.614
▁ཧོནྟི	-7.62504
▁སུ	-7.63035
▁ཨིམཾ	-7.63383
▁སདྡྷིཾ	-7.6475
ཀཾ	-7.64796
▁རཱཛཱ	-7.65742
▁ཡེན	-7.66504
▁ཁནྡྷཱ	-7.67268
▁པཙྩཡོ།	-7.67428
▁ཀཐཾ	-7.67885
▁ཨཱམནྟཱ།	-7.68538
ཀཱ	-7.69719
▁ཏྭཾ	-7.698
པ	-7.69871
▁པུན	-7.70001
▁ཧེཏུ	-7.71107
ུ	-7.71985
▁གཧེཏྭཱ	-7.72304
▁ནུ	-7.73363
▁ཨཱཝུསོ	-7.73535
▁སཙེ	-7.73654
▁ཏཡོ	-7.7379
▁མཾ	-7.75549
▁ཨཧཾ	-7.75706
▁ཧོཏཱིཏི	-7.76679
▁ཨཏྠོ	-7.7984
▁ཨེཀོ	-7.79896
▁ཨིདཱནི	-7.80026
▁སཏི	-7.80136
▁མཱ	-7.8094
▁ཚ	-7.81095
ཱདཱིསུ	-7.81519
▁བྷགཝཏཱ	-7.81752
ཱདཱིནཾ	-7.81879
▁སཏྠཱ	-7.8318
▁མམ	-7.83381
▁ནཱམ།	-7.83481
▁པ	-7.83546
ཏཱི	-7.83953
སུཏྟཾ	-7.84912
▁༡	-7.85143
▁སཧ	-7.85964
▁ཏདཱ	-7.86983
ཏྠ	-7.87082
▁སུཏྭཱ	-7.87288
▁པཉྙཱ	-7.87588
▁པུགྒལོ	-7.88433
སུཏྟཝཎྞནཱ	-7.88923
ཱཔི	-7.89047
▁ཡསྨཱ	-7.89176
ནི	-7.89652
▁ཝི	-7.90123
▁སབྦཾ	-7.90144
▁མཧཱརཱཛ	-7.91226
▁ཏཱཝ	-7.93023
▁ཙཏྟཱརོ	-7.93394
▁སིཡཱ	-7.93508
▁པཙྩཡཱ	-7.93737
ིཏ	-7.94785
▁ཏེནཱཧ	-7.95923
ཏིཨཱདི	-7.96155
▁ཝཏྭཱ	-7.96387
▁ཨནུ	-7.96634
ཏེ	-7.97055
▁གནྟྭཱ	-7.97759
▁སམ	-7.98109
བྷཱཝཾ	-7.98632
▁ཀིར	-7.98634
སོ	-7.99019
▁ལོཀེ	-8.00421
▁སབྦེ	-8.00574
▁ཀཏཾ	-8.00933
ཱདཡོ	-8.01097
ིཀཱ	-8.01303
▁ཨཊྛ	-8.01577
བྷཱཝེན	-8.01825
ཏིཨཱདིནཱ	-8.02042
ཱདཱིཧི	-8.02525
སདྡོ	-8.02923
ེཏྭཱ	-8.03076
▁ནཧེཏུ	-8.03168
▁པུབྦེ	-8.03737
▁ཝེདནཱ	-8.04621
▁ཨེཏཾ	-8.04656
▁སམཡེ	-8.04658
ནོ	-8.04664
▁ཁནྡྷེ	-8.0556
▁ཙཏྟཱརི	-8.05619
▁ཧེཏུཔཙྩཡཱ	-8.06153
▁ཀམྨ	-8.06784
ཱིཏི	-8.07062
▁ཨཱརབྦྷ	-8.07447
▁ཨིམསྨིཾ	-8.07959
▁ཋཔེཏྭཱ	-8.07968
ཏ	-8.08106
▁ཀམྨཾ	-8.08597
▁དས	-8.08607
▁ཙིཏྟ	-8.09414
▁ཙེ	-8.09429
▁སནྡྷཱཡ	-8.10104
▁ཨུཔ	-8.10411
▁ཨན	-8.10931
▁བྷིཀྑུནོ	-8.11126
ཾ༎	-8.116
ཝི	-8.11708
▁ཀོ	-8.11918
▁མཡཱ	-8.12312
▁ཀིཉྩི	-8.12763
ཀཐཱ	-8.1306
༧	-8.1324
▁རཱུཔ	-8.13651
ཱནཱིཏི	-8.1445
▁ཨསྶ	-8.14582
བྷཱཝོ	-8.14659
▁ཝིཧརཏི	-8.14887
ིཡ	-8.15128
▁པརཾ	-8.15178
▁དུཀྑ	-8.15266
▁ཡཱཝ	-8.15385
▁ཝཏྟབྦེ	-8.1542
༣	-8.15596
▁པཋམཾ	-8.15912
▁ཨཱཡསྨཱ	-8.16018
▁ཨཧོསི	-8.16036
ཙ	-8.16239
ཀཱལེ	-8.16269
▁མཡ྄ཧཾ	-8.16529
ཱདཱིནི	-8.168
▁བྷགཝནྟཾ	-8.17216
▁བྷོ	-8.17519
▁༢	-8.17819
▁དྷམྨེ	-8.18127
▁ཝཱ།	-8.18194
ནྟཱིཏི	-8.18408
༥	-8.18532
▁ཝཏ	-8.18676
མཱ	-8.19166
ེནཱཏི	-8.19243
▁ཨཏྠ	-8.19983
▁ཨཉྙཾ	-8.20018
དྷམྨ	-8.20233
༨	-8.20501
༩	-8.20755
▁དསྶེཏུཾ	-8.21033
▁པཊི	-8.21286
▁དུཀྑཾ	-8.21338
▁དསྶེཏི།	-8.21511
▁ཝཏྠུ	-8.21552
༤	-8.2198
སྨིཾ	-8.21992
ིཀ	-8.22138
▁ཐེརོ	-8.22714
▁ཨིཏོ	-8.22737
༦	-8.22781
ཏྠཱཡ	-8.23213
▁ཏཎྷཱ	-8.2334
▁བུདྡྷ	-8.2398
ཱནི།	-8.24134
༡	-8.24214
༢	-8.24445
ེཔི	-8.24497
ེཝ	-8.24626
ིཡཱ	-8.24722
ཝཎྞནཱ	-8.24864
▁ཙཱཏི	-8.25014
▁སམྨཱ	-8.25791
ཝཱ	-8.25794
▁ཝུཙྩཏི།	-8.26052
▁ཏུ	-8.26326
▁ཝེདིཏབྦོ།	-8.26469
▁དིཊྛི	-8.26778
ནྟི༎	-8.27443
▁ཡོཛནཱ།	-8.2777
▁པཋམ	-8.27832
ཏིཨཱདི།	-8.27999
▁ཡདི	-8.2866
▁དསྶེནྟོ	-8.29001
བྷཱཝ	-8.29217
ིཏུཾ	-8.29438
▁ཏེསུ	-8.30037
▁ནེཝ	-8.30285
ིཏཱ	-8.30287
ཝགྒོ	-8.30504
▁ཝསེན	-8.30536
▁ཧེཏུཔཙྩཡཱ།	-8.31248
ཐ	-8.31763
▁ཏསྶཱ	-8.31936
ཊྛེན	-8.32015
▁ཀསྨཱ	-8.32394
▁སམནྣཱགཏོ	-8.32565
ཏྠཾ	-8.32993
▁རཉྙོ	-8.33113
ེནེཝ	-8.33418
▁ཀརོཏི	-8.33753
▁ཛྷཱནཾ	-8.34267
ལ	-8.34383
▁ཝུཏྟ	-8.34605
▁ཨནྟོ	-8.3482
▁དེཝ	-8.35133
▁ཁནྡྷཱནཾ	-8.35347
▁པཊྛཱཡ	-8.35363
ཏུ	-8.35391
ིཾ	-8.35406
▁བྷཝ	-8.35526
▁ཨཱཧ།	-8.35689
▁ཧེཊྛཱ	-8.36206
▁ཙིཏྟསྶ	-8.36249
▁སམྦནྡྷོ།	-8.36322
▁པར	-8.36443
ཱམི	-8.36475
▁ཝཙནཾ	-8.36705
▁ཕལ	-8.37117
▁ཧོནྟི།	-8.37212
ཀེ	-8.37605
ནྟཱ	-8.37651
ིཏོ	-8.37878
▁ཝེདིཏབྦཾ།	-8.38033
པྤ	-8.38237
▁པུཔ	-8.38327
ནེ	-8.38707
▁བྲཱཧྨཎ	-8.39185
ཱཝ	-8.39283
▁དུཏིཡ	-8.39895
རཱུཔ	-8.3993
▁བྷིཀྑཱུནཾ	-8.39991
▁ཨེས	-8.40144
▁ཏ	-8.40146
▁ཀེཙི	-8.40175
▁ཧེཏུཡཱ	-8.40417
ི།	-8.40538
▁རཱཛ	-8.40804
▁ཛཱཏི	-8.41001
▁༣	-8.42799
▁སཏྟཱ	-8.43152
▁ཕལཾ	-8.43338
▁བུདྡྷོ	-8.43752
▁ཀཏ	-8.44016
▁ཏཏྲ	-8.44121
▁མགྒ	-8.44278
▁ཏེཧི	-8.44771
▁ཏཱནི	-8.44778
▁ཀཱམ	-8.44882
ིཏཾ	-8.45104
▁སཉྙཱ	-8.4514
▁སམཡེན	-8.45185
ཀམྨ	-8.45311
ནྟསྶ	-8.45319
▁ནིསྶཱཡ	-8.45676
▁ཨུཔསངྐམིཏྭཱ	-8.46173
▁ཉཱཎཾ	-8.46571
▁ཛཱནཱཏི	-8.46706
ཏྟ	-8.46736
▁པུརིསོ	-8.46755
▁སུཁཾ	-8.46942
▁ཧེཝཾ	-8.47136
▁ཝོ	-8.47144
མཱནོ	-8.47216
▁ཝཊྚཏི།	-8.47371
▁ཀཏམེ	-8.47451
▁ཉཱཎ	-8.47528
▁ཨིམསྶ	-8.47992
▁པཙྪཱ	-8.4815
ཨཡཾ	-8.48406
▁ཝེདནཱཡ	-8.4851
▁ཨེཝམེཝ	-8.49243
ཧེཏུ	-8.49964
▁ཧོཏཱི	-8.50202
▁ཝུཏྟེ	-8.50487
▁ཨཏི	-8.50553
▁པུཙྪཱ	-8.50664
༠	-8.50698
▁སབྦཏྠ	-8.50714
▁ཨེཏདཝོཙ	-8.50806
▁པཉྙཱཡ	-8.50957
ཏོ།	-8.51094
ཉྩེཝ	-8.51385
▁སུཁ	-8.51401
▁དཏྭཱ	-8.51439
▁༤	-8.52436
▁ཨེསེཝ	-8.52807
▁པད	-8.53193
▁ཨཧོསི།	-8.53216
▁ཨུཔྤཛྫནྟི	-8.53516
▁སངྒྷོ	-8.53532
▁ཀུསལཱ	-8.53619
▁ཏཱ	-8.54377
▁དཱནཾ	-8.54433
▁ཏཝ	-8.54507
ནྟཱི	-8.54891
▁ཨཏྟནཱ	-8.55119
▁སེསཾ	-8.55394
ཏྟཾ	-8.55408
▁པཏྟ	-8.55632
ཛ	-8.55763
▁གཙྪཏི	-8.5597
▁ཝེདིཏབྦཱ།	-8.56068
▁ཝུཏྟཱ	-8.5613
▁ཨེཀམནྟཾ	-8.56407
▁སཀྐཱ	-8.56419
སིཀྑཱཔདཝཎྞནཱ	-8.56618
ཏིཨཱདཱིསུ	-8.56814
▁ཀོཙི	-8.56862
▁སནྟིཀེ	-8.57004
▁བུདྡྷསྶ	-8.57372
▁ཨུཔྤཛྫཏི།	-8.57671
ེཏཱིཏི	-8.57677
ཊྛཱནེ	-8.57775
ཨེཝཾ	-8.58323
ཀིཾ	-8.5834
▁ཨུཔརི	-8.5835
▁༧	-8.58459
▁སམཱདྷི	-8.58484
▁ཨིམཱ	-8.58485
སདྡེན	-8.58488
▁ཨབྷི	-8.58495
▁ཀུསལཾ	-8.58694
སྶཱཏི	-8.58901
▁སཡཾ	-8.58975
▁ཨཏྠཾ	-8.59446
▁པརི	-8.59613
▁‘‘‘	-8.59864
▁ཨཏྟཱནཾ	-8.60066
སཱ	-8.60388
ཝཏྠུ	-8.60486
▁ཨཱནནྡ	-8.61284
▁མགྒོ	-8.61363
▁ཨདྷིཔྤཱཡོ།	-8.614
ཉྷི	-8.61429
▁༥	-8.6161
▁དྷམྨཱནཾ	-8.61726
ིཾསུ	-8.62074
ར	-8.62407
ོཔི	-8.62431
▁ཀ	-8.62666
ཊྛ	-8.62914
སྶེཝ	-8.63054
▁ཨཱརམྨཎེ	-8.63074
▁ཏཱིཎི།	-8.63879
▁ཀཱཡ	-8.64744
▁༦	-8.64756
▁མཡཾ	-8.65137
པཙྩཡཱ	-8.65188
ཙིཏྟ	-8.65265
▁ཨཀུསལཱ	-8.65332
ཡེ	-8.65411
སཾ	-8.65506
▁དྷམྨེཧི	-8.65709
▁ཡཏོ	-8.65806
ཝཎྞ	-8.65894
▁ཉཏྭཱ	-8.65916
▁བྲཱཧྨཎོ	-8.66167
▁ཨཔྤ	-8.66328
▁ཙཱིཝརཾ	-8.66447
ཛྫ	-8.66548
▁པཱཔ	-8.66685
▁མགྒཾ	-8.66801
བྷཱཝཏོ	-8.66881
▁ཏཐཱགཏོ	-8.66924
▁ནཱནཱ	-8.67242
ེཏུཾ	-8.67247
མྷཱ	-8.67438
ངྒ	-8.67577
▁ནཡེན	-8.6762
▁ཝིཉྙཱཎཾ	-8.67624
▁ཨཱ	-8.68442
སམ	-8.68501
པུཔ	-8.68974
ེནྟོ	-8.69182
▁སཱིལ	-8.69228
▁པཧཱཡ	-8.69434
▁བྷིཀྑུནཱ	-8.69458
ད	-8.69771
ཕལ	-8.69792
ཧཾ	-8.69827
ཏིཨཱདིམཱཧ།	-8.69993
▁དྷམྨེསུ	-8.70051
ེསི	-8.70116
▁ནཡོ།	-8.70177
▁ནཏྠི།	-8.70278
▁པུརིམ	-8.70793
▁ཨིམཱནི	-8.70832
▁ཀཱལེ	-8.71241
▁ཝིནཱ	-8.71696
▁ཨཱདི	-8.71852
▁མ	-8.71899
ཧ	-8.71973
▁༨	-8.72043
▁ནིབྦཱནཾ	-8.72051
▁ཨུཔྤཛྫིསྶཏི	-8.72278
▁ཨེཏེ	-8.72428
▁ཏཱཡ	-8.72436
▁ཨིམེཧི	-8.72471
▁ཋཱནཾ	-8.72505
▁ཝུཏྟོ	-8.72759
▁ཀིལེས	-8.72919
ཀཐཱཝཎྞནཱ	-8.73012
▁དྷཱཏུ	-8.73353
ཏྠོ	-8.73987
▁༩	-8.73994
ནྟཾ	-8.74401
སཱི	-8.74498
▁སཱདྷུ	-8.75081
▁སཏྠུ	-8.75363
▁ཡཐཱབྷཱུཏཾ	-8.75392
▁སངྒྷསྶ	-8.75505
པད	-8.75543
ོཝ	-8.75585
▁༡༠	-8.76026
▁དུཀྐཊཾ	-8.76177
▁བཧུ	-8.76319
སུཏྟ	-8.76343
▁སདྡྷཱ	-8.76499
ནཾ།	-8.76733
ཎ	-8.77238
▁གཱཐཱ	-8.77419
▁ཡསྨིཾ	-8.77443
ཱདིཝསེན	-8.77792
▁པུབྦ	-8.77856
▁ཀཱཡསྶ	-8.77888
▁ཝཎྞ	-8.7808
ནྟ	-8.78181
པཱིཏི	-8.78344
▁ཙཏཱུཧི	-8.78395
▁པཊིསནྡྷིཀྑཎེ	-8.78595
▁དསྶེཏྭཱ	-8.78603
དྷཱཏུ	-8.78692
ཱནཉྩ	-8.78737
▁ཝེ	-8.79163
▁ཝཏྠུཾ	-8.79189
▁ཏུམྷེ	-8.79231
མཧཱ	-8.79296
▁དྭིནྣཾ	-8.7934
▁པཙྩཡ	-8.79354
ཊྛཱནཾ	-8.79358
▁ཁནྡྷ	-8.79556
▁ཏིསྶོ	-8.79697
▁ཨཏྟ	-8.79925
སཉྙཱ	-8.80149
▁པསྶཏི	-8.80234
▁ཙཀྑུ	-8.80457
▁ཨུཔསམྤཛྫ	-8.80538
ཱཧི	-8.80871
ཱཡཾ	-8.81014
▁སབྦེསཾ	-8.81212
▁སཱཝཏྠིཡཾ	-8.81217
▁པནེཏྠ	-8.81331
▁ཨཝ	-8.81455
ཱནཱི	-8.81606
▁ཏེནེཝ	-8.81742
▁ཨེཀཱ	-8.82073
ཉཱཎ	-8.82179
▁པཝཏྟ	-8.82401
ཨཏྠི	-8.82416
▁ཨོ	-8.8269
▁ཙེཏནཱ	-8.83241
▁ཡདཱ	-8.83247
▁ཨམྷཱཀཾ	-8.83248
ིཡཾ	-8.83325
ིཀོ	-8.83357
ཏྠེ	-8.83638
ཱན	-8.83641
▁ཋིཏོ	-8.83711
▁སཱིལཾ	-8.83812
▁ཨུདཀ	-8.83818
▁སངྑཱརཱ	-8.84034
མགྒ	-8.84169
▁ཀཏམོ	-8.84335
▁ཀཱཏུཾ	-8.84366
▁བུདྡྷཾ	-8.8448
▁ཨཱརམྨཎཔཙྩཡེན	-8.84591
▁པུརིས	-8.84747
▁ནཡོ	-8.84839
▁ཝདནྟི།	-8.84844
ིཀཾ	-8.849
ཨཧཾ	-8.84992
ཀསྶ	-8.85166
▁དཊྛབྦཾ།	-8.85332
▁ཨེཏམཏྠཾ	-8.85337
▁ཨེཏེན	-8.85722
ིཾསུ།	-8.85776
▁གཧཔཏི	-8.85883
ཊྛོ	-8.86119
▁མནོ	-8.86286
▁ཀཏམཾ	-8.86372
▁ནིསིནྣོ	-8.86396
ཱཔེཏྭཱ	-8.86458
ཡཐཱ	-8.86614
སྶུ	-8.87061
▁ཏཐེཝ	-8.87214
▁ཙཏུ	-8.87288
ཀེན	-8.87374
▁ཀེནཙི	-8.87524
▁སུཏྟ	-8.87528
▁མནུསྶཱ	-8.87756
སཏྟ	-8.88089
མཱནཱ	-8.88105
▁ཨུཔཔཛྫནྟཱནཾ	-8.88165
▁ཨརཧཏྟཾ	-8.88596
▁དེཏི	-8.88603
▁ཛྷཱན	-8.88782
མཱན	-8.89281
ཏེན	-8.89285
▁ལོཀ	-8.89345
▁དེསནཱ	-8.89373
བྷི	-8.89459
དི	-8.89532
མཏྟ	-8.89657
▁ཨཝིཛྫཱ	-8.89659
▁ཏཉྩ	-8.8972
▁མཱུལ	-8.89772
ལ༹	-8.89857
ིཡོ	-8.90152
▁ནིབྦཱན	-8.90254
▁དེཝཏཱ	-8.90368
▁ཏཱིཧི	-8.90422
ནྟེ	-8.90965
▁ཙཏུནྣཾ	-8.91012
▁ཝཏྟ	-8.91288
▁ནནུ	-8.91343
▁ཏཏྠེཝ	-8.91584
ནཏོ	-8.91655
ནཱམ	-8.91772
▁ཀཱལ	-8.91943
▁སཏྟཱནཾ	-8.92113
▁པསྶ	-8.92238
▁སཙྩ	-8.92443
▁ནི	-8.92556
▁པཏྭཱ	-8.9276
ིནོ	-8.92823
▁ཨཔི	-8.92942
▁ཨཝིགཏེ	-8.93024
▁བཧིདྡྷཱ	-8.93168
▁བྷིཀྑུནཱི	-8.93171
▁ཀུསལོ	-8.93248
དཱན	-8.9334
ཀཱཡ	-8.9362
▁ཏཱིསུ	-8.93692
▁ཨཏྟཱ	-8.93752
ཀྑ	-8.9378
ཀརཎ	-8.93864
▁སེས	-8.93964
ཊྛཱན	-8.94103
པརི	-8.94108
▁ཝཊྚཏི	-8.94187
ཀམྨཾ	-8.94202
▁ཀཱརཎཾ	-8.94219
▁དཱན	-8.94286
▁པཉྩཧི	-8.94315
▁ལོཀོ	-8.94506
▁ཙཏསྶོ	-8.94646
▁རཱུཔཱནཾ	-8.94845
▁ཋཏྭཱ	-8.94937
▁ཨུ	-8.95243
▁ཨུཔནིསྶཡཔཙྩཡེན	-8.95315
▁ཀཏི	-8.95407
▁ཀཱཡེན	-8.95837
▁བྷཝེ	-8.95842
▁ཝིསུཾ	-8.95864
▁ཝུཏྟནཡེནེཝ	-8.96028
མཏྟཾ	-8.96132
དྷ	-8.96164
པུན	-8.96221
ཱནནྟི	-8.96312
▁ཡཐཱཝུཏྟ	-8.96454
ཨིདཾ	-8.96596
▁ཙཏཱུསུ	-8.96609
▁བྷཝིསྶཏི	-8.96671
ཀཐཾ	-8.96768
▁ཨུདཀཾ	-8.97083
▁དེཝཱ	-8.97163
▁ཨཏྠཱིཏི	-8.97188
▁ཨཱཔཏྟིཡོ	-8.97431
▁ཀཏྠ	-8.97507
▁པཊིཔདཱ	-8.97663
ཏྟཱ།	-8.98076
▁ཝུཏྟཱ།	-8.98106
▁ཀུསལ	-8.98215
▁ཀེཝལཾ	-8.98373
▁ཙཱིཝར	-8.98376
ཡེཝ།	-8.9851
▁ཨེཀཏོ	-8.98768
▁ཝཱཙཱཡ	-8.9894
▁ཋཱནེ	-8.98993
སྶཱ	-8.99202
▁ཝུཏྟནྟི	-8.99303
▁གུཎ	-8.99484
▁ཨཱརམྨཎ	-8.99517
▁ཀཔྤེ	-8.99561
དྷམྨཱ	-8.99629
▁དསྶནེན	-8.99644
▁ཀཔྤ	-8.99827
▁ཨེཀེན	-8.99885
▁སུཝཎྞ	-9.00034
▁ཏསྶེཝ	-9.00626
▁ཨཱགནྟྭཱ	-9.00668
ེཧཱིཏི	-9.00758
▁པཏྟོ	-9.00831
▁ཝིསྶཛྫནཱ	-9.01004
ཱནུ	-9.01089
▁བྷིཀྑུཾ	-9.01541
▁ཨུཔྤཛྫིཏྠ	-9.01573
པཊི	-9.01824
▁ཨཉྙོ	-9.01939
▁ཨིམེསཾ	-9.0233
▁ཀརོནྟོ	-9.02506
▁ཡཐཱཧ	-9.02566
▁ཀཱལཾ	-9.02763
▁ཀེན	-9.02889
▁ཨཉྙ	-9.03012
▁སབྦསོ	-9.03093
▁ཀཱ	-9.03315
སཱིལ	-9.03637
▁བྷཱཝནཱཡ	-9.03693
▁ཨནཱཔཏྟི	-9.04107
▁གཱཐམཱཧ	-9.04222
ཀཱར	-9.04339
▁གོ	-9.04413
▁བཧི	-9.04457
▁ཨཉྙཏྲ	-9.04483
▁ཀཏམཱ	-9.04506
ཱཧཾ	-9.04577
▁བྷཱཝེཏི	-9.04639
▁ཝདནྟི	-9.0469
དེཝ	-9.04806
▁ཝིཔསྶནཱ	-9.04857
▁དོསོ	-9.04888
▁ཨུཔྤནྣཾ	-9.04991
▁ཨགྒ	-9.05032
▁ཝཏྟབྦཾ	-9.0521
▁རཱགོ	-9.05291
▁སཱསནཾ	-9.05295
▁ཙཔརཾ	-9.05471
▁སདྡ	-9.055
▁དསྶན	-9.05734
སངྑཱཏཾ	-9.06166
▁སེཡྻཐཱཔི	-9.06248
▁ཀཱརཎ	-9.06251
གུཎ	-9.06284
▁པརསྶ	-9.06335
▁ཙེཏྠ	-9.06806
▁པཛཱནཱཏི	-9.06898
▁ཕསྶོ	-9.06948
▁ཨབྷིཉྙཱ	-9.07007
སདྡསྶ	-9.07103
གྒ	-9.07192
▁ཡ	-9.07309
▁ཏིཎྞཾ	-9.07363
བྷཝ	-9.07417
▁ལཀྑཎ	-9.07633
▁མནསི	-9.07713
▁པཱལི༹ཡཾ	-9.08023
▁ཋིཏ	-9.08084
རཱཛ	-9.08181
▁ཡདིདཾ	-9.08196
▁དྭཱིཧི	-9.08252
▁ཨཛ྄ཛྷཏྟཾ	-9.08336
ཝིཔཱཀ	-9.08541
ཝཏྟ	-9.08574
▁སུཏཾ	-9.08686
▁དོས	-9.08764
▁ཝ	-9.0879
▁ཨུཔྤནྣ	-9.08924
▁ཨབྱཱཀཏོ	-9.08957
▁ཨཱགཏ	-9.09058
▁ཨཡམྤི	-9.09143
▁ནཏྠཱིཏི	-9.09233
▁དུཀྐཊསྶ།	-9.09237
▁གོཏམ	-9.0927
▁ཨཏྠིཔཙྩཡ	-9.09308
སུཁ	-9.09392
ེན།	-9.09502
▁ཨཀུསལཾ	-9.09834
▁པུཉྙ	-9.1009
▁ཨཏྠེ	-9.10252
ཛ྄ཛྷ	-9.10668
▁ཙཀྑཱཡཏནཾ	-9.1079
▁ཀསྶཙི	-9.1082
▁ཙཀྑུནྡྲིཡཾ	-9.10974
ནྟུ	-9.10975
▁སུཊྛུ	-9.11285
▁ཝིནཡ	-9.11321
▁ཝཏྠུསྨིཾ	-9.11525
▁བོདྷིསཏྟོ	-9.11588
ཏསྶ	-9.11806
▁ནིབྦཏྟ	-9.11884
དུཀྑ	-9.11887
▁སཱརིཔུཏྟ	-9.11995
ུཔ	-9.12082
པཙྩཡ	-9.12313
▁མཛ྄ཛྷེ	-9.12408
▁ཝུཏྟོ།	-9.12419
ཝསེནེཝ	-9.12486
▁སངྒྷ	-9.12491
▁དཱིགྷ	-9.1256
སཉྙཱི	-9.1268
▁ཨརཧཏོ	-9.12916
▁ཨུཔྤཛྫཏཱིཏི	-9.1303
▁ཨུཔཱདཱཡ	-9.13042
ིསྶཏི	-9.13094
▁ཏཡཱ	-9.13325
པཏྟ	-9.13444
▁མརཎཱ	-9.13488
▁ཝདཏི།	-9.13711
ཡནྟི	-9.1375
ཱསི	-9.13925
▁ཨཱདཱཡ	-9.13972
▁སཀྐོ	-9.14125
ནནྟི	-9.14194
སདྡ	-9.14363
ེཏྠ	-9.14454
▁ལོཀཾ	-9.14457
▁ཨཏྠཏོ	-9.14487
▁ཏཱསཾ	-9.14617
▁མཱཏཱ	-9.14721
▁ནིཔ	-9.14752
ཱ༎	-9.14823
▁གོཏམོ	-9.14826
▁ཚནྡ	-9.14853
▁ཁནྡྷཾ	-9.15007
▁པུཏྟོ	-9.15027
▁དྭཱིསུ	-9.15123
བྷཱུཏོ	-9.15144
▁ཨུཔེཀྑཱ	-9.1515
▁ཀཱཡོ	-9.15231
▁པཱད	-9.15283
▁མཱན	-9.15347
▁ཝུཏྟཏྟཱ	-9.15579
▁པཝཏྟི	-9.15583
▁སཾ	-9.1593
▁དུཀྑཱ	-9.16009
▁ཝར	-9.16011
ནྟར	-9.1611
▁བྲཧྨ	-9.16244
▁དིསཱ	-9.1633
སེ	-9.16378
▁བཧཱུ	-9.16394
▁མཱར	-9.16409
ཀཱརོ	-9.16597
▁ཝསྶ	-9.17083
▁ནེསཾ	-9.17154
▁དུཏིཡཾ	-9.1752
▁ཝིཉྙཱཎ	-9.17542
▁ཨཛྫ	-9.17634
▁ཏད	-9.17639
སིཀྑཱཔདཾ	-9.17696
▁སམཱན	-9.17709
▁ཝེདནཱཀྑནྡྷོ	-9.18009
ཀིཙྩ	-9.18322
▁ཨེཏསྶ	-9.18336
བྷཱུཏཾ	-9.1836
▁སར	-9.18501
▁པུགྒལསྶ	-9.18645
སབྦ	-9.18699
ཏོཏི	-9.18989
ཀོ།	-9.18995
▁ཨེཀསྨིཾ	-9.19025
▁ཡེསཾ	-9.19043
▁ཏཐཱགཏསྶ	-9.19083
བལ	-9.19348
▁ལདྡྷ	-9.19369
ཱིནཾ	-9.19412
▁ཝིཔཱཀ	-9.19468
ཱརམྨཎ	-9.19555
▁སམྨཱདིཊྛི	-9.19743
▁ཧཏྠི	-9.19786
ཨེཀ	-9.19881
▁ཀམྨེ	-9.19905
ཏཱ།	-9.19935
ཀར	-9.20022
’’’	-9.20154
▁ཧེཏུཔཙྩཡེན	-9.2017
ཱདིནཱ	-9.20174
▁སོལ༹ས	-9.20213
ལཀྑཎཾ	-9.20228
རཱཛཱ	-9.20288
▁ཏཏིཡ	-9.20334
ཨིདྷ	-9.20337
▁ཨཱཔཏྟིཾ	-9.20338
▁སབྦཱ	-9.20481
ཏིཔི	-9.20563
▁ཙིཏྟེན	-9.20637
▁ཨཉྙམཉྙཾ	-9.20646
▁ཛ	-9.20663
▁མནུསྶ	-9.2071
▁ཨཝསེསཱ	-9.20788
▁དྷན	-9.20857
▁བལ	-9.20881
▁སུཏྟཾ	-9.20901
▁སནྟ	-9.20922
▁གཎ	-9.20995
▁ཝཊྚ	-9.21027
▁གཙྪ	-9.21067
▁ཀརོནྟི	-9.21212
▁ཨཉྙེ	-9.21279
▁ཀཾ	-9.21329
▁ཝིཛྫཱ	-9.21335
དྷམྨོ	-9.21474
▁ནཧེཏུཔཙྩཡཱ	-9.21527
ེཡྻཱཏི	-9.21591
མེ	-9.21632
▁ཧཏྠ	-9.21683
▁གརུཾ	-9.21868
▁སནྟིཀཾ	-9.21904
ཛཱཏཀཾ	-9.21918
▁སངྒྷཾ	-9.21941
ཙྪ	-9.22067
▁དྭཱདས	-9.22335
ཱིཡཏི	-9.22342
▁སརཎཾ	-9.22368
▁པུནཔྤུནཾ	-9.22383
བྷཱུཏཱ	-9.22614
ེ༎	-9.22748
ག	-9.22784
རཱུཔཾ	-9.23026
▁དཊྛབྦོ།	-9.23053
▁ཨབྱཱཀཏཱ	-9.23079
ཙྩ	-9.23099
▁པུརེ	-9.23156
▁ཏིཊྛཏི	-9.2318
▁སམཎོ	-9.23249
མན	-9.23279
ཀྑཎེ	-9.23329
སྨཱ	-9.23347
▁སརཱིར	-9.23502
ནིསྶཡ	-9.23559
ཀཔྤ	-9.23577
▁གཏོ	-9.23592
▁བྷེདཱ	-9.23624
▁རཛྫཾ	-9.2366
▁ཨཏཱིཏ	-9.23903
▁སཀལ	-9.23965
▁ཨས	-9.23997
སཙེ	-9.24006
▁ཨཔ	-9.24022
▁པཱིཏི	-9.24109
▁ཨཱཡསྨཏོ	-9.24119
▁པཙྩ	-9.24158
▁པརེསཾ	-9.24193
ནཱི	-9.24209
▁སཀ	-9.24229
▁དྷམྨདེསནཾ	-9.24356
▁སཱསན	-9.24381
▁ནིཙྩ	-9.24398
ེསི།	-9.246
▁ཨཱསི	-9.24639
▁ཀཐེསི།	-9.24715
▁ཨངྒ	-9.24802
▁ནཱག	-9.24864
▁བྷཝཾ	-9.25015
ེཏཾ	-9.25087
▁པིཏཱ	-9.25122
▁པདཾ	-9.2545
པཉྩ	-9.25458
▁ཨཔིཙ	-9.25799
ཱབྷི	-9.25818
པཉྙཱ	-9.25897
▁པརམ	-9.25974
▁པུགྒལཱ	-9.26184
▁པཏི	-9.26267
▁ཨཱརམྨཎཾ	-9.26269
ཀཱལ	-9.26336
▁མུཁ	-9.26345
▁དིབྦ	-9.26493
▁པཉྩནྣཾ	-9.26564
▁དྭི	-9.26707
▁དིཊྛ	-9.26737
▁ཀཏྠཙི	-9.26798
▁དཱནི	-9.26882
▁ཀཱརཎེན	-9.27058
▁བྷིཀྑུནིཡོ	-9.27084
ོ༎	-9.27105
ནུ	-9.2722
ིཏབྦཾ	-9.27435
▁ཨེཏྠཱཏི	-9.27602
ནྟེན	-9.27713
རས	-9.27743
▁ཨནནྟརཔཙྩཡེན	-9.27774
▁ཨིནྡྲིཡཱ	-9.27876
▁ཀུལ	-9.27972
▁བྷཱཝནཱ	-9.27994
▁སཏ	-9.28078
▁ཝིསེས	-9.28207
▁ཨཱཡསྨནྟཾ	-9.28328
▁ཝིཔཱཀོ	-9.28388
ཏཏྠ	-9.28431
ཀུལ	-9.28617
▁ནིསཱིདི།	-9.28962
▁སམྨ	-9.29013
▁ཙིཏྟསམུཊྛཱནཾ	-9.29115
▁ཝཙན	-9.29211
▁པིཡ	-9.29218
▁པཏྟཾ	-9.29324
▁ཏེནུཔསངྐམི	-9.29369
▁བྷཱསིཏཾ།	-9.29559
▁སཏོ	-9.29573
▁མནསཱ	-9.29715
▁ཐེརསྶ	-9.29758
བྷཱཝེ	-9.29792
▁སམཱནོ	-9.29802
▁ཨཏྠཱཡ	-9.29881
▁ཨནྟརཱ	-9.29929
▁ཝིཡ།	-9.29943
▁ཝཱིརིཡཾ	-9.30081
ནེན	-9.30198
ཨིཏི	-9.30389
མཱུལ	-9.30596
▁ཨེསཱ	-9.30847
▁ཝན	-9.30867
▁ད	-9.30906
ིནཱི	-9.30987
ལོཀ	-9.31077
▁ཨུདྡྷཾ	-9.31113
▁སུདྡྷ	-9.31244
▁ཛཱིཝ	-9.31373
མེཝ།	-9.3152
▁གཧིཏ	-9.31583
▁ནིརུཛ྄ཛྷཏི	-9.31697
▁ཝས	-9.31737
ལཀྑཎ	-9.31765
▁ཙེཏསཱ	-9.31884
▁ཨགྒི	-9.31894
▁སམྦཧུལཱ	-9.31906
▁སཙྩཾ	-9.31951
ཱནམྤི	-9.31968
▁ལབྷཏི	-9.31983
ནྣ	-9.32019
▁བྲཧྨཙརིཡཾ	-9.32084
▁ནཱམཾ	-9.32132
▁རཱག	-9.32175
▁ཨརཧཱ	-9.32209
▁སཱར	-9.32299
▁པཙྪིམ	-9.32352
▁ཏུམྷཱཀཾ	-9.32585
ཧཱར	-9.32733
▁སིཀྑཱ	-9.328
ཀཾ།	-9.32869
▁ཝཙནཏོ	-9.33008
ནྟིཨཱདི	-9.33039
▁ཨཱཧརིཏྭཱ	-9.33042
▁ཡཉྩ	-9.33091
▁པུཏྟ	-9.33604
ཱུ	-9.3368
▁པཱལི༹	-9.3368
▁ཙཏུཏྠ	-9.33719
ཝཱད	-9.33871
▁སནྟོ	-9.3389
▁ཨེཝརཱུཔཾ	-9.33966
▁ཨུཏྟར	-9.33977
རོ	-9.34019
▁བྷཱཝ	-9.34094
▁སནྟི	-9.34123
▁ཨཀུསལ	-9.34242
▁ཝུཏྟནཡེན	-9.34252
ིསྶནྟི	-9.34265
ཨཱདི	-9.34332
▁ཝཊྚཏཱིཏི	-9.3469
ཱཔ	-9.34701
ཛཱཏཀཝཎྞནཱ	-9.34795
གཏོ	-9.34832
▁ཨིཙྩཱདི།	-9.34846
ེསཱུཏི	-9.34978
▁སུཏ	-9.3502
▁པཉྷཾ	-9.35027
▁སབྦེཔི	-9.3512
▁པཉྙཏྟཾ	-9.35157
སཱར	-9.35188
▁པཀཏི	-9.35277
▁པུརཏོ	-9.35301
▁ཏདེཝ	-9.35396
ཝཙནཾ	-9.35482
སྶཱཔི	-9.3558
▁ཨུབྷཡ	-9.35634
ེཡྻ།	-9.35647
▁ཨེསོ	-9.35717
▁སམཎ	-9.35736
ཨཱརམྨཎེ	-9.35736
ཙཱིཝར	-9.35739
▁ཏནྟི	-9.35961
མུཁ	-9.35982
▁ནིཙྩཾ	-9.35983
▁ཏམྤི	-9.35986
▁ཛེཏཝནེ	-9.36114
ཨཱ	-9.36163
ཀཱམ	-9.36232
▁ཨཀུསལོ	-9.36249
▁ཧ	-9.36274
▁དུཀྑསྶ	-9.36463
གཙྪ	-9.36561
▁ཛཱིཝིཏ	-9.36568
དསྶན	-9.36593
▁ནིཊྛིཏཾ།	-9.36617
▁ཨུཔྤཱདཀྑཎེ	-9.36636
▁དུགྒཏིཾ	-9.3668
▁མརཎ	-9.36841
▁རུཀྑ	-9.36862
སཧསྶ	-9.36942
ཱམ	-9.37101
▁ཨཱནནྡོ	-9.37194
▁པིཎྜཱཡ	-9.37196
▁བྷཏྟ	-9.37214
▁ཋིཏཱ	-9.37219
▁ཀརོཏི།	-9.37282
▁ཨིནྡྲིཡ	-9.37395
▁ཁ	-9.3746
▁ཀཐཱ	-9.37697
▁མོཧོ	-9.37893
▁པཎྜིཏོ	-9.37943
ེཐ	-9.37947
▁པབྦཛིཏྭཱ	-9.37954
ཝཙན	-9.38038
▁གཏི	-9.38149
▁ཨཐསྶ	-9.38153
▁བྷཝིསྶཏཱི	-9.38284
▁ཀིསྨིཾ	-9.383
▁གནྡྷ	-9.38397
ཝསྶ	-9.38399
▁ཝནྡིཏྭཱ	-9.38424
ཉྙ	-9.38477
▁སཧསྶ	-9.38518
▁དིནྣཾ	-9.3855
▁མིག	-9.38596
▁ཨུཔྤཛྫིསྶཏི།	-9.3861
▁ཨནེཀ	-9.38648
▁ཝིཧརཏི།	-9.38711
▁ཀཱཡེ	-9.38741
པདཾ	-9.38929
ཱིཧི	-9.38938
▁པཝིསིཏྭཱ	-9.39078
▁སོཔི	-9.39084
▁ཀམྨསྶ	-9.39107
དིཊྛི	-9.39126
བྷེད	-9.39368
▁གཎྷ	-9.39394
▁གཙྪཏི།	-9.39468
▁ཀཐ	-9.39477
ིཏབྦ	-9.39501
▁ཨེཀཙྩོ	-9.39503
▁ཧོནྟཱིཏི	-9.3951
ནཝསེན	-9.39565
ཝཱརོ	-9.39678
▁ཝིཧརནྟོ	-9.39696
ིསྶཱམི	-9.39699
ནིམིཏྟ	-9.39766
པུབྦ	-9.39814
▁ཨུཔྤཏྟི	-9.39871
ིཏེ	-9.39923
སམྤཏྟི	-9.39985
▁ཨེཏྟཱཝཏཱ	-9.40017
▁མོཧ	-9.40079
▁ཕསྶ	-9.40123
▁༡༡	-9.40243
▁ཨནུཔ	-9.40271
ནྟིཨཱདིནཱ	-9.40305
▁དྭཡཾ	-9.40469
▁ནབྷཱཝནཱཡ	-9.40493
▁ཧོཏུ	-9.40629
རི	-9.40629
▁ཨུཔྤཱད	-9.40666
▁ཨཉྙཏརོ	-9.40673
▁ཨེཀཱདས	-9.4074
▁པུརིམཱ	-9.40812
▁མཧནྟཾ	-9.40944
▁ནིསཱིདིཏྭཱ	-9.41082
▁སཱསནེ	-9.41086
▁ལ	-9.41182
ཝིསེས	-9.41328
▁ཨཊྛཀཐཱཡཾ	-9.41388
▁དསྶེཏི	-9.41472
▁སདཱ	-9.41505
▁ཀིསྶ	-9.41709
▁ཀརེཡྻ	-9.41738
▁ནིམིཏྟ	-9.41798
དྷམྨཾ	-9.41896
པཱད	-9.41977
▁ཨེཝཉྩ	-9.42097
▁ཨཉྙཐཱ	-9.4214
བྷཱུཏ	-9.42144
མིཝ	-9.42155
▁ཀཱཡཾ	-9.42239
གཏཾ	-9.4225
ེཡྻུཾ	-9.42349
▁ཨནཱཔཏྟི།	-9.42349
ཙིཏྟོ	-9.42361
▁མནིནྡྲིཡཾ	-9.4242
▁གཱམ	-9.42715
▁དྷམྨེན	-9.42734
▁ཨེཀསྶ	-9.42778
▁ནིརུཛ྄ཛྷིསྶཏི	-9.42821
▁ཨུཏྟམ	-9.43113
བུདྡྷ	-9.43133
▁ཨཱཔཏྟིཡཱ	-9.43183
▁ཝུཏྟཉྷེཏཾ	-9.43195
▁ཨསྶཱཏི	-9.43257
▁ཨཱསཝཱ	-9.43281
ཱཧ	-9.43305
ཀིཙྩཾ	-9.43393
▁ཨུབྷོ	-9.43399
ཙིཏྟཾ	-9.43452
▁ཝིཧཱར	-9.4358
ཀཱནཾ	-9.43624
བྷ	-9.43719
▁པརེ	-9.4375
ཀརོ	-9.43783
ཝར	-9.43806
▁སུཁཱཡ	-9.43872
▁ཏཏིཡཾ	-9.44155
▁ཏམེཝ	-9.44342
▁བྷཱཝོ	-9.44381
ཏྠེརོ	-9.44394
▁ཨཱཙརིཡ	-9.44728
ིསྶཱམཱི	-9.4499
▁ཨཱགཏོ	-9.4511
▁ཝིས	-9.45115
▁པཐཝཱི	-9.45276
▁དིནྣ	-9.45345
ིཀཱཡ	-9.45403
ཏྭཱ	-9.45735
▁པཧཱཏབྦོ	-9.45745
ནཡ	-9.45837
▁རཱུཔཱཡཏནཾ	-9.45846
▁བྲཱཧྨཎཱ	-9.45872
▁བྷཝནྟི	-9.45875
སམནནྟརེ	-9.45887
དྷམྨེ	-9.45889
▁པུཊྛོ	-9.45907
▁ཨདྷིཔཏིཔཙྩཡེན	-9.45942
ཡཏོ	-9.45955
▁པདྷཱན	-9.45963
▁དྭཱར	-9.45973
དྭཱར	-9.46093
▁བོདྷི	-9.46183
▁བྷཡ	-9.46201
▁གཙྪནྟི	-9.46278
▁ཏེརས	-9.46382
མཡཾ	-9.46415
▁ཝཱཙཱ	-9.46438
ཉྩཱཏི	-9.46444
▁ཨེཏེསཾ	-9.46474
▁ཛན	-9.46475
▁ཛཱིཝིཏཾ	-9.46637
མསྶ	-9.46829
▁ཝིཧཱརཾ	-9.4684
ཱཡཱཏི	-9.46848
ཝགྒ	-9.46886
▁ཡུཏྟ	-9.46925
ཐཱ	-9.46958
པར	-9.46987
▁སམཡཾ	-9.47027
གྒཧཎེན	-9.472
▁སུཏྟེ	-9.47236
གནྡྷ	-9.47244
▁ཨཉྙཏརཾ	-9.47267
ནིདྡེསཝཎྞནཱ	-9.47395
དོས	-9.47407
ཀཱརཎ	-9.47451
▁ཀིཉྩཱཔི	-9.47452
▁ཀུཏོ	-9.47458
▁ནཱམཱཏི	-9.47467
▁ཨེཝམྤི	-9.47469
▁བྷིཀྑུནིཡཱ	-9.47471
▁ཨིཏྠི	-9.47518
▁པཉྙཏྟི	-9.47528
ལཱ	-9.47576
▁དྷཱཏཱུཧི	-9.47584
▁མཎི	-9.47603
▁ཨཏཱིཏཾ	-9.47614
▁དུ	-9.4766
སདིས	-9.47663
▁ཨཱཔཛྫཏི།	-9.47699
▁སེནཱསནཾ	-9.47915
▁དཱིཔ	-9.47999
▁རས	-9.48017
▁ཛཱཏོ	-9.48025
ཡེཝཱཏི	-9.48103
▁ཨཉྙེན	-9.4816
▁པཱཙིཏྟིཡ	-9.48213
▁ཚིནྣ	-9.48231
▁ཨི	-9.48335
རེ	-9.48464
▁ནཨདྷིཔཏིཡཱ	-9.48505
▁ཨིཏྠཱི	-9.48575
ེསུ།	-9.4862
ུཔྤཏྟི	-9.48694
▁ལོཀིཡ	-9.4874
▁ཨཉྙཱ	-9.48753
▁ཀརོཏཱིཏི	-9.48892
▁པསཱད	-9.4891
▁བྷཡཾ	-9.48994
▁ཧེཏཱུ	-9.4907
▁ཨེཏརཧི	-9.49073
▁ཙིཏྟེ	-9.49157
▁ཛཱཏ	-9.49168
▁བྷིཀྑཱུཧི	-9.49173
ཏར	-9.49191
བྷཱུམི	-9.49201
ཝེ	-9.49237
▁ཙ༎	-9.4931
▁བྷངྒཀྑཎེ	-9.49354
▁བཧུཾ	-9.49399
▁ཨརིཡ	-9.49433
ཝཱར	-9.49435
ཛཱཏི	-9.49453
▁ཨཱཔཛྫཏི	-9.49556
སྨི	-9.49564
ནཉྩ	-9.49613
▁ཀིཙྩ	-9.49848
▁ར	-9.49957
བྷིཀྑུ	-9.49978
▁ནགརཾ	-9.49986
▁ཨརིཡསཱཝཀོ	-9.50071
▁མཧཱབྷཱུཏེ	-9.5008
ཨུ	-9.50124
▁དྷཱཏུཡོ	-9.50216
ཀཱལོ	-9.50231
▁ཨིདྡྷི	-9.50231
ིདཾ	-9.50272
པཉྙཏྟི	-9.50398
ཀུསལཾ	-9.50433
▁པཱདེ	-9.50455
▁ཨཉྙསྶ	-9.50463
▁ཨཱརོཙེསུཾ།	-9.50487
▁ཨདྷི	-9.50535
▁ཀར	-9.50652
སམྤཡུཏྟ	-9.50696
▁ཙཝནྟཱནཾ	-9.50737
མགྒེ	-9.50772
ེསུཔི	-9.50827
▁པནསྶ	-9.50915
སཱདྷུ	-9.50932
▁སམྤ	-9.5096
▁ཚནྣཾ	-9.51083
▁སངྑཱར	-9.51096
▁སངྒྷེན	-9.51161
▁ཝཛྫ	-9.51189
ཡཏི	-9.51213
▁ཡཱནི	-9.51293
གཏ	-9.51352
▁ཝདཏི	-9.5165
▁སམྤཡུཏྟཀཱནཾ	-9.51657
སཧཛཱཏ	-9.51665
▁མཧ	-9.51711
ཏྭེཝ	-9.5175
▁ཨབྷིཝཱདེཏྭཱ	-9.51824
▁ཀུ	-9.52038
གམན	-9.52073
▁ཙཏུཏྠཾ	-9.5212
ེཡྻཾ	-9.52226
▁ནཱགསེན	-9.52503
▁ཁུདྡཀ	-9.52558
▁ཀམྨཔཙྩཡེན	-9.52622
སཱིཏི	-9.52659
▁བྷཱུཏ	-9.52679
▁བྷཱུམི	-9.5282
▁ནཱིལ	-9.52955
▁ཁནྡྷོ	-9.52987
ཨཐ	-9.53022
▁ཝཎྞོ	-9.53034
ེཧཱི	-9.53159
▁ཏིཎ	-9.53372
▁པནེཏཾ	-9.53508
▁ག	-9.53579
▁ཝཊྚཏཱི	-9.53618
▁ཛཱིཝིཏིནྡྲིཡཾ	-9.53633
▁ཝེདནཾ	-9.53838
▁ཨེཝ།	-9.53942
▁ཙར	-9.5407
བྦ	-9.54174
▁བྷིཡྻོ	-9.54244
▁ཀསྶ	-9.54413
བྷཡ	-9.54515
▁ཀཱལེན	-9.54525
▁དིཝཱ	-9.54573
མི	-9.5462
ཛ྄ཛྷཱན	-9.54703
▁པཉྙཏྟཾ།	-9.54756
▁པཱཙིཏྟིཡསྶ།	-9.54803
▁ཝེད	-9.54923
▁༡༢	-9.55003
▁རཱུཔཀྑནྡྷོ	-9.55004
བྷཱཝཏོ།	-9.55014
▁པཊིཝིརཏོ	-9.55067
ཏྟཡ	-9.55084
▁ནིརོདྷ	-9.55143
▁བནྡྷ	-9.55204
▁སཱརིཔུཏྟོ	-9.55228
▁ཨཧུ	-9.55239
▁ཝིཧཱརེ	-9.55304
ནིདྡེསོ	-9.55309
▁ཨཝི	-9.55322
ཨུཔ	-9.55368
▁ནོཝིགཏེ	-9.55461
▁པིཏུ	-9.55539
▁ཨསཏི	-9.55569
▁ཨསཉྙསཏྟཱནཾ	-9.55618
▁བྱཉྫན	-9.55628
▁ཨཱཡཏིཾ	-9.55739
དཱནཾ	-9.55878
▁ཙོར	-9.55964
ྱ	-9.5612
ཱཀཱར	-9.5616
▁ཝིཏཀྐ	-9.56165
▁དེཝཱནཾ	-9.56272
▁ཛིན	-9.56281
▁ཨཡམེཝ	-9.56306
▁ཙིནྟེཏྭཱ	-9.56374
▁ཨཊྛཱརས	-9.5653
ཝིཧཱར	-9.56536
▁གཧེཏབྦཾ།	-9.56571
ཊ	-9.56572
མེཏཾ	-9.56582
ཝཱརེ	-9.56585
རཏན	-9.56601
ཉྩ།	-9.56639
▁པཱཙིཏྟིཡཾ	-9.56789
▁རཱཛཱནཾ	-9.56849
གཎ	-9.56865
▁མགྒསྶ	-9.56883
▁ཨཡ	-9.57027
▁སམུཊྛཱཏི	-9.57049
▁གཱཐཱཡོ	-9.5706
བྷཱཝནཱ	-9.57138
ཡསྶ	-9.57149
སམྤནྣོ	-9.57237
▁གཱཐཱཡ	-9.57366
▁བྷཝེཡྻ	-9.57435
▁བྷུཉྫ	-9.57569
▁དུཀྑཱཡ	-9.57734
▁སཧཛཱཏཔཙྩཡེན	-9.57796
▁ནིཀྑམིཏྭཱ	-9.57829
▁ཨུཔྤནྣཱ	-9.57839
▁ནཝིཔྤཡུཏྟེ	-9.57859
མཡ	-9.5801
▁༎	-9.58103
▁ཝདེཡྻ	-9.58313
▁ཝཱིརིཡ	-9.58339
▁ཏཏྠཱཏི	-9.58353
བྷཏྟ	-9.58365
▁པུརིསསྶ	-9.58372
▁སུདཾ	-9.58412
ཏཱཏི	-9.58456
གྒཧཎ	-9.58538
▁བལཝ	-9.58645
▁པུཉྙཾ	-9.58812
▁ཙཱུལ༹	-9.5885
▁ཨནུལོམ	-9.58866
མཏྟམེཝ	-9.5893
▁སཱིཧ	-9.58957
▁ཋཱནེསུ	-9.59108
▁སམྤཛཱནོ	-9.59165
▁སཀྐོཏི	-9.59168
▁ཀཏེ	-9.5917
▁དིཝསེ	-9.59241
ནཱིཡ	-9.59378
▁ལོཀསྶ	-9.5939
▁པཱཙིཏྟིཡཾ།	-9.59397
མེཝཱཏི	-9.59562
▁རཱུཔསྶ	-9.59565
བྷོ	-9.59721
▁སབྷཱཝ	-9.59767
བྷནྟེ	-9.59809
▁ཝིཔཱཀཾ	-9.59833
▁ཏུཡ྄ཧཾ	-9.59942
པཱི	-9.59949
▁ཙཱཔི	-9.59984
▁བྷིནྣ	-9.60089
▁ཝིཏཀྐོ	-9.60098
▁ཨབྱཱཀཏཾ	-9.601
▁དྷནཾ	-9.60128
ཱམཱི	-9.60271
ཱདིཏོ	-9.60317
དྷི	-9.60368
▁ཨུདཔཱདི	-9.60455
▁ཝིཙིཀིཙྪཱནུསཡ	-9.60513
▁སུབྷ	-9.60541
ཨཝིགཏ	-9.60574
▁ཀཱམརཱགཱནུསཡོ	-9.60607
སམཱདྷི	-9.60762
ཚ	-9.60775
བནྡྷ	-9.60825
ཝཊྚ	-9.60904
ཝེདནཱ	-9.60929
▁ཝཌྜྷ	-9.60975
▁ཨཱཀཱསེ	-9.60981
▁ཨརིཡཱ	-9.61045
▁ལོབྷ	-9.61169
▁པཝཏྟེ	-9.61198
▁པཝཏྟཱ	-9.61305
▁ཝདཱམི	-9.61341
▁ཀཱམེ	-9.61496
▁ཨཱཧཱརེ	-9.61512
སནྟི	-9.61555
▁དཎྜ	-9.61676
▁སེཡྻཐིདཾ	-9.61731
▁པཊིསནྡྷི	-9.61782
པཊིསམྦྷིདཱ	-9.61886
མལ	-9.62007
▁ཨཀཏྭཱ	-9.62066
མཱནཾ	-9.62185
ཧཏྠ	-9.62198
▁པདུམ	-9.6277
▁པུགྒལ	-9.62801
ཡིཏྭཱ	-9.62848
མོ	-9.62889
▁ལོཀུཏྟར	-9.62954
▁ཨུཏྟརི	-9.62979
པཙྩཡོ	-9.62979
གོ	-9.63023
▁གམན	-9.63023
▁ཨཱཧཱར	-9.63067
ལླ	-9.63083
▁ཡོཛནཱ	-9.63136
▁ཨེཏདཧོསི	-9.63179
▁པརིདེཝ	-9.63196
▁པཙ	-9.63215
▁དུཏིཡེ	-9.63243
▁པཊིཔནྣོ	-9.63352
▁གྷཊ	-9.63391
སཱུ	-9.63391
▁ཨནྟ	-9.63487
ཏྠཱ	-9.63662
▁བཱལ	-9.63742
▁གཎྷཱཏི	-9.63746
ཱུཔ	-9.63764
ཝན	-9.63792
▁ཧེཏུཾ	-9.63816
▁སགྒ	-9.63823
པྤཏྟོ	-9.63824
▁ཉཱཎེན	-9.63859
▁ནནྡ	-9.63918
▁ཝཱིསཏི	-9.6396
▁ཨཱསཝཱནཾ	-9.63994
ཀིརིཡཱ	-9.64002
▁ཡཀྑ	-9.64033
▁ཁཎ	-9.64056
▁ནཔཙྪཱཛཱཏེ	-9.6428
▁པརོ	-9.64301
ཨཏྠ	-9.64306
▁ཀེས	-9.64345
▁པུཙྪིཏྭཱ	-9.64356
ཛཱ	-9.64357
ཉཱཎཾ	-9.64399
▁མགྒེ	-9.64408
▁པཉྩསུ	-9.64431
▁ཁནྡྷེཧི	-9.64494
དྡྷ	-9.64501
▁ནེཝདསྶནེན	-9.64544
མཏྟེ	-9.64584
▁པུཐུ	-9.64628
ཀཐཉྩ	-9.64668
ིཏཏྟཱ	-9.64682
▁ཀིལེསཱ	-9.64761
▁ཙཀྑུཾ	-9.64797
▁སཏྠཱརཾ	-9.64823
▁མཛ྄ཛྷིམ	-9.64875
▁ཨདཱསི།	-9.64918
▁ཝཏྟུཾ	-9.65037
▁ཛཱཏཱ	-9.65134
སར	-9.65151
སཏ	-9.65177
ེནཔི	-9.65236
ཀུསལ	-9.6532
▁ཨུཔྤཛྫིསྶཏཱིཏི	-9.65364
▁པཊིགྷཱནུསཡོ	-9.65393
མནོ	-9.65426
▁པཱཋོ	-9.65448
▁ནིསྶགྒིཡཾ	-9.65468
ཧེཏུཡཱ	-9.65524
▁ཨཱམནྟེསི	-9.65526
▁སེཊྛ	-9.65751
ཱཔེཏི	-9.65759
▁ཛཱཏིཡཱ	-9.65824
▁དྷམྨཱཡཏནཾ	-9.659
▁ཛནཱ	-9.65961
▁ཝིསེསོ	-9.66041
པུཏྟ	-9.66089
ཱར	-9.66169
▁སཙྩཱནི	-9.66315
སཱུཏི	-9.66336
ུཾ	-9.66344
▁པཧཱན	-9.66372
▁དིཊྛིཡཱ	-9.66379
▁གཏཱ	-9.66398
▁སངྒྷེ	-9.6641
▁༡༣	-9.66482
▁མིཙྪཱདིཊྛི	-9.66483
▁ཝིཙིཀིཙྪཱ	-9.66601
ནྡ	-9.66645
▁བྷཝཏི	-9.66653
ནིདྡེསེ	-9.66658
ཝསེནཱཏི	-9.6673
▁ཨིམཱཡ	-9.66864
▁བུདྡྷཱནཾ	-9.66901
▁ཀདཱཙི	-9.66903
མཾས	-9.66922
▁ཏཎྷཱཡ	-9.66936
ཏོཔི	-9.66969
▁ཀཱམཱཝཙར	-9.67009
▁ཨུཔཱལི	-9.67043
▁ཀརིཏྭཱ	-9.6708
▁པཧཱནཱཡ	-9.67114
▁ཨདྷིཊྛཱན	-9.67147
▁པུཙྪ	-9.67181
▁ཝུཙྩནྟི	-9.67188
▁མུནི	-9.67244
ིསྶ	-9.67374
▁ཨུཔནིསྶཱཡ	-9.67402
▁ཨཏིཝིཡ	-9.67536
▁ཝཏྠ	-9.67587
ིཏྠ	-9.67587
མུ	-9.67654
ཉྙེཝ	-9.67655
ཨཱདཡོ	-9.67681
▁ཙེཏསོ	-9.67708
དེས	-9.67713
▁པཧཱིནཱ	-9.67782
▁ཏམ	-9.6785
▁ཨནིཙྩཏོ	-9.67865
▁པརིཔུཎྞ	-9.67871
▁ལབྷིཏྭཱ	-9.6789
ཱདིཀེ	-9.6793
▁རེ	-9.68017
མིདཾ	-9.68041
ཀྑནྡྷ	-9.68088
▁གཏ	-9.6812
▁ལིངྒ	-9.68125
▁ཨཉྙམཉྙ	-9.68162
གཱམ	-9.68167
མནྟ	-9.68191
▁ཨཀྑ	-9.68249
ཨིམེ	-9.68268
▁ནཨཱསེཝནེ	-9.68293
པུཉྙ	-9.68305
ེཡེཝ	-9.6831
▁ཨེཏྠཱཔི	-9.68349
▁ཨརཱུཔ	-9.68427
▁ཏམཏྠཾ	-9.68457
▁ཨལཾ	-9.68512
▁ཨནཱགཏ	-9.68549
ཀནྟི	-9.68578
▁པཱཔཾ	-9.68583
▁ཨིཏྠཾ	-9.68624
▁ཏསྶཏྠོ	-9.68752
▁ནཔུརེཛཱཏེ	-9.68809
▁ཨཡམེཏྠ	-9.68813
▁ཏཐ	-9.68865
▁ཏཱཏ	-9.69005
ཏྱ	-9.69067
▁རཏན	-9.69081
དས	-9.6919
ཨནུ	-9.69198
▁ཁཎེ	-9.69203
▁ཀིལེསེ	-9.69217
▁ཝིགཏ	-9.6925
ལིངྒ	-9.69264
▁སབྦོ	-9.69303
▁སཏཾ	-9.6932
▁ཨཏིརེཀ	-9.69395
▁བཱལོ	-9.69459
▁ནིམིཏྟཾ	-9.6946
སུཏྟཱདིཝཎྞནཱ	-9.69582
▁སི	-9.69841
▁ནཀམྨེ	-9.69868
▁སམནྟཏོ	-9.69877
▁ཧཱི	-9.69888
▁ཨདྷིཔཏིཡཱ	-9.69889
▁༡༤	-9.69895
▁སཡམེཝ	-9.69941
▁ཨུཔྤནྣོ	-9.70014
ཨནུཛཱནཱམི	-9.70186
མྷ	-9.70241
▁ཙེཏཾ	-9.70266
▁པབྦཛིཏོ	-9.70462
▁གརུ	-9.70476
▁ཐ	-9.70493
ཀིལེས	-9.70498
▁པཀཏཱུཔནིསྶཡོ	-9.70624
▁པུརིསིནྡྲིཡཾ	-9.70749
▁ཙཀྐཝཏྟཱི	-9.70754
▁གཙྪཏཱིཏི	-9.70794
སངྑཱཏ	-9.70828
▁སདྡཾ	-9.70869
ནཊྛེན	-9.70881
ཨན	-9.7094
ཏདཱ	-9.70945
ཝཱཏི	-9.71
▁སརཱིརཾ	-9.71191
ནིམིཏྟཾ	-9.71309
▁མནུསྶཱནཾ	-9.71322
▁ཛཱནནྟི	-9.71368
▁ཨཀཱསི།	-9.7137
▁ཉཱཏི	-9.71403
▁མཧཱསཏྟོ	-9.71436
▁བྷཏྟཾ	-9.71507
ཛན	-9.71562
ཡི	-9.71676
▁དུཏིཡོ	-9.71712
▁དསྶ	-9.71788
▁པརིཏྟ	-9.71814
▁པརཏོ	-9.71838
▁ཨཏྟནི	-9.71921
▁༥༧	-9.72002
ཝཏྠ	-9.72072
དྷཱ	-9.72084
ཡུཏྟ	-9.72185
པུཙྪཱ	-9.72186
▁ནཝིཔཱཀེ	-9.72222
▁ཨིདྷེཀཙྩོ	-9.72232
ནྟིཨཱདཱིསུ	-9.72246
ཀུསལོ	-9.72257
ཝགྒཝཎྞནཱ	-9.72298
སི།	-9.72425
དུཀཾ	-9.72425
སམྤཏྟིཡཱ	-9.72554
▁དུསྶ	-9.7256
ཏྟེ	-9.72604
▁ཨིདམྤི	-9.7261
མཱས	-9.72638
▁རམ	-9.72661
▁༥༩	-9.72691
ེཧི།	-9.72729
ཀྐ	-9.72739
▁ཨཱཧར	-9.72822
▁པརིཛཱནཱཏི	-9.72942
▁ཝིཝེཀ	-9.7296
ཝིཔྤཡུཏྟ	-9.73081
ེཏཱི	-9.73143
▁པུཉྙཱནི	-9.73223
▁ཀཏཱ	-9.73302
▁ནདཱི	-9.73302
▁ཨེཏསྨིཾ	-9.73365
▁དོམནསྶཾ	-9.73392
▁སཱིས	-9.7343
དྷཱར	-9.73444
མཏྟེན	-9.73468
ཱཔན	-9.73493
▁སམཐ	-9.73517
▁ཨུཔེཀྑིནྡྲིཡཾ	-9.73542
▁གཱམཾ	-9.73579
སཧ	-9.73579
གམ	-9.73734
▁མཧནྟ	-9.73843
▁མདྷུར	-9.73848
▁ཏཉྷི	-9.73886
▁ཀཏོ	-9.7401
▁༥༦	-9.74106
ཝིཉྙཱཎ	-9.74201
རཱག	-9.74227
ཀརཎཾ	-9.74262
ཱཀཱརེན	-9.74365
▁ཙཀྑུནཱ	-9.7444
▁ཝིཔསྶནཾ	-9.74446
▁ཝཱཙཾ	-9.74477
▁པཙྪིམཱནཾ	-9.74477
▁ཨཔྤཊི	-9.7449
སུཁཾ	-9.7453
▁མནྟ	-9.7456
▁ནཱབྷིཛཱནཱམི	-9.74636
ཀཏ	-9.74663
ནཏྠི	-9.7467
▁པབྦཏ	-9.74696
སབྷཱཝ	-9.74697
ཱདཱིསུཔི	-9.747
ཏཏོ	-9.74717
▁སམཏྟཱ།	-9.74727
▁ཨུཏུ	-9.7486
▁པཛཧཏི	-9.74884
▁གམ	-9.74909
▁མཧཔ	-9.74958
▁ཨཱགཏཱ	-9.74997
▁སོམནསྶིནྡྲིཡཾ	-9.75016
▁ཀཐཉྩ	-9.75061
▁ཡཱཡ	-9.75066
▁ཋིཏཾ	-9.75093
▁ཏདཱ།	-9.75104
▁ཧེཏུསྶ	-9.75144
▁ཨནུསཡཱ	-9.75184
▁༦༠	-9.75189
སངྒྷ	-9.75191
▁ཋཱན	-9.75218
པཎྞ	-9.75222
▁མེཏྟཱ	-9.75264
ཏྟོ	-9.75278
▁སིཡཱ།	-9.75311
པསྶ	-9.75335
སམྦནྡྷ	-9.7536
▁སིཀྑཱཔདཾ	-9.75382
ེཏུ	-9.75396
▁སཧཛཱཏ	-9.7543
▁ཝད	-9.75445
▁གཧཎ	-9.7547
▁ཨེཀཾ།	-9.75512
▁པཉྙིནྡྲིཡཾ	-9.75551
▁ཨཱཡུ	-9.75558
▁ཨནཱ	-9.75633
▁པཱཋོ།	-9.75643
▁ཀཱལ༹	-9.75645
▁ནིསྶཡ	-9.75647
▁ཨཧེསུཾ	-9.75681
▁ཀོདྷ	-9.75689
▁དིཊྛེཝ	-9.75721
ེཡྻཱ	-9.75788
ཏརོ	-9.75898
▁ཨརཉྙེ	-9.75924
▁གནྠ	-9.76024
▁སམྨཱསམྦུདྡྷོ	-9.7604
▁ཙིནྟེསི	-9.76079
▁ཧཱིན	-9.76145
▁ཝཎྞཾ	-9.76245
▁ཨེཏེནཱཏི	-9.76303
▁ནིརོདྷོ	-9.7633
སཧསྶཱནི	-9.76436
▁ཛཱལ	-9.76452
ཀཱ།	-9.76544
▁དཱིཔེཏི།	-9.76551
ཱསུ	-9.76559
ཏྠི	-9.76585
▁མརཎཾ	-9.76643
▁མུཏྟ	-9.76785
▁ཨུདྡེས	-9.76801
བྷཎྜ	-9.76818
▁སོམནསྶ	-9.77031
▁རོག	-9.77097
▁ཨཉྙཏྠ	-9.77112
མུཁེན	-9.77185
ཏྠེརསྶ	-9.77199
▁ཨཱགམ	-9.77223
▁ཝིཏྠཱརེན	-9.77235
▁སམྨུཁཱ	-9.77239
▁སཏྟརས	-9.7732
ེཏབྦ	-9.77349
▁༡༥	-9.77376
སེཡྻཐཱཔི	-9.7741
▁སཉྙཱཀྑནྡྷོ	-9.77424
▁བཱིཛ	-9.77566
▁བྲཱཧྨཎསྶ	-9.77589
མཧ	-9.77666
▁ཝསྶཱནི	-9.77755
▁བྷརིཡཱ	-9.77762
ཱིཡ	-9.77797
▁ཨཔརབྷཱགེ	-9.77827
ཏྟི	-9.77984
ཝཱདཱི	-9.78026
▁ཨཛ྄ཛྷཏྟ	-9.78088
པཡོག	-9.7809
▁རཱུཔཱནི	-9.78156
ཝུཏྟི	-9.78169
▁སམུདཡོ	-9.78179
▁ཙནྡ	-9.7818
▁མཾས	-9.78201
▁ཨུཔལབྦྷཏི	-9.78242
▁ཨིམེསུ	-9.78269
▁བྷཛ	-9.78375
▁ཚནྡོ	-9.78404
བྦྷ	-9.78442
▁སདྡྷིནྡྲིཡཾ	-9.78497
རཱི	-9.78518
▁ཙིཏྟསམུཊྛཱནཉྩ	-9.78559
▁སཾསཱར	-9.78635
སུ།	-9.78638
▁པབྦཛྫཱ	-9.7865
མཉྙ	-9.78651
▁ཡོཛེཏབྦཾ།	-9.78674
▁རཀྑ	-9.78794
▁རཏྟི	-9.78833
▁ཡཱཙ	-9.7888
▁ཨཏཱིཏེ	-9.78924
▁པཧཱིནོ	-9.78931
▁ཀཱཡསངྑཱརོ	-9.78979
▁ཀམྨཊྛཱན	-9.78983
▁ཨཱཧཱརོ	-9.79003
▁མནཱཡཏནཾ	-9.79086
▁རཱུཔེ	-9.79128
ཁ	-9.79154
▁ཀརཎ	-9.79162
▁ཏིསྶ	-9.79164
▁ཝིཡཱཏི	-9.79208
▁གྷཱནིནྡྲིཡཾ	-9.79235
▁༥༨	-9.7927
ཀཱརཱི	-9.79297
▁ཀཱལོ	-9.7934
▁ཁཱད	-9.79366
▁ཨུདཱཧུ	-9.79379
སམུཊྛཱན	-9.79429
▁པིཝ	-9.79503
▁སམཾ	-9.79538
▁དེས	-9.7959
▁པུཙྪི།	-9.79758
▁ཨོབྷཱས	-9.79766
ིཏཾ།	-9.79813
▁ཋཔིཏ	-9.79881
▁ཀམྨཊྛཱནཾ	-9.7996
དྭཡ	-9.80003
▁ཝིཏྠཱརཏོ	-9.80008
▁༢༢	-9.8008
▁ཁཏྟིཡ	-9.80085
ནཏྠིཡཱ	-9.8021
སངྑ	-9.80258
▁༡༦	-9.80317
▁སེཏ	-9.80343
▁སུཙི	-9.80384
ཀཱརསྶ	-9.80401
▁ཝིཝར	-9.8042
ལཀྑཎཱ	-9.80432
ཱིཡཏཱིཏི	-9.8046
▁ཨཱཙིཀྑ	-9.80499
▁ཝེདིཏབྦོ	-9.80502
▁པཧཱཏབྦཧེཏུཀོ	-9.80533
▁ཛཱཏཀཾ	-9.80535
▁ཀྭཙི	-9.80573
▁ཛལ	-9.80654
▁ཀཱམཱ	-9.80663
▁རཏྟིཾ	-9.80671
▁རཐ	-9.8071
▁ཨེཝཉྷི	-9.80738
སཙྩ	-9.80754
▁ཨིཏྠིནྡྲིཡཾ	-9.80851
▁པཙྩུཔྤནྣ	-9.80943
▁ནིཝཏྟ	-9.80982
▁ཏསྶུདྡཱནཾ	-9.80997
▁ཀཏིཧི	-9.81008
མྨ	-9.81032
གྷ	-9.81066
▁ཡོནིསོ	-9.8112
▁མངྒལ	-9.81125
མཾ	-9.81146
▁སམྤཡུཏྟོ	-9.81179
▁ཨིཏརེསཾ	-9.81194
▁པཎྜིཏཱ	-9.81244
ཡོ།	-9.8126
ཏཱུ	-9.81326
▁སཱཝཀ	-9.81345
ཧཱིཏི	-9.81364
▁པུགྒལཾ	-9.81435
ནཡོ	-9.8147
▁སཾཝར	-9.81476
སཱིས	-9.81483
ཡཾ།	-9.81494
དཱིཔ	-9.81618
▁ཀཱམེཧི	-9.81624
▁༦༧	-9.81653
ཱམཱིཏི	-9.81677
▁བུདྡྷཱ	-9.8168
▁པཱུར	-9.81681
▁ཡེབྷུཡྻེན	-9.81738
▁ཨེཝཱཏི	-9.81758
▁པཋམེ	-9.81896
▁ཨབྷཱསི	-9.81933
བནྡྷན	-9.81938
▁༦༡	-9.81959
▁ཨཌྜྷ	-9.8224
▁ཨཝིཛྫཱནུསཡ	-9.8233
▁ཝེདནཱསུ	-9.82364
▁ནུཔྤཛྫཏི	-9.82393
▁པཝིས	-9.82403
▁ཀམྨེན	-9.82438
པྤཊི	-9.82454
▁ནིསཱིད	-9.82474
▁དུཀྐཊ	-9.82476
▁མིཏྟ	-9.825
ཱཔཏྟི	-9.82716
▁བྷཱསིཏཾ	-9.82771
▁སཧཛཱཏཾ	-9.82794
▁རཱཛགཧེ	-9.82832
▁གཙྪནྟོ	-9.82853
▁སཱདྷཱརཎ	-9.82897
▁ཨཱགམྨ	-9.82907
▁ཨུཔྤཛྫིཏྠཱཏི	-9.82918
ཊྛཾ	-9.8293
▁ཨཧེསུཾ།	-9.82962
▁གཱཐཾ	-9.82997
▁ཨཧམེཝ	-9.83004
▁ཨརཉྙ	-9.83014
ིསྶཏཱི	-9.8302
▁བྷ	-9.83026
བྷོཛན	-9.83041
▁ཨམྦ	-9.83055
མཱཧ	-9.8308
▁ཏར	-9.83092
▁མུཁཾ	-9.83138
▁སཉྙཱཡ	-9.83159
▁པཀཱསེནྟོ	-9.83182
▁མིཙྪཱ	-9.83194
▁ཝིདིཏྭཱ	-9.83207
▁པཱཎ	-9.83233
ཀོཊི	-9.83237
▁མཱཏུ	-9.83253
▁༦༥	-9.83283
▁པཀྑ	-9.83287
▁སེསཱ	-9.83287
པརིཙྪེད	-9.83307
▁གརཧ	-9.83324
▁པཱརཱཛིཀ	-9.83367
▁ཀེ	-9.83494
▁ཨེཀནྟ	-9.83516
▁ནགར	-9.83626
▁པཱསཱཎ	-9.83659
▁སུཁཱ	-9.83667
▁ཨཀཔྤིཡ	-9.83677
▁ཀཏམཱནི	-9.83678
▁ནིརཡ	-9.83754
རཏྟ	-9.83756
ཡོག	-9.83799
ཝཎྞཾ	-9.83816
▁ནཡ	-9.83818
▁ནིར	-9.8384
ཨིམཾ	-9.83883
ནེཝ	-9.8399
སདིསཾ	-9.83995
▁ཨརིཡོ	-9.84014
སངྑཱཏཱ	-9.84056
▁ནསནིདསྶནསཔྤཊིགྷ	-9.8406
ནཏྠཾ	-9.84081
▁ཝིཔྤཡུཏྟཔཙྩཡེན	-9.84084
▁ཨནྟམསོ	-9.84107
▁ཨེཏེསུ	-9.84119
སཏཱནི	-9.84132
▁ཨཱཡཏན	-9.84149
▁པུཏྟཾ	-9.84172
ཏརཾ	-9.842
ིཏཱ།	-9.84202
▁སདྡྷཱཡ	-9.84243
ཱདིཀཾ	-9.84251
▁པཱུརེཏྭཱ	-9.84252
▁༦༦	-9.84254
ནྟཱནཾ	-9.84291
སཉྙཱཡ	-9.84324
▁སངྒཧ	-9.8435
▁ཀརུཎཱ	-9.844
ཝིསཡ	-9.84464
▁དཱུརེ	-9.84485
▁ཨནནྟརེ	-9.84496
▁ཨེཝམཱདིནཱ	-9.84582
ཏནྟི	-9.84673
▁ཏཧིཾ	-9.84673
▁སདྡོ	-9.8469
▁ཝིཛྫཏི	-9.84709
སམྤདཱ	-9.84715
▁དིསྶཏི	-9.84753
▁བྷཝོ	-9.84794
▁སམཎབྲཱཧྨཎཱ	-9.84794
▁ཧར	-9.84816
▁ཨེཀཱཡ	-9.8485
▁ཏིཾས	-9.84871
▁ཨནུསཱས	-9.84891
▁༥༥	-9.84923
གཱ	-9.85066
▁དེཝོ	-9.85083
▁ཁམ	-9.85089
གྷཱཏ	-9.85097
ཙཀྑུ	-9.85122
བྱ	-9.85138
ཀཱནི	-9.85142
▁ཀིརིཡཱ	-9.85167
སྶཛཱ	-9.85208
དུཀ	-9.85235
▁ལབྷ	-9.85275
▁མནྡ	-9.85277
▁༡༧	-9.85393
▁ཨམཏ	-9.85414
▁ཨུཔོསཐ	-9.85449
▁པཡོགེ	-9.85538
ིཏུཀཱམོ	-9.85602
▁པནྣརས	-9.8564
དྷམྨཱནཾ	-9.85754
▁ཨཉྙེསཾ	-9.85758
▁ཨདཱསི	-9.85892
▁ཀཱམདྷཱཏུཡཱ	-9.85901
▁ཨུད	-9.85905
▁ཀསྶཔ	-9.85994
▁ཨནནྟ	-9.85994
▁ཝིམུཏྟི	-9.86015
▁ཨཱརམྨཎཱདྷིཔཏི	-9.86038
▁ཨཊྛཱསི།	-9.86059
▁ཧཏྠེ	-9.86153
ཝོ	-9.86156
ེམི	-9.86212
▁ལོཧིཏ	-9.86241
▁དིསྭཱན	-9.86279
▁ཏུཝཾ	-9.86296
▁སེསམེཏྠ	-9.86647
▁ཨནནྟར	-9.86653
ཊྛཱ	-9.86655
▁སརཎ	-9.86658
▁ཨགམཱསི།	-9.86711
བྷཱག	-9.86712
བྷོག	-9.86732
ཀིལེསཱ	-9.86736
▁ཀུལེ	-9.86787
▁མཱནཱནུསཡོ	-9.86794
▁གཙྪེཡྻ	-9.86804
▁ཝཙཱིསངྑཱརོ	-9.86832
▁ཛརཱ	-9.8684
ཙེཏནཱ	-9.86886
▁ཨབྷཱཝཏོ	-9.86926
རཱསི	-9.86943
▁ཧིཏ	-9.86966
▁ཨིརིཡཱཔཐ	-9.87089
ཱཡཏན	-9.87109
▁ཨདྷོ	-9.87203
ཎྜ	-9.87415
▁ཨུཔྤཛྫནྟི།	-9.87423
མཱཧ།	-9.87499
▁སམྤཡུཏྟཱ	-9.87541
▁དྭིདྷཱ	-9.87584
▁སཱམཉྙ	-9.87592
ནཏྠཱཡ	-9.8764
པཱ	-9.87658
རུཀྑ	-9.87659
ཙི	-9.87708
▁དལ༹ྷ	-9.87743
ཝིདྷ	-9.87795
▁ནསམྤཡུཏྟེ	-9.87889
▁དནྟ	-9.87895
▁ཨེཀཙྩེ	-9.87928
▁མགྒེན	-9.87933
▁ཨཛ	-9.87998
▁མུསཱ	-9.87998
མྤཱིཏི	-9.88
▁༧༠	-9.88008
▁ཝིཔཱཀེ	-9.88069
མགྒོ	-9.88083
▁༦༩	-9.88119
▁ཏེནེཝཱཧ	-9.88134
▁ཀུསལསྶ	-9.88144
▁ལོབྷོ	-9.88196
▁ཏེཔི	-9.88258
▁པརིཝཱར	-9.88278
ནྟིཔི	-9.8828
ཝཛྫ	-9.88281
▁ནིརུཛ྄ཛྷིཏྠ	-9.883
པྤཝཏྟི	-9.88308
▁དཱཏུཾ	-9.88326
སུཎཱཏུ	-9.88349
▁ཨཝསེས	-9.884
▁ནིབྦཏྟོ	-9.88415
▁བྷིཀྑུསྶ	-9.88421
▁ཧདཡ	-9.88453
ཏཎྷཱ	-9.88467
པུགྒལ	-9.88506
▁པརིཡཱཡེན	-9.88614
▁སཧཛཱཏཱ	-9.88622
▁བཱཧིར	-9.88637
▁པཊིཔཛྫ	-9.88661
▁པཀཱས	-9.88662
▁ཝིཀཔྤ	-9.88729
▁ལབྦྷཏི	-9.88738
▁ཨསྶཱད	-9.88752
▁༦༨	-9.88825
▁མཱཏཱཔིཏརོ	-9.88848
ནིཔ	-9.88918
གཏི	-9.88919
སཏི	-9.88923
གྒཧཎཾ	-9.89
▁རཱུཔཾ།	-9.89004
▁ཨཀྐོས	-9.89086
▁སམནྟཱ	-9.89165
▁ཝིནིཙྪཡོ	-9.89178
▁བྷཱས	-9.8918
▁མདྷུ	-9.89185
སངྑཱར	-9.89205
▁ཙིཏྟསམུཊྛཱནཱནཉྩ	-9.89294
▁ཨེཀེཀ	-9.89388
སཉྙ	-9.89413
རཏོ	-9.8945
▁སནྟེ	-9.8946
▁ཨེཝམེཏཾ	-9.89496
▁དུཀྑསཙྩཾ	-9.8961
▁མན	-9.8966
▁ཏཏིཡེ	-9.89662
▁བྷཝིསྶཏི།	-9.89672
▁ཨཔར	-9.89687
སམཡེ	-9.89689
▁ཨརཧཾ	-9.89721
▁ནཱས	-9.8973
▁ཙུདྡས	-9.89749
ལོམ	-9.89758
▁ཨུསྶ	-9.89806
▁ཝནྡ	-9.8984
▁ཨུདཀེ	-9.89867
▁ཀཔྤིཡ	-9.89868
▁ཀི	-9.89873
▁ཨེཏསྶཱཏི	-9.89906
▁ཡེཧི	-9.89935
▁ཧན	-9.89964
▁ཨིམིསྶཱ	-9.89977
བྷཱས	-9.90074
▁ཛིནོ	-9.90127
ཀིརིཡ	-9.90166
གཱཐཱ	-9.90305
▁ནིརཡཾ	-9.9032
▁སཱིསཾ	-9.90452
▁༨༠	-9.90465
▁སམཎཱ	-9.90487
ིནཱ	-9.90497
▁ཨདྷིཝཙནཾ།	-9.90511
▁སངྑཱརེ	-9.9055
▁ཨནཏྠ	-9.90615
▁ཨཏྠསྶ	-9.90638
▁ཙཏུཏྠཾ།	-9.9079
▁ནཱམརཱུཔ	-9.90827
▁ཨབྷཱསིཏྠཱཏི།	-9.90879
ིནྡ	-9.90942
▁ཨཔཱཡ	-9.90956
ནཱཏི	-9.90965
▁ཀེཧིཙི	-9.9104
▁པུརེཛཱཏཔཙྩཡེན	-9.91092
ནཡེན	-9.91136
ཏིཨཱདཱིནི	-9.91144
▁ཚབྦགྒིཡཱ	-9.91206
▁༧༤	-9.91241
▁ཨེཝམེཏྠ	-9.91242
▁པཎྜིཏ	-9.91258
▁མུཉྩ	-9.91276
▁༡༨	-9.9129
▁ཨནིཙྩཾ	-9.91309
▁ཙརཏི	-9.91378
▁ཨནཝཛྫ	-9.91427
ནྟིཡཱ	-9.91494
▁ཨཀཏ	-9.91546
ིསྶཾ	-9.91556
དོ	-9.91569
▁༦༢	-9.9158
▁ཨདྷིཀརཎ	-9.91605
རཱ	-9.91666
ཛཱལ	-9.91733
▁པཉྩམཾ།	-9.91841
▁གྷཱནཱཡཏནཾ	-9.91847
ཧིཏ	-9.91852
▁ཀཱརེཏྭཱ	-9.91883
▁༡༩	-9.91893
སཏཾ	-9.9194
▁ཝིཛྫམཱན	-9.91943
▁ཝཏྟབྦཱ	-9.92024
▁ཨིཏར	-9.92038
རུ	-9.92045
▁ཀསིཎ	-9.92116
▁པརིཝཏྟ	-9.92122
▁པཉྙཱཡཏི	-9.92165
▁དུཏིཡཾ།	-9.92171
ིཏབྦཾ།	-9.92185
▁ཨེཝམསྶ	-9.92188
ཙིཏྟསྶ	-9.92233
▁ཁཡ	-9.92265
▁པམཱཎ	-9.92275
ནཱ།	-9.92329
ཛཱཏ	-9.92464
བྷེདོ	-9.92471
ཀཏམེཧི	-9.92503
▁ཀཱམརཱགཱནུསཡ	-9.92557
▁ཛཱནཱམི	-9.92687
ནཱཡ	-9.92702
▁རཱུཔདྷཱཏུཡཱ	-9.92752
▁སཏྟེ	-9.92771
དེསནཱ	-9.92785
▁ཨུདྡིསྶ	-9.92847
པཀྑ	-9.92859
▁མཉྙེ	-9.92892
ཱདྷིཔཏི	-9.92892
▁༥༤	-9.92916
▁ཝཱིམཾས	-9.92938
▁ཨེཝམེཝཾ	-9.9296
པུཏྟོ	-9.92974
▁༢༠	-9.9301
མཛ྄ཛྷ	-9.93014
ིཏུ	-9.93023
▁ནེཏཾ	-9.93103
▁ཏཾཏཾ	-9.93127
ུཏྟར	-9.93151
▁བྷོག	-9.93155
མཡཱ	-9.93184
▁ལཱབྷ	-9.93201
▁པུཙྪི	-9.93208
ཱརམྨཎཾ	-9.93235
▁བྷཝིསྶནྟི	-9.93238
▁ཝཙནེན	-9.93261
▁གིལཱན	-9.93303
▁སཙྪིཀཏྭཱ	-9.93315
▁ཨཙྪ	-9.93324
ཱནེཝ	-9.93332
▁གཏོ།	-9.93356
▁པཛཱནཱཏི།	-9.93453
▁ཝིཉྙཱཎཀྑནྡྷོ	-9.93491
▁ཨེཝརཱུཔོ	-9.93558
▁དེསེཏི	-9.93584
▁ཏཀྐ	-9.9364
▁སདིས	-9.93667
▁བྷོཛནཾ	-9.93678
▁སམཱ	-9.93824
▁བ	-9.93835
མྦྷ	-9.93867
▁སཏྟོ	-9.93886
▁མཙྪ	-9.93886
▁བྷཱཝིཏཱ	-9.93893
▁ཝགྒ	-9.93913
▁སེཡྻོ	-9.93984
▁སིཡཱཏི	-9.94001
▁སུགཏོ	-9.94011
▁ཨནུཏྟརཾ	-9.94015
▁གིཧི	-9.94022
▁བོདྷིསཏྟསྶ	-9.94054
ཏྟཱཏི	-9.94138
▁ཏུཎྷཱི	-9.94141
པུརིས	-9.9417
▁༢༡	-9.94173
▁པཱུཛ	-9.94206
▁ཚིནྡིཏྭཱ	-9.94224
སྶིདཾ	-9.9426
▁ཨཧ	-9.94266
▁བོཛ྄ཛྷངྒཱ	-9.94278
སཏྠ	-9.9431
▁ཝཱཔི	-9.94365
དསྶནེན	-9.94431
ཱིསུ	-9.94475
▁༧༥	-9.94522
▁ཛཝན	-9.94543
▁སངྑཱརཀྑནྡྷོ	-9.94548
▁ཨདྷིཀརཎཾ	-9.94555
ཀེཧི	-9.94602
▁ཨིདཉྩ	-9.94678
▁དིཊྛཾ	-9.94774
ཧན	-9.94801
ཨཱདཱིནཾ	-9.94973
ཀཱཡོ	-9.95122
▁ཀཱམེསུ	-9.95145
▁ཝིབྷཛིཏྭཱ	-9.95188
▁ཝིཛྫཏི།	-9.95205
▁བྷཎྜ	-9.95253
▁པཎྞ	-9.95255
▁པཊིཔཀྑ	-9.9529
▁ཀརོནྟསྶ	-9.95397
▁པདཱནི	-9.95407
▁ཧོཏཱིཏི།	-9.95416
▁ཧེཏུཔཙྩཡོ	-9.95455
▁ཨེཝམཱཧ	-9.9548
▁སངྒཎྷཱཏི།	-9.95496
▁སབྦཱནི	-9.95506
▁ཨེཀདིཝསཾ	-9.95529
▁སིཀྑ	-9.95617
▁ཨུཔནིསྶཡེ	-9.95666
ཝཱས	-9.95698
▁ཛཱན	-9.95699
▁ནཨུཔནིསྶཡེ	-9.95813
▁ཚསུ	-9.95825
ཧཱི	-9.9585
ཉྫ	-9.95903
▁པཊིགྷཱནུསཡ	-9.95915
▁ཨིཏྠནྣཱམ	-9.9592
▁ཀཏྟུ	-9.95954
▁ཧཉྩི	-9.9598
ཀཱརཎཾ	-9.95981
▁པཋམཛ྄ཛྷཱན	-9.96218
▁སེནཱསན	-9.96225
མནུ	-9.96291
མཱནེ	-9.96291
▁ཝཙྪ	-9.96373
ཱཧཱར	-9.96379
▁བཱཧིརཾ	-9.96387
▁པཙྪིམབྷཝིཀཱནཾ	-9.96501
▁མཱཎཝ	-9.96509
▁ཨཱཔནྣོ	-9.96553
སིདྡྷ	-9.96567
▁སོབྷ	-9.96573
▁ཛྷཱནེ	-9.96585
ཱཝུསོ	-9.96623
དྭཡཾ	-9.96637
མམ	-9.96672
▁ཏཏིཡཾ།	-9.96676
▁པཝཏྟཏི	-9.96697
▁པརིསཱ	-9.9683
▁རཏྟ	-9.96848
ཨཧོ	-9.96875
▁པུཎྞ	-9.96927
▁༧༦	-9.96945
གཏཱ	-9.9696
སདིསོ	-9.97017
▁སཏྟམེ	-9.97089
▁༨༣	-9.9714
▁གཱམེ	-9.97145
▁༦༣	-9.97147
▁ཨབྷིཉྙཱཡ	-9.97221
▁དོམནསྶ	-9.97243
ཏུཾ	-9.97253
▁ཨནཱགཏེ	-9.97271
▁༢༣	-9.97359
ཝཏཱི	-9.97365
▁སཧཛཱཏེ	-9.97431
ེཀ	-9.97492
▁བྲཧྨཱ	-9.97545
▁༩༠	-9.97579
ནིདཱན	-9.9759
▁༨༦	-9.97605
▁སམུདཡསཙྩཾ	-9.97611
པཉྷོ	-9.97614
▁བྷཎ	-9.97618
▁ཨིནྡ	-9.97624
ཱབྷཱཝཏོ	-9.97658
▁ནཏྠཱི	-9.97687
▁པཋམོ	-9.97699
ཝཎྞོ	-9.97708
པཙྩ	-9.97775
▁ཨརཱུཔདྷཱཏུཡཱ	-9.97884
▁ནིསྶཡེ	-9.97916
▁ཀཎྞ	-9.97993
▁ཨབྷིནནྡཏི	-9.9802
▁དུཀྐཊཾ།	-9.98024
▁ཨཱནེཏྭཱ	-9.98045
དསྶནཏྠཾ	-9.98075
▁པནཱཝུསོ	-9.98107
▁པམཱད	-9.98111
▁མཉྙ	-9.98125
ལཾ	-9.98128
ནཛྷཱནེ	-9.98153
▁མནུསྶེསུ	-9.98158
ཝཱིརིཡ	-9.98175
རཾ	-9.98204
▁༨༤	-9.9823
སངྑཱཏོ	-9.98248
▁སཀྐ	-9.98252
▁མར	-9.98381
པྤཏྟ	-9.9839
▁མུདུ	-9.98424
▁གནྟུཾ	-9.98451
▁ཨཱརམྨཎཔཙྩཡཱ	-9.98524
▁རཉྙཱ	-9.9855
▁སདྡྷམྨ	-9.98574
▁ཨབྦྷ	-9.9858
ནེ།	-9.98607
▁ཨེཝརཱུཔཱ	-9.98611
▁ནིརུཛ྄ཛྷཏི།	-9.98629
▁ཨིཙྪ	-9.98672
▁དཀྑིཎ	-9.98707
▁པགེཝ	-9.98717
▁མཱས	-9.98733
ཕལཾ	-9.98831
▁བནྡྷིཏྭཱ	-9.98832
▁ཨུཔཱདཱན	-9.98869
ནཱག	-9.9888
▁ཨནིཙྩཱ	-9.98892
▁༧༨	-9.98907
▁༧༡	-9.98937
▁ཨིསི	-9.98949
▁ལབྦྷཏི།	-9.98957
▁ཚིནྡ	-9.98969
▁༢༤	-9.98972
གཱཧ	-9.98986
ཧརཎ	-9.99005
ཨབྷི	-9.99026
▁སོཀ	-9.99078
▁པུཐུཛྫནོ	-9.99087
▁ཝིཙིཀིཙྪཱནུསཡོ	-9.99103
ཡྻ	-9.99162
ཀུ	-9.99267
ཝསེན།	-9.99281
▁ཏེལ	-9.99331
▁ཨཉྙཏར	-9.99348
▁ཙཏུཏྠེ	-9.99358
▁ཁནྡྷཱ།	-9.99396
▁༧༣	-9.99456
▁དེཝདཏྟོ	-9.99479
▁ཀཏྭཱ།	-9.99499
▁སཱིཏ	-9.99506
ཏྲ	-9.99582
མཛ྄ཛྷེ	-9.99606
དནྟ	-9.99615
▁སཏིཡཱ	-9.99623
▁ནིདཱན	-9.99627
▁སཧེཏུཀ	-9.99631
▁ཀཐཱཡ	-9.99656
▁ཁེམ	-9.99671
▁པརིཔཱུར	-9.99762
▁སཀཾ	-9.99823
▁ཨིཊྛ	-9.99844
▁ཨཱདིཏོ	-9.99863
རཐ	-9.99879
དཱ	-9.99919
▁༧༢	-10.0001
▁ནཱུན	-10.0003
▁ཝིསཡ	-10.0004
ེནྟཱིཏི	-10.0009
ཙིཏྟཱ	-10.0022
▁༢༥	-10.0023
པཱཔ	-10.0024
▁སཊྛི	-10.0025
▁ཨམྷེཧི	-10.0026
▁ཙིཏྟསངྑཱརོ	-10.0028
▁ཚཧི	-10.0037
▁ཀལྱཱཎ	-10.0042
མཏྟམྤི	-10.0044
མཏྟཱ	-10.0048
▁གཱཧ	-10.0048
ཎཾ	-10.006
▁པཝཏྟཾ	-10.0064
▁ཕུས	-10.0065
▁ཛྷཱནསྶ	-10.0077
ིས	-10.0083
ཛཝན	-10.0084
བྲཧྨ	-10.0085
སུཏྟེ	-10.0085
ཨནནྟརེ	-10.0089
▁པཧཱཏབྦཾ	-10.009
▁༨༨	-10.0101
▁༧༩	-10.0116
▁ཧིཏྭཱ	-10.0119
ཨཱདཱིསུ	-10.0119
ཀཱརཾ	-10.0131
▁ཐེརཱ	-10.0134
ཱདིཾ	-10.0137
▁ཨུཔྤཛྫིཏྠ།	-10.0141
▁ཨཱམིས	-10.0141
▁ཝདྷ	-10.0145
མཎི	-10.0148
▁གེཧ	-10.0149
▁བྷོཛན	-10.0149
བྷཱཝསྶ	-10.0149
▁མཱརོ	-10.0157
▁བྷིཀྑུནཱིནཾ	-10.0157
▁པབྦཛིཏ	-10.0164
▁ཙཀྐ	-10.017
ཙཀྐ	-10.017
▁བྷཱསཏི	-10.0172
པན	-10.0184
▁པཊིལདྡྷ	-10.0186
▁སཏྟམཾ།	-10.0188
▁པཋམཾ།	-10.0197
▁ཨཱསནེ	-10.0203
▁ཀོཊི	-10.0206
▁༢༦	-10.0207
▁སཱལ	-10.0209
ཎི	-10.021
ཨོ	-10.0215
▁ཨོཝཱད	-10.022
▁ཚཊྛཾ།	-10.0221
▁པསྶཏི།	-10.0223
མུཏྟ	-10.0228
▁༨༢	-10.0231
▁༡༠༠	-10.0232
▁ཨཙྩནྟ	-10.0233
▁ཨཱཝཛྫན	-10.0234
▁ཨིདྷཱཔི	-10.0242
མཱུལཀ	-10.0245
སངྑཱཏེན	-10.0259
▁ཝནེ	-10.0259
▁པཀྑིཔིཏྭཱ	-10.0266
▁ཐེརཾ	-10.0266
ཀོཏི	-10.0267
▁ཨེཏཱནི	-10.027
▁ཝཏྠུཉྩ	-10.0272
▁དིཊྛིཾ	-10.0281
▁ཨཉྙེཧི	-10.0282
ཱདྷིཀ	-10.0285
▁ཨཏིཀྐམ	-10.0286
▁ཋིཏསྶ	-10.0287
▁པིཎྜ	-10.0287
▁པསྶཱམི	-10.0288
ཝིནཡ	-10.029
▁གབྦྷ	-10.0294
▁༨༡	-10.0296
▁ཨཏིཀྐམིཏྭཱ	-10.0305
▁ཝིཝཊྚ	-10.0308
▁ཨནུཀམྤ	-10.031
▁རཏྟིཡཱ	-10.0311
▁༨༥	-10.0312
▁ནེཝཝིཔཱཀ	-10.0312
▁ཨདྡྷཱ	-10.0314
▁ཨཡཉྩ	-10.0314
▁སབྦམྤི	-10.0315
▁མཧཱབྷཱུཏཾ	-10.0315
▁ཝིསུདྡྷ	-10.0326
▁ཨདྷིཔཏི	-10.0331
▁ཨགྒམགྒ	-10.0331
ེཏཱ	-10.0331
▁བལཾ	-10.0334
▁༢༨	-10.0337
▁སཏྠ	-10.0338
▁ཧེཊྛིམ	-10.0341
ལོ	-10.0345
▁པརམཏྠ	-10.035
བ	-10.0352
▁ཨནིཙྩ	-10.0353
▁སནྟཾ	-10.0355
ཧཱ	-10.0358
▁༢༧	-10.0358
ིཏོ།	-10.0362
▁སབྷཱག	-10.0383
▁ནིརུཛ྄ཛྷིསྶཏི།	-10.0383
▁བྲཱཧྨཎཾ	-10.0385
▁མཱུལཾ	-10.0385
▁བནྡྷན	-10.0387
▁པཱ	-10.0391
ཝགྒེ	-10.0398
ཏཉྩ	-10.0404
པབྦཏ	-10.0404
▁པསྶནྟོ	-10.0406
▁ཝོཧར	-10.0408
▁ཨིདྷེཝ	-10.0409
▁ཨཛ྄ཛྷ	-10.042
▁པརིསཱཡ	-10.0426
རསོ	-10.0429
▁༨༩	-10.0433
ནྣཾ	-10.0435
▁ཝདཱམི།	-10.0435
▁ཨམཏཾ	-10.0438
▁ཝིསེསཏོ	-10.0439
ཝཙནེན	-10.0441
▁ཏཱདིསཾ	-10.0442
▁ཨསཾཀིལིཊྛ	-10.0448
▁སབྦཐཱ	-10.0448
ནོ།	-10.0452
▁སཔྤི	-10.0452
▁པཐཝིཾ	-10.0455
སེས	-10.0461
▁༧༧	-10.0465
▁ཀཱཏབྦཾ	-10.0469
▁པསཾས	-10.0473
མྤ	-10.0474
▁དམ	-10.0481
ཛཱཏོ	-10.0481
▁དསམཾ།	-10.0485
▁ཏཔ	-10.0497
ེསྶཱམཱི	-10.0501
ཙཏུ	-10.0501
༡༠	-10.0503
▁ནིཀྑིཔ	-10.0512
▁ཨུཎྷ	-10.0518
ནྡྷ	-10.0519
གྒཱཧ	-10.052
▁ཨཝཏྭཱ	-10.052
དུ	-10.052
▁ཁཱིར	-10.0522
རཉྙོ	-10.0526
▁༨༧	-10.0526
▁ཨིཙྪཱ	-10.0528
▁ཨརཱུཔེ	-10.0536
བཱིཛ	-10.054
▁ཏཏིཡོ	-10.054
སིཀྑཱཔད	-10.0545
▁པརིཡཱཡ	-10.055
ནྟིཨཱདི།	-10.0553
པྤམཱཎ	-10.0554
▁ཛཱཏཾ	-10.0554
▁༢༩	-10.0555
▁པུགྒལཱནཾ	-10.0557
སཙྩཾ	-10.0557
ེནཱཔི	-10.0558
▁ཨབྷིདྷམྨ	-10.0561
▁སཏིམཱ	-10.0566
▁ཀུསལེསུ	-10.0569
▁སཏྟཱཧཾ	-10.057
▁ཨཔྤནཱ	-10.0573
▁ཨརིཡམགྒ	-10.0574
▁ལདྡྷཱ	-10.0582
ཱལ	-10.0583
ཡཏི།	-10.0583
▁༣༡	-10.0583
▁ཀཱར	-10.0586
▁པཧཱནཾ	-10.0593
▁ཨཱཝི	-10.0593
▁ཨཱུན	-10.0595
▁ཨཧོ	-10.0595
▁ཀཱཀ	-10.0622
▁༥༣	-10.0622
▁ཀཏྟབྦ	-10.0622
▁བྷེསཛྫ	-10.0623
▁མགྒཱ	-10.0623
▁ནིབྦཏྟིཏྭཱ	-10.0625
ཝཱུཔསམ	-10.0629
▁སུནྡར	-10.0634
▁ཨསི	-10.0635
▁ཡཾཀིཉྩི	-10.0636
བྱཉྫན	-10.0637
▁ཨཝིཛྫཱནུསཡོ	-10.064
ཨིམིནཱ	-10.064
དུཀྑཾ	-10.0648
ངྐ	-10.0653
▁ཨནནྟརཱ	-10.0657
ལི	-10.0657
▁ཝུཙྩནྟི།	-10.066
▁པརིབྷོག	-10.0661
▁ཨུཔོསཐཾ	-10.0662
དསྶནཾ	-10.0663
▁རཛྫ	-10.0666
▁ཙེཏསིཀ	-10.0668
▁༣༠	-10.0672
ཏྟིཀ	-10.0679
སམཱཔཏྟི	-10.0685
▁ཨཝིཛྫཱཡ	-10.0686
▁ཧཏྠེན	-10.069
མཎྜལ	-10.0701
▁ནེཀྑམྨ	-10.0703
▁ཨུཏྟཱནམེཝ།	-10.0704
▁དདེཡྻ	-10.0705
▁སཾཡོཛན	-10.0708
བྲཱཧྨཎ	-10.071
▁པཱཀཊཾ	-10.071
ཀཱལཏོ	-10.0714
▁ཝཱད	-10.0719
ཱི།	-10.072
དིཝསེ	-10.0721
▁ཧེཏཾ	-10.0723
ུས	-10.0726
▁སཉྙ	-10.0727
▁བྷིནྡིཏྭཱ	-10.0729
▁ལཱབྷཱི	-10.0731
▁དིསྶཏི།	-10.0735
▁ཨཊྛམཾ།	-10.0735
▁ཨབྷཱསི།	-10.0735
▁ཨུབྷཏོ	-10.0737
▁ཡམཀ	-10.0738
▁ཨེཏེཧི	-10.0741
▁ཀུཀྐུཙྩཾ	-10.0741
▁ནིབྦཏྟི	-10.0745
ཱལངྐཱར	-10.0751
▁ཨཱཙརིཡོ	-10.0751
▁ཝརཾ	-10.0752
▁ཝོཧཱར	-10.0753
ཏྠོ།	-10.0754
▁ཨཱཀཱར	-10.0754
▁ཝེདིཏབྦཱ	-10.0755
དྡ	-10.0763
▁ནཝམཾ།	-10.0763
▁ནམོ	-10.0764
▁ནགརེ	-10.0764
སཉྙིནོ	-10.0766
▁སཱདྷུཀཾ	-10.0766
རཱུཔཱ	-10.0769
▁སཏྟནྣཾ	-10.0769
ཀིརིཡཱཡ	-10.077
ལཀྑཎོ	-10.0771
▁བྷཝངྒ	-10.0773
ཀཏཾ	-10.0774
▁ལབྷཏི།	-10.0781
▁ཨནྟར	-10.0782
▁པཡོག	-10.0786
སབྦེ	-10.079
མིག	-10.0791
ཨིནྡྲིཡ	-10.0797
▁དུཀ	-10.0807
▁དསྶནཾ	-10.0807
▁མཱནོ	-10.0809
▁པདསྶ	-10.0811
▁ཙརིཏྭཱ	-10.0815
ཝིཏཀྐ	-10.0815
ཱནིཔི	-10.0819
ེསཱིཏི	-10.0821
ཏྠེརགཱཐཱཝཎྞནཱ	-10.083
▁སཧེཏུཀོ	-10.0832
▁ནཀུསལོ	-10.0835
▁ཀུསལཱནཾ	-10.0839
▁བདྡྷ	-10.084
▁སབྦེསུ	-10.0841
▁ནིསིནྣ	-10.0847
རཀྑ	-10.0854
▁ཀཱཡཀམྨཾ	-10.0855
▁བྷགཝཏི	-10.0855
▁ཐེར	-10.0857
▁དཱས	-10.0858
པྤཧཱན	-10.0859
▁ཏིཀ	-10.0866
▁སམོདྷཱནེསི	-10.0875
▁ཝིཧརཱམི	-10.0883
▁ཨཀཱསི	-10.089
▁སུཎ	-10.0891
▁ཀཉྩི	-10.0894
▁སཉྫཱཏ	-10.0896
▁ཝུཏྟནཡམེཝ།	-10.0899
ིལ	-10.0899
སནྟ	-10.0904
ལོཔོ	-10.0907
▁ཝཏྟབྦཾ།	-10.0918
སོཏ	-10.0919
སམྨ	-10.0924
ཡནྟོ	-10.0932
▁ཨཉྙཱཎ	-10.0932
▁ཀཱརཎེཧི	-10.0937
▁པཱིཏ	-10.0938
▁ཨཉྙམཉྙེ	-10.0942
▁སམུདྡ	-10.0944
གནྠ	-10.0947
▁ཀིཙྩཾ	-10.0948
▁གྷར	-10.095
▁སོཏཾ	-10.0951
▁ཨནཱགཏཾ	-10.0957
ཙཱིཝརཾ	-10.0962
▁ཨཊྛངྒིཀ	-10.0964
བྷེདཏོ	-10.0967
དྷན	-10.0968
▁སཏིཔཊྛཱན	-10.0971
▁ཨནྟརེ	-10.0971
བྷཱར	-10.0974
▁ཨོཀཱས	-10.0974
▁སམྨུཏི	-10.0975
ཝིས	-10.0978
▁ཨསུབྷ	-10.0981
▁ཨལ	-10.0982
སཾཡོཛན	-10.0986
▁ཏཐཱཔི	-10.0986
▁ཨེཝམཱདི	-10.0988
▁དཊྛབྦཱ།	-10.0988
ིམེ	-10.0995
▁ཡོཛེཏྭཱ	-10.0999
ནམྤི	-10.1001
▁ཚཊྛ	-10.1003
▁ཨིནྡྲིཡེ	-10.1007
▁པཛཧ	-10.1027
▁ཛྷཱཔིཏཱ	-10.103
▁ནིཊྛིཏོ།	-10.1031
ཛྷཱན	-10.1033
▁དཱརུ	-10.104
ནྟརེ	-10.1041
▁གྷཱཏ	-10.1049
▁ཁཱིཎཱསཝ	-10.1053
▁ཨོཀཱསཾ	-10.1054
▁ཝཱར	-10.1055
▁པཱཔུཎཱཏི	-10.1055
▁ཝཏྟམཱན	-10.1059
▁ཋིཏི	-10.1059
▁ཝསྶཾ	-10.1059
▁རསྶ	-10.1061
▁མགྒསཙྩཾ	-10.1067
▁ཨེཏྟཀཾ	-10.1069
▁ཨཉྙེཔི	-10.107
▁ཝིཙར	-10.1072
▁པཱརཱཛིཀཾ	-10.1072
▁པཝཏྟཏཱིཏི	-10.1078
ིཏབྦོ	-10.1086
▁ཀམྨཱནི	-10.1086
སདིསཱ	-10.1087
▁དྷཉྙ	-10.1097
▁ནཱགོ	-10.1099
▁སམཱཔཏྟི	-10.1099
▁ལོཔོ	-10.11
▁དེསནཾ	-10.11
མུཔ	-10.1103
▁སམུདཡ	-10.1107
▁ཙིརཾ	-10.1108
▁༣༢	-10.1114
▁ཨསཱདྷཱརཎ	-10.1115
▁༣༣	-10.1116
▁ཝཏྟབྦོ	-10.1116
ནམ	-10.1123
ིཡམཱནོ	-10.1123
▁ཛྷཱཡ	-10.1124
ཱནམ	-10.1125
▁མཏ	-10.1127
སམྤནྣ	-10.1129
ཏམ	-10.113
▁ནིརཡེ	-10.1133
▁ཨཊྛི	-10.1136
▁ནརོ	-10.1137
▁ཝིནཡེ	-10.1139
ཀུལེ	-10.1144
▁སམནྣཱགཏཱ	-10.1151
▁པམཱཎཾ	-10.1152
པུབྦོ	-10.1158
▁ཎ	-10.1162
▁བྱ	-10.1169
▁སམྨདེཝ	-10.1169
▁གཧེཏུཾ	-10.1171
པརིཡཱཡ	-10.1176
▁ཙེཏིཡ	-10.1181
ཡཏཱིཏི	-10.1186
▁༩༤	-10.1188
པུཙྪ	-10.1189
▁པཱཏ	-10.1189
▁༣༥	-10.1194
▁ཨནུཛཱནཱམི	-10.1195
▁པསྶཏོ	-10.1195
▁ཏཏྲཱཡཾ	-10.1196
▁སནྡྷི	-10.1198
ཛཱན	-10.12
ཀཏཱ	-10.1201
པུགྒལོ	-10.1202
ཱད	-10.1203
ཀཏམོ	-10.1205
ཝཱདཱ	-10.1208
▁དྷཱཏུཡཱ	-10.1211
ིསྶཏཱིཏི	-10.1214
▁སརཱིརེ	-10.1215
ུཔྤཱད	-10.1228
▁ཁེཏྟ	-10.1229
▁ཝིཔསྶནཱཡ	-10.1229
▁པཱཀཊོ	-10.1238
ཀཐ	-10.1238
▁ཡཐཱཀྐམཾ	-10.124
▁བོདྷ	-10.1241
▁གཧཎཾ	-10.1246
ཙརིཡཱ	-10.1246
ནྟིཨཱདིམཱཧ།	-10.1247
▁ཝིཝིཙྩེཝ	-10.1247
▁ཨུབྷིནྣཾ	-10.1247
▁དུཀྑཏོ	-10.125
▁ཝཡ	-10.1251
ནཱཧཾ	-10.1252
▁ཝིསམ	-10.1255
▁ཛིཝ྄ཧཱ	-10.1258
▁པིཎྜཔཱཏ	-10.1259
ཱརཧ	-10.126
▁ནཱམཱ	-10.1261
▁ཛནོ	-10.1263
▁བྷཝིསྶཏི༎	-10.1265
▁༥༢	-10.1276
གྒྷ	-10.1282
སྶེཏཾ	-10.1284
▁དྷམྨཱ།	-10.1292
▁ཏིཝིདྷ	-10.1294
ཡཱཏི	-10.1296
▁ཨསྶཱདེཏི	-10.1296
▁པཊིཔཏྟི	-10.13
▁མཧཱབྷཱུཏཱ	-10.1301
སངྒཧ	-10.1304
▁སཱཝཀཱ	-10.1311
ཛཾ	-10.1311
▁ནཱམཾ།	-10.1312
ེས	-10.1313
མིཙྪ	-10.1319
▁ཁམཏི	-10.1324
▁ཨངྒེཧི	-10.1331
▁༦༤	-10.1339
▁ཨུཔཱསཀོ	-10.134
ནིདྡེས	-10.134
དཎྜ	-10.134
ནཀ	-10.1343
▁ཡཐཱརཧཾ	-10.1344
▁དཱིགྷརཏྟཾ	-10.1346
▁༩༢	-10.135
▁ཁཎྜ	-10.1351
▁པུརིསཱ	-10.1351
ཱདིཨ	-10.1354
▁ཛནེ	-10.1355
▁ཙིཏྟཱནི	-10.1355
ཙིཏྟེན	-10.1356
གཱཐཱཡ	-10.136
▁ཨུཀྐཊྛ	-10.1361
ེནྟསྶ	-10.1362
▁ཨམུ	-10.1365
▁ཨུཔམཱ	-10.1366
རཱུཔོ	-10.1367
▁པཱཏིམོཀྑཾ	-10.1367
▁ཨཱཏཱཔཱི	-10.1371
▁ཨནཱསཝོ	-10.1371
▁ཝུཏྟཱཏི	-10.1374
▁ཝཱཏ	-10.1375
▁ཁིཔྤཾ	-10.1379
▁ཨིནྡྲིཡཱནི	-10.1383
▁དབྦ	-10.1385
▁མཛ྄ཛྷ	-10.1392
▁༣༤	-10.1394
▁ཨཱི	-10.1404
▁སིཀྑཱཔད	-10.1404
▁བྷེད	-10.1404
▁སམྤཡུཏྟཾ	-10.1405
▁ཨུདཱནཾ	-10.1405
▁རཛ	-10.1406
▁སམྨཱསམཱདྷི	-10.1415
▁ཨནཏྟཱ	-10.1417
པཱཀ	-10.1431
▁ཝུཊྛཧིཏྭཱ	-10.1431
ཙར	-10.1433
མཱར	-10.1435
▁པཙྩཡེ	-10.1435
▁ཨཝིཀྑེཔོ	-10.1436
པཉྙ	-10.1437
▁ཨིཏྠིཡོ	-10.1439
ུཊྛ	-10.1439
▁ཨལླ	-10.144
▁ཨནགཱརིཡཾ	-10.1442
▁ཨནཱཐཔིཎྜིཀསྶ	-10.1444
▁ཐེརེན	-10.1444
▁གཧིཏཱ	-10.1447
▁པཏྟེ	-10.1447
ཨེཝམེཝ	-10.1455
▁ཨེཝམཱཧ།	-10.1456
▁༣༧	-10.1457
▁སཱམཾ	-10.1459
▁དུཝེ	-10.1464
▁པཱཎཱཏིཔཱཏ	-10.147
▁༩༨	-10.147
▁གེཧེ	-10.1472
▁སནྡ	-10.1472
▁སུཁུམ	-10.1473
▁ཏདཏྠ	-10.1474
▁ཀཱིལ༹	-10.1475
ཨཊྛ	-10.1477
▁དུབྦལ	-10.1481
▁༩༡	-10.1487
▁༩༣	-10.1492
▁རཱཛཱནོ	-10.1494
▁ཏིཊྛཏི།	-10.1494
▁ཨདྷིཔྤཱཡོ	-10.1494
▁ཨཊྛངྒིཀོ	-10.1495
▁སཱིལཝཱ	-10.1495
▁པརིས	-10.1496
▁སམྤཡུཏྟེ	-10.1499
▁ཀིལེསཱནཾ	-10.1499
▁ཨིཏིཔི	-10.1503
སཡ	-10.1504
པརིབྷོག	-10.1506
▁ཨཱཀཱརེཧི	-10.1509
▁ཏཱདིས	-10.1511
ཨུདཀ	-10.1515
▁སམཱདཱཡ	-10.1516
སངྑཱཏེ	-10.1518
▁པརིཏྟཾ	-10.1522
▁དྷཱིརོ	-10.1526
ཨཉྙམཉྙེ	-10.1527
▁སཝན	-10.1531
▁ཀཱཙི	-10.1533
▁པཏིཊྛཱ	-10.1538
▁ཨཱཀཱས	-10.1544
▁པརིཡཏྟི	-10.1549
▁པུཙྪཏི།	-10.1553
ིནི	-10.1555
▁ཀཏྟཱ	-10.1557
▁ཨཀྑར	-10.1558
▁ནཝ།	-10.1558
▁སནྟཀཾ	-10.1565
▁ཏྭ	-10.1566
སམཎ	-10.1568
▁༣༦	-10.1578
▁སཉྙཾ	-10.1581
ོསི	-10.1581
ཝནྟ	-10.1587
▁སགྒཾ	-10.1588
▁༩༥	-10.1589
ཀྐམ	-10.159
▁ཝིཧར	-10.159
▁པཝཱརཎཱ	-10.1592
▁ཨསུཙི	-10.1593
▁ཨཱཔཏྟཱིནཾ	-10.1595
▁པཏྠ	-10.1595
ིཀཱ།	-10.1597
▁དྭེཔི	-10.1598
▁ཨཀུསལཱནཾ	-10.1598
ཙྩཱདི།	-10.1598
▁ཨཱརཱམ	-10.1599
▁བྷིཀྑུསངྒྷསྶ	-10.1601
ིནོ།	-10.1605
▁ཀུས	-10.1606
དྭེ	-10.1607
▁སོཏ	-10.1607
ཏྠཉྩ	-10.1607
▁ཝིནེཡྻ	-10.1608
པཱལི༹	-10.1608
ཛོ	-10.1612
▁ཀཏཏྟཱ	-10.1613
ཝུཏྟ	-10.1623
ཊྚ	-10.1637
▁དེནྟི	-10.1639
▁ཨཱརོཙ	-10.1639
▁དྷ	-10.164
▁༣༩	-10.1641
▁ཨཝིཏཀྐཝིཙཱརམཏྟ	-10.1647
ཙྪེད	-10.1651
▁ཨཡཉྷི	-10.1652
▁རཧོ	-10.1654
ཧར	-10.1656
▁ཀནྟ	-10.1661
རསཾ	-10.1663
▁དོསཾ	-10.1667
གྒི	-10.1669
▁མཧགྒཏ	-10.167
▁སེཊྛོ	-10.1672
▁པུཐུཛྫན	-10.1673
▁སམྤཏྟ	-10.1674
མཱལ	-10.1676
▁ཨིཏྠིཡཱ	-10.1677
▁ཀརོནྟི།	-10.1678
▁སེཝ	-10.168
▁དེསནཱཡ	-10.1686
▁ཨེཏེསནྟི	-10.1688
ལཱི	-10.169
▁ཚནྡཾ	-10.1694
ིཏྭཱན	-10.1694
སམཡོ	-10.1696
ོདཀ	-10.1701
▁ཁཱིཎ	-10.1702
▁གོཔ	-10.1705
ཨེཝ	-10.1705
▁ཨིདམེཝ	-10.1707
པུར	-10.1708
ཨཱམ	-10.1709
▁པཝིཊྛ	-10.1711
▁ཐིར	-10.1716
▁པེས	-10.1718
ཡུཏྟོ	-10.1731
▁དཱུར	-10.1732
▁སངྒཧོ	-10.1733
ཛཱཏཱ	-10.1738
མྦ	-10.1742
▁ཨཏྠིཡཱ	-10.1743
སལླ	-10.1746
▁པརིབྷུཉྫ	-10.1748
▁ཙཀྑུཝིཉྙཱཎཾ	-10.1755
▁པཙྪཏོ	-10.1756
ཝིཔ	-10.1758
སདྡཱ	-10.1758
ཱཡ།	-10.1759
སམཱ	-10.1759
ཝཎྞཱ	-10.1762
ཉྙཱུ	-10.1762
སཱལ	-10.1766
▁པརིབྷཱས	-10.1773
▁ཨཱལོཀ	-10.1774
▁དིསཾ	-10.1775
ནིརོདྷ	-10.1783
▁ཨིཏྠནྣཱམསྶ	-10.1784
▁ཧིཏཱཡ	-10.1791
▁པཊིཛཱནཱཏི	-10.1792
▁ཛཧ	-10.1795
སམྤཏྟིཾ	-10.1796
▁ཝིན	-10.1796
▁ཀཱམཾ	-10.1803
▁པུཙྪཱམི	-10.1807
པུརིསོ	-10.1812
▁བྷཎྜཾ	-10.1813
ཱུཏི	-10.182
ིསྶསི	-10.1821
▁སིཀྑཏི	-10.1833
▁དིབྦཙཀྑུ	-10.1836
▁ཨོལོཀེནྟོ	-10.1843
▁ཨཔྤམཱད	-10.1846
▁པརིནིབྦཱན	-10.1847
▁༤༡	-10.1848
▁ཀས	-10.1854
སནྡྷི	-10.1861
▁ཀཐིཏ	-10.1864
▁ཀཱཡིཀཾ	-10.1876
▁ཙཀྑུསམ	-10.1876
▁ཝུཙྩཏཱི	-10.188
▁ཨཊྛཀཐཱ	-10.1882
▁སསྶ	-10.1888
▁༣༨	-10.1893
▁ཙརེ	-10.1897
བྷཱཝོ།	-10.1898
▁ཝིཧཱརོ	-10.1899
▁སཧཱཡ	-10.1899
▁ཡད	-10.1902
▁ཨིཙྪཏི	-10.1909
▁དིཊྛོ	-10.1912
ཱཔེཏུཾ	-10.1917
▁༩༦	-10.1921
ཀཐཱ།	-10.1921
▁སཱིམཱ	-10.1923
▁ཨརཧཏྟ	-10.1924
▁བཧུལཱིཀཏཱ	-10.1925
ིཏཏྟཾ	-10.1928
▁ནཱཔི	-10.1929
ལུ	-10.1933
▁༩༧	-10.1935
▁པཊིསམྦྷིདཱ	-10.194
ཎཱི	-10.194
▁ཏིཊྛ	-10.1946
▁པཊིཙྪནྣ	-10.195
▁པཱཔཀཱ	-10.1951
▁ཉཱཡ	-10.1953
▁ཙིཏྟསམུཊྛཱནཱནཾ	-10.1954
ེསུཾ།	-10.1955
▁བྷཱུམིཡཾ	-10.1955
ཨཱཧཱརེ	-10.1956
▁པུཏྟཱ	-10.1957
▁པཱཎི	-10.1958
ཝཱདོ	-10.1959
▁ཨནིཊྛ	-10.1964
ཡམཱནོ	-10.1971
▁ཡཉྙ	-10.1971
▁ཡམྤི	-10.1973
བྷཱུཏེ	-10.1978
▁༡༠༣	-10.1981
▁གེཧཾ	-10.1983
ཀཱརཀ	-10.1984
▁ཏྭེཝ	-10.1986
མངྒལ	-10.1987
▁ཛཡ	-10.1987
མགྒཾ	-10.1994
ཱཐ	-10.1995
▁༤༠	-10.1998
▁སཀྐཙྩཾ	-10.2002
▁དསྶིཏ	-10.2002
ཱིཡཏེ	-10.2003
རཎ	-10.2004
ཀོཊྛཱས	-10.2007
▁ཝཏྟབྦ	-10.2007
ཝེར	-10.2008
▁ཙརནྟི	-10.2011
ཛཱནན	-10.2015
▁བཧུལཾ	-10.2016
ཝས	-10.202
ུཔྤནྣ	-10.202
▁པུརིསཾ	-10.202
▁ནཱམེན	-10.2021
▁ཨུལཱ༹ར	-10.2022
ཉ	-10.2024
ོཔ	-10.2032
སྶཔི	-10.2033
▁པཉྩམེ	-10.2035
▁དིབྦེན	-10.2036
▁ཙཱརིཀཾ	-10.2036
▁པཎཱིཏཾ	-10.2037
▁སཏྟཧི	-10.204
▁གཙྪནྟི།	-10.2042
▁མཉྙསི	-10.2043
▁ཨཱསེཝནེ	-10.2046
▁དེཝལོཀེ	-10.2047
▁ཨིཏརེ	-10.2048
▁ནཱིཧར	-10.205
▁བྷཝཱ	-10.205
▁པཀྐ	-10.2052
▁པཔཉྩ	-10.2052
ཧོ	-10.2054
▁༡༠༢	-10.2059
▁ཨསངྒཧིཏཱ	-10.2068
▁ཏམེནཾ	-10.2069
སུཝཎྞ	-10.207
▁སངྑེཔཏོ	-10.2071
▁ཀརཎཱིཡཾ	-10.2073
▁མཧཱནཱམ	-10.2073
ཀི	-10.2077
མཏྠ	-10.2077
▁ཏཱལ	-10.2078
▁ནིསིནྣཾ	-10.2078
▁ནིཝཱསེཏྭཱ	-10.2079
▁ཡཱཝཏཱ	-10.208
ཀཏྟཱ	-10.208
བྷཏྟཾ	-10.208
▁བྷཱསིཏཱ	-10.2081
▁ཨོདཱཏ	-10.2089
▁ཛིཎྞ	-10.2092
▁ཝིནཱས	-10.2092
▁དཀྑ	-10.2092
▁པཊིསེཝ	-10.2093
▁ཛཱིཝིཏཱ	-10.2096
▁ཀཱརཎཱ	-10.2096
▁ནཱནཔྤཀཱར	-10.2098
▁ཋཔ	-10.2099
▁སངྑཾ	-10.21
▁བཱརཱཎསིཡཾ	-10.2102
▁སུགཏ	-10.2104
▁ཡས	-10.2104
▁པོས	-10.2106
ེནཱ	-10.2106
བྷཡཾ	-10.2109
▁ཨིཏརོ	-10.2113
▁ལདྡྷི	-10.2115
བྷེདེན	-10.2127
པཏྟོ	-10.213
▁ཨནུཔུབྦ	-10.2133
▁མཏོ	-10.2134
▁ཨངྒཾ	-10.2136
▁བྷེདོ	-10.2139
▁ཝིཔྤཡུཏྟཱ	-10.2143
▁སཔྤ	-10.2148
▁༤༤	-10.215
▁སམཱས	-10.2156
▁ཨིམམཏྠཾ	-10.2162
▁པིཊྛི	-10.2164
▁༥༠	-10.2164
▁ཡསོ	-10.2173
ནིསྶིཏ	-10.2173
རིཡ	-10.2174
ཀརཎེ	-10.2177
▁༤༣	-10.2179
▁སཱཝཏྠིནིདཱནཾ	-10.2184
▁པཎཱིཏ	-10.219
▁༤༥	-10.2194
▁སམྦནྡྷ	-10.2195
▁གམནཾ	-10.2197
མནུསྶ	-10.2199
▁པཉྩམ	-10.22
▁ཨཧམྤི	-10.2201
▁༩༩	-10.2202
▁ཙམྨ	-10.2202
ཡོཛན	-10.2206
▁ཨཝིདཱུརེ	-10.2206
▁ཀཊྛ	-10.2207
▁པཙྩཀྑ	-10.2212
▁སཱཝཀཱནཾ	-10.2213
པཱཏ	-10.2214
▁༤༢	-10.2215
▁ཡནྟི	-10.2217
▁སམྤཡུཏྟཀཱ	-10.2219
▁ཨདྷིགཏ	-10.2221
▁པརིཀྑཱར	-10.2221
ེཏེ	-10.2224
▁ཨཔརོ	-10.2226
▁བྷཝིསྶཏཱིཏི	-10.2227
པཐ	-10.2228
བཧུལོ	-10.2231
པྤཝཏྟ	-10.2241
▁པུརཱཎ	-10.2242
དྷར	-10.2242
ཀུསལཱ	-10.2243
▁ཏཔྤ	-10.225
▁དསཧི	-10.2255
▁ཨཱསཝ	-10.2255
▁སཀཊ	-10.2257
▁གམྦྷཱིར	-10.2258
▁ཏསྨིཾཡེཝ	-10.2265
▁ནིསྶརཎ	-10.2267
▁ཡཱན	-10.2275
▁དལ༹ྷཾ	-10.2276
ཀུམྦྷ	-10.2278
▁སུར	-10.2279
▁སདྡཧ	-10.2279
▁༤༦	-10.2282
▁དེཝཔུཏྟོ	-10.2282
▁ནཱིཧརིཏྭཱ	-10.2284
▁ཨིནྡྲིཡཾ	-10.2286
ནགརེ	-10.229
▁ཏཱདིསོ	-10.229
▁ཏིཊྛནྟི	-10.2291
▁ནིཡཏ	-10.2291
▁ལདྡྷཾ	-10.2291
▁ཨབྷིབྷུཡྻ	-10.2294
▁པརིནིབྦཱཡིསྶནྟི	-10.2294
▁པཊིགྒཧེཏྭཱ	-10.2297
ིཏནྟི	-10.2298
ནིབྦཱན	-10.2298
▁ཨནུསྶར	-10.2298
▁དུཀྐཊསྶཱ	-10.2302
▁ལཱམཀ	-10.2302
▁ལཀྑཎཾ	-10.2303
▁༤༩	-10.2304
▁༤༧	-10.2305
▁ཨནུསེནྟི	-10.2316
སརཱིར	-10.2318
▁ཝིཉྙཏྟི	-10.2319
▁པཱཀཊ	-10.2321
ྷ	-10.2331
▁ཨེཏཱ	-10.2335
པཱརམི	-10.2335
པྤཏྟཱ	-10.2336
ངྒུལ	-10.2338
▁སཏྠརི	-10.2339
▁ཨོལོཀེཏྭཱ	-10.234
▁ཝིརཱག	-10.2341
པཊིཙྩཝཱརཱདི	-10.2341
▁ཚཏྟ	-10.2344
▁ཝིཛ྄ཛྷ	-10.2346
ཡདི	-10.2347
ཏྭ	-10.2348
མེཏ	-10.235
▁བྷིནྡ	-10.2352
▁པཊིགྷ	-10.2353
▁ཨཱས	-10.2354
▁པརེཧི	-10.2364
ཀཏོ	-10.2365
▁ལབྦྷམཱན	-10.2375
▁ཛཱཡཏི	-10.2375
▁ཝེམཏིཀོ	-10.2382
ིནྡྲིཡ	-10.2388
▁པཊ	-10.239
བྷཱུ	-10.2393
▁ཀཐིན	-10.2393
▁ཨུཙྩ	-10.2394
▁པཧཱིན	-10.2395
▁སམྨཱསམྦུདྡྷསྶ	-10.2397
མྷཱི	-10.2398
▁ཝིཔ	-10.2398
ནགར	-10.24
▁མཾསཾ	-10.2401
▁དུགྒཏི	-10.2402
ཝཾས	-10.2403
▁ཏིཀྑཏྟུཾ	-10.2406
▁དཱ	-10.2416
▁ཨནྡྷ	-10.2417
▁པནཱཡཾ	-10.2421
▁ཨཱཧཱརཾ	-10.2425
▁ཝཏྟཾ	-10.2429
▁༡༠༤	-10.243
▁ཝུཙྩཏཱིཏི	-10.2431
▁པཏྟཱ	-10.2436
▁ཀཱམརཱག	-10.2439
▁ཀངྑཱ	-10.2439
▁༡༠༧	-10.244
ཱརཱམ	-10.244
▁ཀཙྩི	-10.244
▁ཝསཾ	-10.2443
གྷཊ	-10.2446
▁ཨུཔཀཱར	-10.2448
▁པུབྦབྷཱག	-10.2448
སྨིནྟི	-10.2449
པཀྐ	-10.2451
ཀརཎཱིཡ	-10.2452
▁ཀཱུཊ	-10.2454
སངྐ	-10.2457
▁ཏམྷཱ	-10.2458
▁པུ	-10.246
▁ཨེཏ	-10.2461
▁གཧ	-10.2468
▁རོད	-10.2471
ཝིསེསོ	-10.2472
▁སངྑ	-10.2476
▁ཝེལུ༹	-10.2484
ཀཊྛ	-10.2488
▁ཨེ	-10.2489
ནིཔཱཏ	-10.2497
▁དྷུཝ	-10.2501
ཝིབྷཏྟི	-10.2505
ུདྡེས	-10.2514
▁ནཱཧཾ	-10.2515
▁ཨཱདཱིནཝཾ	-10.2516
▁ཛིགུཙྪ	-10.2516
སརཎ	-10.2518
ཏྠེན	-10.2519
▁ཏམཧཾ	-10.2521
དྭཱརེ	-10.2524
མྷཱིཏི	-10.2525
▁ཀཐེཏྭཱ	-10.2525
ུཛྫ	-10.253
ུཏ	-10.2538
▁རཱུཔཱཝཙར	-10.254
▁སམྦནྡྷོ	-10.2546
▁མུསཱཝཱད	-10.2549
བྷཱུམིཡཾ	-10.2549
ྱཱ	-10.255
ངྒཾ	-10.2553
པཱལ	-10.2556
▁སུཎཱཏི	-10.256
▁ནིནྣ	-10.2561
▁ཕལསྶ	-10.2561
▁པཱཎཱཏིཔཱཏཱ	-10.2565
▁པཡིརུཔཱས	-10.2568
ཡེཝཱ	-10.2569
▁ནདསྶནེན	-10.2569
▁པཱར	-10.257
▁ཝིཧརེཡྻ	-10.2571
▁༡༡༠	-10.2572
ནཱིལ	-10.2576
ོཡེཝ	-10.258
▁སཱུཙི	-10.2585
ཱདོ	-10.2587
ཝོཧཱར	-10.2589
▁སདྡཱ	-10.2595
▁བྷུཉྫཏི	-10.2595
སངྑཱཏསྶ	-10.2595
▁ཨསྶུ	-10.2596
དཡོ	-10.2598
▁མོགྒལླཱན	-10.2605
▁ཨིནྡྲིཡཱནཾ	-10.261
▁པཧཱཏབྦཱ	-10.2612
▁ཛཱནིཏྭཱ	-10.2615
▁ལཧུ	-10.2619
▁༡༠༨	-10.262
སཱསན	-10.262
མཱནསྶ	-10.2621
ཝིཔསྶནཱ	-10.2626
▁ནིཀྑམ	-10.2627
▁ཀཱཡཏོ	-10.2628
རཱགོ	-10.2628
▁སེ	-10.2628
▁སམགྒ	-10.263
▁ཀབལཱི༹ཀཱརོ	-10.2631
▁ཨཱརོཔེཏྭཱ	-10.2633
▁ཨཱགནྟུཀ	-10.2636
▁སོཏཱཔནྣོ	-10.2636
ཡེན	-10.2637
▁ཨངྒཱནི།	-10.2637
▁མོད	-10.2638
▁ནིརུཛ྄ཛྷིསྶཏཱི	-10.2641
▁༤༨	-10.2642
▁སཱུརིཡ	-10.265
▁ཨཱགཏཾ	-10.2651
▁ཨབྱཱཀཏསྶ	-10.266
▁པཙྩེཀཾ	-10.2667
▁སཱམཎེརོ	-10.2675
▁ནིགྲོདྷ	-10.2679
ཏཱདི	-10.2686
▁སེཊྛི	-10.2692
གཱམི	-10.2696
▁ཨནུཔུབྦེན	-10.2697
▁སཡ	-10.27
▁དསྶེཏུམཱཧ	-10.27
▁ནིཀྑནྟ	-10.2701
▁དྷམྨདེསནཱ	-10.2702
▁སངྐ	-10.2702
ཀངྑ	-10.2703
▁ཡཱཝཛཱིཝཾ	-10.2705
▁པཊིབྷཱན	-10.2706
ཱཔདཱནཾ	-10.2706
▁ཨབྱཱཀཏ	-10.2713
▁༡༠༡	-10.2714
▁དྷམྨཝིནཡེ	-10.2715
▁པསྶིཏྭཱ	-10.2718
▁ཨཱགམན	-10.2719
▁ནུཔྤཛྫིསྶཏི	-10.2721
▁ཐོཀཾ	-10.2722
▁ཙོད	-10.2722
▁སཙེཔི	-10.273
ཀཱལཾ	-10.2732
▁ཨནུཀྐམེན	-10.2733
ནིརོདྷོ	-10.2733
▁ཡམ	-10.2734
▁ཝིནཡོ	-10.2745
▁པཙྩཡཱནུལོམཾ	-10.2746
▁ཏཐཱགཏཾ	-10.2747
སཉྩ	-10.2748
▁ཝིམོཀྑ	-10.2749
སཉྙཾ	-10.2751
▁དུཀྑནིརོདྷགཱམིན	-10.2755
ཙཱར	-10.276
▁ཀེཝལ	-10.2763
མནསིཀཱར	-10.2765
▁ཨེཀཏྟ	-10.2765
▁ཨརིཡཾ	-10.2766
བྷཱཝཱ	-10.2768
▁ཀུམྦྷ	-10.2769
▁གཧིཏཾ	-10.2772
▁སུཁེན	-10.2772
▁མཱཎཝོ	-10.2773
▁དསྶནཱཡ	-10.2775
དྷུར	-10.2777
▁སཾསཊྛོ	-10.2777
▁སངྑཱརཱནཾ	-10.2781
▁པརིསུདྡྷ	-10.2783
▁པཉྙཱཔ	-10.2791
▁ཙངྐམ	-10.2799
▁ཏརུཎ	-10.2799
པིཎྜ	-10.28
▁ཙཏུརོ	-10.2801
▁ཕཱསུ	-10.2801
གྒཾ	-10.2807
▁ཨཝུཏྟ	-10.2813
▁ཝིཧརནྟི	-10.2815
▁༡༠༥	-10.2816
▁པཧཱཏབྦཧེཏུཀཾ	-10.2824
ཨཉྙ	-10.2824
▁སམཐཝིཔསྶནཱ	-10.2827
▁སམུཊྛཱན	-10.2827
▁མཡ	-10.2827
▁ཛཱནཱཏཱིཏི	-10.2832
▁སཏྟཱཧ	-10.2836
སཀྐ	-10.2838
ེསྶཱམི	-10.284
▁ཐཱུཔ	-10.284
▁ཨུཔཔཏྟི	-10.2842
ཱཔེཡྻ	-10.2842
▁སམྦུདྡྷོ	-10.2842
ཀྑཏྟུཾ	-10.2843
པཊིལཱབྷ	-10.2843
▁ཝིསིཊྛ	-10.2844
▁ཀུམཱརོ	-10.2849
▁པབྦཛྫཾ	-10.2851
▁པབྦཱཛ	-10.2854
ཕསྶ	-10.2861
▁བུཛ྄ཛྷ	-10.2863
▁མཉྙཏི	-10.2865
▁ཝུཏྟོཏི	-10.2869
བལཾ	-10.2869
ཀཱརཎཱ	-10.2873
ཙུཎྞ	-10.2874
▁ཁཱིཎཱསཝོ	-10.2877
པཱུར	-10.288
▁ཝཱཙ	-10.2884
▁རཊྛ	-10.2885
▁ཝུཌྜྷ	-10.2887
▁ཨཧེཏུཀ	-10.2887
ཀཱཏི	-10.2888
▁ཛཱནཱཏི།	-10.2889
▁ཀནྡ	-10.2889
▁བུདྡྷེ	-10.289
▁ཨསྶཱ	-10.289
▁པརིཙྪེད	-10.2893
▁ཨསུཀ	-10.2894
▁༡༠༩	-10.2898
པདེ	-10.2901
ཛིན	-10.2902
▁ཙནྡན	-10.2905
▁པཉྙཔ	-10.2909
▁ཝཱུཔསམ	-10.2909
▁སཏིཔཊྛཱནཱ	-10.2911
▁ཀྲིཡཱ	-10.2919
▁ཝུཊྛཱཡ	-10.2922
ཛཱིཝ	-10.2923
▁སཏྟམ	-10.2923
▁གོཏམསྶ	-10.2927
ཱདྷིགམ	-10.2929
▁པཀཏིཡཱ	-10.293
▁དུཏིཡཱ	-10.2932
▁པཙྩཡཙཏུཀྐཾ	-10.2933
▁མགྒཕལ	-10.2934
▁ཨདུཀྑམསུཁཱཡ	-10.2938
▁ཙཏུཀྐ	-10.294
སཱམཉྙ	-10.2941
▁གོཏྲབྷུ	-10.2941
▁༥༡	-10.2943
▁སཀིཾ	-10.2944
▁དསཝིདྷ	-10.295
▁ཨུབྷོཔི	-10.2952
▁ཨནོ	-10.2954
▁ནཱིཝརཎ	-10.2956
▁དེཝེ	-10.2962
▁ཙུཏོ	-10.2963
ཡམཀ	-10.2964
▁ཙཱཡཾ	-10.2967
▁ཨཔརི	-10.2968
པེཀྑ	-10.297
སཱམི	-10.2971
▁ཙེཏ	-10.2973
▁པིཡོ	-10.2975
ེཏབྦཾ	-10.2976
ིསྶཱམཱིཏི	-10.2976
▁དྭཏྟིཾས	-10.2978
▁༡༡༣	-10.2979
▁མཱསེ	-10.2981
▁སུཎཱཐ	-10.2983
▁སུདྡྷཾ	-10.2983
ཡདཱ	-10.2984
▁ཨཊྛམེ	-10.2985
▁ཝུདྡྷི	-10.2985
སམྤཡུཏྟཱ	-10.2988
▁ཡུ	-10.2991
ིཾསཱུཏི	-10.2991
▁ཡཛ	-10.2992
▁༡༡༥	-10.2992
ཀཱམཱ	-10.2994
ནཱིཏི	-10.2995
▁པནཱཏི	-10.2998
▁བྷདྡ	-10.2998
བོདྷི	-10.3
▁པཊིགྒཎྷ	-10.3003
▁བྷཱཝིཏ	-10.3004
▁པཝཏྟིཾ	-10.3004
ཝེས	-10.3006
▁པཙྪཱཛཱཏཔཙྩཡེན	-10.3009
ཝཱསིནོ	-10.3009
▁ཡུཏྟཾ	-10.3009
▁པཱཔུཎ	-10.301
▁དེཏི།	-10.301
སངྒཧོ	-10.3011
▁ཙཱག	-10.3014
ཱཔེསི།	-10.302
▁ཏིཎྞནྣཾ	-10.3027
▁སཏསཧསྶ	-10.303
▁ཝིཏྠཱར	-10.303
▁ཨཡམཏྠོ	-10.3033
▁ཙུནྡ	-10.3035
ཨིཏོ	-10.3038
ཝནེ	-10.304
▁བྷཎཏི	-10.3042
▁ཝིརོཙ	-10.3044
མིཏི	-10.3044
▁ཨནུསཡ	-10.3045
▁སམྤཏྟི	-10.3046
▁ཝཙཱིཀམྨཾ	-10.3046
▁ཝིསེསན	-10.3049
▁ཝུཏྟཔྤཀཱར	-10.3052
▁དཱར	-10.3054
▁ཨགྒྷ	-10.3054
ཝཱརཝཎྞནཱ	-10.3055
ཀཱུཊ	-10.3063
▁སཱཝ	-10.3071
▁ཨུཔཊྛཱན	-10.3073
▁ཝིཙཱརོ	-10.308
▁སིཡཱ༎	-10.3081
▁ཨུཔཱསཀ	-10.3082
རཧ	-10.3082
▁པསནྣོ	-10.3091
▁རཱུཔཱ	-10.3091
▁ཨཱདཱིནཝོ	-10.3097
▁ཝཎྞེན	-10.31
▁ཝེདིཏབྦཱནི།	-10.31
▁ཨུཔེཏི	-10.3104
ཝཏྠུསྨིཾ	-10.3104
▁ཨསམ	-10.3107
ཨཔྤ	-10.3118
▁ཨཉྫལིཾ	-10.3136
པཧཱན	-10.3136
▁སབྦདཱ	-10.3139
▁པཱས	-10.3139
▁མཡི	-10.3141
▁སིརི	-10.3143
▁ནཨབྱཱཀཏ	-10.3146
▁ཁིཔ	-10.3147
▁ཨསཱིཏི	-10.3151
▁ཨཉྙཏརསྨིཾ	-10.3151
ཧེཏུཀ	-10.3151
▁ཨུཔྤནྣེ	-10.3151
▁ཝིབྷཛ	-10.3152
▁ཝིབྷཏྟི	-10.3153
▁མུཏྟོ	-10.3156
▁ཨཔྤམཱཎ	-10.3156
ཡཉྩ	-10.3157
མིསྶ	-10.3158
སདྡཾ	-10.3161
ཀཎྞ	-10.3164
▁ཨནཏྟཏོ	-10.3164
▁༡༡༦	-10.3164
▁ཨཧེཏུཀཾ	-10.3169
▁ཛཱནཾ	-10.317
▁ནནཧེཏུ	-10.3171
ཛ྄ཛྷཱསཡ	-10.3174
▁མཙྩུ	-10.3181
▁ཡཀྑོ	-10.3184
▁ཨུདྡྷཙྩ	-10.3185
▁སཝིཏཀྐསཝིཙཱརོ	-10.3186
▁ཨུཔཱདཱ	-10.319
ཊྛི	-10.3191
▁ཨོགྷ	-10.3192
▁ཝིནསྶ	-10.3193
དྷཱི	-10.3194
▁དྷོཝ	-10.3194
ཏརཱ	-10.3194
▁པཏིཊྛིཏ	-10.3197
▁ཀཏྟརི	-10.3199
▁ཏནུ	-10.32
▁དུཊྛ	-10.3201
▁སིཔྤ	-10.3202
▁༡༡༢	-10.3206
སམྨུཏི	-10.3206
▁མཧཱཝཱིར	-10.3209
མད	-10.321
▁སམྨོཧ	-10.3211
▁ཙཏུསཙྩ	-10.3211
ཁནྡྷ	-10.3215
དུཏིཡ	-10.3216
▁གྷན	-10.3219
▁པདེཧི	-10.322
▁ཀཱཡཱཡཏནཾ	-10.322
▁ཨུཔྤཱདེཏི	-10.3221
▁ཝཏྟཏི	-10.3224
བྷཱུཏེན	-10.3224
▁དཱཏབྦོ	-10.3229
▁ཨརཧནྟོ	-10.323
▁དྭཱརཾ	-10.323
▁ནཙྩ	-10.3232
▁མནཱཔ	-10.3232
ཏཐཱ	-10.3235
▁སུགཏིཾ	-10.3235
ིསྶཏི།	-10.3237
▁ཨུཔསམྤདཱ	-10.3237
▁པཧཱཏབྦཧེཏུཀ	-10.3239
▁ཀཱཏབྦཾ།	-10.324
▁ཨུཔྤཱདོ	-10.325
▁ཨད	-10.3259
▁ཨཙྩཡེན	-10.3261
▁པརིནིབྦནྟཱནཾ	-10.3268
▁ཨེཀེནཱཡཏནེན	-10.3268
▁པུརེཛཱཏཾ	-10.3269
▁ཀིཏྟི	-10.3272
▁ཙཏྟཱལཱིས	-10.3273
ིཡམཱན	-10.3273
ཉྙཱ	-10.3274
▁བོཛ྄ཛྷངྒ	-10.3275
ཎཱ	-10.3275
▁པཏིཊྛཱཡ	-10.3275
▁པཱཀཊཱ	-10.328
བལེན	-10.3281
བྷངྒ	-10.3282
ཝིཀཱར	-10.3282
▁ཨགྒོ	-10.3284
▁ཨསངྑཏ	-10.3285
▁མཱནསཾ	-10.3287
▁སམཡོ	-10.3288
▁ནཱབྷི	-10.329
པྤབྷེད	-10.329
▁པརིཧཱཡཏི	-10.329
▁ཨུཊྛཱཡཱསནཱ	-10.3292
▁ཧཱར	-10.3294
▁ཝངྐ	-10.3294
ཀཐཉྷི	-10.3297
▁ཕརིཏྭཱ	-10.3299
བྷཝེ	-10.3299
▁ཨསྶཱས	-10.3299
སམུཊྛཱནཾ	-10.3304
ཱནུབྷཱཝེན	-10.3306
▁ཨེཀེ	-10.3311
▁ནིགྒཧ	-10.3312
པཉྙོ	-10.3313
▁ཨབྷིཛ྄ཛྷཱདོམནསྶ	-10.3317
▁ནིསིནྣཱ	-10.332
▁བྷཱུ	-10.332
▁སབྦེཝ	-10.3323
དཱཡཀ	-10.3325
▁༡༡༨	-10.3325
ུཔཱདིནྣུཔཱདཱནིཡོ	-10.3327
▁མཉྩ	-10.3331
▁ལོཀུཏྟརཾ	-10.3333
ིར	-10.3337
▁དཊྛབྦོ	-10.3346
ཀཱམོ	-10.3347
▁པདཀྑིཎཾ	-10.3347
བྷཱུཏསྶ	-10.335
▁སམྤཡུཏྟ	-10.335
ཐ།	-10.335
▁སཾཁིཏྟེན	-10.3352
པརིཀྑཱར	-10.3354
སཱིལཾ	-10.3355
▁པིཡཱ	-10.3355
▁ཀིམ	-10.3357
▁སུམནོ	-10.3359
▁ཀཐེནྟོ	-10.3364
▁གཱམོ	-10.3378
▁ཝིཔུལ	-10.338
མཙྪ	-10.3382
▁བཱལཱ	-10.3384
▁ཨིཏྠིལིངྒ	-10.3385
▁གྷ	-10.339
སཱདྷན	-10.3392
▁ཙིཏྟཉྩ	-10.3394
ཀཐཱཡ	-10.34
▁ཀམ	-10.3403
པཊིཝེདྷ	-10.3408
ནཨིནྡྲིཡེ	-10.3412
▁ནིབྦིནྡཏི	-10.3413
མོཧ	-10.3414
▁ཝིཔྤཡུཏྟེ	-10.3415
མིཏྟ	-10.342
པརིཡཱཔནྣ	-10.3421
པཋམ	-10.3423
ནཝ	-10.3425
དེཝཏཱ	-10.3425
▁ཏདཱརམྨཎ	-10.3427
▁ཙིར	-10.3427
▁ཨལངྐཱར	-10.3428
པཙྩུཔྤནྣ	-10.3429
▁ནིཊྛིཏཾ	-10.3434
▁བཧུཝཙན	-10.3436
▁སལླ	-10.3439
▁ཨནྟེ	-10.3442
▁ཝིསེསོ།	-10.3443
▁སམནྣཱགཏསྶ	-10.3454
▁ཏཱསུ	-10.3455
▁པཀཱརེན	-10.3459
སཱཡ	-10.3462
▁༡༡༡	-10.3462
▁ཝཧ	-10.3462
▁ཀཱམརཱགཱནུསཡེན	-10.3464
ིཏཱནི	-10.3464
▁ཨཱགཙྪ	-10.3468
▁པཉྩཧངྒེཧི	-10.3469
▁ནཨདྷིཔཏིཔཙྩཡཱ	-10.3481
▁ཨུཔཱཡ	-10.3482
ཱཙཱར	-10.3483
▁ཙེཔི	-10.3484
ཝཱིཐི	-10.3487
▁སམཏྠ	-10.3488
▁༡༡༤	-10.3492
▁སབྦཱཔི	-10.3494
▁ཚཊྛེ	-10.35
སཱིལོ	-10.3502
ཀཾ༎	-10.3502
▁ཨཱགཙྪཏི	-10.3504
པྤམཱཎཾ	-10.3507
▁ཀཏྭཱན	-10.3511
མུཁཾ	-10.3512
▁གཏེ	-10.3513
ཝ།	-10.3515
▁གཝེས	-10.3518
▁སམྤནྣ	-10.3519
ཏཱཡཱཏི	-10.3522
▁མཱནཏྟཾ	-10.3526
ཝསཱནེ	-10.3528
སབྷཱག	-10.3528
▁ཋིཏེ	-10.353
▁ཝིཧརཏོ	-10.3531
▁ཀིཉྩ	-10.3536
▁ཝིཝིདྷ	-10.3536
ིསྶཱམཱ	-10.3538
▁མཧཱརཱཛཱ	-10.3539
▁ཙཀྑུནྡྲིཡཉྩ	-10.3546
▁བྷཝནྟི།	-10.3548
▁པཊིཔདཾ	-10.3548
▁ཨཧཾ།	-10.3548
▁པུར	-10.3551
▁པེཏ	-10.3553
▁མཱཏིཀཱ	-10.3555
▁ནོཨུཔཱདཱ	-10.3555
▁པིཏརཾ	-10.3557
▁ཨཱརཱམེ།	-10.3558
ེཏུཀཱམོ	-10.3558
ཙོར	-10.3561
▁ཨུཔྤལ	-10.3563
པཀྑེ	-10.3564
▁ནིབྦ	-10.3564
▁པཙྩུཔྤནྣཾ	-10.3569
▁ཛརཱམརཎ	-10.3569
▁ཙུཏི	-10.3569
▁ཨིཏྠཱིནཾ	-10.3571
▁སངྒ	-10.3572
ཏལ	-10.3572
▁ཀིམཏྠཾ	-10.3575
▁པཊིཔྤསྶམྦྷ	-10.3576
▁༡༠༦	-10.3579
▁པདེསེ	-10.3581
▁ལོཀཱ	-10.3583
▁ཁནྟི	-10.3584
▁ཨགྒིཾ	-10.3585
ཱནནྡ	-10.3588
▁ནཨཱརམྨཎཔཙྩཡཱ	-10.3588
▁ཧདཡཾ	-10.3589
▁ཛོཏ	-10.359
པཱན	-10.3595
▁ཝིགཏེ	-10.3595
▁ཨུཏྟཱན	-10.3596
▁༡༡༩	-10.3598
▁སརེ	-10.3599
▁ཙེཏོ	-10.36
▁ཨཙྩ	-10.3601
▁གནྡྷོ	-10.3601
▁པཝཏྟོ	-10.3602
▁ཁར	-10.3605
▁ཨཱཧཱརཔཙྩཡེན	-10.3607
▁ཝུཏྟཱནི	-10.3608
▁མེཏྟཱཡ	-10.3611
▁ཨཏྟཏོ	-10.3613
▁པཊིཀྐམ	-10.3614
▁དསམེ	-10.3615
▁ཛཱནནྟོ	-10.3616
▁སུཀྑ	-10.3619
▁ལོཧ	-10.362
ལཱབྷ	-10.3622
▁ཧཾས	-10.3623
▁ནཱམརཱུཔཾ	-10.3624
ེནྟཱི	-10.3626
▁ཨཐོ	-10.3628
▁ཨར	-10.3629
སཱདྷཱརཎ	-10.3632
▁ཨུཔཙཱར	-10.3637
ཀཐཱཝཎྞནཱ།	-10.3641
▁པཏྠཡ	-10.3642
▁ཨཔནེཏྭཱ	-10.3643
ཨཱཔཏྟིསམུཊྛཱནཱནཾ	-10.3643
▁པཉྷཱ	-10.3644
པྤསཱད	-10.3645
▁ཡཱགུ	-10.3646
▁དིསཱཡ	-10.3648
▁ཝཱརེ	-10.3649
▁ཨུཊྛཱཡ	-10.3649
▁ཡུཛྫཏི།	-10.3649
▁པུརེཛཱཏེ	-10.3653
▁བྱཱདྷི	-10.3655
ཏྟིཀཾ	-10.3658
ནགརཾ	-10.3665
▁པཏ	-10.3665
▁པུགྒལེ	-10.3666
ུལ	-10.3666
▁ཨིཏརཱ	-10.3668
▁པཊིཙྩསམུཔྤཱད	-10.3672
▁མགྒཱདྷིཔཏི	-10.3676
▁ཨཝཡཝ	-10.3677
▁བཧཱུནི	-10.3678
ནཱདི	-10.3678
▁ཝིསྶཛྫ	-10.3679
ཝཱཏ	-10.3681
▁ཝསནྟི	-10.3682
སཾཡུཏྟ	-10.3687
▁མཱཏརཾ	-10.3689
▁ནིཔཛྫ	-10.3689
▁ཨཱསེཝནཔཙྩཡ	-10.3689
ཝད	-10.3691
▁ཨནྟརགྷརེ	-10.3691
▁ཨིདཱནེཝ	-10.3691
▁ཨུགྒཎྷ	-10.3692
▁ཨནུབནྡྷ	-10.3694
▁ཡྭཱཡཾ	-10.3698
▁བྱཱཔཱད	-10.3701
▁ཁཡཱ	-10.3702
▁ཏིཀཾ	-10.3702
▁སུགཏི	-10.3704
▁པཀྐཱམི།	-10.3706
ུར	-10.3707
▁པརཉྩ	-10.371
▁ལཱུཁ	-10.3711
ཝཏྟཾ	-10.3711
▁ཨུཔྤཛྫི	-10.3714
▁པདེ	-10.3714
▁ཨུཔྤནྣསྶ	-10.3715
▁སཔྤཱཡ	-10.3716
▁གཱཐམཱཧ།	-10.3718
ཱདེསོ	-10.3719
▁ལགྒ	-10.372
▁མལ	-10.3721
▁ཝསི	-10.3722
▁ནིཝཱས	-10.3727
▁ཏེསཾཡེཝ	-10.3727
ིམཱ	-10.3733
▁སཱཝཀོ	-10.3735
▁པཊིགྷཱནུསཡེན	-10.3735
▁ཧིརཱི	-10.3736
▁པཏྟཀལླཾ	-10.3742
▁ཨཏྠཱི	-10.3744
▁ཨཱཡསྨཏཱ	-10.3744
▁ཝེདཡིཏཾ	-10.3744
▁པཱཀ	-10.3746
▁སཱམཎེར	-10.3752
▁ཨིཏརཾ	-10.3753
▁ཚེཏྭཱ	-10.3756
ཙརཎ	-10.3757
▁དིཝསཾ	-10.3758
ཀུམཱར	-10.3758
▁སཾཝཏྟཏི།	-10.376
▁ཀཊཏྟཱ	-10.3762
▁མེདྷཱཝཱི	-10.3767
ཙནྡ	-10.3768
▁ཨདྷིཀ	-10.3768
ིཏབྦནྟི	-10.377
▁ཨཱཔོདྷཱཏུ	-10.3772
▁སམཡ	-10.3773
▁པཛཱ	-10.3774
▁ཨུཀྑིཔིཏྭཱ	-10.3775
▁གུཎེ	-10.3776
ཨཱཝུསོ	-10.3777
▁ཀཎྷ	-10.378
▁མནསིཀཱར	-10.3784
▁དཱཏབྦཾ	-10.3785
གམྦྷཱིར	-10.3785
▁ཝིསེསེན	-10.3786
མབྷི	-10.3786
▁པིཎྜཔཱཏཾ	-10.3788
ཝེད	-10.3791
རཏནཾ	-10.3792
▁པགྒཡ྄ཧ	-10.3794
▁ཨབྷཡ	-10.3795
▁ཝསཱི	-10.3796
སིཀྑ	-10.3797
▁ཝཌྜྷེཏྭཱ	-10.3801
▁སཔྤུརིས	-10.3807
▁ཐཱུལ	-10.3812
དིཊྛ	-10.3816
▁ཝིཛཱན	-10.3818
▁ཨམྷེ	-10.3819
▁པུརིམནཡེནེཝ	-10.3819
▁སངྑྱཱཝཱརོ	-10.3819
▁ཝིཉྙཱཎསྶ	-10.3823
ནེཡྻ	-10.3827
▁༡༡༧	-10.3828
གཱམེ	-10.3832
▁སབྦསྶ	-10.3833
▁སམྦུདྡྷ	-10.3833
▁པབྦཛིཏཱ	-10.3839
▁ཨཀུསལསྶ	-10.3839
▁པསྶནྟི	-10.3839
▁སམནྣཱགཏོ།	-10.384
ནཱནཏྟ	-10.3842
▁ཝསིཏྭཱ	-10.3847
▁པཉྙཝཱ	-10.3849
▁ཏུམྷེཧི	-10.3849
▁སཱིལེན	-10.3852
▁སཡན	-10.3854
▁ནིསཱིདི	-10.3855
▁ཧས	-10.3856
▁ཏསྶཱཏི	-10.3857
▁གཧེཏབྦོ།	-10.3859
▁ཐམྦྷ	-10.3859
▁ཨུཔཛ྄ཛྷཱཡ	-10.386
ནྟརཾ	-10.386
▁ཨོཝཱདཾ	-10.3863
▁སངྒཧཾ	-10.3863
པཉྙཱཡ	-10.3864
▁ཨུཀྑིཔ	-10.3865
▁སུཁསྶ	-10.3866
▁པཱཏིམོཀྑ	-10.3867
▁ཉཱཎཾ།	-10.3871
▁པཱིཏིཡཱ	-10.3871
▁གངྒཱ	-10.3873
སནྟཱན	-10.3874
▁ཝེདིཏབྦཾ	-10.3875
▁དེསེ	-10.3875
མིསྶཀ	-10.3876
▁སོམནསྶཾ	-10.3877
ཱནུབྷཱཝ	-10.3877
ིམྷ	-10.388
▁ཨསཀྐོནྟོ	-10.3881
▁ནམསྶ	-10.3882
▁ཀོདྷོ	-10.3884
▁ལོཀསྨིཾ	-10.3884
ིཡམཱནེ	-10.3886
པཱདཀ	-10.389
▁སཧཛཱཏཱདྷིཔཏི	-10.3893
▁ཨཝིཏཀྐཝིཙཱརམཏྟོ	-10.3897
▁ཨབྷིནནྡ	-10.3898
ཏཾ།	-10.39
▁ཨིདྡྷིཡཱ	-10.3908
▁དྷམྨཉྩ	-10.391
▁དིཊྛེ	-10.391
▁དེཝམནུསྶཱནཾ	-10.391
▁ཨནཝསེས	-10.3912
▁པལཱཡ	-10.3916
▁ཛརཱམརཎཾ	-10.3918
▁སཏྠཱརཱ	-10.3918
▁པུཏྟེ	-10.3918
–-	-10.3925
▁ཐུལླཙྩཡཾ	-10.3927
སན	-10.3928
▁ཝིསཾ	-10.3928
▁ཨནུརཱུཔ	-10.3928
▁ཨཔྤམཏྟོ	-10.3933
▁ཐུལླཙྩཡ	-10.3934
▁ཀིནྟི	-10.3941
སམཱན	-10.3942
▁མནསིཀཱརོ	-10.3944
▁ཝེརམཎཱི	-10.3948
▁གཱཐཱཧི	-10.3951
▁སོཙ	-10.3952
▁སདྡེ	-10.3955
པཏི	-10.3957
▁སམཏྠོ	-10.3959
▁ཝིསུདྡྷིམགྒེ	-10.396
▁པཙྪཱཛཱཏཱ	-10.3961
▁ཏཱཔས	-10.3961
▁པཧཱཏབྦ	-10.3964
རསཱ	-10.3964
ཏཏྲ	-10.3964
▁ཀཱམཱཝཙརཾ	-10.3966
▁ཨརཧནྟ	-10.3973
ཝཙནཾ།	-10.3974
▁མཱནཱནུསཡཉྩ	-10.3974
▁གཱུཐ	-10.3983
གྒཱཧོ	-10.3986
▁གཧེཏབྦ	-10.3989
ཏྭཾ	-10.3989
▁མལླ	-10.3994
▁ཧརིཏ	-10.3996
▁སཱིཧོ	-10.3997
བཧུ	-10.4
པཊྚ	-10.4003
▁མཏཱ	-10.4005
རུཧ	-10.4005
▁སམཱདཔེཏི	-10.4006
▁གོཙར	-10.4006
▁ཧོམི	-10.4008
▁སས	-10.4008
▁མཀྑ	-10.4014
▁མཏྟ	-10.4014
▁བྷཝརཱགཱནུསཡོ	-10.4015
ཱདཱི	-10.4017
ཏྟཡཾ	-10.4024
▁ཨཔརེ	-10.4025
▁ཏིཝིདྷཾ	-10.4027
▁ཚཌྜེཏྭཱ	-10.4031
གམནཾ	-10.4031
▁དེཝེསུ	-10.4031
▁ཨུཔནིསྶཡ	-10.4035
▁པཱཔཀམྨཾ	-10.4035
བུདྡྷོ	-10.4035
ཝིབྷངྒ	-10.4036
▁ཀལ	-10.4038
ཏྠསྶ	-10.404
▁བྷཱུམཱིསུ	-10.4045
ལམྦ	-10.4046
▁དཱཏབྦ	-10.4046
▁ཨེཏེནེཝ	-10.4046
པཝཏྟ	-10.405
▁ཙཀྐཝཏྟི	-10.405
▁པཊིཔཱཊིཡཱ	-10.4052
▁ཝུཊྛཱན	-10.4056
བྷིནྣ	-10.4064
▁པོརཱཎ	-10.4066
▁དེཧི	-10.4067
▁ཨུདྡྷཙྩཾ	-10.4067
▁མཱནཾ	-10.4068
ཱུཔམཱ	-10.4069
▁ཨཊྛམ	-10.4071
▁སུཁདུཀྑ	-10.4071
ཾཡེཝ	-10.4072
▁རུཀྑོ	-10.4073
ཱཔཱིཏི	-10.4074
ཏྟེན	-10.4075
▁སམཱིཔེ	-10.4075
▁པཱཔུཎི།	-10.4075
▁ནིསྶགྒིཡ	-10.4076
▁ཛནཔད	-10.4077
▁པཀྐམ	-10.4082
པཊིཔཏྟི	-10.4085
▁ཨུཔཱཡེན	-10.4087
པཉྙཱས	-10.4088
▁སཏིཔི	-10.4088
▁ཁཱིཎཱསཝསྶ	-10.4088
སྶཱད	-10.4089
▁ཝཱཙཏོ	-10.4089
ཧཱིན	-10.4095
▁ཨརིཡཱནཾ	-10.4097
▁ཨཏྟབྷཱཝེ	-10.4098
▁ཁཏྟིཡོ	-10.4101
ནཏོ།	-10.4102
ཝནྟཾ	-10.4107
གོཏྟ	-10.4107
སོབྷ	-10.4108
ཝིཧཱརེ	-10.4108
▁ཧེ	-10.4109
▁སངྑཏ	-10.4111
▁སམྦྷཝ	-10.4112
དྷནཾ	-10.4114
▁ནིསཱིདཏི	-10.4115
ཀལཱཔ	-10.4118
▁ཀཏཾ།	-10.4119
▁སུཀྐ	-10.4121
▁ཝདནྟོ	-10.4122
▁ཙརཎ	-10.4127
ཀམྨསྶ	-10.4131
▁ཨབྷཱཝེན	-10.4141
▁ཀིརིཡ	-10.4141
མེཀ	-10.4143
▁ཙཀྑཱཡཏནཉྩ	-10.4144
པཱས	-10.4147
▁ཙེཏསིཀཾ	-10.4149
▁པསནྣ	-10.4151
▁ཨསེཀྑ	-10.4152
ཏྟཉྩ	-10.4163
▁ཨཱསནཾ	-10.4164
སབྷ	-10.4165
▁ཙཀྐཝཱལ༹	-10.4165
▁ཨཉྙཱཏཱཝིནྡྲིཡཾ	-10.4172
▁ཨུཔྤཛྫེཡྻ	-10.4173
▁ཀཏྟབྦཾ	-10.4174
▁གཧེཏྭཱན	-10.4177
རཛྫ	-10.4182
སཊྛི	-10.4183
▁ཨཱམནྟཱ	-10.4183
▁ཀཱཏབྦ	-10.4184
▁བུདྡྷུཔྤཱདེ	-10.4185
▁ཨུཔཱསིཀཱ	-10.4185
▁ཝཏྟཏེ།	-10.4189
▁ཝདེསི	-10.4191
སུཔི	-10.4193
▁ཛནེཏི	-10.4195
▁སདྡྷཾ	-10.4198
ཏབྦ	-10.4203
▁པཊིཉྙཱ	-10.4207
▁ཨརཧཏྟམགྒ	-10.4208
ལོཀོ	-10.4209
ིམཾ	-10.4211
▁སཧདྷམྨིཀ	-10.4214
ཱདཡོ།	-10.4221
ཝིསཡེ	-10.4222
ཝིདྷཱན	-10.4222
▁ཝཡོ	-10.4222
▁ཚནྣ	-10.4225
▁པཋམཱ	-10.4232
▁ཙཀྑུཝིཉྙཱཎ	-10.4235
ཝིཔལླཱས	-10.4235
པརམ	-10.4236
▁ཨཊྛཧི	-10.4238
ཀརཎེན	-10.4241
སམཱུཧ	-10.4241
▁དད	-10.4243
▁ཨངྒཱནི	-10.4243
ཨཊྛཀཐཱཡ	-10.4243
▁ཝུདྡྷ	-10.4244
▁པརཀྐམ	-10.4246
ཙིཏྟསཾསཊྛསམུཊྛཱན	-10.4248
▁ཨུཔསངྐམ	-10.4248
▁ཨིམིནཱཝ	-10.4251
▁ཨུཔྤཱདཱཡ	-10.4254
▁ཧཏྠཏོ	-10.4255
ཏོ༎	-10.4263
▁དཧར	-10.4266
▁ནཝམེ	-10.4269
▁ཝིནིཙྪཡ	-10.4269
དིཝས	-10.4275
▁སམྦུདྡྷཾ	-10.4275
པདུམ	-10.4277
▁པེཀྑ	-10.4281
▁པརིཛཱནཱཏཱིཏི	-10.4283
རོག	-10.4291
སཏསཧསྶ	-10.4291
▁ཨནུཛཱན	-10.4292
▁ནཔྤཛཧཏི	-10.4296
▁སཏྠུནོ	-10.4299
▁ཨནཱགཱམཱི	-10.4299
▁ཨུཔཔཛྫིཏྭཱ	-10.4299
▁ཙིཏྟཏོ	-10.4301
▁པརིནིབྦཱཡ	-10.4303
▁སཉྙོཛན	-10.4308
ཀཏྠ	-10.4314
གཎནཱཡ	-10.4315
▁ཨཱཝཱསེ	-10.4315
▁བྷར	-10.432
ཱཧཱི	-10.4326
▁ཝཱིར	-10.4327
▁སདྡྷ	-10.4327
▁པཏིཏ	-10.4328
▁ཨནུབྷཝ	-10.4335
▁སྭེཝ	-10.4337
▁སཱིགྷཾ	-10.4337
▁ཨཔརེན	-10.4339
▁གིཧཱི	-10.4343
▁ནར	-10.4346
▁པཉྩམཾ	-10.4348
▁རཱཧུལ	-10.4351
▁སངྒཧིཏཱ	-10.4355
▁ཡུཏྟོ	-10.4359
▁སམྨཔྤདྷཱན	-10.436
ཡི༎	-10.4362
བྷཱཛན	-10.4362
▁ཨབྷབྦོ	-10.4365
▁དུཀྑནྟི	-10.4365
ཱིཡནྟི	-10.4365
ནིརོདྷཱ	-10.4366
ཡི།	-10.4366
▁ཨཏཱིཏཱནཱགཏ	-10.4367
▁ཨདྷམྨ	-10.4373
ཱནནྟར	-10.4374
▁ཨགཱརསྨཱ	-10.4375
ཱཙརིཡ	-10.4379
▁ཏཏིཡམྤི	-10.4383
▁ཨོཀྐམ	-10.4383
▁ཨེཀམེཝ	-10.4384
▁མནོདྷཱཏུ	-10.4384
ཨཛྫ	-10.4384
▁ཀཊ	-10.4386
▁ཏིརིཡཾ	-10.4387
▁ཝུཙྩཏེ	-10.4388
▁སམཱུཧ	-10.4391
ཝིཛྫཱ	-10.4393
▁ཀོསིཡ	-10.4397
▁ཀཧཱཔཎ	-10.4398
▁པཱུཏི	-10.4399
▁མཛྫ	-10.4403
▁དུཝིདྷོ	-10.4405
▁སོཧཾ	-10.4405
དྷམྨེསུ	-10.4406
▁ཨེཀིསྶཱ	-10.4407
སེན	-10.4408
▁པཱརཾ	-10.4411
▁བཱདྷ	-10.4413
▁ཧཱིཏི	-10.4414
▁དཀྑིཎཱ	-10.4415
ཀཏམེ	-10.442
ེསཱ	-10.4427
སམྨཱ	-10.443
▁ཨུཔགནྟྭཱ	-10.443
▁ཨུཛུ	-10.4431
ཏྠེར	-10.4436
▁པཊིཝེདྷ	-10.444
ཊྛཱནཏོ	-10.4441
ཙརིཡ	-10.4441
▁པཊིགྒཧ	-10.4441
▁ཝཱས	-10.4448
▁པབྦཛ	-10.445
▁ཝཱིཏིཀྐམ	-10.4452
ིཏབྦཱ	-10.4452
▁ཨབྷིཛ྄ཛྷཱ	-10.4453
ིཏུནྟི	-10.4454
▁སངྑྱཱ	-10.4455
▁ཐཱམ	-10.4456
▁སམྨཱསཏི	-10.4456
▁བྲཱུམི	-10.4456
▁ཛྷཱཡཱི	-10.4457
▁ཨེཝམཱཧཾསུ	-10.4458
སེཡྻ	-10.4459
▁ཨཱརོཙེསི།	-10.4461
▁ཝཏྠཾ	-10.4461
▁ཀམྨཱནཾ	-10.4461
▁པཉྷོ	-10.4463
རཀྑིཏ	-10.4463
▁ཛེཊྛ	-10.4464
▁སཔྤཱིཏིཀ	-10.4464
▁ཝིཉྙཱཏ	-10.4466
▁སམྤཏྟེ	-10.4469
▁ཨུཔཔཛྫ	-10.4469
ཝཱཧ	-10.4469
▁ཝིམཱན	-10.4471
▁ཙཏུབྦིདྷ	-10.4472
▁ཨནུཝཏྟ	-10.4474
རཧིཏ	-10.4476
▁སམཱཔཏྟིཾ	-10.4476
ཡེ༎	-10.4479
▁པཏྟིཡཱ	-10.4479
▁པཐཝི	-10.4479
ལོཔ	-10.4481
▁ཨུདྡྷ	-10.4482
དཱིགྷ	-10.4483
▁ཝིཙིཀིཙྪཱསཧགཏ	-10.4484
▁པུབྦེཝ	-10.4485
ཋ	-10.4489
གརུ	-10.449
▁ཙནྡོ	-10.4492
▁དུཝིདྷཾ	-10.4493
▁དསྶནཏྠཾ	-10.4496
▁བྷུཏྟ	-10.4498
པརིཏྟ	-10.4499
▁ཛོཏི	-10.4509
སུདྡྷི	-10.4511
དཱིནཾ	-10.4512
▁པརིཙྪིནྣ	-10.4512
▁ཨཏྟམནོ	-10.4515
▁ཨདྷིགམ	-10.4515
▁ཨབྷཱཝཱ	-10.4516
ཧཏྠི	-10.4519
▁ཛཱཡནྟི	-10.452
ོདཀཾ	-10.4524
▁ཨུཔྤཱདེཏྭཱ	-10.4524
སམྤནྣཾ	-10.4527
▁པཱཝིསི།	-10.4529
▁ཨཱཡ	-10.4533
▁མནསིཀརོཏོ	-10.4539
▁ཨནནྟརཱུཔནིསྶཡོ	-10.4539
▁པཧཱནཱ	-10.454
▁ཨཱཝཱསིཀཱ	-10.454
▁མིསྶཀ	-10.4541
སདྡྷཱ	-10.4541
▁སཾཀིལེས	-10.4541
▁ཨཱཧརི།	-10.4541
▁པརིཧར	-10.4543
▁ཨདྡྷ	-10.4547
▁ཛཱནན	-10.4547
ཙཱི	-10.4549
▁མཧཏོ	-10.455
ཏེཝ	-10.4551
ེསཱུ	-10.4556
མཏ	-10.4556
▁བྷོགེ	-10.4559
སཱིམཱ	-10.456
ནནྡ	-10.4562
▁ཙཏུབྦིདྷཾ	-10.4562
པཉྷ	-10.4562
▁སབྦདིསཱ	-10.4563
▁ཀཱཡཀམྨ	-10.4564
ཡིཏྭཱན	-10.4564
▁ལོཀིཡལོཀུཏྟར	-10.4565
▁སམཎསྶ	-10.4565
▁སབྦལོཀ	-10.4565
▁ཀུམཱར	-10.4567
▁ཨཏྠི།	-10.4567
▁ནཨཀུསལོ	-10.4573
▁མཧཏཱ	-10.4574
▁༡༢༠	-10.4574
ཎོ	-10.4577
ིཾ།	-10.4581
▁སིབྦ	-10.4582
▁པཱསཱད	-10.4583
སིདྡྷི	-10.4585
▁སུཏྭཱན	-10.4586
ིཧ	-10.4588
▁དུཀྑེ	-10.459
མེཏྠ	-10.4592
▁ཀརོཐ	-10.4593
▁པརིཙྩཛ	-10.4597
ེསཱི	-10.4597
▁ཝུཏྟམྤི	-10.4597
སེཊྛ	-10.4598
▁ཨབྦྷནྟར	-10.4599
▁ཝིསྶཊྛ	-10.4605
▁གཧིཏོ	-10.4609
མནཱ	-10.4612
▁ཨུདྡྷར	-10.4616
ཨཉྙམཉྙ	-10.4617
▁བྷིཀྑུནིཾ	-10.4618
▁ཙཏུཏྠོ	-10.4624
▁ནིསྶརཎཾ	-10.4626
▁ཛཉྙཱ	-10.4628
▁ཛཱནེཡྻ	-10.463
སནྣིསྶིཏ	-10.4631
དཾ	-10.4637
སྭ	-10.4637
▁ཨཱཀཱསཱནཉྩཱཡཏན	-10.4637
ོཔམ	-10.4643
▁སངྒྷོ།	-10.4647
▁ཨུཔཱདཱནཾ	-10.4648
▁ཝིཔརཱིཏ	-10.4648
མཱལཱ	-10.465
▁སཧསྶཾ	-10.4653
▁གུཎཾ	-10.4653
ཝིཛྫ	-10.4655
▁ཝསནྟོ	-10.4656
▁དཧ	-10.4661
▁བལཝཱ	-10.4661
▁སེཡྻ	-10.4661
▁སོཏཱཔཏྟིཕལེ	-10.4667
པདཱནི	-10.4671
▁ཀིལམ	-10.4672
མུཏྟོ	-10.4673
ང	-10.4679
▁ཀུཙྪི	-10.468
▁ཨུཔརིམ	-10.468
▁སཱུཀར	-10.4689
▁ཨཱརབྦྷཱཏི	-10.4689
▁ཨཱལོཀོ	-10.469
▁ཨཱཙཱར	-10.4692
▁ཨནཉྙ	-10.4696
▁ཀུསལཱཀུསལ	-10.4707
▁ཝཱདོ	-10.471
ིཏུཾ།	-10.4711
ནེཝསཉྙཱནཱསཉྙཱཡཏན	-10.4714
▁མཱརིས	-10.4714
▁ཨཔྤཧཱིནོ	-10.4717
▁ཨཝོཙ།	-10.4717
▁ཨུདཀེན	-10.4724
ཀྑར	-10.4725
▁པཱལི༹ཡཱ	-10.4727
▁ཧིམཝནྟ	-10.4727
ལོཧིཏ	-10.4729
▁པིཡཾ	-10.4733
▁བྷོནྟོ	-10.4733
▁སདྡྷོ	-10.4734
▁ཨུཔཔརིཀྑ	-10.4734
མཛྫ	-10.4735
▁སཱམ	-10.4736
▁ཧཏྠཾ	-10.4736
རཱུཔཱནི	-10.474
▁སངྒཧིཏཱ།	-10.4743
▁ཨནི	-10.475
▁སསྶཏ	-10.4755
▁པུཙྪཏི	-10.4755
གཧཎ	-10.4755
▁སམུཊྛཱནེཧི	-10.4757
▁སཾསཊྛཱ	-10.4758
▁ཨཱསིཾ	-10.4759
▁ཏིཏྠིཡ	-10.4761
ཀམྨཊྛཱན	-10.4764
▁ཏདུབྷཡ	-10.4767
▁བྷཎནྟསྶ	-10.4767
ཡཱི	-10.4767
དསྶནཾ།	-10.4767
▁མནོསམ	-10.4768
▁ཨུཔཊྛཧ	-10.477
ཀརཱ	-10.4771
▁ཨོལཱ༹རིཀ	-10.4773
ེཏབྦཱ	-10.4777
▁རཀྑཏི	-10.4779
▁ཙཀྑུཝིཉྙཱཎསྶ	-10.4782
པྤདྷཱན	-10.4784
▁སོཏཱཡཏནཾ	-10.4785
▁པཱཔཀཾ	-10.479
སཱམཎེར	-10.4793
▁ཝཛ	-10.4798
▁ཨཔསྶ	-10.48
▁ནིབྦཱནསྶ	-10.4805
▁ཨནུསེཏི	-10.4805
ཏིཨཱདིཀཾ	-10.4807
ཀྑནྡྷོ	-10.4809
▁ཨུགྒཏ	-10.4809
ུཀ	-10.4815
▁སཾཀིལིཊྛ	-10.4818
▁ནཱསྶ	-10.4818
▁པཊིལབྷིསྶནྟི	-10.482
པརིཡཱཡོ	-10.4821
ིཀཱཏི	-10.4822
པཛྫ	-10.4824
▁ཉཱཏ	-10.4824
▁གིརི	-10.4828
▁ཏཔོ	-10.4829
ཝིཀཔྤ	-10.4834
▁བྷཱུམིཡཱ	-10.4835
▁པཊིཝིཛ྄ཛྷ	-10.4839
▁སེཀྑ	-10.4839
▁མནཾ	-10.484
ཀེ།	-10.4842
▁སིནེཧ	-10.4843
རཏི	-10.4846
▁པཱན	-10.4846
▁ཨུར	-10.4851
ཨཱདཱིནི	-10.4851
▁ཨཱར	-10.4851
མཏྟོ	-10.4854
▁ཨཝིཏཀྐཨཝིཙཱརོ	-10.4855
▁ཨཱཧུ	-10.4856
པྤཀཱར	-10.486
▁ཁིཏྟ	-10.4862
▁ཨཱསནྣ	-10.4862
▁ཀཱམཱཝཙརཱ	-10.4863
▁ཝཱསེཊྛ	-10.4863
▁སམནྣཱགཏཾ	-10.4864
ཱསན	-10.4869
ཝནྟོ	-10.4872
སམུདྡ	-10.4872
▁ཝིནཡཾ	-10.4873
ཙམྨ	-10.4874
▁ཨུབྷཡཏྠ	-10.4876
▁ཨགྒཧེཏྭཱ	-10.4876
ྟ	-10.4878
▁ཨེཝམཱདཱིསུ	-10.4881
▁ཨཝཙ	-10.4883
སཎྛཱན	-10.4891
སྭཱགཏཾ	-10.4891
▁ཀཐིཏཱ	-10.4891
སཧགཏ	-10.4892
ནིཙྩ	-10.4892
ཱནཉྷི	-10.4892
▁བྷཱར	-10.4893
▁མདྡ	-10.4896
ཝཱསཱི	-10.4897
▁༡༢༣	-10.4898
ཝཏྠཱུནི	-10.49
▁ཨིཝ	-10.4901
▁པརིཡེས	-10.4902
▁༡༢༤	-10.4904
▁༡༢༢	-10.4906
▁སཱམི	-10.4906
▁བྷཱཝེ	-10.491
མཏྠཾ	-10.4911
▁ཨརཉྙཾ	-10.4913
▁ནཏྠིཡཱ	-10.4914
▁ནིཔནྣ	-10.4916
▁ནིསིནྣསྶ	-10.492
▁ཨིནྡྲིཡཔཙྩཡེན	-10.4923
▁གཎྷཱཏི།	-10.4924
▁བྷུཉྫིཏྭཱ	-10.4926
ིཡམཱནཱ	-10.4926
ཡུཏྟཾ	-10.4927
▁ཝནཾ	-10.4929
▁པཉྙཱས	-10.4936
སཾཝར	-10.4938
ཱསཱི	-10.4939
ཙཏུཀྐ	-10.4939
ིསྶཱམ	-10.4942
▁ཨཱསཝཝིཔྤཡུཏྟ	-10.4943
▁ཨུཔོསཐོ	-10.4948
ཀཱསི	-10.4949
▁ཨཱཝཛྫ	-10.4953
ཛནཀ	-10.4954
▁ཨཱཧཱརཱ	-10.4955
▁ཕོཊྛབྦཱཡཏནཾ	-10.4956
▁དྷཱིཏཱ	-10.4957
མཧཱརཱཛ	-10.4957
མཱདཱཡ	-10.496
ཏཱུཏི	-10.4961
▁སཧསཱ	-10.4961
▁ཝིསབྷཱག	-10.4965
▁ཨཝོཙ	-10.4966
▁ཀཏནྟི	-10.4967
ཝིབྷཱག	-10.4971
▁ནདིཡཱ	-10.4974
▁མཧཱཛནསྶ	-10.4975
▁པགྒཧ	-10.4976
ཱནནྟརཾ	-10.4976
▁ཨཝིཔརཱིཏ	-10.498
▁སཾཝརོ	-10.4985
▁ནིབྦུཏོ	-10.4989
ེནྟཱ	-10.4989
གཏེ	-10.4989
སམྤནྣཱ	-10.499
▁སཾཝཏྟཏི	-10.499
▁ཨསྶཱསཔསྶཱས	-10.4993
▁པརིགྒཧ	-10.4995
ེཏབྦཾ།	-10.4999
▁དཊྛབྦཾ	-10.5004
▁ཨཱརདྡྷཾ།	-10.5005
▁ནསརཎ	-10.501
ཉྙོ	-10.5011
▁ཀུསལཏྟིཀ	-10.5011
▁ཀོཔ	-10.5013
▁པཱལ	-10.5013
▁ཕ	-10.5013
▁ཝིཝཊ	-10.5015
▁སུཝིཉྙེཡྻམེཝ།	-10.5021
ཝསི	-10.5022
▁ཁནྡྷེན	-10.5023
▁ཨབྷཱཝ	-10.5027
ཛཱཏིཀོ	-10.5027
ཱཔེསི	-10.5028
ལདྡྷ	-10.5029
ཚནྡ	-10.5029
▁ཀུལཾ	-10.5029
སུབྷ	-10.503
▁པཊིཔདཱཡ	-10.5034
▁ཨཡྻེ	-10.5034
དྷཱརཎ	-10.5035
སེཝན	-10.5035
▁སཱལི	-10.5037
▁པདཊྛཱན	-10.5037
▁པརིཀམྨ	-10.504
▁པཉྷ	-10.5043
▁རཀྑིཏ	-10.5045
པཉྩམ	-10.5046
▁སརཱུཔཏོ	-10.5047
▁སུམེདྷ	-10.5047
▁ཝིཝཱད	-10.5047
▁ཀརོནྟཱ	-10.5055
ཨནཱཔཏྟི	-10.5055
▁པཾསུ	-10.5057
▁ཝིསེསཾ	-10.506
▁ཨིསྶར	-10.5061
▁བྷཱསིཏ	-10.5062
▁སཱཔི	-10.5062
▁ཏཏིཡཱ	-10.5066
▁སཀུཎ	-10.5069
▁ཨནུལོམཾ	-10.5069
▁ཡོག	-10.507
▁པཙྩཡེཧི	-10.507
▁གྷརེ	-10.5071
▁པསྶཏཱིཏི	-10.5071
▁ཧོཏཱུ	-10.5073
▁པུབྦེཔི	-10.5075
▁གུཎཱ	-10.5076
ཀྐམོ	-10.5078
▁པཙྩཝེཀྑནྟི	-10.5078
ཨསྶ	-10.5079
▁ཛམྦུདཱིཔ	-10.508
ཝིཏྠཱར	-10.5083
▁པཉྷེ	-10.5086
▁ཡོཛན	-10.5086
▁བྲཱུཧི	-10.5087
▁སམྨཱསམྦུདྡྷ	-10.509
▁ཨཱདིཾ	-10.5091
▁པཏྠནཱ	-10.5096
ིཊྛ	-10.5098
▁སམྨཱསམྦུདྡྷེན	-10.5101
སཀ	-10.5105
ཱནུརཱུཔཾ	-10.5105
▁ཨིམ	-10.5105
▁ཨམོཧོ	-10.5105
▁ཨིསྶཱ	-10.5108
▁པཊིསེདྷ	-10.5116
ཱིན	-10.5118
ནིསྶིཏཾ	-10.5122
▁ཀརིསྶཱམཱི	-10.5123
ལི༹	-10.513
རིཝ	-10.5132
▁ཨུཛ྄ཛྷཱཡནྟི	-10.5135
▁སརཎགམན	-10.5135
▁ཨབྷིཉྙེཡྻོ	-10.5137
ཊྛེ	-10.5137
▁པུབྦབྷཱགེ	-10.5137
ཝཙྪ	-10.5139
▁པུརིམཾ	-10.5141
▁ཨེཀདེས	-10.5148
སམངྒཱི	-10.515
▁ཏཎྷཾ	-10.5153
▁ཝིཉྙཱུ	-10.5153
བྱཱ	-10.5154
▁ནཙིརསྶེཝ	-10.5167
▁ནིདྡེསོ	-10.5169
པཱརམཱི	-10.5172
ལཏཱ	-10.5175
▁ཝིབྷཝ	-10.5178
▁དཀྑིཎེཡྻ	-10.5179
▁བུདྡྷི	-10.5184
▁ནིརུཛ྄ཛྷནྟི	-10.5189
▁ཨིད	-10.5189
པཊིསནྡྷི	-10.5192
▁ཝཱཀྱ	-10.5194
ཝིདྷཾ	-10.5199
སབྷཱཝཱ	-10.5201
ཨེཏཾ	-10.5202
▁ཨནཉྙཱཏཉྙ	-10.5203
▁ཝཾས	-10.5206
▁ཛྷ	-10.5207
▁སངྒྷིཀ	-10.5207
ཝིབྷངྒེ	-10.5208
བྷོཛནཾ	-10.521
▁ཨཉྙསྨིཾ	-10.5211
▁ཝཱིས	-10.5219
▁ཡུདྡྷ	-10.5221
མཎྜལཾ	-10.5221
ཝནཾ	-10.5221
▁༡༢༡	-10.5225
▁བྷཱཡ	-10.5225
▁ཨུདྡིས	-10.5226
▁ཝིབྷངྒཝཱརོ	-10.5227
བདྡྷ	-10.5232
▁སཱུརིཡོ	-10.5233
གུ	-10.5235
▁ཨུགྒཧ	-10.5236
▁ཏཎྜུལ	-10.5237
▁ཛཝ	-10.5239
ཧཾ༎	-10.524
▁སུམན	-10.5245
▁ཀརིསྶཱམི	-10.5246
▁སཀལཾ	-10.5247
སིཔྤ	-10.5247
▁སནྣིཔཱཏ	-10.5253
ེཧིཔི	-10.5257
▁ཨཱཝཊྚ	-10.5258
▁ནཀྑཏྟ	-10.5259
སངྒ	-10.5261
▁ནིརུཛ྄ཛྷཏཱིཏི	-10.5264
ཙིཏྟཱནི	-10.5266
▁གཝ	-10.5266
ཙྪིནྣ	-10.5267
▁པཀཱར	-10.5272
མཡ྄ཧཾ	-10.5278
▁པུཐུཛྫནཱ	-10.528
▁ཝསེ	-10.528
▁བྷིཀྑུསངྒྷཾ	-10.5285
རུཀྑོ	-10.5285
▁ཨརིཡསཙྩཾ	-10.5285
བྷཱཝནཱཡ	-10.5289
ཱཡསྨཏོ	-10.5298
▁སཱཝཛྫ	-10.5299
▁པཱཔུཎཱཏི།	-10.5302
ཏལེ	-10.5305
▁ཀིརིཡཾ	-10.5306
ཝཱཙ	-10.5308
▁སིཝ	-10.5313
▁རཱུཔཱརཱུཔ	-10.5314
▁དྷུར	-10.5317
▁སལླཀྑེཏྭཱ	-10.5318
▁ཨུཔཊྛཱནཾ	-10.532
▁དསནྣཾ	-10.532
▁ཨཱཙརིཡེན	-10.5321
▁ཀདཱ	-10.5323
ཀྐནྟ	-10.5327
སོཀ	-10.5327
▁མོཧསྶ	-10.5328
▁ནིདྡིཊྛ	-10.5328
▁དཱིཔེཏི	-10.533
སིཏ	-10.5331
ཀམྤི	-10.5336
▁པདེན	-10.5337
སྨིཉྷི	-10.5338
ེསྶནྟི	-10.5339
▁པཀྑིཏྟ	-10.5339
▁པཱཙིཏྟི	-10.5342
▁ཐོམ	-10.5344
▁དུཀྑེན	-10.5346
▁དཀྑིཎཾ	-10.5349
སེནཱསན	-10.535
▁ཀཱརཱཔེཏྭཱ	-10.5352
▁མོཙ	-10.5356
▁ཨུཔོསཐཀམྨཾ	-10.5356
ཏིཎ	-10.5358
ཀཎྚཀ	-10.5363
ཱདྷིཔྤཱཡ	-10.5363
▁ཨནརིཡ	-10.5365
▁སམྤཊིཙྪ	-10.5366
ཝིཔཏྟི	-10.5366
▁ཨེཀམྤི	-10.5367
▁ཨཱཔོ	-10.5369
▁སམྦྷ	-10.5372
▁ཡཱཙིཏོ	-10.5375
▁དུཀྑཀྑནྡྷསྶ	-10.5375
སི༎	-10.5376
▁ཨཱན	-10.538
▁དམྨཱི	-10.5384
▁རཱགསྶ	-10.5386
▁ཨུཔགཏ	-10.5388
▁ཀཏྭཱཏི	-10.539
ཎྞ	-10.539
▁ཏཱིརེ	-10.539
▁ཏིལ	-10.5392
▁པུཏྟདཱར	-10.5393
▁མཧཱཛནོ	-10.5396
མཱནོ།	-10.5398
▁པརམཏྠཏོ	-10.5398
▁པརིཉྙཱཡ	-10.5399
བྷིཀྑཱུ	-10.54
▁དིཊྛདྷམྨིཀ	-10.5403
▁ཨནབྷི	-10.5403
སིཀྑཱཔདེ	-10.5404
▁ཨནེཀཝིཧིཏ	-10.5406
▁པཱིལ༹	-10.5406
ཏསྨཱ	-10.5408
▁གཎྷནྟོ	-10.5409
སིཡཱ	-10.541
▁ཝུཏྟཱནི།	-10.5414
བྷེདཾ	-10.5421
▁སཀྐོཏི།	-10.5422
པཝཏྟི	-10.5422
ཏྟཾ།	-10.5423
▁པརིཔུཙྪ	-10.5425
▁སཀྐཱཡདིཊྛི	-10.5427
པཎྜིཏ	-10.5431
▁བྱཱ	-10.5431
ཝསྶཾ	-10.5435
པཊ	-10.5435
▁པུཙྪིཏོ	-10.5435
▁ལབྦྷཏཱིཏི	-10.5436
པཙྩཝེཀྑཎ	-10.544
▁པཏྟི	-10.544
▁ཨནྟེཝཱསིཀ	-10.5441
▁ཨུཔྤཛྫིཏྭཱ	-10.5442
ནིདསྶན	-10.5445
▁མུཏྟཱ	-10.5446
དཱཡ	-10.5449
▁ཝཀྑཏི	-10.5451
▁ཨུདྡྷརིཏྭཱ	-10.5452
▁༡༢༥	-10.5452
▁ཀསྶཔོ	-10.5453
ཀཱརཱ	-10.5454
▁ནཱནཏྟ	-10.5456
▁དུཝིདྷེན	-10.5462
▁ཨེཝནྟི	-10.5463
▁གུཏྟ	-10.5463
▁གཙྪཱམི	-10.5469
▁ཝཏྠུསྨིནྟི	-10.5469
▁ཋཱནེཧི	-10.5472
▁ཨཝིཛྫམཱན	-10.5473
ནཏྠ	-10.5475
པརིམཱཎ	-10.5478
▁སངྒཧིཏ	-10.5479
▁སནྡྷཱཡཱཧ	-10.5479
པརིཙྩཱག	-10.548
▁དུཝིདྷཱ	-10.548
▁སཱརཐི	-10.5481
ཙྪནྣ	-10.5486
▁ནོཨཱསཝ	-10.5486
▁ཝསཏི	-10.5496
▁ཧིཾས	-10.5496
▁གྷརཾ	-10.5496
▁སཾཝེག	-10.5496
▁ཨདཏྭཱ	-10.5498
ཡམྤི	-10.5499
▁ཨཊྛསུ	-10.5502
▁ཨེཧི	-10.5504
▁པཐཝཱིདྷཱཏུ	-10.5505
▁ཚཌྜ	-10.5509
▁མོཀྑ	-10.551
▁ཀཱཡིཀ	-10.5513
▁ཁཏྟིཡཱ	-10.5514
▁པཙྩཝེཀྑཎ	-10.5515
ུཔྤཱདན	-10.552
▁ཨནཱཔུཙྪཱ	-10.5521
▁ཀཐིཏཾ།	-10.5522
ཡཱཝ	-10.5523
▁བྷོཏོ	-10.5529
སམོ	-10.553
▁ཀཐེསི	-10.5531
▁པཝཏྟཏི།	-10.5533
▁ཋཱནཱ	-10.5535
▁སིནེརུ	-10.5535
ཧུ	-10.5539
ཱདྷི	-10.5542
▁ཕོཊྛབྦ	-10.5543
ེསོ	-10.5543
▁ཏེནཱཏི	-10.5543
ཙཱརཱི	-10.5544
▁སཱསནཾ༎	-10.5549
▁ཨུཙྪུ	-10.555
▁པཐ	-10.5552
▁སཧབྱཏཾ	-10.5553
▁པུརིསཱནཾ	-10.5554
ཋཱན	-10.5556
▁ཨམཙྩ	-10.5556
པཎྜིཏོ	-10.5556
▁པཊིཝིདྡྷ	-10.5559
▁བྷིཏྟི	-10.5562
པཐེ	-10.5563
▁གམནེ	-10.5565
▁གཱམཎི	-10.5569
རཧིཏཱ	-10.557
▁སཙྩིཀཊྛཔརམཏྠེན	-10.5572
▁ཧཱས	-10.5575
པཊིཔཀྑ	-10.5576
▁པཉྙཱཝིམུཏྟི	-10.5578
པཊིབདྡྷ	-10.5579
▁ཏྱ	-10.5582
པསཱད	-10.5585
▁སཏྟསུ	-10.5587
ཉྙཾ	-10.5587
▁སོཎ	-10.5587
▁པཊིལབྷ	-10.5587
▁ཝིཔཏྟི	-10.5588
ེཏབྦོ	-10.5589
པཊིགྒཧཎ	-10.5592
▁ཨུཔསགྒ	-10.5592
▁ཀཊཏྟཱརཱུཔཾ	-10.5598
▁མད	-10.5598
སཝན	-10.5602
▁དྷུཝཾ	-10.5602
▁ནཱཝཱ	-10.5603
▁ལཛྫ	-10.5604
▁མཧཱདཱནཾ	-10.5608
▁ཨེཀཝཙན	-10.561
▁ཝིརཏི	-10.561
▁ཀཉྩན	-10.5611
ཱིཝ	-10.5614
▁ཙུཏཱ	-10.5617
པཐཾ	-10.5622
▁༡༢༨	-10.5626
སཱིསེན	-10.5626
རཊྛ	-10.563
ིཎ	-10.563
▁དྷམྨིཀ	-10.5632
▁ཡུཏྟཱ	-10.5632
▁ཕུསིཏྭཱ	-10.5632
▁བྷཝེཡྻ།	-10.5634
▁པཉྙཏྟནྟི	-10.5637
དཱནེན	-10.5641
▁ཏིཀྑ	-10.5641
མཛ྄ཛྷིམ	-10.5642
▁པུཏྟསྶ	-10.5645
▁དྷཱཏཱུ	-10.5646
སམྦྷཝ	-10.5648
▁ཝེཝཙན	-10.565
▁ཝིམཏི	-10.5655
▁སདིསོ	-10.5656
▁ཨརཱུཔིནོ	-10.5658
ལཀྑཎཾ།	-10.5662
ཨི	-10.5662
▁མཧཱབོདྷི	-10.5665
▁བཧུསྶུཏོ	-10.5668
ཱབྷཱཝེན	-10.567
▁དདྷི	-10.5671
ཀམྨེ	-10.5672
ེཐཱ	-10.5674
▁དེཝལོཀ	-10.5674
▁ནིདྡེས	-10.5676
▁ཨེཀཙྩ	-10.5676
ེཡྻུཾ།	-10.5676
ཊྛིཏི	-10.5678
▁དཱཏབྦཾ།	-10.5682
▁དྷནུ	-10.5683
▁ཨདྷིཔྤཱཡ	-10.5684
▁ཨབྷིཀྐམ	-10.5685
ཱརམྨཎཱ	-10.5686
དིསཱ	-10.5686
▁ཁིཡྻནྟི	-10.5686
▁དྷཱར	-10.5687
▁༡༢༦	-10.5693
▁ཝིམལ	-10.5696
▁པཝིཝེཀ	-10.5699
▁དིཊྛཱནུསཡོ	-10.5704
སཧིཏ	-10.5705
སུདྡྷ	-10.571
▁ཨུསྶཱཧ	-10.5711
ེཡྻཱཐ	-10.5712
▁སུཉྙཏ	-10.5714
▁ཧཝེ	-10.5714
▁པཉྙཏྟི།	-10.5715
▁དུཙྩརིཏཾ	-10.5718
སཱཁ	-10.572
▁གཎྜ	-10.572
▁༡༢༧	-10.572
ིཡནྟི	-10.5723
ཝཱསི	-10.5723
▁ཝིམུཏྟ	-10.5726
▁ཨཱགཙྪནྟི	-10.573
▁ཨུཏྟམཾ	-10.5731
▁པཀྑིཔ	-10.5733
▁ཋཱནཱནི	-10.5735
ཌྜྷ	-10.5735
▁ཨནུཉྙཱཏ	-10.5741
▁པཊིགྒཎྷཱཏི	-10.5742
▁དུཀྐར	-10.5742
▁ཨིདམཝོཙ	-10.5743
▁པུབྦཱཔར	-10.5744
▁ཨཱདཱིནཝ	-10.5744
གོཙར	-10.5744
▁སབྦེན	-10.5745
ཀརཾ	-10.5745
དཱས	-10.5747
▁ཨིཙྪིཏ	-10.5747
▁ཙུཎྞ	-10.5747
ཱཀཱརཾ	-10.5752
མར	-10.5753
སམཏྠ	-10.5754
▁ཨུཊྛིཏ	-10.5755
▁པཊིཀྑིཔ	-10.5755
▁པཱནཱིཡཾ	-10.5759
སམྤ	-10.5761
ཱསཱིཏི	-10.5762
▁སོཏཱཔཏྟིམགྒ	-10.5763
ིཀེ	-10.5763
ཀཱརེ	-10.5766
▁སནྟཀ	-10.5771
▁ནིཀྑིཔིཏྭཱ	-10.5772
མཏྠཀེ	-10.5776
▁བྲཧྨལོཀ	-10.5781
▁སེད	-10.5788
མུཁོ	-10.5789
མཱཧུ	-10.5792
▁མཱཡཱ	-10.5794
ཨརིཡ	-10.5803
གྷར	-10.5805
▁ཨཏྟམནཱ	-10.5807
▁ཨེཏདཝོཙུཾ	-10.5813
ཙཏྟཱརོ	-10.5816
▁ནིཔཱཏ	-10.5818
▁པཙྩཡཔཙྩནཱིཡཾ	-10.5818
▁ཧནྡ	-10.5818
པྱ	-10.5823
▁ལོཀུཏྟརདྷམྨ	-10.5824
ཱདིཀཱ	-10.5828
▁སོཏཱཔཏྟིཕལ	-10.5829
▁པཙྩཝེཀྑཏི	-10.5831
ཧཏ	-10.5832
པརིསཱ	-10.5833
▁ཨཏྠཱ	-10.5833
▁སམྦྷཱཝ	-10.5835
ཝེདན	-10.5836
▁སམཏིཀྐམྨ	-10.5838
པདསྶ	-10.5842
ིསྶཱ	-10.5843
བྷི།	-10.5844
▁ཨཡུཏྟ	-10.5845
▁ཀུཛ྄ཛྷ	-10.5848
▁ཨརཧཏྟཕལ	-10.5849
ལཱཔ	-10.585
པདཱནཾ	-10.5851
བོདྷ	-10.5857
▁སབྦཉྙུ	-10.5859
▁ཨརཏི	-10.5859
▁དུཏིཡམྤི	-10.5861
▁པཊིསནྡྷིཾ	-10.5862
གབྦྷ	-10.5863
པདེན	-10.5865
ཧོཏི	-10.5865
▁སམུདཱཡ	-10.5866
▁མཱནཱནུསཡེན	-10.5868
ཱལཡ	-10.587
ལིཏྟ	-10.5871
▁མཡ྄ཧ	-10.5871
▁གཱཝོ	-10.5871
▁ཨདྷམྨེན	-10.5872
ིམ	-10.5873
ིསྶནྟཱི	-10.5874
▁ཀེཝལསྶ	-10.5874
པིཊྛི	-10.5876
སམཱདཱན	-10.5879
ཡོནི	-10.588
▁བྷོཛ	-10.588
▁ཧོནྟཱི	-10.5882
ཱཡཔི	-10.5885
▁བྷཱཝེཏྭཱ	-10.5885
▁སཱགར	-10.5886
ཡུཏྟཱ	-10.589
▁ཨལངྐཏ	-10.5892
▁སུཏྟནྟ	-10.5899
▁ཀརོཧི	-10.5901
▁ཨཏུལ	-10.5903
▁ཙོརཱ	-10.5903
▁ཀཉྙཱ	-10.5905
▁ཀཏར	-10.5907
▁ཨདྷིཔྤཱཡེན	-10.5907
མཏི	-10.591
མདྷུར	-10.5914
བྷགཝཱ	-10.5915
▁སཀྱ	-10.5915
▁ཝིཔརིཎཱམ	-10.5915
▁ཋཔེཏི	-10.5916
▁མེཐུནཾ	-10.5916
▁སེལ	-10.5917
▁ཧོནྟུ	-10.592
▁ཨུདཔཱདི།	-10.5923
ཀྲིཡཱ	-10.5923
སཧགཏཱ	-10.5924
▁པཊིནིསྶཛྫ	-10.5924
བྷཱ	-10.5927
▁ཨཱརབྷ	-10.5927
▁ཨཱམ	-10.5931
ཉྩེཏྠ	-10.5933
ིཀཱནཾ	-10.5936
▁ནཱནུསེཏི	-10.5936
སཡན	-10.5939
ནིསྶིཏཱ	-10.594
ཨཏྟ	-10.594
▁རུཀྑཾ	-10.594
▁སངྒྷཱདིསེསསྶ།	-10.5943
ིནིཾ	-10.5945
▁ཕར	-10.5946
▁ཀརཎཾ	-10.5949
སིར	-10.595
▁པཱུརཎ	-10.595
▁ཡོནི	-10.5952
ཙེཏིཡ	-10.5954
▁བོདྷིསཏྟ	-10.5954
▁ཨཔརིཡཱཔནྣེ	-10.5955
ཝརཾ	-10.5957
▁ཡདིཔི	-10.5958
▁ཨནིམིཏྟ	-10.5959
ཉཱཎེན	-10.596
▁ཁགྒཝིསཱཎཀཔྤོ	-10.5963
▁ཨདིནྣཾ	-10.5965
▁གྷརཱཝཱས	-10.5968
▁ཝཱརི	-10.5968
▁ཝིཔཱཙེནྟི	-10.5969
ཀཱཡཱ	-10.597
▁ཀཐིཏཾ	-10.5975
▁མེཐུན	-10.5975
ིཡཱ།	-10.5976
▁སཱིལེསུ	-10.598
པཏྟི	-10.598
དྭི	-10.5983
▁གྷོས	-10.5989
▁ཨཱསན	-10.599
▁ཀཱཏབྦོ	-10.5992
▁ཉ	-10.5994
▁གོཏམཾ	-10.5995
▁ནིརོདྷཱ	-10.5996
▁ཨཏྠེཝ	-10.5997
▁ཨམར	-10.5997
བྷཡེན	-10.6
▁པཉྩིནྡྲིཡཱནི	-10.6002
▁དེཐཱ	-10.6002
▁གིལཱནོ	-10.6003
▁ཏཐཱརཱུཔ	-10.6014
▁པརིཉྙཱ	-10.6015
ནཾ༎	-10.6015
▁སམཱནཱ	-10.6018
▁ཨཡམ	-10.6019
ངྒཎ	-10.6021
▁ནཱིཙ	-10.6022
སཛྫ	-10.6025
▁པཊིཀྑིཏྟ	-10.6028
▁དེསེསྶཱམི	-10.6028
ཝཱསོ	-10.603
▁ནཱནཱཀྑཎིཀཱ	-10.6031
▁སམྤརཱཡིཀ	-10.6031
▁དསྶིཏོ	-10.6032
ཡུ	-10.6034
▁སངྒྷཱཊི	-10.6035
▁པཊིཛགྒ	-10.6035
▁པསྶདྡྷི	-10.6036
ུཎ	-10.6037
▁ཨཱཔ	-10.6037
▁ཏེསམྤི	-10.6038
ིཡཏི	-10.6038
▁སཛ྄ཛྷཱཡ	-10.6038
▁ཛཱཏོ།	-10.6038
ཏྠུ	-10.6039
▁མུནིནྡ	-10.6039
▁ཨུཔཀྐམ	-10.604
▁ཙཏུཏྠཛ྄ཛྷཱན	-10.6041
▁ཧེཝ	-10.6042
ཐེར	-10.6044
ིདྷ	-10.6044
པཱཡ	-10.6044
▁སུཏནྟི	-10.6045
▁ཝུཏྟཉྷི	-10.6045
▁པུཐུཛྫནསྶ	-10.6046
▁པུམ	-10.6048
▁སམྨཱཝཱཙཱ	-10.605
ཧཏྠོ	-10.6054
▁དཱིགྷོ	-10.6055
▁དསྶིཏཱ	-10.6056
▁ཚནྡརཱག	-10.6057
གུཎཾ	-10.606
ཝཌྜྷ	-10.6063
▁ཏཱཝདེཝ	-10.6065
▁ཨོཝད	-10.6067
▁དེཝམནུསྶེསུ	-10.6067
▁ཨནཱཔཏྟཱིཏི	-10.6067
▁སུཏེན	-10.6068
▁ཀཱརཱཔ	-10.6069
▁ཨཝིཏཀྐཨཝིཙཱར	-10.607
▁ཧཏྠཱི	-10.6074
ཝིདྷི	-10.6074
▁ཀམྤ	-10.6076
▁བྷུམྨ	-10.6077
▁བྷཱཝེནྟོ	-10.608
▁ཨདྷིཔྤེཏོ།	-10.608
▁ཝཙཱི	-10.6082
▁བྷོཛནེ	-10.6085
▁དིསྶནྟི	-10.6087
▁ཏཎྷ	-10.6088
▁ནིཡམ	-10.609
པྤཧཱནཾ	-10.6093
དྷརཱ	-10.6094
▁ཨདུཀྑམསུཁཾ	-10.6095
▁སིསྶ	-10.6097
▁སརིཏྭཱ	-10.6099
▁བྷོགཱ	-10.6101
▁ཀཱཏབྦོ།	-10.6104
པཊིཙྪནྣ	-10.6105
ཁཎྜ	-10.6105
▁ཏཐཱགཏེན	-10.6105
▁ཀོཊྛཱས	-10.6106
ེཡྻཱམ	-10.6109
▁སཙྩིཀཊྛཔརམཏྠེནཱ	-10.6109
བྲཧྨཙརིཡ	-10.6111
▁མུཙྩ	-10.6111
རཱུཔེ	-10.6113
▁ཨརཧ	-10.6114
ཀཱལིཀ	-10.6117
▁བྷཝིཏབྦཾ	-10.6119
ཝིསྶཛྫན	-10.6121
▁སཱིསེ	-10.6122
▁པསྶེཡྻ	-10.6123
དྷརོ	-10.6123
▁དྷམྨཙཀྐཾ	-10.6126
▁ཨཀཾསུ།	-10.6126
▁སམཐོ	-10.6127
ནཱནཱ	-10.6127
▁སདེཝཀེ	-10.6128
དཏྟ	-10.6128
▁ཝིཔལླཱས	-10.6129
▁ཨོཏརིཏྭཱ	-10.6131
ིཏྭཱཏི	-10.6131
▁པསཏྠ	-10.6132
▁ཝིཔུལཾ	-10.6132
▁པཛྫ	-10.6132
▁པདཱནཾ	-10.6133
མཱཏིཀཱ	-10.6133
▁མེཏྟཾ	-10.6135
▁ཨཉྙཱཎཾ	-10.6138
▁ཁེཏྟཾ	-10.6139
ཱདིབྷེདཾ	-10.614
པཏྟཾ	-10.6143
▁སིཉྩ	-10.6144
▁ཡེཝ	-10.6148
▁རཱགཱདི	-10.6149
▁སམྦཧུལེ	-10.615
▁པབྷཱ	-10.6152
▁པརིབྦཱཛཀོ	-10.6153
ནྡྷཀཱར	-10.6156
▁ཎོ	-10.6158
▁པནེས	-10.6162
▁མནོཝིཉྙཱཎདྷཱཏུ	-10.6163
▁ཨིསྶརོ	-10.6166
ེསྶཏི	-10.6167
སངྑཏ	-10.6168
▁དེཝཔུཏྟ	-10.6169
▁ཕུསྶ	-10.6169
ཀཏམཱ	-10.6169
▁ཝིཙིན	-10.6171
བྷེསཛྫ	-10.6171
▁གཡ྄ཧ	-10.6171
སམཾ	-10.6172
▁པརིཡོསཱན	-10.6173
ཡཱ།	-10.6175
▁ཧཱིནཾ	-10.6177
སཱདྷཱུ	-10.6177
ཀུཊི	-10.6181
▁གཧིཏཏྟཱ	-10.6185
ནཱིཝརཎ	-10.6187
▁ཀཐེཏབྦ	-10.6189
▁ཨམནུསྶ	-10.6189
▁པཊིཀྑིཔཏི།	-10.6192
▁ནིབྦཏྟི།	-10.6194
▁ཀཐེཏུཾ	-10.6196
▁ཨནུཡུཉྫ	-10.6196
▁བྷེསཛྫཾ	-10.6197
▁སིརསཱ	-10.6198
ཀསིཎ	-10.6205
▁ཀུཊི	-10.6205
▁རཱསི	-10.6206
ཐཱཏི	-10.6207
▁པདེས	-10.6207
▁ཙཱིཝརེ	-10.6208
པཀཱར	-10.6209
▁པརིཙྪེདོ	-10.6209
▁ནིསཱིདིཾསུ།	-10.6211
ེཧེཝ	-10.6212
▁ཉཱཎསྶ	-10.6216
▁ཨཔྤཧཱིན	-10.6216
ཏེལ	-10.6218
▁རཊྛཾ	-10.6221
▁དྷཱུམ	-10.6223
▁ཨཱནིསཾས	-10.6224
▁ཨུཔཱདིནྣ	-10.6224
ཝཏྠུཀཱ	-10.6234
▁བཱཧུ	-10.6236
▁རཱུཔཱཝཙརཱ	-10.6238
▁ཁཱདནཱིཡཾ	-10.6245
ཏྠནྟི	-10.6246
▁སམཱཔནྣསྶ	-10.6247
རཝ	-10.6252
▁མམཾ	-10.6253
མཾསཾ	-10.6254
▁ཁྭཱཧཾ	-10.6255
▁དིས	-10.6255
▁ཏཐཱགཏ	-10.6256
ཀལྱཱཎ	-10.6258
▁གུཎཝནྟ	-10.6261
ནིཡམ	-10.6261
▁མཉྙམཱནོ	-10.6262
ཝིནོདན	-10.6264
ཾསུ	-10.6265
▁ཨཀྑི	-10.6265
བྷདྡ	-10.6269
▁ཀཱརཀ	-10.6269
▁མུཉྩིཏྭཱ	-10.627
པདེས	-10.6276
▁ཨསྨིཾ	-10.6278
▁ཨཱཙརིཡསྶ	-10.6283
▁སཾསར	-10.6285
ཨིདཱནི	-10.6286
ཝཱ།	-10.6287
དོསོ	-10.6287
▁ཨཱརམྨཎཔུརེཛཱཏཾ	-10.6288
▁སཝིཏཀྐསཝིཙཱརཱ	-10.6288
ལོཙན	-10.6288
ཏཱཏ	-10.629
▁ཏིདྷཱ	-10.629
▁མཱལཱ	-10.6291
ེཏབྦོ།	-10.6292
▁སེནཱ	-10.6296
▁པཧརིཏྭཱ	-10.6298
▁མནུསྶེ	-10.63
▁ཧཏྠཔཱད	-10.6301
ཉྩཱཔི	-10.6302
▁ཀརོམི	-10.6305
དསྶཱི	-10.6307
ེམཱི	-10.6307
པཙྩཡེ	-10.6308
▁ཨཱརཀྑ	-10.6308
▁པལླངྐ	-10.6309
▁ཝིབྷངྒ	-10.631
▁མགྒཱརམྨཎ	-10.631
▁ཨཙྪརཱ	-10.6311
▁པརིནིབྦུཏོ	-10.6318
▁ནིཔཱཏོ།	-10.6322
མཱི	-10.6328
▁ཀཱམབྷཝ	-10.6329
▁པཙྩནཱིཀ	-10.6331
▁དེསེནྟོ	-10.6334
▁སམཐེཧི	-10.6335
ལིཀ	-10.6335
ཀཎྜ	-10.6335
▁ལབྷནྟི	-10.6339
ཨེཧི	-10.6339
▁པརཱ	-10.634
▁རཏནཾ	-10.634
མོད	-10.6342
▁ཝིཛྫ	-10.6343
ཊཀ	-10.6343
མརཎ	-10.6344
ཏིསྶོ	-10.6344
▁ཡུཛྫཏི	-10.6347
དུསྶ	-10.6349
▁ཙཎྜ	-10.6351
▁ཨཡོ	-10.6353
ཙིཏ	-10.6353
▁དསྶཱམཱི	-10.6354
▁ཨབྷིབྷཝ	-10.6364
སམཡ	-10.6365
སཱཝཀ	-10.6367
▁སཉྙོཛནསམྤཡུཏྟ	-10.6367
▁ཨེཏཱཡཱཏི	-10.6372
སགྒ	-10.6374
▁ཨུཔེཀྑཱཡ	-10.6375
▁པཐཝིཡཾ	-10.638
▁ཝཏྠུསྨིཾ།	-10.638
ཀཱརཀོ	-10.6381
▁ཨཱཛཱན	-10.6382
▁གཙྪནྟེ	-10.6382
▁སཀྑི	-10.6383
སམྦྷཱར	-10.6384
ཝིམུཏྟ	-10.6384
▁པུནཔི	-10.6384
▁བྱཱཔཱདོ	-10.6386
པཊིཔདཱ	-10.6386
▁ཨགྷ	-10.6386
ནིདྡེསོ།	-10.6387
▁ཨཱརམྨཎཱུཔནིསྶཡོ	-10.6387
▁མཧེསི	-10.6387
▁ཀརོཐཱ	-10.6388
▁མཏྠཀེ	-10.6392
ཊྛཀ	-10.6393
ཏྠཾ།	-10.6396
ིཡཾ།	-10.6397
▁གཱརཝ	-10.6397
▁ཨནིཡྻཱནིཀ	-10.6397
▁སུཔིན	-10.6397
▁ནཱགརཱཛཱ	-10.6399
▁སཏྟི	-10.64
▁དེཝཱི	-10.6403
མནྟོ	-10.6411
▁བྷཝེསུ	-10.6412
བཧུལ	-10.642
▁ཨུཔྤཛྫནཀ	-10.6423
▁སརོ	-10.6426
ཝཱཙཀ	-10.6426
▁ཕལསམཱཔཏྟིཡཱ	-10.643
▁ནིདསྶན	-10.643
ཱནུལོམ	-10.6431
པཱུཛ	-10.6431
▁དྷཱཏཱུནཾ	-10.6432
▁སཉྩིཙྩ	-10.6432
▁ཝིཙིཏྟ	-10.6432
▁ཝིཀཱལེ	-10.6436
ཉྙཱཏ	-10.6437
ནྟོ།	-10.6438
▁ཀུཀྐུཊ	-10.6439
▁ཏཱཔསོ	-10.6442
▁ཏཱཧི	-10.6442
▁རཛོ	-10.6442
▁ནཨཧེཏུཀ	-10.6443
▁པུབྦེནིཝཱས	-10.6446
▁གཱཡ	-10.6446
▁ཛརཱཡ	-10.6447
▁ཨཱཀིཉྩཉྙཱཡཏན	-10.6449
▁པཱཀཱར	-10.6452
▁ཀུལགེཧེ	-10.6454
▁དུཀྐཊནྟི	-10.6456
ཡམཱནཱ	-10.6458
སུཁཱཡ	-10.6458
ཛཱཏཀེ	-10.6459
ཉྫན	-10.6459
▁སཾསརནྟོ	-10.646
▁ཀཐེཏི	-10.646
དཱིཔན	-10.646
▁ཏིརཙྪཱནགཏ	-10.6461
▁བྷིཀྑཝོ	-10.6462
▁མནཱཔཱ	-10.6462
▁སེསཱནི	-10.6463
▁ཧེཏྠ	-10.6464
▁ཨནྟིམ	-10.6467
▁ཨིཏྠནྣཱམོ	-10.6468
▁ནིརཱམིས	-10.6471
▁པབྷུཏི	-10.6471
▁ཝཏྟམཱནེ	-10.6472
ཙརིཏ	-10.6473
▁དུཏིཡཛ྄ཛྷཱན	-10.6474
▁ཨཱདིཡ	-10.6474
▁པུརིསེན	-10.6475
▁པཧཱིནཏྟཱ	-10.648
▁ཨཏིཀྐནྟ	-10.6486
པཱཎ	-10.6486
▁ནིརནུསཡོ	-10.6486
▁ཨཔཙཡགཱམི	-10.6487
▁ཨནྟརཱམགྒེ	-10.649
▁ཨབྦྷནྟརེ	-10.6491
▁ཀཐིཏཱ།	-10.6492
▁དེཧཱི	-10.6493
ཱནུཡོག	-10.6494
▁ཏུམྷ	-10.6501
ཀྑནྡྷཀ	-10.6503
▁ཨཱརབྷཏི	-10.6505
▁དེཝཏཱནཾ	-10.6506
▁ཝཀྑམཱན	-10.6507
ཱནུཔསྶནཱ	-10.6508
▁སམཱདྷིསྨིཾ	-10.6509
ཧཱརོ	-10.6511
▁ཨཱརོཧ	-10.6513
▁བྷིཀྑུསངྒྷོ	-10.6513
ཡཱམ	-10.6513
ིཏཱཏི	-10.6517
▁མུཁེན	-10.6517
▁ཝིབྷཱཝ	-10.6518
ཀསྨཱ	-10.6519
▁པསྶཾ	-10.6519
▁པཏྟཙཱིཝརམཱདཱཡ	-10.6521
▁མཧལླཀ	-10.6522
▁ནཁ	-10.6523
▁སུདྡྷཱཝཱས	-10.6523
▁ཧོཧི	-10.6524
▁ཝསྶསཏ	-10.6526
ཝིམོཀྑ	-10.6526
▁ཝིཔཱཀཔཙྩཡ	-10.653
མཱུལེ	-10.6531
▁ཛམྦུ	-10.6533
▁ཨཱརཱདྷ	-10.6534
▁སནྟཱནེ	-10.654
▁ཡོགོ	-10.6541
▁ནིབྦཏྟཱ	-10.6542
▁ཨདྡས	-10.6545
▁སཱཁཱ	-10.6546
ྭ	-10.6549
▁ཀུལཱནི	-10.6549
མཱུལཾ	-10.655
ཨིམསྨིཾ	-10.655
དྭཡེ	-10.655
ཀོ༎	-10.6553
▁པཱུརིཏ	-10.6555
▁ཛནཾ	-10.6557
▁སམནྣཱགཏེན	-10.6559
ཡོགོ	-10.6563
▁ཨནུཔྤཏྟོ	-10.6565
▁སམཱདྷིནྡྲིཡཾ	-10.6565
ཡསྨིཾ	-10.6566
སཱིལཱ	-10.6566
▁ཝཛྫེཏྭཱ	-10.6568
▁ཏུཙྪ	-10.6568
བྷཱསིཏ	-10.6572
ེཏུནྟི	-10.6575
▁སིཡུཾ	-10.6577
▁ཡོནིསོམནསིཀཱར	-10.6577
ཀཉྩ	-10.658
▁པསཱདོ	-10.658
▁མཛ྄ཛྷཏྟ	-10.658
▁པཱུཛཱ	-10.6581
ནར	-10.6584
▁སཾཡོག	-10.6592
རཛ	-10.6594
▁རཱུཔིཡ	-10.6597
སཏིཔཊྛཱན	-10.6597
▁ཧཏ	-10.6599
▁སམཱདིནྣ	-10.6605
▁སངྒྷཱདིསེས	-10.6605
▁ཝིཀཱར	-10.6606
▁སུདྡྷི	-10.6609
▁ཙརནྟོ	-10.661
ིདྡྷི	-10.6614
▁དེསིཏ	-10.6614
ཙཏུཏྠ	-10.6615
▁དྷམྨཀཐཾ	-10.6616
▁ཨགཱརཾ	-10.6616
ཀྐམེན	-10.6618
ིཏཱ༎	-10.6622
ུཀྐ	-10.6624
▁བལཱནི	-10.6625
▁ཏཛྫ	-10.6626
▁ཨུཏྟརིམནུསྶདྷམྨ	-10.663
▁ཏེཛོ	-10.6632
གཱརཝ	-10.6634
དསྶ	-10.6641
▁སམྨཱཝཱཡཱམོ	-10.6642
▁གཙྪནྟཾ	-10.6645
▁ཨུཔཊྛ	-10.6646
▁ཨེཀཾས	-10.6648
མཱཏཱ	-10.6649
▁ཀེསཱ	-10.6649
▁ཨུཔསམ	-10.665
▁སེཡྻཾ	-10.6652
▁སབྦེཧི	-10.6652
▁པཱཋ	-10.6652
སམངྒི	-10.6656
▁ཚབྦིདྷ	-10.6657
ཀཱརེན	-10.6658
▁ཨེཀནྟེན	-10.6659
▁པམོད	-10.6661
ཝཏྟན	-10.6665
▁མི	-10.6667
▁པརིཝཱརེཏྭཱ	-10.6667
▁ནིདཱནཾ	-10.6669
ནིནྣ	-10.6673
▁རཱགཾ	-10.6673
▁པུཙྪནྟོ	-10.6674
▁པབྦཏེ	-10.6674
▁ཕལཱནི	-10.6675
ིཏསྶ	-10.6678
▁པཏིཊྛཧ	-10.668
གུཎཱ	-10.6683
ཀུམཱརོ	-10.6684
བྦྷནྟརེ	-10.6687
སབྷཱཝོ	-10.6687
▁ཨཱཔནྣ	-10.6689
ཨཱདཱིཧི	-10.6689
དཱཡཀོ	-10.669
▁ཨཔརཱཔརཾ	-10.669
ཱནུབནྡྷ	-10.6691
▁ཀུབྦ	-10.6693
▁སཱཡཾ	-10.6696
ནཝིཔཱཀདྷམྨདྷམྨོ	-10.6697
པལ	-10.6698
པུརེ	-10.6707
▁དུར	-10.6709
▁ཨོཏྟཔྤ	-10.671
ཡཏྠ	-10.6714
▁ཨདྷམྨོ	-10.6716
▁ཝུཊྛ	-10.6716
གཱམཱི	-10.6716
▁ཏེཛ	-10.6716
▁དྷནེན	-10.6719
▁ཏསྶཱཔི	-10.6726
▁ཨཧེཏུཀཔཊིསནྡྷི	-10.6726
▁ཨཙལ	-10.6727
▁སཎྷ	-10.6727
▁ནནྡི	-10.6732
▁༡༣༠	-10.6732
▁ཝཌྜྷཏི	-10.6735
▁ཨདྡསཾ	-10.6736
▁བྲཧྨཙརིཡ	-10.6736
▁པཉྩཝོཀཱརེ	-10.6736
▁པཀཱསིཏཱ	-10.6736
▁པཝ	-10.6739
ཀཐཱཡཾ	-10.6741
▁སམྦྷཝོ	-10.6741
▁དྷཱིརཱ	-10.6747
དིནྣ	-10.6749
▁ནཱནཱཝིདྷ	-10.6749
▁བྷཝཏི།	-10.675
▁པརམཾ	-10.6751
▁པཀྑེ	-10.6752
རཱུལ༹ྷ	-10.6753
དཱམ	-10.6757
▁ཝེདན	-10.676
▁བྷངྒ	-10.676
▁བྷཱུཏཾ	-10.676
▁ཏིབྦ	-10.676
ཛཱཏཾ	-10.6761
▁བྲཧྨལོཀེ	-10.6761
བྷཱགེ	-10.6762
▁ཨཱཧཙྩ	-10.6763
▁ཨདྷམྨིཀ	-10.6764
▁པཙྩཱ	-10.6765
ཧམསྨི	-10.6768
ཨམྷཱཀཾ	-10.677
▁དྷཱརེཏི	-10.677
▁སཾཡོཛནཱནཾ	-10.6774
▁གཎན	-10.6774
ཨདྷི	-10.6775
▁ཨུཔཌྜྷ	-10.6781
▁ཨནཱསཝཱ	-10.6785
པརིཝཱར	-10.6787
▁ཨཉྫན	-10.6788
▁ཨནཱསཝཾ	-10.6793
ཱནུསཱརེན	-10.6795
སྶཱམ	-10.6797
▁ཨུཔྤཛྫནྟཱིཏི	-10.6797
ཝཱིསཏི	-10.6798
▁པུཙྪིཏབྦཏྟཱ	-10.6799
▁བྷཱཝིཏཏྟཱ	-10.68
▁ཝཱཡམཏི	-10.6801
▁༡༢༩	-10.6803
▁ཚཝི	-10.6809
▁ཨཱསཡ	-10.681
▁ཝེཡྻཱཀརཎ	-10.6811
གྷོས	-10.6811
པུཎྞ	-10.6813
▁བྷཱཝིཏོ	-10.6815
ིཀོ།	-10.6816
▁པཡོཛ	-10.6818
▁ཝིཔསྶིསྶ	-10.6826
▁ཝེགེན	-10.6826
▁དྷམྨསྶཝན	-10.6827
▁ཨདཱ	-10.6829
ུཏྟམ	-10.683
རོདྷ	-10.6832
▁དྷཱརཡ	-10.6834
▁པུརིམབུདྡྷ	-10.6835
▁སིཀྑཱཔདཱནི	-10.6836
▁སམཱཔཛྫིཏྭཱ	-10.6836
ཱཝཙར	-10.6837
ཀཱིལ༹	-10.6837
▁པབྷཝ	-10.6838
▁ཝིཙཱར	-10.6843
▁ཙེཏི	-10.6844
▁ཨཱདིཏྟ	-10.6844
▁དྷུཏངྒ	-10.6845
ིཡམཱནཾ	-10.6845
གེཧ	-10.6845
▁ནེཏྟ	-10.6846
▁ཨཝཎྞཾ	-10.6846
▁ཨནཱགཏཱ	-10.6848
པཏྠ	-10.6848
▁པཊིཙྪཱད	-10.685
▁མཱལ	-10.685
▁པཎཱམ	-10.6851
▁མེགྷ	-10.6851
▁པཝིཊྛོ	-10.6851
▁སཱདིཡ	-10.6852
▁ཕུཊྛ	-10.6852
▁ཀུཧིཾ	-10.6856
▁སངྐཔྤ	-10.6856
ཀྑི	-10.6858
མནྡ	-10.6858
▁མཧཱཛན	-10.6863
▁པཙྪིམཾ	-10.6863
▁ཨཏིཀྐམྨ	-10.6863
▁ཨིམཱནེཏྠ	-10.6864
▁ཀཡིརཱ	-10.6864
▁ཏེསནྟི	-10.6865
▁ནརཱ	-10.6865
▁སབྦེསམྤི	-10.6866
▁སཱིགྷ	-10.6869
▁ཝེསྶནྟར	-10.6869
▁གོཏྟ	-10.687
▁ཏོས	-10.6873
▁པརིབྦཱཛཀ	-10.6875
▁གུལ༹	-10.688
ཱདིཀོ	-10.6882
ེཡྻཱསི	-10.6883
▁མནུསྶལོཀེ	-10.6883
▁ནུཔྤཛྫཏི།	-10.6886
པཊིཀྑེཔ	-10.6889
▁པརིཀམྨཾ	-10.6891
▁སཀྐཱཡ	-10.6897
▁ཝཏྠཱུནི	-10.6897
▁ཛཱཏཱ།	-10.6899
དཎྜཀ	-10.69
གྒེ	-10.6901
ཱདཱིནཉྩ	-10.6905
ུཔཱདཱན	-10.6906
▁རཏི	-10.6907
▁ཨུདཱན	-10.6907
▁ཨུདཱཡི	-10.6914
▁པུཉྙཀམྨ	-10.6914
▁དེསེསི།	-10.6916
▁གོཏྟེན	-10.6916
▁ཐེཡྻ	-10.6918
▁ཀུཀྐུཙྩ	-10.6919
▁ཨཊྛཀཐཱཡ	-10.6921
དཱིཧི	-10.6922
ཝིརཱག	-10.6922
▁རཱུཔཱཝཙརཾ	-10.6923
▁ཨནིདསྶནཨཔྤཊིགྷཾ	-10.6926
▁ནཔྤ	-10.6927
▁ཨུཊྛཧ	-10.6927
▁མཧཱམོགྒལླཱནོ	-10.693
གུཏྟ	-10.6934
▁ཨིམཉྩ	-10.6935
▁བྷཱཝཡ	-10.6935
▁ཝེདྷ	-10.6935
▁བྷཱཛ	-10.6938
▁མུཁེ	-10.6939
ེཏ	-10.6942
▁སམཱཔནྣོ	-10.6942
ཱམི།	-10.6943
▁སཾཝཏྟནྟི	-10.6944
▁ཨནུམོད	-10.6944
▁ཨིསྶརིཡ	-10.6945
▁ཨེཀེཀཾ	-10.6946
▁ཡཱཐཱཝཏོ	-10.6946
▁ཀཎྚཀ	-10.6947
▁ཨཱཛཱིཝ	-10.6948
མུཙྩ	-10.6949
▁ཨཱབཱདྷ	-10.6949
ཀྑཡ	-10.695
▁ཏིཊྛཏཱིཏི	-10.695
ཏཱཡ།	-10.695
པམཱཎ	-10.6952
▁ཨནུརུདྡྷ	-10.6954
▁ཨཡམསྶ	-10.6956
▁ཝཎ	-10.6958
ནུཔཱདིནྣུཔཱདཱནིཡ	-10.6959
▁སཏྟེསུ	-10.696
▁༡༣༥	-10.6961
▁གཎྷནྟི	-10.6961
▁ཀམྨུནཱ	-10.6962
▁སྭཱ	-10.6963
ཀཱས	-10.6964
དྷཱཏུཡཱ	-10.6964
▁ཙཎྜཱལ	-10.6967
▁ཏིཝིདྷཱ	-10.6967
▁ཨུདཡ	-10.6968
མཱཡ	-10.6968
▁སབྷཱཝཏོ	-10.6969
▁ཙེཏིཡཾ	-10.6972
ཀནྟ	-10.6972
▁ཨརཎོ	-10.6973
▁ཨཉྙཏརསྶ	-10.6975
ིཏཾ༎	-10.6975
པྤཡོག	-10.6978
▁ཋཔིཏཾ	-10.698
▁པབྦཛྫ	-10.6982
ིསྶནྟི།	-10.6982
ཝཱདིནོ	-10.6983
▁བྷཱུཏཱ	-10.6985
▁སཱིཧནཱདཾ	-10.6986
▁གྷཱནཾ	-10.6988
▁ནིརོདྷཾ	-10.6991
▁སམྨཱསམྦུདྡྷསྶ༎	-10.6992
▁ཀུཙྪིཏ	-10.6992
ཀྑཱ	-10.6992
▁བྷཱཛན	-10.6992
ི༎	-10.6996
▁པརིཛཱནཱཏི།	-10.7001
▁བྷདྲ	-10.7003
▁སོཏྠི	-10.7005
ཕནྡ	-10.7006
▁༡༣༣	-10.7007
▁ཙེཏོཝིམུཏྟིཾ	-10.701
▁༡༤༠	-10.7012
▁རཱུཔཀྑནྡྷ	-10.7012
▁པཀཱསེཏྭཱ	-10.7014
▁སཱསནསྶ	-10.7018
▁པཱཎཾ	-10.702
པརིཙྪེདོ	-10.702
▁སཱུར	-10.7022
ིཏབྦོ།	-10.7022
སཏྟི	-10.7023
▁པཏིཊྛིཏོ	-10.7023
▁ཨཱཀིཉྩཉྙཱཡཏནཾ	-10.7023
ཝཌྜྷན	-10.7025
▁དྷམྨདྷཱཏུ	-10.7027
པཱསཱཎ	-10.7028
▁པགྒཎྷ	-10.7028
▁སཾཡོཛནཱནི	-10.7029
▁ཨསམཏྠ	-10.7032
▁ཚཏྟཾ	-10.7033
▁ཀཱརེསི	-10.7035
▁པཀྐོསཱཔེཏྭཱ	-10.7041
སཱིཧ	-10.7042
▁ཚཏྟིཾས	-10.7043
ཝུཏྠ	-10.7043
ཨིམསྶ	-10.7043
▁ཨཱལཡ	-10.7044
ཨེས	-10.7044
ཎེ	-10.7046
ཡིཾ	-10.7048
▁ཝིམུཏྟོ	-10.7048
▁ཨབྷིབྷཝིཏྭཱ	-10.7049
མདྡ	-10.7049
▁རོཙ	-10.705
▁མཱཏུགཱམོ	-10.7052
ུད	-10.7052
ཧེཏཱུ	-10.7063
▁ཛཱཏིཡོ	-10.7064
▁ཉཏྟི	-10.7068
ཙཀྐཾ	-10.7069
▁༡༣༢	-10.7071
▁མཧནྟོ	-10.7071
▁བཧུཛན	-10.7074
▁ཨཱིདིས	-10.7075
▁ཨུཏྟཱནཏྠམེཝ།	-10.7076
གོཙརོ	-10.7082
▁གརུཀ	-10.7084
▁ཨཝསེསཾ	-10.7084
▁ཨེཝམེཏསྶ	-10.7088
▁ལོཧིཏཾ	-10.709
▁ཝིཛིཏ	-10.709
སུཏྟནྟ	-10.7091
▁པརིཀཔྤ	-10.7091
▁ཏཡིདཾ	-10.7092
▁དྷུརཾ	-10.7094
ེཝསཉྙཱནཱསཉྙཱཡཏནཾ	-10.7094
སཾཀིལེས	-10.7097
ིཏྭཱ།	-10.7103
▁མཱནུསཾ	-10.7104
▁དིཝས	-10.7112
ཊྛཱནཾ།	-10.7113
རཱུཔེན	-10.7114
▁ཝིཉྙཱཔེཏྭཱ	-10.7114
▁ཀརཎཱིཡ	-10.7115
▁ཨིནྡྲིཡེསུ	-10.7116
▁པུརེཛཱཏསྶ	-10.7117
▁༡༣༧	-10.712
སཱིམཱཡ	-10.7121
▁ཨོལོཀ	-10.7121
ནྟྱ	-10.7121
▁ཝིནྡ	-10.7124
པུབྦེ	-10.7125
▁ཀཱརིཏ	-10.7133
ིཏཱཡ	-10.7135
▁པཧཱུཏ	-10.7136
▁པཊིབཱཧ	-10.7139
▁དུཝིདྷ	-10.7144
▁ཝིཧརཏཱི	-10.7145
ཱདིམྷི	-10.7146
▁ཨེཀཛ྄ཛྷཾ	-10.7148
▁པཧ	-10.7151
▁སུཔ	-10.7152
▁ཨེཏནྟི	-10.7152
▁༡༣༨	-10.7155
ཀྑཎ	-10.7156
▁གཙྪནྟསྶ	-10.7157
པཉྩིམེ	-10.7158
▁མཏྠཀཾ	-10.7159
▁སགྒེ	-10.7161
▁ཨཔྤམཱཎཾ	-10.7161
▁གུཎེཧི	-10.7163
▁བྷིཀྑཾ	-10.7164
▁ཨུདྡྷཙྩསཧགཏོ	-10.7166
▁ཨནཱདརིཡཾ	-10.717
▁ཨཱསཝོ	-10.717
▁ཨཱཎཱ	-10.7171
▁རསོ	-10.7172
▁ཝིམཱནཾ	-10.7173
▁པུགྒལིཀ	-10.7174
ཨེཏ	-10.7177
▁ཨཧེཏུཀོ	-10.7178
▁པཎྞཏྟི	-10.7179
ཙཏྟཱརོམེ	-10.7179
ཡོགེན	-10.7182
▁ཨུཔཔཛྫཏི།	-10.7183
▁པསེནདི	-10.7183
▁སཀཝཱདིསྶ	-10.7184
▁པཱདཾ	-10.7187
▁ཀརོཧཱི	-10.7188
▁པརིཉྙཱཏ	-10.7189
▁ཏེཛོདྷཱཏུ	-10.7192
▁ཨདྷིཔྤེཏཱ	-10.7192
▁པཱཡ	-10.7193
▁ཝིནིཔཱཏཾ	-10.7195
▁སལཱ༹ཡཏན	-10.7196
▁ཋཔེསི།	-10.7198
▁ཨོཀཱསོ	-10.7199
▁བྲཱཧྨཎཱནཾ	-10.7205
▁ཙལ	-10.7206
▁བྷཀྑ	-10.7208
▁རཱདྷ	-10.7208
▁ཝུཏྟི	-10.7209
▁རོཔ	-10.7209
▁ཏིཝིདྷོ	-10.7212
པརིཡནྟ	-10.7212
▁ཙིཏྟུཔྤཱད	-10.7215
པཉྩཧི	-10.7218
▁ཀཱཡཱནུཔསྶཱི	-10.7221
▁སརཱུཔ	-10.7222
བྷེདེ	-10.7229
▁པཏིཊྛཱཔ	-10.7229
▁དྷོཝིཏྭཱ	-10.7229
▁ཨསནྟ	-10.723
▁ཀཱརིཏེ	-10.7234
▁རསཱ	-10.7236
▁སུགནྡྷ	-10.7237
ིཏོཏི	-10.7237
སམུདཡོ	-10.724
▁ཨརིཡསཙྩ	-10.7241
▁སཙྩཱ	-10.7242
བུདྡྷི	-10.7243
▁བྷིཀྑུནི	-10.7245
▁ཝིརུདྡྷ	-10.7246
▁སཏྟུ	-10.7246
རེ༎	-10.7247
▁དཊྛབྦ	-10.725
ནསྶ	-10.725
▁ཁཛྫ	-10.7252
ཝཱཙཱ	-10.7252
▁སུཔྤཏིཊྛིཏ	-10.7256
རུཙི	-10.7256
▁མཧཱསཱཝཛྫ	-10.7257
▁ཡཏྲ	-10.7258
▁པཉྩསཏ	-10.7259
▁ཀཏཱདྷིཀཱརོ	-10.7259
▁མོཧཾ	-10.726
▁མཱརསྶ	-10.7261
དྭཱརཾ	-10.7262
▁ཝུཌྜྷི	-10.7264
▁བྷསྶ	-10.7268
▁སམཎཾ	-10.7268
▁༡༣༡	-10.7269
▁སངྑེཔོ	-10.7271
▁ཨུགྒ	-10.7271
ུཔེཀྑཱ	-10.7274
▁ཝིསཡེ	-10.7276
▁བྱགྒྷ	-10.7276
▁ཕསྶཔཙྩཡཱ	-10.7277
སཾཡུཏྟཾ	-10.7277
▁པརཱམས	-10.7279
▁དུཊྛུལླ	-10.728
སོམནསྶ	-10.7281
ཱིར	-10.7281
པུཏྟཱ	-10.7281
▁སནྟཏི	-10.7284
▁ནཱིཝརཎཱ	-10.7286
▁ཨུཔཱསཀཱ	-10.7291
ཨཏྟནོ	-10.7291
ཝཱཧན	-10.7291
▁དེཝརཱཛཱ	-10.7291
▁པཙྪཱབྷཏྟཾ	-10.7293
ཏྠཱཡཱཏི	-10.7295
▁པབྷེད	-10.7299
ནྟེསུ	-10.7299
ཱཝརཎ	-10.7302
དྷཱཏཱུཏི	-10.7305
▁སནྟཱ	-10.7307
▁ཀཱཡཝིཉྙཱཎསྶ	-10.7308
▁༡༣༤	-10.7311
▁ཧེམ	-10.7316
▁པཧཱར	-10.7319
▁ཛནྟུ	-10.732
▁ནིསྶཡོ	-10.7321
དན	-10.7323
▁སམྨཱསངྐཔྤོ	-10.7324
▁གཛ	-10.7328
▁ཨཔགཏ	-10.7328
▁ཛཱཏིཾ	-10.7328
▁ཧཱ	-10.7331
▁བྷཱཝེཏབྦཱ	-10.7331
སབྦཾ	-10.7332
བྷུ	-10.7334
▁ཁལུ	-10.7334
▁ཝིསྶཛྫེཏྭཱ	-10.7334
ཀཱཡཾ	-10.7335
ནཡེ	-10.735
▁བཧཱུནཾ	-10.735
▁ཨལོབྷ	-10.7352
ཝིནིཙྪཡ	-10.7353
▁ཝིཔཱཀཱ	-10.7354
གིལཱན	-10.7355
▁པཀྑནྡ	-10.7356
▁དེཧཾ	-10.7356
ཀུལཾ	-10.7357
▁ཨཏཱིཏཱ	-10.7357
ཨིཙྩེཏ	-10.7363
▁མཱཏཱཔིཏཱུནཾ	-10.7365
▁ཀཱཏབྦཱ།	-10.7371
▁མུཙྩཏི	-10.7373
▁ནིབྦཱནཉྩ	-10.7374
ནིཡ	-10.7378
▁ཝཱིརིཡིནྡྲིཡཾ	-10.7381
▁པཧོཏི	-10.7382
▁བྷགིནཱི	-10.7382
▁ནིརུཏྟི	-10.7383
▁ཡཉྷི	-10.7383
▁གཎྷཐཱ	-10.7385
པཊིཔདཾ	-10.7385
▁ཨུཏྟམོ	-10.7387
ཱནིསཾས	-10.7388
ཝརོ	-10.7388
སེཊྛི	-10.739
▁ཀོསཛྫ	-10.739
▁ཝིགྷཱཏ	-10.7391
ཝསཱ	-10.7391
▁སམཱཔཛྫ	-10.7393
▁ཨསངྒཧིཏཱ།	-10.7398
པཱུརཎ	-10.7399
▁ཨོཏཱར	-10.74
▁བྷིཛྫ	-10.7401
▁ཨུཏྟཱནམེཝཱཏི།	-10.7402
▁སཾསཡ	-10.7402
▁ཝིསྶཛྫན	-10.7403
ནིདཱནཾ	-10.7404
▁སམཉྙཱ	-10.7405
▁སཀྐསྶ	-10.7406
ལཀྑཎེན	-10.7406
▁ཏེནུཔསངྐམིཾསུ	-10.7409
▁ཛྷཱནཱ	-10.7409
▁པཀྐམཏི	-10.741
▁བྷཱཏཱ	-10.7416
སངྑཱཏཱཡ	-10.7417
ིཾ༎	-10.7418
▁ཨུསབྷ	-10.7419
ཱནུཔསྶཱི	-10.742
▁སམྤཏྟིཾ	-10.742
ཱརོ	-10.7424
▁ཨེཀཱུནཝཱིསཏི	-10.7425
▁སིཀྑིཏབྦ	-10.7429
ཱཀཱརོ	-10.743
▁ཡུག	-10.7431
▁སཾཡམ	-10.7432
ཙཏྟཱལཱིས	-10.7432
▁བྱཱཀཱསི།	-10.7434
▁ཙིཏོ	-10.7436
▁པརིཏྟོ	-10.7437
▁༡༣༦	-10.7437
▁ཝུཙྩམཱནོ	-10.7439
སཙྪིཀིརིཡཱཡ	-10.7443
▁སུརཱ	-10.7445
▁ཨཏྟནཱཝ	-10.7451
ཏིཨཱདིཀཱ	-10.7451
ཱདཱིནམྤི	-10.7451
ཡཱན	-10.7453
སཏྟོ	-10.7455
▁དྷཱརེཡྻ	-10.7456
▁པཛཱཡ	-10.7458
▁བྷཱསིཏསྶ	-10.7462
▁སཱདྷ	-10.7465
▁ཝིམོཀྑོ	-10.7465
▁སཛྫ	-10.7469
མཧནྟ	-10.7471
ཱརམྦྷ	-10.7471
▁ཨབྷིཀྐནྟ	-10.7473
▁ཀུཔྤ	-10.7473
ིནཾ	-10.7477
▁ཀམྨཔཐ	-10.7479
▁ནཱརཱི	-10.7482
▁ནིརཏྠཀ	-10.7486
▁ཨཔཱཡཾ	-10.7486
རུལ༹ྷ	-10.7488
▁ནིགྒཎྷ	-10.7489
▁པཛཧཏཱིཏི	-10.749
▁ཨཧོསཱིཏི།	-10.749
▁ལཱ	-10.7491
▁ལོཎ	-10.7493
▁སཱཡ	-10.7494
▁ཨསངྑྱེཡྻ	-10.7497
▁ཝུཊྛཱཏི	-10.75
པརིཡོསཱན	-10.7502
ིཡཱཏི	-10.7505
▁མུ	-10.7509
▁ཝོརོཔེ	-10.7511
སངྑེཔ	-10.7513
▁པརིསུདྡྷཾ	-10.7514
▁དེཝཱནམིནྡོ	-10.7514
▁ཀོསལ	-10.7516
▁མཧཱནུབྷཱཝ	-10.7517
▁སཀདཱགཱམཱི	-10.7519
▁གཱཐཱ།	-10.752
▁པསནྣཙིཏྟོ	-10.7522
▁ཨཛཱནནྟོ	-10.7523
▁བྷིཀྑཱུཏི	-10.7523
ཡོགེ	-10.7524
▁ཨཱནནྡཾ	-10.7524
▁ཙེཏེཏི	-10.7524
▁ཨལོབྷོ	-10.7525
▁སཱུཔ	-10.7528
▁པཊིགྒཧིཏ	-10.7528
▁ཨལཱབྷ	-10.753
▁བཧུཀ	-10.753
▁པརིཙྪེདོ།	-10.7531
ཝིབྷངྒོ	-10.7532
▁ཛར	-10.7539
▁གཙྪཏཱི	-10.7539
▁སཀེ	-10.7543
▁ཐེརཱནཾ	-10.7545
–	-10.7545
▁ཨཛ྄ཛྷཏྟིཀཾ	-10.7546
▁ཨཝིསེསེན	-10.7548
ུཔྤཏྟིཡཱ	-10.7548
ཀཏྭཱ	-10.7548
▁པཋམེན	-10.7549
▁མནྟེ	-10.7552
▁ཨཧི	-10.7552
▁ཨོལཱ༹རིཀཱ	-10.7552
▁ཐིནམིདྡྷ	-10.7552
▁རཱཛགཧཾ	-10.7553
▁པུལླིངྒ	-10.7553
▁པེསེཏྭཱ	-10.7557
ཏྟབྷཱཝ	-10.7558
▁ནཱགཱ	-10.7558
ཨེཏྠ	-10.7561
▁གཏཾ	-10.7561
▁ཡོགཱཝཙར	-10.7562
པདཏྠ	-10.7564
པབྦ	-10.7566
ལོབྷ	-10.7567
▁པཊིཛཱན	-10.7573
པཱཊ	-10.7574
▁ཏམྷི	-10.7577
པལིབོདྷ	-10.758
▁ཝཱཡམ	-10.758
▁རམཎཱིཡ	-10.758
▁ཡཱཙན	-10.7583
▁སཾསཱརེ	-10.7583
▁དོམནསྶིནྡྲིཡཾ	-10.7583
▁ཨཔཙྩ	-10.7585
▁ཨནུཔྤནྣཱ	-10.7586
▁ཨཱཀཱསཱནཉྩཱཡཏནཾ	-10.7586
▁སངྒྷམཛ྄ཛྷེ	-10.759
▁ཕལསམཱཔཏྟི	-10.7591
ནྟོཏི	-10.7591
ཱསནྣ	-10.7592
▁སཱནུསཡོ	-10.7594
ཀམྨཊྛཱནཾ	-10.7596
▁ཧཱརོ	-10.7599
ཨདྡྷཱ	-10.7603
▁གྷཱན	-10.7603
▁མོར	-10.7608
▁སིལཱ	-10.7609
▁ཨུཊྛཱ	-10.7611
▁ཨུཔྤཛྫ	-10.7613
▁པཡོཛནཾ	-10.7613
པརིསུདྡྷ	-10.762
▁ཨསྶཱདོ	-10.7622
▁ཨུཔཊྛཱཀ	-10.7622
ཕརཎ	-10.7623
པུ	-10.7623
▁ཝུཏྟེཔི	-10.7624
▁པཡོཛན	-10.7624
▁ཨཱཙརིཡཱ	-10.7628
▁སམྤཧཾས	-10.763
རེ།	-10.763
པརིཝཱརོ	-10.7632
▁༡༣༩	-10.7633
▁ཨདྷིཝཙན	-10.7634
ཱཏཱིཏི	-10.7637
པཀཏི	-10.7638
དྷམྨསྶ	-10.7642
▁ནིཀྑིཏྟ	-10.7642
མཀཱསི	-10.7644
▁ཝིགྒཧོ།	-10.7645
▁པསནྣཱ	-10.7647
▁ཨམིཏྟ	-10.7649
པཏྟིཡཱ	-10.7649
▁ཨུདྡྷཊ	-10.765
ཝིརཧིཏ	-10.7653
▁ཀཱམཱཝཙརེ	-10.7653
ཱུནཾ	-10.7655
▁ཀལཱཔ	-10.7656
ཁཎ	-10.7657
ཝིསིཊྛ	-10.7657
ཏསྶཱ	-10.7658
▁ཨཱཔུཙྪ	-10.7659
▁སེཏི	-10.766
▁ནིཀྐཌྜྷ	-10.7661
▁པཙྩཡུཔྤནྣ	-10.7662
▁དཱུཏ	-10.7663
▁དེཝཱནམིནྡ	-10.7668
ཝིརོདྷ	-10.7669
▁ཛིཏ	-10.7672
▁ཨརཱུཔཱཝཙར	-10.7673
དུཀྐཊ	-10.7675
ཱནུསཡ	-10.7676
▁རཱུཔཱཝཙརེ	-10.7678
▁པནཱཧཾ	-10.7679
རུདྡྷ	-10.7679
ཧངྒེཧི	-10.768
▁ཡུཏྟི	-10.7683
སམྤཡུཏྟཾ	-10.7684
ཨེཏེ	-10.7685
▁ནིསཛྫ	-10.769
▁དི	-10.7695
▁ཝསཱ	-10.7697
མཱུལཀཱ	-10.7697
▁ཝིརཱགཱ	-10.77
▁པཙྪཱཛཱཏཾ	-10.77
▁ཨུཔརཱུཔརི	-10.7701
▁ཨཱཔདཱསུ	-10.7702
▁ནཱཡཾ	-10.7703
▁མཱུལེ	-10.7706
▁ཨཔེཀྑ	-10.7706
▁ནེཏྭཱ	-10.7708
▁ཝིད	-10.7708
སུཏ	-10.7711
པརིཡོསཱནེ	-10.7715
▁ཨཱཝཱསོ	-10.7719
▁གོཎ	-10.7721
▁ཨབྷིདྷམྨེ	-10.7724
ཛཝ	-10.7732
ཱནེཝ།	-10.7735
▁དཱུས	-10.7738
▁ཨཡོནིསོ	-10.7738
▁ཀཱམཱནཾ	-10.7739
▁ནཱཔརཾ	-10.774
▁ཝིཧརཏཱིཏི	-10.7743
སུཁུམ	-10.7743
▁ཨིཏྠཏྟཱཡཱ	-10.7743
པཊིམཎྜིཏ	-10.7744
▁པཱཔཀམྨ	-10.7744
▁སདྡྷིཝིཧཱརིཀ	-10.7745
▁ཨཏྟབྷཱཝ	-10.7745
▁ཏཙ	-10.7745
སཱཊཀ	-10.7746
▁པཊིལོམ	-10.7747
ཱརམྨཎེ	-10.7747
▁ཨནུཏྟར	-10.7747
སཱགར	-10.775
▁མཏྟིཀཱ	-10.775
▁དེསིཏོ	-10.7753
▁ཨནནྟརཾ	-10.7754
▁དེསིཏཾ	-10.7754
ཏྠེརགཱཐཱ	-10.7756
▁ཡཐ	-10.7757
▁ཨཝིཏཐ	-10.7758
ཱཡསྨཱ	-10.7759
པྤཙྩཡོ	-10.7759
▁པརཱམཊྛ	-10.7759
▁ཐེརེ	-10.776
པཉྩཀ	-10.7761
▁ཨབྷཝིསྶ	-10.7761
▁ལཱབྷོ	-10.7765
སཾསཊྛ	-10.7766
▁པརིབྷུཉྫིཏུཾ	-10.7767
པདྷཱན	-10.777
▁ཀརཎེ	-10.7775
▁ནིདྡོས	-10.778
▁པརིཡཱདཱཡ	-10.7781
▁ཁཱར	-10.7781
▁སནྡྷཱཡཱཧ།	-10.7782
▁སུཁཱི	-10.7783
ཡོགཏོ	-10.7787
▁ཨདྷིམོཀྑ	-10.7787
ནཱིཡཾ	-10.7788
སམཱིཔེ	-10.7788
▁ཨཧོསིཾ	-10.7788
▁ཛཱགར	-10.7789
▁ལཀྑ	-10.779
ཏེསཾ	-10.7792
གཎྷ	-10.7795
▁པཙྩེཀབུདྡྷ	-10.7796
▁ཨཱཀངྑ	-10.7796
▁ཨཱསཝསམྤཡུཏྟ	-10.7801
▁པཧར	-10.7802
▁སུཉྙ	-10.7802
▁སཾསགྒ	-10.7803
ནིཀཱཡ	-10.7803
ཧཊ	-10.7803
ཏིཊྛ	-10.7805
▁ཨདྡསཱ	-10.7806
▁ཝིསུདྡྷི	-10.7806
▁ནིརནྟརཾ	-10.7806
ཏད	-10.7806
སམོདྷཱན	-10.781
ཏཱཔ	-10.7812
▁སམེནྟི	-10.7812
ངྒོ	-10.7815
▁བྷུས	-10.7816
▁ཝེལུ༹ཝནེ	-10.7816
▁ཏདཉྙ	-10.7816
▁ཝིབྷཏྟ	-10.7818
▁ཨཉྙམཉྙཔཙྩཡ	-10.7819
▁ལོཀུཏྟརཱ	-10.7819
▁སེཁ	-10.782
ཧནྟི	-10.7821
▁སེཊྛཾ	-10.7827
ཨསུཀ	-10.7829
▁རཱུཔཱཡཏནཉྩ	-10.7829
▁ཨགམ	-10.7832
▁ནིཀྑནྟོ	-10.7832
ལཱབྷཱི	-10.7835
▁སངྑཱརོ	-10.7838
▁སཏྟམཱི	-10.784
▁ཨུཔདྷི	-10.784
▁མཎྜ	-10.7841
ཡསྨཱ	-10.7841
སྨཱིཏི	-10.7843
ཝིནིམུཏྟ	-10.7844
▁སུཏྟསྶ	-10.7847
ཱིཡཏི།	-10.7847
▁ཕཱལ	-10.7848
▁ནིརུཛ྄ཛྷིཏྠ།	-10.785
ེཀདེས	-10.7851
▁པུནབྦྷཝོ	-10.7852
▁ཨུཛུཾ	-10.7855
ཝཎྞནཱཡ	-10.7855
▁ཚཊྛཱི	-10.7856
▁སེནཱཔཏི	-10.7858
▁ཨུཔེཀྑིནྡྲིཡཉྩ	-10.7858
ཏཱིཧི	-10.786
▁ཨསཾ	-10.786
ཏིཨཱདཱིཧི	-10.7861
▁ཨནྟཾ	-10.7863
▁སུདྷཱ	-10.7864
▁ཨཧཉྩ	-10.7865
▁གྷོར	-10.7868
▁ནིརུཛ྄ཛྷིཏྠཱཏི	-10.7869
▁ཨཏཱིཏཱརམྨཎ	-10.787
▁པཝེས	-10.7871
▁དྷམྨདེསནཱཡ	-10.7873
▁ཝིཏྠཱརོ	-10.7876
▁ཨེཀཙྩསྶ	-10.7877
▁སམཱཔཏྟིཡོ	-10.7878
▁ཁཎཾ	-10.7878
དཧ	-10.7882
▁ཝུཏྟམེཝ།	-10.7884
ཉྪ	-10.7884
▁པརིཡཱཡོ	-10.7884
▁ཨིཙྩཱདི	-10.7886
▁སམོ	-10.7886
▁ཝཱིཐི	-10.7888
▁ཛིཝ྄ཧཱཡ	-10.7888
པཎྞཱས	-10.7889
▁སངྑེཔ	-10.789
▁ཀཱམཝིཏཀྐ	-10.789
གནྡྷོ	-10.7891
▁པེཙྩ	-10.7894
▁ལོཀིཡཱ	-10.7896
▁ཨེཝམ	-10.7896
▁ཝཎྞེ	-10.7898
▁སཱམཱི	-10.7899
▁སནྣིསིནྣཱ	-10.79
▁ཀཐིནཾ	-10.79
ཱབྷཱཝཱ	-10.7902
▁རཛན	-10.7903
ཱདཡོཔི	-10.7904
▁ཝིཉྙཱཎཉྩཱཡཏན	-10.7905
▁ཡོཛ	-10.7906
ཏྱཱདི	-10.7907
སྶཔཙྩཡཱ	-10.7907
▁ནཝམ	-10.7913
▁པརིསཾ	-10.7917
▁ཨཙིཏྟཀ	-10.7919
▁པཙྩནྟ	-10.792
རུཎ	-10.7924
▁ཝིཛཧ	-10.7924
▁བྷིཀྑ	-10.7925
ཝིམུཏྟི	-10.7926
ིནྡྲིཡཱནི	-10.7928
ཱཧུ	-10.7929
▁ཨཱརབྦྷ།	-10.7931
▁ཨུཔྤཛྫམཱནཱ	-10.7932
▁ཨམཙྩཱ	-10.7933
▁གངྒཱཡ	-10.7935
ཝ྄ཧཡ	-10.7936
▁དིསཱསུ	-10.7937
ིཡྻ	-10.794
▁ཝིཔསྶཏི	-10.794
▁ཙཏུརཱསཱིཏི	-10.7942
ཛལ	-10.7943
▁དུཀྐཊསྶ	-10.7944
▁རཱུཔཱཝཙརཱནཾ	-10.7947
▁ནཝུཏི	-10.7948
▁དནྟཀཊྛ	-10.795
ནྟེཧི	-10.7951
▁ནཊྛ	-10.7952
▁པརིཔཱུརེཏི	-10.7952
ལོཀེ	-10.7953
▁པཐཝིཡཱ	-10.7954
ཡཐཱཔི	-10.7954
▁ཨཱཧཾསུ།	-10.7954
རཊྛེ	-10.7955
▁ནུཔྤཛྫིཏྠ	-10.7956
▁པུནདིཝསེ	-10.7957
ཱནཾཡེཝ	-10.7958
▁བཧུདྷཱ	-10.7959
པཱུཛཱཡ	-10.7965
▁ཝིབྷཏྟཱ	-10.7967
ིནཱི།	-10.7967
ཱཝཡཝ	-10.7969
▁ཨཀུསལམཱུལ	-10.797
▁ཝེར	-10.7973
ཱསནེ	-10.7973
▁པརིཡནྟ	-10.7977
ཱཝབོདྷ	-10.7978
▁ཀཔྤིཡཾ	-10.7979
▁སུཔྤ	-10.7979
▁ནཱཝཱཡ	-10.798
ིསྶར	-10.7984
ཡནྟཱ	-10.7986
▁སིདྡྷ	-10.7987
▁ཡཱཝདེཝ	-10.7987
▁པཀིཎྞཀ	-10.7989
▁ཨཝེཙྩཔྤསཱདེན	-10.7989
ུཔཙྪེད	-10.7991
▁ཨཝིགཏ	-10.7991
▁པེཏྟིཝིསཡ	-10.7992
ཨཏཱིཏ	-10.7997
མུཏྟམ	-10.7998
ཝིསེསཾ	-10.7999
▁ཨུཔསམྤད	-10.8
སཱནཾ	-10.8001
པཱཎི	-10.8002
ཀེས	-10.8002
ཙྪེདན	-10.8003
▁ཝིཝིཏྟ	-10.8003
▁མཧགྒྷ	-10.8003
▁བཧུཏརཱ	-10.8003
▁ཀཱཏུ	-10.8004
▁བྷཝིཏུཾ	-10.8005
▁ཨབྦྷུཏཾ	-10.8006
སཱལཱ	-10.8007
▁པཝཏྟམཱན	-10.8008
ཝཱཀྱ	-10.8008
པྤམཱཎོ	-10.8011
▁སམུཙྪེད	-10.8012
▁ཝིཉྙུཏཾ	-10.8012
▁པཱཊིཀངྑཱ	-10.8012
▁ཨཡྻ	-10.8015
ཀཔྤོ	-10.8016
▁ཨུཏྟརཱ	-10.8016
ནཁ	-10.8017
སནྟཏི	-10.8019
▁པཀཏཏྟ	-10.8019
▁ཋིཏིཡཱ	-10.8019
པྤཙྩཡ	-10.8019
▁མེཏྟ	-10.8021
ཝིཝེཀ	-10.8022
པཱིཋ	-10.8026
▁དསབལ	-10.8028
ཨཱཧཱར	-10.803
▁ཀརོཏཱི	-10.803
ཝིཙཱར	-10.803
▁ཝིཀྑམྦྷན	-10.8033
▁རཱུཔཉྩ	-10.8034
▁སམནུཔསྶཏི	-10.8035
▁དུཙྩརིཏ	-10.8039
▁ཨཱཀཱསེན	-10.8039
▁སེཀྑཱ	-10.8039
▁ཙཏུཀྐཾ	-10.8044
ཱབྷིནིཝེས	-10.8044
ུཔཱཡ	-10.8045
▁ཚཱརཏྟཾ	-10.8049
པུརེཛཱཏ	-10.8049
▁པརིཧཱཡནྟི	-10.8049
ུདཀ	-10.805
▁ཨཝཧར	-10.805
▁རཏནཏྟཡ	-10.8051
▁ཙཏུཝཱིསཏི	-10.8054
▁རསཾ	-10.8055
ཧདཡ	-10.8055
▁པཊིཀྑིཔིཏྭཱ	-10.8057
▁ཀིལེསེཧི	-10.8059
ཀུལཱ	-10.806
▁ལཀྑཎཱནི	-10.8061
ཀཏྟ	-10.8062
▁མཧབྦལོ	-10.8068
▁ཀཀྑལ༹	-10.8069
▁ཏཐཱགཏེ	-10.8069
ཏཱནི	-10.8072
པུབྦཱ	-10.8073
ཝིཉྙེཡྻ	-10.8073
▁ཡཝ	-10.8074
▁པཱཝ	-10.8076
ཊྛིཏ	-10.8076
▁ཨནནུ	-10.8077
▁ཨརིཡམགྒོ	-10.808
▁ཋཔེཏབྦ	-10.8082
▁པཾསུཀཱུལ	-10.8087
▁ཛཱནཏོ	-10.8088
པེཡྻཱལ	-10.8089
▁དནྡྷ	-10.8089
▁སནྟུཊྛོ	-10.8089
▁ཨཉྙིནྡྲིཡཾ	-10.8095
▁ཨརཧཏི	-10.8098
ལོཧ	-10.8101
▁རཱུཔཱདི	-10.8109
▁སུཀཏ	-10.811
▁པརིཡཱཔུཎ	-10.8111
ཨཔི	-10.8111
▁ཀཱལ༹ཀ	-10.8112
ུདྡྷ	-10.8113
▁ཝནྟ	-10.8113
▁པཧཱིནཾ	-10.8113
▁ནིབྦཱནེ	-10.8115
ུལླ	-10.8116
ཎྷ	-10.8119
▁མནོམཡ	-10.812
▁ཨནིདསྶནཨཔྤཊིགྷ	-10.812
རཱུཔཱཝཙར	-10.8122
མཉྩ	-10.8123
▁ལུདྡ	-10.8124
▁ཝིདྡྷཾས	-10.8124
▁ནཔུརེཛཱཏཔཙྩཡཱ	-10.8127
▁དྷམྨཱབྷིསམཡོ	-10.8127
▁མུཊྛི	-10.8129
▁སིཀྑཱཡ	-10.813
ཱུཔཙཱར	-10.8133
▁དྷཱརཎ	-10.8134
▁ཝདམཱནོ	-10.8134
▁པབྷཱསཏཱི	-10.8135
▁ཨཧོསཱི	-10.8137
▁པཱཏུབྷཝནྟི	-10.8139
▁པརིཝཏྟེཏྭཱ	-10.814
ཏཎྷ	-10.814
▁སམཏིཀྐམ	-10.8145
▁ཝེནེཡྻ	-10.8145
▁ཨོར	-10.8146
▁པཝཏྟན	-10.8149
▁ཨཝསྶཾ	-10.8149
▁ཝིཧཱརསྶ	-10.8149
▁ཝིཛྫཏཱི	-10.815
▁པརིབྷུཉྫཏི	-10.8151
བྲཱཧྨཎོ	-10.8151
དམ	-10.8152
▁ཚནྡརཱགོ	-10.8152
ནྣཱ	-10.8152
▁དསསུ	-10.8154
▁ཝིཝརིཏྭཱ	-10.8154
▁ཉཱཎཱནི	-10.8155
▁པཱཏོཝ	-10.8157
▁༡༥༦	-10.816
▁ཨདྷིགཏོ	-10.8161
པརིགྒཧ	-10.8161
▁པཱདཱ	-10.8161
▁རཱུཔཀཱཡ	-10.8163
དིས	-10.8165
▁ཛྷཱནཔཙྩཡ	-10.8167
▁པཙྩསྶོསུཾ།	-10.8167
▁ཨཛཱཏསཏྟུ	-10.8167
▁ཛཱནཱསི	-10.817
▁ནིཡཏོ	-10.817
སམུཊྛིཏ	-10.817
▁པགུཎ	-10.8171
▁སཾསནྡནྟི	-10.8172
ཀིཏྟན	-10.8172
▁ཝིདཱུ	-10.8174
བྷཱུམིཾ	-10.8176
▁མནིནྡྲིཡཉྩ	-10.8177
▁ལོཧིཏཀ	-10.818
▁དུགྒནྡྷ	-10.8184
ཊྛེནཱཏི	-10.8186
▁ཀིལེསོ	-10.819
▁༡༤༡	-10.8193
ཏེ།	-10.8193
པཱརཱཛིཀ	-10.8197
▁ནཔུཾསཀ	-10.8197
རཛྫུ	-10.8199
དུབྦལ	-10.8204
▁པདཱིཔ	-10.8206
ཀུསལཏྟིཀཾ	-10.8206
ཙཱརིཀ	-10.8209
ཨུཔོསཐ	-10.821
▁བྷིཀྑཱུསུ	-10.8212
▁ཀལཧ	-10.8212
▁པཱརམིཡོ	-10.8212
▁པུཙྪནྟི	-10.8212
མཱུལཀཾ	-10.8213
ཝགྒསྶ	-10.8214
▁དིནྣོ	-10.8214
▁༡༤༨	-10.8215
▁གནྟབྦཾ	-10.8219
▁གཧིཏཱ།	-10.8221
▁ལོལ	-10.8222
▁དཱིགྷཾ	-10.8223
▁ཨནིདསྶནཨཔྤཊིགྷོ	-10.8224
▁ཨཱཀཱསོ	-10.8225
▁ཨཧུ།	-10.8227
▁ཨཉྙཏརེན	-10.8231
ཡོཛནཱ	-10.8233
ཙིཏྟེསུ	-10.8233
▁སངྑཱརཔཙྩཡཱ	-10.8234
▁དུཏིཡེན	-10.8238
▁རིཏྟ	-10.8241
ཱཝཧ	-10.8241
མོཀྑ	-10.8246
▁སམྤཛཱནཀཱརཱི	-10.8247
▁ཨིདྷཱཏི	-10.825
▁སཾཝིཛྫམཱནཱ	-10.8251
▁པུརིསིནྡྲིཡཉྩ	-10.8251
▁ཁལ	-10.8252
▁ནིཀྑེཔ	-10.8253
▁ཨཙཀྑུཀཱན	-10.8254
ཡཀྑ	-10.826
▁ཡསྶཱ	-10.826
ཝཱདི	-10.8261
▁སུཉྙཾ	-10.8261
ཝཏོ	-10.8261
▁ཨནྣ	-10.8262
▁ཨསངྑཏཱ	-10.8266
ཝུཊྛཱན	-10.8267
▁ཀལྱཱཎམིཏྟ	-10.8268
ཨཔརེཧིཔི	-10.827
▁པཝཏྟིཏ	-10.8271
པྤཏྟཾ	-10.8272
▁ཝིཏཀྐཝིཙཱརཱནཾ	-10.8273
▁ཀརཎཱིཡོ	-10.8276
▁ཀེཝལཉྩ	-10.8278
དེསནཱཡ	-10.8279
རཏཱ	-10.828
▁ནཱཝཾ	-10.828
▁པརཏྠ	-10.828
པོ	-10.8281
▁ཨུཏྟཱནཏྠམེཝཱཏི།	-10.8287
▁བྷིཡྻོབྷཱཝཱཡ	-10.8288
▁ཨུཔཱདཱནཝིཔྤཡུཏྟ	-10.8288
▁ཏེལཾ	-10.8292
▁ཀཊཏྟཱརཱུཔཱནཾ	-10.8294
ཀེསུ	-10.8295
▁དྷཱིར	-10.8296
པཱར	-10.8297
སེཝ	-10.8297
ཱགམོ	-10.8297
▁ཨཱཡསྨནྟོ	-10.8298
▁ཨེཀཏྠ	-10.8298
▁ཏེསཉྩ	-10.8299
མཀྑིཏ	-10.83
ལེ	-10.83
▁ཏིཧེཏུཀ	-10.8301
ིཡོ།	-10.8301
▁༡༤༢	-10.8302
▁དཧརོ	-10.8305
ཡམཱན	-10.8307
▁མཏི	-10.8307
▁བྷཱརོ	-10.8309
▁སངྑཱརཀྑནྡྷ	-10.8314
ནིར	-10.8315
▁ཝཱུཔསམཱ	-10.8315
ལོཀུཏྟར	-10.832
ཨུཔཱདིནྣུཔཱདཱནིཡ	-10.832
▁སབྷཱཝོ	-10.832
▁ཀངྑ	-10.8321
▁ཏདུབྷཡཾ	-10.8321
ཁིལ	-10.8324
▁ཨུཏྟརིཾ	-10.8324
ནིབྦཏྟ	-10.8325
▁བྷཝཏཱིཏི	-10.8327
▁ཝིནིཙྪཡོ།	-10.8329
▁ཏཛྫཱ	-10.8329
པཙྩུཔཊྛཱནཱ	-10.8329
ཝིར	-10.8329
▁མནུཉྙ	-10.833
▁ཡེཔི	-10.833
▁ཙཀྐཾ	-10.833
▁ཏཏྲཱཔི	-10.833
▁ཏཱདིསེ	-10.8331
▁སམེཏི	-10.8332
▁ཉཱཎནྟི	-10.8334
▁ཨཛ྄ཛྷཱསཡ	-10.8334
▁༡༥༠	-10.8335
ཝིཡ	-10.8335
▁ཨུཔཊྛིཏ	-10.8335
ལབྷ	-10.8337
▁ཨཝིཛྫཱཔཙྩཡཱ	-10.8339
▁ཨཱརདྡྷ	-10.834
▁ཨུཊྛཧིཏྭཱ	-10.8341
▁ཨུཀྑིཏྟ	-10.8343
▁ཨུཔྤཛྫམཱན	-10.8344
▁སུཔཎྞ	-10.8345
པརིས	-10.8345
▁པཙྩེཀ	-10.8346
ཏྠམྦྷ	-10.8346
▁ཨརཱུཔཱནཾ	-10.8347
▁པདུམཾ	-10.8348
▁ཙཝིཏྭཱ	-10.8348
▁པསཱིད	-10.8349
▁ཚེདན	-10.8351
▁ཨསུར	-10.8351
▁བྷཝིསྶཱམི	-10.8353
ཀཱལ༹	-10.8354
▁སལླེཁ	-10.8358
ཱཝུདྷ	-10.8359
▁ཨཱརཀཱ	-10.8361
ལཀ	-10.8362
▁ཨིཙྩེཝ	-10.8362
▁ཨཱཔཛྫཏཱིཏི	-10.8362
▁མགྒཉཱཎ	-10.8363
▁ནདིཾ	-10.8364
▁ཨནྟརདྷཱཡ	-10.8367
▁གྷཱནིནྡྲིཡཉྩ	-10.8368
ཉྙཱཡ	-10.8369
▁རུཀྑཱ	-10.837
པརིལཱ༹ཧ	-10.8372
▁ཨབྷཱཝིཏ	-10.8372
▁ཝེརཾ	-10.8373
▁ཀརུཎཱཡ	-10.8377
▁ཨུཔསམྤནྣ	-10.8379
▁ཝཏྟཏི།	-10.8386
ཏསྨིཾ	-10.8387
ལཱ༹	-10.839
▁རཱཛཔུཏྟ	-10.8391
▁སངྒཱིཏི	-10.8392
▁སོབྷན	-10.8392
▁ཨསོཀ	-10.8394
▁ཨཝཎྞ	-10.8394
ནིཡཱམ	-10.8396
མཱནེན	-10.8397
▁ནཡན	-10.8397
བྷཎྜཾ	-10.8399
▁ཚཱཡཱ	-10.8399
▁ཨེཀཝཱིས	-10.84
▁ཨོཀཱསེ	-10.84
ཏཱ༎	-10.8401
▁སམྨསན	-10.8405
▁ཨཉྙམྤི	-10.8406
▁སམྨཔྤཉྙཱཡ	-10.8408
▁ཏཱར	-10.8409
▁ཨམྨ	-10.8409
▁ཛཱིཝིཏིནྡྲིཡ	-10.8411
▁སམཱསོ	-10.8413
▁པཎྜུ	-10.8416
▁རཱཛཀུམཱར	-10.8416
▁ནིམྨ	-10.842
ིད	-10.8421
བྷེདཱ	-10.8421
ཎྞཝ	-10.8424
དེཝོ	-10.8425
▁ཨཱདིསདྡེན	-10.8425
▁ཨིམཱཧི	-10.8425
▁ཝིསཱཁ	-10.8426
▁ཁཱིརཾ	-10.8429
▁ཨེཝརཱུཔེ	-10.8429
▁ནིནྡ	-10.8432
▁ལོཀསྨིཾ།	-10.8432
▁ཛཱཡ	-10.8433
▁དསྶིཏཾ	-10.8439
▁སབྦཀཱལཾ	-10.844
▁ནིདྡིསིཏབྦ	-10.844
▁ཨདིནྣཱདཱན	-10.844
▁རཱུཔཱི	-10.8444
▁བནྡྷནཾ	-10.8446
ཛཱཏིཀཱ	-10.8446
▁སནིདསྶན	-10.8447
ཀཱདི	-10.8449
▁ཨིཙྩ	-10.8449
པུཉྫ	-10.845
▁ཝེམཏིཀཱ	-10.845
▁བྷཝིསྶསི	-10.845
ཏྠཱཡ།	-10.8451
▁སམནུཔསྶཱམི	-10.8452
▁ཀཊུཀ	-10.8453
▁ཨབྷིཛཱན	-10.8453
▁མགྒཔཙྩཡ	-10.8454
▁ཨཱིས	-10.8455
▁རཛཏ	-10.8455
▁ཝཱུཔསནྟ	-10.8456
▁བྲཧྨཝིཧཱར	-10.8456
▁ལོཀོཏི	-10.8458
ཡིཾསུ	-10.8458
ཝིབྷཱཝན	-10.8459
▁ཨཔྤཏྟ	-10.8459
སཧགཏཾ	-10.846
▁པཊིཔྤསྶདྡྷི	-10.8465
▁མེཏཾ	-10.8465
▁ཨསེཁ	-10.8467
▁ཙཏུདྷཱ	-10.8468
▁དྷམྨཱཡཏནཉྩ	-10.8468
རཧིཏཾ	-10.8468
▁པཉྩམཱི	-10.8468
ིཏྠཱཏི	-10.8468
▁ནོཙིཏྟ	-10.8469
▁ཨདྷིཔྤེཏཾ།	-10.8469
▁ཨཏྲ	-10.847
སུཉྙ	-10.8473
▁ཛཱཏཀ	-10.8474
▁སུཏྟེན	-10.8474
▁སམགྒཱ	-10.8475
ཙཀྐཝཱལ༹	-10.8476
▁ཨཱཀཌྜྷ	-10.8477
པརཱཡཎ	-10.8478
▁དཊྛབྦཱ	-10.848
▁སཱཝཏྠིཾ	-10.8484
▁ཏིཊྛེཡྻ	-10.8485
▁ཧིདཾ	-10.8487
▁མིསྶ	-10.8488
▁ཨདྡྷཱནཾ	-10.8488
▁ནིཔཱཏོ	-10.8489
གྒཧིཏ	-10.8489
▁བུདྡྷཔྤམུཁ	-10.849
ཏྠོཏི	-10.8491
▁ཙཀྑུམཱ	-10.8493
▁བུདྡྷཔཱུཛཱཡ	-10.8493
བནྡྷནཾ	-10.8493
ནཱམེན	-10.8494
▁༡༤༤	-10.8496
▁དསབལསྶ	-10.8497
▁སྭཱཡཾ	-10.8498
ཝཱདཾ	-10.8499
▁༡༤༧	-10.85
▁མོཧོ།	-10.8501
▁ཨཔྤཾ	-10.8501
ཝེག	-10.8502
ཏཱདིསོ	-10.8506
▁པཉྙ	-10.8506
▁ཀཱཡསམ	-10.8507
པཛྫོཏ	-10.8508
▁ཨཧོསཱིཏི	-10.8511
▁སངྑཱརེསུ	-10.8513
▁པིཊཀ	-10.8513
དྡྷོ	-10.8515
▁ཝསནཊྛཱནཾ	-10.8521
མཏྟནོ	-10.8522
ཝིདཱུ	-10.8524
ཝིསཡོ	-10.8526
མཀཱསི།	-10.8528
▁ཀོཊྛཱསེ	-10.8529
▁ཨུཔསམྤནྣོ	-10.8529
▁སཀྐཙྩ	-10.853
▁སཧསྶཱནི	-10.8531
▁༡༤༣	-10.8532
▁ཡོགིནཱ	-10.8533
ུཔག	-10.8533
▁ཨནུཉྙཱཏཾ	-10.8533
▁ཝུཊྛིཏོ	-10.8534
▁པརིཝུཏོ	-10.8537
▁ཨནྟོགདྷ	-10.8538
▁ཨཛཱན	-10.854
སོ།	-10.8542
སཔྤཱཡ	-10.8543
ཏྟུ	-10.8545
▁པལ	-10.855
▁ལབྦྷནྟི	-10.8551
▁དསྶིཏོ།	-10.8553
ཛཱིཝིཏ	-10.8554
▁པཉྙཾ	-10.8556
ཝིནཱས	-10.8556
▁པཱརིསུདྡྷི	-10.8557
▁སུཁསཧགཏ	-10.8557
▁ཝིརཱུཔ	-10.8558
▁ཨཀཱལ	-10.8559
▁ཏིརོ	-10.8561
▁ཝིདྷཱ	-10.8567
ཝིནཡོ	-10.8568
▁སཧཏྠཱ	-10.8569
▁ཨཱཝཊྚནཱ	-10.8571
མགྒེན	-10.8572
▁མནུསྶོ	-10.8573
▁བྷགིནི	-10.8575
ཨེཏྟཀ	-10.8577
པཊྛཱན	-10.8578
▁ཨཊྚ	-10.8582
སཏྠཱ	-10.8582
▁མཀྐཊ	-10.8583
▁སཱིལཝནྟ	-10.8584
▁ཝིཔསྶཱི	-10.8585
▁ཝིམུཏྟིཉཱཎདསྶན	-10.8586
▁སཱིལཱནི	-10.8592
▁ཝཱིཏ	-10.8592
▁ཨཱལཔཏི།	-10.8593
▁ཝིཔྤ	-10.8593
▁ནཱན	-10.8594
▁སཀྐོནྟི	-10.8597
སམྦོཛ྄ཛྷངྒསྶ	-10.8599
▁སལླཀྑ	-10.8601
▁ཨེཀོཝ	-10.8602
▁ཏམྦ	-10.8603
▁གིལཱནསྶ	-10.8604
▁ཀུསལཱ།	-10.8604
མཏཱི	-10.8606
▁བོདྷིཡཱ	-10.8607
▁ནིདྷ	-10.8607
▁ཨབྷཱཝཏོ།	-10.8607
ཙྩཱདི	-10.8609
▁ཛཧིཏྭཱ	-10.8609
སཧཱཡ	-10.8612
ིནྡྲིཡཱ	-10.8613
▁ཨོཀྐནྟ	-10.8617
▁པཊིཀཱུལ	-10.8617
པརིསཱཡ	-10.8617
སམཎོ	-10.8619
▁ཨཔྤཧཱཡ	-10.862
▁ཝཱསཾ	-10.862
▁མཧེསིནོ	-10.862
▁ཨདོསོ	-10.8621
▁སནྟེཔི	-10.8624
▁པིཊྛ	-10.8624
▁སཏྠཾ	-10.8625
ིསུ	-10.8625
ཱདྷིཊྛཱན	-10.8626
▁ཡེནཱཡསྨ	-10.8626
▁ཨགྒཾ	-10.8627
▁ཨཔྤཝཏྟི	-10.8627
▁པཉྙཏྟ	-10.8629
▁བནྡྷུ	-10.8629
ུམ	-10.863
▁སནྣི	-10.8631
▁སཏཏཾ	-10.8632
མཱཎཝ	-10.8632
ཙཱ	-10.8634
▁དིཝ	-10.8634
ཡིཾསུ།	-10.8635
▁པཧཱིཡཏི	-10.8637
ཊྛཀཐཱཡཾ	-10.864
▁ཐུཏི	-10.8641
▁ཨཛ྄ཛྷཏྟིཀ	-10.8641
▁སནྠཝ	-10.8642
▁ཨེདིས	-10.8642
▁པཉྩམོ	-10.8642
▁པུརཏྠིམ	-10.8644
▁ཀམེན	-10.8646
▁ཨཱདཱན	-10.8649
▁རཝ	-10.865
ཝིདྷཱ	-10.865
ཱདྷིཔྤཱཡོ	-10.865
▁ཨུཔཛ྄ཛྷཱཡོ	-10.865
▁ཁགྒ	-10.8652
པོརིས	-10.8653
▁མཱཏལི	-10.8656
▁ཀརིསྶཏི	-10.8656
▁པརིནིབྦུཏེ	-10.8657
▁ཏིརཙྪཱན	-10.8658
▁སངྑཱ	-10.866
▁སོམནསྶིནྡྲིཡཉྩ	-10.866
▁ནིཧཱིན	-10.8661
མཧཾ	-10.8662
▁པཧཱཏབྦསྶ	-10.8663
▁པཱཀཏིཀ	-10.8664
▁ཨརིཡསཙྩཱནི	-10.8665
▁ཛཱཡཏེ	-10.8667
▁དུགྒཏ	-10.8668
▁པརལོཀ	-10.8668
ེནྟེན	-10.867
▁པཊིལཱབྷ	-10.8671
▁སནྟཱན	-10.8671
ཏཱལ	-10.8671
▁དེསིཏཱ	-10.8672
▁;	-10.8673
པིཊཀ	-10.8673
▁སཱིམཾ	-10.8673
▁མཧཱནུབྷཱཝོ	-10.868
▁ནིཡྻཱན	-10.868
▁ཝིབྷངྒེ	-10.8682
▁ལཱིན	-10.8683
སབྷཱཝཾ	-10.8684
ཨནིཙྩ	-10.8684
▁སོཏཱཔནྣ	-10.8684
ཝསཱི	-10.8685
▁ཝིཉྙཱཎཉྩཱཡཏནཾ	-10.8686
▁སམཱདིཡ	-10.8689
དིསཾ	-10.8689
▁བྷཱུཏགཱམ	-10.869
▁ཨདྷིཔྤེཏོ	-10.869
▁ཨནུཙྪཝིཀ	-10.8691
▁ཉཱཏཱི	-10.8692
▁༡༤༦	-10.8694
▁ཏེབྷཱུམཀ	-10.8694
▁ཨརཧནྟཱནཾ	-10.8694
▁པཊིཔཱད	-10.8694
▁ནིགཎྛ	-10.8695
སྶཱམཱིཏིནྡྲིཡཾ	-10.8696
ཝཏྠུཾ	-10.8696
▁སུནཁ	-10.8697
▁ཋཱ	-10.8697
▁པཱཙཱིན	-10.8698
▁ཀེསཉྩི	-10.8698
ཱནུགཏ	-10.87
▁ཨནུཔྤནྣ	-10.87
▁ཝིཛཡ	-10.87
▁ལོམ	-10.87
བྷིཀྑ	-10.8707
ིཙྩ	-10.8708
ལེཔ	-10.8711
སྨིམྤི	-10.8712
ཁེཏྟ	-10.8713
▁ནིསྶཡཔཙྩཡེན	-10.8719
ཀྑིཏྟ	-10.8721
▁བཱིཛཾ	-10.8722
པྤཀཱསན	-10.8724
▁ནིབྦིདཱ	-10.8727
ཀོཊིཡཱ	-10.8727
▁མཎྜལ	-10.8728
རསྶ	-10.8731
▁སམྨཏི	-10.8734
ཀཱི	-10.8735
༡༡	-10.8736
སམཱས	-10.8738
▁བྷུཏྭཱ	-10.8738
▁ཨཏྠེན	-10.8738
ུནཱ	-10.8739
སཉྙཱཝེདཡིཏནིརོདྷ	-10.874
▁པརིཎཱམ	-10.874
▁པཉྩདྷཱ	-10.8741
▁ཛཱཏཾ།	-10.8742
▁ཨཱགཏེ	-10.8743
▁སཧཛཱཏོ	-10.8744
▁སནྣིཔཏིཏྭཱ	-10.8744
སབྷཱཝཏྟཱ	-10.8744
▁བྷཝེ།	-10.8745
▁སཱདིཡཏི	-10.8747
ཱུཔག	-10.8748
▁ཨནུཔྤནྣསྶ	-10.8748
ཝིཝཊྚ	-10.8749
▁སཱསཝ	-10.875
སངྑྱ	-10.875
▁སནྠཏ	-10.8752
པཊིཔནྣ	-10.8753
རཱདྷ	-10.8754
ཀྑམ	-10.8754
བྷུཏྟ	-10.8755
▁ཨཱཔཛྫི	-10.8756
▁ཝཔ	-10.8758
▁པུཐཱུ	-10.8758
▁ཨུཔྤཛྫམཱནཾ	-10.876
ུནོ	-10.8761
▁རུཀྑསྶ	-10.8761
▁ཨཀཱར	-10.8762
▁ཨརིཡསྶ	-10.8763
▁པཎ	-10.8763
▁དེཐ	-10.8763
ཏྠེརཝཏྠུ	-10.8764
▁ཨནུགྒཧ	-10.8765
མུཁེ	-10.8766
དཱསི	-10.8766
ཱཡཏནཾ	-10.8767
▁ནིགམ	-10.877
ཙིཏྟེ	-10.877
▁ནཝཝིདྷ	-10.877
▁ཝིསྶཱས	-10.8776
སཧསྶཾ	-10.8777
▁བྷཱག	-10.8777
▁སུདྡྷིཾ	-10.8777
པརིཧཱར	-10.8779
▁ཏཉྩེ	-10.8779
▁སཧེཏུཀཾ	-10.878
▁སམྨོདནཱིཡཾ	-10.8782
ཝཏྠུཀ	-10.8786
▁ཨསཔྤུརིས	-10.8786
▁བྷིཀྑུསངྒྷེན	-10.8788
▁ཀཐིཏོ	-10.879
▁པཝཏྟིཡཱ	-10.879
▁༡༤༩	-10.8791
ནིཡོ	-10.8791
▁དོསཱ	-10.8794
▁ཙརམཱནོ	-10.8795
▁ཋིཏཏྟཱ	-10.8797
▁སིཔྤཾ	-10.8799
▁པཔ	-10.88
▁ཀཙྩཱན	-10.88
▁ཨཱམསཏི	-10.8801
▁དིཊྛིགཏཾ	-10.8807
▁ཨིདནྟི	-10.8809
▁སདྡྷིནྡྲིཡ	-10.8809
ཝཱིས	-10.881
▁པཝཱརཎཱཡ	-10.881
▁ལཧུཀ	-10.881
▁ཀཱམགུཎཱ	-10.8811
▁པཊིཀྐཱུལ	-10.8811
▁གནྠཱ	-10.8812
ཏཡོ	-10.8812
▁ཨངྒཱར	-10.8814
▁གརུཀཾ	-10.8814
▁ཝིམོཀྑཱ	-10.8816
▁སམཱདྷིཾ	-10.8816
▁ཚིདྡ	-10.8817
པདཊྛཱན	-10.8817
▁སམནནྟརཔཙྩཡ	-10.8817
▁དེསེསི	-10.8822
▁གཏཱ།	-10.8822
▁མིཏྟཱ	-10.8823
▁ཛནསྶ	-10.8824
▁སཱརཎཱིཡཾ	-10.8825
▁ཏིཏིཀྑ	-10.8826
▁ཙོདནཱ	-10.8826
ཌྜ	-10.8827
སངྐཔྤོ	-10.8827
▁དྷཱརཡཱམཱི	-10.8827
▁ཀུལཔུཏྟོ	-10.8828
ཱམ།	-10.883
▁ཨཱཎཏྟི	-10.883
▁ཝལླི	-10.8833
ཧཾས	-10.8833
སམྦྷཝཏོ	-10.8845
▁པལླངྐཾ	-10.8846
ཝངྐ	-10.8847
▁སུཝ	-10.885
▁གཱཝ	-10.8851
▁པཊིཔཛྫིཏབྦ	-10.8853
ིཏྟ	-10.8854
▁ནཨཀུསལ	-10.8855
▁བྷབྦོ	-10.8855
▁པསྶཏཱི	-10.8857
▁པརིསུདྡྷཱ	-10.8857
▁ཨབྷིཉྙེཡྻཱ	-10.886
▁པརིཉྙ	-10.886
▁ཨུཔེཀྑཱསཧགཏཾ	-10.8861
▁པརིནིབྦུཏ	-10.8862
▁རཐཾ	-10.8864
▁ཛཱིཝཾ	-10.8866
▁པུབྦཎྷསམཡཾ	-10.8867
▁ཨནིཡཏོ	-10.8867
▁ཝིཝཱདོ	-10.8867
༡༢	-10.8868
▁མུནཱི	-10.8869
▁སཾཡུཏྟ	-10.8869
▁པམཛྫ	-10.8872
▁ཡཱཝཀཱལིཀ	-10.8873
▁བྷུསཾ	-10.8874
▁༡༦༠	-10.8874
▁སཏིནྡྲིཡཾ	-10.8876
▁ཌཾས	-10.8876
ཝཱཙཀོ	-10.8878
▁སབྦཉྙུཏཉྙཱཎ	-10.8878
▁ཨནབྷཱཝཾ	-10.8881
▁ཝཌྜྷིཏ	-10.8881
ཝིཧིཏ	-10.8882
ཀོས	-10.8883
▁སཾས	-10.8883
▁ཨནྣཔཱན	-10.8884
▁ཨཱཔཛྫ	-10.8884
ཧེ	-10.8886
▁པུམེ	-10.8886
དཱིསུ	-10.8887
▁དུསྶཱིལོ	-10.8891
▁བོདྷིསཏྟཾ	-10.8892
▁ཝཛིར	-10.8892
▁ཨབྷཝ	-10.8893
▁པཝཏྟནཏོ	-10.8893
ཱདཱིན	-10.8895
▁ཝིདྷི	-10.8895
▁ཏདུཔ	-10.8897
▁པཱུཝ	-10.89
སམངྒིནོ	-10.8901
སཔྤ	-10.8901
▁མཉྙཐ	-10.8902
ནྟརཱཡ	-10.8905
ཏབྦཾ	-10.8905
ཝཙནསྶ	-10.8908
ཊཱིཀཱ	-10.8909
▁ནཀམྨཔཙྩཡཱ	-10.891
ཛེ	-10.891
སནྣིཔཱཏ	-10.8911
སམཱཔཏྟིཡཱ	-10.8911
▁ཨརཧཏྟམགྒེན	-10.8912
ཝཙནེ	-10.8913
▁པརིགྒཧིཏ	-10.8913
▁རུཀྑེ	-10.8914
ཛནཔད	-10.8917
མཊྛ	-10.8918
▁མཱཎཝཀ	-10.8918
ནིཝཱརཎ	-10.8918
སུར	-10.8921
ཧིཾས	-10.8921
▁ཝཱདཾ	-10.8923
▁ཨནུཏྟརོ	-10.8923
ཝསྶིཀ	-10.8927
▁ཏདནནྟརཾ	-10.8929
▁ཝིསོདྷ	-10.8932
▁ཁུར	-10.8932
▁ཝིདྷ	-10.8933
▁ཨཝིཏཀྐ	-10.8933
ཊྛཱནཱ	-10.8938
ཱདཱིནམ	-10.8939
▁པཱརི	-10.8942
▁སཙཀྑུཀཱན	-10.8943
ནཱཝ	-10.8947
▁པརིབྦཱཛཀཱ	-10.8949
▁སུཉྙོ	-10.895
སཾསགྒ	-10.8953
▁ཐཱཝར	-10.8953
▁ནིཊྛཱ	-10.8954
▁མཧཱབྷཱུཏཱནཾ	-10.8955
▁ཨིདྷཱདྷིཔྤེཏ	-10.8956
▁ཝཏྟབྦོ།	-10.8959
▁ཨིདྡྷིཔཱད	-10.896
▁དུསྶཱིལ	-10.896
▁དྷམྨཀཐིཀ	-10.8961
▁སམྤཱད	-10.8962
▁ཨསཀྐུཎེཡྻ	-10.897
▁པོསོ	-10.8971
▁ནིབྦཏྟེཏྭཱ	-10.8972
▁སངྒྷཱདིསེསོ	-10.8973
དཀྑིཎ	-10.8973
▁སཱཏ	-10.8975
▁ཨིདྡྷིཝིདྷ	-10.8975
པྤཝཏྟིཡཱ	-10.8976
གུཧ	-10.8976
▁པཱནཱིཡ	-10.8978
▁ཀརོནྟཱིཏི	-10.8979
▁ཝིཏཀྐཝིཙཱར	-10.898
▁ཊ	-10.8981
▁གཏོཏི	-10.8981
ཝཱསཾ	-10.8982
▁ཨཱརདྡྷཝཱིརིཡོ	-10.8982
ེསིཾ	-10.8983
▁པརིཙཱར	-10.8985
ཨཀུསལ	-10.8987
▁པརིཡེསཏི	-10.8987
ནཱད	-10.8992
སནྡ	-10.8994
▁པཱཏུ	-10.8997
▁ཁིཔྤ	-10.9003
བྷཱུཏཱཡ	-10.9004
▁༡༥༧	-10.9005
▁རཧ	-10.9007
▁ཨུཔགཏོ	-10.9007
▁ཨཱཔཛྫིཏྭཱ	-10.901
པུཎྞམ	-10.9011
▁ཨཱསུཾ	-10.9014
▁སནྟཱཔ	-10.9014
▁༡༤༥	-10.9015
▁རུཀྑམཱུལེ	-10.9015
མཏྟཀ	-10.9016
▁པབྦཏོ	-10.9016
▁སཏིསམྤཛཉྙ	-10.9018
ཝ྄ཧོ	-10.9019
དིཊྛདྷམྨསུཁཝིཧཱར	-10.902
▁ཨུསྶནྣ	-10.9022
▁ཨཱདར	-10.9025
▁ཙཀྑུདྷཱཏུ	-10.9026
ཐཱུཔ	-10.9027
▁སཱམིས	-10.9031
ཀིཎྞ	-10.9034
▁ཨོདན	-10.9034
▁ཝུཊྛཧ	-10.9036
ངྒམ	-10.9036
▁ཀནྟཱ	-10.9037
▁ཝིཙིཀིཙྪཱསཧགཏེ	-10.9037
▁༡༥༣	-10.9038
ཀཔྤིཡ	-10.9038
▁མཱནཱནུསཡཾ	-10.9039
▁དྷུརནིཀྑེཔ	-10.9039
▁མིཏྟོ	-10.904
ཝཱདེ	-10.9041
▁ཋཔིཏཱ	-10.9041
བྦྷནྟར	-10.9041
▁ཨདྷིཀཱར	-10.9042
དད	-10.9043
▁ཨཙེལཀ	-10.9044
▁ཉཱཏོ	-10.9048
▁པེམ	-10.9049
▁ཨདྷིགམཱཡ	-10.9049
ནཡན	-10.905
སདྡེ	-10.9052
▁ཨཀུཔྤ	-10.9053
སམྤདཾ	-10.9054
ནནུ	-10.9055
▁མེཏྟཙིཏྟ	-10.9056
ཡེ།	-10.9056
▁ཡོདྷ	-10.9057
▁པརིཉྙེཡྻ	-10.9057
▁ཨདུཀྑམསུཁཱ	-10.9058
སུཎ	-10.9058
ནིབྦ	-10.9059
▁པཊྛཱན	-10.9059
▁སེསེསུཔི	-10.906
▁ཀཱཡཝིཉྙཱཎཾ	-10.9061
▁ཨཱུ	-10.9064
ཡིཏྠ	-10.9066
▁བྷིནྡཏི	-10.9067
▁ཏཐཱགཏོ།	-10.9068
▁ཀཔྤེཏི	-10.9069
▁པརིམཱཎ	-10.907
སཏེཧི	-10.9071
▁ཨབྷཱཝོ	-10.9073
▁སེཀྑོ	-10.9073
▁ནལ༹	-10.9077
▁ཨཱརམྦྷ	-10.9077
ཀོཔ	-10.9078
▁ཨབྷིཝཱད	-10.908
▁མཧཱསམུདྡེ	-10.9082
▁སམཱཔཛྫཏི	-10.9084
ཛྫན	-10.9084
▁པརིཔུཎྞཾ	-10.9086
▁མུཧུཏྟ	-10.9092
▁ཝིཉྙཱཡ	-10.9092
▁ཨུཡྻཱནཾ	-10.9092
▁ནུཔྤཛྫཏཱིཏི	-10.9092
▁པཊྛཔ	-10.9094
ནིཝཱས	-10.9096
▁ཨནཝ	-10.9097
▁ཧིསྶ	-10.9097
ཛི	-10.9098
ཝིཔྤཡུཏྟཙིཏྟསྶ	-10.91
▁ཀཱུཊཱགཱར	-10.91
▁སརཏི	-10.9107
ིཏེན	-10.9109
▁ནེཀ	-10.911
▁གཙྪཱམ	-10.9112
ཝཱཔི	-10.9115
དིཝསཏོ	-10.9116
མུཊྛི	-10.9117
ཀཱ༎	-10.9118
▁གཙྪཏོ	-10.9119
▁ཨཛ྄ཛྷོཧཱརེ	-10.912
▁བྷཱསེཡྻ།	-10.912
ནྟོཔི	-10.9122
ནཱམརཱུཔ	-10.9122
▁ཝིདིཏཱ	-10.9122
▁པཉྩ།	-10.9124
▁དུཀྐརཾ	-10.9127
▁སེསེསུ	-10.9127
▁ཝཙནཱིཡོ	-10.9127
ཊྛཀཐཱཡ	-10.9128
▁ཨཐེཀདིཝསཾ	-10.9128
ཀཔྤེ	-10.913
ཧཏྠཱ	-10.9132
ཡནྟཱིཏི	-10.9135
▁ཨུགྒཧེཏྭཱ	-10.9135
▁པརཱམཱས	-10.9136
▁ཨདྷིཔྤེཏཱ།	-10.9139
▁ནིསིནྣེ	-10.9142
ིམྷི	-10.9142
▁གཙྪནྟཱིཏི	-10.9143
▁ཀཎྜ	-10.9143
▁ཝཙ	-10.9144
▁ཨིཏརསྶ	-10.9147
▁ཨཡྻཱ	-10.9148
▁ཨཉྙཱསི	-10.9151
▁དིཊྛཱ	-10.9152
▁ཀེནཊྛེན	-10.9157
▁པཉྙཏྟཱ	-10.9158
▁སཧེཏུཀཱ	-10.9158
སཏྟཱ	-10.916
▁ཝིནྡཏི	-10.916
▁སཡམྤི	-10.9161
▁ཀིས	-10.9164
ཝིསུདྡྷི	-10.9165
▁ཡཱཙིཏྭཱ	-10.9165
▁སིཀྑཾ	-10.9165
▁བྷོཛནཱིཡཾ	-10.9168
▁ནིཀྑམནྟ	-10.9169
ཏྠེརཨཔདཱནཝཎྞནཱ	-10.9171
▁ཝིསཡོ	-10.9172
▁ཝིརཛྫ	-10.9173
ཀཙྩི	-10.9175
མྦུ	-10.9175
▁༡༥༤	-10.9177
▁ཨཔྤཎིཧིཏ	-10.9178
▁བཧུསྶུཏ	-10.9178
ེཏྭཱཏི	-10.918
▁པཝེད	-10.9181
ེཏབྦཱ།	-10.9182
▁༡༥༡	-10.9183
▁མེཐུནདྷམྨ	-10.9184
▁བིལ	-10.9184
▁ཝདྷིཏྭཱ	-10.9185
▁ཏབྦ	-10.9186
▁ཀཏམ	-10.9186
▁སིཀྑཱཔདེ	-10.9187
དརཐ	-10.9187
▁དུབྦྷ	-10.9192
▁དིཊྛདྷམྨ	-10.9192
▁པརིཙྩཏྟ	-10.9193
ིཡ།	-10.9193
▁པཏྠནཾ	-10.9194
ཏཔྤ	-10.92
ཀམྨེན	-10.9201
ནཱནཏྟཾ	-10.9202
▁ལདྡྷོ	-10.9203
▁ནིརོདྷདྷམྨ	-10.9203
▁དྭཱདསམ	-10.9205
▁ནིཡཱམ	-10.9206
དཱིཔཀ	-10.9206
▁ཨཡནྟི	-10.9207
ཏྠེརཾ	-10.9208
▁ནིཀནྟི	-10.9212
▁སཱསཝཱ	-10.9213
▁ཡཐཱབྷཏཾ	-10.9214
▁མཧཱསཏྟསྶ	-10.9214
▁ཝིཝཊྚཱུཔནིསྶཡ	-10.9214
སཱམ	-10.9215
▁པདབྷཱཛནེ	-10.9215
གིརི	-10.9216
སནྟཱཔ	-10.9218
▁སམྤཛཱན	-10.9218
▁མཱཏུལ	-10.9219
པཊིཔཱཊིཡཱ	-10.922
▁ཨེཀཾསེན	-10.922
▁ཙེཏོཝིམུཏྟི	-10.9221
▁ཏུལ	-10.9222
▁ཝིནིཔཱཏ	-10.9222
▁མུཎྜ	-10.9222
▁༡༥༨	-10.9223
▁༡༥༩	-10.9223
▁མཧཱཐེར	-10.9223
པརིཙྪིནྣ	-10.9224
ཀཱམཱཝཙར	-10.9224
▁༡༥༥	-10.9225
▁པིཊྛིཏོ	-10.9227
▁ཝིཉྙཱཔེ	-10.9229
སཏྟཱནཾ	-10.9229
▁པཊིགྒཧཎ	-10.9229
པབྦཛིཏ	-10.923
▁བྷུཛ	-10.9232
ཀཌྜྷ	-10.9233
བྷཱཝེན།	-10.9235
▁ཨཊྛཱསི	-10.9236
▁པཋམོ།	-10.9236
▁ཨཉྙམཉྙསྶ	-10.9238
▁དནྡྷཱབྷིཉྙཾ	-10.924
▁ཝིཉྙཱཎཔཙྩཡཱ	-10.924
▁སཏིཾ	-10.9241
▁ཀཱརེནྟེ	-10.9242
▁རསྶོ	-10.9242
▁ཡསྶཱཏི	-10.9244
པདེཧི	-10.9245
▁སམྤཡུཏྟཔཙྩཡ	-10.9248
▁དསམ	-10.9248
▁སམནྣཱགཏོཏི	-10.9248
དསྶནཝསེན	-10.925
▁པཉྩཀྑནྡྷཱ	-10.9251
ཝིདྷཱནཾ	-10.9251
▁པཙྩཏྟ	-10.9251
མེས	-10.9251
ཱཏུར	-10.9252
▁ཏུལྱ	-10.9254
▁སམཱགམོ	-10.9255
▁ཨཏྠཝཎྞནཱ	-10.9256
▁མཙྪརིཡ	-10.9257
▁དིཊྛིགཏཝིཔྤཡུཏྟ	-10.9259
ོབྷཱས	-10.9259
ཝིབྷཝ	-10.9259
▁པཉྩཝིདྷ	-10.926
▁སངྑྱཾ	-10.926
▁ཋཔེཏུཾ	-10.9262
▁སཉྙཱི	-10.9263
▁ཨུཙྩཱར	-10.9265
▁ཨནཏྟ	-10.9265
▁སམྨུཁཱཝིནཡེན	-10.9268
▁ལབྷེཐ	-10.9271
མཱསེ	-10.9271
སནྠཏ	-10.9272
▁པབྷསྶར	-10.9276
▁གཧཊྛ	-10.9276
▁སུཉྙཏོ	-10.9281
▁ཁེམཾ	-10.9281
▁ཡཐཱབྷཱུཏ	-10.9281
ཱནུརཱུཔ	-10.9282
▁ཨུམྨཏྟཀསྶ	-10.9282
▁སཏྟསྶ	-10.9283
▁ནིབྦིནྡ	-10.9283
▁བྲཧྨདཏྟེ	-10.9287
ནྟརདྷཱན	-10.9288
ིཀསྶ	-10.9292
སམྤདཱཡ	-10.9293
▁སམཱཧིཏོ	-10.9295
▁ཨེཀཙྩཾ	-10.9297
▁རཱུཔེན	-10.9298
▁པཱཎཱ	-10.9299
▁དྷར	-10.9299
▁བྷཉྫ	-10.9299
▁གལ	-10.9301
▁ཏཱདཱི	-10.9301
▁ནཀྑམཏི	-10.9305
▁སུབྷཱཝིཏ	-10.9308
▁ཨནུསྶཱཝན	-10.9308
▁པཎྜཀ	-10.9308
▁ཛགྒ	-10.9311
ེཀཝཙན	-10.9312
ཙིཏྟུཔྤཱད	-10.9312
▁ཨོཊྛ	-10.9312
པུཊ	-10.9313
ུསྶད	-10.9314
▁སདྡྷམྨཾ	-10.9315
▁ལིཁིཏཾ།	-10.9317
▁མརིཡཱད	-10.9318
▁དེསེཏྭཱ	-10.9318
▁ཨཱརམྨཎཔཙྩཡོ	-10.9318
▁ནིསཱིདན	-10.9319
▁པཋམམགྒ	-10.9319
▁ཝཀྐ	-10.9322
སནྣ	-10.9323
སདྡྷམྨ	-10.9325
▁ཀལི	-10.9325
▁ཙརིཡཱ	-10.9327
ཀརཎཾ།	-10.9329
▁གནྟབྦ	-10.9329
▁ལོཀནཱཐ	-10.933
པཱཋ	-10.9333
ཝཙནཱིཡ	-10.9334
▁ཨཱཝུདྷ	-10.9334
ཙཀྑཱུ	-10.9335
ྭཱ	-10.9337
▁བཧལ	-10.9337
▁ལབྦྷཱ	-10.9337
▁སཾཝཙྪར	-10.9338
ཝཏྠཱ	-10.9339
▁ཛནཀ	-10.9339
བཱཧུ	-10.9339
གུཎེ	-10.934
ཱམཧཾ	-10.934
ཧི།	-10.934
▁ཧཏྠེཧི	-10.9342
▁པཝཱརིཏ	-10.9345
▁པིཝིཏྭཱ	-10.9347
▁ཨཱདིཀམྨིཀསྶཱཏི	-10.9349
▁ཨིདཉྷི	-10.935
སཾསཡ	-10.9352
▁པརིཙྪིནྡིཏྭཱ	-10.9353
▁ནིཙྪ	-10.9356
▁༡༦༥	-10.9357
▁ནཱཐོ	-10.9359
པྤཧཱར	-10.9361
སམཱཙཱར	-10.9362
▁མཧཱཔུརིསོ	-10.9362
▁བུདྡྷཝཙནཾ	-10.9362
▁པཙྩཡཾ	-10.9365
▁ཝིཏཀྐསྶ	-10.9369
▁ཨནིཙྩཏཱ	-10.937
▁ཝེཔུལླཱཡ	-10.937
▁ལཱབྷཾ	-10.9371
ཀཊ	-10.9372
▁ཧེཏུསམྤཡུཏྟ	-10.9374
▁ཨདྡྷཱན	-10.9374
ཨཝིཛྫཱ	-10.9374
▁ཨདྷིཊྛཱནཾ	-10.9374
མུནི	-10.9375
▁པཱམོཛྫཾ	-10.9376
ཝཱིཏིཀྐམ	-10.9376
▁ཨུདྡིཊྛ	-10.9377
▁ཨཔསྶནྟོ	-10.938
པུརིམ	-10.9381
ཙེཏ	-10.9381
▁ཀཱཡཱ	-10.9382
▁ཨམྦཊྛ	-10.9383
▁ནིཀྑིཏྟོ	-10.9385
དེསེ	-10.9386
▁པཉྙཔེནྟི	-10.9386
▁ནཱནཏྟཾ	-10.9387
▁ཡུཝ	-10.939
གྷན	-10.939
སཉྙིཏཱ	-10.9391
▁བྱཏྟ	-10.9391
▁ལཱིནཏྠཔྤཀཱསནཱ	-10.9392
▁ཀརེཡྻ།	-10.9393
▁ཚབྦགྒིཡེ	-10.9393
▁སཏྟཝིདྷ	-10.9393
▁ཀཱཡགཏཱསཏི	-10.9394
▁དིཛ	-10.9394
▁ཏཏྠཱཔི	-10.9395
▁སངྒྷཱདིསེསཱ	-10.9396
▁ཨུཔཀྐིལེས	-10.9397
ུལ༹ྷ	-10.9398
གཧིཏ	-10.9398
སིནེཧ	-10.9398
ནིསིནྣ	-10.9399
▁དྷམྨསེནཱཔཏི	-10.94
▁ཁཱིཎཱསཝཱ	-10.94
▁སཙྪིཀཏཱ	-10.9403
▁སམྦཧུལཱན	-10.9404
ིཉྩ	-10.9405
▁ནིདྡིས	-10.9406
▁པཉྩཱལ	-10.9406
བཱིཛཾ	-10.9407
▁ཝཏྠཱནི	-10.9408
▁མཱནུས	-10.9412
▁པཱིཏིསུཁཾ	-10.9414
▁དེཝདཏྟ	-10.9416
སོཏཾ	-10.9416
▁ཀརོནྟཱི	-10.9421
▁ཨདྷིཝཙནཾ	-10.9421
▁ཨཊྛཝིདྷ	-10.9421
ཀཱལེཔི	-10.9426
▁པརིཙར	-10.9426
▁ནིཡཏཱ	-10.9428
▁ཧིརི	-10.9429
གུམྦ	-10.9431
▁ཨཱཡཱུཧན	-10.9431
གྒྷནཀ	-10.9433
སམྦྷཝོ	-10.9434
▁༡༦༡	-10.9437
▁ནྷཱཡ	-10.9438
▁ལོཀཝིདཱུ	-10.9439
▁ཛཊིལ	-10.9439
ཝིཉྙཏྟི	-10.9441
▁དུཀྑཔཊིཔདཾ	-10.9441
▁པཙྩཝེཀྑིཏྭཱ	-10.9441
▁པཏཏི	-10.9443
▁ཏིཀིཙྪ	-10.9444
པཱཏུབྷཱཝ	-10.9445
སེཀྑ	-10.9447
▁སིངྒཱལ	-10.9449
▁ཐདྡྷ	-10.9449
དིབྦ	-10.9449
ཀདཱ	-10.9451
ཱརཧོ	-10.9451
▁ཨུཔགཙྪ	-10.9452
▁པཀཏ	-10.9454
▁སཱིད	-10.9458
ཝིཙིཏྟ	-10.9461
ཝཱི	-10.9462
▁ཨིཏྠིཾ	-10.9463
ཝིམཱན	-10.9465
▁པཱུརེ	-10.9466
▁ཝནྡན	-10.9466
ཱུཔམ	-10.9467
ཱུཔནིསྶཡ	-10.9467
ཐ༎	-10.9468
▁པོརཱཎཱ	-10.9469
སམུདཡཱ	-10.9472
▁ཙིནྟ	-10.9473
▁དུཀྑསཙྩ	-10.9473
ིཏྠཱི	-10.9475
▁པརིཡོསཱནཾ	-10.9477
▁ལོཀིཡཾ	-10.9477
▁ཝིཔཱཀསྶ	-10.9478
ཨཱརམྨཎ	-10.9479
▁ཨཱདྷཱར	-10.9479
▁པཊིཔཏྟིཡཱ	-10.948
མཱགམྨ	-10.9481
▁ཛནྟཱགྷར	-10.9482
▁ཉཱ	-10.9483
▁སཱིལསྶ	-10.9483
ུནྟི	-10.9483
▁བྷཝནྟཾ	-10.9484
▁མམཱཡ	-10.9484
ུཔོསཐ	-10.9487
ཱབཱདྷ	-10.9487
▁པཉྙཱ།	-10.9488
དཱི	-10.949
▁ཚཌྜིཏ	-10.949
▁ཁཡཾ	-10.9491
▁ཁནྡྷེསུ	-10.9492
▁ཡཾནཱུནཱཧ	-10.9493
ེཝཱཏི	-10.9502
▁པརིཎཏ	-10.9502
▁མནོདྭཱརེ	-10.9504
ཊྛཀཐཱ	-10.9505
▁ཨནུཔྤཱད	-10.9507
▁ཨུཔེཀྑཱསཧགཏཱ	-10.9507
▁ཝེདནཱཀྑནྡྷ	-10.9509
ཡ྄ཧ	-10.9511
▁སམྤཡོག	-10.9514
ཏིཨཱདཱིསུཔི	-10.9517
ཱགཏ	-10.9518
▁སརཱ	-10.9519
▁ཨནུཔཱདིནྣ	-10.9519
▁པུརཱ	-10.952
▁ཀཔྤཏི	-10.952
▁བྲཱཧྨཎེ	-10.9523
▁ཨཱརཉྙིཀ	-10.9525
▁ཨིསྶ	-10.9527
ཝཛྫིཏ	-10.9527
▁ཨོལཱ༹རིཀཾ	-10.9528
▁ཨཱརུཡ྄ཧ	-10.9528
▁ཋིཏོ།	-10.953
▁ཨུཔེཀྑ	-10.9532
▁སེསོ།	-10.9534
▁སཀྐཱརཾ	-10.9534
▁ཝིདྷུར	-10.9536
སུནྡར	-10.9536
▁པཙྩཏྠིཀ	-10.9536
▁སམནྣཱགཏཏྟཱ	-10.9537
▁ཨསངྒཧིཏ	-10.9537
སིརི	-10.9538
▁ཋཔིཏོ	-10.9538
ཨིམཱཡ	-10.9538
པཱསཱད	-10.9539
▁སུཏཝཱ	-10.9539
▁ཝིཧེཋ	-10.954
▁ཨཙྪརིཡཾ	-10.954
▁སཱིམ	-10.9541
▁བྷཱཝནཱཔཱརིཔཱུརི	-10.9542
▁ཨཱརམྨཎཏོ	-10.9543
▁ཡཐཱརུཙི	-10.9544
▁གམིསྶ	-10.9544
▁སམཱདཱན	-10.9545
ཱཧཱརོ	-10.9546
▁ནགྒ	-10.9547
ུཏྟ	-10.9547
▁ཀཱམཱཝཙརཀུསལ	-10.9547
གཎོ	-10.9548
▁པརིཧཱཡ	-10.9551
▁བྱཱཀར	-10.9557
▁ཀལལ	-10.9557
▁ཨདྷིམཏྟ	-10.956
▁ཨེཀོཔི	-10.956
▁སུསམཱཧིཏ	-10.9561
▁གནྡྷཱ	-10.9562
▁ཝེལུ༹རིཡ	-10.9562
▁ཨིདམསྶ	-10.9562
ིསྶསཱི	-10.9564
▁བྷཝནྟ	-10.9565
▁པཱུཛཾ	-10.9565
▁ཨདིཊྛ	-10.9568
▁པོརཱཎཀ	-10.9568
▁ཨུདཡབྦཡ	-10.9569
▁ཨཀཾསུ	-10.9572
▁ཨུཔེཀྑཀོ	-10.9572
▁ཡུཛ྄ཛྷ	-10.9574
▁ཝཱཙསིཀ	-10.9574
▁པཱཔཀཱནཾ	-10.9577
▁སཾཝཱས	-10.9579
ཝ྄ཧ	-10.958
▁པཏྟཙཱིཝརཾ	-10.9581
པལླངྐ	-10.9582
▁སརཱག	-10.9583
ཀཏམཉྩ	-10.9583
▁ཨཙྪིནྣ	-10.9584
ཱཝསཱནེ	-10.9586
▁ཨནུཔཱདཱཡ	-10.9586
ཱརོཧ	-10.9587
ནཱིཡོ	-10.959
▁པཛཧཏི།	-10.959
ཱིཏི།	-10.9591
▁ཨནེན	-10.9592
▁གམྦྷཱིརོ	-10.9593
ཱམསེ	-10.9593
▁པཉྩངྒིཀ	-10.9594
▁ཨནུཉྙཱཏཱ	-10.9594
▁དུལླབྷ	-10.9594
▁ཡོནཾ	-10.9595
ཱདྷིཔྤཱཡེན	-10.9596
▁ཨཱགྷཱཏ	-10.9599
▁ཀརོནྟེན	-10.9601
▁པིདཧ	-10.9608
▁པོཀྑར	-10.9609
▁ནིཔྤ	-10.961
▁ཨཉྙཱཏ	-10.9612
▁ཚལ༹བྷིཉྙཱ	-10.9612
▁ཀཱམཙྪནྡོ	-10.9614
▁ཨེཏྟཀ	-10.9615
▁ཨེཏྟཀེན	-10.9615
▁སུཝིཉྙེཡྻ	-10.9618
▁དེཏཱིཏི	-10.9619
ཱུཧི	-10.9619
▁ཝིརཱགོ	-10.962
▁པརིལཱ༹ཧ	-10.962
▁སཉྙོཛནཝིཔྤཡུཏྟ	-10.962
▁མཧཱི	-10.9621
མལཾ	-10.9622
▁ཨམ	-10.9622
▁སུབྷཱསིཏ	-10.9622
▁དུཀྑསམུདཡོ	-10.9622
▁བྷིཀྑཱ	-10.9623
▁ནཱཉྙ	-10.9623
▁ནིཝེས	-10.9624
▁ཝིརཛཾ	-10.9624
▁པཛཱནཱཏཱི	-10.9624
ཀིར	-10.9626
སངྒྷཱདིསེས	-10.9627
▁ཝསན	-10.9628
▁རཛྫུ	-10.9629
བྷུཉྫ	-10.9631
▁པཊིལབྷིཏྭཱ	-10.9633
▁ཧེཏུནཱ	-10.9635
▁ཨཏྟབྷཱཝོ	-10.9635
▁དྷུཏ	-10.9637
▁དྭཱརེསུ	-10.9639
ིམཱནི	-10.964
▁ཕལཀ	-10.9641
▁པཊིསཉྩིཀྑཏི	-10.9642
▁པོཀྑརཎཱི	-10.9643
▁ཨཱཔཏྟཱིཏི	-10.9643
▁ཨབྷིམུཁ	-10.9644
ཨིཙྩ	-10.9647
ཱགཱར	-10.9647
▁སམྨནྟི	-10.9648
▁ཏཱིསུཔི	-10.9648
▁ཨརཧཏྟེ	-10.9649
▁ཨསངྑཏཾ	-10.965
▁པེཏཾ	-10.965
པཊིསཾཡུཏྟ	-10.9651
▁ཝེདནཱཔཙྩཡཱ	-10.9652
▁ཝེཝཙནཾ།	-10.9653
ེསྭ	-10.9653
མེགྷ	-10.9653
ཙིར	-10.9653
▁ཝཱཏཱ	-10.9654
ཱཡཱ	-10.9655
▁ཨཔྤཧཱིནཱ	-10.9656
▁ཨཔྤིཡ	-10.9659
ཝོཧཱརོ	-10.9659
▁སཏཱནི	-10.9661
དྷོ	-10.9661
▁ཨཏྠཔཊིསམྦྷིདཱ	-10.9662
▁པཱུཛཡ	-10.9662
ཝིཧཱརཾ	-10.9665
▁ནིཀྑམྨ	-10.9666
▁ཡོཔི	-10.9666
པཀ	-10.9667
▁ཝེསཱལིཡཾ	-10.9667
▁ནིརུདྡྷ	-10.9668
▁ཕུཊྛོ	-10.9671
བྷཱཝོཏི	-10.9672
▁ཝིཔསྶི	-10.9672
མཱནསོ	-10.9672
མནོཝིཉྙཱཎདྷཱཏུ	-10.9673
བྷཱཝཱཡ	-10.9673
▁དུཏིཡོ།	-10.9674
▁རཱུཔདྷཱཏུ	-10.9674
▁ཀཏཱ།	-10.9675
སེཝིཏ	-10.9675
▁མནསོ	-10.9676
ཙྪི	-10.9677
མཱརུཡ྄ཧ	-10.9678
མིམཾ	-10.968
▁ཨེཀེཀསྨིཾ	-10.9682
▁ཨུདྡིསིཏྭཱ	-10.9682
ཀཎྜཾ	-10.9683
▁པརིཝཏྟན	-10.9684
རམ	-10.9684
▁ཁེཔ	-10.9685
ཏབྦོ	-10.9685
ཝིབྷཱགོ	-10.9685
ཾཀིལིཊྛསཾཀིལེསིཀ	-10.9685
▁ཨུདྡྷཙྩསཧགཏེ	-10.9686
ིཡཏྠེརསྶ	-10.9687
▁པཉྙཏྟེ	-10.9687
▁ཨནུསྶརཏི	-10.9689
▁ཏཱས	-10.9692
▁༡༥༢	-10.9693
▁དུམ	-10.9694
▁ཨཱགཏཏྟཱ	-10.9695
▁པཱཏུབྷཱཝོ	-10.9696
▁ཨཱསེཝན	-10.9698
▁གཧེཏབྦཾ	-10.9699
▁ལཏཱ	-10.9701
▁ཨཱརམྨཎེསུ	-10.9701
▁སཀལསརཱིར	-10.9703
▁ཝདེཏི	-10.9703
▁དེཝཏཱཡ	-10.9704
▁བཱཧཱ	-10.9705
▁ཝཱིཏིཝཏྟ	-10.9706
▁ཝིཧཏ	-10.9706
▁དུཔྤ	-10.9707
ུདྡྷཱར	-10.9708
ུཔཱདིནྣུཔཱདཱནིཡཾ	-10.9709
▁པཱརཱཛིཀསྶ	-10.971
བྷཱགིཡ	-10.971
▁ཨཧིརིཀ	-10.9711
▁ཕརཎ	-10.9711
སཱིཧོ	-10.9713
▁བྲཧྨུནཱ	-10.9713
▁སཙྪིཀིརིཡཱཡ	-10.9715
▁གཎྷིཏྭཱ	-10.9716
▁གནྟབྦཾ།	-10.9718
▁ཨཱམས	-10.9719
པཱཏིམོཀྑ	-10.9722
ཀརཎཏོ	-10.9722
ཏུམྷེ	-10.9723
མིཙྪཱ	-10.9723
▁ཨཱད	-10.9724
▁སཝིཏཀྐསཝིཙཱརསྶ	-10.9724
▁ཡཱཔན	-10.9726
▁སཔྤུརིསོ	-10.9726
▁ཝཱིཏརཱག	-10.9726
▁ཨསྶོསི	-10.9727
▁ཨོལམྦ	-10.9728
▁སརཎོ	-10.9728
▁༡༦༧	-10.9728
▁པིཏྟ	-10.9729
▁པོཏྠཀ	-10.9732
▁པསཝ	-10.9735
▁ཐིནམིདྡྷཾ	-10.9736
▁ཝིབྷཱུཏ	-10.9738
▁ཝཏྟབྦཏྟཱ	-10.9738
ཀྑཱི	-10.9739
སཾསཱར	-10.9745
ིཾསཱུ	-10.9746
▁ནིབྦཱནཾ།	-10.9746
▁ཨུཔེཀྑཱསཧགཏ	-10.9748
▁ཀུསལམཱུལ	-10.9749
ཊཱ	-10.975
མདྷུ	-10.9752
▁ཛངྒྷ	-10.9752
ནྟརཱ	-10.9752
ཱཔནཾ	-10.9753
སཀྐོ	-10.9753
▁པཉྷཱཝཱརོ	-10.9754
▁ཡུཛྫ	-10.9754
▁མཱཏུཀུཙྪི	-10.9758
▁དིནྣེ	-10.9759
▁ཝཏྠུནཱ	-10.9762
▁ཝིསཛྫ	-10.9762
▁དྭིནྣམྤི	-10.9763
▁སུལབྷ	-10.9764
▁དྷམྨཱནུཔསྶཱི	-10.9765
སནྟཱནེ	-10.9765
▁ནིདྡིཊྛཱ	-10.9766
▁དུཀྑོ	-10.9766
▁གཛྫ	-10.9766
▁ཨཉྙཏརཱ	-10.9768
▁ཨཱནུབྷཱཝེན	-10.9768
▁ཙེཏནཱཡ	-10.9769
པཉྩཀཾ	-10.9771
▁ཙོདེཏི	-10.9778
ནཏཱ	-10.9779
▁སཾཡོཛནཾ	-10.9779
▁ཕསྶཾ	-10.9779
ཏཀྐ	-10.978
▁པུརིསེ	-10.9782
ནིསྶནྡ	-10.9783
སཱདྷཀ	-10.9784
▁ཨིཙྩེཝཾ	-10.9784
པཱིཏ	-10.9784
▁༡༦༢	-10.9784
▁པཊིཔཛྫཏི	-10.9785
མུཏྟམཾ།	-10.9787
▁ནིབདྡྷ	-10.9787
▁རཱཛཀུལ	-10.9788
▁ཛཱཏེ	-10.9789
▁ཨཀིརིཡ	-10.9789
▁ཀཱསི	-10.9792
▁ཝཱིཏིནཱམ	-10.9799
པྤཀརཎ	-10.9801
▁སྣེཧ	-10.9802
མྷི།	-10.9802
ནྠ	-10.9803
ནམེཝ	-10.9804
▁སོཀཔརིདེཝདུཀྑ	-10.9805
▁ཨཱསཱིཝིས	-10.9805
▁སམུཙྪིནྡ	-10.9806
▁གཧིཏེ	-10.9806
▁ཨཱམནྟེཏྭཱ	-10.9808
▁བཧུསྶུཏཱ	-10.9812
པརིཝཱས	-10.9812
▁ཨཊྛནྣཾ	-10.9814
▁ཨགྒསཱཝཀཱ	-10.9816
▁སཁཱ	-10.9817
▁ཨེཏྠེཝ	-10.9818
▁པཀརཎ	-10.9818
▁ནིདྷི	-10.9821
▁༡༧༦	-10.9821
▁པཝུཙྩཏི༎	-10.9822
▁དུཏིཡསྶ	-10.9823
▁པཊིསཾཝེད	-10.9823
▁པཉྩཝཱིསཏི	-10.9825
▁པདཏྠ	-10.9826
▁དུཁ	-10.9827
དེ	-10.9828
ཱདཱིཏི	-10.9829
▁སམཱདཔ	-10.983
▁བྷཱིཏོ	-10.983
▁པཊིགྷཱནུསཡཾ	-10.9835
▁བྱཱཀརེཡྻ	-10.9837
▁ཨཱཙཡགཱམི	-10.9838
▁ནིཀྐ	-10.9838
སསྶ	-10.984
▁ཝིསྶཛྫནཾ	-10.9841
ནཀཱལེ	-10.9842
▁ཛནཔདེ	-10.9843
▁ཨཔྤཀ	-10.9844
▁ནནྡཱི	-10.9846
ཨངྒ	-10.9847
▁ཨེཀཀ	-10.9847
ཀཐན	-10.9849
▁དྷོཏ	-10.985
▁པནྠ	-10.985
▁གནྡྷབྦ	-10.9851
ཱཙཡགཱམིནཱཔཙཡགཱམི	-10.9852
▁ཨུཔལབྦྷཏཱིཏི	-10.9853
▁སེནཱཡ	-10.9855
▁པཱཏིམོཀྑུདྡེས	-10.9856
▁པཱརིཔཱུརིཡཱ	-10.9856
▁སོཏདྷཱཏུཡཱ	-10.9858
▁སཀྐཱར	-10.986
པྤསངྒ	-10.9861
སདྡཱནཾ	-10.9863
མཏོ	-10.9863
སམྨཱདིཊྛི	-10.9865
ིནོ༎	-10.9865
▁སུབྷདྡ	-10.9865
▁ཛཱིཝཏི	-10.9867
▁ཝེདེཏི	-10.9868
▁དསྶིཏཱ།	-10.987
▁ཨསིཏ	-10.9871
▁༡༧༤	-10.9873
▁ཚཀྐ	-10.9876
▁ཀམྨནི	-10.9879
▁པརིབྷུཉྫིཏབྦ	-10.9881
▁སཱཝཏྠི	-10.9882
▁ཨཏྟབྷཱཝཾ	-10.9883
བྷཱཝེནེཝ	-10.9883
▁ཨནཱརམྨཎ	-10.9885
▁ཝུཏྟེསུ	-10.9885
▁མནོཝིཉྙཱཎཾ	-10.9886
▁པདྷཱནཾ	-10.9888
▁ནིམནྟ	-10.9889
དྷམྨེན	-10.9891
▁ཨཉྙེསུ	-10.9893
དསཧཱཡཏནེཧི	-10.9893
▁ཨིཎ	-10.9895
▁ཝིབྷཱཝནིཡཾ	-10.99
▁ཨནྟརནྟརཱ	-10.99
ནཱ༎	-10.9901
ཊྛཱནེསུ	-10.9902
▁ཨིཏྠིཡཾ	-10.9903
▁པཱརཱཛིཀསྶ།	-10.9904
▁པཝེསེཏྭཱ	-10.9905
ཚཏྟ	-10.9908
▁གཙྪནྟ	-10.9909
▁ཉཱཏབྦ	-10.9911
▁ཙིཏྟནྟི	-10.9911
སངྒྷཱཊ	-10.9912
▁སབྦཱཀཱརེན	-10.9914
▁སངྒྷབྷེད	-10.9917
▁སོམནསྶེན	-10.9917
▁སཉྫཱན	-10.9918
པེས	-10.992
རཱཛསྶ	-10.992
▁པཱཏོ	-10.9921
▁༡༧༩	-10.9921
▁བྷུཉྫིཏུཾ	-10.9921
▁ཝིནི	-10.9922
▁ཏཙྪ	-10.9922
▁ནིཊྛིཏོ	-10.9925
ིཀནྟི	-10.9928
▁སཏྟམཾ	-10.9928
▁བདྡྷོ	-10.9928
▁སངྒཱམ	-10.9929
▁ཨཱརོཔིཏ	-10.993
ཝིམཱནཾ	-10.9931
པཱདིནྣཨནུཔཱདཱནིཡ	-10.9932
▁ཁུདྡ	-10.9933
▁ཝཱཡཱམ	-10.9935
ིནོཏི	-10.9936
པཉྙཏྟ	-10.994
▁ཀུརུ	-10.9941
▁མཏཾ	-10.9941
▁སཡམྦྷཱུ	-10.9947
▁ཨུཔཙིནནྟོ	-10.9947
▁ཏདེཀཊྛ	-10.9947
▁བྷཝརཱགཱནུསཡཾ	-10.9947
▁ནསཧེཏུཀ	-10.9947
ཨུཔཱདཱན	-10.9948
གཎཱ	-10.9948
པཱཀཱར	-10.9948
▁ནཔུཾསཀེ	-10.9948
པཱདེ	-10.9948
▁ཝཏྟནྟི	-10.9951
▁གནྟབྦོ	-10.9953
སུཏྟཝཎྞནཱཡ	-10.9953
ནཱས	-10.9953
▁ཨཱཝཱས	-10.9954
▁གཏིཡཾ	-10.9955
▁སོཏཱཔཏྟིཕལཾ	-10.9955
▁གཧཎེ	-10.9956
ཝིགྒཧ	-10.9956
▁པནེསཱ	-10.9956
ངྐུར	-10.9959
▁ཏུཊྛ	-10.996
▁ཀཱམཱཝཙརཱནཾ	-10.9962
སམུདཱཡ	-10.9964
ཏྠིཀོ	-10.9965
ཱདན	-10.9966
▁སནྣིདྷི	-10.9966
▁ཡཐེཝ	-10.9967
▁ཨཱགཏོ།	-10.9968
བྷཱི	-10.9968
▁ཨེཏཱཡ	-10.9968
▁པཝཏྟནྟི	-10.9968
ིནཾ།	-10.9969
▁ཨཱརཱམོ	-10.997
▁ཨིམམེཝ	-10.997
▁ཀཱལངྐཏོ	-10.9971
ཙནྡན	-10.9972
མཱཔཛྫ	-10.9973
▁པཊིགྒཧེཏབྦ	-10.9973
ཱཔེཏཱིཏི	-10.9973
དཱརུ	-10.9974
ཙིནྟ	-10.9977
མིཏྟོ	-10.9979
▁ལཱབྷསཀྐཱར	-10.998
▁ཨཱཡཏ	-10.9981
▁ཝོདཱན	-10.9982
▁ཨནིཡཏ	-10.9984
▁པུརཾ	-10.9984
▁ཀིལེསཀཱམ	-10.9986
▁༡༧༠	-10.9986
ནཱམཾ	-10.9987
▁ཏཏིཡོ།	-10.9989
▁༡༦༩	-10.9991
▁སཱུལ	-10.9992
▁ཝཱིཏིསཱརེཏྭཱ	-10.9994
▁གནྟྭཱན	-10.9995
▁སིརཱི	-10.9996
▁སཉྩེཏནིཀ	-10.9998
▁སཎྛཱན	-11
སནྟཀ	-11.0004
▁སཱིཏལ	-11.0005
▁སམྤཊིཙྪིཏྭཱ	-11.0006
▁ཧིརོཏྟཔྤ	-11.0007
སནྣིསྶཡ	-11.0008
▁ཨུཀྐ	-11.0009
ཏྠེརསྶཱཔདཱན	-11.001
▁ཨསྨཱ	-11.0011
ཝིཧཱརཱི	-11.0011
ཝེདནཾ	-11.0012
ཝིདྡྷ	-11.0014
པཐཝཱི	-11.0014
ཙཱརི	-11.0015
▁ཨེཏམྤི	-11.0016
▁པམཱདོ	-11.0018
▁དིབྦཾ	-11.0018
▁པཉྩཝིཉྙཱཎ	-11.002
▁༡༧༣	-11.0022
▁༡༧༢	-11.0022
▁ཨུཏྟརཱསངྒཾ	-11.0022
▁སུཁུམཾ	-11.0023
▁ཀིཙྪ	-11.0026
▁སཱིལཀྑནྡྷ	-11.0026
▁སཔྤཙྩཡ	-11.0027
སདིསེ	-11.0031
▁ལབྷེཡྻ	-11.0032
▁སེནཾ	-11.0032
དཱཡཀཏྠེརཨཔདཱན	-11.0034
▁ཛཱིཝིཏིནྡྲིཡཉྩ	-11.0039
པྤབྷཝ	-11.0041
བྷིཀྑཱུནཾ	-11.0041
ཝུཊྛ	-11.0042
▁༡༦༤	-11.0042
▁བཧཱུཔཀཱར	-11.0044
▁ཨབྷིཎྷཾ	-11.0044
ཱཙརིཡོ	-11.0044
▁དསྶེསི།	-11.0045
ཝེདྷ	-11.0049
▁པརིགྒཧེཏྭཱ	-11.0049
▁ཨཀུསལེཧི	-11.005
པྤཊིཔནྣ	-11.005
▁ཨཱརཉྙཀ	-11.0051
བྷཱགོ	-11.0052
▁པཧཱཏབྦཧེཏུཀཱ	-11.0053
སམནྣཱགཏོ	-11.0054
ཱནམེཝ	-11.0056
སངྒྷོ	-11.0056
▁ལབྷཏཱིཏི	-11.0057
▁མུདིཏཱ	-11.0057
▁ཨེཀཀྑཎེ	-11.0058
▁༡༦༨	-11.0059
▁ཨཝསྶུཏ	-11.006
▁པཏཱི	-11.0062
▁པཱཔེཏྭཱ	-11.0063
▁ཨནིདསྶན	-11.0064
▁ནིསྶིཏ	-11.0064
▁ཨབྷིཉྙེཡྻཾ།	-11.0064
མྤཱི	-11.0064
ནིཡཱ	-11.0065
ཡཱནི	-11.0068
༢༠	-11.007
ཱུར	-11.0071
▁ནིཔནྣོ	-11.0072
▁པགྒཎྷཱཏི	-11.0074
▁ཨཛིན	-11.0076
▁ཀཱཏབྦནྟི	-11.0076
▁པཏྟསྶ	-11.0078
▁ཀངྑཏི	-11.0082
མཱནོཏི	-11.0082
ཉྙུ	-11.0084
▁དཱནེ	-11.0089
▁གཧཔཏཡོ	-11.009
ཱདིབྷེད	-11.009
▁ལཛྫི	-11.0091
▁ཝཌྜྷི	-11.0091
མཏྠི	-11.0091
▁པཱཔིཀཱ	-11.0092
▁ཨཛ྄ཛྷཱཝས	-11.0093
▁རཱཛགཧ	-11.0093
▁སམྦྷཝནྟི	-11.0093
▁གཱཧཱཔེཏྭཱ	-11.0094
▁ཨཱདིམྷི	-11.0094
▁པབྦཏཾ	-11.0095
▁བཱཧིརཱ	-11.0096
▁ཨིཏྠིནྡྲིཡཉྩ	-11.0097
▁པཙྪིམཱ	-11.0098
▁ཏཱཏཱ	-11.0098
ཏཝ	-11.0099
▁སཱམིཀོ	-11.0099
▁པཱུཛིཏོ	-11.01
ཏུ།	-11.0102
▁པུབྦེནིཝཱསཾ	-11.0103
▁པཡོགོ	-11.0107
ཡཏྟ	-11.0107
▁སམཱདྷིསྶ	-11.0107
ཨཝ	-11.0109
▁ཙརེཡྻ	-11.0111
▁ཨིརིཡ	-11.0114
▁ཝིརམ	-11.0114
▁སབྦདུཀྑ	-11.0114
▁ཏྭམྤི	-11.0115
▁ཉེཡྻ	-11.0119
སམྤཡུཏྟོ	-11.0119
སམུཊྛཱནཱ	-11.0119
ཝུདྡྷི	-11.0121
རོ།	-11.0122
▁མུསཱཝཱདཱ	-11.0123
▁ཝིརཱགཱཡ	-11.0125
▁སརས	-11.0126
▁དཱིཔེ	-11.0126
▁ཨསྶམཾ	-11.0126
གཱམཾ	-11.0127
▁མནཱཔཾ	-11.0127
▁པལིབོདྷ	-11.0128
▁ཋཔེནྟ	-11.0133
▁ཀྲིཡ	-11.0135
▁དུམྨ	-11.0137
སཾཝཏྟནིཀ	-11.0138
▁ཏུཎྷསྶ	-11.0139
▁ཏདངྒ	-11.0139
▁དུཀྑཾ།	-11.0139
▁ཨངྒུལི	-11.0139
▁པཊིཀྑེཔ	-11.0141
བྷཱུཏཱནཾ	-11.0144
▁ཀཎ	-11.0144
▁བུཛ྄ཛྷནྟཱིཏི	-11.0144
▁ནཱཐ	-11.0144
▁གནྠོ	-11.0147
▁པཱརུཔིཏྭཱ	-11.0149
▁ཨིདྡྷིཔཱདཱ	-11.0149
▁མུཁཏོ	-11.015
▁པུཊྛཱ	-11.0151
▁ཨནུསྶཝ	-11.0151
▁ནོཙིཏྟསམུཊྛཱན	-11.0151
▁དོམནསྶསཧགཏ	-11.0152
▁༡༧༥	-11.0157
▁ཨུཀྐཾས	-11.0157
ཨཔ	-11.0158
ོཝ།	-11.0162
དཱནི	-11.0162
▁ཝཉྩ	-11.0162
▁བུདྡྷེན	-11.0163
གམནེ	-11.0165
ེསྶཱམཱིཏི	-11.0165
▁སཔཏྟ	-11.0166
ཨལཾ	-11.0169
▁རམྨ	-11.0173
ལས	-11.0173
ཱརཱམོ	-11.0174
▁དེཝིཡཱ	-11.0174
▁ཁཱིཎཱ	-11.0176
ིསྶནྟཱིཏི	-11.0176
▁བྷེ	-11.0177
▁༡༦༦	-11.0177
▁ཝེདིཡ	-11.018
▁ནིསེདྷ	-11.0181
▁ཝིཝིཙྩ	-11.0183
པརིཀམྨ	-11.0184
▁རཱུཔནྟི	-11.0185
▁ཨུཔཔནྣོ	-11.0186
▁དུཀྑསྶནྟ	-11.0187
▁ཨིཏྟར	-11.0188
▁ཝུཏྟསྶ	-11.0188
▁ཨཏྠངྒཏ	-11.0189
▁པཧཱིཡནྟི	-11.019
▁ཨབྱཱཀཏཉྩ	-11.019
▁ཕུསཏི	-11.0191
▁པཙྩུཊྛ	-11.0191
▁ཨཡོནིསོམནསིཀཱར	-11.0193
པཐོ	-11.0195
▁དིནྣཱ	-11.0195
▁ཨཱཀཱརེན	-11.0195
▁སམཎདྷམྨཾ	-11.0197
ཱཔེནྟོ	-11.0197
▁པཱསཱདིཀ	-11.0198
▁པཱུཛེཏྭཱ	-11.0198
▁བྷཝིཏབྦཾ།	-11.0201
▁སེསེསུཔི།	-11.0201
▁ཨིཊྛཱ	-11.0202
སིཀྑཱ	-11.0203
▁གཙྪནྟཱ	-11.0204
སཱིཏ	-11.0204
▁པཀྑཱི	-11.0205
▁པཙྩཀྑཏོ	-11.0205
སོདྷན	-11.0205
▁དྷཱིཏརཾ	-11.0206
▁གིཧཱིནཾ	-11.0208
ིཡེ	-11.0211
▁ཕསྶཱ	-11.0214
▁ཨཀཏཾ	-11.0215
▁ཨཀུསལེ	-11.0216
▁དུབྦཎྞ	-11.0218
▁ཨཱཏུར	-11.0219
▁ཨཊྛམཾ	-11.0219
▁ཨུདྡེསཾ	-11.022
▁ཨགཱར	-11.0223
ཨིཙྩཱདི།	-11.0224
▁ཏུཊྛོ	-11.0226
བྷཱཝཉྩ	-11.0228
▁ཝུཙྩམཱན	-11.0229
▁ཏཱིརཾ	-11.023
▁༡༧༨	-11.023
▁གྷཱནཱཡཏནཉྩ	-11.0236
▁བྲཧྨུནོ	-11.0237
ཀིཙྪ	-11.0238
▁ཝིནཡདྷར	-11.0238
སྶཛཾ	-11.0238
དྷིགཏ	-11.0239
▁ཝཡཔྤཏྟོ	-11.0239
▁ཀེཝཊྚ	-11.0239
▁མགྒཀྑཎེ	-11.0241
ནཱལི༹	-11.0241
▁ཨཱཙཡགཱམཱི	-11.0242
▁ཨནཝསེསཏོ	-11.0243
▁ཨནྡྷཀཱར	-11.0244
▁པརིཧཱིན	-11.0245
པྤཧཱནེན	-11.0245
སམཐ	-11.0246
▁བྷཱུམིཾ	-11.0246
▁པཱརིཝཱསིཀ	-11.0247
▁གོཙརོ	-11.0247
▁ཨབྱཱཔཛྫ	-11.0247
▁ཡཱཙཀ	-11.0247
▁ཨརཎཾ	-11.0249
གཱིཏ	-11.0251
▁སུཏྟནྟོཏི	-11.0253
▁ཏུལཱ	-11.0254
▁སེཝིཏབྦོ	-11.0255
▁སཱིལསམྤནྣོ	-11.0256
▁༡༨༡	-11.0256
▁ཝགྒཱ	-11.0257
ནོཏི	-11.0257
ཧེཏུཀཾ	-11.0259
སམྨཏ	-11.0261
ཝཏྠཱུསུ	-11.0262
▁ཋིཏཾ།	-11.0264
ཝིཧཱརོ	-11.0264
ཐམྦྷ	-11.0264
▁དྷམ	-11.0266
ཨནིཙྩཾ	-11.0266
སྨ	-11.0269
▁སབྦཏྠཱཏི	-11.0271
▁ཏིཡོཛན	-11.0272
ལོཔོ།	-11.0274
ཱདཱིསུ།	-11.0275
ཏཔ	-11.0276
ཱདིནོ	-11.0277
▁ཨརཧཏཱ	-11.0277
ཝིདྷིཾ	-11.0278
▁པརཱམསཏི	-11.0279
▁རཱུཔཱདཱིསུ	-11.028
བྱཱཀརཎ	-11.0282
▁པདཊྛཱནཾ།	-11.0283
གཏསྶ	-11.0283
གཝ	-11.0285
▁ནིཡྻཱནིཀཾ	-11.0286
ཨཔར	-11.0287
▁ཨཱཀངྑམཱནོ	-11.0288
▁ཨུཏུསམུཊྛཱནཾ	-11.0289
▁སམྨཏ	-11.0292
ཕལཱ	-11.0292
▁སམྤཛཱནམུསཱ	-11.0294
ཱདཱིནནྟི	-11.0295
▁ཝཏྟཏཱིཏི	-11.0296
▁ཚཱདེཏི	-11.0297
▁ཚཝ	-11.0297
▁ཝུཙྩཏི༎	-11.0301
▁ཀརོཏོ	-11.0302
ཡུག	-11.0302
པཊལ	-11.0305
▁སམྨཱཨཱཛཱིཝོ	-11.0306
▁ཨིཧ	-11.0306
▁གརུབྷཎྜ	-11.0306
▁ནིཝཱར	-11.0309
ཝིགྷཱཏ	-11.031
བྱཏྟ	-11.0312
ཨེཀཾ	-11.0313
▁ཨིཙྪིཏབྦ	-11.0314
▁སམྦྷཝཏི	-11.0318
▁ལབྦྷནྟི།	-11.0318
▁བོཛ྄ཛྷངྒཱ།	-11.0318
པིཎྜཾ	-11.0319
དྷཉྙ	-11.0319
▁སོལ༹སཧི	-11.0321
▁རོགོ	-11.0321
▁ཀནིཊྛ	-11.0322
▁སིཀྑཱཔདེསུ	-11.0322
▁ཨཔརཱ	-11.0324
▁ཨཱནཱཔཱནསྶཏི	-11.0324
▁ཨཔརིསུདྡྷ	-11.0326
ཝཏ	-11.0328
▁༡༦༣	-11.033
▁དྭེདྷཱ	-11.0331
▁གནྠསམྤཡུཏྟ	-11.0331
▁སུཉྙཏཱ	-11.0331
▁ཝིཔཙྩ	-11.0334
བྷཱཝཏོཏི	-11.0334
▁ཨཱཡཏནཾ	-11.0335
▁ཙུཏསྶ	-11.0336
▁ཨཙྪརིཡ	-11.0336
▁པུཉྙཀམྨེན	-11.0336
▁སཀཱཡ	-11.0336
▁ཀིལནྟ	-11.0337
▁ཨཀྑཱིནི	-11.0338
▁ཝིཔྤསནྣ	-11.0338
▁ཨབྷཱུཏ	-11.0338
▁ཨབྱཱཔཱད	-11.0341
▁པཉྩཀ	-11.0341
▁བདྡྷཱ	-11.0342
མཾ།	-11.0342
ནཱམོ	-11.0344
ངྒུལི	-11.0346
▁སུད	-11.0347
པཎཱིཏ	-11.035
ུསྶཱཧ	-11.0351
▁ཨུདཀསྶ	-11.0352
▁ཝིཙིཀིཙྪཱཡ	-11.0353
▁ནཀཱམཱཝཙར	-11.0353
▁ཨནུཔསྶནཱ	-11.0354
ཱབྷིསངྑཱར	-11.0355
གྒཧ	-11.0355
▁ཏཏྟཀ	-11.0356
▁དུསྶཱིལྱ	-11.0356
▁སམྦྷཱུཏ	-11.0357
ིནྡྲིཡོ	-11.0358
▁པརིཔཀྐ	-11.0358
▁པརིཙྩཱག	-11.0359
▁པཉྙཔེཏི	-11.0359
▁སཱཏཾ	-11.036
ིཏུཀཱམཱ	-11.036
▁༡༨༤	-11.036
▁ཨབྷིཝཱདན	-11.036
▁ནིབྦཱཔ	-11.0361
▁ནིམིཏྟེ	-11.0364
▁ཏུཡ྄ཧ	-11.0364
▁ཨཔྤཙྩཡ	-11.0365
▁སམུདྡོ	-11.0366
▁ཨསུདྡྷ	-11.0368
▁པཎྜིཏོ།	-11.0369
▁ཨདིསྭཱ	-11.0371
▁ཏེནསྶ	-11.0373
▁སཏྟདྷཱ	-11.0374
▁བྱཉྫནཾ	-11.0378
▁པཊིཙྪནྣཾ	-11.0385
▁ཨུཔྤཛྫམཱནོ	-11.0386
རཾསི	-11.0386
དསྶནཏོ	-11.0393
ཨེཀནཝུཏི	-11.0393
▁ཨཱནིསཾསཾ	-11.0394
ཱུཔསམ	-11.0394
གཉྪི	-11.0395
▁ཨུཔལཀྑཎ	-11.0398
▁དཌྜྷ	-11.0399
▁མིགཱ	-11.04
ཙྪནྡ	-11.04
▁སུཙརིཏཾ	-11.0401
▁ཀཱཏབྦཱ	-11.0403
ནྟརཱཡོ	-11.0404
▁ཨཔེཏ	-11.0404
▁གཱིཏ	-11.0405
▁ཨུབྷཡཾ	-11.0406
གྷརཾ	-11.0408
▁གཧཔཏིཔུཏྟ	-11.0409
▁སཱཁ	-11.0409
ཊྛཔན	-11.041
རཱཛཱནོ	-11.0411
▁ཝེདིཏབྦོཏི	-11.0412
▁ཝུཊྛཱནཾ	-11.0413
▁ཡོབྦན	-11.0414
▁ཚཊྛཾ	-11.0414
▁མནྟཱ	-11.0414
ཝཱསེ	-11.0418
▁ཧནཏི	-11.0419
ཀྑནྡྷཱ	-11.0419
▁སངྐམ	-11.042
▁ཨུཔཔཛྫཏི	-11.042
མིདྷ	-11.0422
▁ཨརཱུཔཾ	-11.0423
▁ཨུཔསཾཧར	-11.0425
▁པརིཀྑཡཱ	-11.0426
▁ཨནབྷིརཏི	-11.0427
ཀོདྷ	-11.0428
▁ཨདིནྣཱདཱནཱ	-11.043
▁ཙནྡིམཱ	-11.043
མཎྜིཏ	-11.0431
ཀམྤ	-11.0433
▁ཡཐཡིདཾ	-11.0433
ནིསྶརཎ	-11.0438
▁ཀཱམརཱགཱནུསཡཾ	-11.0438
▁ཚཱད	-11.0438
ཀརཎཝསེན	-11.044
▁ཏཾསམྤཡུཏྟ	-11.044
དྷམྨེཧི	-11.0441
ེཡྻཱསཱི	-11.0442
▁ཏཏྲིདཾ	-11.0443
▁གཎྷནྟསྶ	-11.0445
▁ཀུསལེ	-11.0446
▁སངྐེཏ	-11.0447
▁དནྟཱ	-11.0448
▁ཝིནིཙྪཡཾ	-11.0449
▁པཉྙཱཡཏི།	-11.045
▁བྲཧྨེ	-11.0451
ཋིཏ	-11.0455
▁ཁཡོ	-11.0455
▁པུབྦཀམྨཾ	-11.0456
གལ	-11.0457
ཝསན	-11.0457
▁ཨུཔྤནྣཱནཾ	-11.0458
▁པཛཱནནྟི	-11.0459
སཾཡོག	-11.046
▁སལླཔ	-11.046
▁ཝིསྶཛྫིཏ	-11.046
ཏཱིར	-11.046
ཀྐམྨ	-11.0462
མུད	-11.0463
▁ཝེཋ	-11.0463
▁ཡཏ	-11.0465
▁ལུ	-11.0465
▁ཐེརཱི	-11.0466
ཙེཏསིཀ	-11.0466
▁མཧཱནཱག	-11.0467
▁ཁཱིཡ	-11.0467
▁སབྦཉྙུཏཾ	-11.0468
▁ཡསཾ	-11.0472
▁ཧེཏུཔཙྩཡ	-11.0472
▁ཨཱསངྐ	-11.0479
▁ཨཱདིནཱ	-11.0483
▁པུབྦཙརིཏཱཔདཱན	-11.0483
▁ཨནེཀཔརིཡཱཡེན	-11.0484
▁ཀཐིཏོ།	-11.0487
▁ཧོནྟ	-11.0488
▁སངྑེཔཏྠོ	-11.049
▁ནིརོདྷཱཡ	-11.049
ཁཱིཎཱ	-11.0491
ཁཱིཎཱསཝ	-11.0491
▁སནིདསྶནསཔྤཊིགྷོ	-11.0491
▁པསུ	-11.0492
▁གནྡྷཾ	-11.0496
ིནིཡཱ	-11.0498
▁ཨཀུསལཉྩ	-11.05
▁ཨཱཡཏནཱནི	-11.0502
▁ཀཏསྶ	-11.0503
▁ཛཱིར	-11.0503
▁ཨརཎ	-11.0504
ཱརཧཾ	-11.0506
▁ཏིཏྠ	-11.0509
དྷོཝན	-11.0511
ིཙྪཱ	-11.0513
སད	-11.0514
▁ཀཾས	-11.0515
ོཀཱས	-11.0515
སཀུཎ	-11.0516
▁པཊིསངྑཱ	-11.0517
དསྶཱཝཱི	-11.0518
▁ནཱལཾ	-11.052
▁ཏིཝིདྷེན	-11.0521
▁ཨཔདཱནེ	-11.0522
▁ཨཔྤེཀཙྩ	-11.0523
ལྱ	-11.0523
▁གིཛ྄ཛྷ	-11.0524
བྷཱཝདསྶནཏྠཾ	-11.0524
▁ཀཔྤཏཱི	-11.0528
༡༣	-11.0529
▁ཏམོ	-11.0531
སཏྟཱཧ	-11.0531
▁ཨནོམ	-11.0533
པཱནཾ	-11.0535
▁ཕུསེ	-11.0535
▁ཡེསུ	-11.0535
▁པེསིཏ	-11.0536
▁ཨཱསཝཝིཔྤཡུཏྟོ	-11.0536
▁མཡམྤི	-11.0536
ུལ༹	-11.0536
▁དིབྦཱཡ	-11.0536
ཱདིཀ	-11.0537
▁པཊིསནྡྷིཡཾ	-11.0537
ུསྶ	-11.0538
▁བྷཝནྟོ	-11.0538
▁ནིབྦཱནནྟི	-11.0539
▁༡༨༠	-11.054
སིལཱ	-11.054
ཀླེས	-11.054
དཱུར	-11.054
▁ཨུབྷཡམྤི	-11.0541
▁སུཁནྟི	-11.0542
ནྟིཨཱདཱིནི	-11.0543
▁ཀཱརེསི།	-11.0548
▁ནིཝཱསན	-11.0549
▁ཨཝཱིཙི	-11.0549
▁ཝཱཀྱཾ	-11.055
▁ཨཱརོཙེསུཾ	-11.055
▁ཉཱཏཱིནཾ	-11.0551
▁ཀཏོ།	-11.0551
ཙོལ༹	-11.0552
ནྟེཝ	-11.0556
▁པཱཝིསི	-11.0558
▁ལིཁ	-11.0559
▁མཧཱཝཱིརོ	-11.0559
▁ཁཱདིཏྭཱ	-11.0559
▁པངྐ	-11.0561
▁ཨཉྙཱཡ	-11.0562
▁ཝིཉྙཱུནཾ	-11.0563
▁༡༨༢	-11.0567
▁བྷཝངྒཾ	-11.0567
▁དྷམྨཏོ	-11.0568
ཏེསུ	-11.0571
▁མཛ྄ཛྷིམོ	-11.0571
གཱུ	-11.0572
▁མུནི།	-11.0572
▁དཱཡ	-11.0574
ཝུཊྛི	-11.0575
ཝིརུདྡྷ	-11.0575
པརིསཾ	-11.0577
ཀསྶཔ	-11.0579
གཏཱནཾ	-11.0584
པཱདོ	-11.0584
མནུསྶཱ	-11.0584
▁པཙྩཏྟཾ	-11.0585
▁ནུཔལབྦྷཏི	-11.0586
▁པརིཀྑིཏྟ	-11.0586
▁བཛ྄ཛྷ	-11.0587
▁ཨསཉྩིཙྩ	-11.059
▁ཏབྦི	-11.0592
▁ཝཊྚཾ	-11.0592
▁སུཉྙཏཾ	-11.0593
པུབྦཀ	-11.0593
ཱགནྟྭཱ	-11.0595
▁སཏིསམྦོཛ྄ཛྷངྒོ	-11.0597
▁ཧནྟྭཱ	-11.06
▁༡༨༣	-11.06
པཀཏ	-11.0601
▁ཛཊཱ	-11.0602
▁སམྤནྣོ	-11.0602
▁ཏཏྟ	-11.0605
▁༡༧༧	-11.0606
▁ཝིཏྠཱརིཏ	-11.0606
▁ཀཱཡཙིཏྟ	-11.0606
▁རཏྟོ	-11.0607
▁ཛེཊྛཀ	-11.0608
▁མནཱཡཏནཉྩ	-11.0608
▁ཧཱིནཱ	-11.0609
▁གཱཝཱི	-11.061
▁ཨཱནཱིཏ	-11.0611
པུབྦངྒམ	-11.0611
▁བྷདྡིཡ	-11.0612
པཙྪིམཙིཏྟསྶ	-11.0614
▁སངྒཱཡ	-11.0614
ཐཱམ	-11.0615
ཡཾ༎	-11.0617
ཨཱཙརིཡ	-11.0618
▁ཨཝིཀྑེཔ	-11.062
▁སྭེ	-11.0621
▁བཧཱུཧི	-11.0623
▁ཀུཔྤཏི	-11.0623
▁པེསེསི།	-11.0624
མུཏྟཱ	-11.0624
▁བྷཱཝན	-11.0625
སལཱཀ	-11.0625
▁ཨམནཱཔ	-11.0626
▁ཨཱལཔན	-11.0628
▁དཏྭཱན	-11.063
ཀཱུལ	-11.0631
པཉྷེ	-11.0633
སནྣིབྷ	-11.0634
▁ཨུམྨུཛྫ	-11.0634
▁ཨགམཾསུ།	-11.0635
▁ཨུཀྐཱ	-11.0635
▁ལོཀནཱཡཀོ	-11.0635
▁ཨིཊྛཱནིཊྛ	-11.0635
▁ཨེཏྟཀཱ	-11.0638
▁ཨབྷིནིཝེས	-11.0643
▁སབྦཏྠ།	-11.0644
▁དཎྜཀ	-11.0645
▁ཨདྷིམུཏྟ	-11.0646
ཛནན	-11.0646
▁ཁཱདནྟི	-11.0647
▁པརེསུ	-11.0649
▁དིཡཌྜྷ	-11.0651
▁ཡཱདིསོ	-11.0654
▁ཨཱནུབྷཱཝ	-11.0655
▁ཨཱུནཀ	-11.0655
▁མཱཏུགཱམ	-11.0655
▁རུཙིར	-11.0662
▁དེནྟོ	-11.0663
▁ཀཱམཏཎྷཱ	-11.0663
▁སུདྡྷིཀ	-11.0665
▁གནྟུ	-11.0667
▁པཀྑི	-11.0667
▁ནརཱུཔཱཝཙར	-11.0668
▁ཝཙཱིབྷེད	-11.0668
▁མཧཱཀསྶཔ	-11.067
ཐི	-11.067
ཊོ	-11.067
▁ཏཐཱགཏཱ	-11.0671
▁ཏས	-11.0671
▁སཝིཏཀྐསཝིཙཱརཾ	-11.0675
▁ཨཱཝཧ	-11.0676
ིཏྠིཡོ	-11.0676
ཝིཀྑེཔ	-11.0678
▁པིཧིཏ	-11.0679
ཱུཔཔཏྟི	-11.068
▁ཨུདྡྷཏ	-11.0681
▁ཀཱརཀོ	-11.0681
▁དཀ	-11.0681
པརིཀྑིཏྟ	-11.0682
▁ཨཔྤམཱཎོ	-11.0684
▁ཝཱཡོདྷཱཏུ	-11.0684
▁ཙེཏསིཀོ	-11.0685
▁ཝིནིདྷཱཡ	-11.0686
▁ཨཱཝཛྫནཱཡ	-11.0686
▁བྷིཀྑུནཱིཧི	-11.0687
▁ཝཏྠུསྶ	-11.0689
ཨིཙྩེཏེ	-11.0689
གྒོ	-11.069
▁ཨཊྛཱན	-11.0691
▁ཨལཛྫི	-11.0691
དར	-11.0691
▁མནཱཔོ	-11.0692
པརིཔུཎྞ	-11.0693
▁ཨིསཡོ	-11.0693
▁ཨགཙྪ	-11.0694
▁ལཛྫཱི	-11.0694
ཱབྷིསམཡ	-11.0696
སཱུལ	-11.0698
▁ཏིཏྠིཡཱ	-11.07
▁ཏཎྷཱདིཊྛི	-11.07
▁ཝིབྷཱུས	-11.0702
▁ཨཱནིསཾསོ	-11.0702
▁མཱཏུགཱམསྶ	-11.0703
བིནྡུ	-11.0704
▁སམྤཛྫ	-11.0708
ཱསཾ	-11.0711
▁ཙེཏིཡེ	-11.0711
▁སུཝིསུདྡྷ	-11.0711
▁པབྦཛིཾ	-11.0711
▁ནིརོདྷསམཱཔཏྟི	-11.0713
▁པཛཱནནཱ	-11.0713
▁གྷཊྚ	-11.0713
ཝཱསིཀ	-11.0714
▁པཱཏུབྷཱུཏ	-11.0716
▁ཀཐེཏི།	-11.0716
▁གིལ	-11.0717
མཙྩ	-11.0718
▁སིཛ྄ཛྷ	-11.072
དནྟོ	-11.072
▁བོདྷིཾ	-11.072
▁སཱིལཱདི	-11.0721
ཨཧ	-11.0721
▁སཱརིཔུཏྟསྶ	-11.0722
མུདུ	-11.0723
ཀཎྷ	-11.0726
▁པཔཏ	-11.0728
▁མུསཱཝཱདོ	-11.0729
▁ཨཱཔཏྟཱདྷིཀརཎཾ	-11.073
▁ཨརིཡསཱཝཀསྶ	-11.073
ཙིཏྟཱནཾ	-11.0733
▁ནེརཡིཀ	-11.0733
སཱཁཱ	-11.0735
མཱཏུ	-11.0736
▁ནཧཱཡ	-11.0736
▁པཎིདྷཱཡ	-11.0737
▁ཨུདར	-11.0737
▁མོགྷམཉྙ	-11.0738
▁༡༧༡	-11.0739
▁པཱདམཱུལེ	-11.0739
ཀིལམཐ	-11.0741
▁ནིསཱིདཱཔེཏྭཱ	-11.0742
▁ནིཀྑམི།	-11.0744
▁ཀཱམེསུམིཙྪཱཙཱརཱ	-11.0744
▁ཝདྷཀ	-11.0744
▁པུཉྙཀྑེཏྟཾ	-11.0746
▁ཀརེ	-11.0746
▁ཨཱནནྟརིཡ	-11.0747
སནྟོསོ	-11.0748
▁ཨཙྪིནྡ	-11.0749
▁དྷཱ	-11.075
སཱུརིཡ	-11.075
▁ཨཱཧཊ	-11.0751
▁ཝིསཱརདོ	-11.0752
▁ཀིལིཊྛ	-11.0752
▁པརིཀྑེཔ	-11.0754
▁པཋམཛ྄ཛྷཱནཾ	-11.0755
▁ཙཏུརངྒ	-11.0756
▁པསྶེ	-11.0756
▁ཨནེཀེ	-11.0756
▁ཨནཔེཀྑ	-11.0756
སཏེ	-11.0756
ནིཡཏ	-11.0757
▁སཾཝཏྟནྟི།	-11.0757
▁ཝིཛཱཡ	-11.0758
ཨཏྟཱ	-11.0759
▁ཨཱཔཛྫེཡྻ	-11.076
ཏཱིཏ	-11.0764
▁ཨཙྩཡ	-11.0764
▁ཎོ།	-11.0765
དཱནེ	-11.0767
▁བྷངྒཱ	-11.0768
ཱུཔགཱ	-11.077
▁ཀུལེསུ	-11.0771
▁སོཏིནྡྲིཡཾ	-11.0776
▁ཀཱཡིཀསྶ	-11.0776
▁དྷམྨིཡཱ	-11.078
▁སཾཝཎྞནཱ	-11.0781
གཱམོ	-11.0782
མཎྜཔ	-11.0782
▁ཨནུཔསམྤནྣསྶ	-11.0783
▁དྭནྡ	-11.0783
ནིདྡིཊྛ	-11.0784
▁ཐུལླཙྩཡསྶ།	-11.0784
མཏྟིཀཱ	-11.0784
ུཔྤནྣཾ	-11.0785
▁པཱརཱཛིཀཾ།	-11.0785
▁ཝདཏཱིཏི	-11.0787
▁པསྶཐ	-11.0788
▁མཧཱབྲཧྨཱ	-11.0788
▁སཡམྦྷུ	-11.0788
▁ནཨནིདསྶནསཔྤཊིགྷ	-11.0789
▁ཨཛ྄ཛྷབྷཱསི	-11.0789
▁ཨཔྤཱིཏིཀ	-11.079
▁ནཧེཏུཉྩ	-11.0791
ཝཱིརིཡཾ	-11.0792
▁ཨཱགཙྪནྟཾ	-11.0792
▁ཙིཏྟོ	-11.0793
▁རཱཛཱུནཾ	-11.0793
▁ཨཀཱ	-11.0795
▁ཏིཎྞོ	-11.0796
▁ཨཔུཙྪི	-11.0798
པབྦཏེ	-11.0799
▁བྷིཀྑུསངྒྷ	-11.0802
ུཊ	-11.0802
▁ཀཱརིཡ	-11.0802
▁ཡཱམ	-11.0803
▁ཨཱགཏཱ།	-11.0804
▁ནྷཱརུ	-11.0804
▁ཏུསིཏ	-11.0805
▁ནིདྡེསེ	-11.0805
▁པཱདེན	-11.0806
▁ཀུཉྫར	-11.0808
▁གཙྪནྟཱི	-11.0808
▁ཏིཁིཎ	-11.0809
▁ཨུཔཏྠམྦྷ	-11.0811
ཀྑོ	-11.0811
▁བྷཱཝེཏཱིཏི	-11.0812
▁ཨབྷིནཱིཧཱར	-11.0813
▁ཨཧེཏུཀཱ	-11.0815
ཙྪཀ	-11.0815
མཏྟཾ།	-11.0816
ཧཱཀཱརེཧི	-11.0819
▁བྷིཀྑུསངྒྷེ	-11.082
▁ཀུམྦྷཀཱར	-11.082
མེཏཾ།	-11.0821
མརཎཾ	-11.0825
▁༡༨༥	-11.0826
▁ཀཱརཎཾ།	-11.0826
▁གཎྷི།	-11.0827
▁ཨོཏར	-11.0829
▁པདཱ	-11.0831
མོཙན	-11.0831
▁དཱརཀེ	-11.0831
▁ཨཾས	-11.0832
མཔྤ	-11.0832
པིཎྜཔཱཏ	-11.0832
▁མམ༎	-11.0836
▁ཨཏྠངྒམོ	-11.0836
གྒཱ	-11.0837
▁ཨསཱར	-11.0838
▁ཨདསྶནེ	-11.084
▁ཨགྒིཝེསྶན	-11.084
ཱདིཨཏྠ	-11.0843
▁ཝིབྷཱཝེཏུཾ	-11.0843
▁ཨུཔྤཏིཏྭཱ	-11.0844
▁སུཁཉྩ	-11.0845
ེཀོ	-11.0846
▁ནིམནྟེཏྭཱ	-11.0846
▁སམཱདཧ	-11.0846
▁པཊིགྒཧིཏཾ	-11.0846
▁༡༩༠	-11.0847
▁པཡུཏྟ	-11.0847
▁དཱསི	-11.0847
▁ནེཝཱ	-11.0849
ིཏྠ།	-11.0851
▁ཨནིཡམ	-11.0851
▁མུཏྟི	-11.0853
▁དཛྫ	-11.0856
▁སམྨཱཀམྨནྟོ	-11.0857
དོམནསྶ	-11.086
▁ཝཱལ༹	-11.0861
▁ཨནཱགཱམིཕལ	-11.0862
སཾཝཱས	-11.0862
ཨཊྛཀཐཱ	-11.0863
ཊྛཱནཱནི	-11.0865
▁སམུཊྛཱནེན	-11.0867
▁དྭཱརེ	-11.0868
▁སཝིཏཀྐཾ	-11.0868
▁སུཁིཏོ	-11.087
▁ཀུསུམ	-11.0871
▁ཀེསེ	-11.0872
▁ནིདྡ	-11.0873
▁སམྤདཱན	-11.0874
ཱཙ	-11.0874
ཐོ	-11.0874
ཕ	-11.0876
▁ཙཏུརསྶ	-11.0877
སཎྛིཏ	-11.0877
▁ཝིཔྤཊིསཱར	-11.0877
ལཀྑཎེ	-11.0878
▁ཀུསལདྷམྨ	-11.0879
▁ཝིསད	-11.0882
▁ཨཱཧཾསུ	-11.0882
▁ཧིཏཾ	-11.0886
ཉྷེཏཾ	-11.0886
▁ཨུཔྤཛྫཏཱི	-11.0887
ཡཉྙ	-11.0888
▁དནྟོ	-11.0888
▁པཊིསལླཱན	-11.0889
▁བྷཱསམཱན	-11.089
▁དེཝདཏྟསྶ	-11.089
ཝསྶསཧསྶཱནི	-11.0891
▁ཙཏུཔྤད	-11.0892
▁ཨོཔ	-11.0893
ལཱབུ	-11.0893
▁ཨནཱཝིལ	-11.0893
▁ཁཱདནཱིཡ	-11.0893
▁ཛྷཱནཱནི	-11.0893
▁ཨདྷིམུཙྩ	-11.0893
▁དྷཱི	-11.0895
▁ཨེཏསྨཱ	-11.0896
▁ཡུཉྫ	-11.0896
▁ཨུཔྤཛྫེཡྻུཾ	-11.0896
ིཀོཏི	-11.0898
▁པཙྩཡེསུ	-11.0898
ཱིཀཏ	-11.0899
▁ཨདྷིཔཏིཔཙྩཡཱ	-11.0899
▁མཧནྟེན	-11.0899
▁ཧེསྶཏི	-11.09
སདིསཏྟཱ	-11.0902
ཧུཏ	-11.0902
▁ཨཱཝས	-11.0904
▁ཏཱིར	-11.0906
▁སུཏྟནྟབྷཱཛནཱིཡ	-11.0907
▁ཝོདཱནཾ	-11.0911
▁ཝཙོ	-11.0911
▁ལོཀུཏྟརོ	-11.0912
ཏེཏི	-11.0913
▁སབྲཧྨཙཱརཱིནཾ	-11.0914
▁ཨུདྡྷཙྩཀུཀྐུཙྩ	-11.0915
▁ལབྷཱམི	-11.0915
▁ཨཱསཝཀྑཡ	-11.0915
ཀོཊིཡོ	-11.0915
▁སམནྟ	-11.0916
ེཡྻུནྟི	-11.0917
▁ཨཱཔཛྫིཾ	-11.0917
▁པཊིཔནྣ	-11.0917
▁སབྦམེཏཾ	-11.0917
▁ཨནུརུདྡྷོ	-11.0918
ཏྠེརེན	-11.0918
▁ཧོཐ	-11.0918
▁ཡཱནཾ	-11.0918
ཧནྡ	-11.0921
▁པཏྟཙཱིཝར	-11.0922
▁ཏཏོཔི	-11.0922
▁ཨཊྛཀཐཱསུ	-11.0924
▁སེཝཏོ	-11.0924
པུརཾ	-11.0928
མཎྜ	-11.0929
▁སུདྡྷཱཝཱསཱནཾ	-11.0929
▁དྷཛ	-11.0929
ཝཱིམཾས	-11.0929
▁རཉྫ	-11.0929
▁པུནབྦྷཝ	-11.093
▁ཨཏྠཀཱམ	-11.0931
▁བོཛ྄ཛྷངྒེ	-11.0934
▁ཨནེཀཝིདྷ	-11.0934
ཏཱཝ	-11.0937
▁ནཱནུསེཏི།	-11.0937
པུརེཀྑཱར	-11.0939
པརིཡཱཔནྣཱ	-11.0939
▁ཨདྷིཊྛིཏ	-11.094
▁དཎྜཾ	-11.094
▁ཝཏྭཱན	-11.0941
ེཐཱཏི	-11.0942
ཝེལཱཡ	-11.0943
ཡཱནཾ	-11.0944
རཛྫཾ	-11.0944
མཱནཱཡ	-11.0944
▁ཨནུསེཏཱིཏི	-11.0945
ཱབྷརཎ	-11.0945
མཏཾ	-11.0946
▁ཏེནེཏཾ	-11.0949
▁ཝཱིཏརཱགོ	-11.0949
▁ཧེཏུཕལ	-11.0949
པརིདཱིཔན	-11.095
▁ཨུཔཔཛྫནྟསྶ	-11.0951
པརིཡཱཡེན	-11.0951
▁རུཙྩཏི	-11.0951
▁ཀཱཡསཾསགྒ	-11.0951
▁ཚེཀ	-11.0952
▁པཋམཏརཾ	-11.0954
ཝིནིཙྪཡོ	-11.0955
▁ཋིཏེན	-11.0955
▁པཊིཉྙ	-11.0956
▁སཾཝརཾ	-11.0956
▁དཱུརཏོཝ	-11.0957
▁ཨཱརོཙེཏྭཱ	-11.0957
▁སམུཔྤནྣ	-11.0957
▁ཀམྨནྟི	-11.0958
▁བྷེརི	-11.0961
▁སཏཱིཏི	-11.0963
▁བཱལསྶ	-11.0963
རཱུཔཱུཔཔཏྟིཡཱ	-11.0964
ཨཉྙཾ	-11.0964
▁ཨབྷིསམྦུདྡྷོ	-11.0964
▁ཝདཱམཱི	-11.0964
▁ཝོཧཱརོ	-11.0965
▁སམཱནཾ	-11.0966
▁ཏིཎྞ	-11.0967
མཧགྒཏ	-11.0967
ལཔ	-11.0973
▁ཨེཏིསྶཱ	-11.0973
▁མིན	-11.0974
▁སུདིནྣ	-11.0974
▁སབྦཉྙཱུ	-11.0977
▁སམྦོདྷི	-11.0977
བྷཱགེན	-11.0978
ཱརཱམེ	-11.0979
ཡོགཱ	-11.0979
ཡཱཝཏཱ	-11.0981
▁སངྒྷིཀཾ	-11.0981
▁ཨརཱུཔཱཝཙརེ	-11.0982
གཧ	-11.0982
▁བྷུ	-11.0982
▁བྷིསི	-11.0983
▁བྷཝཏཎྷཱ	-11.0987
ཨགྒ	-11.0988
རཱུཔཛཱིཝིཏིནྡྲིཡ	-11.0991
▁ཨཱཝཱསཾ	-11.0992
▁སུཎོཧི	-11.0998
▁ཝེཔུལླཾ	-11.0998
▁ཨནཉྙསཱདྷཱརཎ	-11.0998
▁པསནྣམཱནསོ	-11.0998
ུབྷ	-11.1002
▁ཏིརཙྪཱནཡོནི	-11.1003
▁ནདི	-11.1003
▁ཨཱཀཱསཾ	-11.1004
▁ཨཉྙཱཏཀ	-11.1005
▁ཀམྦལ	-11.1005
▁པདཧ	-11.1006
▁ཨཱཔནྣཱ	-11.1007
ཀུསུམ	-11.1007
▁སནྟིཀཱ	-11.101
▁པཱསཱདཾ	-11.101
▁པཋམཱཡ	-11.1012
▁ཙོདན	-11.1012
▁པུགྒལེན	-11.1012
▁གམིསྶཱམི	-11.1013
▁པརཱབྷཝ	-11.1013
▁ཨཛཱནིཏྭཱ	-11.1014
▁ཨསུརཱ	-11.1016
ཱདཱིནཝ	-11.1016
ལོལ	-11.1018
▁ཨོཏིཎྞ	-11.1019
▁པེསལ	-11.102
▁བྷུཉྫེཡྻ	-11.1022
མོ།	-11.1023
▁གཎྷེཡྻ	-11.1026
▁པཉྩསཏཱ	-11.1026
▁༡༨༩	-11.1027
▁པཱཔིམཱ	-11.1027
སཔྤི	-11.103
▁ཨཏྠངྒམཱ	-11.103
▁ཨུཀྑེཔནཱིཡཀམྨཾ	-11.1031
▁ཉཱཏཀཱ	-11.1033
▁གཎནཱ	-11.1034
▁སཾཝཊྚ	-11.1034
▁ཨེཏཱདིས	-11.1035
ིཏབྦཏོ	-11.1035
▁ཨཱགཙྪེཡྻ	-11.1036
▁ཨུཔེཏོ	-11.1037
ནིཀྑིཏྟ	-11.1038
ཝིཛཱནན	-11.1038
དྷིཀ	-11.104
▁དྷཱརེནྟི	-11.1041
▁ཨོསཱར	-11.1041
▁ཡཐཱསུཁཾ	-11.1041
ཧཏོ	-11.1042
▁ཨུཔསམྤདཾ	-11.1044
▁བྷཝིཏབྦ	-11.1044
▁ཀུཎཔ	-11.1045
▁མཧེསིནཱ	-11.1046
གཎན	-11.1048
▁སངྑཏཱ	-11.1048
▁ནོཨཝིགཏ	-11.1049
▁སོམནསྶཛཱཏོ	-11.1052
▁རུ	-11.1052
▁དེཝདཱུཏ	-11.1052
▁པརིབྷུཏྟ	-11.1053
▁པཱདེཧི	-11.1053
▁སདེཝཀ	-11.1053
▁ཨུཔདྡཝ	-11.1053
▁པཏིཊྛཱཏི	-11.1054
ནཱིཡེ	-11.1055
▁སུཉྙཱགཱར	-11.1055
▁ཝཱཡཱམོ	-11.1056
▁ཁཱཡ	-11.1057
▁༡༨༦	-11.1057
▁ཨཎྜ	-11.1057
▁སཱཎ	-11.1058
▁ནོཀིལེས	-11.1058
▁པཱརུཔ	-11.1059
▁པམུདིཏ	-11.1063
པྤམཱཎཱ	-11.1063
▁ཨནུབྷཝིཏྭཱ	-11.1063
བྷཱཝཀརཎ	-11.1064
▁ཝུསིཏཾ	-11.1065
ཛཱཡ	-11.1068
▁༡༩༦	-11.1068
▁ཙོརོ	-11.1069
▁ཨུབྷོསུ	-11.1069
▁ཝིཔསྶན	-11.1072
▁༡༩༡	-11.1073
▁ཨདྷམྨཀམྨ	-11.1073
▁ཉེཡྻཾ	-11.1074
ཏསྨཱཏིཧ	-11.1074
རཏ	-11.1074
ཏཱར	-11.1076
སབྦྷཱཝཏོ	-11.1077
▁ཨེཏྟཀམེཝ	-11.1079
▁ཨེཀཱདསམ	-11.1084
ཱཏིཨཱདི	-11.1084
ལཱབྷིནོ	-11.1086
▁གཎསྶ	-11.1086
ནདི	-11.1086
པཏྠནཱ	-11.109
▁བྷཝརཱགཱནུསཡེན	-11.1091
▁བྷིས	-11.1092
▁ཀཱམགུཎ	-11.1092
▁ནིབྦཱཡ	-11.1092
པཎ	-11.1093
▁ཨསམཱཧིཏ	-11.1093
▁ཀཊི	-11.1094
▁པཏིཊྛིཏཱ	-11.1095
▁ནིཝེསནཾ	-11.1095
▁པརིཡུཊྛཱན	-11.1095
▁ཨཔན	-11.1098
▁སབྦཉྙུཏཉྙཱཎཾ	-11.1098
▁ཧེཏུདུཀ	-11.1099
▁ཝཱིཎཱ	-11.1099
▁པརིགྒཎྷ	-11.1103
▁པོཊྛཔཱད	-11.1104
▁༡༨༧	-11.1104
ཨགྒི	-11.1105
▁ཛཱནཱཐ	-11.1106
▁མཧཱཛནཾ	-11.1106
ཱཝཛྫན	-11.1108
▁སཱམཉྙཏོ	-11.1108
▁ལབྷཏེ	-11.111
▁ཀུསལེན	-11.1111
▁ཨིཏྠིཔུརིས	-11.1113
▁དྷཱཝ	-11.1113
▁བྷདྡེ	-11.1117
དྡི	-11.1117
▁པཙྪིམེ	-11.1117
▁ཝིསུཛ྄ཛྷཏི	-11.1119
▁ཙཱརུ	-11.1119
ཊྛོ།	-11.1119
▁པཉྩམོ།	-11.1119
▁ཨུཔཛ྄ཛྷཱཡསྶ	-11.1119
▁ཙིཏྟསམྤཡུཏྟ	-11.112
▁པཀཱསིཏ	-11.1121
ིཀཾ།	-11.1121
▁པསཱདེཏྭཱ	-11.1121
▁པུཙྪིཏ	-11.1122
▁དེཧ	-11.1122
▁ཀཏཔུཉྙ	-11.1122
▁ཨཱསཱིས	-11.1123
▁ཡཐཱཝུཏྟཾ	-11.1124
▁ཝདེཡྻུཾ	-11.1124
ཙངྐམ	-11.1126
སརཱུཔ	-11.1129
ཀུསལཏཱ	-11.1129
▁ནིརནྟར	-11.1129
▁པརིཡེསིཏྭཱ	-11.1129
▁ནིརུཛ྄ཛྷིསྶནྟི	-11.1132
▁སནྣིཔཏིཏ	-11.1134
▁ཨེཀཝིདྷ	-11.1135
▁བྷཎིཏ	-11.1135
▁ཨཱརུལ༹ྷ	-11.1135
▁ནོགནྠ	-11.1136
▁ཐལེ	-11.1136
▁ཨནྟརཱཡ	-11.1137
ཡཏེ	-11.1137
▁ཨནིཙྩཱདི	-11.1138
▁ཨཔརམྤི	-11.1139
དྷཛ	-11.1139
ེཝཾ	-11.114
▁ནིཡྻཱནིཀ	-11.1141
▁མཉྩཔཱིཋ	-11.1142
ཀིརིཡཾ	-11.1147
▁སིདྡྷོ	-11.1147
▁བྷཝེཡྻཱཏི	-11.1147
▁ཝཏྠུཀཱམ	-11.1148
▁རསེ	-11.1149
▁དཱརཀཱ	-11.1149
▁དཱཡཀོ	-11.115
ཊྛིཀ	-11.1151
ཱབྷིམུཁ	-11.1152
ཱབྷཱཝཏོ།	-11.1152
ཝིསེསེན	-11.1153
པཏིཏ	-11.1155
▁པཋམསྶ	-11.1156
པཏ	-11.1157
▁བུདྡྷསཱསནེ	-11.1157
▁མཧཏིཡཱ	-11.1158
▁སོཡེཝ	-11.1158
▁སིདྡྷཱ	-11.116
▁མུནིནོ	-11.1163
▁ཨཱབྷུཛིཏྭཱ	-11.1164
སདྡྷ	-11.1164
▁ཨནུཡུཏྟོ	-11.1166
ཱནུབྷཝན	-11.1169
▁ཁིཔྤམེཝ	-11.1169
▁དཝ	-11.117
▁ཉཏྟིཡཱ	-11.117
▁དིབྦེཧི	-11.1171
▁ཀཔྤོ	-11.1172
▁དུཀྑིཏོ	-11.1175
▁ཨཱརུཔྤ	-11.1175
▁ཏེཏྟིཾས	-11.1177
▁ཀུསཱིཏ	-11.1178
▁པུརེབྷཏྟཾ	-11.1179
ིཡཏྠེརཨཔདཱན	-11.1181
▁ཧཱིནོ	-11.1183
▁སོཀོ	-11.1184
▁སམྤཡུཏྟསྶ	-11.1184
▁བྷམ	-11.1184
▁དིཊྛིགཏིཀ	-11.1186
ནེཀ	-11.1186
▁ཨཱརདྡྷཝཱིརིཡ	-11.1188
▁ཡཱཙཏི།	-11.1191
▁ཨགམཱསི	-11.1192
ཏབྦཱ	-11.1194
ཧིཏྭཱ	-11.1195
▁སམུ	-11.1196
▁ཋཱནེན	-11.1197
▁ཨཔརིམཱཎ	-11.1199
▁དྷམྨཏཱ	-11.1201
▁ཨེཀཱཧ	-11.1202
▁སོཙཏི	-11.1203
ལཧུ	-11.1204
▁སསྶཏོ	-11.1205
▁ཨནཏྠཱཡ	-11.1205
▁པཝིསཏི	-11.1208
▁དིབྦཱ	-11.121
▁ཨུདཱཡཱི	-11.1212
▁ཨེཝམཏྠོ	-11.1214
▁ཨཀྐམ	-11.1214
▁སམུཊྛིཏཾ	-11.1215
▁པཙྩཡཱནཾ	-11.1215
▁པསཱརེཏྭཱ	-11.1215
▁མརཏི	-11.1217
ཉྙེ	-11.1217
▁དུབྦཙ	-11.122
▁༡༩༥	-11.1221
▁༢༠༧	-11.1221
▁པཝཱརཎ	-11.1221
▁ཨགྒསཱཝཀ	-11.1221
▁ཝེཛྫ	-11.1221
པདཱན	-11.1221
▁མཙྪེར	-11.1223
▁ཝིམུཏྟཾ	-11.1225
མཱདི	-11.1227
▁ཨིཏརསྶ།	-11.1229
མནུཡུཏྟོ	-11.123
▁ཝཙནཏྠོ	-11.1233
▁སམནྟཔཱསཱདིཀཱཡ	-11.1235
ཛཱཏིཀ	-11.1238
▁ཝིདིཏ	-11.1239
▁ལེཎ	-11.1242
ིམྷཱ	-11.1242
▁ཨཱལོཔ	-11.1244
▁སཀཏྠེ	-11.1244
▁ཨནུཀམྤཱཡ	-11.1245
▁སོཏཝིཉྙཱཎ	-11.1246
▁ཨབྷིསངྑཱར	-11.1248
▁པཏིརཱུཔ	-11.1249
▁ཛཱ	-11.1249
ལཱབྷོ	-11.125
▁ཝཙྩ	-11.125
ུཾ།	-11.1251
▁སཀདཱགཱམིཕལ	-11.1251
▁ཨཏྠེསུ	-11.1254
▁ཨེཏི	-11.1258
▁ཝཏྟབྦེ།	-11.1259
ཝིཝཱད	-11.1259
▁སཉྩ	-11.1259
▁སེནཱསནཱནི	-11.1259
▁ཝིབྷཏྟོ	-11.1259
ཏཏྟཱ	-11.1264
▁ནཱནུསེནྟི	-11.1265
▁ཏཱིཧཱཀཱརེཧི	-11.1265
▁ཨོརུཡ྄ཧ	-11.1265
▁ཨཱབཱདྷོ	-11.1266
▁ཙཏུཝོཀཱར	-11.127
ཀཱུཛ	-11.127
▁པཊྛཔེཏྭཱ	-11.127
▁ནིརཝསེས	-11.1271
▁ཨཱརབྷི།	-11.1274
▁སམཱདིཡིཏྭཱ	-11.1274
▁ཨཔརཱདྷ	-11.1274
༡༨	-11.1274
▁ཨིདམེཏ	-11.1274
ཝིགཏ	-11.1275
▁ཨུཊྛཱན	-11.1276
▁ཨནཱགཱམི	-11.1276
▁ཛཱིཝིཀཾ	-11.1277
▁ཨུཔཊྛཧནྟི	-11.1277
▁ཨཱདཱས	-11.1279
གྷཾ	-11.128
པཊིབྷཱན	-11.128
▁ཉཱཎཝིཔྤཡུཏྟ	-11.128
རིཏ	-11.1281
ཏཐེཝ	-11.1281
▁ཀསྶཔསྶ	-11.1283
▁ཙཀྑཱཡཏན	-11.1283
▁དྷཱཏ	-11.1283
ཝིཔཱཀཱ	-11.1284
▁ཨབྷིརམ	-11.1284
▁གཧིཏཾ།	-11.1287
▁དཱཏབྦཱ	-11.1288
▁ཝིདིཏོ	-11.1288
▁ཨསམྨོཧ	-11.1291
ཏུམྷཱཀཾ	-11.1292
▁ཧཏྠཔཱསེ	-11.1293
▁ཨེཏདེཝ	-11.1294
▁ཏདནུརཱུཔ	-11.1297
▁སཙྩེན	-11.1297
▁ཝིམུཏྟིཡཱ	-11.13
▁ཨནེཀེཧི	-11.1302
▁ཨིམིནཱཔི	-11.1303
▁ཨཝིཏཀྐཝིཙཱརམཏྟཱ	-11.1304
▁ཏིཀཔཱཙིཏྟིཡཾ	-11.1305
▁ཨཱཧཱརསམུཊྛཱནཾ	-11.1308
▁ཨཝསིཊྛ	-11.1308
▁ཨེཀདེསཾ	-11.1308
བྷཡཱ	-11.131
ཱརོཙན	-11.1311
▁དདཱཏི	-11.1312
བྷཝངྒ	-11.1313
▁བཱཧིཡ	-11.1314
▁བྷི	-11.1314
ནཱམཀཱ	-11.1316
▁པོ	-11.1318
མཱནསཱ	-11.1319
▁པིཔཱས	-11.1319
▁དྷམྨསབྷཱཡཾ	-11.132
▁ཀཱཡདུཙྩརིཏ	-11.132
ཝིསཡཱ	-11.1321
▁པསཡ྄ཧ	-11.1322
▁ནཨརཎ	-11.1322
▁ཏཎྷཀྑཡ	-11.1325
▁ཨནྭ	-11.1325
▁ཙཱལ	-11.1326
སཧསྶེཧི	-11.1327
▁པཱསཱདེ	-11.1328
པཱཧཾ	-11.1329
▁སབྦཀིལེས	-11.1332
▁ཨཱཝཱསཱ	-11.1332
▁༡༩༣	-11.1332
▁ནྷཱན	-11.1335
▁པརིཧཱར	-11.1336
ཏཏིཡ	-11.1336
▁ཀོཊིསཏསཧསྶ	-11.1336
▁ཨརཱུཔཱཝཙརཱ	-11.134
པརིཡ	-11.1341
▁ཀཱམོ	-11.1344
▁ཝིབྦྷམ	-11.1346
▁ཋ	-11.1348
▁པརིམཎྜལ	-11.1348
སམཱགམ	-11.1351
▁ཨུཔཀཱརཀ	-11.1351
▁ནཔྤཛཱནཱཏི	-11.1352
ཧཾ།	-11.1352
བྷཱཎཀ	-11.1352
▁རོས	-11.1353
▁ཀེཙི།	-11.1356
▁ཨཔྤཊིགྷ	-11.1356
▁སམྦོདྷ	-11.1358
▁སཁ	-11.1359
▁ཨཱརདྡྷོ	-11.1359
▁ཨཱརཱམེ	-11.136
ཀམྤན	-11.1362
སེནོ	-11.1363
▁ནིརུདྡྷཱ	-11.1367
▁ནིཀཱཡ	-11.1367
▁༡༩༨	-11.1368
▁པཱཊིདེསནཱིཡ	-11.1368
▁ནིཡུཏྟོ	-11.1372
ཏལཾ	-11.1372
▁ཨརཱུཔཱི	-11.1373
▁ཀཔི	-11.1373
▁པཙིཏྭཱ	-11.1373
ཙཡགཱམིནཱཔཙཡགཱམཱི	-11.1374
▁ཀུཔིཏོ	-11.1374
▁པརཱམཱསཝིཔྤཡུཏྟ	-11.1375
▁རསཱཡཏནཾ	-11.1375
▁སཏྟཏིཾས	-11.1376
▁དཱིཔཾ	-11.1376
▁བྷཱཝེན	-11.1377
▁ཁཏྟིཡོ།	-11.1378
ོཔམཱ	-11.1379
▁ཨཀྑཱཧི	-11.1381
ཱཝསེས	-11.1381
ཡཏཱི	-11.1382
▁ཝམ	-11.1383
པརཀྐམ	-11.1384
▁པཊིཀྑེཔོ	-11.1384
▁ཨགྒིཀྑནྡྷ	-11.1386
▁ནིཔཱཏམཏྟཾ།	-11.1387
▁ཏིདས	-11.1387
▁སམནུཔསྶཏི།	-11.1388
▁ཡོཛནཾ	-11.1389
▁དདཱམི	-11.1389
▁ཝིཀྑེཔ	-11.1389
▁སཱརམྦྷ	-11.1393
▁ཨུཡྻཱན	-11.1396
▁ཡོགིནོ	-11.1396
▁ཀུམུད	-11.1397
▁༡༩༤	-11.1397
▁ཛནཏཾ	-11.1402
དཱུསཀ	-11.1404
ཙེ	-11.1409
▁སཙིཏྟཀ	-11.141
ཀཱརི	-11.1413
ལངྐཏ	-11.1414
▁ཨཔུབྦཾ	-11.1416
▁ཨདསྶནཾ	-11.1416
▁མུཏཾ	-11.1417
▁སེནཱསནེ	-11.1417
སམུདཡ	-11.1418
མྦར	-11.1418
▁པིཏརཱ	-11.1419
▁རཱཛིནོ	-11.142
▁ཝསྶིཀསཱཊིཀ	-11.1421
▁ཨཱགམནཾ	-11.1421
ཙཱརོ	-11.1427
▁ཨུཔམཱཡ	-11.1427
▁པོཐ	-11.1429
ཝདྷ	-11.1432
▁མིཙྪཏྟནིཡཏ	-11.1433
མུཁཱ	-11.1433
▁སཀྐོམི	-11.1434
▁ཨཏྠོཏི	-11.1438
▁གནྡྷཀུཊི	-11.1439
▁ཨཱརོཔེ	-11.1439
▁ཝེདེཧ	-11.144
རཱུཔསྶ	-11.144
▁ཚེད	-11.1444
སཱིམ	-11.145
▁སབྦསཏྟཱནཾ	-11.1451
སཱཏ	-11.1452
བྷེསཛྫཔརིཀྑཱར	-11.1454
ཝིསུདྡྷ	-11.1454
▁ཨཀུསལམཱུལཾ	-11.1455
▁ཨཱརོཙེཏི	-11.1455
གཱཐཱཝཎྞནཱ	-11.1456
▁ཏཱཝཏིཾས	-11.1457
▁ཡོཛིཏ	-11.1458
ཚནྣ	-11.146
▁པཊིཙྩསམུཔྤནྣཱ	-11.1461
བནྡྷནེན	-11.1461
▁ཨསདྡྷམྨ	-11.1461
▁ཝཱིརིཡཱརམྦྷ	-11.1462
ཱདིབྷཱཝེན	-11.1462
▁ཨཱཛཱིཝཀ	-11.1463
ཁཱདནཱིཡ	-11.1464
▁༡༨༨	-11.1465
པརིཡཱཔནྣཾ	-11.1465
ཝསེནཔི	-11.1465
▁ཨུདཱནེསི	-11.1466
ཏྟསྶ	-11.1467
▁ཋཔེསི	-11.1469
▁ཛཱིཝཀ	-11.147
▁མཧནྟེ	-11.147
▁སརད	-11.1471
ཝསཾ	-11.1472
▁གཎྷི	-11.1472
▁ཝསྶསཏཾ	-11.1473
དཱར	-11.1476
ཧཱས	-11.1476
▁ལོ	-11.1477
བྷཏ	-11.1479
▁ཀརིཏྭཱན	-11.148
▁པཝཏྟིཡཾ	-11.1481
▁ཨནེཀཱནི	-11.1483
▁ཀམྨཱར	-11.1484
མཡོ	-11.1484
▁༢༡༥	-11.1484
▁ཨགྷཱནཀཱན	-11.1484
▁ཝིཔཱཀདྷམྨདྷམྨོ	-11.1485
▁ཨཛ྄ཛྷུཔེཀྑ	-11.1485
▁ཛཱཏིཛརཱམརཎ	-11.1485
▁ཨགྒིནཱ	-11.1485
▁ཙཱིཝརཔིཎྜཔཱཏ	-11.1485
ཱབྷིམུཁོ	-11.1485
▁ཨབྷིསམཡ	-11.1488
▁སམྤཛྫཏི	-11.1489
▁ལཔ	-11.149
▁༡༩༢	-11.1491
▁ཝིཔྤམུཏྟོ	-11.1493
▁ཏཱི	-11.1494
▁ཀུམཱརཀ	-11.1499
▁དྷམྨཱཡཏན	-11.15
▁སམིདྡྷ	-11.1501
▁ཝིཛ྄ཛྷིཏྭཱ	-11.1503
▁ཝིལ	-11.1504
▁ཨུཔཊྛིཏཱ	-11.1504
▁སམྨོདི	-11.1506
▁ཨནཱུན	-11.1506
▁པསཱིདཏི	-11.1507
▁ཨུཔྤཛྫན	-11.1507
ནྟེ།	-11.1509
▁སམཱསེ	-11.1509
▁ནིཝཏྠ	-11.151
▁ཨཱཔུཙྪིཏྭཱ	-11.1511
པོཏཀ	-11.1514
▁སཾཝཎྞ	-11.1517
ཏཱིརེ	-11.1518
▁རུཀྑམཱུལ	-11.1519
ཝིནིཙྪཡཾ	-11.1519
ཱམཱ	-11.1521
▁ཏཱདི	-11.1521
▁དཊྛུཾ	-11.1523
▁ལོཀསྨི	-11.1524
▁ཨུཔྤཱདིཏ	-11.1525
▁ཙཏུར	-11.1526
▁ཨངྒཛཱཏཾ	-11.1527
▁བྷཱསཏོ	-11.1529
▁དཱིཔེནྟི	-11.1529
▁བྷཱཝནཱམཡ	-11.1531
▁ཝཏྟམཱནཱ	-11.1531
▁ཨེཀེ།	-11.1533
▁པཀྐོས	-11.1535
▁པཝཏྟཏྟཱ	-11.1535
ཱརི	-11.1535
▁བལཝཏར	-11.1539
▁ནཝཧི	-11.154
མངྒ	-11.1542
▁ཨུབྷིནྣམྤི	-11.1543
ཝཙ	-11.1543
ཉཱཏ	-11.1543
སམྦྷ	-11.1544
▁པརིཀྑིཔིཏྭཱ	-11.1546
▁ཨཱརཱམཾ	-11.1546
ནྟསྶཱཏི	-11.1546
▁ཏཐཱརཱུཔཾ	-11.1547
པརམཾ	-11.1547
སམྤཱཏ	-11.1547
དཱརཀ	-11.1549
▁༢༠༩	-11.1549
▁ཡོཛེཏབྦཱ།	-11.1549
▁པཊིཔནྣཱ	-11.1549
▁སམྨས	-11.1551
ཏྟེཔི	-11.1553
▁པཱཎཱཏིཔཱཏོ	-11.1554
▁པཱཔེ	-11.1554
པརིཉྙཱ	-11.1555
▁ཝཙནཾ།	-11.1557
▁ཏཱདིསསྶ	-11.156
▁ཧདཡེ	-11.1561
▁ཨུཔཱས	-11.1562
▁པུཙྪཱཡ	-11.1563
པཀརཎ	-11.1563
▁མཱགདྷ	-11.1563
▁བྷགྒ	-11.1565
ཱརུལ༹ྷ	-11.1566
▁ཨུསྶུཀྐཾ	-11.1566
▁གུཎོ	-11.1566
རཱམ	-11.1568
▁སབྦཐཱཔི	-11.1569
ནིམྨིཏ	-11.1571
▁ནིཝཏྟིཏྭཱ	-11.1573
▁ཀཱམདྷཱཏུ	-11.1574
གྒེན	-11.1575
ཙཏུཀྐཾ	-11.1575
▁ཨཝིཏཀྐཝིཙཱརམཏྟཾ	-11.1576
▁ནཱནཱཀརཎཾ	-11.1576
པཙྪིམ	-11.1576
▁པམུཁ	-11.1577
▁ཨཛ྄ཛྷཏྟབཧིདྡྷཱ	-11.1577
▁པཉྩདས	-11.1578
▁ཨརོགོ	-11.1578
ཝཎྞེན	-11.1583
▁ཨནྟརཱཡོ	-11.1583
མཀྑ	-11.1585
▁ཝིཛྫཏཱིཏི	-11.1586
▁ཨརིཊྛ	-11.1587
པདཊྛཱནཱ	-11.1588
ཏྟིཀེ	-11.159
བོདྷིསཏྟ	-11.159
▁ཧེས	-11.159
ིཡྻཏི	-11.1591
▁སཱརཛྫ	-11.1592
▁ཨབྷིཀྐནྟཾ	-11.1593
ཁཱིར	-11.1595
བྷཱཝེནཱཏི	-11.1595
▁ཝིཀིར	-11.1595
▁ཨབྦྷཱ	-11.1596
▁ཨུཔཙཡོ	-11.1597
མཛ྄ཛྷཏྟ	-11.1597
▁ཀལྱཱཎཾ	-11.16
▁ཛནིནྡ	-11.1602
▁ཨསདིས	-11.1602
▁ཨནུཔསམྤནྣ	-11.1602
▁ཝུཏྟཏྟཱ།	-11.1603
▁སཱིལེ	-11.1604
མདྡན	-11.1604
▁བྱསན	-11.1605
ཙྪཱདན	-11.1605
▁དལིདྡ	-11.1606
▁༢༢༠	-11.1607
▁པཱིཏིསམྦོཛ྄ཛྷངྒ	-11.1608
▁ཏཱཝཀཱལིཀ	-11.1608
▁ཐན	-11.1609
▁ཨཱུརུ	-11.1609
▁སངྒཧེཏྭཱ	-11.1613
▁མཱུལཱནི	-11.1613
▁ཀཔྤཾ	-11.1614
མཏྟེནེཝ	-11.1616
▁ཧུཏྭཱ།	-11.1617
▁ཨཏྟཱཏི	-11.1618
ཊྛེན།	-11.1619
▁སཀྱཔུཏྟ	-11.1622
▁སམྨཱསམྦུདྡྷཱ	-11.1623
▁པཏིཏྭཱ	-11.1624
སམུགྒྷཱཏ	-11.1625
ེམཱིཏི	-11.1625
▁ཨཧིཏཱཡ	-11.1626
▁མཱཏུགཱམེན	-11.1627
▁ཝིཀྑམྦྷིཏ	-11.1627
▁དསྶིཏཾ།	-11.1628
▁ཝཏྟབྦམེཝ	-11.1629
ཨིརིཡཱཔཐ	-11.163
ཛ྄ཛྷཱཡ	-11.1631
▁ཨཝིཏཀྐཨཝིཙཱརཾ	-11.1632
▁༢༡༣	-11.1632
▁རུནྡྷ	-11.1633
ཡནྟ	-11.1636
▁རཏནཱནི	-11.1638
▁ཨཔྤམཏྟཱ	-11.164
▁ཙཱིཝརཱནི	-11.1642
▁ནིརོདྷསཙྩཾ	-11.1644
▁དྷམྨརཱཛཱ	-11.1645
▁ཙེཏིཡསྶ	-11.1646
པརོ	-11.1647
▁ཙེཏསིཀཱ	-11.1648
▁ཙིཎྞ	-11.1648
▁པཧཱརཾ	-11.1649
▁ཨིཏྠ	-11.1649
▁ཨུཙྩཱཝཙ	-11.1652
▁བྷཡཱནཀ	-11.1653
▁སོབྷཏི	-11.1655
▁ཋཱནམེཏཾ	-11.1655
▁སམཱགཏཱ	-11.1656
▁དེསེཏབྦ	-11.1656
▁༢༠༥	-11.1656
ཝིསཡཾ	-11.1656
ཱདཱིསཱུཏི	-11.1657
སིཁ	-11.1657
▁ཨཔྤཝཏྟ	-11.1658
ཙྩེཝ	-11.1664
▁མཙྩུནོ	-11.1665
▁ཝཱཎིཛཱ	-11.1665
▁སམུཊྛཱནཱདཱིནི	-11.1666
▁སམཏྟ	-11.1666
▁དིཊྛཱནུསཡ	-11.1667
གྒཧཎེནེཝ	-11.1668
▁ནིཡོཛ	-11.1668
▁གྷཊེཏྭཱ	-11.1669
པཙྩུཔཊྛཱནཾ	-11.1675
▁གཱམནྟར	-11.1676
▁སབྦདྷི	-11.1677
▁མཛ྄ཛྷིམཱ	-11.1678
སདྡོ།	-11.1679
▁སམཱཔཛྫི	-11.168
▁ཛཱཏིཔཙྩཡཱ	-11.168
ནིཀྑེཔ	-11.1681
▁སིཀྑིཏབྦཾ	-11.1681
སསྶཏ	-11.1681
ེཡྻོ	-11.1683
▁ཨཧནྟི	-11.1684
ཡོགྒ	-11.1685
▁ནིརོདྷེ	-11.1685
▁ཚུཔ	-11.1686
▁བིནྡུ	-11.1687
▁ཨདཱསིཾ	-11.1687
▁པརིཀྑཱིཎ	-11.1692
▁ཨསྶཾ	-11.1693
▁༡༩༧	-11.1693
སིཏཱ	-11.1693
ཝིསེསོ།	-11.1693
དལ	-11.1695
ནིགྒཧ	-11.1695
▁སམྨཱསམྦོདྷིཾ	-11.1695
▁ཛྷཱནངྒ	-11.1695
▁ཡཱཏི	-11.1699
▁ནིདྡིཊྛོ	-11.1699
▁ཝདཱམཱིཏི	-11.17
▁ནཱམགོཏྟ	-11.1701
ལགྒ	-11.1702
བྱཱཔཱར	-11.1703
ཝོཧཱརེན	-11.1703
གཱམིནཱི	-11.1706
▁པཱིཋ	-11.1707
▁ནིསྶརཎཉྩ	-11.1708
སུཀྐ	-11.1708
▁པཊིསྶུཏྭཱ	-11.1708
▁ཀཡཝིཀྐཡ	-11.1708
▁ཨཱཙརིཡུཔཛ྄ཛྷཱཡ	-11.1708
ཡོཔི	-11.1709
▁ལདྡྷནཱམ	-11.171
▁ཡཐཱ༎	-11.1711
ལངྐཱར	-11.1711
▁ནུཔྤཛྫིསྶཏི།	-11.1712
▁ཨབྷིནིབྦཏྟ	-11.1713
▁ཝིབྷཱག	-11.1715
▁༢༠༠	-11.1715
▁སཱརམྨཎ	-11.1715
▁དཎྜེན	-11.1717
ཀརོཏི	-11.1719
བྷཱགཾ	-11.172
▁བྷཎནྟི	-11.172
▁ཨུཔསནྟ	-11.172
ཝཱསཱིནཾ	-11.172
▁ཨཱཏཔ	-11.172
▁ཨུགྒཧིཏ	-11.1722
▁ཝིགྒཧ	-11.1722
▁ཀཱརཎནྟི	-11.1723
▁ཨེལ༹ཀལོམ	-11.1723
པིཡ	-11.1724
▁ཀཱརུཉྙ	-11.1724
ནིཔཱཏོ	-11.1724
▁ཨིཏཱིཏི	-11.1724
ཱནུཔ	-11.1731
ཡུགཾ	-11.1731
དེཧ	-11.1732
ཛྷ	-11.1734
▁ནཱམཱནི	-11.1737
གནྟུ	-11.1738
▁ནཡིདཾ	-11.1738
གཱལ༹ྷ	-11.1738
▁༢༠༦	-11.1739
▁ཏཐཱགཏབལཾ	-11.174
སངྒྷསྶ	-11.1741
▁ཨུཔཱཧན	-11.1742
ཧཙྩ	-11.1744
སཱཝཀོ	-11.1748
▁སཾསཱརོ	-11.1748
ཙེཏནཱཡ	-11.1749
ིཡོཏི	-11.175
▁ཀུཊ	-11.175
▁ཀམྨཝཱཙཱཡ	-11.175
པུགྒལོཀཱསཱ	-11.1751
ཡཱགུ	-11.1751
▁ཨིནྡྲིཡསཾཝར	-11.1754
▁ཨཱཎཱཔ	-11.1758
རིཡཱ	-11.176
དྷཱན	-11.176
དུཊྛ	-11.176
▁ཨཉྙཏིཏྠིཡཱ	-11.1761
▁ཀིསྨིཉྩི	-11.1764
ུབྦྷ	-11.1764
▁ཨཱནེཉྫ	-11.1765
▁པརེན	-11.1765
▁པནེཏ	-11.1765
▁དྷམྨཝིཙཡོ	-11.1767
▁ཝིཧཉྙ	-11.1768
▁པཉྩཀཱམགུཎ	-11.1769
བྷགྒ	-11.1769
▁སཾཝཏྟནྟཱི	-11.1769
སངྒཧིཏ	-11.177
པརིཡནྟཾ	-11.1773
ཱམིས	-11.1775
▁༢༢༨	-11.1776
▁ཛཱནིཏབྦཾ	-11.1779
མཱནཏྟ	-11.1781
▁ཀིཾཀཱརཎཱ	-11.1782
ཏིཏྠིཡ	-11.1783
▁ཀཙྪ	-11.1783
▁ཀརོནྟེ	-11.1783
▁ཝིསཱཁེ	-11.1785
▁ཁཱདཏི	-11.1786
▁མུཏྟཾ	-11.1786
▁ཀཱལཀཏ	-11.1788
▁ཨུདཱཧརཎ	-11.1789
▁ཝིཛྫུ	-11.179
སེཏི	-11.179
▁ཝིཉྙཱཎེ	-11.1792
▁པརིཡོསཱནེ	-11.1792
▁ནིརུཛ྄ཛྷནྟི།	-11.1792
ཱབྷཱཝོ	-11.1798
▁༢༡༦	-11.1798
▁པཙྩུཔྤནྣེ	-11.1799
▁སདིསཱ	-11.1801
པྤཏྟི	-11.1802
▁༢༣༤	-11.1802
▁ཝིགྒཧོ	-11.1803
▁ཙིནྟཱ	-11.1804
▁ཨཔྤེཝ	-11.1805
ིཏོ༎	-11.1807
ཨེསོ	-11.1807
▁ཨཔྤམཏྟཀ	-11.1808
སམྦ	-11.1808
▁སྨཱ	-11.1808
དཱཡཀཏྠེརསྶ	-11.1809
▁ཀུཊྛ	-11.1809
པྤདེསེ	-11.181
སཱསནཾ	-11.1811
སམྤཡོག	-11.1811
▁ནིཝིཊྛ	-11.1812
ཝིསཡཏྟཱ	-11.1815
▁པརིཝེཎ	-11.1817
ཡེཝཱཏི།	-11.1818
▁ཕོཊྛབྦཱ	-11.1822
▁སབྦསངྑཱར	-11.1822
ཱཔེཏི།	-11.1825
སནྟོ	-11.1827
▁ཨཔྤསདྡ	-11.183
▁ཨཛཱནནྟསྶ	-11.183
▁བྷཝིསྶ	-11.1831
ཝཏྠུཀཐཱཝཎྞནཱ	-11.1832
▁སུཙརིཏ	-11.1833
ནེཏཾ	-11.1834
▁༢༡༩	-11.1834
▁༢༡༨	-11.1835
ཙརིཡཾ	-11.1836
▁ཝུདྡྷིཾ	-11.1836
▁ཨཔདཱནཾ།	-11.1836
▁དཱཏབྦོ།	-11.1836
▁དྭཡ	-11.1837
▁གཎྷིཏུཾ	-11.184
▁སནྡྷ	-11.184
▁ཝིཔཱཀཱནཾ	-11.1841
▁བྷིཛྫཏི	-11.1841
གརུཀ	-11.1842
ཱཔེཀྑ	-11.1842
▁ནེཏྟི	-11.1843
▁ཨནཱཐ	-11.1843
▁མཉྙེཡྻ	-11.1843
ཱུཔམོ	-11.1845
▁སནྟཱིརཎ	-11.1846
▁སབྦཀཱམ	-11.1847
ནྡྲིཡ	-11.1849
ཱཏིཀྐམེ	-11.1851
▁སམཎབྲཱཧྨཎ	-11.1852
ཡཱཙན	-11.1852
▁ཀུསལཙིཏྟ	-11.1852
ཀེ༎	-11.1852
▁ཝིཉྙཱཏབྦོ	-11.1853
▁ཀིམི	-11.1854
▁ཙཏུབྦིདྷོ	-11.1854
▁ནིབྦཱནཱཡ	-11.1854
སཱརིཔུཏྟ	-11.1855
▁དུཀྑིཏ	-11.1855
▁ཨཱགཏོཏི	-11.1856
རཱཛི	-11.186
▁༢༠༡	-11.1861
▁ཨེཀཱབདྡྷ	-11.1863
ུན	-11.1863
▁གབྦྷོ	-11.1866
▁ཨཁཎྜ	-11.1867
ཝཱརཎ	-11.1868
▁ཏཱུརིཡ	-11.1868
▁ཨིདྡྷ	-11.1868
▁ཙཉྙེ	-11.187
▁༢༠༤	-11.1871
▁ཡཱཙཏི	-11.1873
▁ཛལིཏ	-11.1874
▁ནཔྤཛཧཏི།	-11.1874
▁མཧིདྡྷིཀོ	-11.1875
▁སུཁཝིཔཱཀ	-11.1875
▁པཱདེསུ	-11.1876
▁པཾསུཀཱུལིཀ	-11.1876
▁ལིཙྪཝི	-11.1879
▁ནུཔྤཛྫིསྶཏཱིཏི	-11.188
▁སཔྤཱཎཀ	-11.188
▁གུནྣཾ	-11.188
▁ཨུཔཱཧནཱ	-11.1881
▁ཀརཎཱིཡེན	-11.1883
▁ཏཱུལ	-11.1883
སལླཀྑཎ	-11.1885
ཙཡ	-11.1886
▁ཕལདཱན	-11.1887
ཙཏྟཱརིམཱནི	-11.1887
▁༢༣༧	-11.189
▁སབྦནཱམ	-11.1895
▁ཏེཡེཝ	-11.1897
▁དུཀྑནིརོདྷོ	-11.1898
▁སཱརཱགོ	-11.19
པརིགྒཧོ	-11.1903
▁བྷཝིསྶཱམཱི	-11.1904
▁མུཏ	-11.1906
▁ཨུཔདྷཱར	-11.1906
▁བྷོཏི	-11.1909
▁ཝིཧརནྟི།	-11.1909
▁པདེསཾ	-11.1912
ཨིཙྩེཝ	-11.1914
▁༢༠༣	-11.1915
▁སཔྤཊིགྷ	-11.1916
▁ཨདྷིཀཾ	-11.1916
▁ཀཱིདིས	-11.1916
▁༢༣༦	-11.1917
▁ཨེཀེཀསྶ	-11.1917
▁སིཀྑེཡྻ	-11.1918
▁མནྡོ	-11.1918
▁ཨགཱརཝོ	-11.1921
▁༢༤༣	-11.1921
▁ཚེཀོ	-11.1922
▁ཨཧིཏ	-11.1922
མྱ	-11.1922
▁ཨུལཱ༹རཾ	-11.1923
▁ཡོཛེཏབྦོ།	-11.1925
▁བུདྡྷསེཊྛ	-11.1925
▁ཨབྷིཉྙེཡྻཾ	-11.1927
▁ཙེཏོསམ	-11.1928
▁ཨནྟརཾ	-11.1928
▁ཀཱམཙྪནྡ	-11.1929
▁ནཙྩགཱིཏ	-11.1929
▁ཝཱལུཀ	-11.193
སངྒཱིཏི	-11.193
གུལ༹	-11.193
▁སཱིལབྦཏ	-11.1932
▁སཏྟམོ	-11.1933
ིཡཏཱིཏི	-11.1933
▁མཧཏཱི	-11.1935
▁ཨལབྷིཏྭཱ	-11.1938
▁ཝིདྷམ	-11.1939
ཀམ	-11.1939
▁ཨརུཎུགྒམན	-11.194
▁ཀུཎྜལ	-11.194
▁ཝིཝད	-11.194
▁སམྤདཱ	-11.1941
▁ཀཱཀོ	-11.1943
ཱགམན	-11.1943
▁ཏིལོཀ	-11.1944
▁༢༣༨	-11.1947
▁མཱཏངྒ	-11.1949
▁ཨདྷིཔྤེཏཾ	-11.195
▁ཉཏྟི།	-11.195
▁སཉྩརིཏྟ	-11.195
ཝིཝིཏྟ	-11.1951
▁སྭ	-11.1952
▁ཝིསཱལ	-11.1953
▁སམཎབྲཱཧྨཎཱནཾ	-11.1953
▁༢༡༠	-11.1953
གཏྟ	-11.1955
དིཊྛཱི	-11.1955
▁སཧསེཡྻ	-11.1957
▁ནིགམན	-11.196
▁ཨེཝརཱུཔསྶ	-11.196
▁ཏེརསམ	-11.1961
▁ཨིམཱསཾ	-11.1963
▁ཨུཔསནྟོ	-11.1964
▁མཧཱཝིཧཱར	-11.1965
▁ཨཛ྄ཛྷོ	-11.1966
▁བོདྷིཔཀྑིཡ	-11.1968
▁ཕལེ	-11.1968
ནཡོ།	-11.1969
▁པིཎྜཔཱཏོ	-11.1969
▁སཏྠུསཱསན	-11.197
▁ཨགྒཕལ	-11.197
▁དཱིཔིཏཱ	-11.1972
ཨུཔནིསྶཡ	-11.1974
▁པརིཛཱན	-11.1975
ཝིཏྟ	-11.1975
▁ཝིརཏོ	-11.1977
▁བྷརིཡཱཡ	-11.1977
▁ཨཝིཏཀྐཾ	-11.1977
▁དཱནེན	-11.1978
▁ནཱནུ	-11.1978
▁སམྤཊིཙྪན	-11.1979
བྷཱཝདསྶན	-11.198
ཨནྟར	-11.198
ཨིད	-11.1981
བྷུཛ	-11.1982
▁ཨོསདྷ	-11.1983
ཝིལཱས	-11.1984
▁ཝིམུཙྩཏི	-11.1984
▁པཱཏིམོཀྑསཾཝར	-11.1984
▁སངྒཎྷ	-11.1984
རཎཾ	-11.1984
ཏྱཱ	-11.1986
ནྟརིཀ	-11.1987
▁ཛི	-11.1987
ཨིཏིཔི	-11.1987
▁ཀུལཔུཏྟཱ	-11.199
▁ཀཔིལ	-11.199
▁དྭཱསཊྛི	-11.199
པིཏཱ	-11.1991
▁པརིཀྑཱརོ	-11.1994
▁ཏུཝ	-11.1995
▁ནཔྤཛཱནནྟི	-11.1996
ཱཡུ	-11.1996
▁ཡཱཝཏཏིཡཾ	-11.1996
▁ཨཡཉྷེཏྠ	-11.1996
▁སིངྒ	-11.1996
▁སཙྪིཀིརིཡཱ	-11.1996
▁ཀུསལཱབྱཱཀཏ	-11.1997
▁གོཏྲབྷུསྶ	-11.1998
ཨེཀོ	-11.1998
▁ཙཱཔ	-11.1998
▁ནཔྤཛཧནྟི	-11.1998
▁པསཱར	-11.1998
▁ཀཱརཎབྷཱུཏ	-11.1998
ུགྒམ	-11.1999
▁སུཀྐཝིསྶཊྛིཡཱ	-11.2
ཡོཛནཾ	-11.2
▁བྷུཉྫིཏབྦ	-11.2
པལླཝ	-11.2001
▁རཛནཱིཡ	-11.2001
▁ཨནོཏྟཔྤཾ	-11.2001
▁ཨིཏརཐཱ	-11.2002
▁དོསསྶ	-11.2003
▁སཱིཧནཱད	-11.2003
▁དེནྟ	-11.2004
▁ཀརིསྶཱམཱ	-11.2006
▁ཙཱིཝརེན	-11.2007
▁པཏིཊྛཱན	-11.2007
▁དར	-11.2008
པརིསྶཡ	-11.2008
གྷཊནཱ	-11.201
▁ཀཱལམཀཱསི།	-11.2012
▁ཝལཱཧཀ	-11.2012
▁ཌ	-11.2013
▁གཏིཾ	-11.2014
▁པཏིརཱུཔཾ	-11.2014
ིཏབྦཱ།	-11.2015
▁༡༩༩	-11.2017
▁ཙཏུཏྠོ།	-11.2018
ཝསྶཱནི	-11.2022
▁ཨཉྙཏིཏྠིཡ	-11.2022
མཎྜལེ	-11.2027
▁མནོཀམྨཾ	-11.2027
▁ཀྲིཡཏྠཱ	-11.2027
▁སཱིཏཾ	-11.2028
▁སཔརིཝཱར	-11.203
▁པཎིདྷཱིཏི	-11.2031
▁ཀིཏྟཱཝཏཱ	-11.2031
▁ཝིཧེས	-11.2035
▁ཨཝེཀྑ	-11.2036
ཏུལ	-11.2038
▁ཡསསྶི	-11.204
▁ཨཱབྷཏཾ	-11.204
ལེཁ	-11.2043
ེཡྻུ	-11.2044
ཡས	-11.2045
▁ཝིཔྤཀཏ	-11.2046
▁དསྶནཱིཡ	-11.2047
▁ཝཏྟུ	-11.2047
▁པཊིཛཱནཱཏི།	-11.2047
ལིམྤ	-11.2049
▁ཨཛ྄ཛྷཏྟིཀཱ	-11.205
▁པཙྩེཀསམྦུདྡྷོ	-11.2051
▁ཝིཉྙཱཡཏི།	-11.2051
▁ནཱིཝརཎསམྤཡུཏྟ	-11.2052
མདྷི	-11.2052
▁ཧུ	-11.2054
▁ཨནུསནྡྷི	-11.2054
▁ནིརོདྷསམཱཔནྣ	-11.2055
མིཙྩ	-11.2056
▁ཝིནོདེ	-11.2056
▁ཏསྨིཉྩ	-11.2056
▁ཨུཔཊྛཔེཏྭཱ	-11.2057
ཀམྨཱ	-11.2057
▁ཨཛ྄ཛྷཏྟཱརམྨཎ	-11.2058
▁ཕུཊྛསྶ	-11.2058
སཱུར	-11.2059
▁མཧཱཔཐཝཱི	-11.2062
▁བྷཱསིསྶཱམཱི	-11.2064
▁༢༠༨	-11.2064
▁༢༡༢	-11.2064
▁༢༢༩	-11.2065
▁པཝཱརཎཾ	-11.2066
▁ཨཱཝསཐ	-11.2066
ཱནོ	-11.2067
▁ཛཱཡཏི།	-11.2067
▁ཉཱཏཀ	-11.2068
▁སོཎྜ	-11.2068
ཀམྨིཀ	-11.2068
▁ནིཝེསན	-11.2068
ཱརཱ	-11.2068
▁དུབྦྷིཀྑ	-11.2069
▁ཨུཔཊྛཱཔེ	-11.2069
▁པསཝཏི	-11.2074
▁གནྡྷམཱལ	-11.2075
མིཏ	-11.2076
▁དཛྫཱ	-11.2079
སཙྩཔརིཡོསཱནེ	-11.2079
▁ཡཏྟཀ	-11.2083
པཱུཏི	-11.2084
▁ནུཏྠ	-11.2084
མཔི	-11.2085
ིཏཱནཾ	-11.2085
ྱཾ	-11.2086
ཱནཉྩེཝ	-11.2087
▁པཙྩུཔྤནྣཱ	-11.2087
བཱཧིར	-11.2088
པབྦྷཱར	-11.2089
▁ཧཱཡ	-11.2089
སཾསནྡན	-11.209
▁པཎིདྷི	-11.209
▁སཱདྷན	-11.209
▁ཝཙནཏྠཾ	-11.2093
▁ཝིམོཀྑོ།	-11.2094
མདོ	-11.2097
▁ཝཀྑཱམི	-11.2097
▁༢༣༣	-11.2098
▁པམཏྟ	-11.2099
▁ཨེཀཝཱིསཏི	-11.2101
▁མོགྷ	-11.2101
▁བྷཛཏི	-11.2104
གམནེན	-11.2104
▁དཱསོ	-11.2105
▁ཝིཧཱསི	-11.2106
▁༢༡༤	-11.2107
ཨཏྠེ	-11.2108
▁པབྦཛིཏསྶ	-11.2109
▁ཏལ	-11.211
ཛཉྙ	-11.2111
▁༢༠༢	-11.2114
▁ཀོཝིདོ	-11.2115
ཀམེཝ	-11.2116
▁༢༣༢	-11.2116
བནྡྷུ	-11.2117
ིཀེན	-11.2118
▁ཨཱགཏཾ།	-11.2118
སྶཱམི	-11.2118
▁ཨནུམོདནཾ	-11.2119
▁ནདཏི	-11.2119
▁ཨཡམཱཡསྨཱ	-11.2121
▁བཧུལ	-11.2121
▁༢༣༠	-11.2122
▁ཛེཏཝནཾ	-11.2122
▁བྷིནྣཱ	-11.2124
▁པདཊྛཱནཾ	-11.2125
▁པཉྩཝོཀཱརཱནཾ	-11.2125
ཨནཱགཏ	-11.2125
▁ཨབྷིནྣ	-11.2125
ོསདྷ	-11.2127
ེསྶཱམཱ	-11.2127
▁ཨརིཡཔུགྒལ	-11.2127
▁ཨདྡ	-11.2127
▁པཱསཱདོ	-11.2128
▁དཱརུཎ	-11.2129
▁ཀམྨཕལ	-11.213
▁ཨབྷིཧར	-11.2131
མཐ	-11.2132
▁ལོཀིཡོ	-11.2132
▁ཨུཙྩཱ	-11.2133
▁ཨཱབྷཏ	-11.2133
▁སམཱཔཏྟིཡཱ	-11.2137
▁སལཱ༹ཡཏནཾ	-11.2137
༡༦	-11.2138
▁སུཎནྟོ	-11.2138
ཱཡེཝ	-11.2138
▁སབྦཏོ	-11.2141
▁སཉྫཱནཱཏི	-11.2142
པྤཡོཛན	-11.2143
མཉྫ	-11.2143
▁ཀལཧཾ	-11.2143
རཏྟཾ	-11.2145
ཀཱུཊཾ	-11.2146
▁ཨུཔཱདཱརཱུཔཾ།	-11.2146
▁ཨཱཝ	-11.2147
▁ཡཱཙི	-11.2147
▁སིཐིལ	-11.2151
▁ནོཨུཔཱདཱན	-11.2151
སཱུཙི	-11.2151
▁པཧིཏཏྟོ	-11.2151
སཱརོ	-11.2156
▁ཨཏཱིཏོ	-11.2157
▁ཀཐཡ	-11.2157
▁ཀོཊྛཱསོ	-11.2157
▁པབྷཱས	-11.2158
▁ཁཎིཀ	-11.2158
པབྷེད	-11.2159
▁༢༢༦	-11.2159
ཱནུཔརིཝཏྟི	-11.216
▁༢༢༡	-11.2161
▁རུཙི	-11.2161
▁ཨེཝརཱུཔ	-11.2163
▁ཀཐནྟི	-11.2163
▁པཱཊིཧཱརིཡཾ	-11.2164
ེཡྻཱཐཱ	-11.2164
▁པཊིཔཏྟིཾ	-11.2165
▁ཨནྡྷཀཱརེ	-11.2166
▁ནིདྡཱ	-11.2167
ཀྑནྡྷཾ	-11.2168
▁མརཎེན	-11.2168
ཝེལ	-11.2169
ནིཝཏྟི	-11.2171
▁༢༢༤	-11.2172
▁རམྨེ	-11.2172
ནཝུཏི	-11.2172
▁པཝུཙྩཏཱི	-11.2172
▁ཨནུཔཱདཱ	-11.2172
▁མཧཱིཔཏི	-11.2174
▁བྷཱ	-11.2174
▁པཙྩཝེཀྑམཱནོ	-11.2174
▁གབྦྷཾ	-11.2174
ཙྪཱ	-11.2175
▁ཨཱསཱ	-11.2176
གུཎོ	-11.2177
▁ཛཔྤ	-11.2178
▁༢༡༡	-11.218
▁ཨེཀདིཝས	-11.2181
▁ཨཔྤཏྭཱ	-11.2182
▁ནཱརིཡོ	-11.2182
▁པེཀྑམཱནོ	-11.2184
▁ཨུཔཱདཱརཱུཔ	-11.2185
▁ཡཏྟཀཾ	-11.2185
པྤཙྩཡཱ	-11.2186
▁ཨདྷིགཙྪ	-11.2187
▁༢༢༥	-11.2187
▁དྷུན	-11.2188
▁མནོརམཱ	-11.2188
▁སཙྩཱནཾ	-11.219
▁དུཧེཏུཀ	-11.2193
▁སུཎནྟི	-11.2193
▁ཨནཱསཝ	-11.2194
▁ཝུཏྟལཀྑཎ	-11.2195
▁ཝིསེསེཏྭཱ	-11.2198
▁ཨུཔཊྛཱཀོ	-11.2199
▁ཨུབྦ	-11.22
▁སཏིཔཊྛཱནེ	-11.2201
པེཏཾ	-11.2201
▁ཨུཀྐཎྛ	-11.2204
གྒཧཎེ	-11.2207
▁ཨུབྷོཧི	-11.2207
པུརིསཱ	-11.2207
▁ཙིཏྟཙེཏསིཀཱ	-11.2207
▁བྷཝརཱགཱནུསཡ	-11.2211
ུཔྤལ	-11.2213
སཾཝརོ	-11.2217
▁སམཱཔནྣ	-11.2218
བྱསན	-11.2218
དྡྷཱ	-11.2219
རེཏི	-11.2219
དྭཱདས	-11.222
ེབྷི	-11.2221
▁༢༢༢	-11.2222
▁ཝིཧིཾསཱ	-11.2222
▁ཨརཱུཔཱཝཙརཱནཾ	-11.2224
▁སརཱིརསྶ	-11.2224
▁ནིཊྛཾ	-11.2224
པནྣོ	-11.2227
▁ནིཀྑམན	-11.2229
▁གཎོ	-11.2229
▁མཛ྄ཛྷིམཾ	-11.223
▁དུགྒ	-11.223
▁རུཙྩ	-11.2231
༡༤	-11.2232
▁ཨཱཧིཎྜ	-11.2232
▁མཧཱསུདསྶན	-11.2232
▁གྷམྨ	-11.2233
ཏྠར	-11.2234
▁ནིཊྛིཏཱ	-11.2235
▁བྱཏྟེན	-11.2235
ུཙྩ	-11.2235
▁ཕོཊྛབྦཾ	-11.2236
▁ཨཏྟཧིཏཱཡ	-11.2239
དོསཱ	-11.224
▁ཀུསལཉྩ	-11.224
▁དམྨི	-11.224
ཝིནིཙྪཡཀཐཱ	-11.2243
▁ཝམྨིཀ	-11.2246
ུཎྞ	-11.2247
▁ཝུཊྛཱནསྶ	-11.2247
ཧེཏུདུཀཾ	-11.225
བཧཱུ	-11.2251
▁ཧནྟི	-11.2251
▁ཀུཊིཾ	-11.2252
▁རཱུཔདྷམྨ	-11.2255
སངྑཱཏཱནཾ	-11.2256
▁དེཡྻདྷམྨ	-11.2258
▁ཝཙཱིཀམྨ	-11.2259
ཨཙྪརིཡཾ	-11.2259
▁པུཉྙེན	-11.2259
པཙྩནཱིཀ	-11.226
▁ཡདེཝ	-11.2261
▁ཨཔརིཔུཎྞ	-11.2266
▁གཎྷཏོ	-11.2267
▁མགྒཧེཏུཀ	-11.2267
▁ཨཱཙར	-11.2268
ཀམྨཾ།	-11.2269
▁ཉཱཎདསྶན	-11.227
▁ཨུཀྑིཏྟཀ	-11.227
▁དྷིཏི	-11.2272
▁མནུསྶེཧི	-11.2272
▁ཧཉྙ	-11.2276
▁ཏིཙཱིཝར	-11.2276
ཝཙནཏོ	-11.2277
ཏྭཱན	-11.2281
ཨཱསཝ	-11.2282
▁སཱཝཀེ	-11.2282
▁མཧཱཀསྶཔོ	-11.2282
སནཾ	-11.2283
▁པུནཔྤུན	-11.2283
ཨུཏུ	-11.2284
▁པབྦཛྫཱཡ	-11.2284
▁ཨུཔྤཛྫིསྶནྟི	-11.2287
▁བྷཝནཾ	-11.2288
ཨུཔྤནྣ	-11.2288
▁༢༣༥	-11.2289
▁པཱམོཛྫ	-11.2289
▁ཝིཛཱནཱཏི	-11.2289
▁ཨདྷིམོཀྑོ	-11.229
▁པཱརཱཛིཀཱ	-11.229
▁ཚིནྡཏི	-11.2291
པཙྩཡསྶ	-11.2291
▁སིཡནྟི	-11.2291
▁སམྨཱདིཊྛིཡཱ	-11.2293
▁དྭིཀྑཏྟུཾ	-11.2294
སཏྠུ	-11.2294
▁ཨབྱཱབཛ྄ཛྷ	-11.2294
▁ཡཀཱར	-11.2295
▁པཋམཔཱརཱཛིཀ	-11.2295
▁ཨརུཎ	-11.2295
ཝིརཏི	-11.2295
▁པཝིཝིཏྟ	-11.2296
གཎྜ	-11.2297
▁ཨུཏྟ	-11.2298
▁པརཱམཱསོ	-11.23
▁པཀཱསིཏོ	-11.2302
▁ཛཱནིཏབྦ	-11.2303
མེཝཱ	-11.2303
▁༢༢༧	-11.2304
པཱདཱ	-11.2304
དསྶནོ	-11.2304
▁པཋམམེཝ	-11.2305
▁མཱཔེཏྭཱ	-11.2312
▁ཀཱིདིསཾ	-11.2314
▁ཕུཊ	-11.2314
▁སཱམཎེརསྶ	-11.2314
ཱནུཀམྤ	-11.2314
▁པུཙྪིཏཱ	-11.2315
▁མིཙྪཱ།	-11.2316
▁དུཀྑཝེདནཱ	-11.2317
▁སནྟིཊྛཏི	-11.2319
སམཉྙཱ	-11.232
ནིཝེསན	-11.232
▁སཱིམཱཡ	-11.2321
▁ཨཙྩི	-11.2323
▁ཨསྶདྡྷིཡ	-11.2324
དསཀ	-11.2324
ཱདྷིཔ	-11.2326
▁སཾསཊྛ	-11.2326
▁ལཱབྷསཀྐཱརསིལོཀ	-11.2327
ཏཎྜུལ	-11.2329
▁ནིསཛྫཱཡ	-11.233
པཊིཉྙ	-11.2331
ཝཎྞནཱཡཾ	-11.2331
▁བྷཏྟུ	-11.2331
ཕལོ	-11.2331
▁རུཧ	-11.2332
▁ཙོལ༹	-11.2334
▁གཱིཝཱ	-11.2334
སནྠར	-11.2335
▁ཙཱཧཾ	-11.2335
▁ཙིཏྟེཀགྒཏཱ	-11.2336
བྷཱཎཝཱར	-11.2336
▁སམིདྡྷི	-11.2337
མཱསཀ	-11.2337
▁ཝསྶེ	-11.2337
▁ཨབྷིསམཡོ	-11.2337
▁པཊིསནྠཱར	-11.2338
▁ཀུམཱརཾ	-11.2338
▁ཨནཱགཏཱརམྨཎ	-11.2339
ཱདིནྣཨནུཔཱདཱནིཡོ	-11.2341
▁ཝིཡཱ	-11.2342
ཱཏིཨཱདཱིསུ	-11.2342
▁རུད	-11.2344
▁ཨུཔསམྤཱདེ	-11.2344
ཝཱིར	-11.2344
སོཏཱཔཏྟིཕལཱདཱིནི	-11.2344
▁གཧཎཾ།	-11.2346
▁༢༢༣	-11.2346
▁སུནྡརཾ	-11.2346
ཝིཏཱན	-11.2347
ཧེཝ	-11.2349
▁ཡཀྑཱ	-11.2349
▁ཨཀིཉྩན	-11.235
▁ཡཏི	-11.2351
▁ཝཏྟཏེ	-11.2352
▁སེཡྻཱ	-11.2353
▁པཙྪཱཛཱཏེ	-11.2354
▁ནཔྤཊི	-11.2355
རཱུ	-11.2355
▁པུརིསཔུགྒལོ	-11.2356
སནྡྷ	-11.2357
▁པཏྟབྦ	-11.2358
▁པཱདོ	-11.2358
▁ཝཎྞཝཱདཱི	-11.2358
▁ཨརཱུཔཱཝཙརཾ	-11.236
▁ཡཐཱསམྦྷཝཾ	-11.2362
▁ཡཱཝདཏྠཾ	-11.2363
▁ཡཱགུཾ	-11.2364
▁༢༡༧	-11.2365
‘‘	-11.2366
▁མགྒསཙྩཉྩ	-11.2366
▁༢༣༡	-11.2367
▁ཏསྨཱཏིཧ	-11.2368
▁མིཙྪཱཛཱིཝ	-11.237
▁སམུཙྩཡ	-11.237
▁ཀཱསཱཝ	-11.237
▁སམུདཱཙར	-11.2371
▁ཨཀུསལཝིཔཱཀ	-11.2371
▁པུཊ	-11.2373
པྤཀཱརཾ	-11.2377
▁ཝིཉྙེཡྻཾ	-11.2377
▁གཱཐཱསུ	-11.2378
▁ཨགྒེ	-11.2379
ནིརུཏྟི	-11.2379
▁སཋ	-11.2382
▁ཀམྨཛ	-11.2383
ཱདཱིནིཔི	-11.2383
▁ཨཀ	-11.2385
སཉྙོཛན	-11.2386
ཧེཏུཏོ	-11.2386
▁པརིསཱསུ	-11.2388
▁ཝིཧིཏ	-11.2388
ཝཱཎིཛ	-11.2389
▁ཝིནཡཀམྨ	-11.239
▁པཊིཙྩསམུཔྤཱདོ	-11.2393
▁ཡོགཱཝཙརོ	-11.2394
▁ནིཡྻཱཏ	-11.2394
▁ཛཱིཝིཏེ	-11.2395
མིཙྩེཝ	-11.2395
▁ནིབྦུཏ	-11.2395
▁ནིཙྩལ	-11.2397
▁ཨུཔཔཛྫེཡྻ	-11.2399
▁ནིརུཛ྄ཛྷ	-11.2399
▁ཀོསལོ	-11.24
▁ཝིཀྐིཎ	-11.2401
▁སཾཝིདཧ	-11.2401
རཏྟི	-11.2403
▁ཡཱདིསཱ	-11.2407
མུདྡིཀ	-11.2409
རོཙ	-11.241
▁པུརེཛཱཏཾ།	-11.241
▁དྭིཏྟཾ	-11.2412
▁ཨིཙྪནྟི	-11.2412
▁ཨནཝཀཱསོ	-11.2412
▁དིཡྻམཱན	-11.2412
▁སམྦོདྷཱཡ	-11.2412
▁སཎྛཱཏི	-11.2413
བྷརིཏ	-11.2413
▁ཨགྒམགྒསམངྒཱི	-11.2413
▁ནགརསྶ	-11.2414
▁ཨནནུསྶུཏེསུ	-11.2415
▁ཨཔཎྞཀ	-11.2415
སམཏྠཏཱ	-11.2415
▁རུཔྤན	-11.2416
▁བྱསནཾ	-11.2417
སཱུཀར	-11.2417
▁ཨཱབྷཱ	-11.2417
▁ཛཱཏརཱུཔ	-11.2417
▁ཏདནུ	-11.2418
▁ཨསམྦྷིནྣ	-11.2421
▁པསཱིདིཏྭཱ	-11.2421
▁༢༤༠	-11.2422
▁༢༣༩	-11.2422
▁གེཧསིཏ	-11.2424
▁མནོཝིཉྙཱཎ	-11.2424
▁ཨཝསྶ	-11.2425
▁དིཊྛིཡོ	-11.2428
▁ཛཱནིཏུཾ	-11.2429
▁དཱིཔེནྟོ	-11.243
▁མཧཱསམུདྡོ	-11.2431
▁ཨཱཝརཎ	-11.2431
▁པཊིབལེན	-11.2432
▁པཱཏི	-11.2432
ཧཏཾ	-11.2433
▁ཝཱིམཾསཱ	-11.2434
▁སོཏེན	-11.2435
ལུ༹	-11.2435
▁མུཧུཏྟཾ	-11.2435
▁པཊིལཱབྷོ	-11.2436
▁གཡ྄ཧཏི	-11.2437
▁སཾསནྡ	-11.2437
▁ཝིསཱཁཱ	-11.2438
ནྭ	-11.2439
▁དསྶཱམི	-11.244
▁མཧེསིནོ།	-11.2442
▁ཨཡྻོ	-11.2442
མཏྟནྟི	-11.2443
སམྦྷཱུཏ	-11.2443
▁སམཐཱ	-11.2447
▁ཀཱཡཱནུཔསྶནཱ	-11.2448
▁བྷཱསཏི།	-11.2448
▁དུཀྑཝིཔཱཀ	-11.2449
▁ཨཛཱནནྟ	-11.245
པྤཏྟིཡཱ	-11.245
དིནཱ	-11.2451
▁ཨཀཱལེ	-11.2452
▁ཨིནྡྲིཡཾ།	-11.2453
▁བནྡྷནཱ	-11.2453
▁དྷམྨིཀཾ	-11.2458
▁ཨུཔཝས	-11.2459
ུཏྟམཾ	-11.2462
བྷཱཛནཾ	-11.2462
ཏཱདཱིཧི	-11.2463
▁ཨེསནཱ	-11.2464
▁སཱནུསཡོཏི	-11.2465
པཊིཔཏྟིཡཱ	-11.2468
ཏྠམེཝ	-11.2468
▁པཉྙཱཔན	-11.247
པཙྪཱ	-11.247
ཀྑཎེཡེཝ	-11.2471
ཏྟིཾས	-11.2471
▁ཝིནཱཔི	-11.2471
▁པཔཉྩསཱུདནིཡཱ	-11.2473
▁ཨལཛྫཱི	-11.2474
▁ཀཱཡསུཙརིཏ	-11.2474
▁ཧདཡཝཏྠུ	-11.2475
▁ཨིདམ	-11.2476
▁ཀདྡམ	-11.2476
▁པསྶསི	-11.2477
▁ཨུཎྷཾ	-11.2478
པུཏྟཾ	-11.2478
▁ཀརིསྶནྟི	-11.2479
ཨུཙྩ	-11.2481
▁བྷཡཱ	-11.2481
ནཝཀ	-11.2482
ཏཱཔི	-11.2482
▁ནོཔརཱམཱས	-11.2483
▁ནཱཝ	-11.2484
▁མཏྠཀ	-11.2485
ཀུཏོ	-11.2485
▁ཕཱསུཀ	-11.2486
བལཝ	-11.2486
▁ཨཛྫེཝ	-11.2487
▁ཨརཧཏཱིཏི	-11.2488
▁མུདུཀ	-11.2491
ོཀཱསཾ	-11.2492
▁པརལོཀེ	-11.2492
▁གུཎཝ	-11.2493
▁ཝཱཏེན	-11.2495
▁དིཊྛིགཏཱནཾ	-11.2496
ཨཏྠོ	-11.2497
▁ཨརིཡཱཡ	-11.25
▁ནཱརད	-11.25
ཏྠིཀཱ	-11.2501
▁ཨཱསཝསམྤཡུཏྟོ	-11.2501
▁ཙརིཏ	-11.2502
▁ལཙྪ	-11.2505
པྤབྷཱ	-11.2506
▁ཝིཉྙེཡྻོ	-11.2507
▁སཱིཧལ༹	-11.251
▁ཨཙེཏསིཀ	-11.251
▁བཱལ༹ྷ	-11.2511
▁གམིསྶཱམཱི	-11.2511
པརིཡཱདཱན	-11.2512
ཀཝཱཊ	-11.2513
པརིཝཏྟན	-11.2513
ནིསྶིཏོ	-11.2513
▁མོཀྑོ	-11.2514
▁ཛཱནཏཱ	-11.2514
▁དིཊྛེན	-11.2514
▁བཧུཝིདྷ	-11.2514
▁པགྒཧེཏྭཱ	-11.2516
▁ཨིསྶརིཡཾ	-11.2516
▁མོཧཱ	-11.2517
ངྐརོ	-11.2517
སངྐཱས	-11.2518
▁ནཱམིཀཔདམཱལཱ	-11.2519
▁ཛལཾ	-11.2519
▁མཧགྒཏཾ	-11.252
▁ཨབྦྷུཏ	-11.252
པཏྟཱི	-11.252
དེཝཱི	-11.2523
▁མནོཀམྨ	-11.2523
▁སུདྷམྨ	-11.2524
▁མདྡི	-11.2529
▁བྷཎེ	-11.2529
▁ཨསཀྐོནྟཱ	-11.253
▁པཱཎིནོ	-11.2534
ཏྠེརཨཔདཱནཾ	-11.2534
▁མཧཱནིསཾས	-11.2534
▁ནཔྤཛཧཏཱིཏི	-11.2535
▁ནཱསཀྑི	-11.2536
▁མརཎསྶ	-11.2536
▁ཨཉྙཱཏིཀཱཡ	-11.2536
▁མུཡ྄ཧ	-11.2536
གབྦྷོ	-11.2538
▁དཡཱ	-11.2538
▁ཀིཉྩན	-11.2538
▁ཛཱནཱཧི	-11.254
▁པརིཀྑཡཾ	-11.2541
▁པབྦཛིསྶཱམི	-11.2541
ཱདེསེ	-11.2541
▁ཨེཡྻ	-11.2544
ཝིནཱིཏ	-11.2544
▁པཎྞཱས	-11.2546
▁ཨརཧཏཾ	-11.2546
ཀོསལླ	-11.2546
▁ཨེཀཝིདྷེན	-11.2553
ཀྐོས	-11.2554
▁༢༤༢	-11.2555
▁པཛཧནྟོ	-11.2555
▁ཨཱཝཱཊ	-11.2556
▁ནོནཱིཝརཎ	-11.2556
▁སཱམཉྙཕལ	-11.2557
སམུདཡཾ	-11.2557
▁དཱསཱི	-11.2557
▁ཨསཉྙ	-11.2558
▁སནྡྷཱཡེཏ	-11.256
མཱརོ	-11.2567
▁སུཏྟེསུ	-11.2568
ནུལོམཔཙྩནཱིཡཾ	-11.2568
ཡམ	-11.2569
▁པུབྦནྟ	-11.257
▁ཨཔྤིཙྪཱ	-11.2574
▁པཀཱསིཏཱ།	-11.2575
མཡེ	-11.2578
▁ཨཱགྷཱཏོ	-11.2579
▁སམཱདྷིནཱ	-11.2579
པཙྩནཱིཡཱནུལོམཾ	-11.2579
▁བུདྡྷགུཎ	-11.258
▁ལབྦྷ	-11.258
སེནཱ	-11.2581
▁གགན	-11.2581
▁སུཏྟཱནི	-11.2581
པྱཏྲ།	-11.2583
▁ཨནོཀཱས	-11.2585
▁སངྑཏཾ	-11.2587
▁སཀྐཾ	-11.259
▁དྭཱིཧ	-11.2592
▁ཝིཔྤམུཏྟ	-11.2592
▁ནཔུཾསཀལིངྒ	-11.2592
▁རཱུཔཱརམྨཎཾ	-11.2592
སམུདཱཙཱར	-11.2592
▁ཨནུམཱན	-11.2593
ངྒཱནི	-11.2595
▁ནཨནིདསྶནཨཔྤཊིགྷ	-11.2596
▁ཡཱཝཏཱཡུཀཾ	-11.2596
▁ཨཔརིསེས	-11.2598
▁གནྡྷཱཡཏནཾ	-11.2598
▁ཨཛ྄ཛྷོཧར	-11.2598
ཊཾ	-11.2599
▁ཨིདྷཱཝུསོ	-11.2599
▁ཀཏོཏི	-11.2601
▁སབྦདྷམྨ	-11.2601
སཱརཎཱིཡ	-11.2603
▁རཱུཔཱརམྨཎ	-11.2603
▁ཝསནྟ	-11.2604
▁སཨུཏྟར	-11.2605
ཀུལཔུཏྟ	-11.2608
▁ཝིཝིདྷཱ	-11.2609
▁ཀཔཎ	-11.2609
▁ཝུཏྟནཡཏྟཱ	-11.2609
▁ཨུཔཱགམི	-11.2609
▁ཨཱརོཔ	-11.2611
▁ཝིདྷཱན	-11.2611
▁ཀུདཱསྶུ	-11.2613
▁བུདྡྷོཏི	-11.2614
པཏྟཱ	-11.2615
ོཀཱསོ	-11.2615
▁ཨསཀྐོནྟ	-11.2616
▁བྷོཛནཱནི	-11.2616
མཱགཏ	-11.2619
▁པཏྠནཱཡ	-11.262
▁དུལླབྷོ	-11.2621
▁སསྶཏདིཊྛི	-11.2622
▁ཀཏཀིཙྩ	-11.2623
ཀྑནྡྷེ	-11.2623
▁ནིདྡཱཡ	-11.2625
▁ཛཱནི	-11.2626
ཝུཏྟིནཱ	-11.2627
▁ཝིཀྑིཏྟ	-11.2628
▁ཁནྟིཾ	-11.2629
▁ནཱལི༹	-11.263
▁པསྶཏཱ	-11.2631
▁ཀཱརཎེ	-11.2633
ཱདིགུཎ	-11.2633
▁ཏདཧུ	-11.2635
ིཀཱ༎	-11.2636
ཏཱལ༹	-11.2637
ཀཧཱཔཎ	-11.2638
བྷགཝཏོ	-11.2638
ཝིཏཀྐོ	-11.2638
ཀམྨནྟི	-11.2639
▁གཧེཏབྦོ	-11.2639
རཉྙ	-11.2643
▁པཐཝཱིཀསིཎ	-11.2643
པརིཡོསཱནཱ	-11.2643
▁ཨདུ	-11.2644
ཐུ	-11.2644
ཉྫལི	-11.2646
མེཏནྟི	-11.2646
▁ཝིཉྙཱཎནྟི	-11.2647
▁ཨུཔགཏཱ	-11.2647
ཨནནྟར	-11.2647
བྷཱཝཾ།	-11.2651
▁ཨབྷཱུཏཾ	-11.2651
▁ཀཱས	-11.2652
སདྡཏོ	-11.2654
▁སམྨུཁཱཝིནཡོ	-11.2657
▁ནིམནྟིཏོ	-11.2657
▁ཀཱརེཏབྦོ	-11.2658
▁མཧེསཀྑ	-11.2658
པཱཝུརཎ	-11.2659
▁ཝིཙཀྑཎོ	-11.2659
མཡི	-11.2662
དྷཱཏུཡོ	-11.2662
པྤཡོགོ	-11.2663
▁ཝུཏྟམཏྠཾ	-11.2664
པཀྑིཀ	-11.2667
ཨིམ	-11.2667
▁དསྶེསི	-11.2667
▁དྷུཏྟ	-11.2669
ལོཀཾ	-11.267
▁ཨཊྛཱརསཧི	-11.2671
▁པཱཊིཧཱརིཡ	-11.2673
▁པརིཔཱཀ	-11.2674
ིནྡོ	-11.2674
▁མཧགྒཏོ	-11.2675
སྶཏཱི	-11.2675
▁སུདསྶན	-11.2676
▁པརིཏྟཱ	-11.2677
▁བྷཝནྟཱིཏི	-11.2677
▁སདྡཱཡཏནཾ	-11.2678
▁ཨཝདྷཱརཎ	-11.2679
ནདཱི	-11.268
▁ཏཱདིནོ	-11.2683
▁གཎཾ	-11.2684
▁དོཎ	-11.2684
▁ཨཱརཱམིཀ	-11.2686
སཾཧིཏ	-11.2686
པདཱ	-11.2687
བྱཱཀཏ	-11.2689
▁པཱིཏིསཧགཏོ	-11.269
▁པཙྩཡཱཀཱར	-11.2691
ཡོ༎	-11.2691
▁གཏྟ	-11.2691
▁ནཱགརཱཛ	-11.2694
▁པེམཾ	-11.2695
གམྨ	-11.2695
▁ཨནུཔྤཏྟཱ	-11.2696
ཨརཱུཔ	-11.2696
▁ཨཊྛངྒུལ	-11.2696
▁སཱུརིཡེ	-11.2697
▁ཨབྷིབྷཱུ	-11.2697
▁ཀངྑཾ	-11.2697
ཝཏཱ	-11.2697
▁སཏྠཱར	-11.27
ཛནཱ	-11.27
ཝིནིབནྡྷ	-11.2703
མརིཡཱད	-11.2703
▁ཀཐན	-11.2704
▁མཱུལཱཡ	-11.2705
པརེཏ	-11.2707
▁ཨལླཱིཡ	-11.2707
ཝིམཱནཝཎྞནཱ	-11.2708
▁ཨེལ༹ཀ	-11.2708
▁ཝིཝཱདཱདྷིཀརཎཾ	-11.2708
▁པཛཧཐ	-11.2708
དོམནསྶུཔཱཡཱསཱ	-11.271
▁ཨཱཀཱསདྷཱཏུ	-11.271
▁པཊིགྒཱཧཀ	-11.2711
▁མུདྡྷ	-11.2711
ཱཧཱིཏི	-11.2711
▁དཱཏུ	-11.2712
▁༢༤༡	-11.2714
▁ཨསཱཏ	-11.2717
ཀཱཡིཀ	-11.2717
▁པཀཱསན	-11.2717
ཝཙནོ	-11.2718
གམཱ	-11.2721
▁སུརཱམེརཡམཛྫཔམཱད	-11.2721
▁ནཨརཱུཔཱཝཙར	-11.2721
ཀིཏྟི	-11.2722
▁ཏཔྤཊིཔཀྑ	-11.2722
▁བྲཧྨཙརིཡཝཱསོ	-11.2722
▁ཨུཔམཾ	-11.2723
▁བྷིཀྑཱཙཱར	-11.2725
དབྦ	-11.2726
མནུསཱས	-11.2727
▁ཀཔིལཝཏྠུ	-11.2727
▁སལཱཀབྷཏྟ	-11.2727
སྨིཉྩ	-11.2727
▁ཙཛ	-11.2728
▁སེཏུ	-11.2728
▁ཡཱཡཾ	-11.2729
ཙཱུལ༹	-11.273
▁རཐེསབྷ	-11.2731
▁སུཁིཏཱ	-11.2732
▁ཧཏོ	-11.2732
▁པཱཔཀོ	-11.2733
▁ཨགྒཊྛཱན	-11.2736
▁ཨསྶམེ	-11.2736
▁ཝཏྟབྦཏཾ	-11.2737
༡༧	-11.2738
▁སམུདཡསཙྩཉྩ	-11.2738
▁ནིསཱིདིཏུཾ	-11.2739
▁གྷཾས	-11.2741
▁པཝཏྟིཏཾ	-11.2741
▁ཀམྨཝིཔཱཀ	-11.2742
▁ཨོབྷཱསོ	-11.2742
▁ཝེཧཱསཾ	-11.2743
ཝིཔྤ	-11.2744
▁དུདྡས	-11.2747
ཨིཏྠི	-11.2748
ཏེཛ	-11.2748
▁ཀཱརེཏི	-11.2751
ཀྑེཏྟ	-11.2752
▁ཨཛཱནནྟཱ	-11.2753
▁སཀྐུཎེཡྻ	-11.2753
ཡཊྛི	-11.2756
▁བྷཱཝནཾ	-11.2756
ཏྠརཎ	-11.2758
▁ནརཀ	-11.2759
▁མཧི	-11.276
▁སཾཝཏྟཏཱི	-11.2761
▁ཨུཔཱསཀཾ	-11.2761
▁ཋཱནནྟི	-11.2761
▁ཨཀཱརཎ	-11.2762
▁པཙྪིམསྶ	-11.2762
▁ནདཱདི	-11.2762
▁པཧིཎ	-11.2763
ཝིབྷཱཝ	-11.2763
▁ཝསནཊྛཱན	-11.2764
ཝིསེསཱ	-11.2765
ུཔཊྛཱན	-11.2765
▁ཝིནིཙྪིན	-11.2766
▁མནུསྶབྷཱུཏཱ	-11.2767
▁སམནུ	-11.2767
▁ཚནྣོ	-11.2767
▁རོཧཎ	-11.2768
▁ཛེཏཝན	-11.2769
ཏཾ༎	-11.277
▁ཙཱཏུམཧཱརཱཛིཀ	-11.277
ཨཡྻ	-11.2771
▁ཨུཎྞ	-11.2771
▁ཨཱདཱིནཝཉྩ	-11.2772
ཱདིབྷཱཝོ	-11.2774
བྲ	-11.2775
▁མཧཱམོགྒལླཱན	-11.2777
▁ཡམྷི	-11.2777
ུཔེཀྑ	-11.2779
▁བྷཛནྟི	-11.2782
སཱལཱཡ	-11.2782
▁ཨགྒཧིཏ	-11.2783
ནྟསྶ།	-11.2783
ཱཡུཀ	-11.2784
▁ཨསཔྤཱཡ	-11.2784
པིཊྛ	-11.2785
༡༩	-11.2786
▁མཙྪརིཡཾ	-11.2786
▁ནེསཱད	-11.2787
▁ཀརོསི	-11.2788
▁པརདཱར	-11.2788
▁པཙྩེཀབུདྡྷཱ	-11.2788
▁མལཾ	-11.2789
▁པཊིཙྪཱདེཏྭཱ	-11.279
▁དྷཱརེནྟ	-11.279
ཀྲིཡ	-11.279
▁ཨཙྪཱད	-11.2791
▁སཾཁིཏྟ	-11.2792
▁མཧནྟཱ	-11.2792
▁སཱརཏྟོ	-11.2794
གཡ྄ཧ	-11.2795
▁བྲཱཧྨཎེན	-11.2797
▁ཝཊྚཏིཡེཝ།	-11.2799
སཾཝཎྞནཱཡ	-11.2799
གཎནཱ	-11.28
▁ཨཉྙཐཏྟཾ	-11.2801
▁སཱསཝོ	-11.2801
▁ཨུཔཧཏ	-11.2802
▁ཏཔྤཙྩཡཱ	-11.2802
▁ནིསྶཛྫ	-11.2802
ཡནྟཱི	-11.2804
▁པརིཡོདཱཏ	-11.2805
▁ཝིནཱསཾ	-11.2807
▁དསཱཧ	-11.2807
▁སདེཝཀསྶ	-11.2809
ཀཧཾ	-11.2809
▁ཨདྡས།	-11.2816
▁ཝེདནཱནཾ	-11.2816
▁དུཀྑསཙྩཉྩ	-11.2817
▁ནིཡྻཱཏི	-11.2818
པཙྩཡེན	-11.2819
▁ཨིཏི༎	-11.2821
▁སཱམིཝཙནཾ།	-11.2822
▁ཨཏིསཡ	-11.2823
▁བྷཱགོ	-11.2826
▁སཔྤུརིསཱ	-11.2827
ལིཏ	-11.2827
ཧེཏུབྷཱུཏ	-11.2828
ུནྣ	-11.2828
ཏྟར	-11.283
དཱུཏ	-11.283
མཱུལཱ	-11.2832
སནྟུཊྛ	-11.2833
▁ཨུཔཔནྣཱ	-11.2834
སམནྣཱགཏཾ	-11.2835
ཱདིཝཎྞནཱ	-11.2835
▁ཙེཏོཔརིཡཉཱཎསྶ	-11.2836
▁ཨཔརིཡཱཔནྣཱ	-11.2838
ཙམྨཾ	-11.284
ཝཧ	-11.2841
▁ཙཏུསཙྩདྷམྨ	-11.2841
▁ཝིཔྤཡུཏྟཔཙྩཡཱ།	-11.2841
མཏྟཱནཾ	-11.2842
▁ཝཀྑཱམ	-11.2845
▁ཨཐོཔི	-11.2845
▁ཨཱིདིསཾ	-11.2846
▁སནྟཱིཏི	-11.2846
▁ཝཱཧ	-11.2847
ཙཏུནྣཝུཏི	-11.2847
▁པཱདཀཛ྄ཛྷཱན	-11.2847
▁ཨབྷིསེཀ	-11.2847
▁སནྠར	-11.2848
▁དུཔྤཉྙོ	-11.2849
▁སམཱཔཛྫན	-11.2849
▁མཧཱཔཙྩརིཡཾ	-11.285
▁ཨཔརཾ	-11.2852
▁སཾཝིབྷཱག	-11.2852
▁སཏྟམཱ	-11.2853
▁ཝཙནེ	-11.2853
▁བྷཱཡི	-11.2853
ལཱ༹ར	-11.2853
བདྷིར	-11.2853
▁དེསཡ	-11.2854
ཨཊྛཱནམེཏཾ	-11.2854
▁པཏིཊྛཱཔེཏྭཱ	-11.2856
▁རཱུཔཱཡཏན	-11.2858
▁ཨནཱདར	-11.2858
ཨུཔེཀྑཱ	-11.2859
▁ཨནུགཏ	-11.2861
▁སདིསཾ	-11.2862
▁ཨབྷིསངྑཏ	-11.2863
▁མཉྙནྟི	-11.2864
▁རཛྫེ	-11.2866
བྷཀྑོ	-11.2866
▁ཉཱཔེཏབྦོ	-11.2866
བྲཧྨཱ	-11.2871
▁སཱསཔ	-11.2871
▁ཝིརཛྫཏི	-11.2873
ཝིཀལ	-11.2875
▁ནེཝསེཀྑནཱསེཀྑ	-11.2878
▁པཱིཏིསཧགཏཱ	-11.2878
▁པསིདྡྷ	-11.2879
མཱུལཀེ	-11.2879
▁ནཡོཏི	-11.2879
▁ཝཏྟབྦནྟི	-11.288
རདྡྷ	-11.2881
ེསྶནྟཱི	-11.2881
▁ནིབྦཏྟིཏ	-11.2883
རུཀྑེ	-11.2884
▁ནིམནྟན	-11.2885
▁མིཏ	-11.2885
སཧིཏཾ	-11.2888
ཁཏྟིཡ	-11.2889
ནིབྦཏྟཀ	-11.2891
▁ཧརནྟི	-11.2891
ཎྛ	-11.2893
ཀམྨཱནི	-11.2893
ཝཱདེན	-11.2893
▁བྲཱཧྨཎཱི	-11.2895
▁པཏིཏཾ	-11.2896
▁པཊིལབྷཏི	-11.2896
▁ལོཀདྷཱཏུ	-11.2897
▁ཨནཏྠཾ	-11.2898
▁པསྶིཏུཾ	-11.2898
▁ཀིཏ	-11.29
▁ཨེཀརས	-11.29
ཀྑེཔ	-11.29
དེསོ	-11.2902
▁ཝུཏྠ	-11.2902
▁སིསྶོ	-11.2903
▁ཨིནྡྲིཡནྟི	-11.2904
▁ཨནུམོདན	-11.2905
▁ཋཔན	-11.2906
▁བཱཧིརཀ	-11.2906
▁ཚདན	-11.2907
པཱརུཏ	-11.2909
བྱཱདྷི	-11.291
▁དྷོཝན	-11.2911
▁ཨལབྷནྟོ	-11.2911
▁སམོདྷཱནཔརིཝཱས	-11.2911
▁བྷེརཝ	-11.2911
▁སེསཔདེསུཔི	-11.2911
▁ཨནཱགཏཾསཉཱཎསྶ	-11.2911
▁ཝིཡཱཀཱསི	-11.2911
▁ཨུཙྪིཛྫ	-11.2912
▁དེཝཏཱཧི	-11.2912
▁ཀྱ	-11.2913
▁ཝིསཏྟིཀཱ	-11.2913
▁ཝིཝེཀནིསྶིཏཾ	-11.2913
▁ཨཱརཱ	-11.2913
▁ཁུཛྫ	-11.2913
▁མཏྟཱ	-11.2913
ཉཱཎསྶ	-11.2915
▁པབྦཏཱ	-11.2916
▁ཏཐཱཝིདྷ	-11.2916
སཱརཾ	-11.292
▁གོཙརཾ	-11.292
ལླིཀ	-11.292
▁ནིཀྑམཏི	-11.2922
▁ཡཐཱཔི	-11.2923
▁ཨཔཱཀཊ	-11.2923
▁གདྲབྷ	-11.2924
▁ཀཙྩཱཡན	-11.2924
▁པརིགྒཧོ	-11.2924
▁ཀལླ	-11.2924
▁ཨནུལོམཾ།	-11.2924
▁ཝུཏྟེན	-11.2925
▁ཧོཏཱུཏི	-11.2926
▁པསྶཱཝ	-11.2926
▁ཙཏུཏྠསྶ	-11.2927
▁སནྟཔྤ	-11.2927
▁ཝཎྞཱ	-11.293
▁པརཱམཱསསམྤཡུཏྟ	-11.293
▁ཨཧཱུ	-11.293
▁ཐུ	-11.293
▁སཀདཱགཱམིམགྒ	-11.2931
▁པཙྩཡབྷཱུཏ	-11.2932
▁ཝཱུཔསམྨཏི	-11.2933
བྷཱཝན	-11.2933
▁ཨུཔནཱིཏ	-11.2936
▁ཨུཔྤཛྫི།	-11.2936
ཝ྄ཧེ	-11.2937
▁ཨཉྙཏོ	-11.2937
སཱིསཾ	-11.2937
▁ཏུཊྛི	-11.2938
▁ཨཔསཱད	-11.294
▁ཨནྟལིཀྑེ	-11.294
སམཱཡོག	-11.2942
ཡཱམི	-11.2942
ཱཝཱི	-11.2947
མཧཏྟ	-11.2949
▁ཨཝིཔྤཊིསཱར	-11.295
བདྡྷོ	-11.2951
བྷེ	-11.2954
▁བལེན	-11.2955
▁ཝཏཱཡཾ	-11.2956
▁སཾསཡོ	-11.2958
▁ཨུཔཊྛཱཏི	-11.2959
▁རཏོ	-11.2959
▁པསཱདཱཡ	-11.296
▁པཱཔསྶ	-11.296
ཱཔཡི	-11.2961
▁མདྷུརཾ	-11.2962
པུབྦཾ	-11.2962
▁ཝདེ	-11.2962
▁ཨརིཡསཱཝཀ	-11.2963
ཱནུསྶཏི	-11.2963
▁ཏལཱ༹ཀ	-11.2963
▁གཱམསྶ	-11.2963
མཱགཏཾ	-11.2965
▁རཏྟིཡོ	-11.2967
▁ནིསྶཱར	-11.2968
▁ཝཌྜྷནྟི	-11.2968
ནསཱིལོ	-11.2968
▁ཛནཔདེསུ	-11.2969
པལཱས	-11.297
▁ཁཱིཡཏི	-11.2971
▁ཨཱསཝེཧི	-11.2972
དྭེམེ	-11.2973
▁ཏིཊྛནྟི།	-11.2973
▁ཨཱཎཏྟ	-11.2973
གུཎེན	-11.2974
ཎྞོ	-11.2975
▁མཱགཎྜིཡ	-11.2975
▁ཀཱནིཙི	-11.2975
▁ཛཱནཱཏཱི	-11.2975
ཡནྟཾ	-11.2976
པཎིཧིཏ	-11.2976
▁ཙིཏྟསྶེཀགྒཏཱ	-11.2976
▁ཨཀརོནྟ	-11.2976
▁ཙནྡིམསཱུརིཡཱ	-11.2976
▁ཀཱམཱུཔསཾཧིཏཱ	-11.2976
ཱདིབྷཱཝ	-11.2976
▁སབྦཉྩ	-11.2979
▁ཡོཛེཏབྦ	-11.2979
▁ཨརཱུཔསཉྙཱི	-11.298
▁ཨབྷིབྷཱུཏ	-11.2981
▁སམྨཱསམཱདྷི།	-11.2981
ཕལཀ	-11.2982
▁ཨེཀདྷམྨ	-11.2982
▁སཙྪིཀརོཏི	-11.2984
▁ཙཏུབྦིདྷཱ	-11.2985
▁ཛེགུཙྪ	-11.2985
▁རུཙིཡཱ	-11.2985
སཉྙིསྶ	-11.2986
ནྟཱུ	-11.2986
▁སུཀརཾ	-11.2987
ཧེཏཱུཏི	-11.2989
▁མོགྷཔུརིས	-11.299
▁སཾཧར	-11.299
▁ཝནྡེ	-11.2993
▁ཏཱལ༹	-11.2995
▁ཙེཏནཱ།	-11.2997
▁ཀཔྤཱས	-11.2998
▁བྲཱུཧ	-11.2998
▁སུཁདུཀྑཾ	-11.3002
ཝིཛཡ	-11.3003
ཙརིཡཱཡ	-11.3004
▁པརིཏོ	-11.3005
སྶརོ	-11.3005
▁སམུགྒྷཱཏ	-11.3006
ཝཝཏྠཱན	-11.3006
ནྟརེན	-11.3008
▁མཱསོ	-11.3009
▁ཨཔརིཀྑིཏྟ	-11.3012
▁ཡུཝཱ	-11.3012
དྷཱཏཱུ	-11.3013
▁དུཀྑནིརོདྷ	-11.3013
▁དྭིཔད	-11.3015
▁ཏཱཝདེ།	-11.3015
▁པུཎྜརཱིཀ	-11.3015
ཀྑིཔ	-11.3016
▁བྷཡཏོ	-11.3017
▁ཙཀྑཱདི	-11.3017
▁ཝིཉྙཱཔེཏི	-11.3018
▁དེསེཏི།	-11.3018
དྡུ	-11.3019
▁སེསཱནཾ	-11.3019
▁ཝཏྟཱ	-11.302
ཨུཔཱསཀ	-11.302
▁པཱཔིམ	-11.3021
ཝལཱཧཀ	-11.3021
▁ཝགྒུ	-11.3021
▁པསྶཱམཱི	-11.3023
▁མགྒངྒཾ	-11.3026
▁ཨུཔནིསྶཡོ	-11.3026
ིཡཏེ	-11.3026
▁ཛཱིཡ	-11.3029
▁སཀུཎོ	-11.303
▁སུབྷཾ	-11.3032
▁མཧཱཔཉྙོ	-11.3032
པཋམཾ	-11.3032
གངྒ	-11.3034
ནྟསྶཱཔི	-11.3035
▁གུཧ	-11.3038
▁མཱདིས	-11.3039
▁རི	-11.3039
▁ཨནཱཔཏྟཱི	-11.3039
▁མིཐིལ	-11.3039
▁ཨགྒཱི	-11.304
ཨཱཀཱས	-11.3041
▁ཏེམཱསཾ	-11.3042
▁དེསནཱཔརིཡོསཱནེ	-11.3042
▁བྷུམྨཏྠེ	-11.3042
▁ཨིཙྩེཏཾ	-11.3044
▁ཨུཔདྡུཏ	-11.3044
▁ཀོས	-11.3045
▁ཨོསཀྐ	-11.3045
▁ནིབྦཱནདྷཱཏུཡཱ	-11.3046
▁བྱཱཀཱསི	-11.3049
▁ཏྭཉྩ	-11.3049
▁བྷིཀྑུནཱིཏི	-11.3052
▁པདུཊྛ	-11.3053
▁ཏུསྶ	-11.3054
▁ཨསངྑཱརིཀ	-11.3055
བྷཱསཱ	-11.3055
▁པཎྜིཏེཧི	-11.3056
▁མིགོ	-11.3056
བཱཧ	-11.3058
པུབྦབྷཱག	-11.3058
▁ཝིཔྤཡུཏྟཔཙྩཡཱ	-11.3059
ཨམྦྷོ	-11.306
ེམི།	-11.3062
▁པདུམུཏྟརསྶ	-11.3062
ལོཀིཡ	-11.3063
པཝཱརཎཱ	-11.3065
▁བྷཱརཾ	-11.3065
མནསིཀཱརོ	-11.3066
▁སམྨཏཱ	-11.3068
▁དུཏིཡདིཝསེ	-11.307
▁སམནྣཱགཏ	-11.3071
▁པརིཡཱཔནྣ	-11.3071
▁སམོདྷཱན	-11.3071
▁གུ	-11.3073
▁གེདྷ	-11.3073
▁ཨཀྑཱཏ	-11.3073
▁ཨམོཧ	-11.3074
ཡཱ༎	-11.3075
▁ཏེཔིཊཀ	-11.3075
ཏོཝ	-11.3077
▁པཙྩཝེཀྑཎཉཱཎ	-11.308
▁པཏྠེཏི	-11.308
སདིསཾ།	-11.308
ཝིརཧིཏཾ	-11.3083
▁སལ	-11.3083
▁སམྤཏི	-11.3084
▁པཉྩཝོཀཱརཾ	-11.3085
སངྑཱཏེཧི	-11.3085
བོཛ྄ཛྷངྒ	-11.3086
ལོབྷསཧགཏ	-11.3086
▁ཨཱཡཏནཱནཾ	-11.3086
ཨེཏདགྒཾ	-11.3086
▁ཚིཛྫ	-11.3087
▁ཝིཀྐ	-11.3087
ུགྒཏ	-11.3087
ཊྛཱནེཡེཝ	-11.3087
སངྒཱཧཀ	-11.3087
▁ལངྒྷ	-11.3088
▁ཝརོ	-11.3089
ཚཀྐ	-11.3089
▁པཱཎིནཱ	-11.309
སཙྪི	-11.309
▁ཨཱརོཙིཏ	-11.309
▁བྷཱགཾ	-11.3092
▁ནིསྶཊྛ	-11.3092
▁ནིབྦིདཱཡ	-11.3093
ནམོ	-11.3094
ཀུཙྪི	-11.3094
▁ཨཛཱནན	-11.3096
▁ཙིནྟཡ	-11.3097
ཡྻཱ	-11.3098
ིཏྠི	-11.3099
▁སཧཛཱཏཔཙྩཡཱ	-11.31
ཨིཙྩཱདིནཱ	-11.3102
▁ཨནཏྟམནོ	-11.3103
▁ཏདཧུཔོསཐེ	-11.3104
▁སམུཊྛཱཔེཏི	-11.3104
ལཱཡ	-11.3105
▁པཱཙ	-11.3105
▁ཨཱབྷསྶར	-11.3106
▁ཀཱཡཝིཉྙཏྟི	-11.3107
▁ཨེཀགྒཏཱ	-11.3108
པྤཛཧ	-11.3109
ཡུཾ༎	-11.311
▁པཱཔཀ	-11.311
ནཡཾ	-11.3111
ཀརུཎཱ	-11.3112
▁བྲཱཧྨཎཀུལེ	-11.3112
▁ནཱཡཀ	-11.3116
▁ཨབྷིསམྦུདྡྷ	-11.3116
▁ཏཉྙེཝ	-11.3116
སམཾ།	-11.3116
▁ཨུརག	-11.3118
ཝིཀཏི	-11.3123
▁པཱིཎ	-11.3123
▁ཨནཱགཱམིསྶ	-11.3123
ཝིསྶཊྛ	-11.3124
▁དྷམྨིཀོ	-11.3125
▁སིཏ	-11.3127
ལཱབྷཱ	-11.3128
▁ཝེསྶནྟརོ	-11.3131
ཨམྨ	-11.3134
▁ནཧཱན	-11.3134
▁ཨུཙྪེདདིཊྛི	-11.3135
▁སུཁིནོ	-11.3135
▁ལིངྒཾ	-11.3135
ཀོཊྛཱསེ	-11.3136
▁པལཱས	-11.3137
▁ཉཱཎསམྤཡུཏྟ	-11.3137
ཉཱཎཾ།	-11.3137
ཀུཊིཀ	-11.3137
▁ཨཱཔཱད	-11.3138
▁པཙྩཝེཀྑཎཱ	-11.3138
▁པརིཝཱརིཏོ	-11.314
ཏརཎ	-11.314
▁ཨདྷིཊྛཧ	-11.314
ཨུདྡྷ	-11.3141
▁ཁེལ༹	-11.3144
▁རཾསི	-11.3145
▁ཨལཏྠ	-11.3148
པརིབྦཱཛཀ	-11.3149
ཱཏིཨཱདིམཱཧ།	-11.315
▁ཏཱདིསཱ	-11.315
བྲཱུཧ	-11.3151
▁ཝཱསཝ	-11.3154
པརིཀྑེཔ	-11.3155
▁བྷག	-11.3158
▁སཱིཧསྶ	-11.3158
▁སནྟོས	-11.3159
▁ཀསི	-11.316
བྷཾ	-11.316
ཙེཏསོ	-11.3161
སུཉྙཏ	-11.3163
▁སུཛཱཏོ	-11.3166
▁ཝསྶསཧསྶཱནི	-11.3168
དྷཱུམ	-11.3168
▁པཙྩནཱིཡུདྡྷཱརོ	-11.317
▁མནསིཀརོནྟོ	-11.317
པཙྩུཔཊྛཱནོ	-11.317
▁ཀཏིཔཡ	-11.3171
▁ཀརཎཱིཡཱ།	-11.3171
▁ནནྡོ	-11.3172
ཝིམུཏྟཱི	-11.3172
▁པཊིལབྷཏི།	-11.3172
ཏྟིཾ	-11.3172
▁ཧནྡཱཧཾ	-11.3172
▁ཨུདྡྷཙྩསཧགཏཾ	-11.3173
▁པརིམཛྫ	-11.3174
ེསྶཏཱི	-11.3174
▁ཨོདནཾ	-11.3175
ཝིཉྙཱཎཾ	-11.3176
▁ཡམཧཾ	-11.3177
▁ཁཡེ	-11.3177
▁པརིཝེཎཾ	-11.3177
▁པཉྩུཔཱདཱནཀྑནྡྷཱ	-11.3178
རོཔིཏ	-11.3178
▁ཁཎོ	-11.3178
ཊྛཱནནྟི	-11.3178
ཡུཾ	-11.3178
ནིདཱནཱ	-11.3179
▁པརིཝཛྫཡ	-11.3179
▁སཧཛཱཏཱདྷིཔཏི།	-11.3182
▁ཨནུགྒཎྷ	-11.3182
ཡྻོ	-11.3183
ཱནམེཏཾ	-11.3184
▁པནེཏེ	-11.3185
▁པརིསྶཡ	-11.3185
ནིཝཏྟ	-11.3185
སེཁ	-11.3186
ནིཡཱམེན	-11.3187
ཱཔེནྟསྶ	-11.3188
ཱབྷིདྷཱན	-11.3188
▁ཨཱཡུཔྤམཱཎཾ	-11.3188
ྨ	-11.3189
སཾས	-11.3189
▁ཝུཏྟཱནཾ	-11.3191
▁ནིདྡཾ	-11.3195
▁དྭཱ	-11.3196
▁བྷཝེཡྻུཾ	-11.3197
ཝེཀལླ	-11.3198
▁ཝིསུདྡྷིཡཱ	-11.3198
▁ཝིདིཏཾ	-11.3199
ཨལ	-11.3199
ནྟཱུཏི	-11.3199
▁ཨདྷིགཏཾ	-11.32
▁ཝུཊྛི	-11.3202
▁ཝིསྶཛྫེཏི	-11.3203
ཀཱལ༹ཀ	-11.3204
ིསྶཐ	-11.3205
▁པཎྜར	-11.3206
▁ཨམིཏ	-11.3206
▁བྱཱཔཱར	-11.3207
ཱདཱཡ	-11.3207
▁ཨཱམནྟ	-11.3207
རིཀ	-11.3208
▁ཝིཧིཾས	-11.3209
▁ཝིཏྠཏ	-11.3209
▁ཨེཀཔད	-11.3209
▁སདྡྷམྨསྶ	-11.3209
▁སུདྡྷོ	-11.3212
▁ཨེཀདེསེན	-11.3212
▁དྷཱརེཏུ	-11.3212
▁པརིསུདྡྷོ	-11.3212
ནཱིཡཱ	-11.3214
▁དེཝཏེ	-11.3215
▁ཙིཏྟསཾསཊྛ	-11.3215
▁མུདྡྷཱ	-11.3217
ུཔཔཛྫ	-11.3217
ཀཱརོ།	-11.3218
▁དེསེཡྻ	-11.322
གརཧ	-11.3221
▁ཨརིཡེན	-11.3222
མཱནུས	-11.3223
ཀུཀྐུཙྩ	-11.3223
མཱནཱནཾ	-11.3225
ུཀྑེཔ	-11.3227
ུཔཔཏྟི	-11.3228
▁ཨརཀྑིཏ	-11.3228
སཡཾ	-11.323
ཨུད	-11.323
▁སརཾ	-11.323
▁བྷཱུཏཱནི	-11.3231
རོགོ	-11.3232
▁ཝིནསྶཏི	-11.3232
▁སབྦསྨིཾ	-11.3233
▁མུཊྛསྶཏི	-11.3236
▁ཡུགནདྡྷ	-11.3236
▁ནཨནཱསཝ	-11.3236
▁པིཡརཱུཔཾ	-11.3237
▁སཱདྷཱུ	-11.3237
ཊི	-11.3238
▁བྲཧྨཙཱརཱི	-11.3238
▁ཨཙིར	-11.3239
ཝིདྡྷཾསན	-11.324
དཱཡིཀཱ	-11.324
▁སུནཀྑཏྟ	-11.324
སམཔྤིཏ	-11.3241
དྷིཊྛཱན	-11.3241
▁སཱདྷཱུཏི	-11.3242
ཀཱནན	-11.3244
ཙིཎྞཾ	-11.3245
▁བྷཝཱབྷཝ	-11.3245
▁པརིཝཱས	-11.3246
ཎེན	-11.3247
▁པཊིཡཱད	-11.3248
ེཏྭཱ།	-11.3248
▁ཨཱརོགྱ	-11.3249
ཝིཔཱཀོ	-11.325
▁ཝེདཡ	-11.3251
སྶསི	-11.3251
▁མདྡིཏྭཱ	-11.3253
པཱདུཀ	-11.3253
▁རཏཱ	-11.3254
ནཝིཔཱཀདྷམྨདྷམྨཾ	-11.3254
▁ཡཐཱསཀཾ	-11.3255
▁པཊིསཾཝེདེཏི	-11.3258
▁སུཉྙཱ	-11.3259
ཱདཱིནཱིཏི	-11.326
▁བྷཡེན	-11.326
ཝིབྷཏྟ	-11.326
བྷིཀྑུནཱི	-11.3261
▁ཝིཛྫམཱནེ	-11.3261
གཾ	-11.3261
▁ཕོཊྛབྦེ	-11.3262
▁མཱུསིཀ	-11.3263
པོཎ	-11.3264
▁ཨདྷིཔྤཱཡཾ	-11.3265
ཨནནྟ	-11.3266
▁གཱལ༹ྷ	-11.3267
▁ཝིབྷཱུཏཾ	-11.3267
པརཾ	-11.3269
▁པཱིཏིཾ	-11.327
▁པཱཔཀེ	-11.3271
▁པཙྩེསྶ	-11.3273
▁ཝིཔྤསནྣེན	-11.3274
▁ཨརོག	-11.3276
▁ཨནེཀསཏ	-11.3276
▁སམནྟཙཀྑུ	-11.3276
▁ནཱམརཱུཔསྶ	-11.3276
▁པཱརམཱི	-11.3277
སྨིཾ།	-11.3278
▁མཱནུསཀ	-11.3283
ཏཙྪ	-11.3285
▁པཀཱརེཧི	-11.3286
▁ཨཝསཱནེ	-11.3287
▁ཨསནྟཾ	-11.3287
སམྤཏྟ	-11.3288
▁པཏིཊྛཧི།	-11.3289
▁ཨནཱགཱམིམགྒ	-11.3289
▁ཨཱཙིཎྞ	-11.329
▁ཨུབྦྷ	-11.3293
མེཏྟ	-11.3293
▁ཨུཔཱདཱནཱ	-11.3294
▁དྷཱརེཏབྦ	-11.3295
▁སམུདཱཙརནྟི	-11.3295
▁ཙཝཏི	-11.3296
▁ཨབྷིརུཧ	-11.3298
▁ཀཱཡསངྑཱར	-11.3299
ཙུ	-11.3301
དྷཱཏུཾ	-11.3302
▁ཨགྒམཀྑཱཡཏི	-11.3302
▁ཨབྦྷཱཙིཀྑ	-11.3302
▁ཨཝིཔཱཀ	-11.3303
▁པིཏཱམཧ	-11.3304
▁སམོདྷཱནེཏྭཱ	-11.3306
▁ནིཝེད	-11.3307
▁ཨདསྶན	-11.3307
▁མཱརཎ	-11.3309
▁མོཙེཏྭཱ	-11.331
▁དུམྨནོ	-11.331
▁ཀཱམཱཝཙརོ	-11.3316
▁ཀོདྷཾ	-11.3317
▁སཀྐཱཏི	-11.3318
དཧན	-11.3318
▁ནིཔུཎ	-11.3319
གནྟྭཱ	-11.3321
བྷཝོ	-11.3323
▁ནིབྦཏྟཾ	-11.3324
▁ལིཁིཏ	-11.3324
▁སམྨཔྤདྷཱནཱ	-11.3325
▁ཨུཔན	-11.3325
▁བྷེསཛྫཱནི	-11.3326
▁སམནུཔསྶ	-11.3326
▁ཏཡོཔི	-11.3327
▁ཨིདྡྷིཔཱདཾ	-11.3328
▁དསཀ	-11.333
▁པརིཧཱནི	-11.333
▁པཛཱཔཏི	-11.333
▁ནིཙྪཡ	-11.3333
ཱདྷིཊྛཱནཾ	-11.3333
ཨཱཔ	-11.3333
▁པལི	-11.3337
▁དྭཱཝཱིསཏི	-11.3338
སཉྪནྣ	-11.3339
▁ཨནུསེཏི།	-11.3339
▁ཨཱདཱིནཝཱ	-11.3341
ཏྟམ	-11.3341
▁ཨཔྤམཱདོ	-11.3341
▁ཝིཧཱརཱ	-11.3343
སམནྣཱགཏ	-11.3344
▁ཛཱཏིཛར	-11.3344
སམྤི	-11.3345
དསྶནཱ	-11.3346
▁སམཡཱ	-11.3346
▁ཀཱམབྷོགཱི	-11.3346
▁ཨཝིཔྤཝཱས	-11.3347
▁དྷམྨཔད	-11.3347
▁ཛརཱམརཎསྶ	-11.3347
པིཊྛེ	-11.3347
སེནཱསནཾ	-11.3348
▁ཙཀྑུམ	-11.3348
▁ནཱལི༹ཀེར	-11.3349
▁དྷམྨཝིནཡ	-11.335
▁ཨུམྨཏྟཀ	-11.335
▁ཀཱརཡི	-11.3351
ཱསནཾ	-11.3351
▁སམེ	-11.3352
▁དྷམྨརཱཛ	-11.3352
▁ཨོཏྟཔྤཾ	-11.3352
ཛིགུཙྪ	-11.3352
▁མོ	-11.3354
▁རམྨཾ	-11.3355
▁སོཏཱཔནྣཱ	-11.3355
ཛརཱ	-11.3356
༡༥	-11.3357
པནྣ	-11.3357
▁ནཡཱ	-11.3358
ཡམཱནཾ	-11.3358
སྶརཱ	-11.3359
▁དྭ	-11.3359
མེཀཾ	-11.3363
▁རཱཧུ	-11.3364
ཀུབྦ	-11.3364
▁སབྦཱནིཔི	-11.3367
▁སདྡེན	-11.3368
▁བྷཱསེཡྻ	-11.3368
▁པཱཔུཎིཾསཱུཏི།	-11.3368
▁སམྤསྶམཱནོ	-11.3369
▁ནཝིཔྤཡུཏྟཔཙྩཡཱ	-11.3369
▁པཝེསན	-11.337
▁པརིཔཱུརཀཱརཱི	-11.3371
པཉྷཱ	-11.3371
▁ཨདྷ	-11.3373
ཀོཔི	-11.3375
དྷཱརཱ	-11.3375
▁ཨིཊྛཀ	-11.3376
▁སུཔིནཾ	-11.3377
▁མནུསྶབྷཱུཏོ	-11.3377
▁དཏྟ	-11.3379
▁ནིཡྻ	-11.3381
▁ཋཔེནྟོ	-11.3383
▁པིཊཀཏྟཡ	-11.3383
▁གཎྷཱཏཱིཏི	-11.3383
▁ཝིབྦྷནྟ	-11.3384
▁ཨཔྤསནྣཱནཾ	-11.3384
ནནྟ	-11.3385
པརིཡཏྟི	-11.3385
ཝིབྷཱཝནཱ	-11.3386
▁པཏིཊྛ	-11.3387
▁རཱུཔསཉྙཱ	-11.3387
▁སཱུད	-11.3387
▁མཱཏར	-11.3387
▁ཨཔྤམཉྙཱ	-11.3387
ུཛྫན	-11.339
▁པཉྙཏྟོ	-11.339
▁སཾཝས	-11.3391
▁སནྠརིཏྭཱ	-11.3392
གཱམིནོ	-11.3392
ཱདྷཱིན	-11.3393
ཀཏྟུ	-11.3393
▁ཨཔཀྐམ	-11.3393
▁གིམྷ	-11.3397
▁དྷམྨཔཊིསམྦྷིདཱ	-11.3397
ཝཏིཾ	-11.3397
▁ཨསམྤཏྟ	-11.3399
ལེས	-11.3401
སཱས	-11.3401
▁བྷཝཔཙྩཡཱ	-11.3403
▁སིར	-11.3404
▁པཱཔུཎིཏྭཱ	-11.3404
▁ཝིཏཀྐཾ	-11.3406
▁ཏཐཱ༎	-11.3408
▁དཧརཱ	-11.3408
▁ཨཀྑཱཏཱ	-11.341
ཧརཎཾ	-11.3413
ཕལཱནི	-11.3414
པཏཱི	-11.3414
▁པམ	-11.3416
▁སདཱ༎	-11.3416
ཱུཔམཾ	-11.3417
▁ཕལེན	-11.3418
བཱལ	-11.3418
ཧཱནི	-11.3418
▁དོསེན	-11.3419
སཱམཏྠིཡ	-11.342
▁ཚ།	-11.3421
▁སཏིཝིནཡ	-11.3422
པམུཁ	-11.3422
▁ཨེཏདགྒེ	-11.3423
བྷཱཝེཔི	-11.3424
ཨཊྛཱརས	-11.3425
▁ཝཉྩན	-11.3425
▁གིལཱནཱ	-11.3426
ཏྟནྟི	-11.3427
▁པུརེཛཱཏ	-11.3427
▁པུཙྪཱམ	-11.3427
ཝིསེསེ	-11.3427
▁བྷཱཝེཏི།	-11.3427
ཱཡཏནཱནི	-11.3428
▁བྷིནྣོ	-11.3429
▁ཨེཝམེཏ	-11.343
▁ཝེརི	-11.3431
ཝསྶོ	-11.3432
▁ཨངྒཎ	-11.3432
▁ཨཱདིཀམྨིཀ	-11.3435
▁ཝསྶསཧསྶ	-11.3435
▁ཨགྒསཱཝིཀཱ	-11.3436
▁ཙིཏྟསཧབྷུ	-11.3437
▁སཉྫཱནན	-11.3437
པཏན	-11.3439
▁སམཱཧིཏེ	-11.3439
▁ཁཱཡཏི	-11.344
▁མཱརིསཱ	-11.344
ཡཉྷི	-11.3442
▁སཱཀཙྪ	-11.3442
▁ཙམྨཾ	-11.3442
ཝསྶསཏ	-11.3444
▁པཎཱིཏབྷོཛན	-11.3444
ཱདྱ	-11.3444
སེལ	-11.3445
▁ཨརིཡམགྒེན	-11.3446
ཙལ	-11.3446
▁ཨེཐ	-11.3447
ཝཏིཡཱ	-11.3447
▁ཨཔྤིཙྪ	-11.3448
ཱདཱིཧཱིཏི	-11.3448
▁སམཱནཏྠ	-11.3449
▁ཀེནཙིདེཝ	-11.345
▁ཨུཔནིདྷཱཡ	-11.3451
▁བྷུཉྫནྟསྶ	-11.3451
དིཊྛིཡཱ	-11.3452
▁པཏྟོ།	-11.3452
ནིསྶགྒ	-11.3452
▁ཝཏྠུཔུརེཛཱཏཾ	-11.3452
ཝིསམ	-11.3453
▁ཝིཏཀྐེ	-11.3453
▁ཝིཉྙཱུཧི	-11.3454
ཛཱཏིཡཱ	-11.3454
ཝཱལ	-11.3455
▁པརིཔཱུརེནྟི	-11.3458
ཨིམཱནི	-11.3459
▁ཨུཏྟཱནཏྠ	-11.3459
▁རསྶཏྟཾ	-11.3459
སཾཡུཏྟེ	-11.346
▁ཀཱཡིནྡྲིཡཾ	-11.346
ིནིཡོ	-11.3461
▁ཨབྱཱཀཏམཱུལ	-11.3461
▁མཧཱམུནི།	-11.3462
▁ཏཱཎ	-11.3464
སངྒཧཾ	-11.3465
▁པིཧ	-11.3466
▁པཊིཙྪ	-11.3467
▁སནྣ	-11.3471
▁ཨཝདྷི	-11.3471
▁ཋིཏོཏི	-11.3472
▁སམྤཡུཏྟཱ།	-11.3473
ཏེཛོ	-11.3474
▁ཙཏུཏྠཱི	-11.3475
▁ནིསྶཊ	-11.3477
ཛཔྤ	-11.348
ཱཔཏྟིཡོ	-11.348
▁བཧཱུསུ	-11.3481
སཱིཏི།	-11.3481
▁ཀཱཎ	-11.3482
ཀུསལསྶ	-11.3482
▁པརིཙཱརཀ	-11.3484
▁པརིབྷཝ	-11.3485
ཀོསལླཾ	-11.3485
▁རཱགེན	-11.3485
ནཏྠཱཡ།	-11.3486
ཀཱརཀཱ	-11.3486
▁གཝཾ	-11.3488
རོཔན	-11.349
པསྶེ	-11.3491
▁དཱུཏཾ	-11.3492
པརཱཛིཏ	-11.3492
▁ཝིསེསཱདྷིགམ	-11.3492
ཱབྷིམུཁཾ	-11.3493
▁པུབྦསྶ	-11.3494
▁པཊིཉྙཱཡ	-11.3497
▁ཨུཔཙིཏ	-11.3498
▁ཏུམྷཱཀ	-11.35
▁ཙིནྟིཏ	-11.35
སོལ༹ས	-11.3501
▁ཝུཏྟཔྤཀཱརེན	-11.3503
▁ཨཔཙཡགཱམཱི	-11.3503
▁ལིཙྪཝཱི	-11.3503
▁ཝིལུམྤ	-11.3503
▁ཝེདགཱུ	-11.3504
▁ཨབྷིཏྠཝ	-11.3505
▁མུཙྪ	-11.3505
▁པཛྫལ	-11.3506
ཱདྷིཀརཎ	-11.3507
ཊྛཱིནི	-11.3507
▁དྷཱརེཏཱིཏི	-11.3507
▁ནསཧཛཱཏེ	-11.3508
གུཎེཧི	-11.3508
▁པཀྐནྟ	-11.3509
▁ཨཙརི	-11.3509
▁མཧེསཱི	-11.351
▁པརིཝཱརེ	-11.351
སམྤཏྟཱི	-11.3511
▁སནྣདྡྷ	-11.3512
▁བྱཱཀརཎ	-11.3513
པཊིལཱབྷོ	-11.3515
▁ཨཔརིཡཱཔནྣ	-11.3516
▁ཨཀཱམ	-11.3516
▁པརཱཛཡོ	-11.3517
▁ནིཡམེཏྭཱ	-11.3518
▁ཏཏྟཀཾ	-11.3518
▁ཨསམྨིསྶ	-11.3518
▁བྷཎྜཱགཱརིཀ	-11.3519
▁ཐོཀ	-11.3519
▁ཀུཊྚ	-11.3519
སཉྪནྣཱ	-11.3519
ཱཏིཀྐནྟ	-11.3519
▁སཧཱཡོ	-11.352
▁ནབྷ	-11.352
▁ཧརཎ	-11.3521
▁པཊིབལོ	-11.3522
▁ཨནིདསྶནོ	-11.3523
ཏཱཝསེན	-11.3523
དྷེཡྻ	-11.3524
▁ཝནྡི	-11.3526
▁ཨཔུཉྙ	-11.3526
▁པཱསཾསོ	-11.3526
▁པེསེསི	-11.3527
ཏྟཡེ	-11.353
▁ཝིརཱཛ	-11.353
▁ཀོདྷནོ	-11.353
▁ཨསེས	-11.3531
གེཧེ	-11.3531
ིཉྫ	-11.3531
▁དསམཾ	-11.3531
ྲ	-11.3533
ཡཱཔི	-11.3533
▁ཨག	-11.3536
▁པཊིཝིརཏཱ	-11.3536
▁མུགྒ	-11.3537
ེཔི།	-11.3539
▁ཛནཱནཾ	-11.3539
▁ཨཔཱཡེསུ	-11.354
▁ཏཧཾ	-11.354
▁སམེན	-11.3543
▁བྷཝིཏབྦནྟི	-11.3543
▁ཨབྷིབྷཱུཏོ	-11.3543
▁གཎྛི	-11.3544
▁གཱམཱ	-11.3545
▁ཙཏྟཱརོཔི	-11.3545
▁ཝིཉྙཱཔན	-11.3545
▁ནིརཱ	-11.3547
པརིཝུཏ	-11.3549
▁ཨཱཔཛྫནྟི	-11.3551
▁ཁནྡྷཀ	-11.3554
▁ཛཱནནྟི།	-11.3555
སམྦཱདྷ	-11.3556
▁བཱརཱཎསིཾ	-11.3557
ཙཏཱུཧི	-11.3557
▁དྷམྨཱརམྨཎ	-11.3557
▁པིསུཎ	-11.3557
རཱུཔཱནཾ	-11.3559
▁ལཧུཾ	-11.356
▁ཀཏམེསཾ	-11.3561
▁ཨཏིམཱན	-11.3562
▁ཨུཔཝད	-11.3568
ཨནེཀ	-11.3568
▁པསཱདཾ	-11.3568
▁ཧེཏ	-11.3569
▁ཨུཔཱཡོ	-11.357
▁ཨནདྷི	-11.357
ཝིཙིཀིཙྪཱ	-11.3571
ིཏུམྤི	-11.3571
▁ཛཙྩནྡྷ	-11.3571
▁ཏབྦྷཱཝ	-11.3571
▁དམིལ༹	-11.3571
▁སོདྷེཏྭཱ	-11.3571
▁པསཾསཱ	-11.3572
▁ཨནིཡཏཱ	-11.3572
▁ཝཝཏྠིཏ	-11.3572
▁ཙེས	-11.3573
▁ཝཙཱིདུཙྩརིཏ	-11.3573
▁པཊིཧཉྙ	-11.3575
དཱཧ	-11.3575
▁མཱཏིཀཾ	-11.3576
▁ཝཊྚདུཀྑ	-11.3577
▁བཱརཱཎསི	-11.3578
▁སབྷཱཝེན	-11.3579
ཱདིཀསྶ	-11.358
ཀརཎཏྠཾ	-11.358
▁ཨཊྛཾསུ།	-11.358
གྷརེ	-11.3581
དུཀྑཱ	-11.3582
▁གནྠཝིཔྤཡུཏྟ	-11.3582
▁ཝཙསཱ	-11.3583
▁པཱིཋཾ	-11.3583
▁སདེཝམནུསྶཱཡ	-11.3583
▁མེསོ	-11.3583
སམཱཔནྣ	-11.3584
བྷཱུཏཏྟཱ	-11.3585
ཀྐཱ	-11.3586
ཀཱཡེན	-11.3588
▁ཛཱཏོཏི	-11.359
▁གམིསྶཏི	-11.3591
▁ཨཛྫཏགྒེ	-11.3591
▁ཝིསུཛ྄ཛྷ	-11.3591
▁པིསཱཙ	-11.3591
▁ཨབྦྷུཏོ	-11.3591
▁སགྷཱནཀཱན	-11.3593
མེཝེཏཾ	-11.3594
▁གིར	-11.3595
▁སནྡིཊྛིཀཾ	-11.3595
▁ཨུཔཱདཱནིཡ	-11.3598
སྶཱས	-11.3599
▁དཱརཀོ	-11.3599
དྡས	-11.3601
བྷཱཛ	-11.3602
▁ཨཱརཀྑཾ	-11.3602
ཱིཡིཏྠཱཏི	-11.3603
▁མཡཱུར	-11.3603
▁ཨཱཀངྑཏི	-11.3603
▁ཙརིམ	-11.3604
སམྦྷཝཱ	-11.3604
སཎྛ	-11.3607
▁སཱཏིསཡ	-11.3607
▁ཝིཏྟ	-11.3607
▁མཧཱཐེརོ	-11.3608
▁ཛེཊྛོ	-11.3609
ཊྛཱནིཡ	-11.3609
▁ཝིཀཔྤན	-11.3611
ཝེཝཙན	-11.3612
དཱིཔནཏྠཾ	-11.3613
▁པསཾསནྟི	-11.3614
ཝིསེསན	-11.3614
▁ཨདྷིཊྛ	-11.3614
▁ཛྷཱཔ	-11.3614
▁ཨཱལ༹ཝཀ	-11.3614
▁རཱགཱདཡོ	-11.3617
པེཏཝཏྠུ	-11.3618
ོཊ	-11.3618
▁དེམཱ	-11.3618
▁ཝསྶིཀ	-11.3618
སམྤནྣསྶ	-11.3618
▁པཉྙཱབལཾ	-11.3619
ཱདྷིཔཏེཡྻ	-11.362
▁༢༤༤	-11.362
▁སབྷིཀྑུཀཱ	-11.3621
▁དཱཋ	-11.3622
▁ཨཊྛུཔྤཏྟི	-11.3623
▁པཊིཔྤསྶདྡྷ	-11.3624
▁ཨཱཔཱཡིཀ	-11.3624
ཝིཙཱརོ	-11.3624
▁ནཱིཝརཎེ	-11.3626
▁ཨཱསེཝ	-11.3626
▁པཊྚ	-11.3626
བྷིཀྑཝོ	-11.3627
བྷིཀྑཝེ	-11.3627
ཝཏྠཱུ	-11.3628
བྷཱཛནཱིཡ	-11.3629
▁ཝཎྞནཱ	-11.3629
ཱཝཧཱར	-11.363
ནཀྑཏྟ	-11.3632
▁པརིཔ	-11.3632
▁ཨནུཔྤནྣཱནཾ	-11.3632
ནི།	-11.3633
མསྶཱཏི	-11.3636
དུཀྑསྶ	-11.3638
▁དེཝམནུསྶ	-11.3639
▁ཨཏྠཏཀཐིན	-11.364
▁ནཨཱསེཝནཔཙྩཡཱ	-11.364
▁ཀུསལེཧི	-11.364
ནུཔུབྦ	-11.364
▁རཱུཔེསུ	-11.3641
▁ཨཉྙདཏྠུ	-11.3641
▁སཱུཙ	-11.3642
ཙཱིར	-11.3642
▁ནིལཱིཡ	-11.3644
▁ཛིཝ྄ཧཱསམ	-11.3645
▁སེམྷ	-11.3646
ཱདེསཱ	-11.3646
པྤབྷེདཾ	-11.3649
▁ཛྷཱནེན	-11.3651
▁ཀརཎཱིཡཱ	-11.3651
བཧུཝཙན	-11.3653
▁ཡཱཔེཏི	-11.3655
ཨཡ	-11.3655
▁ཨརིཡཝཾས	-11.3655
▁བཧུཏརཾ	-11.3656
▁ཀུསལཝིཔཱཀ	-11.3658
ནནྡཱི	-11.3659
▁ཨཱཡཏནེཧི	-11.3659
▁སིཁཱི	-11.3661
▁སཾཝིཛྫཏི	-11.3661
▁སལཀྑཎ	-11.3662
ཏིཨཱདཱིནཾ	-11.3664
སཎྛཱནཾ	-11.3665
▁མཙྪོ	-11.3666
ཱཡནྟི	-11.3667
▁ལོམཱ	-11.3669
▁ཨཱནིསཾསཱ	-11.3669
▁གཎྷཐ	-11.367
ཛནོ	-11.367
▁ཨདྷམྨཾ	-11.367
པདེསོ	-11.367
▁ཨོཝདིཏྭཱ	-11.3671
▁ཝིཧ	-11.3672
▁ཨཱཡཱཙ	-11.3672
ཀིལེསོ	-11.3672
བྷཱུཏཱནི	-11.3673
▁ཝཏྠཱུཧི	-11.3674
▁པུརཀྑཏོ	-11.3675
▁སམཱུཧོ	-11.3676
སངྐཔྤ	-11.3676
▁ཝིཙིཀིཙྪཱསཧགཏཾ	-11.3677
ངྐཱར	-11.3677
ཝིཝརཎ	-11.3679
ངྐོ	-11.368
▁ཨནིཙྩཱནུཔསྶནཱ	-11.3681
▁གརུབྷཎྜཾ	-11.3682
▁ཨཀཔྤིཡཾ	-11.3683
▁ཨནུཔསྶཏི	-11.3684
▁ཨིཙྪཱཡ	-11.3686
▁ཁེཏྟེ	-11.3686
▁མཱརཾ	-11.3687
སུཁེན	-11.3688
ཏིཨཱདིནཱ།	-11.3689
▁ཨུདྡ	-11.369
▁མནྟི	-11.3691
▁སམནུབྷཱསན	-11.3691
བིམྦ	-11.3692
ཙཏུར	-11.3692
▁ཨངྐུར	-11.3696
ཀུཊྚ	-11.3697
▁པུཊྛ	-11.3701
▁སེསོ	-11.3702
▁མཏེ	-11.3702
▁ནནྡིཡ	-11.3703
▁ཡུཏྟཾ།	-11.3705
▁སཾཝེཛ	-11.3705
▁པཋནྟི	-11.3705
▁ཨཛ྄ཛྷོས	-11.3705
སམཱདྷཱི	-11.3706
▁པཉྷསྶ	-11.3707
སྭཱཀྑཱཏ	-11.3708
▁ཨུཔྤཛྫནཏོ	-11.3708
▁གཱཐཱདྭཡམཱཧ	-11.3709
སཾཀིལེསིཀོ	-11.3709
ཱམཱཏི	-11.3709
▁སཏྟརཏནསམྤནྣོ	-11.3709
▁སཎིཀཾ	-11.3709
ཨིཙྪ	-11.3709
▁དུཀྑསྶནྟཀརོ	-11.371
▁སུཏྟཔད	-11.3711
▁ཨུཔཔཏྟིཀྑཎེ	-11.3712
▁ཀུཏོཙི	-11.3712
མཎ	-11.3714
སཱརཱི	-11.3714
▁ཨསཉྙཱི	-11.3716
▁ཨསྶདྡྷ	-11.3717
གོཙརཱ	-11.3717
▁ཨནུསྶཏི	-11.3717
▁ཏིཊྛཏུ	-11.3717
▁ཨོཔཔཱཏིཀ	-11.3718
▁མཱཏུཡཱ	-11.3719
▁དྷི	-11.3723
▁ཀུདྡྷོ	-11.3723
▁མེགྷོ	-11.3723
ཚཊྛ	-11.3724
▁ཀུཛ྄ཛྷིཏྭཱ	-11.3725
▁ཨིཙྪཱམི	-11.3725
དྡྷཾ	-11.3725
▁པུབྦཱ	-11.3727
▁ཨནོཏྟཔྤ	-11.3727
ཀོཝིདོ	-11.373
▁ཝོཊྛབྦན	-11.3732
▁ཛཧཏཱིཏི	-11.3732
ནིརོདྷགཱམིནཱི	-11.3733
ཱདིཀཐཱ	-11.3734
▁སབྦལོཀེ	-11.3735
མཙྪརིཡ	-11.3735
▁མེད	-11.3737
▁ཀུཧཀ	-11.3738
ཌི	-11.3738
▁དྷེནུ	-11.3739
▁ཝོདཱནསྶ	-11.3742
▁ཀཐེནྟི	-11.3742
▁ཨཱཀོཊ	-11.3743
▁ཀིཏྟཀ	-11.3743
▁ཋིཏཱ།	-11.3744
མུཏྟམཾ	-11.3745
▁ཛཧནྟི	-11.3746
▁ཝདནྟཱིཏི	-11.3746
▁བྷགཝནྟོ	-11.3748
▁ཨཊྛཝཱིསཏི	-11.3748
▁ཝིཝེཀཛཾ	-11.3748
▁ཨསྶཱདཉྩ	-11.3749
▁སོཏཱཔནྣསྶ	-11.3749
ནཱཀཱརོ	-11.3749
བྷབྦ	-11.3753
▁མགྒོ།	-11.3755
▁ཝལ༹ཉྫ	-11.3755
ཨིཊྛ	-11.3756
▁ཙརཏི།	-11.3757
ུཾ༎	-11.3759
ཀིཉྩ	-11.376
▁ནིསྶ	-11.3761
རཏྟིཾ	-11.3764
▁ཀཐིནུདྡྷཱར	-11.3765
▁ཨདོས	-11.3766
▁སམྨཱཔཊིཔཏྟི	-11.3767
▁ཀཧཾ	-11.3769
ཏིཀྐམ	-11.377
▁བྲཧྨཱནཾ	-11.3771
ཀིསྶ	-11.3772
▁ཨཔཙྩཾ	-11.3772
▁བྷཱཛནཾ	-11.3774
▁པཙྪི	-11.3774
▁པཝཏྟམཱནཾ	-11.3775
▁སེནཀ	-11.3776
ཀསཱཝ	-11.3776
ཱཝཧཾ	-11.3776
ནལཀྑཎཱ	-11.3777
▁ཏཱདིནོ།	-11.3778
▁སཱམཏྠིཡ	-11.3779
▁པཙྩུཔྤནྣཱརམྨཎ	-11.3779
སསྶཏོ	-11.3779
▁མཧགྒཏཱ	-11.3779
▁ནིདྡྷཱརེཏྭཱ	-11.378
▁ཛཱཏསྶ	-11.378
པཱུཛཱ	-11.3781
▁བུདྡྷཱནུསྶཏི	-11.3781
▁སཙྪིཀཏ	-11.3782
▁ཏཙོ	-11.3785
མྷེ	-11.3786
▁ཙིཏྟཱ	-11.3786
▁ཀརོམ	-11.3787
ཀཐིན	-11.3787
▁ཨུམྨཱད	-11.3788
▁ནིདྡིཊྛཾ	-11.3788
▁ཝཌྜྷན	-11.3789
▁སུཝིབྷཏྟ	-11.379
▁དཎྜོ	-11.3791
▁དཱནཱནི	-11.3792
▁ཨུཔགྷཱཏ	-11.3793
▁པཱཔུཎི	-11.3793
▁དཱིཔངྐར	-11.3794
དིཝསཾ	-11.3797
▁ཨཀཱརནྟ	-11.3798
མཉྙཱཡ	-11.3798
ིཡམཱནསྶ	-11.3801
ནྣོ	-11.3801
དསྶནེ	-11.3802
ཏུནྣ	-11.3802
▁ཨདྷིཊྛཱཏི	-11.3804
▁སོཝཎྞ	-11.3805
▁སམཱིཔ	-11.3805
▁མནུཛ	-11.3805
པཉྙཾ	-11.3806
སེཝནཱ	-11.3807
▁དསྶེཏབྦ	-11.3807
▁ཙལན	-11.3808
ཨུཏྟར	-11.3809
ཝཱིཐིཡཾ	-11.381
▁ཨཱདྷིཔཏེཡྻ	-11.381
▁གཧེཏབྦཱ	-11.3811
▁ནིརནུསཡོཏི	-11.3811
སམྦནྡྷོ	-11.3811
ཱནཱིཏི།	-11.3813
▁༢༦༤	-11.3814
▁པཊིབདྡྷ	-11.3815
ནིརཡ	-11.3815
▁ཨགཱ	-11.3816
ཧཏྠཾ	-11.3816
▁ཧོནྟཱིཏི།	-11.3816
▁སུབྷཱ	-11.3817
པརཱདྷ	-11.3819
▁པཊིཔནྣསྶ	-11.3823
▁༢༦༥	-11.3824
▁ཨོཀིར	-11.3825
▁པརིཔུཎྞོ	-11.3826
ཨེཝརཱུཔ	-11.3827
▁པརིཡེསན	-11.3828
▁ཨཱགམིསྶཏི	-11.3829
▁ཐཱུཔཾ	-11.3829
▁ཨཧཉྷི	-11.383
▁ཝཏྠུཔུརེཛཱཏཾ།	-11.3831
▁སཏསཧསྶཾ	-11.3831
ུཔཊྛ	-11.3834
▁ཨེཝམཡཾ	-11.3835
གོཙརེ	-11.3838
བྷཝན	-11.3839
▁ཕརུསཱ	-11.3839
ཧཏཱ	-11.384
ཛ྄ཛྷཱནཾ	-11.3842
སངྑཱརོ	-11.3844
བྷེརི	-11.3846
▁ཨསེཀྑོ	-11.3846
▁ནེསོཧམསྨི	-11.3848
▁པསྶསིསྶཱམཱི	-11.3848
▁ཝིསྶུཏོ	-11.3848
▁ཨུམྨཏྟིཀཱཡ	-11.3848
▁སཝིཏཀྐསཝིཙཱར	-11.3849
རཧིཏོ	-11.385
▁ཨནནུཉྙཱཏ	-11.385
ཝེཋན	-11.3851
▁པོསེ	-11.3852
▁པཊིཙྩསམུཔྤནྣ	-11.3852
ལེཎ	-11.3853
▁ཡེབྷུཡྻ	-11.3853
▁ཧིམ	-11.3854
རཾ།	-11.3854
▁པཎྜ	-11.3855
▁ཝེལཱཡཾ	-11.3855
སངྑྱཱ	-11.3855
▁ཨོཏཱརེཏྭཱ	-11.3856
▁ཨངྒཔཙྩངྒ	-11.3858
▁པཉྩཧཱཀཱརེཧི	-11.3858
▁༢༤༨	-11.3859
▁ཝིཛམྦྷ	-11.3859
▁ཝིཉྙཱཡཏཱིཏི	-11.386
སཧཱཡོ	-11.3861
▁མཧཱཡས	-11.3861
▁ཝདེཡྻ།	-11.3862
པརམཏྠ	-11.3862
▁རཀྑཎ	-11.3862
▁ཚདྡནྟ	-11.3862
▁མམ།	-11.3863
ཝཱརེན	-11.3864
▁ཨེདིསོ	-11.3866
▁ལེཌྜུ	-11.3867
ཝིརཧིཏཱ	-11.3867
▁ཏེནུཔསངྐམ	-11.3867
སནེ	-11.387
▁པཱིཏིསཧགཏ	-11.3871
ཨཱཔཏྟི	-11.3872
སཏསཧསྶཱནི	-11.3872
མཱནསཾ	-11.3873
▁ཏདཏྠཾ	-11.3873
▁སཀྑར	-11.3874
▁སུཁསཧགཏཱ	-11.3876
▁པཝརོ	-11.3876
▁ཝིནཊྛ	-11.3876
སངྑཱརཱ	-11.3876
▁ཛྷཱནཱནཾ	-11.3878
▁ཨཱལཔ	-11.3878
▁ཨདིནྣ	-11.3879
▁གནྡྷེ	-11.3879
▁ཧིཏསུཁ	-11.3879
སུམན	-11.3879
ཙྪཱཡ	-11.388
དེཝཱ	-11.3881
▁སཏྟལོཀ	-11.3881
▁༢༦༣	-11.3882
▁བྷིཀྑུནོ།	-11.3882
▁ཨིཙྪསི	-11.3883
▁པཎྜིཏཱནཾ	-11.3883
▁ནེཝསེཀྑནཱསེཀྑོ	-11.3885
▁ཝགྒོ།	-11.3886
▁སཱིལཉྩ	-11.3886
▁དྷཉྙཾ	-11.3887
▁ཕརཏི	-11.3887
པཱལི༹ཡཱ	-11.3888
▁སཾཝརཱཡ	-11.3888
▁ཛནཡ	-11.389
▁མཧཱཀསྶཔཏྠེར	-11.389
སངྒྷཱཏ	-11.3891
ཱརོཔན	-11.3891
▁ཀནྡར	-11.3891
པཱཙིཏྟིཡ	-11.3892
▁ནིཔཀོ	-11.3892
▁པཊིཙྪནྣཱ	-11.3893
▁ཨདྷིཝཱསན	-11.3894
ེཏབྦོཏི	-11.3894
དྡྷཛ	-11.3897
ལཊྛི	-11.3901
▁པལོབྷ	-11.3901
▁ཨཱཝཱསིཀ	-11.3902
▁ཝིཀྑམྦྷ	-11.3903
▁སིམྷི	-11.3906
▁ནིཝཱསེ	-11.3907
▁སཝིཙཱརཾ	-11.3907
▁སེཁིཡ	-11.3908
དསྶི	-11.391
▁ཁཱིཎཱསཝཱནཾ	-11.391
▁ནིཊྛ	-11.3912
▁མནུསྶལོཀ	-11.3914
▁སཱམཉྙཾ	-11.3914
ལོཔེ	-11.3915
▁སཎྛཔ	-11.3917
▁མཱཏཱཔིཏཱུཧི	-11.3918
▁པདཙྪེདོ།	-11.3918
▁པནཱནིཙྩཾ	-11.3918
▁མིགདཱཡེ	-11.3918
▁ཐུལླ	-11.3919
▁ཏཏུཏྟརི	-11.3919
▁མིཏྟཱམཙྩ	-11.3919
▁པུརཀྑཏྭཱ	-11.392
▁ཨརིཡཀནྟ	-11.392
▁གཙྪཐ	-11.3921
▁སཎྛཧ	-11.3921
▁ཝུཏྟམེཝཏྠཾ	-11.3921
▁ཛརཾ	-11.3921
ཙེཏིཡཾ	-11.3921
བྷཱུམཀ	-11.3922
▁ཏསྨིམྤི	-11.3922
▁སོཏུཾ	-11.3923
▁རཏྟིནྡིཝ	-11.3923
ཝཡཝ	-11.3923
▁ཨམཱུ	-11.3924
▁པརམཏྠོ	-11.3924
▁སཱགརོ	-11.3924
▁སུམནཱ	-11.3924
སམུཛྫལ	-11.3926
▁གོཏམཱི	-11.3926
▁ཨེཀཏྟཾ	-11.3927
ཝཏཾ	-11.3927
▁པརམྨུཁཱ	-11.3928
▁མིཙྪཏྟ	-11.3928
▁ནིརུདྡྷེ	-11.393
-‘	-11.3931
▁སཱཊཀ	-11.3932
ཱལི	-11.3932
▁ཨཱཎཱཔེཏི	-11.3933
▁ཝཱདིཏ	-11.3934
▁དུཔྤཉྙ	-11.3934
སིངྒ	-11.3935
▁ཝེཔུལླ	-11.3936
▁ནིགྒ	-11.3937
▁པིཡརཱུཔཱ	-11.3941
▁སཱཝསེས	-11.3941
▁ཨཱཀིཎྞ	-11.3942
སེ།	-11.3943
▁ཨུཔཔནྣ	-11.3943
མུགྒ	-11.3944
▁སམནནྟར	-11.3946
▁མེགྷིཡ	-11.3947
▁ཨཏྠུདྡྷཱར	-11.3948
ཱདིབྷེདེ	-11.3948
▁ཀཱམགུཎེསུ	-11.3949
▁རཱགཱདཱིནཾ	-11.395
▁ཡཱཙིཏབྦ	-11.3952
▁དིསྶམཱན	-11.3952
པརཱཡཎོ	-11.3953
པཱུཛཾ	-11.3955
ཁོ	-11.3956
བྷཱུམ	-11.3958
ཝཱིཐིཡཱ	-11.3959
▁ཨཔཙ	-11.396
▁ཨེཀཱདསཧི	-11.396
▁ཏཎྷཱཔཙྩཡཱ	-11.3961
མཱནས	-11.3961
ཙརིཏོ	-11.3962
པརཱ	-11.3963
▁ནིབྦཱནཱརམྨཎ	-11.3964
▁ལོམཾ	-11.3965
▁ནཱཊཀ	-11.3965
ིསྶརིཡ	-11.3965
གྒཧཎཾ།	-11.3966
▁པུརིམཱནི	-11.3967
▁སཱལཱ	-11.3967
▁མུདིཏ	-11.397
ཝལླི	-11.3971
▁དཱིཔཡ	-11.3971
▁པརིཙྪིནྡ	-11.3973
▁ཏིཊྛནྟ	-11.3974
▁ཀཐིནེ	-11.3975
▁ཧིམཝནྟཾ	-11.3975
ཛེགུཙྪ	-11.3978
▁ཛཱིཝིཏཀྑཡཾ	-11.3978
གཱམཀེ	-11.3978
ཙརིཏསྶ	-11.3979
པྤིཡ	-11.398
ཨབྷིཀྐནྟཾ	-11.3981
▁གཎབྷོཛན	-11.3981
▁པཱདཀཾ	-11.3981
▁ཏཱཝདེ	-11.3983
སདྡྷོ	-11.3984
▁པཛཱནཱཏཱིཏི	-11.3984
པརིགྒཧིཏ	-11.3987
ིསྶརོ	-11.3987
▁མཡཱ།	-11.3988
▁པརིཏྟཱརམྨཎ	-11.3989
▁པིངྒིཡ	-11.3989
▁ནཝིཔཱཀཔཙྩཡཱ	-11.399
▁བྷིཀྑུནུཔསྶཡ	-11.399
▁ཝིཀཱལབྷོཛན	-11.3991
▁ནཱིཝརཎཝིཔྤཡུཏྟ	-11.3991
▁ཨདྷིསཱིལསིཀྑཱ	-11.3992
ཨཧམྤི	-11.3992
▁ཨབྷིནིཝེསོ	-11.3993
▁སཱཏརཱུཔཾ	-11.3994
▁བྷདྡནྟེ	-11.3994
▁ཝསྶཱུཔནཱཡིཀ	-11.3994
▁ནིདྡྷཱརིཏ	-11.3995
▁ཨེཏཱསཾ	-11.3996
པཡོགོ	-11.3996
▁ཝིནཱིཝརཎ	-11.3997
▁ཨལངྐརིཏྭཱ	-11.3997
▁ནད	-11.3999
▁ཀིཏྟིསདྡོ	-11.4
▁ཨནུསནྡྷིཾ	-11.4001
▁པརིཝིཏཀྐོ	-11.4003
ེསྭེཝ	-11.4003
▁མཧཱཀརུཎཱ	-11.4007
▁ཨཔརནྟ	-11.4007
▁ཋཱནསོ	-11.4008
▁སཾཀིལེསིཀ	-11.4009
▁ཏཱཝཏིཾསཱ	-11.401
མིད	-11.401
ུཔྤཱདཱ	-11.4012
▁ཨསྶུཏཝཱ	-11.4012
▁ཝནསཎྜེ	-11.4013
▁ཨོཔམྨ	-11.4014
▁ཝཡཾ	-11.4015
པྤདེས	-11.4015
ུཀྐཊྛ	-11.4017
ཡཱཙ	-11.4017
▁ནིཙྪར	-11.4019
▁༢༤༦	-11.4021
▁ཀཎིཀཱར	-11.4022
▁ཨབྱཱཀཏཱ།	-11.4023
ནཏྠོ	-11.4023
▁པེཏཱ	-11.4023
▁པཱཔཱནི	-11.4024
▁ཏདྡྷིཏ	-11.4024
▁ཀམལ	-11.4026
▁པཀྐཱམི	-11.4026
▁བྷཝིསྶནྟཱི	-11.4028
▁༢༤༥	-11.403
ུཔཀྐིལེས	-11.4031
སིཁཱ	-11.4031
རཛན	-11.4034
▁ཧཱརོ།	-11.4035
ཀཏིཙི	-11.4036
▁ཨནྣཾ	-11.4036
▁སཱརོ	-11.4037
ིནྡྲིཡཾ	-11.4038
▁ཝིཉྙཱཏཾ	-11.4038
▁ཏཐཱུཔམ	-11.404
ཕརུས	-11.4041
▁བྲཧྨཉྙ	-11.4042
སཾཝཙྪར	-11.4048
སཝ	-11.4049
▁ཝཱིརོ	-11.405
▁པལཱཔ	-11.405
[...]
